<pad>	0
<unk>	0
</s>	0
<sha_tkn1>	0
<sha_tkn2>	0
<sha_tkn3>	0
<sha_tkn4>	0
<sha_tkn5>	0
▁t	-0
he	-1
▁a	-2
in	-3
re	-4
▁the	-5
on	-6
▁s	-7
er	-8
▁w	-9
▁o	-10
at	-11
en	-12
▁c	-13
an	-14
it	-15
is	-16
ed	-17
▁b	-18
or	-19
es	-20
▁f	-21
ou	-22
▁p	-23
ing	-24
nd	-25
ar	-26
▁m	-27
al	-28
▁of	-29
▁d	-30
▁to	-31
▁h	-32
▁in	-33
as	-34
▁and	-35
ic	-36
le	-37
▁th	-38
om	-39
ion	-40
▁l	-41
▁n	-42
ll	-43
▁T	-44
ent	-45
▁I	-46
▁e	-47
st	-48
▁re	-49
ro	-50
▁g	-51
▁S	-52
ve	-53
ly	-54
id	-55
ad	-56
▁be	-57
ac	-58
▁A	-59
ut	-60
ot	-61
▁he	-62
im	-63
et	-64
▁on	-65
▁C	-66
am	-67
ow	-68
se	-69
ig	-70
ay	-71
ur	-72
ld	-73
▁that	-74
▁u	-75
▁for	-76
▁M	-77
ver	-78
▁y	-79
▁is	-80
ir	-81
▁st	-82
▁was	-83
ct	-84
▁B	-85
il	-86
ith	-87
▁it	-88
▁The	-89
▁H	-90
ol	-91
▁as	-92
ch	-93
ce	-94
ter	-95
▁wh	-96
▁"	-97
▁P	-98
ation	-99
▁with	-100
▁1	-101
▁de	-102
▁we	-103
▁an	-104
▁you	-105
▁W	-106
ri	-107
▁D	-108
her	-109
▁(	-110
ke	-111
and	-112
▁R	-113
ra	-114
▁at	-115
ill	-116
▁con	-117
▁se	-118
if	-119
us	-120
▁F	-121
ge	-122
ul	-123
ht	-124
▁L	-125
ers	-126
ist	-127
od	-128
pp	-129
est	-130
os	-131
qu	-132
▁2	-133
un	-134
em	-135
▁G	-136
ore	-137
▁N	-138
um	-139
rom	-140
▁v	-141
th	-142
▁r	-143
▁ha	-144
ate	-145
el	-146
▁E	-147
▁his	-148
▁com	-149
ain	-150
op	-151
ant	-152
▁pro	-153
res	-154
ould	-155
ab	-156
ess	-157
▁ne	-158
▁or	-159
▁not	-160
▁by	-161
▁al	-162
▁J	-163
▁from	-164
ie	-165
▁ex	-166
▁are	-167
ight	-168
oc	-169
red	-170
▁sh	-171
▁su	-172
▁le	-173
art	-174
▁O	-175
ity	-176
nt	-177
ort	-178
▁k	-179
all	-180
ive	-181
▁had	-182
ard	-183
▁ch	-184
pe	-185
ust	-186
▁have	-187
ment	-188
end	-189
▁her	-190
iv	-191
▁sa	-192
ies	-193
ack	-194
out	-195
our	-196
ok	-197
oug	-198
▁this	-199
▁j	-200
ast	-201
ak	-202
▁ab	-203
ag	-204
▁me	-205
ome	-206
▁pl	-207
ud	-208
ap	-209
▁do	-210
▁but	-211
ich	-212
te	-213
▁go	-214
ally	-215
▁wor	-216
ost	-217
."	-218
▁20	-219
▁whe	-220
ound	-221
ong	-222
▁all	-223
▁K	-224
ide	-225
▁they	-226
▁_	-227
▁were	-228
▁In	-229
ous	-230
▁U	-231
ear	-232
▁He	-233
▁19	-234
▁out	-235
ine	-236
▁ar	-237
ure	-238
▁tr	-239
ia	-240
▁she	-241
ame	-242
pt	-243
ber	-244
ther	-245
ans	-246
▁so	-247
▁who	-248
one	-249
▁can	-250
▁up	-251
▁said	-252
▁un	-253
ff	-254
ind	-255
▁qu	-256
to	-257
▁en	-258
▁their	-259
ip	-260
▁Th	-261
ial	-262
▁one	-263
▁has	-264
ice	-265
ough	-266
og	-267
ated	-268
ook	-269
▁cl	-270
ne	-271
ions	-272
ike	-273
are	-274
age	-275
▁him	-276
au	-277
▁would	-278
pl	-279
▁my	-280
act	-281
iz	-282
ime	-283
▁which	-284
ry	-285
ace	-286
ue	-287
▁ad	-288
▁It	-289
▁im	-290
ass	-291
▁man	-292
av	-293
▁will	-294
ary	-295
ep	-296
▁“	-297
▁us	-298
▁more	-299
▁V	-300
▁Ch	-301
ake	-302
ub	-303
▁about	-304
▁te	-305
▁St	-306
▁ag	-307
▁been	-308
cc	-309
per	-310
very	-311
▁Y	-312
ire	-313
ian	-314
ven	-315
▁them	-316
**	-317
▁sp	-318
▁cont	-319
own	-320
▁fe	-321
ord	-322
ite	-323
ond	-324
ose	-325
▁comp	-326
▁off	-327
ib	-328
so	-329
ign	-330
▁your	-331
▁no	-332
hed	-333
ish	-334
able	-335
▁like	-336
ru	-337
ress	-338
▁into	-339
mer	-340
cl	-341
ical	-342
▁per	-343
ect	-344
▁other	-345
▁'	-346
ick	-347
▁over	-348
,"	-349
▁there	-350
ence	-351
ach	-352
ile	-353
▁ro	-354
▁pe	-355
▁dis	-356
ays	-357
ance	-358
▁res	-359
▁kn	-360
▁some	-361
▁3	-362
▁when	-363
wn	-364
ult	-365
▁tw	-366
fter	-367
▁what	-368
ang	-369
▁part	-370
orm	-371
▁sc	-372
ations	-373
ory	-374
▁app	-375
▁bec	-376
uc	-377
▁time	-378
ks	-379
ree	-380
ens	-381
ction	-382
ount	-383
ren	-384
▁could	-385
▁201	-386
ove	-387
▁any	-388
reat	-389
▁gr	-390
ade	-391
00	-392
▁also	-393
irst	-394
▁la	-395
▁if	-396
int	-397
▁year	-398
▁than	-399
ings	-400
▁its	-401
ood	-402
we	-403
▁–	-404
ark	-405
▁|	-406
▁bl	-407
sel	-408
rit	-409
ov	-410
▁des	-411
▁did	-412
fe	-413
urn	-414
▁pr	-415
▁und	-416
ase	-417
ople	-418
▁pre	-419
ink	-420
▁co	-421
▁just	-422
▁rec	-423
vel	-424
▁back	-425
ild	-426
ition	-427
hing	-428
port	-429
ater	-430
▁work	-431
▁new	-432
ors	-433
▁first	-434
ict	-435
vers	-436
ft	-437
ob	-438
ious	-439
ail	-440
ons	-441
▁get	-442
erv	-443
ents	-444
▁two	-445
▁only	-446
▁fl	-447
▁people	-448
▁po	-449
amp	-450
oy	-451
itt	-452
▁after	-453
),	-454
▁She	-455
ew	-456
▁att	-457
▁our	-458
▁4	-459
hen	-460
les	-461
▁know	-462
iss	-463
anc	-464
▁again	-465
lic	-466
ause	-467
▁,	-468
▁how	-469
▁comm	-470
▁bet	-471
▁spe	-472
▁then	-473
ull	-474
▁But	-475
▁look	-476
▁am	-477
).	-478
ates	-479
fore	-480
ell	-481
▁under	-482
rough	-483
▁And	-484
man	-485
ied	-486
ph	-487
oll	-488
▁Un	-489
▁Wh	-490
form	-491
ath	-492
ec	-493
▁acc	-494
▁As	-495
ual	-496
igh	-497
▁.	-498
▁see	-499
▁This	-500
other	-501
ont	-502
▁sm	-503
ning	-504
tern	-505
ident	-506
▁act	-507
▁want	-508
▁200	-509
uch	-510
old	-511
▁pol	-512
▁through	-513
▁now	-514
ward	-515
ock	-516
▁even	-517
▁most	-518
?"	-519
▁rem	-520
ily	-521
ife	-522
ise	-523
▁5	-524
▁down	-525
self	-526
▁br	-527
▁where	-528
▁ind	-529
▁We	-530
▁play	-531
▁cons	-532
ng	-533
▁em	-534
▁**	-535
xt	-536
way	-537
▁-	-538
The	-539
▁way	-540
▁sec	-541
ier	-542
oss	-543
row	-544
▁every	-545
ought	-546
▁rel	-547
enc	-548
oth	-549
ational	-550
▁ac	-551
▁hand	-552
▁need	-553
rent	-554
clud	-555
▁before	-556
▁long	-557
▁Re	-558
▁own	-559
und	-560
▁Al	-561
ert	-562
up	-563
lect	-564
rib	-565
▁years	-566
▁call	-567
led	-568
ited	-569
omet	-570
▁inv	-571
▁An	-572
ather	-573
ty	-574
ked	-575
gr	-576
▁right	-577
ject	-578
▁made	-579
du	-580
io	-581
▁add	-582
pect	-583
▁may	-584
▁ra	-585
ating	-586
ug	-587
land	-588
▁—	-589
▁these	-590
▁don	-591
▁because	-592
aking	-593
▁make	-594
..	-595
hes	-596
▁should	-597
▁ent	-598
orn	-599
▁well	-600
▁sl	-601
▁dec	-602
▁inc	-603
ah	-604
▁tra	-605
▁think	-606
arly	-607
gan	-608
▁ph	-609
▁dif	-610
▁pres	-611
▁sur	-612
▁ev	-613
ros	-614
uring	-615
meric	-616
ange	-617
olog	-618
ower	-619
▁reg	-620
▁much	-621
▁Ar	-622
ten	-623
▁ass	-624
▁ke	-625
▁end	-626
als	-627
ful	-628
▁Mar	-629
▁Se	-630
ix	-631
oup	-632
air	-633
▁supp	-634
▁New	-635
ting	-636
▁many	-637
▁being	-638
▁bu	-639
get	-640
ener	-641
ins	-642
▁Le	-643
▁sy	-644
ave	-645
▁You	-646
▁very	-647
▁imp	-648
ative	-649
▁car	-650
▁De	-651
▁such	-652
ble	-653
▁6	-654
▁includ	-655
ism	-656
▁fin	-657
▁ob	-658
ublic	-659
az	-660
ased	-661
19	-662
▁bel	-663
ters	-664
ered	-665
ool	-666
▁op	-667
ouse	-668
▁They	-669
ics	-670
▁18	-671
▁Tr	-672
ities	-673
ible	-674
▁min	-675
ince	-676
iet	-677
▁el	-678
▁say	-679
ific	-680
ork	-681
ween	-682
iew	-683
erson	-684
▁Americ	-685
▁good	-686
▁col	-687
▁set	-688
ason	-689
▁gu	-690
▁sub	-691
▁those	-692
ms	-693
hip	-694
▁still	-695
ale	-696
ient	-697
ys	-698
ank	-699
day	-700
▁between	-701
▁ret	-702
ollow	-703
▁here	-704
vern	-705
▁Com	-706
ts	-707
▁head	-708
▁around	-709
oh	-710
ern	-711
ved	-712
pr	-713
its	-714
▁hel	-715
▁somet	-716
ared	-717
oun	-718
▁found	-719
▁start	-720
▁For	-721
▁use	-722
▁Sh	-723
▁inter	-724
▁mon	-725
▁fam	-726
▁inst	-727
.”	-728
▁last	-729
ars	-730
gg	-731
▁world	-732
▁There	-733
read	-734
▁#	-735
ump	-736
imes	-737
▁while	-738
cess	-739
▁show	-740
▁ins	-741
▁fr	-742
▁count	-743
▁cr	-744
cept	-745
▁che	-746
▁going	-747
▁against	-748
alk	-749
▁stud	-750
ments	-751
▁gl	-752
ually	-753
▁str	-754
▁If	-755
▁ter	-756
ik	-757
ck	-758
ures	-759
▁On	-760
▁7	-761
▁take	-762
▁turn	-763
uss	-764
▁life	-765
▁same	-766
▁que	-767
ces	-768
▁too	-769
▁day	-770
pped	-771
att	-772
rest	-773
▁trans	-774
▁three	-775
ness	-776
aw	-777
▁ser	-778
▁wom	-779
ner	-780
▁help	-781
▁serv	-782
▁int	-783
▁med	-784
▁point	-785
▁cent	-786
▁does	-787
▁sim	-788
▁def	-789
▁disc	-790
der	-791
oot	-792
ines	-793
ittle	-794
ues	-795
ility	-796
ek	-797
▁follow	-798
ivers	-799
arm	-800
▁8	-801
▁mem	-802
ists	-803
any	-804
ric	-805
ross	-806
▁est	-807
▁real	-808
atch	-809
ution	-810
com	-811
▁cap	-812
ular	-813
▁$	-814
ene	-815
▁eff	-816
▁num	-817
▁det	-818
▁exp	-819
▁never	-820
arl	-821
▁Fr	-822
aj	-823
▁great	-824
ret	-825
ives	-826
▁used	-827
chool	-828
▁rep	-829
▁diffe	-830
▁lead	-831
,”	-832
▁both	-833
▁10	-834
▁high	-835
ody	-836
ving	-837
▁Cl	-838
▁bro	-839
ished	-840
uth	-841
ined	-842
▁inte	-843
the	-844
▁ref	-845
me	-846
ann	-847
▁dist	-848
▁spec	-849
ever	-850
ax	-851
▁cour	-852
ton	-853
▁sign	-854
▁At	-855
ying	-856
▁prov	-857
▁Z	-858
▁Is	-859
ried	-860
▁open	-861
▁char	-862
aug	-863
▁mod	-864
▁didn	-865
▁met	-866
▁es	-867
▁find	-868
▁form	-869
stem	-870
...	-871
be	-872
thing	-873
▁dire	-874
▁read	-875
20	-876
▁lar	-877
▁pass	-878
arn	-879
▁9	-880
▁loc	-881
ames	-882
ision	-883
▁ext	-884
▁come	-885
▁199	-886
▁ed	-887
▁another	-888
▁let	-889
▁Pro	-890
▁cre	-891
▁little	-892
velop	-893
▁run	-894
ized	-895
▁child	-896
▁person	-897
▁thought	-898
▁conf	-899
▁might	-900
▁happ	-901
▁unt	-902
▁govern	-903
▁each	-904
▁seem	-905
cent	-906
ute	-907
outh	-908
ves	-909
▁cur	-910
▁something	-911
ience	-912
▁few	-913
ger	-914
▁place	-915
▁[	-916
▁bo	-917
▁got	-918
▁par	-919
▁sk	-920
▁team	-921
ash	-922
que	-923
▁Be	-924
▁men	-925
▁art	-926
▁ey	-927
000	-928
ina	-929
▁feel	-930
ted	-931
▁put	-932
ices	-933
▁When	-934
▁during	-935
akes	-936
▁cle	-937
ced	-938
▁told	-939
▁Q	-940
▁left	-941
son	-942
▁mar	-943
▁away	-944
ling	-945
ants	-946
▁old	-947
▁That	-948
▁gener	-949
ense	-950
▁report	-951
ged	-952
ral	-953
riend	-954
ets	-955
▁soc	-956
▁av	-957
▁fil	-958
▁Ind	-959
▁second	-960
con	-961
ait	-962
ield	-963
▁dep	-964
▁care	-965
▁until	-966
▁exper	-967
ways	-968
▁fact	-969
▁et	-970
▁rest	-971
less	-972
ages	-973
min	-974
▁expl	-975
▁home	-976
duc	-977
▁inf	-978
▁contin	-979
▁Ad	-980
ention	-981
ung	-982
▁Sc	-983
▁del	-984
osed	-985
▁How	-986
ired	-987
▁small	-988
hat	-989
▁came	-990
▁poss	-991
▁dem	-992
ex	-993
▁bus	-994
med	-995
.'	-996
iness	-997
▁hum	-998
▁system	-999
▁group	-1000
▁beh	-1001
▁polit	-1002
▁must	-1003
▁since	-1004
uck	-1005
▁leg	-1006
▁public	-1007
orth	-1008
▁belie	-1009
ohn	-1010
ically	-1011
▁without	-1012
▁Bl	-1013
ised	-1014
▁z	-1015
▁develop	-1016
▁took	-1017
▁offic	-1018
▁called	-1019
ane	-1020
ury	-1021
ature	-1022
▁mov	-1023
▁*	-1024
alth	-1025
▁later	-1026
▁different	-1027
▁So	-1028
▁comple	-1029
ially	-1030
▁law	-1031
bers	-1032
▁book	-1033
▁state	-1034
▁best	-1035
enn	-1036
ched	-1037
ital	-1038
▁things	-1039
ize	-1040
▁four	-1041
ley	-1042
ata	-1043
▁really	-1044
▁pri	-1045
▁writ	-1046
▁cor	-1047
ats	-1048
▁quest	-1049
▁next	-1050
▁word	-1051
▁power	-1052
▁stand	-1053
▁direct	-1054
▁mil	-1055
ural	-1056
▁resp	-1057
ained	-1058
▁American	-1059
ement	-1060
▁hard	-1061
▁says	-1062
rist	-1063
rop	-1064
ird	-1065
▁var	-1066
ering	-1067
ately	-1068
▁produ	-1069
▁ide	-1070
▁support	-1071
▁John	-1072
▁adv	-1073
▁tell	-1074
▁commun	-1075
▁Gr	-1076
▁import	-1077
▁Sp	-1078
arch	-1079
▁partic	-1080
iving	-1081
▁Ph	-1082
▁hist	-1083
iversity	-1084
ened	-1085
here	-1086
▁went	-1087
co	-1088
▁government	-1089
▁main	-1090
▁war	-1091
▁All	-1092
▁opp	-1093
ably	-1094
▁mat	-1095
ott	-1096
▁pop	-1097
▁always	-1098
ron	-1099
▁requ	-1100
ertain	-1101
▁water	-1102
,000	-1103
▁friend	-1104
0.	-1105
▁school	-1106
▁sw	-1107
ided	-1108
▁month	-1109
▁keep	-1110
▁val	-1111
illion	-1112
▁mark	-1113
ract	-1114
▁build	-1115
▁His	-1116
▁Con	-1117
▁vis	-1118
▁far	-1119
▁name	-1120
▁night	-1121
▁Or	-1122
▁15	-1123
▁asked	-1124
▁big	-1125
ember	-1126
.,	-1127
new	-1128
ai	-1129
▁side	-1130
▁family	-1131
gin	-1132
▁i	-1133
▁dra	-1134
You	-1135
▁return	-1136
▁game	-1137
▁rele	-1138
▁number	-1139
▁198	-1140
elt	-1141
▁ele	-1142
ived	-1143
1.	-1144
ional	-1145
iam	-1146
ruct	-1147
▁Pl	-1148
▁room	-1149
gy	-1150
▁pos	-1151
uro	-1152
sh	-1153
▁##	-1154
br	-1155
view	-1156
▁face	-1157
▁What	-1158
chn	-1159
▁top	-1160
ording	-1161
une	-1162
alf	-1163
▁list	-1164
▁air	-1165
▁const	-1166
▁full	-1167
▁dri	-1168
urs	-1169
iver	-1170
▁though	-1171
de	-1172
▁mus	-1173
app	-1174
ior	-1175
ology	-1176
ER	-1177
ently	-1178
▁Col	-1179
▁12	-1180
ured	-1181
▁(19	-1182
▁inform	-1183
ains	-1184
raph	-1185
▁Br	-1186
stand	-1187
inc	-1188
▁light	-1189
▁No	-1190
let	-1191
▁result	-1192
den	-1193
reen	-1194
▁bre	-1195
▁mom	-1196
my	-1197
▁move	-1198
▁lo	-1199
▁large	-1200
▁less	-1201
by	-1202
used	-1203
▁allow	-1204
▁including	-1205
▁better	-1206
oney	-1207
▁contro	-1208
gram	-1209
ream	-1210
atic	-1211
ister	-1212
▁prom	-1213
▁pat	-1214
▁ve	-1215
▁To	-1216
▁enough	-1217
▁Trump	-1218
ides	-1219
1,	-1220
ians	-1221
▁Eng	-1222
side	-1223
▁camp	-1224
▁May	-1225
▁eyes	-1226
iven	-1227
▁fun	-1228
▁17	-1229
▁er	-1230
▁house	-1231
▁ty	-1232
▁class	-1233
▁prof	-1234
aim	-1235
▁along	-1236
ple	-1237
▁week	-1238
mber	-1239
rence	-1240
It	-1241
inal	-1242
▁sing	-1243
▁ann	-1244
▁&	-1245
lish	-1246
▁Ro	-1247
▁lot	-1248
▁iss	-1249
▁dr	-1250
urch	-1251
▁York	-1252
▁thing	-1253
▁interest	-1254
▁eas	-1255
▁invest	-1256
most	-1257
▁United	-1258
▁proble	-1259
ued	-1260
ator	-1261
▁land	-1262
▁After	-1263
We	-1264
sc	-1265
▁One	-1266
▁fore	-1267
▁himself	-1268
aps	-1269
▁||	-1270
▁young	-1271
▁past	-1272
▁sol	-1273
▁looked	-1274
▁country	-1275
▁women	-1276
ready	-1277
▁post	-1278
▁days	-1279
▁stat	-1280
▁Her	-1281
rew	-1282
▁organ	-1283
▁case	-1284
ours	-1285
ead	-1286
oice	-1287
ote	-1288
ison	-1289
▁mean	-1290
▁Comm	-1291
▁Mr	-1292
▁city	-1293
▁US	-1294
bs	-1295
▁oper	-1296
ajor	-1297
▁kind	-1298
veral	-1299
ission	-1300
aring	-1301
els	-1302
▁known	-1303
▁once	-1304
▁prev	-1305
▁occ	-1306
▁sit	-1307
oon	-1308
ards	-1309
ither	-1310
▁process	-1311
ium	-1312
eng	-1313
irl	-1314
mb	-1315
▁16	-1316
ider	-1317
▁197	-1318
▁kill	-1319
▁ever	-1320
▁incre	-1321
ope	-1322
▁Ger	-1323
▁appro	-1324
▁already	-1325
▁University	-1326
▁rece	-1327
10	-1328
ency	-1329
▁often	-1330
▁desc	-1331
▁aff	-1332
conom	-1333
▁Rep	-1334
▁win	-1335
ony	-1336
ode	-1337
▁season	-1338
3.	-1339
ries	-1340
2.	-1341
gether	-1342
▁effect	-1343
18	-1344
ery	-1345
▁why	-1346
▁business	-1347
▁conc	-1348
▁Pr	-1349
oint	-1350
utes	-1351
ccess	-1352
arent	-1353
▁mind	-1354
arr	-1355
▁plan	-1356
use	-1357
ocr	-1358
▁important	-1359
▁Christ	-1360
▁sure	-1361
▁early	-1362
ateg	-1363
ining	-1364
ended	-1365
▁love	-1366
▁Ste	-1367
4.	-1368
pec	-1369
uthor	-1370
▁Co	-1371
istr	-1372
▁With	-1373
▁El	-1374
▁across	-1375
▁give	-1376
▁won	-1377
▁seen	-1378
▁children	-1379
▁Ex	-1380
▁human	-1381
▁least	-1382
aken	-1383
4,	-1384
▁bas	-1385
na	-1386
▁mor	-1387
▁design	-1388
ample	-1389
▁Can	-1390
ality	-1391
▁line	-1392
ler	-1393
▁view	-1394
▁Te	-1395
ps	-1396
▁toward	-1397
▁saw	-1398
▁body	-1399
▁knew	-1400
▁talk	-1401
line	-1402
▁fac	-1403
▁become	-1404
▁Ge	-1405
ball	-1406
▁test	-1407
▁free	-1408
▁course	-1409
▁My	-1410
▁using	-1411
▁record	-1412
▁Go	-1413
▁ce	-1414
▁sal	-1415
▁elect	-1416
▁di	-1417
▁ca	-1418
ney	-1419
che	-1420
▁Brit	-1421
▁sent	-1422
▁chang	-1423
▁several	-1424
▁began	-1425
▁program	-1426
▁wr	-1427
▁attack	-1428
ush	-1429
3,	-1430
▁order	-1431
▁hold	-1432
▁ri	-1433
ama	-1434
▁together	-1435
▁Wor	-1436
▁became	-1437
por	-1438
▁black	-1439
▁death	-1440
▁company	-1441
▁short	-1442
▁grow	-1443
▁change	-1444
▁within	-1445
reet	-1446
▁making	-1447
ories	-1448
▁equ	-1449
5.	-1450
2,	-1451
eb	-1452
iety	-1453
▁half	-1454
▁wanted	-1455
▁Euro	-1456
▁certain	-1457
▁able	-1458
aster	-1459
lo	-1460
ada	-1461
▁appear	-1462
acy	-1463
▁level	-1464
▁nothing	-1465
ising	-1466
▁times	-1467
▁196	-1468
▁tri	-1469
ption	-1470
▁techn	-1471
ization	-1472
uff	-1473
▁done	-1474
▁meet	-1475
▁tre	-1476
ases	-1477
itions	-1478
▁moment	-1479
▁behind	-1480
▁social	-1481
▁perform	-1482
rown	-1483
5,	-1484
▁news	-1485
▁money	-1486
▁pay	-1487
ald	-1488
lished	-1489
▁others	-1490
ze	-1491
▁God	-1492
ored	-1493
▁son	-1494
▁Not	-1495
▁Am	-1496
▁orig	-1497
▁having	-1498
▁eng	-1499
▁tem	-1500
▁expect	-1501
IN	-1502
ified	-1503
ending	-1504
▁major	-1505
ploy	-1506
ulation	-1507
▁father	-1508
▁vi	-1509
▁story	-1510
▁almost	-1511
▁wind	-1512
▁pain	-1513
oci	-1514
▁mid	-1515
iber	-1516
▁prote	-1517
▁turned	-1518
of	-1519
▁understand	-1520
▁door	-1521
▁information	-1522
ances	-1523
▁ste	-1524
▁close	-1525
fic	-1526
▁Pres	-1527
▁War	-1528
▁States	-1529
aut	-1530
▁felt	-1531
ourn	-1532
▁Ne	-1533
ones	-1534
ows	-1535
!"	-1536
50	-1537
▁rese	-1538
▁charac	-1539
▁non	-1540
▁five	-1541
ges	-1542
▁among	-1543
▁project	-1544
ma	-1545
augh	-1546
▁woman	-1547
▁Mc	-1548
bo	-1549
▁prop	-1550
▁Ed	-1551
▁anything	-1552
▁Tw	-1553
ograph	-1554
▁given	-1555
▁Will	-1556
▁Man	-1557
▁mother	-1558
▁present	-1559
▁pot	-1560
▁front	-1561
▁à	-1562
▁success	-1563
▁Europe	-1564
▁econom	-1565
▁press	-1566
▁der	-1567
▁following	-1568
▁trad	-1569
▁bit	-1570
ivid	-1571
yn	-1572
lf	-1573
▁yet	-1574
iously	-1575
▁ant	-1576
▁dev	-1577
6.	-1578
ument	-1579
▁percent	-1580
ster	-1581
▁million	-1582
ille	-1583
not	-1584
▁near	-1585
par	-1586
6,	-1587
▁claim	-1588
▁Pol	-1589
7.	-1590
▁Me	-1591
though	-1592
▁sound	-1593
▁X	-1594
go	-1595
_.	-1596
▁wasn	-1597
▁political	-1598
uly	-1599
▁Car	-1600
resent	-1601
▁former	-1602
for	-1603
amed	-1604
ief	-1605
7,	-1606
▁question	-1607
▁job	-1608
▁data	-1609
▁Fl	-1610
ape	-1611
▁doing	-1612
▁film	-1613
tt	-1614
▁11	-1615
ado	-1616
30	-1617
▁started	-1618
▁hands	-1619
ague	-1620
oke	-1621
aced	-1622
ilt	-1623
▁working	-1624
▁example	-1625
work	-1626
rie	-1627
▁area	-1628
▁local	-1629
▁intern	-1630
hy	-1631
▁pub	-1632
▁current	-1633
▁pract	-1634
ee	-1635
▁Ab	-1636
▁crit	-1637
▁aut	-1638
▁president	-1639
selves	-1640
▁white	-1641
ots	-1642
▁event	-1643
▁author	-1644
▁By	-1645
▁cond	-1646
▁La	-1647
▁Gu	-1648
ament	-1649
aces	-1650
▁cut	-1651
sy	-1652
▁Then	-1653
▁foot	-1654
ique	-1655
▁da	-1656
▁health	-1657
▁held	-1658
▁Russ	-1659
▁ap	-1660
▁vers	-1661
ctor	-1662
▁World	-1663
▁deal	-1664
▁Cent	-1665
▁possible	-1666
▁German	-1667
▁Min	-1668
▁six	-1669
▁die	-1670
ij	-1671
▁prob	-1672
▁fall	-1673
ror	-1674
mp	-1675
eder	-1676
▁girl	-1677
idence	-1678
ached	-1679
irc	-1680
▁reason	-1681
ches	-1682
▁cult	-1683
▁food	-1684
▁control	-1685
▁den	-1686
ili	-1687
▁looking	-1688
▁En	-1689
ON	-1690
8,	-1691
▁les	-1692
▁Per	-1693
umb	-1694
▁Sy	-1695
aff	-1696
▁bar	-1697
fer	-1698
▁sn	-1699
▁ground	-1700
iter	-1701
▁ans	-1702
▁:	-1703
▁history	-1704
ully	-1705
ination	-1706
▁members	-1707
9.	-1708
8.	-1709
▁lim	-1710
▁ver	-1711
▁else	-1712
▁sum	-1713
oud	-1714
▁priv	-1715
▁low	-1716
▁taken	-1717
▁Jan	-1718
▁fur	-1719
isc	-1720
▁cost	-1721
▁ident	-1722
▁strong	-1723
▁National	-1724
▁Pe	-1725
▁(2	-1726
iron	-1727
aper	-1728
▁minutes	-1729
▁###	-1730
oor	-1731
,'	-1732
▁194	-1733
▁invol	-1734
▁police	-1735
ands	-1736
▁red	-1737
artment	-1738
Th	-1739
tain	-1740
ana	-1741
▁deb	-1742
eth	-1743
▁repl	-1744
urg	-1745
reed	-1746
ien	-1747
ware	-1748
▁quick	-1749
itive	-1750
▁Dem	-1751
▁rather	-1752
▁deep	-1753
▁doesn	-1754
urity	-1755
AR	-1756
▁ple	-1757
▁words	-1758
▁activ	-1759
val	-1760
ential	-1761
9,	-1762
▁=	-1763
▁fut	-1764
▁gra	-1765
ux	-1766
▁Aust	-1767
▁arg	-1768
▁whole	-1769
duced	-1770
▁idea	-1771
▁sugg	-1772
osp	-1773
af	-1774
What	-1775
▁town	-1776
--	-1777
▁live	-1778
▁means	-1779
▁suggest	-1780
ips	-1781
▁mag	-1782
▁enc	-1783
▁fire	-1784
aul	-1785
▁House	-1786
▁South	-1787
▁30	-1788
ole	-1789
▁heart	-1790
▁Dav	-1791
▁Don	-1792
▁0	-1793
▁Bar	-1794
▁Har	-1795
ring	-1796
▁official	-1797
empt	-1798
▁ask	-1799
▁However	-1800
▁du	-1801
▁Cal	-1802
head	-1803
▁14	-1804
itary	-1805
▁sat	-1806
dle	-1807
▁music	-1808
bert	-1809
▁sex	-1810
▁Af	-1811
▁‘	-1812
▁market	-1813
pping	-1814
▁single	-1815
▁fight	-1816
▁dou	-1817
angu	-1818
▁believe	-1819
▁Qu	-1820
▁someone	-1821
ES	-1822
▁gave	-1823
▁sil	-1824
▁fail	-1825
▁President	-1826
▁months	-1827
▁whether	-1828
▁creat	-1829
wh	-1830
AT	-1831
ops	-1832
▁colle	-1833
▁North	-1834
▁series	-1835
▁trying	-1836
▁begin	-1837
▁fig	-1838
▁Su	-1839
ese	-1840
aign	-1841
▁however	-1842
▁polic	-1843
▁fund	-1844
ogn	-1845
▁Some	-1846
ences	-1847
ids	-1848
▁dark	-1849
▁1.	-1850
▁Sec	-1851
▁Par	-1852
isk	-1853
▁describ	-1854
iod	-1855
He	-1856
▁These	-1857
rote	-1858
amb	-1859
▁vol	-1860
▁proper	-1861
▁(1	-1862
▁self	-1863
irt	-1864
▁jo	-1865
ule	-1866
ortun	-1867
ividual	-1868
▁national	-1869
haps	-1870
▁State	-1871
▁complete	-1872
▁bad	-1873
▁Res	-1874
gress	-1875
▁mot	-1876
▁either	-1877
eter	-1878
▁13	-1879
▁Aug	-1880
▁pick	-1881
▁actually	-1882
arth	-1883
▁port	-1884
▁everything	-1885
▁today	-1886
ude	-1887
▁Now	-1888
▁problem	-1889
▁é	-1890
lling	-1891
▁bene	-1892
▁product	-1893
▁boy	-1894
attle	-1895
▁sus	-1896
▁soon	-1897
▁dest	-1898
ais	-1899
▁Je	-1900
idge	-1901
▁Inst	-1902
rem	-1903
▁los	-1904
itional	-1905
▁clear	-1906
▁bring	-1907
▁heard	-1908
rain	-1909
fully	-1910
▁div	-1911
AN	-1912
vol	-1913
__	-1914
▁account	-1915
▁seemed	-1916
▁makes	-1917
-1	-1918
▁Just	-1919
▁entire	-1920
▁step	-1921
hern	-1922
ondon	-1923
aged	-1924
▁getting	-1925
ades	-1926
▁viol	-1927
▁stay	-1928
yle	-1929
▁exist	-1930
ference	-1931
▁relations	-1932
oe	-1933
aly	-1934
▁Part	-1935
▁learn	-1936
▁miss	-1937
unch	-1938
▁Sch	-1939
▁special	-1940
▁avail	-1941
▁pull	-1942
irm	-1943
ening	-1944
ha	-1945
wer	-1946
▁itself	-1947
▁voice	-1948
▁sense	-1949
▁based	-1950
ino	-1951
over	-1952
._	-1953
▁tot	-1954
imate	-1955
overed	-1956
▁late	-1957
ett	-1958
▁sour	-1959
year	-1960
▁field	-1961
▁vide	-1962
▁Oct	-1963
lu	-1964
inn	-1965
▁Count	-1966
▁future	-1967
▁Geor	-1968
unt	-1969
▁above	-1970
▁community	-1971
rench	-1972
ham	-1973
▁individual	-1974
ashing	-1975
lled	-1976
▁comb	-1977
▁lost	-1978
ategory	-1979
▁dead	-1980
▁outside	-1981
OR	-1982
▁conv	-1983
▁appe	-1984
▁represent	-1985
▁campaign	-1986
uary	-1987
cher	-1988
omm	-1989
▁hours	-1990
▁experience	-1991
▁upon	-1992
aid	-1993
▁Med	-1994
▁foc	-1995
▁conne	-1996
▁British	-1997
▁lab	-1998
▁taking	-1999
▁heav	-2000
orts	-2001
icle	-2002
▁matter	-2003
itor	-2004
ilar	-2005
reg	-2006
▁compet	-2007
▁March	-2008
▁bed	-2009
▁general	-2010
▁coming	-2011
▁phot	-2012
▁watch	-2013
▁friends	-2014
ply	-2015
iqu	-2016
ato	-2017
ability	-2018
▁rad	-2019
▁wait	-2020
ara	-2021
▁party	-2022
bed	-2023
lin	-2024
ón	-2025
▁according	-2026
ressed	-2027
▁sold	-2028
▁fav	-2029
erc	-2030
▁character	-2031
fect	-2032
▁Sept	-2033
▁break	-2034
▁profess	-2035
▁Do	-2036
▁wall	-2037
▁pie	-2038
▁While	-2039
▁position	-2040
▁America	-2041
▁building	-2042
▁estab	-2043
▁common	-2044
▁arri	-2045
▁gen	-2046
?'	-2047
ively	-2048
▁hig	-2049
▁age	-2050
▁West	-2051
ators	-2052
where	-2053
lex	-2054
right	-2055
iding	-2056
enty	-2057
ask	-2058
ging	-2059
▁City	-2060
cted	-2061
itting	-2062
▁announ	-2063
▁themselves	-2064
▁service	-2065
▁June	-2066
iment	-2067
EN	-2068
▁cal	-2069
▁inside	-2070
▁discuss	-2071
▁Apr	-2072
▁mult	-2073
itted	-2074
▁feat	-2075
▁wrote	-2076
▁tax	-2077
▁object	-2078
▁played	-2079
apter	-2080
▁Republic	-2081
▁mess	-2082
itch	-2083
▁space	-2084
▁King	-2085
▁period	-2086
▁likely	-2087
ables	-2088
ustom	-2089
pecially	-2090
pper	-2091
▁vot	-2092
uation	-2093
▁2.	-2094
▁super	-2095
▁further	-2096
▁hor	-2097
▁indust	-2098
▁stri	-2099
▁hot	-2100
▁probably	-2101
istic	-2102
▁office	-2103
▁led	-2104
▁abs	-2105
▁comes	-2106
▁third	-2107
▁capt	-2108
▁coun	-2109
▁August	-2110
▁Im	-2111
▁suff	-2112
▁leave	-2113
▁final	-2114
▁added	-2115
▁employ	-2116
▁try	-2117
medi	-2118
▁road	-2119
▁available	-2120
▁true	-2121
",	-2122
▁tal	-2123
▁/	-2124
ox	-2125
▁pur	-2126
ift	-2127
▁couldn	-2128
".	-2129
hel	-2130
▁cho	-2131
▁attempt	-2132
igr	-2133
▁quite	-2134
off	-2135
▁circ	-2136
ression	-2137
▁investig	-2138
ills	-2139
▁wond	-2140
▁Cor	-2141
▁song	-2142
▁net	-2143
▁ten	-2144
▁leav	-2145
▁Des	-2146
▁London	-2147
back	-2148
▁saying	-2149
lement	-2150
ober	-2151
▁media	-2152
str	-2153
▁cover	-2154
▁•	-2155
uel	-2156
ivil	-2157
▁stra	-2158
▁swe	-2159
ctions	-2160
▁July	-2161
▁nat	-2162
▁phys	-2163
▁concern	-2164
▁sle	-2165
uge	-2166
ica	-2167
▁access	-2168
▁dom	-2169
erm	-2170
alt	-2171
▁Intern	-2172
uk	-2173
cle	-2174
ficult	-2175
▁fell	-2176
uf	-2177
▁vict	-2178
▁hon	-2179
▁dam	-2180
▁decl	-2181
▁Ass	-2182
ran	-2183
apan	-2184
▁Democr	-2185
like	-2186
lev	-2187
▁English	-2188
▁tou	-2189
▁table	-2190
▁anim	-2191
IS	-2192
▁April	-2193
oved	-2194
▁walk	-2195
anger	-2196
▁Sm	-2197
▁round	-2198
▁needed	-2199
▁--	-2200
▁prot	-2201
▁Dep	-2202
ournal	-2203
▁rul	-2204
▁blood	-2205
▁longer	-2206
▁langu	-2207
0,	-2208
pro	-2209
▁brought	-2210
ender	-2211
▁Ke	-2212
▁ord	-2213
▁env	-2214
▁released	-2215
▁military	-2216
book	-2217
▁living	-2218
▁ago	-2219
itter	-2220
▁difficult	-2221
▁squ	-2222
▁due	-2223
gest	-2224
▁ill	-2225
ani	-2226
▁mass	-2227
iled	-2228
▁morning	-2229
▁reported	-2230
▁stop	-2231
12	-2232
▁French	-2233
atter	-2234
▁195	-2235
▁September	-2236
▁Mus	-2237
asing	-2238
▁prim	-2239
▁Sw	-2240
▁imm	-2241
▁fa	-2242
▁pret	-2243
▁forward	-2244
▁tried	-2245
rap	-2246
ky	-2247
▁neg	-2248
raft	-2249
.)	-2250
▁moved	-2251
▁Sen	-2252
eks	-2253
▁Gl	-2254
▁Mich	-2255
ibility	-2256
▁role	-2257
ensive	-2258
▁treat	-2259
bor	-2260
▁Nove	-2261
▁accept	-2262
▁games	-2263
ari	-2264
▁Em	-2265
lt	-2266
▁impro	-2267
▁court	-2268
▁slow	-2269
▁App	-2270
ford	-2271
room	-2272
oph	-2273
ores	-2274
▁Dr	-2275
▁parent	-2276
és	-2277
▁October	-2278
ological	-2279
▁January	-2280
reme	-2281
ida	-2282
▁tit	-2283
▁II	-2284
ival	-2285
▁earl	-2286
▁detail	-2287
omb	-2288
▁arm	-2289
body	-2290
ministr	-2291
ights	-2292
rict	-2293
▁typ	-2294
iting	-2295
▁William	-2296
▁Austral	-2297
▁compl	-2298
▁speak	-2299
▁educ	-2300
▁study	-2301
ises	-2302
ão	-2303
ume	-2304
▁key	-2305
▁п	-2306
▁feet	-2307
ico	-2308
▁init	-2309
▁TH	-2310
ify	-2311
vent	-2312
ci	-2313
▁include	-2314
▁vill	-2315
▁simply	-2316
▁works	-2317
uted	-2318
▁similar	-2319
▁remain	-2320
airs	-2321
▁development	-2322
men	-2323
▁ran	-2324
▁threat	-2325
▁respons	-2326
▁signific	-2327
undred	-2328
kn	-2329
▁gun	-2330
▁Comp	-2331
▁adm	-2332
▁Japan	-2333
▁tar	-2334
▁especially	-2335
▁soft	-2336
No	-2337
▁consider	-2338
▁Category	-2339
▁obs	-2340
▁relig	-2341
15	-2342
▁worked	-2343
bum	-2344
▁lay	-2345
aught	-2346
▁ep	-2347
ales	-2348
▁surpr	-2349
▁research	-2350
▁text	-2351
▁25	-2352
rug	-2353
▁hope	-2354
▁necess	-2355
▁students	-2356
iers	-2357
▁mater	-2358
ager	-2359
epend	-2360
▁recogn	-2361
▁cross	-2362
▁subject	-2363
oul	-2364
▁David	-2365
▁Paul	-2366
▁received	-2367
▁meas	-2368
▁wife	-2369
▁November	-2370
▁respect	-2371
cember	-2372
▁Mon	-2373
▁stru	-2374
ript	-2375
▁imag	-2376
▁Acc	-2377
nes	-2378
▁century	-2379
ederal	-2380
ander	-2381
▁ener	-2382
▁Ag	-2383
▁compan	-2384
▁brother	-2385
▁track	-2386
pite	-2387
aur	-2388
▁died	-2389
▁isn	-2390
oman	-2391
AS	-2392
▁built	-2393
▁hear	-2394
▁China	-2395
▁jud	-2396
▁Ob	-2397
▁hy	-2398
▁doc	-2399
▁From	-2400
▁seems	-2401
▁dro	-2402
ires	-2403
▁whose	-2404
aughter	-2405
▁gone	-2406
▁Bro	-2407
▁Feb	-2408
gen	-2409
rel	-2410
▁Afric	-2411
In	-2412
▁running	-2413
▁sett	-2414
▁hit	-2415
ael	-2416
▁action	-2417
▁video	-2418
▁host	-2419
mon	-2420
▁fem	-2421
ken	-2422
▁eight	-2423
▁Soc	-2424
rael	-2425
urt	-2426
▁)	-2427
11	-2428
▁Even	-2429
▁pers	-2430
ashington	-2431
resh	-2432
▁cup	-2433
▁cand	-2434
gar	-2435
St	-2436
▁Mor	-2437
▁ball	-2438
la	-2439
▁happened	-2440
//	-2441
▁coll	-2442
▁cannot	-2443
▁wrong	-2444
▁por	-2445
▁immedi	-2446
▁instead	-2447
▁everyone	-2448
ny	-2449
ularly	-2450
ites	-2451
▁cell	-2452
ruction	-2453
▁School	-2454
▁personal	-2455
▁oil	-2456
▁sens	-2457
ray	-2458
hod	-2459
play	-2460
▁exc	-2461
▁coup	-2462
▁December	-2463
ledge	-2464
▁hom	-2465
▁myself	-2466
▁anyone	-2467
And	-2468
▁players	-2469
estern	-2470
iction	-2471
het	-2472
▁custom	-2473
▁100	-2474
ients	-2475
era	-2476
sp	-2477
▁clos	-2478
itte	-2479
cy	-2480
▁San	-2481
▁force	-2482
za	-2483
▁relationship	-2484
▁becom	-2485
▁specific	-2486
▁hundred	-2487
▁career	-2488
://	-2489
▁create	-2490
▁«	-2491
clus	-2492
▁published	-2493
▁value	-2494
▁below	-2495
▁193	-2496
▁wal	-2497
cil	-2498
▁points	-2499
leg	-2500
▁hair	-2501
▁leaders	-2502
oura	-2503
▁3.	-2504
▁provide	-2505
▁24	-2506
▁Ser	-2507
▁esc	-2508
▁popular	-2509
▁chall	-2510
▁opt	-2511
▁club	-2512
▁histor	-2513
ris	-2514
key	-2515
ironment	-2516
▁James	-2517
▁member	-2518
▁issue	-2519
▁exec	-2520
ibr	-2521
hood	-2522
anced	-2523
oid	-2524
bit	-2525
▁White	-2526
▁fear	-2527
▁quickly	-2528
▁ut	-2529
▁Park	-2530
antly	-2531
AL	-2532
action	-2533
▁security	-2534
ruary	-2535
ded	-2536
▁Washington	-2537
sequ	-2538
asp	-2539
▁continued	-2540
);	-2541
▁function	-2542
▁sun	-2543
▁bur	-2544
▁Off	-2545
▁je	-2546
▁pict	-2547
▁fill	-2548
▁Red	-2549
▁Hist	-2550
▁mur	-2551
▁wide	-2552
▁material	-2553
▁bott	-2554
▁total	-2555
▁Sam	-2556
▁ess	-2557
▁Gener	-2558
▁original	-2559
sec	-2560
▁alone	-2561
▁decided	-2562
face	-2563
lam	-2564
▁pack	-2565
ía	-2566
▁County	-2567
omp	-2568
▁Pal	-2569
▁intro	-2570
▁;	-2571
ends	-2572
joy	-2573
zy	-2574
yond	-2575
▁earlier	-2576
▁grand	-2577
eed	-2578
▁reve	-2579
▁decision	-2580
▁site	-2581
▁Israel	-2582
▁Jack	-2583
▁associ	-2584
▁player	-2585
▁album	-2586
▁Press	-2587
▁More	-2588
aching	-2589
▁weeks	-2590
16	-2591
14	-2592
▁perfect	-2593
▁cook	-2594
ground	-2595
▁Char	-2596
▁beaut	-2597
asc	-2598
▁block	-2599
▁Cont	-2600
▁thous	-2601
▁influ	-2602
▁fre	-2603
rag	-2604
▁recent	-2605
▁created	-2606
▁il	-2607
▁ways	-2608
▁version	-2609
▁struct	-2610
sych	-2611
▁breat	-2612
-2	-2613
▁Che	-2614
▁mis	-2615
▁killed	-2616
▁named	-2617
▁amount	-2618
▁aud	-2619
aint	-2620
▁sto	-2621
▁various	-2622
▁February	-2623
itution	-2624
incip	-2625
▁First	-2626
▁Act	-2627
▁travel	-2628
▁modern	-2629
wards	-2630
izing	-2631
▁opened	-2632
▁separ	-2633
▁rights	-2634
obal	-2635
▁cop	-2636
anks	-2637
That	-2638
▁population	-2639
▁written	-2640
▁type	-2641
▁pred	-2642
▁в	-2643
bl	-2644
▁private	-2645
yl	-2646
ст	-2647
▁exact	-2648
ilities	-2649
▁evidence	-2650
ius	-2651
ceed	-2652
▁easy	-2653
▁followed	-2654
osition	-2655
▁reached	-2656
ae	-2657
cer	-2658
ourt	-2659
▁kept	-2660
▁Cong	-2661
▁herself	-2662
▁collect	-2663
▁needs	-2664
▁stood	-2665
▁station	-2666
▁norm	-2667
▁tro	-2668
▁Reg	-2669
▁policy	-2670
▁..	-2671
▁energy	-2672
▁attention	-2673
▁emer	-2674
17	-2675
▁thinking	-2676
▁language	-2677
▁si	-2678
ión	-2679
▁method	-2680
chie	-2681
▁Pat	-2682
▁remember	-2683
▁pan	-2684
▁secret	-2685
fort	-2686
Ch	-2687
▁regard	-2688
▁nature	-2689
▁draw	-2690
time	-2691
▁prep	-2692
verage	-2693
ste	-2694
▁visit	-2695
▁paper	-2696
band	-2697
▁base	-2698
▁doub	-2699
idered	-2700
AP	-2701
▁except	-2702
urb	-2703
aled	-2704
▁sort	-2705
▁hop	-2706
▁particular	-2707
ady	-2708
▁Sim	-2709
lim	-2710
▁playing	-2711
▁wouldn	-2712
▁Ber	-2713
▁Rich	-2714
▁north	-2715
omen	-2716
▁arch	-2717
▁shows	-2718
ests	-2719
li	-2720
iff	-2721
▁interview	-2722
▁Ant	-2723
ming	-2724
▁spir	-2725
13	-2726
▁Jew	-2727
▁Black	-2728
▁focus	-2729
▁broad	-2730
▁1,	-2731
▁questions	-2732
▁perhaps	-2733
▁log	-2734
▁har	-2735
But	-2736
▁High	-2737
▁lives	-2738
emy	-2739
▁Mark	-2740
▁shot	-2741
▁groups	-2742
▁finally	-2743
onse	-2744
▁opportun	-2745
fl	-2746
▁>	-2747
▁services	-2748
▁une	-2749
▁target	-2750
▁sometimes	-2751
▁fing	-2752
▁simple	-2753
IC	-2754
▁ge	-2755
▁indic	-2756
utions	-2757
▁administr	-2758
▁George	-2759
▁exam	-2760
▁Rec	-2761
▁nearly	-2762
▁included	-2763
▁continue	-2764
vert	-2765
IT	-2766
ault	-2767
▁corn	-2768
▁Val	-2769
▁50	-2770
acher	-2771
▁floor	-2772
▁issues	-2773
▁election	-2774
lla	-2775
▁Cap	-2776
▁enjoy	-2777
▁Art	-2778
▁contrib	-2779
▁inj	-2780
▁band	-2781
▁civil	-2782
▁cred	-2783
▁natural	-2784
▁chance	-2785
▁terms	-2786
▁countries	-2787
▁states	-2788
▁model	-2789
▁Street	-2790
uit	-2791
atives	-2792
▁capital	-2793
irth	-2794
ampions	-2795
▁events	-2796
▁sen	-2797
▁phone	-2798
agement	-2799
▁particip	-2800
▁pretty	-2801
▁Here	-2802
▁Let	-2803
order	-2804
born	-2805
ka	-2806
▁meeting	-2807
▁financ	-2808
asons	-2809
▁wood	-2810
▁mount	-2811
nder	-2812
This	-2813
▁Bec	-2814
▁considered	-2815
▁22	-2816
ols	-2817
▁companies	-2818
unk	-2819
ously	-2820
▁check	-2821
▁Calif	-2822
▁parents	-2823
▁cry	-2824
ui	-2825
▁India	-2826
ED	-2827
▁risk	-2828
aries	-2829
light	-2830
▁Bo	-2831
▁involved	-2832
ification	-2833
▁dig	-2834
▁box	-2835
▁benef	-2836
dom	-2837
▁surv	-2838
▁worth	-2839
▁England	-2840
▁takes	-2841
▁European	-2842
cast	-2843
▁cast	-2844
▁answer	-2845
▁contract	-2846
ss	-2847
▁wat	-2848
▁couple	-2849
▁sleep	-2850
▁favor	-2851
▁share	-2852
):	-2853
rab	-2854
BC	-2855
▁liter	-2856
▁Indian	-2857
erve	-2858
▁sud	-2859
▁applic	-2860
▁<	-2861
ushed	-2862
▁According	-2863
arter	-2864
iday	-2865
▁appeared	-2866
rences	-2867
▁meant	-2868
▁although	-2869
▁offer	-2870
▁results	-2871
▁fine	-2872
▁higher	-2873
',	-2874
atory	-2875
▁returned	-2876
▁announced	-2877
▁passed	-2878
▁spent	-2879
▁fast	-2880
ios	-2881
▁pour	-2882
▁problems	-2883
▁situation	-2884
tered	-2885
▁international	-2886
field	-2887
▁affect	-2888
▁Other	-2889
▁East	-2890
▁engine	-2891
▁Every	-2892
▁born	-2893
ilos	-2894
hold	-2895
inally	-2896
▁н	-2897
▁prec	-2898
▁usually	-2899
▁ready	-2900
▁aw	-2901
iles	-2902
tr	-2903
▁served	-2904
inese	-2905
▁cit	-2906
ils	-2907
▁dog	-2908
▁changes	-2909
arily	-2910
▁France	-2911
▁See	-2912
▁image	-2913
▁mention	-2914
ör	-2915
▁behav	-2916
▁Int	-2917
wood	-2918
▁south	-2919
▁expected	-2920
▁path	-2921
▁Mart	-2922
▁Californ	-2923
ki	-2924
raw	-2925
elle	-2926
▁release	-2927
iant	-2928
▁industry	-2929
▁staff	-2930
▁contr	-2931
▁described	-2932
rief	-2933
▁production	-2934
▁inn	-2935
▁review	-2936
zz	-2937
▁qui	-2938
ano	-2939
▁beyond	-2940
▁princip	-2941
▁statement	-2942
▁cause	-2943
ography	-2944
▁Tom	-2945
▁Alex	-2946
▁Of	-2947
▁rout	-2948
▁cases	-2949
iling	-2950
▁economic	-2951
chen	-2952
▁gold	-2953
han	-2954
▁neigh	-2955
▁areas	-2956
ittee	-2957
▁movement	-2958
▁truth	-2959
▁192	-2960
▁environment	-2961
see	-2962
▁talking	-2963
▁...	-2964
▁bi	-2965
ading	-2966
▁writing	-2967
▁General	-2968
▁cold	-2969
aker	-2970
▁Michael	-2971
▁repe	-2972
round	-2973
▁disp	-2974
▁una	-2975
rian	-2976
▁scient	-2977
ams	-2978
va	-2979
▁candid	-2980
volution	-2981
udd	-2982
▁convers	-2983
uses	-2984
▁lack	-2985
inks	-2986
▁Sat	-2987
▁refer	-2988
If	-2989
ée	-2990
lection	-2991
iny	-2992
▁address	-2993
ners	-2994
▁»	-2995
▁demand	-2996
roy	-2997
▁rock	-2998
▁California	-2999
▁board	-3000
▁sudden	-3001
▁legal	-3002
▁carry	-3003
▁lif	-3004
ria	-3005
▁middle	-3006
atever	-3007
▁Department	-3008
alys	-3009
▁response	-3010
▁Bill	-3011
abor	-3012
ospital	-3013
▁comput	-3014
▁cat	-3015
▁plus	-3016
▁Air	-3017
▁content	-3018
▁loss	-3019
▁books	-3020
▁trou	-3021
▁dé	-3022
▁protect	-3023
▁disapp	-3024
▁shoot	-3025
▁feeling	-3026
▁achie	-3027
▁THE	-3028
▁letter	-3029
▁safe	-3030
▁23	-3031
▁Most	-3032
▁allowed	-3033
hib	-3034
aded	-3035
▁Mac	-3036
uments	-3037
▁League	-3038
▁mach	-3039
▁pas	-3040
▁drug	-3041
▁purp	-3042
▁mouth	-3043
▁lower	-3044
▁arms	-3045
gu	-3046
▁ens	-3047
▁с	-3048
▁sch	-3049
,_	-3050
▁ir	-3051
▁para	-3052
ette	-3053
rey	-3054
▁(200	-3055
isted	-3056
lying	-3057
▁shall	-3058
col	-3059
▁bank	-3060
▁van	-3061
▁4.	-3062
alled	-3063
isl	-3064
▁Chinese	-3065
▁beginning	-3066
▁nod	-3067
▁During	-3068
inary	-3069
▁straight	-3070
▁match	-3071
▁summer	-3072
▁size	-3073
▁extra	-3074
▁football	-3075
▁green	-3076
▁changed	-3077
▁code	-3078
lig	-3079
▁towards	-3080
▁Congress	-3081
mar	-3082
▁term	-3083
▁tour	-3084
AC	-3085
iced	-3086
oring	-3087
▁deg	-3088
reng	-3089
▁Mad	-3090
king	-3091
▁bow	-3092
▁hus	-3093
▁page	-3094
▁park	-3095
▁goes	-3096
ller	-3097
▁command	-3098
yr	-3099
▁center	-3100
▁News	-3101
▁las	-3102
▁dream	-3103
▁fair	-3104
ago	-3105
▁potential	-3106
▁Court	-3107
▁whom	-3108
▁respond	-3109
▁Add	-3110
▁Why	-3111
▁fresh	-3112
▁warm	-3113
▁40	-3114
RE	-3115
▁Ange	-3116
▁International	-3117
▁forces	-3118
ls	-3119
▁closed	-3120
▁independ	-3121
▁trade	-3122
▁hous	-3123
▁dans	-3124
ension	-3125
▁seven	-3126
berg	-3127
▁mix	-3128
▁race	-3129
▁practice	-3130
▁source	-3131
:**	-3132
▁perm	-3133
▁concept	-3134
▁touch	-3135
▁buy	-3136
▁poor	-3137
▁Hen	-3138
ura	-3139
enced	-3140
zen	-3141
▁comment	-3142
▁Cons	-3143
то	-3144
▁battle	-3145
owers	-3146
▁immediately	-3147
▁Russian	-3148
▁Bel	-3149
▁condu	-3150
ples	-3151
▁Although	-3152
acing	-3153
itute	-3154
ocked	-3155
▁Mag	-3156
▁training	-3157
apt	-3158
▁performance	-3159
▁consum	-3160
lls	-3161
▁search	-3162
ems	-3163
▁clean	-3164
▁figure	-3165
ibly	-3166
ety	-3167
▁2016	-3168
ero	-3169
▁blue	-3170
▁Lou	-3171
▁danger	-3172
ech	-3173
▁crow	-3174
▁foreign	-3175
ords	-3176
▁eye	-3177
iful	-3178
▁pen	-3179
▁rate	-3180
▁Robert	-3181
▁federal	-3182
▁Thom	-3183
▁addition	-3184
▁daughter	-3185
po	-3186
▁defin	-3187
▁Mary	-3188
▁yourself	-3189
▁meaning	-3190
▁21	-3191
come	-3192
▁church	-3193
▁impact	-3194
ING	-3195
inated	-3196
▁ones	-3197
▁director	-3198
▁demon	-3199
▁TV	-3200
▁Er	-3201
är	-3202
ula	-3203
▁strugg	-3204
▁Party	-3205
US	-3206
▁looks	-3207
▁style	-3208
▁cam	-3209
▁Franc	-3210
▁weap	-3211
▁fif	-3212
▁Coun	-3213
▁Canada	-3214
▁onto	-3215
▁multip	-3216
▁officials	-3217
▁Christian	-3218
▁Ac	-3219
▁prison	-3220
▁ship	-3221
▁emb	-3222
▁experi	-3223
60	-3224
ta	-3225
cial	-3226
▁sea	-3227
ville	-3228
▁Face	-3229
▁hour	-3230
itar	-3231
There	-3232
▁online	-3233
oyal	-3234
▁society	-3235
▁glass	-3236
astic	-3237
▁nation	-3238
ston	-3239
▁Cam	-3240
bre	-3241
▁ang	-3242
▁range	-3243
▁features	-3244
▁price	-3245
▁goal	-3246
ession	-3247
hem	-3248
▁Sal	-3249
▁cy	-3250
itz	-3251
▁determ	-3252
ра	-3253
▁contact	-3254
ini	-3255
▁region	-3256
▁knowledge	-3257
▁complex	-3258
▁approach	-3259
imately	-3260
▁bab	-3261
–2	-3262
rupt	-3263
ishing	-3264
▁bal	-3265
▁liber	-3266
▁grad	-3267
oly	-3268
ita	-3269
▁huge	-3270
pir	-3271
well	-3272
▁plant	-3273
▁window	-3274
▁via	-3275
▁ment	-3276
ength	-3277
ustr	-3278
▁Que	-3279
▁stage	-3280
vey	-3281
▁trust	-3282
▁bill	-3283
▁Mal	-3284
▁previous	-3285
▁Your	-3286
▁technology	-3287
ora	-3288
▁culture	-3289
do	-3290
▁parts	-3291
▁particularly	-3292
▁Russia	-3293
▁slight	-3294
▁average	-3295
80	-3296
▁completely	-3297
▁require	-3298
▁occur	-3299
lands	-3300
▁(20	-3301
▁species	-3302
wise	-3303
cul	-3304
▁required	-3305
▁moving	-3306
▁mer	-3307
LE	-3308
eds	-3309
▁Trans	-3310
▁street	-3311
▁laws	-3312
▁beg	-3313
▁village	-3314
▁recently	-3315
▁drink	-3316
40	-3317
▁throughout	-3318
▁Miss	-3319
▁leading	-3320
▁king	-3321
▁Port	-3322
▁spot	-3323
itude	-3324
▁leader	-3325
▁increase	-3326
▁Stud	-3327
▁heat	-3328
▁Serv	-3329
▁chair	-3330
▁Ben	-3331
▁happen	-3332
▁giving	-3333
▁anc	-3334
▁education	-3335
ен	-3336
▁stopped	-3337
burg	-3338
pre	-3339
utive	-3340
asion	-3341
▁fat	-3342
rely	-3343
▁progress	-3344
▁au	-3345
but	-3346
▁anti	-3347
olic	-3348
aches	-3349
useum	-3350
▁bes	-3351
▁Two	-3352
▁Well	-3353
▁walked	-3354
hi	-3355
▁star	-3356
▁wild	-3357
▁Like	-3358
–19	-3359
oses	-3360
icles	-3361
▁network	-3362
ication	-3363
no	-3364
▁Cr	-3365
▁ability	-3366
▁####	-3367
rect	-3368
▁exactly	-3369
anch	-3370
idents	-3371
▁plat	-3372
ares	-3373
▁observ	-3374
▁Sund	-3375
▁raised	-3376
▁financial	-3377
ро	-3378
▁af	-3379
text	-3380
▁spread	-3381
set	-3382
▁happy	-3383
▁emot	-3384
▁streng	-3385
▁psych	-3386
ogle	-3387
▁pal	-3388
▁Great	-3389
▁produc	-3390
ears	-3391
▁novel	-3392
'.	-3393
▁stories	-3394
anned	-3395
▁pulled	-3396
▁piece	-3397
▁Church	-3398
▁provided	-3399
ante	-3400
▁twenty	-3401
lege	-3402
oper	-3403
▁obv	-3404
▁numbers	-3405
based	-3406
▁Since	-3407
icated	-3408
ipped	-3409
▁places	-3410
▁ein	-3411
▁Mil	-3412
▁burn	-3413
▁ign	-3414
llig	-3415
▁webs	-3416
▁located	-3417
▁global	-3418
▁birth	-3419
ya	-3420
aling	-3421
lected	-3422
▁Kn	-3423
▁necessary	-3424
ho	-3425
▁vote	-3426
▁din	-3427
rig	-3428
▁heavy	-3429
▁lines	-3430
duction	-3431
▁Many	-3432
▁workers	-3433
reek	-3434
▁reb	-3435
▁Tra	-3436
▁Jer	-3437
▁Hill	-3438
▁Tur	-3439
▁River	-3440
▁27	-3441
▁significant	-3442
▁arrest	-3443
▁husband	-3444
icht	-3445
alysis	-3446
ando	-3447
▁mist	-3448
▁Frank	-3449
▁leaving	-3450
25	-3451
▁reach	-3452
aked	-3453
oted	-3454
more	-3455
▁Pre	-3456
ilies	-3457
dd	-3458
isions	-3459
ampionship	-3460
icip	-3461
OS	-3462
▁Associ	-3463
▁Pri	-3464
ко	-3465
▁History	-3466
▁ahead	-3467
▁subst	-3468
▁`	-3469
aining	-3470
▁effort	-3471
▁maybe	-3472
▁htt	-3473
Yes	-3474
▁cas	-3475
levision	-3476
▁wonder	-3477
outhern	-3478
▁assist	-3479
▁Phil	-3480
They	-3481
▁firm	-3482
▁cele	-3483
▁district	-3484
▁Rob	-3485
▁card	-3486
irty	-3487
▁link	-3488
put	-3489
▁miles	-3490
inct	-3491
▁acqu	-3492
▁Facebook	-3493
▁critic	-3494
▁0.	-3495
ias	-3496
▁Chapter	-3497
▁Green	-3498
riage	-3499
▁quiet	-3500
itation	-3501
▁title	-3502
▁Peter	-3503
aging	-3504
▁Thomas	-3505
▁drive	-3506
▁Center	-3507
▁central	-3508
▁peace	-3509
icro	-3510
▁spirit	-3511
▁26	-3512
▁serious	-3513
▁Mex	-3514
▁Mid	-3515
▁wants	-3516
▁earth	-3517
▁write	-3518
▁Americans	-3519
▁Govern	-3520
reedom	-3521
▁directly	-3522
▁Law	-3523
ev	-3524
▁showed	-3525
wor	-3526
▁UK	-3527
▁Obama	-3528
▁gar	-3529
▁aware	-3530
▁x	-3531
oo	-3532
OU	-3533
▁farm	-3534
▁systems	-3535
▁qual	-3536
▁lat	-3537
icient	-3538
▁color	-3539
▁document	-3540
down	-3541
▁wa	-3542
EL	-3543
▁article	-3544
▁chief	-3545
▁prior	-3546
▁Over	-3547
rs	-3548
ipp	-3549
▁{	-3550
▁alle	-3551
▁journal	-3552
▁cool	-3553
▁certainly	-3554
▁scene	-3555
▁lived	-3556
▁eat	-3557
▁plans	-3558
▁Paris	-3559
="	-3560
▁mill	-3561
▁prevent	-3562
ga	-3563
▁billion	-3564
▁Pet	-3565
▁Germany	-3566
▁unf	-3567
▁increasing	-3568
umn	-3569
▁2017	-3570
▁science	-3571
▁unc	-3572
orthern	-3573
unn	-3574
ources	-3575
▁ww	-3576
▁veh	-3577
▁sexual	-3578
ancy	-3579
▁28	-3580
add	-3581
ounds	-3582
▁message	-3583
▁caught	-3584
▁developed	-3585
▁www	-3586
▁produced	-3587
▁hadn	-3588
но	-3589
▁waiting	-3590
▁fix	-3591
▁paid	-3592
▁established	-3593
▁choice	-3594
▁Ter	-3595
▁frequ	-3596
▁reading	-3597
aves	-3598
▁stuff	-3599
▁gets	-3600
▁pun	-3601
▁currently	-3602
chan	-3603
uing	-3604
AM	-3605
▁medical	-3606
▁dise	-3607
▁Twitter	-3608
▁store	-3609
▁spl	-3610
▁helped	-3611
▁Union	-3612
▁College	-3613
olf	-3614
▁married	-3615
▁extreme	-3616
ona	-3617
▁ult	-3618
▁teams	-3619
▁Once	-3620
▁Net	-3621
▁prem	-3622
lict	-3623
▁Australia	-3624
▁citiz	-3625
▁Del	-3626
▁philos	-3627
▁Bra	-3628
enge	-3629
▁standing	-3630
▁growing	-3631
ID	-3632
▁conditions	-3633
oles	-3634
▁victim	-3635
▁Our	-3636
▁5.	-3637
▁shut	-3638
▁attract	-3639
▁uns	-3640
▁mo	-3641
▁Mond	-3642
▁Ver	-3643
▁counter	-3644
▁Smith	-3645
▁Oh	-3646
▁brief	-3647
uty	-3648
▁yes	-3649
▁spoke	-3650
itness	-3651
▁improve	-3652
▁Day	-3653
vis	-3654
house	-3655
▁People	-3656
▁growth	-3657
▁Post	-3658
▁remained	-3659
▁remains	-3660
vi	-3661
▁offered	-3662
using	-3663
OT	-3664
▁terror	-3665
How	-3666
▁screen	-3667
▁property	-3668
▁easily	-3669
▁Times	-3670
▁Ham	-3671
aste	-3672
▁Lord	-3673
____	-3674
inton	-3675
▁Richard	-3676
▁Bu	-3677
▁2015	-3678
org	-3679
▁eventually	-3680
orrow	-3681
▁forced	-3682
istrict	-3683
▁Google	-3684
▁rules	-3685
▁Jes	-3686
▁arrived	-3687
▁physical	-3688
▁spok	-3689
▁date	-3690
▁transl	-3691
▁Because	-3692
▁thus	-3693
▁surround	-3694
▁reports	-3695
▁speed	-3696
▁cru	-3697
▁190	-3698
▁Ma	-3699
iance	-3700
▁army	-3701
▁Book	-3702
van	-3703
▁nor	-3704
▁li	-3705
▁god	-3706
▁Council	-3707
▁Dis	-3708
ET	-3709
▁skin	-3710
▁Mod	-3711
▁designed	-3712
OM	-3713
▁defe	-3714
▁2014	-3715
▁Tex	-3716
▁distrib	-3717
▁despite	-3718
▁+	-3719
hest	-3720
arning	-3721
▁quality	-3722
ram	-3723
enth	-3724
Oh	-3725
▁Kore	-3726
▁fle	-3727
▁Bre	-3728
irgin	-3729
ena	-3730
sey	-3731
▁Op	-3732
board	-3733
▁fort	-3734
▁bag	-3735
change	-3736
....	-3737
cell	-3738
▁arr	-3739
▁clot	-3740
arden	-3741
▁joined	-3742
ww	-3743
▁standard	-3744
ivity	-3745
▁section	-3746
olly	-3747
just	-3748
▁purch	-3749
▁believed	-3750
rim	-3751
3)	-3752
ef	-3753
▁officer	-3754
▁Minister	-3755
▁guy	-3756
olute	-3757
▁Charles	-3758
▁platform	-3759
Don	-3760
vin	-3761
▁finished	-3762
pm	-3763
▁upd	-3764
▁intellig	-3765
▁knows	-3766
▁som	-3767
ici	-3768
▁shown	-3769
▁Friday	-3770
▁earn	-3771
cious	-3772
▁susp	-3773
ola	-3774
▁opportunity	-3775
▁learned	-3776
ibrary	-3777
▁celebr	-3778
▁Gold	-3779
▁Mo	-3780
▁clim	-3781
▁Wil	-3782
▁brain	-3783
▁amb	-3784
gal	-3785
ocks	-3786
etic	-3787
▁Roman	-3788
▁2018	-3789
▁Hall	-3790
igned	-3791
▁whatever	-3792
▁beautiful	-3793
rol	-3794
▁rap	-3795
▁religious	-3796
▁τ	-3797
▁о	-3798
▁products	-3799
hr	-3800
istan	-3801
teen	-3802
▁powerful	-3803
ads	-3804
▁train	-3805
▁administration	-3806
▁reality	-3807
rill	-3808
▁aim	-3809
▁Army	-3810
▁Their	-3811
▁Sl	-3812
▁levels	-3813
▁doll	-3814
▁starting	-3815
▁families	-3816
▁professional	-3817
▁Tor	-3818
www	-3819
semb	-3820
oto	-3821
▁epis	-3822
▁Sunday	-3823
▁names	-3824
▁includes	-3825
▁weight	-3826
▁demonstr	-3827
ua	-3828
ür	-3829
ipe	-3830
▁direction	-3831
▁theory	-3832
▁agre	-3833
▁McC	-3834
▁Nor	-3835
▁hall	-3836
part	-3837
▁nom	-3838
▁placed	-3839
▁Us	-3840
ido	-3841
▁note	-3842
itect	-3843
uman	-3844
▁supposed	-3845
▁kids	-3846
▁Commun	-3847
ription	-3848
▁pu	-3849
▁relative	-3850
▁District	-3851
usion	-3852
▁ban	-3853
▁doubt	-3854
▁ideas	-3855
▁email	-3856
90	-3857
▁ice	-3858
▁length	-3859
▁mob	-3860
▁vo	-3861
▁impl	-3862
▁Div	-3863
▁Sand	-3864
▁Islam	-3865
▁details	-3866
▁och	-3867
olution	-3868
▁2,	-3869
▁failed	-3870
▁student	-3871
So	-3872
ucle	-3873
▁opin	-3874
▁temper	-3875
▁Are	-3876
▁Mont	-3877
▁officers	-3878
▁(18	-3879
▁Republican	-3880
▁Another	-3881
▁hospital	-3882
▁users	-3883
▁encoura	-3884
▁2012	-3885
▁clearly	-3886
▁teacher	-3887
antic	-3888
▁hat	-3889
▁surface	-3890
▁Cup	-3891
how	-3892
▁AN	-3893
-3	-3894
▁appears	-3895
▁altern	-3896
▁legisl	-3897
▁Iran	-3898
—"	-3899
duce	-3900
ala	-3901
▁drop	-3902
craft	-3903
▁pattern	-3904
▁comfort	-3905
IL	-3906
▁traditional	-3907
ingly	-3908
▁Wed	-3909
▁crowd	-3910
▁Scott	-3911
70	-3912
illa	-3913
▁Up	-3914
▁holding	-3915
▁|-	-3916
▁yell	-3917
▁sitting	-3918
▁tend	-3919
ees	-3920
▁pressure	-3921
▁gives	-3922
isf	-3923
▁cab	-3924
▁jump	-3925
▁Jud	-3926
▁bra	-3927
▁beat	-3928
▁serve	-3929
▁Get	-3930
▁Play	-3931
▁print	-3932
▁tom	-3933
▁difference	-3934
▁Ir	-3935
uke	-3936
ione	-3937
▁organization	-3938
ulated	-3939
▁2010	-3940
▁recomm	-3941
▁positive	-3942
▁restaur	-3943
aud	-3944
▁carried	-3945
▁picture	-3946
▁economy	-3947
▁pet	-3948
▁Western	-3949
▁cris	-3950
▁Monday	-3951
sk	-3952
”.	-3953
1)	-3954
▁appoint	-3955
▁Bay	-3956
▁send	-3957
▁Francis	-3958
force	-3959
rows	-3960
oes	-3961
▁avoid	-3962
▁virt	-3963
▁agreed	-3964
Is	-3965
▁destroy	-3966
▁nice	-3967
▁memory	-3968
▁consist	-3969
▁female	-3970
▁request	-3971
▁kit	-3972
▁speech	-3973
▁ended	-3974
▁website	-3975
ront	-3976
AD	-3977
▁Det	-3978
▁Super	-3979
▁Grand	-3980
▁seeing	-3981
▁college	-3982
▁mut	-3983
▁enter	-3984
▁noted	-3985
▁television	-3986
▁vari	-3987
iament	-3988
▁autom	-3989
▁saf	-3990
▁calls	-3991
▁Japanese	-3992
icks	-3993
▁mir	-3994
▁corner	-3995
mark	-3996
▁и	-3997
mit	-3998
▁apparent	-3999
▁breath	-4000
▁larger	-4001
▁normal	-4002
oms	-4003
▁display	-4004
arp	-4005
▁Out	-4006
▁evening	-4007
▁occup	-4008
▁charge	-4009
▁rob	-4010
▁older	-4011
▁na	-4012
▁Henry	-4013
▁crim	-4014
▁rac	-4015
▁Tod	-4016
▁greater	-4017
inter	-4018
▁regular	-4019
▁stre	-4020
▁Str	-4021
▁Met	-4022
chers	-4023
▁hur	-4024
ications	-4025
ropri	-4026
Well	-4027
isher	-4028
▁Ze	-4029
▁Ital	-4030
▁suddenly	-4031
▁Jo	-4032
▁29	-4033
ION	-4034
▁violence	-4035
▁Mrs	-4036
▁}	-4037
▁purpose	-4038
▁Jose	-4039
▁gas	-4040
▁file	-4041
▁Jim	-4042
iring	-4043
▁majority	-4044
▁IS	-4045
▁cu	-4046
▁multiple	-4047
▁girls	-4048
▁Inter	-4049
anging	-4050
▁Los	-4051
ét	-4052
▁smile	-4053
▁opening	-4054
▁efforts	-4055
apers	-4056
▁adop	-4057
▁@	-4058
▁successful	-4059
▁increased	-4060
orry	-4061
▁signed	-4062
▁largest	-4063
▁nar	-4064
▁save	-4065
▁schools	-4066
▁river	-4067
▁commer	-4068
ja	-4069
rif	-4070
▁Tues	-4071
▁Mount	-4072
EC	-4073
▁establish	-4074
▁mi	-4075
▁pa	-4076
▁additional	-4077
▁Texas	-4078
▁Sing	-4079
▁assum	-4080
ship	-4081
▁tight	-4082
▁seat	-4083
▁Brown	-4084
▁structure	-4085
▁rule	-4086
▁fully	-4087
ruit	-4088
▁Mer	-4089
▁Matt	-4090
ube	-4091
▁wish	-4092
▁covered	-4093
ferences	-4094
▁map	-4095
anish	-4096
▁reasons	-4097
▁leaves	-4098
bon	-4099
▁related	-4100
edy	-4101
▁Clinton	-4102
2)	-4103
rial	-4104
▁caused	-4105
4)	-4106
▁effects	-4107
▁Const	-4108
iliar	-4109
ker	-4110
ás	-4111
uce	-4112
▁therefore	-4113
vere	-4114
resp	-4115
▁Canad	-4116
imum	-4117
▁Sil	-4118
▁Group	-4119
▁Democratic	-4120
▁Rem	-4121
▁sister	-4122
▁quarter	-4123
uts	-4124
▁influence	-4125
▁von	-4126
New	-4127
▁2013	-4128
▁harm	-4129
▁suspect	-4130
▁conserv	-4131
45	-4132
▁watching	-4133
▁bottom	-4134
▁Donald	-4135
agn	-4136
ota	-4137
▁Mel	-4138
▁bare	-4139
akers	-4140
▁investigation	-4141
yer	-4142
▁thick	-4143
She	-4144
▁(199	-4145
▁pleas	-4146
▁Da	-4147
kt	-4148
ufact	-4149
9)	-4150
▁lie	-4151
▁eth	-4152
rer	-4153
▁dry	-4154
▁aren	-4155
inet	-4156
vo	-4157
ère	-4158
▁limited	-4159
My	-4160
▁daily	-4161
▁Cle	-4162
andon	-4163
▁Sun	-4164
▁strength	-4165
kay	-4166
▁Ty	-4167
▁steps	-4168
▁edge	-4169
▁hun	-4170
that	-4171
venue	-4172
▁immigr	-4173
▁Louis	-4174
▁presence	-4175
▁era	-4176
osing	-4177
known	-4178
anda	-4179
aine	-4180
▁interesting	-4181
▁integr	-4182
win	-4183
▁Vict	-4184
▁movie	-4185
▁treatment	-4186
▁understanding	-4187
▁Sur	-4188
ava	-4189
▁Jul	-4190
ding	-4191
▁conflict	-4192
▁rid	-4193
⁄2	-4194
gged	-4195
▁watched	-4196
▁Fe	-4197
▁radio	-4198
▁Ann	-4199
▁Under	-4200
ements	-4201
▁becomes	-4202
▁slowly	-4203
▁tables	-4204
▁rev	-4205
▁Sub	-4206
kin	-4207
▁Tuesday	-4208
ли	-4209
▁faith	-4210
▁Yet	-4211
TER	-4212
▁suit	-4213
gn	-4214
▁trees	-4215
▁computer	-4216
▁kid	-4217
▁Chic	-4218
▁guess	-4219
▁condition	-4220
▁Thurs	-4221
▁Dire	-4222
▁highly	-4223
▁Satur	-4224
vest	-4225
▁Nav	-4226
▁Joe	-4227
▁trib	-4228
ulf	-4229
▁west	-4230
▁empt	-4231
arliament	-4232
▁distance	-4233
▁analysis	-4234
bing	-4235
▁60	-4236
▁baby	-4237
▁Rel	-4238
▁purs	-4239
ports	-4240
-19	-4241
▁ing	-4242
owing	-4243
▁guard	-4244
▁rise	-4245
▁tree	-4246
▁generally	-4247
emb	-4248
▁fans	-4249
ario	-4250
▁Senate	-4251
▁politics	-4252
istry	-4253
▁managed	-4254
▁salt	-4255
▁Bur	-4256
ym	-4257
▁Africa	-4258
▁safety	-4259
▁claims	-4260
▁på	-4261
6)	-4262
▁status	-4263
aving	-4264
anta	-4265
▁sac	-4266
▁fighting	-4267
entially	-4268
▁Fore	-4269
▁organiz	-4270
▁Luc	-4271
▁coff	-4272
▁Lo	-4273
aped	-4274
ception	-4275
▁bird	-4276
with	-4277
porary	-4278
▁egg	-4279
earch	-4280
▁studies	-4281
▁bound	-4282
▁mission	-4283
▁activity	-4284
го	-4285
▁Sir	-4286
▁om	-4287
▁nodded	-4288
aming	-4289
▁implement	-4290
met	-4291
▁Die	-4292
▁slightly	-4293
oti	-4294
▁double	-4295
orters	-4296
▁Fin	-4297
▁measure	-4298
▁Virgin	-4299
▁uses	-4300
▁explained	-4301
ented	-4302
▁weak	-4303
OP	-4304
ador	-4305
▁2011	-4306
▁feed	-4307
▁Earth	-4308
▁Good	-4309
▁pros	-4310
▁mechan	-4311
75	-4312
▁ma	-4313
▁male	-4314
orter	-4315
uries	-4316
▁African	-4317
▁Prof	-4318
iverse	-4319
▁sweet	-4320
▁stream	-4321
▁forg	-4322
▁dress	-4323
▁adult	-4324
▁Thursday	-4325
▁actions	-4326
▁individuals	-4327
▁2019	-4328
rid	-4329
ре	-4330
▁6.	-4331
▁behavior	-4332
▁Camp	-4333
ashed	-4334
▁advant	-4335
▁join	-4336
▁IN	-4337
▁expression	-4338
▁belong	-4339
8)	-4340
▁coach	-4341
▁characters	-4342
igure	-4343
▁dim	-4344
▁Cast	-4345
▁becoming	-4346
▁ré	-4347
▁laug	-4348
▁Who	-4349
▁sched	-4350
▁master	-4351
▁copy	-4352
▁minor	-4353
▁ur	-4354
▁rail	-4355
▁soldiers	-4356
tw	-4357
▁sem	-4358
▁thousands	-4359
▁Association	-4360
▁transfer	-4361
▁catch	-4362
▁shared	-4363
▁filled	-4364
mas	-4365
▁Mur	-4366
▁Also	-4367
▁flat	-4368
▁feature	-4369
nesday	-4370
lor	-4371
▁damage	-4372
▁Bet	-4373
▁caption	-4374
▁primary	-4375
▁bod	-4376
▁claimed	-4377
ez	-4378
▁189	-4379
▁latest	-4380
▁dropped	-4381
▁Lat	-4382
▁telling	-4383
▁forms	-4384
ih	-4385
▁remind	-4386
iques	-4387
▁stock	-4388
icked	-4389
▁ju	-4390
lied	-4391
▁border	-4392
▁east	-4393
encies	-4394
ca	-4395
▁Star	-4396
▁Muslim	-4397
▁corpor	-4398
7)	-4399
lease	-4400
▁Yes	-4401
▁unique	-4402
▁Vol	-4403
while	-4404
▁Def	-4405
azine	-4406
ossible	-4407
emic	-4408
▁regul	-4409
▁exerc	-4410
▁correct	-4411
Not	-4412
▁Britain	-4413
▁Saturday	-4414
▁vac	-4415
formation	-4416
▁Both	-4417
ushing	-4418
▁marriage	-4419
▁bud	-4420
▁bright	-4421
▁Old	-4422
▁bul	-4423
▁machine	-4424
▁freedom	-4425
än	-4426
▁Carol	-4427
ati	-4428
▁stone	-4429
▁management	-4430
▁activities	-4431
▁conversation	-4432
▁calling	-4433
▁fal	-4434
▁fish	-4435
▁Cath	-4436
▁mostly	-4437
da	-4438
▁senior	-4439
▁politic	-4440
▁discovered	-4441
▁Wednesday	-4442
▁express	-4443
▁Carl	-4444
▁previously	-4445
▁mit	-4446
▁Il	-4447
▁throw	-4448
▁climate	-4449
▁award	-4450
▁attacks	-4451
▁Sol	-4452
▁hero	-4453
osh	-4454
▁produce	-4455
▁Mill	-4456
▁basic	-4457
▁citizens	-4458
▁kne	-4459
▁Road	-4460
▁Arab	-4461
▁soul	-4462
▁sky	-4463
▁Instead	-4464
aze	-4465
▁receive	-4466
▁forest	-4467
aren	-4468
anted	-4469
▁learning	-4470
ye	-4471
▁absolute	-4472
▁choose	-4473
uclear	-4474
▁resist	-4475
▁broken	-4476
▁manager	-4477
ipl	-4478
▁sides	-4479
▁provides	-4480
▁associated	-4481
▁Secret	-4482
▁Police	-4483
▁ded	-4484
▁fit	-4485
▁Big	-4486
ación	-4487
▁Somet	-4488
▁values	-4489
osen	-4490
▁grew	-4491
▁sand	-4492
hered	-4493
▁types	-4494
icit	-4495
▁loved	-4496
▁CH	-4497
▁active	-4498
▁lean	-4499
▁apart	-4500
ii	-4501
▁neighbor	-4502
▁Chicago	-4503
ois	-4504
▁haven	-4505
▁none	-4506
uer	-4507
▁Second	-4508
istics	-4509
aks	-4510
▁Flor	-4511
▁cities	-4512
noon	-4513
▁expand	-4514
▁Ol	-4515
▁laun	-4516
▁suggested	-4517
▁Sum	-4518
▁disease	-4519
ffic	-4520
acks	-4521
▁Island	-4522
▁по	-4523
ties	-4524
OL	-4525
▁actual	-4526
▁collection	-4527
35	-4528
▁sig	-4529
▁animals	-4530
▁brown	-4531
Why	-4532
▁worse	-4533
▁contain	-4534
asy	-4535
▁detect	-4536
▁transport	-4537
mond	-4538
▁manufact	-4539
▁rich	-4540
cript	-4541
what	-4542
▁2008	-4543
▁Company	-4544
bour	-4545
▁pieces	-4546
▁famous	-4547
▁fol	-4548
▁credit	-4549
▁Before	-4550
▁Den	-4551
▁stret	-4552
▁Institute	-4553
▁island	-4554
▁kitchen	-4555
▁notice	-4556
▁emp	-4557
▁newsp	-4558
▁runs	-4559
▁shoulder	-4560
IA	-4561
▁construction	-4562
pret	-4563
▁asking	-4564
anged	-4565
▁Men	-4566
▁resources	-4567
▁till	-4568
▁location	-4569
▁crime	-4570
owed	-4571
▁Rom	-4572
▁Wind	-4573
▁Martin	-4574
▁labor	-4575
▁aspect	-4576
▁Fil	-4577
▁Ira	-4578
▁Sar	-4579
▁minister	-4580
▁Its	-4581
cing	-4582
ource	-4583
▁Att	-4584
▁Any	-4585
▁minute	-4586
▁AD	-4587
én	-4588
/2	-4589
▁Inc	-4590
▁sight	-4591
▁Life	-4592
▁Central	-4593
▁nine	-4594
▁Spe	-4595
Re	-4596
▁frame	-4597
▁lose	-4598
▁user	-4599
▁achieve	-4600
▁ren	-4601
stein	-4602
▁democr	-4603
▁formed	-4604
▁entirely	-4605
▁Tre	-4606
inate	-4607
▁murder	-4608
▁indeed	-4609
▁separate	-4610
▁spend	-4611
▁wel	-4612
▁sugar	-4613
▁fingers	-4614
▁Hel	-4615
▁7.	-4616
annel	-4617
look	-4618
▁independent	-4619
▁images	-4620
▁scr	-4621
je	-4622
▁ancient	-4623
▁thousand	-4624
▁scen	-4625
esh	-4626
▁critical	-4627
▁realized	-4628
▁estim	-4629
▁symb	-4630
▁coast	-4631
oria	-4632
▁defense	-4633
▁goals	-4634
yan	-4635
hens	-4636
▁Bob	-4637
▁architect	-4638
▁horse	-4639
▁wine	-4640
ingu	-4641
▁operations	-4642
urance	-4643
itely	-4644
bid	-4645
uls	-4646
▁satisf	-4647
▁costs	-4648
As	-4649
arian	-4650
▁entered	-4651
An	-4652
▁35	-4653
▁explain	-4654
▁dism	-4655
▁enemy	-4656
ва	-4657
▁basis	-4658
▁income	-4659
▁willing	-4660
▁offers	-4661
▁Committee	-4662
irmed	-4663
oviet	-4664
▁writer	-4665
▁Johnson	-4666
▁analy	-4667
hab	-4668
▁Only	-4669
▁Jewish	-4670
inger	-4671
▁trouble	-4672
▁Gar	-4673
▁resear	-4674
▁sources	-4675
▁lic	-4676
▁league	-4677
agon	-4678
▁familiar	-4679
▁neck	-4680
▁Last	-4681
▁closer	-4682
▁notes	-4683
▁walls	-4684
▁prefer	-4685
▁whis	-4686
▁responsible	-4687
▁sales	-4688
iel	-4689
▁rose	-4690
▁pray	-4691
▁Mem	-4692
▁smiled	-4693
ال	-4694
amm	-4695
▁Tim	-4696
▁repeated	-4697
▁philosop	-4698
▁interested	-4699
▁Jesus	-4700
gl	-4701
▁trip	-4702
▁Cur	-4703
▁Public	-4704
▁row	-4705
▁jobs	-4706
▁strange	-4707
▁doctor	-4708
▁Charl	-4709
▁projects	-4710
▁pointed	-4711
▁compared	-4712
▁brand	-4713
cks	-4714
▁hell	-4715
▁spring	-4716
▁belief	-4717
▁rain	-4718
cles	-4719
▁poet	-4720
eah	-4721
▁Italian	-4722
icken	-4723
tre	-4724
▁$1	-4725
▁mine	-4726
▁Arch	-4727
▁pp	-4728
▁degree	-4729
▁challenge	-4730
▁Health	-4731
▁hurt	-4732
▁appre	-4733
▁wealth	-4734
▁Wall	-4735
▁tim	-4736
▁shook	-4737
ira	-4738
ategy	-4739
▁Back	-4740
▁mal	-4741
▁consequ	-4742
ни	-4743
▁biggest	-4744
▁Liber	-4745
hand	-4746
acity	-4747
▁Championship	-4748
▁chem	-4749
▁introduced	-4750
och	-4751
▁troops	-4752
▁highest	-4753
▁rough	-4754
▁circum	-4755
▁guys	-4756
▁pil	-4757
know	-4758
▁Democrats	-4759
▁sad	-4760
▁context	-4761
▁ton	-4762
▁decades	-4763
▁Best	-4764
▁Commission	-4765
---	-4766
▁views	-4767
▁crisis	-4768
icted	-4769
ounded	-4770
icy	-4771
-0	-4772
ashion	-4773
▁д	-4774
ocol	-4775
ção	-4776
▁picked	-4777
cont	-4778
ENT	-4779
▁territ	-4780
▁sell	-4781
▁Maybe	-4782
▁allows	-4783
▁stick	-4784
▁cultural	-4785
▁parties	-4786
▁Ev	-4787
gypt	-4788
▁mentioned	-4789
▁Club	-4790
BI	-4791
centr	-4792
▁shad	-4793
▁launch	-4794
▁32	-4795
▁witness	-4796
onents	-4797
uous	-4798
▁Wal	-4799
▁option	-4800
tained	-4801
ito	-4802
▁Jeff	-4803
▁walking	-4804
rog	-4805
▁Atl	-4806
▁Spec	-4807
▁seg	-4808
▁3,	-4809
▁broke	-4810
▁chest	-4811
▁audience	-4812
▁Ve	-4813
▁jour	-4814
▁intelligence	-4815
▁turning	-4816
▁2009	-4817
▁legs	-4818
▁recorded	-4819
▁Society	-4820
▁creating	-4821
izes	-4822
ooth	-4823
stood	-4824
▁pair	-4825
iest	-4826
▁shape	-4827
▁worry	-4828
▁please	-4829
▁cra	-4830
igen	-4831
▁warn	-4832
▁programs	-4833
▁records	-4834
rible	-4835
▁prepared	-4836
CH	-4837
▁colon	-4838
-4	-4839
ras	-4840
▁weapons	-4841
▁solid	-4842
can	-4843
▁Canadian	-4844
▁Lee	-4845
kins	-4846
▁conference	-4847
isation	-4848
▁Rad	-4849
▁artist	-4850
▁chapter	-4851
▁contem	-4852
▁diss	-4853
▁crew	-4854
▁Where	-4855
ifying	-4856
▁Est	-4857
▁Social	-4858
▁smaller	-4859
estival	-4860
▁reflect	-4861
▁judge	-4862
ancing	-4863
▁Royal	-4864
inent	-4865
▁thoughts	-4866
jo	-4867
ima	-4868
ados	-4869
▁Step	-4870
▁overall	-4871
▁Australian	-4872
▁continues	-4873
▁Follow	-4874
▁id	-4875
▁initial	-4876
▁maintain	-4877
ela	-4878
IV	-4879
FL	-4880
▁das	-4881
odes	-4882
▁narrow	-4883
▁reform	-4884
▁Jon	-4885
▁Spr	-4886
▁remaining	-4887
ucky	-4888
▁gro	-4889
▁voc	-4890
▁boys	-4891
▁application	-4892
▁Ang	-4893
west	-4894
▁Iraq	-4895
ali	-4896
▁Les	-4897
▁impossible	-4898
▁commercial	-4899
▁afternoon	-4900
▁elements	-4901
▁spect	-4902
▁patients	-4903
uct	-4904
▁Mike	-4905
▁smart	-4906
▁revealed	-4907
▁gent	-4908
erous	-4909
▁Lake	-4910
▁background	-4911
▁agreement	-4912
5)	-4913
verse	-4914
▁Leg	-4915
▁attend	-4916
lymp	-4917
onent	-4918
▁animal	-4919
▁narr	-4920
▁agree	-4921
▁Soviet	-4922
now	-4923
▁rub	-4924
▁Rock	-4925
▁instance	-4926
▁owners	-4927
▁vision	-4928
▁setting	-4929
▁empty	-4930
▁Despite	-4931
net	-4932
uan	-4933
▁concerned	-4934
32	-4935
▁variety	-4936
▁fellow	-4937
▁reject	-4938
▁tick	-4939
▁thin	-4940
▁keeping	-4941
olit	-4942
osite	-4943
ité	-4944
▁electric	-4945
▁removed	-4946
▁effective	-4947
▁sin	-4948
orial	-4949
estic	-4950
▁shout	-4951
▁dat	-4952
▁cou	-4953
▁mort	-4954
oves	-4955
war	-4956
▁argument	-4957
bridge	-4958
▁tradition	-4959
▁Mass	-4960
▁coffee	-4961
▁trial	-4962
▁cloud	-4963
▁Lab	-4964
eless	-4965
▁victory	-4966
▁Long	-4967
respond	-4968
▁hab	-4969
▁appearance	-4970
▁negoti	-4971
night	-4972
▁Egypt	-4973
▁web	-4974
▁construct	-4975
▁fourth	-4976
rd	-4977
▁Time	-4978
▁186	-4979
▁nav	-4980
EM	-4981
which	-4982
wide	-4983
II	-4984
▁£	-4985
ache	-4986
▁showing	-4987
ket	-4988
term	-4989
real	-4990
▁ris	-4991
clusion	-4992
iot	-4993
▁snow	-4994
▁promot	-4995
▁speaking	-4996
ctors	-4997
▁Po	-4998
▁opinion	-4999
coin	-5000
orney	-5001
▁editor	-5002
osa	-5003
▁agency	-5004
ching	-5005
▁depart	-5006
Do	-5007
▁pit	-5008
▁Bern	-5009
▁software	-5010
!'	-5011
▁suc	-5012
raid	-5013
load	-5014
ternal	-5015
▁Hol	-5016
▁Those	-5017
▁univers	-5018
point	-5019
▁dangerous	-5020
▁replied	-5021
▁concentr	-5022
▁fra	-5023
▁Gra	-5024
▁challeng	-5025
▁happens	-5026
▁rat	-5027
▁square	-5028
▁ordered	-5029
iano	-5030
▁adding	-5031
▁protest	-5032
▁Ire	-5033
▁grab	-5034
▁entre	-5035
▁cars	-5036
ista	-5037
illed	-5038
ails	-5039
ка	-5040
▁Mexico	-5041
Sh	-5042
▁ensure	-5043
▁hotel	-5044
▁schol	-5045
▁Florida	-5046
▁alleged	-5047
▁km	-5048
▁customers	-5049
wing	-5050
vant	-5051
▁ST	-5052
▁Olymp	-5053
▁favorite	-5054
▁useful	-5055
bec	-5056
▁desire	-5057
78	-5058
▁san	-5059
isters	-5060
▁на	-5061
▁zu	-5062
.**	-5063
▁Kh	-5064
▁propos	-5065
▁incident	-5066
▁um	-5067
▁veget	-5068
▁deter	-5069
ishes	-5070
▁Angeles	-5071
▁tall	-5072
ulture	-5073
▁ring	-5074
▁options	-5075
▁debate	-5076
▁188	-5077
▁Spanish	-5078
friend	-5079
▁commit	-5080
▁task	-5081
▁Mat	-5082
▁pushed	-5083
”,	-5084
pective	-5085
atically	-5086
▁(@	-5087
oving	-5088
▁sequ	-5089
▁Dani	-5090
▁trail	-5091
▁odd	-5092
▁Office	-5093
ighter	-5094
Le	-5095
▁executive	-5096
cho	-5097
▁exchange	-5098
▁wearing	-5099
▁draft	-5100
▁Gal	-5101
▁Division	-5102
▁competition	-5103
▁Bank	-5104
▁surprise	-5105
actions	-5106
▁buildings	-5107
▁budget	-5108
▁pod	-5109
▁como	-5110
▁Land	-5111
▁Squ	-5112
▁kiss	-5113
▁Museum	-5114
▁advantage	-5115
ige	-5116
▁completed	-5117
▁meat	-5118
▁EU	-5119
▁candidate	-5120
▁smell	-5121
▁Acad	-5122
▁comments	-5123
▁appropri	-5124
RA	-5125
gel	-5126
roll	-5127
▁Es	-5128
ronic	-5129
▁solution	-5130
▁Found	-5131
▁Greek	-5132
NA	-5133
uated	-5134
▁push	-5135
▁imagine	-5136
▁Wood	-5137
▁operation	-5138
▁dinner	-5139
mes	-5140
▁occasion	-5141
▁putting	-5142
▁truly	-5143
▁medium	-5144
▁episode	-5145
bar	-5146
▁bodies	-5147
▁Joseph	-5148
▁Each	-5149
▁ille	-5150
▁OF	-5151
erved	-5152
▁tells	-5153
ри	-5154
▁partners	-5155
▁limit	-5156
rend	-5157
▁elected	-5158
▁poll	-5159
▁initi	-5160
▁strategy	-5161
vention	-5162
:2	-5163
▁twice	-5164
▁unit	-5165
Ar	-5166
▁streets	-5167
▁finding	-5168
ulate	-5169
ko	-5170
▁equip	-5171
▁Jac	-5172
▁Jones	-5173
▁rapid	-5174
mann	-5175
▁Dan	-5176
500	-5177
Americ	-5178
▁Virginia	-5179
▁Apple	-5180
pet	-5181
▁twe	-5182
▁launched	-5183
roat	-5184
----	-5185
▁Max	-5186
▁digital	-5187
fast	-5188
▁2000	-5189
▁stated	-5190
▁8.	-5191
▁2006	-5192
▁etc	-5193
▁Journal	-5194
▁nuclear	-5195
ba	-5196
▁plays	-5197
rier	-5198
▁missing	-5199
▁2007	-5200
▁ble	-5201
▁abandon	-5202
▁Music	-5203
▁Research	-5204
▁Sup	-5205
azing	-5206
▁authorities	-5207
▁identity	-5208
kes	-5209
▁sick	-5210
iner	-5211
ban	-5212
oured	-5213
▁entr	-5214
alle	-5215
▁UN	-5216
When	-5217
▁presented	-5218
▁otherwise	-5219
▁max	-5220
▁justice	-5221
▁pure	-5222
▁moral	-5223
▁Town	-5224
astern	-5225
iro	-5226
▁intended	-5227
▁forget	-5228
▁leadership	-5229
▁connection	-5230
▁Women	-5231
Al	-5232
▁experiment	-5233
▁benefits	-5234
▁communities	-5235
you	-5236
▁seconds	-5237
▁authority	-5238
▁2020	-5239
cean	-5240
▁ou	-5241
▁criminal	-5242
uate	-5243
▁youth	-5244
▁Government	-5245
▁Work	-5246
▁Hy	-5247
▁hung	-5248
▁score	-5249
▁easier	-5250
▁acad	-5251
▁figures	-5252
▁letters	-5253
▁negative	-5254
phas	-5255
▁advert	-5256
box	-5257
▁neither	-5258
▁Love	-5259
arters	-5260
ogue	-5261
▁Far	-5262
▁sounds	-5263
hew	-5264
▁compar	-5265
▁winter	-5266
▁31	-5267
▁metal	-5268
▁route	-5269
▁instruct	-5270
IG	-5271
▁defend	-5272
▁Service	-5273
▁device	-5274
▁cells	-5275
▁understood	-5276
ST	-5277
▁Perhaps	-5278
▁tout	-5279
▁align	-5280
▁Mos	-5281
▁AP	-5282
▁commission	-5283
aret	-5284
▁hearing	-5285
▁department	-5286
▁flo	-5287
alls	-5288
▁tele	-5289
For	-5290
▁unlike	-5291
▁songs	-5292
–3	-5293
▁obvious	-5294
rip	-5295
urban	-5296
uten	-5297
▁strateg	-5298
▁Justice	-5299
▁Three	-5300
▁pra	-5301
▁ét	-5302
▁silence	-5303
|---	-5304
▁Still	-5305
▁pock	-5306
▁Cat	-5307
▁\	-5308
▁80	-5309
▁proposed	-5310
▁partner	-5311
kl	-5312
▁stars	-5313
▁concerns	-5314
Ph	-5315
▁driver	-5316
▁subsequ	-5317
▁mental	-5318
overy	-5319
▁depend	-5320
▁Dec	-5321
▁confirmed	-5322
▁conclud	-5323
oston	-5324
▁Fre	-5325
abeth	-5326
án	-5327
▁alive	-5328
lyn	-5329
under	-5330
▁massive	-5331
oom	-5332
▁Fred	-5333
EO	-5334
▁remark	-5335
▁false	-5336
▁bomb	-5337
▁performed	-5338
▁!	-5339
▁element	-5340
writ	-5341
▁afraid	-5342
▁storm	-5343
cel	-5344
▁planning	-5345
▁för	-5346
ey	-5347
▁flight	-5348
imal	-5349
ет	-5350
▁vast	-5351
All	-5352
▁connect	-5353
onom	-5354
urd	-5355
▁revolution	-5356
▁turns	-5357
▁restrict	-5358
▁Fer	-5359
▁driving	-5360
▁45	-5361
▁og	-5362
rick	-5363
▁dial	-5364
igan	-5365
てい	-5366
lies	-5367
▁dollars	-5368
▁noticed	-5369
▁ru	-5370
▁historical	-5371
▁Ell	-5372
▁crack	-5373
▁centre	-5374
▁mel	-5375
iger	-5376
▁Di	-5377
▁lips	-5378
iser	-5379
▁ave	-5380
▁determined	-5381
works	-5382
▁Bus	-5383
▁cart	-5384
▁serving	-5385
lets	-5386
▁?	-5387
▁camera	-5388
▁supply	-5389
▁fold	-5390
▁tiny	-5391
▁Fort	-5392
▁Tem	-5393
▁spending	-5394
▁Italy	-5395
▁shop	-5396
▁sust	-5397
▁spokes	-5398
▁extremely	-5399
▁Penn	-5400
▁Haw	-5401
mo	-5402
▁sorry	-5403
iana	-5404
▁flag	-5405
▁butter	-5406
▁interpret	-5407
▁bought	-5408
▁Kenn	-5409
▁Hot	-5410
▁mad	-5411
▁winning	-5412
▁employees	-5413
▁fant	-5414
riff	-5415
▁refused	-5416
▁Today	-5417
▁directed	-5418
IP	-5419
▁household	-5420
aron	-5421
phone	-5422
▁Four	-5423
▁houses	-5424
▁spr	-5425
host	-5426
azz	-5427
▁existence	-5428
▁weren	-5429
utch	-5430
▁traffic	-5431
▁religion	-5432
▁Gen	-5433
▁quant	-5434
▁planned	-5435
-5	-5436
▁supported	-5437
▁Mic	-5438
▁Though	-5439
ader	-5440
▁shooting	-5441
▁patient	-5442
ль	-5443
ikes	-5444
▁fan	-5445
▁dyn	-5446
▁Whe	-5447
▁Techn	-5448
▁aside	-5449
bb	-5450
▁worst	-5451
▁rates	-5452
iat	-5453
▁taste	-5454
▁originally	-5455
▁iron	-5456
▁hundreds	-5457
▁core	-5458
▁Chief	-5459
▁opposition	-5460
essed	-5461
▁benefit	-5462
▁Nat	-5463
▁rooms	-5464
road	-5465
aven	-5466
▁instit	-5467
oked	-5468
▁skills	-5469
▁exhib	-5470
▁List	-5471
oir	-5472
▁bat	-5473
▁boat	-5474
▁plants	-5475
▁bowl	-5476
atre	-5477
▁reduce	-5478
▁protection	-5479
▁4,	-5480
▁Bas	-5481
▁Jean	-5482
gers	-5483
▁films	-5484
▁acknow	-5485
▁investment	-5486
ès	-5487
▁ho	-5488
htt	-5489
99	-5490
▁emerg	-5491
▁Boy	-5492
▁units	-5493
▁Polit	-5494
ellect	-5495
coming	-5496
onna	-5497
▁voters	-5498
▁select	-5499
▁replaced	-5500
▁$2	-5501
▁surprised	-5502
▁sites	-5503
▁residents	-5504
▁TO	-5505
▁Pac	-5506
▁10.	-5507
▁contrast	-5508
▁clothes	-5509
iders	-5510
▁sam	-5511
oral	-5512
▁motion	-5513
sembly	-5514
ortunately	-5515
▁correspond	-5516
▁Dar	-5517
▁presidential	-5518
▁weather	-5519
▁î	-5520
▁nu	-5521
▁stepped	-5522
ican	-5523
▁accur	-5524
▁listen	-5525
▁rent	-5526
▁Emp	-5527
inte	-5528
▁Eliz	-5529
▁instr	-5530
▁Georg	-5531
place	-5532
ér	-5533
▁interests	-5534
▁Queen	-5535
▁discussion	-5536
omin	-5537
▁appreci	-5538
IM	-5539
▁manner	-5540
▁annual	-5541
andom	-5542
aba	-5543
▁Internet	-5544
▁southern	-5545
ensus	-5546
▁cancer	-5547
▁focused	-5548
▁beside	-5549
▁scale	-5550
▁tools	-5551
▁1990	-5552
▁thirty	-5553
▁Catholic	-5554
▁assault	-5555
▁Van	-5556
▁items	-5557
▁Award	-5558
▁90	-5559
▁Scot	-5560
▁conduct	-5561
▁Educ	-5562
▁Science	-5563
▁scream	-5564
▁Class	-5565
▁habit	-5566
anche	-5567
–4	-5568
▁founded	-5569
▁strike	-5570
▁Ly	-5571
▁restaurant	-5572
▁balance	-5573
▁sports	-5574
▁Andrew	-5575
▁arrested	-5576
▁nearby	-5577
▁Pan	-5578
▁proceed	-5579
essor	-5580
class	-5581
▁largely	-5582
▁36	-5583
aph	-5584
▁Pak	-5585
▁Chris	-5586
amin	-5587
▁failure	-5588
▁capacity	-5589
▁generation	-5590
wers	-5591
▁hol	-5592
▁column	-5593
▁hid	-5594
unction	-5595
eline	-5596
▁м	-5597
▁migr	-5598
▁possibly	-5599
▁opposite	-5600
▁circumst	-5601
▁chart	-5602
▁liked	-5603
▁Care	-5604
unicip	-5605
▁charges	-5606
Un	-5607
▁thr	-5608
▁Middle	-5609
▁teasp	-5610
▁identified	-5611
▁advance	-5612
▁knowing	-5613
▁agent	-5614
?”	-5615
▁talked	-5616
▁bear	-5617
▁policies	-5618
▁Ap	-5619
▁prices	-5620
inch	-5621
▁(198	-5622
▁existing	-5623
▁beneath	-5624
▁rom	-5625
▁northern	-5626
wered	-5627
▁stir	-5628
▁accepted	-5629
outs	-5630
▁Gall	-5631
BS	-5632
▁issued	-5633
▁Republicans	-5634
een	-5635
▁cash	-5636
standing	-5637
▁scientific	-5638
ultural	-5639
▁escape	-5640
▁anx	-5641
▁ol	-5642
▁sharp	-5643
▁equipment	-5644
▁ist	-5645
▁latter	-5646
▁Ram	-5647
▁dram	-5648
▁Ep	-5649
una	-5650
CC	-5651
▁contains	-5652
▁Look	-5653
▁vehicle	-5654
equ	-5655
▁photo	-5656
▁Francisco	-5657
▁70	-5658
ila	-5659
BA	-5660
▁Force	-5661
▁approx	-5662
▁fly	-5663
▁wid	-5664
▁deliver	-5665
▁termin	-5666
▁mais	-5667
▁Fam	-5668
▁garden	-5669
▁Did	-5670
▁accident	-5671
▁fro	-5672
▁equal	-5673
▁transform	-5674
▁feels	-5675
▁heads	-5676
▁excell	-5677
irus	-5678
▁lit	-5679
nell	-5680
ned	-5681
itable	-5682
▁Top	-5683
▁Bell	-5684
▁killing	-5685
▁aircraft	-5686
▁journey	-5687
▁usual	-5688
▁stress	-5689
▁coal	-5690
▁Ox	-5691
▁Young	-5692
36	-5693
▁Ireland	-5694
▁forth	-5695
▁gest	-5696
▁milk	-5697
▁Thus	-5698
▁unless	-5699
▁possibility	-5700
▁bridge	-5701
▁emphas	-5702
oma	-5703
▁passing	-5704
▁paint	-5705
▁withd	-5706
iform	-5707
tes	-5708
itors	-5709
▁Hon	-5710
▁Ha	-5711
▁tool	-5712
▁flav	-5713
▁https	-5714
▁Boston	-5715
umber	-5716
▁greatest	-5717
▁yellow	-5718
▁Develop	-5719
▁install	-5720
▁advoc	-5721
▁gather	-5722
ipping	-5723
▁faces	-5724
▁pages	-5725
▁signs	-5726
▁accomp	-5727
OW	-5728
uz	-5729
▁raise	-5730
▁Der	-5731
за	-5732
▁Christmas	-5733
▁Uk	-5734
hetic	-5735
▁succeed	-5736
▁magn	-5737
▁magic	-5738
▁fuel	-5739
▁owner	-5740
icine	-5741
▁Av	-5742
▁gain	-5743
▁Hor	-5744
▁consult	-5745
▁seek	-5746
nic	-5747
▁auf	-5748
▁mas	-5749
].	-5750
going	-5751
cia	-5752
▁ast	-5753
▁accused	-5754
▁Security	-5755
▁sym	-5756
▁Korea	-5757
ums	-5758
pan	-5759
arks	-5760
illy	-5761
▁rank	-5762
▁alternative	-5763
▁9.	-5764
▁humans	-5765
▁apparently	-5766
TH	-5767
▁merely	-5768
▁honest	-5769
On	-5770
▁orders	-5771
▁Harr	-5772
▁declared	-5773
uration	-5774
nel	-5775
▁shif	-5776
▁division	-5777
OO	-5778
▁vul	-5779
▁Put	-5780
▁batt	-5781
▁objects	-5782
▁providing	-5783
onto	-5784
▁sie	-5785
▁models	-5786
▁cream	-5787
▁finish	-5788
osure	-5789
▁essential	-5790
▁thanks	-5791
▁Stan	-5792
▁Jackson	-5793
sen	-5794
ansion	-5795
▁conscious	-5796
▁rot	-5797
▁younger	-5798
▁Ill	-5799
▁bread	-5800
▁pow	-5801
▁follows	-5802
▁ال	-5803
▁liqu	-5804
▁lies	-5805
▁prosec	-5806
▁weekend	-5807
▁numerous	-5808
▁somewhere	-5809
▁relatively	-5810
▁committed	-5811
zer	-5812
aire	-5813
▁hyp	-5814
▁imper	-5815
▁handle	-5816
▁union	-5817
▁methods	-5818
▁requires	-5819
▁Sk	-5820
rich	-5821
nam	-5822
▁Edward	-5823
▁1980	-5824
▁Exp	-5825
CA	-5826
▁decide	-5827
38	-5828
▁Mean	-5829
▁listed	-5830
▁Fox	-5831
ivered	-5832
▁struck	-5833
▁mountain	-5834
▁Child	-5835
▁unable	-5836
▁matters	-5837
▁occurred	-5838
-6	-5839
ла	-5840
▁Open	-5841
▁university	-5842
icon	-5843
▁carefully	-5844
▁Pub	-5845
▁funding	-5846
▁pictures	-5847
24	-5848
▁tor	-5849
▁Harry	-5850
▁controvers	-5851
▁grass	-5852
▁internal	-5853
acle	-5854
▁ships	-5855
▁Inf	-5856
SA	-5857
inem	-5858
▁Aut	-5859
..."	-5860
▁honor	-5861
oking	-5862
worth	-5863
▁afford	-5864
ompl	-5865
▁Fire	-5866
▁illustr	-5867
century	-5868
–5	-5869
▁allowing	-5870
enses	-5871
▁("	-5872
law	-5873
▁fundament	-5874
▁Bit	-5875
▁reference	-5876
▁Williams	-5877
76	-5878
iden	-5879
zil	-5880
▁documents	-5881
▁perman	-5882
asts	-5883
▁ends	-5884
▁ourselves	-5885
embered	-5886
▁Loc	-5887
▁bringing	-5888
▁losing	-5889
eping	-5890
▁Rome	-5891
ureau	-5892
▁changing	-5893
▁Turn	-5894
▁homes	-5895
▁responsibility	-5896
oi	-5897
▁alt	-5898
cha	-5899
▁vent	-5900
icial	-5901
▁incor	-5902
▁decisions	-5903
life	-5904
rad	-5905
▁Supreme	-5906
▁magazine	-5907
▁researchers	-5908
▁laid	-5909
iences	-5910
▁Irish	-5911
▁About	-5912
▁charged	-5913
water	-5914
▁Elizabeth	-5915
на	-5916
▁Prime	-5917
ection	-5918
▁smooth	-5919
▁Jews	-5920
▁Secretary	-5921
▁Year	-5922
▁drew	-5923
–6	-5924
▁wed	-5925
▁importance	-5926
usal	-5927
▁Fur	-5928
▁2005	-5929
▁bath	-5930
▁elim	-5931
idad	-5932
▁End	-5933
rency	-5934
▁drawn	-5935
itutional	-5936
▁PR	-5937
▁distinct	-5938
▁begins	-5939
▁constit	-5940
▁Prov	-5941
▁incred	-5942
apping	-5943
olved	-5944
▁б	-5945
▁connected	-5946
▁elections	-5947
UR	-5948
otic	-5949
▁Game	-5950
▁Dev	-5951
▁stared	-5952
▁devices	-5953
ishop	-5954
▁ride	-5955
lar	-5956
cr	-5957
onym	-5958
▁experienced	-5959
agues	-5960
▁rare	-5961
▁Way	-5962
▁wear	-5963
▁anyway	-5964
▁silver	-5965
▁fashion	-5966
34	-5967
▁micro	-5968
▁Lady	-5969
▁grown	-5970
▁finger	-5971
hus	-5972
▁Gi	-5973
▁Was	-5974
▁insp	-5975
▁Free	-5976
▁joint	-5977
▁blog	-5978
▁proced	-5979
▁Rod	-5980
▁remove	-5981
▁prime	-5982
▁bell	-5983
athan	-5984
▁starts	-5985
▁professor	-5986
▁adjust	-5987
▁prove	-5988
▁Ari	-5989
▁AND	-5990
▁appointed	-5991
22	-5992
▁Wild	-5993
та	-5994
▁eating	-5995
▁loud	-5996
▁newspaper	-5997
elf	-5998
▁Bow	-5999
▁secure	-6000
▁decade	-6001
roid	-6002
lder	-6003
▁increasingly	-6004
▁fruit	-6005
▁Sa	-6006
▁laughed	-6007
gent	-6008
▁191	-6009
▁ben	-6010
aux	-6011
pass	-6012
▁lock	-6013
▁millions	-6014
▁represented	-6015
icate	-6016
▁Blue	-6017
uster	-6018
ograp	-6019
▁Human	-6020
run	-6021
▁script	-6022
color	-6023
▁π	-6024
▁artists	-6025
▁Kell	-6026
▁Finally	-6027
▁organizations	-6028
▁intellect	-6029
▁Oper	-6030
":	-6031
▁Valley	-6032
ologies	-6033
▁apply	-6034
icide	-6035
–1	-6036
▁committee	-6037
▁upper	-6038
bal	-6039
▁Os	-6040
amber	-6041
▁Palest	-6042
▁happening	-6043
esc	-6044
icking	-6045
▁batter	-6046
▁thank	-6047
▁nicht	-6048
PS	-6049
▁han	-6050
▁Foot	-6051
ere	-6052
▁hate	-6053
▁cards	-6054
▁advice	-6055
▁nerv	-6056
▁http	-6057
▁laugh	-6058
▁moments	-6059
▁Tay	-6060
enger	-6061
▁suggests	-6062
▁alc	-6063
▁Vi	-6064
те	-6065
▁Again	-6066
stone	-6067
▁Ray	-6068
▁beer	-6069
▁Columb	-6070
issions	-6071
▁fuck	-6072
▁offering	-6073
IR	-6074
▁Cy	-6075
▁Rose	-6076
▁helping	-6077
▁Power	-6078
azon	-6079
▁crypt	-6080
▁Little	-6081
▁III	-6082
ns	-6083
▁victims	-6084
▁Ron	-6085
▁sauce	-6086
▁testing	-6087
▁nose	-6088
▁expert	-6089
▁Asia	-6090
▁Early	-6091
▁doors	-6092
▁hardly	-6093
▁accompl	-6094
▁Water	-6095
▁planet	-6096
pes	-6097
▁accounts	-6098
▁carrying	-6099
pered	-6100
▁System	-6101
▁rum	-6102
▁remembered	-6103
▁sought	-6104
▁Home	-6105
inating	-6106
alog	-6107
▁measures	-6108
Ex	-6109
▁stands	-6110
▁stro	-6111
▁creation	-6112
▁ec	-6113
▁USA	-6114
▁answered	-6115
xture	-6116
▁promise	-6117
iva	-6118
ло	-6119
▁owned	-6120
▁collabor	-6121
▁bond	-6122
▁windows	-6123
▁cro	-6124
ны	-6125
▁Bi	-6126
▁positions	-6127
claim	-6128
▁Son	-6129
▁recognized	-6130
▁stead	-6131
▁1970	-6132
▁taught	-6133
▁yards	-6134
igg	-6135
▁plate	-6136
во	-6137
arant	-6138
▁reduced	-6139
▁Figure	-6140
uv	-6141
▁recommend	-6142
▁powers	-6143
ructure	-6144
▁exercise	-6145
▁conce	-6146
▁bon	-6147
▁expressed	-6148
▁AM	-6149
endo	-6150
▁shock	-6151
uy	-6152
▁debt	-6153
-8	-6154
▁drugs	-6155
▁Carolina	-6156
oric	-6157
idel	-6158
▁34	-6159
▁attrib	-6160
▁healthy	-6161
▁struggle	-6162
▁tourn	-6163
▁native	-6164
▁calcul	-6165
▁feelings	-6166
▁council	-6167
aland	-6168
otten	-6169
▁Light	-6170
],	-6171
▁%	-6172
rees	-6173
▁wave	-6174
▁library	-6175
▁funds	-6176
▁ath	-6177
▁flour	-6178
izz	-6179
American	-6180
▁sav	-6181
▁debut	-6182
▁Kim	-6183
▁studio	-6184
▁Coll	-6185
▁dies	-6186
▁shel	-6187
▁Dam	-6188
▁ven	-6189
iplom	-6190
▁neighborhood	-6191
ao	-6192
▁impress	-6193
▁suffered	-6194
▁Syria	-6195
▁announce	-6196
▁assess	-6197
▁ped	-6198
orage	-6199
▁oblig	-6200
▁Federal	-6201
uled	-6202
▁Nov	-6203
▁Supp	-6204
▁Ret	-6205
acter	-6206
CT	-6207
▁alg	-6208
CE	-6209
▁flow	-6210
▁graph	-6211
▁extended	-6212
▁combined	-6213
▁gall	-6214
elve	-6215
▁housing	-6216
long	-6217
▁aid	-6218
▁temperature	-6219
▁teeth	-6220
▁recon	-6221
▁desper	-6222
▁photograph	-6223
▁apartment	-6224
▁plenty	-6225
▁lob	-6226
▁realize	-6227
▁2004	-6228
▁Daniel	-6229
stream	-6230
▁passion	-6231
▁FBI	-6232
▁Swed	-6233
▁5,	-6234
▁angry	-6235
angers	-6236
▁Person	-6237
▁tea	-6238
▁stayed	-6239
dy	-6240
ologist	-6241
▁Team	-6242
▁185	-6243
▁chose	-6244
▁dance	-6245
▁Space	-6246
▁reaction	-6247
▁Rog	-6248
▁Academy	-6249
▁circumstances	-6250
▁fer	-6251
▁predict	-6252
▁sport	-6253
éd	-6254
las	-6255
▁applied	-6256
▁Read	-6257
▁fields	-6258
anny	-6259
▁arrange	-6260
▁leads	-6261
-20	-6262
▁rising	-6263
▁Prince	-6264
Tr	-6265
▁sir	-6266
▁referred	-6267
never	-6268
▁Han	-6269
orough	-6270
adium	-6271
▁blind	-6272
char	-6273
ques	-6274
▁Test	-6275
▁subs	-6276
▁rend	-6277
▁precise	-6278
▁silent	-6279
▁Steve	-6280
▁Cop	-6281
▁Board	-6282
▁Major	-6283
asted	-6284
▁diet	-6285
▁Lar	-6286
imp	-6287
79	-6288
▁label	-6289
▁mobile	-6290
▁ultimately	-6291
▁Elect	-6292
▁Lew	-6293
iable	-6294
▁fired	-6295
bel	-6296
DA	-6297
▁pepper	-6298
▁Conf	-6299
Let	-6300
▁Sus	-6301
▁chain	-6302
▁studied	-6303
▁Director	-6304
▁Ros	-6305
inking	-6306
▁Nic	-6307
▁boot	-6308
▁proud	-6309
▁defined	-6310
▁Econom	-6311
▁plane	-6312
▁nut	-6313
▁definitely	-6314
▁Education	-6315
▁domestic	-6316
gas	-6317
ulous	-6318
▁Spain	-6319
▁classes	-6320
kel	-6321
▁drag	-6322
▁Later	-6323
▁dust	-6324
▁Alexander	-6325
▁faced	-6326
▁shoulders	-6327
▁facing	-6328
▁Tal	-6329
▁sole	-6330
▁til	-6331
aved	-6332
▁sets	-6333
▁Mir	-6334
ington	-6335
▁helps	-6336
urally	-6337
▁Lu	-6338
▁waited	-6339
▁weapon	-6340
▁barely	-6341
▁Sea	-6342
▁scientists	-6343
▁volume	-6344
▁Wat	-6345
tion	-6346
ghan	-6347
▁Ah	-6348
▁businesses	-6349
▁destroyed	-6350
▁marked	-6351
▁500	-6352
amente	-6353
▁roof	-6354
mm	-6355
unte	-6356
:00	-6357
iation	-6358
▁flood	-6359
▁contest	-6360
▁fool	-6361
▁survey	-6362
ulations	-6363
▁experiences	-6364
Be	-6365
▁33	-6366
▁factors	-6367
▁pool	-6368
▁height	-6369
▁Walk	-6370
▁Show	-6371
lisher	-6372
isa	-6373
▁trend	-6374
▁Budd	-6375
rete	-6376
▁champ	-6377
▁κ	-6378
▁lying	-6379
ml	-6380
▁bull	-6381
osis	-6382
▁lad	-6383
▁visual	-6384
▁excellent	-6385
awa	-6386
▁lights	-6387
▁admitted	-6388
▁convention	-6389
▁más	-6390
▁motiv	-6391
▁fought	-6392
▁standards	-6393
ensions	-6394
▁Never	-6395
▁avec	-6396
▁guns	-6397
▁clin	-6398
▁roll	-6399
▁refuge	-6400
adel	-6401
▁wondered	-6402
▁candidates	-6403
car	-6404
▁capable	-6405
▁argued	-6406
▁Foundation	-6407
▁deeply	-6408
▁frequently	-6409
▁Captain	-6410
SP	-6411
▁Guard	-6412
48	-6413
▁enforce	-6414
▁Ken	-6415
▁gentle	-6416
▁appropriate	-6417
▁Cross	-6418
▁determine	-6419
▁vs	-6420
▁markets	-6421
▁syn	-6422
▁Brazil	-6423
ught	-6424
▁operating	-6425
rast	-6426
▁desk	-6427
▁elev	-6428
33	-6429
cons	-6430
anz	-6431
▁MP	-6432
ucks	-6433
▁chosen	-6434
▁react	-6435
▁involve	-6436
ji	-6437
May	-6438
▁__	-6439
▁Holly	-6440
▁Night	-6441
▁CD	-6442
▁treated	-6443
essions	-6444
ensity	-6445
▁seeking	-6446
▁developing	-6447
▁duty	-6448
▁widely	-6449
Con	-6450
▁smoke	-6451
▁explan	-6452
▁innov	-6453
▁edition	-6454
▁rein	-6455
Pro	-6456
To	-6457
▁plastic	-6458
▁teen	-6459
▁fixed	-6460
▁worried	-6461
▁broadcast	-6462
▁discover	-6463
utt	-6464
idering	-6465
▁western	-6466
▁featured	-6467
▁Ins	-6468
▁split	-6469
eenth	-6470
▁shift	-6471
▁tone	-6472
▁materials	-6473
▁Hun	-6474
▁aggress	-6475
▁Ven	-6476
▁falling	-6477
▁actor	-6478
▁client	-6479
▁Project	-6480
▁illegal	-6481
26	-6482
cked	-6483
▁Plan	-6484
acht	-6485
illing	-6486
iments	-6487
LA	-6488
–8	-6489
bu	-6490
▁calm	-6491
▁relief	-6492
▁somehow	-6493
⁄4	-6494
▁absolutely	-6495
▁Kingdom	-6496
▁Note	-6497
▁Such	-6498
▁obviously	-6499
▁Stand	-6500
essel	-6501
▁missed	-6502
▁evil	-6503
▁ideal	-6504
upp	-6505
istered	-6506
thur	-6507
atoes	-6508
mosp	-6509
▁busy	-6510
prof	-6511
▁Saint	-6512
ου	-6513
▁wra	-6514
▁sich	-6515
▁dismiss	-6516
▁RE	-6517
▁Stephen	-6518
▁resc	-6519
icing	-6520
▁Mah	-6521
▁tu	-6522
▁closely	-6523
xual	-6524
▁isol	-6525
▁delic	-6526
▁cheese	-6527
▁institutions	-6528
ть	-6529
▁conver	-6530
▁beach	-6531
▁Viet	-6532
bell	-6533
reens	-6534
▁Bush	-6535
arsh	-6536
▁injury	-6537
▁drawing	-6538
した	-6539
aka	-6540
▁Adam	-6541
▁uncle	-6542
▁moon	-6543
▁lui	-6544
Wh	-6545
▁Ren	-6546
▁Lind	-6547
Cl	-6548
▁functions	-6549
▁regarding	-6550
▁confirm	-6551
anna	-6552
▁38	-6553
oster	-6554
oli	-6555
▁motor	-6556
oration	-6557
▁disappoint	-6558
▁settled	-6559
▁Bab	-6560
▁Down	-6561
▁inqu	-6562
▁Micro	-6563
▁examples	-6564
▁bigger	-6565
▁environmental	-6566
inals	-6567
▁myth	-6568
▁philosophy	-6569
▁Southern	-6570
▁desp	-6571
print	-6572
▁Through	-6573
▁terrible	-6574
▁scar	-6575
▁Hug	-6576
▁banks	-6577
ки	-6578
▁somewhat	-6579
▁headed	-6580
▁exclus	-6581
acc	-6582
agers	-6583
▁throat	-6584
inson	-6585
person	-6586
iti	-6587
▁expensive	-6588
UT	-6589
foot	-6590
▁advanced	-6591
▁attended	-6592
▁photos	-6593
▁practices	-6594
aza	-6595
ben	-6596
▁Civil	-6597
▁discussed	-6598
95	-6599
▁hors	-6600
▁files	-6601
▁combat	-6602
GB	-6603
ilipp	-6604
▁unus	-6605
▁Navy	-6606
uting	-6607
▁craft	-6608
nce	-6609
▁Norm	-6610
▁Organ	-6611
▁hidden	-6612
acked	-6613
")	-6614
anges	-6615
▁Mas	-6616
▁cos	-6617
▁identify	-6618
▁Brook	-6619
▁passage	-6620
▁perspective	-6621
▁fab	-6622
▁alleg	-6623
▁confront	-6624
▁hide	-6625
utation	-6626
rait	-6627
▁chicken	-6628
ées	-6629
▁prompt	-6630
▁Naz	-6631
▁observed	-6632
▁joy	-6633
▁Arm	-6634
ти	-6635
▁typically	-6636
wan	-6637
▁posted	-6638
▁lady	-6639
▁Mot	-6640
▁basket	-6641
▁giant	-6642
▁surprising	-6643
▁entertain	-6644
▁trig	-6645
▁causes	-6646
▁guide	-6647
▁wet	-6648
▁Oxford	-6649
▁conducted	-6650
▁lunch	-6651
▁selected	-6652
inity	-6653
▁phen	-6654
▁mixed	-6655
▁explos	-6656
asty	-6657
▁abuse	-6658
▁Special	-6659
▁anger	-6660
duct	-6661
▁confidence	-6662
FC	-6663
▁Conserv	-6664
▁tough	-6665
▁entry	-6666
▁proved	-6667
▁thinks	-6668
▁waste	-6669
▁valid	-6670
▁Zealand	-6671
▁seriously	-6672
▁pleasure	-6673
scape	-6674
▁acting	-6675
▁fasc	-6676
▁industrial	-6677
orted	-6678
▁Ryan	-6679
▁suffering	-6680
▁advent	-6681
uns	-6682
▁flu	-6683
▁tests	-6684
▁deploy	-6685
▁187	-6686
free	-6687
▁Rub	-6688
▁guitar	-6689
▁Pacific	-6690
▁Meanwhile	-6691
▁vulner	-6692
▁Win	-6693
ifest	-6694
▁promised	-6695
▁lawyer	-6696
▁Gab	-6697
▁manage	-6698
▁coord	-6699
De	-6700
▁2016,	-6701
▁1960	-6702
phy	-6703
▁roy	-6704
was	-6705
atures	-6706
▁Wilson	-6707
IF	-6708
▁os	-6709
▁teaspoon	-6710
▁pocket	-6711
▁subm	-6712
▁holds	-6713
▁tort	-6714
OC	-6715
▁heavily	-6716
▁differences	-6717
ilty	-6718
▁Sometimes	-6719
▁tur	-6720
▁Islamic	-6721
imm	-6722
▁cooper	-6723
▁uniform	-6724
ente	-6725
▁Marc	-6726
▁Latin	-6727
▁drove	-6728
▁faster	-6729
▁Anth	-6730
hers	-6731
▁tears	-6732
▁estate	-6733
▁alongside	-6734
▁Doug	-6735
▁anywhere	-6736
PA	-6737
▁eval	-6738
▁gay	-6739
heast	-6740
▁Cook	-6741
athered	-6742
▁Review	-6743
ctic	-6744
▁criticism	-6745
▁2003	-6746
▁]	-6747
▁emotional	-6748
oty	-6749
ourse	-6750
▁veter	-6751
▁phr	-6752
then	-6753
▁CEO	-6754
▁constant	-6755
wa	-6756
inder	-6757
▁wheel	-6758
uthors	-6759
▁mand	-6760
chain	-6761
▁legislation	-6762
ourage	-6763
▁intention	-6764
onde	-6765
mans	-6766
▁comfortable	-6767
▁Make	-6768
▁diplom	-6769
wart	-6770
▁selling	-6771
aria	-6772
▁Web	-6773
▁Right	-6774
▁teach	-6775
▁vehicles	-6776
▁surrounding	-6777
▁applications	-6778
▁affected	-6779
▁initially	-6780
▁approximately	-6781
▁brothers	-6782
ishment	-6783
▁Parliament	-6784
▁beauty	-6785
–18	-6786
▁teaching	-6787
▁hoped	-6788
▁cann	-6789
28	-6790
▁dogs	-6791
▁Pen	-6792
iveness	-6793
:30	-6794
▁sale	-6795
▁armed	-6796
▁chemical	-6797
▁не	-6798
▁2001	-6799
▁perfectly	-6800
▁string	-6801
orders	-6802
▁ingred	-6803
▁Taylor	-6804
▁ske	-6805
37	-6806
obe	-6807
▁Media	-6808
▁repro	-6809
▁unknown	-6810
▁attempts	-6811
________	-6812
▁6,	-6813
▁literature	-6814
she	-6815
TS	-6816
▁Cub	-6817
▁frustr	-6818
ika	-6819
▁seats	-6820
▁urban	-6821
▁radical	-6822
▁Form	-6823
▁immediate	-6824
▁ч	-6825
▁communication	-6826
▁sees	-6827
bury	-6828
▁formal	-6829
▁intent	-6830
▁paying	-6831
▁domin	-6832
▁Revolution	-6833
▁embr	-6834
▁Si	-6835
▁2015,	-6836
да	-6837
▁Berlin	-6838
▁flying	-6839
▁gender	-6840
earing	-6841
▁Color	-6842
▁ta	-6843
▁Simon	-6844
▁specifically	-6845
▁combination	-6846
21	-6847
Bl	-6848
▁enorm	-6849
ohol	-6850
▁Toronto	-6851
▁blank	-6852
▁situ	-6853
▁internet	-6854
▁Bon	-6855
▁tact	-6856
▁plain	-6857
soft	-6858
▁glad	-6859
▁mixture	-6860
▁Empire	-6861
▁Film	-6862
▁threw	-6863
▁Mu	-6864
▁delivered	-6865
▁acts	-6866
▁warning	-6867
46	-6868
nie	-6869
▁delay	-6870
bi	-6871
▁Place	-6872
▁Pass	-6873
sell	-6874
usted	-6875
▁Card	-6876
▁occas	-6877
▁Pop	-6878
ruption	-6879
▁distribution	-6880
▁sector	-6881
▁Northern	-6882
▁Afghan	-6883
39	-6884
▁Ho	-6885
▁mode	-6886
▁Ca	-6887
eared	-6888
hist	-6889
▁2014,	-6890
▁atmosp	-6891
ducing	-6892
fall	-6893
▁spiritual	-6894
ownt	-6895
▁territory	-6896
▁technical	-6897
ordan	-6898
AF	-6899
▁Next	-6900
ped	-6901
▁tail	-6902
ilding	-6903
▁relationships	-6904
▁Father	-6905
▁sup	-6906
▁transm	-6907
▁Bal	-6908
▁insurance	-6909
▁museum	-6910
▁Hard	-6911
▁describe	-6912
inations	-6913
http	-6914
▁Sign	-6915
▁inner	-6916
▁Aff	-6917
▁Dun	-6918
▁opposed	-6919
▁opportunities	-6920
athy	-6921
▁conservative	-6922
▁okay	-6923
▁Battle	-6924
▁kinds	-6925
▁merc	-6926
▁Image	-6927
lishing	-6928
▁regional	-6929
▁Take	-6930
▁button	-6931
ses	-6932
▁gift	-6933
▁emergency	-6934
▁Prem	-6935
▁gang	-6936
▁sentence	-6937
▁Ba	-6938
▁Please	-6939
lich	-6940
agan	-6941
▁2002	-6942
apes	-6943
▁ses	-6944
▁dynam	-6945
terday	-6946
mail	-6947
▁captain	-6948
▁noise	-6949
▁dozen	-6950
▁€	-6951
▁dish	-6952
▁Amazon	-6953
dr	-6954
▁Call	-6955
▁goods	-6956
▁pregn	-6957
related	-6958
▁depth	-6959
▁factor	-6960
▁darkness	-6961
▁writers	-6962
▁sufficient	-6963
▁Jr	-6964
▁squad	-6965
stra	-6966
▁shouldn	-6967
▁confident	-6968
▁dos	-6969
▁tip	-6970
▁sque	-6971
acement	-6972
▁CN	-6973
icious	-6974
▁Gree	-6975
See	-6976
▁Bru	-6977
▁Rail	-6978
▁sed	-6979
▁Ford	-6980
▁votes	-6981
▁rig	-6982
▁switch	-6983
▁Cambridge	-6984
▁recognize	-6985
▁Asian	-6986
▁comme	-6987
▁substant	-6988
▁plot	-6989
▁lifted	-6990
▁7,	-6991
▁agents	-6992
▁Kat	-6993
hips	-6994
▁Israeli	-6995
▁hasn	-6996
▁Further	-6997
▁channel	-6998
▁seasons	-6999
▁Tour	-7000
▁defeat	-7001
tense	-7002
▁stup	-7003
ocolate	-7004
▁believes	-7005
▁Pers	-7006
TV	-7007
▁musical	-7008
enda	-7009
▁municip	-7010
–9	-7011
itual	-7012
▁hang	-7013
▁Dor	-7014
lers	-7015
▁Ash	-7016
▁coc	-7017
▁tweet	-7018
▁truck	-7019
▁extent	-7020
▁breaking	-7021
▁violent	-7022
▁captured	-7023
tical	-7024
▁cerem	-7025
▁purchase	-7026
▁Rus	-7027
▁error	-7028
▁cert	-7029
▁amazing	-7030
▁secretary	-7031
acon	-7032
lines	-7033
▁cha	-7034
oz	-7035
▁Ohio	-7036
▁birds	-7037
▁myst	-7038
▁random	-7039
▁---	-7040
▁Earl	-7041
ême	-7042
▁tong	-7043
▁Tro	-7044
▁assert	-7045
▁monitor	-7046
▁hal	-7047
rient	-7048
▁listening	-7049
▁tracks	-7050
OV	-7051
Se	-7052
▁gate	-7053
▁Pakistan	-7054
▁symbol	-7055
▁Author	-7056
▁ear	-7057
▁Eastern	-7058
▁relax	-7059
▁Michigan	-7060
▁Bol	-7061
▁Enter	-7062
vania	-7063
▁loose	-7064
▁Albert	-7065
▁dedicated	-7066
31	-7067
▁Id	-7068
▁estimated	-7069
▁Development	-7070
lan	-7071
()	-7072
▁Tit	-7073
▁profession	-7074
▁Week	-7075
pected	-7076
vy	-7077
ер	-7078
isp	-7079
▁swim	-7080
▁visible	-7081
dro	-7082
rant	-7083
▁papers	-7084
▁Stone	-7085
▁Hay	-7086
aints	-7087
▁subt	-7088
▁у	-7089
▁fifth	-7090
iral	-7091
▁steel	-7092
▁wore	-7093
Can	-7094
quarters	-7095
▁resistance	-7096
▁tired	-7097
▁ja	-7098
ules	-7099
ansas	-7100
ça	-7101
▁frag	-7102
▁milit	-7103
▁Master	-7104
▁wonderful	-7105
▁favour	-7106
▁talks	-7107
▁careful	-7108
▁begun	-7109
▁stuck	-7110
▁cups	-7111
omach	-7112
▁excited	-7113
▁Lie	-7114
▁simpl	-7115
▁cig	-7116
▁Library	-7117
▁Use	-7118
▁lots	-7119
▁scholars	-7120
▁knife	-7121
▁Jane	-7122
▁drinking	-7123
▁ni	-7124
▁Tri	-7125
–7	-7126
▁responded	-7127
▁crazy	-7128
cow	-7129
49	-7130
▁2012,	-7131
eness	-7132
▁Scotland	-7133
▁earned	-7134
▁1⁄2	-7135
▁Among	-7136
▁suppose	-7137
▁innoc	-7138
▁spin	-7139
▁aus	-7140
▁vessel	-7141
▁returning	-7142
aya	-7143
▁fallen	-7144
▁readers	-7145
MA	-7146
▁Had	-7147
▁visited	-7148
▁chap	-7149
▁ham	-7150
▁tied	-7151
▁classic	-7152
bles	-7153
▁trick	-7154
▁glanced	-7155
▁recip	-7156
▁circle	-7157
▁Nick	-7158
▁hole	-7159
▁organized	-7160
rett	-7161
whel	-7162
▁Ra	-7163
rage	-7164
▁behavi	-7165
unior	-7166
oming	-7167
▁deaths	-7168
uh	-7169
state	-7170
▁renew	-7171
▁scored	-7172
▁hoping	-7173
▁desert	-7174
▁divided	-7175
irk	-7176
▁explo	-7177
▁für	-7178
▁Field	-7179
▁prospect	-7180
5%	-7181
peror	-7182
season	-7183
uable	-7184
▁Jenn	-7185
▁wire	-7186
▁sword	-7187
▁Pot	-7188
acking	-7189
rum	-7190
▁corporate	-7191
▁panel	-7192
▁supporters	-7193
sm	-7194
iy	-7195
▁agric	-7196
▁în	-7197
▁util	-7198
▁guilty	-7199
▁37	-7200
▁ox	-7201
▁wake	-7202
bro	-7203
▁Dutch	-7204
▁Professor	-7205
raine	-7206
▁links	-7207
▁2017,	-7208
▁300	-7209
boy	-7210
▁articles	-7211
▁hill	-7212
▁determin	-7213
▁hes	-7214
ilit	-7215
▁boss	-7216
▁liquid	-7217
▁Anton	-7218
▁AR	-7219
▁Nob	-7220
▁shr	-7221
Are	-7222
Who	-7223
▁Windows	-7224
:5	-7225
TA	-7226
▁liberal	-7227
▁consequences	-7228
▁2013,	-7229
▁attorney	-7230
heim	-7231
▁sche	-7232
▁tent	-7233
▁mainly	-7234
▁creative	-7235
udes	-7236
▁supporting	-7237
▁coverage	-7238
oln	-7239
▁sevent	-7240
▁reserv	-7241
uana	-7242
▁challenges	-7243
▁11.	-7244
▁phenomen	-7245
style	-7246
▁session	-7247
▁gaze	-7248
42	-7249
syl	-7250
▁jail	-7251
▁proof	-7252
▁Games	-7253
▁governor	-7254
▁Bes	-7255
rive	-7256
attered	-7257
acket	-7258
▁mistake	-7259
▁permission	-7260
har	-7261
iah	-7262
▁conven	-7263
▁signal	-7264
▁cooking	-7265
▁warned	-7266
▁enh	-7267
Now	-7268
▁Brad	-7269
▁AL	-7270
antry	-7271
▁enthus	-7272
▁moves	-7273
eding	-7274
SS	-7275
▁Following	-7276
▁appeal	-7277
▁horses	-7278
▁centuries	-7279
ella	-7280
▁Philipp	-7281
word	-7282
▁distingu	-7283
65	-7284
▁sho	-7285
▁adopted	-7286
▁Kar	-7287
▁narrative	-7288
▁tomorrow	-7289
▁Santa	-7290
▁therap	-7291
▁Greg	-7292
▁stores	-7293
▁clar	-7294
47	-7295
▁esp	-7296
emies	-7297
▁considering	-7298
▁blow	-7299
▁universe	-7300
▁Head	-7301
▁teachers	-7302
▁entrance	-7303
▁recording	-7304
▁Business	-7305
▁experts	-7306
▁Marsh	-7307
comm	-7308
▁vice	-7309
▁intellectual	-7310
▁urg	-7311
iones	-7312
▁facts	-7313
unes	-7314
▁Marg	-7315
▁encoun	-7316
▁Watch	-7317
sa	-7318
utenant	-7319
umes	-7320
▁Cru	-7321
▁invited	-7322
▁bien	-7323
rastructure	-7324
▁shadow	-7325
▁tack	-7326
▁county	-7327
▁wooden	-7328
▁Sud	-7329
▁gathered	-7330
▁Main	-7331
▁NFL	-7332
▁nations	-7333
▁resident	-7334
▁AT	-7335
ockey	-7336
▁Hal	-7337
▁Vis	-7338
▁discip	-7339
▁Series	-7340
▁1950	-7341
▁kil	-7342
father	-7343
▁Orig	-7344
▁attacked	-7345
called	-7346
umbled	-7347
▁Real	-7348
▁dressed	-7349
ele	-7350
▁enjoyed	-7351
▁12.	-7352
▁Program	-7353
makers	-7354
cription	-7355
there	-7356
▁Which	-7357
▁regime	-7358
▁Eric	-7359
rical	-7360
▁engaged	-7361
▁sympt	-7362
▁pitch	-7363
▁primarily	-7364
▁Georgia	-7365
▁BBC	-7366
▁Li	-7367
▁PC	-7368
ennis	-7369
sters	-7370
▁fault	-7371
▁Kent	-7372
▁Sant	-7373
▁properties	-7374
hal	-7375
▁eggs	-7376
▁package	-7377
▁Daily	-7378
▁Leon	-7379
▁Without	-7380
▁10,	-7381
▁intense	-7382
▁fundamental	-7383
▁Davis	-7384
▁Sanders	-7385
▁theme	-7386
ät	-7387
cht	-7388
▁Avenue	-7389
▁inspired	-7390
▁mes	-7391
▁stomach	-7392
▁selection	-7393
▁linked	-7394
▁pic	-7395
uma	-7396
▁messages	-7397
sylvania	-7398
▁Football	-7399
▁handed	-7400
▁Turkey	-7401
▁painting	-7402
▁wing	-7403
▁zone	-7404
▁Mother	-7405
▁Tony	-7406
▁fifty	-7407
▁writes	-7408
▁soil	-7409
▁optim	-7410
abilities	-7411
▁Stat	-7412
▁pale	-7413
▁Line	-7414
▁royal	-7415
ori	-7416
▁extract	-7417
▁excess	-7418
▁rolled	-7419
▁contemporary	-7420
eff	-7421
▁principle	-7422
▁academic	-7423
▁remote	-7424
▁aux	-7425
▁retire	-7426
ogen	-7427
/20	-7428
agger	-7429
▁Sab	-7430
▁protected	-7431
▁Brian	-7432
▁newly	-7433
achel	-7434
▁volunte	-7435
▁assistant	-7436
Get	-7437
weet	-7438
▁Fair	-7439
▁totally	-7440
ayer	-7441
▁storage	-7442
leep	-7443
five	-7444
▁brings	-7445
▁fairly	-7446
▁replace	-7447
resents	-7448
OD	-7449
ieties	-7450
▁gotten	-7451
▁8,	-7452
▁approved	-7453
▁aspects	-7454
▁description	-7455
▁Festival	-7456
▁NY	-7457
▁welcome	-7458
eral	-7459
▁asks	-7460
▁bottle	-7461
▁convin	-7462
▁cutting	-7463
▁receiving	-7464
bled	-7465
gment	-7466
▁48	-7467
anes	-7468
▁ears	-7469
inding	-7470
▁authors	-7471
▁everybody	-7472
ami	-7473
▁Awards	-7474
▁eastern	-7475
▁forever	-7476
▁returns	-7477
▁Coast	-7478
▁Bitcoin	-7479
▁offensive	-7480
fol	-7481
andal	-7482
adelph	-7483
PR	-7484
▁tas	-7485
▁sending	-7486
▁crossed	-7487
rors	-7488
▁Beach	-7489
▁rear	-7490
Just	-7491
▁Sarah	-7492
sl	-7493
▁Lin	-7494
▁Labour	-7495
▁techniques	-7496
▁mechanism	-7497
▁minimum	-7498
29	-7499
▁denied	-7500
▁neut	-7501
▁Ross	-7502
▁leaned	-7503
▁matches	-7504
▁root	-7505
▁finds	-7506
▁attempted	-7507
ova	-7508
gcolor	-7509
▁tournament	-7510
▁Mom	-7511
Where	-7512
iar	-7513
▁Turk	-7514
ortion	-7515
▁forty	-7516
▁injured	-7517
▁acknowled	-7518
aval	-7519
▁proposal	-7520
▁Saud	-7521
27	-7522
▁anymore	-7523
▁39	-7524
▁touched	-7525
▁burst	-7526
▁Steven	-7527
▁pressed	-7528
år	-7529
asure	-7530
▁Ms	-7531
▁shirt	-7532
▁decor	-7533
▁producer	-7534
▁typical	-7535
ups	-7536
unning	-7537
▁Hom	-7538
▁buried	-7539
▁evolution	-7540
▁Pennsylvania	-7541
lock	-7542
olo	-7543
inned	-7544
▁Come	-7545
▁Have	-7546
▁facilities	-7547
▁concert	-7548
▁explore	-7549
▁refe	-7550
▁Arthur	-7551
▁harder	-7552
▁furn	-7553
▁diagn	-7554
▁constantly	-7555
hire	-7556
▁Dub	-7557
▁overwhel	-7558
▁Victor	-7559
▁shares	-7560
utor	-7561
▁adapt	-7562
▁prominent	-7563
▁encourage	-7564
▁reputation	-7565
▁Hit	-7566
▁breakfast	-7567
ibilities	-7568
umin	-7569
▁decre	-7570
▁Story	-7571
die	-7572
ribe	-7573
▁immigration	-7574
hemat	-7575
▁bom	-7576
▁Gil	-7577
▁saved	-7578
▁processes	-7579
▁stupid	-7580
▁Centre	-7581
tra	-7582
▁hopes	-7583
▁spoken	-7584
eman	-7585
zo	-7586
▁origin	-7587
▁manufacture	-7588
▁mayor	-7589
▁Cab	-7590
▁incorpor	-7591
▁retail	-7592
from	-7593
▁Hell	-7594
▁necessarily	-7595
▁retired	-7596
▁Books	-7597
▁Point	-7598
▁gray	-7599
▁driven	-7600
▁Jersey	-7601
▁filed	-7602
▁exposed	-7603
▁Ak	-7604
▁Indeed	-7605
▁sont	-7606
▁granted	-7607
▁Miller	-7608
TC	-7609
▁click	-7610
lessly	-7611
▁stations	-7612
44	-7613
hent	-7614
▁Jordan	-7615
▁instrument	-7616
▁everywhere	-7617
▁emerged	-7618
▁cycle	-7619
▁talent	-7620
adelphia	-7621
▁properly	-7622
▁perce	-7623
▁Non	-7624
▁surve	-7625
▁uncertain	-7626
▁Order	-7627
23	-7628
▁slic	-7629
▁juice	-7630
▁transition	-7631
▁phase	-7632
▁Cas	-7633
atell	-7634
▁Ten	-7635
▁equival	-7636
ле	-7637
▁defeated	-7638
▁Disc	-7639
.’	-7640
▁Death	-7641
▁Using	-7642
▁thread	-7643
▁guarant	-7644
▁trading	-7645
mod	-7646
▁versions	-7647
ön	-7648
▁delight	-7649
▁Jam	-7650
▁Sky	-7651
▁twelve	-7652
▁Ibid	-7653
tering	-7654
▁coat	-7655
▁unw	-7656
cluding	-7657
▁represents	-7658
▁awarded	-7659
▁exception	-7660
▁Ur	-7661
active	-7662
abil	-7663
▁unp	-7664
▁Howard	-7665
▁roughly	-7666
uj	-7667
▁golden	-7668
gi	-7669
ém	-7670
▁symp	-7671
▁nobody	-7672
▁movements	-7673
▁colleagues	-7674
▁Writ	-7675
▁gained	-7676
▁Hollywood	-7677
Go	-7678
▁lect	-7679
▁purposes	-7680
Then	-7681
▁Moscow	-7682
▁assume	-7683
▁carbon	-7684
▁Records	-7685
yard	-7686
▁cow	-7687
▁obtained	-7688
▁pill	-7689
▁crimes	-7690
rying	-7691
▁Pa	-7692
▁Phot	-7693
▁Lewis	-7694
▁Dark	-7695
arrass	-7696
▁exha	-7697
▁athlet	-7698
▁statements	-7699
At	-7700
agen	-7701
▁Bat	-7702
▁meal	-7703
▁expansion	-7704
care	-7705
ijuana	-7706
▁Palestin	-7707
▁manifest	-7708
▁instant	-7709
▁agencies	-7710
▁governments	-7711
▁pilot	-7712
▁chopped	-7713
▁contained	-7714
▁format	-7715
▁customer	-7716
▁principles	-7717
▁quietly	-7718
▁Hand	-7719
itarian	-7720
ugg	-7721
▁anticip	-7722
▁2011,	-7723
▁branch	-7724
▁Duke	-7725
▁oven	-7726
ammed	-7727
▁update	-7728
▁Eth	-7729
▁cock	-7730
▁achieved	-7731
▁guest	-7732
▁reaching	-7733
▁significantly	-7734
rome	-7735
▁1:	-7736
▁tonight	-7737
▁flowers	-7738
▁somebody	-7739
▁brill	-7740
▁movies	-7741
itage	-7742
▁portion	-7743
abled	-7744
▁province	-7745
▁(3	-7746
▁solo	-7747
▁Market	-7748
UN	-7749
icket	-7750
▁argue	-7751
▁uncom	-7752
case	-7753
▁Set	-7754
▁legit	-7755
burgh	-7756
rooms	-7757
▁2010,	-7758
▁enforcement	-7759
▁als	-7760
incoln	-7761
greg	-7762
▁„	-7763
level	-7764
▁Ker	-7765
▁Du	-7766
▁obtain	-7767
▁locked	-7768
ifer	-7769
orne	-7770
olve	-7771
▁alcohol	-7772
▁practical	-7773
spe	-7774
▁Tam	-7775
▁historic	-7776
orge	-7777
don	-7778
▁survive	-7779
▁Vill	-7780
▁Colon	-7781
▁flash	-7782
▁pushing	-7783
▁taxes	-7784
▁causing	-7785
▁prepar	-7786
▁preced	-7787
▁180	-7788
▁fiction	-7789
encing	-7790
▁definition	-7791
▁Arts	-7792
▁singer	-7793
▁threatened	-7794
▁MA	-7795
▁unusual	-7796
One	-7797
▁nur	-7798
▁rice	-7799
ilton	-7800
▁defensive	-7801
▁della	-7802
▁Kong	-7803
Yeah	-7804
▁effectively	-7805
▁Photo	-7806
▁Station	-7807
enh	-7808
▁Wales	-7809
rat	-7810
▁facility	-7811
▁Check	-7812
▁pounds	-7813
▁1999	-7814
▁obst	-7815
▁eine	-7816
▁Brother	-7817
rehens	-7818
▁α	-7819
▁politician	-7820
する	-7821
▁convinced	-7822
▁mountains	-7823
ni	-7824
▁65	-7825
▁whispered	-7826
▁parliament	-7827
▁Sher	-7828
▁sheet	-7829
arse	-7830
▁è	-7831
iciency	-7832
▁explains	-7833
▁patterns	-7834
Ne	-7835
▁Jacob	-7836
41	-7837
▁yield	-7838
▁Ut	-7839
Of	-7840
who	-7841
▁detailed	-7842
olis	-7843
▁physic	-7844
▁structures	-7845
▁democracy	-7846
align	-7847
▁()	-7848
▁tank	-7849
weight	-7850
▁ending	-7851
▁notion	-7852
ographic	-7853
▁championship	-7854
▁shoes	-7855
▁server	-7856
▁abandoned	-7857
▁videos	-7858
ande	-7859
▁Six	-7860
▁infl	-7861
▁subsc	-7862
▁NE	-7863
▁Broad	-7864
uine	-7865
▁ordinary	-7866
▁Imp	-7867
-9	-7868
wick	-7869
▁parking	-7870
▁bid	-7871
▁Wars	-7872
▁degrees	-7873
mary	-7874
▁acquired	-7875
▁Invest	-7876
▁Pier	-7877
bra	-7878
des	-7879
▁Family	-7880
ifications	-7881
▁Nothing	-7882
▁Las	-7883
▁9,	-7884
fr	-7885
▁assumed	-7886
uters	-7887
gery	-7888
▁Food	-7889
▁за	-7890
▁answers	-7891
?_	-7892
ucked	-7893
▁loyal	-7894
▁approached	-7895
った	-7896
▁categ	-7897
▁deck	-7898
▁permanent	-7899
▁attached	-7900
68	-7901
▁femin	-7902
ounced	-7903
aping	-7904
▁Hong	-7905
▁unex	-7906
▁bgcolor	-7907
▁reward	-7908
▁Lim	-7909
▁150	-7910
▁skill	-7911
▁moder	-7912
▁elsewhere	-7913
▁deliber	-7914
Good	-7915
▁burning	-7916
▁principal	-7917
mble	-7918
▁temple	-7919
▁Several	-7920
▁relevant	-7921
▁airport	-7922
▁Microsoft	-7923
rep	-7924
▁cir	-7925
▁gently	-7926
ся	-7927
lem	-7928
ени	-7929
ommod	-7930
▁ih	-7931
mates	-7932
▁ID	-7933
▁explanation	-7934
▁ax	-7935
dam	-7936
▁2018,	-7937
▁serves	-7938
▁friendly	-7939
▁infrastructure	-7940
▁ti	-7941
▁resulting	-7942
▁Engine	-7943
▁spons	-7944
▁margin	-7945
▁marketing	-7946
▁luck	-7947
▁potentially	-7948
▁avo	-7949
▁dear	-7950
▁languages	-7951
yers	-7952
▁cuts	-7953
▁priest	-7954
▁mood	-7955
▁cheap	-7956
theless	-7957
owa	-7958
▁**_	-7959
▁voted	-7960
▁dad	-7961
▁ingredients	-7962
rec	-7963
▁dealing	-7964
▁equally	-7965
▁persu	-7966
▁accompan	-7967
▁ON	-7968
▁controlled	-7969
▁flesh	-7970
▁49	-7971
looking	-7972
▁yesterday	-7973
▁regions	-7974
tic	-7975
▁settle	-7976
▁#####	-7977
▁sounded	-7978
▁informed	-7979
icer	-7980
Did	-7981
▁Gro	-7982
▁Korean	-7983
▁vous	-7984
rets	-7985
▁**1	-7986
owntown	-7987
▁Thank	-7988
▁commander	-7989
▁Lib	-7990
prise	-7991
▁SP	-7992
▁Has	-7993
agram	-7994
▁recognition	-7995
▁knees	-7996
▁Matthew	-7997
▁Sie	-7998
▁Py	-7999
uri	-8000
▁absor	-8001
▁efficient	-8002
▁Hind	-8003
▁cried	-8004
▁soldier	-8005
▁WH	-8006
eling	-8007
▁hook	-8008
shire	-8009
▁alarm	-8010
▁kick	-8011
irts	-8012
▁Moh	-8013
▁sharing	-8014
▁clients	-8015
▁flex	-8016
▁11,	-8017
▁Barb	-8018
▁Ent	-8019
▁tongue	-8020
▁doctors	-8021
▁McG	-8022
▁2:	-8023
▁κα	-8024
▁PM	-8025
▁meetings	-8026
▁tag	-8027
▁Nations	-8028
▁adults	-8029
▁sons	-8030
left	-8031
▁ocean	-8032
▁synt	-8033
ighters	-8034
▁regularly	-8035
▁Bible	-8036
▁Song	-8037
▁conclusion	-8038
▁Rober	-8039
▁Columbia	-8040
▁publication	-8041
ideo	-8042
▁improved	-8043
▁Ale	-8044
▁Lincoln	-8045
▁enemies	-8046
200	-8047
▁Anna	-8048
▁suicide	-8049
▁output	-8050
ière	-8051
▁layer	-8052
▁toss	-8053
▁concluded	-8054
▁mail	-8055
ende	-8056
▁rural	-8057
▁Philadelphia	-8058
▁staring	-8059
berry	-8060
▁strict	-8061
▁waters	-8062
▁Sports	-8063
IE	-8064
▁Conference	-8065
zi	-8066
▁blame	-8067
▁merch	-8068
100	-8069
appy	-8070
▁Hou	-8071
▁campus	-8072
rowned	-8073
▁brows	-8074
▁severe	-8075
▁demands	-8076
ennes	-8077
-7	-8078
▁datab	-8079
▁scheduled	-8080
vard	-8081
▁requirements	-8082
umph	-8083
▁References	-8084
▁alert	-8085
▁relation	-8086
éc	-8087
▁Sn	-8088
▁12,	-8089
lad	-8090
▁transp	-8091
▁maximum	-8092
▁μ	-8093
▁atmosphere	-8094
▁Prote	-8095
itled	-8096
▁stim	-8097
▁solar	-8098
▁attitude	-8099
poons	-8100
▁Summer	-8101
▁Som	-8102
▁dying	-8103
▁rival	-8104
▁scenes	-8105
▁assets	-8106
▁trave	-8107
▁grabbed	-8108
▁param	-8109
▁cous	-8110
▁Thanks	-8111
▁enormous	-8112
▁Bad	-8113
▁trained	-8114
this	-8115
▁Girl	-8116
▁lin	-8117
▁politicians	-8118
aus	-8119
▁Ball	-8120
▁shit	-8121
uter	-8122
▁Short	-8123
▁describes	-8124
▁Administr	-8125
▁officially	-8126
onic	-8127
▁blocks	-8128
être	-8129
▁collected	-8130
▁surrounded	-8131
ds	-8132
▁mirror	-8133
▁dreams	-8134
▁Kennedy	-8135
▁literary	-8136
▁landscape	-8137
ogan	-8138
▁2016.	-8139
▁revol	-8140
▁Kelly	-8141
fire	-8142
▁critics	-8143
▁essentially	-8144
▁15,	-8145
APTER	-8146
▁insisted	-8147
▁winner	-8148
▁Eve	-8149
▁nous	-8150
▁ongoing	-8151
▁visitors	-8152
ilarly	-8153
▁Radio	-8154
lie	-8155
▁NAS	-8156
=#	-8157
▁champion	-8158
iki	-8159
En	-8160
▁---|---	-8161
▁embarrass	-8162
ugs	-8163
▁inev	-8164
achment	-8165
▁Start	-8166
▁absence	-8167
▁Foreign	-8168
rup	-8169
lete	-8170
▁mere	-8171
test	-8172
▁knock	-8173
ulpt	-8174
UM	-8175
otal	-8176
▁horiz	-8177
▁external	-8178
def	-8179
▁Low	-8180
▁Ener	-8181
▁rarely	-8182
▁är	-8183
▁Ele	-8184
igation	-8185
aro	-8186
▁ко	-8187
▁paralle	-8188
vas	-8189
▁privile	-8190
▁buying	-8191
▁Hotel	-8192
▁admit	-8193
▁Cre	-8194
▁subjects	-8195
▁privacy	-8196
bow	-8197
uties	-8198
▁Circ	-8199
anto	-8200
▁pip	-8201
▁Psych	-8202
aws	-8203
▁inspir	-8204
▁rapidly	-8205
inth	-8206
▁grounds	-8207
ti	-8208
▁withdraw	-8209
DS	-8210
incess	-8211
▁Alf	-8212
▁settlement	-8213
▁σ	-8214
▁Dick	-8215
▁invent	-8216
achus	-8217
▁burned	-8218
▁Corpor	-8219
▁Portug	-8220
▁thrown	-8221
▁shortly	-8222
▁_"	-8223
otes	-8224
apse	-8225
▁Sav	-8226
▁tap	-8227
inction	-8228
▁ruling	-8229
len	-8230
▁(5	-8231
isdom	-8232
▁hanging	-8233
▁lake	-8234
▁fate	-8235
▁baseball	-8236
–20	-8237
▁Kevin	-8238
▁roles	-8239
iece	-8240
rav	-8241
▁deeper	-8242
▁stronger	-8243
▁publisher	-8244
▁decent	-8245
▁Mit	-8246
▁zero	-8247
▁childhood	-8248
olas	-8249
▁raw	-8250
/0	-8251
▁400	-8252
▁Images	-8253
▁fright	-8254
▁Drag	-8255
▁pin	-8256
▁Labor	-8257
▁Hillary	-8258
▁thorough	-8259
▁murd	-8260
▁Rights	-8261
▁va	-8262
ints	-8263
▁Dig	-8264
▁puts	-8265
▁journalist	-8266
▁genuine	-8267
▁bench	-8268
sex	-8269
▁voices	-8270
▁tablespoons	-8271
▁DC	-8272
▁inhab	-8273
▁Services	-8274
etts	-8275
▁Hospital	-8276
▁counsel	-8277
▁limits	-8278
▁Anthony	-8279
▁networks	-8280
▁strongly	-8281
▁reporting	-8282
▁orange	-8283
▁1998	-8284
DP	-8285
ви	-8286
▁compos	-8287
▁drama	-8288
▁technique	-8289
▁reveal	-8290
Tube	-8291
zona	-8292
▁commitment	-8293
▁SE	-8294
▁mile	-8295
▁heading	-8296
HL	-8297
▁voting	-8298
keep	-8299
▁profit	-8300
▁Live	-8301
auc	-8302
▁legend	-8303
▁stairs	-8304
▁literally	-8305
▁Ext	-8306
ordon	-8307
▁engage	-8308
endment	-8309
▁assigned	-8310
▁Bang	-8311
▁Maria	-8312
▁bone	-8313
▁spark	-8314
oute	-8315
sche	-8316
▁pump	-8317
▁disappeared	-8318
anth	-8319
aki	-8320
▁destruction	-8321
▁insist	-8322
fortunately	-8323
▁poetry	-8324
GE	-8325
\\	-8326
▁ye	-8327
▁Victoria	-8328
▁capture	-8329
adas	-8330
▁este	-8331
▁participants	-8332
verty	-8333
▁accommod	-8334
▁category	-8335
▁Age	-8336
▁dict	-8337
▁assistance	-8338
MS	-8339
▁SC	-8340
ている	-8341
▁Wel	-8342
▁grave	-8343
▁extraord	-8344
engers	-8345
▁Syd	-8346
▁emotion	-8347
▁ought	-8348
▁keeps	-8349
▁exists	-8350
▁sou	-8351
▁Na	-8352
▁towns	-8353
▁schedule	-8354
▁forgotten	-8355
▁medicine	-8356
▁cler	-8357
▁interior	-8358
▁Corn	-8359
▁rational	-8360
▁infect	-8361
▁Cost	-8362
▁wounded	-8363
andy	-8364
▁waves	-8365
UL	-8366
▁sustain	-8367
▁displ	-8368
▁condem	-8369
▁Anne	-8370
nat	-8371
isse	-8372
▁prepare	-8373
▁Roy	-8374
▁rejected	-8375
after	-8376
▁locations	-8377
mad	-8378
▁protein	-8379
▁consciousness	-8380
▁pron	-8381
▁deleg	-8382
▁Tar	-8383
inging	-8384
▁Bridge	-8385
▁rif	-8386
▁fond	-8387
ми	-8388
▁IV	-8389
▁Et	-8390
▁Common	-8391
Me	-8392
▁não	-8393
▁index	-8394
okes	-8395
world	-8396
▁Nap	-8397
▁affairs	-8398
▁Charlie	-8399
▁promote	-8400
43	-8401
celer	-8402
▁Josh	-8403
▁publicly	-8404
▁DNA	-8405
ouch	-8406
.:	-8407
encia	-8408
▁comprom	-8409
grade	-8410
▁valuable	-8411
▁18,	-8412
▁seeds	-8413
▁roads	-8414
irms	-8415
▁illness	-8416
▁casual	-8417
Sc	-8418
roit	-8419
▁memories	-8420
▁apolog	-8421
▁percentage	-8422
▁funny	-8423
▁Assembly	-8424
▁demanded	-8425
Your	-8426
▁rhy	-8427
▁Information	-8428
ello	-8429
ré	-8430
▁conqu	-8431
▁arrive	-8432
▁arrival	-8433
▁resolution	-8434
iture	-8435
pton	-8436
▁poverty	-8437
▁DE	-8438
ulating	-8439
▁highlight	-8440
obile	-8441
yo	-8442
stairs	-8443
▁Studies	-8444
▁concrete	-8445
▁Having	-8446
▁routine	-8447
▁fifteen	-8448
▁É	-8449
▁Jos	-8450
▁copyright	-8451
▁input	-8452
▁garlic	-8453
▁decline	-8454
▁guests	-8455
▁acid	-8456
▁seed	-8457
▁painted	-8458
▁fulf	-8459
ungs	-8460
arts	-8461
▁formation	-8462
▁proport	-8463
aska	-8464
▁13.	-8465
▁vital	-8466
rison	-8467
▁investors	-8468
▁AS	-8469
▁fier	-8470
▁courts	-8471
angle	-8472
▁foundation	-8473
▁View	-8474
▁Governor	-8475
▁wedding	-8476
▁jur	-8477
VER	-8478
eries	-8479
wed	-8480
▁Saudi	-8481
▁upset	-8482
▁ü	-8483
Or	-8484
stract	-8485
anches	-8486
▁revenue	-8487
Qu	-8488
▁55	-8489
iley	-8490
▁thri	-8491
nen	-8492
▁composed	-8493
▁Design	-8494
▁Jay	-8495
▁Tok	-8496
▁Poland	-8497
▁inches	-8498
ORE	-8499
▁IT	-8500
▁manip	-8501
▁mac	-8502
▁Mexican	-8503
▁Atlantic	-8504
▁Bul	-8505
▁arguments	-8506
▁loan	-8507
▁diff	-8508
▁3:	-8509
name	-8510
▁pace	-8511
alo	-8512
▁components	-8513
list	-8514
▁het	-8515
▁Scottish	-8516
▁Amb	-8517
▁Network	-8518
▁Golden	-8519
▁Report	-8520
▁architecture	-8521
▁rib	-8522
▁choices	-8523
▁scheme	-8524
▁crucial	-8525
▁pulling	-8526
▁reporters	-8527
log	-8528
hard	-8529
▁Inte	-8530
▁Bry	-8531
▁successfully	-8532
▁Gre	-8533
herent	-8534
▁depending	-8535
▁Global	-8536
Ind	-8537
▁boost	-8538
▁Harris	-8539
▁Colorado	-8540
▁impressive	-8541
▁fewer	-8542
▁Hu	-8543
▁item	-8544
pa	-8545
▁founder	-8546
olen	-8547
:_	-8548
itated	-8549
▁så	-8550
▁Community	-8551
▁colour	-8552
▁horror	-8553
▁Az	-8554
▁increases	-8555
iffe	-8556
odge	-8557
▁clubs	-8558
ailed	-8559
onder	-8560
▁tunn	-8561
▁crash	-8562
▁unlikely	-8563
issance	-8564
▁declined	-8565
wen	-8566
▁Ukraine	-8567
-10	-8568
▁passes	-8569
▁stable	-8570
▁superior	-8571
▁prohib	-8572
▁Holy	-8573
▁titles	-8574
▁//	-8575
achusetts	-8576
Mar	-8577
mente	-8578
▁nervous	-8579
▁Medical	-8580
▁adj	-8581
77	-8582
▁sty	-8583
▁Lt	-8584
iped	-8585
▁75	-8586
▁Beh	-8587
orse	-8588
▁2009,	-8589
66	-8590
dem	-8591
Pe	-8592
▁SS	-8593
▁approval	-8594
▁offices	-8595
▁surely	-8596
▁2017.	-8597
▁Cra	-8598
sect	-8599
rific	-8600
pool	-8601
▁likes	-8602
asting	-8603
▁toler	-8604
▁YouTube	-8605
making	-8606
esty	-8607
▁Ref	-8608
▁sleeping	-8609
▁situations	-8610
ifies	-8611
▁evident	-8612
idi	-8613
▁Dead	-8614
▁pleased	-8615
▁ber	-8616
▁farmers	-8617
▁–,	-8618
▁sail	-8619
!”	-8620
▁20,	-8621
▁default	-8622
▁contributed	-8623
door	-8624
▁tab	-8625
▁chocolate	-8626
▁symptoms	-8627
▁gri	-8628
▁bars	-8629
▁2008,	-8630
▁subsequent	-8631
▁SH	-8632
▁chairman	-8633
▁involving	-8634
▁Afghanistan	-8635
▁basketball	-8636
mother	-8637
▁ritual	-8638
▁minds	-8639
▁pul	-8640
ATION	-8641
▁crop	-8642
ischen	-8643
ivo	-8644
▁Five	-8645
▁Arizona	-8646
▁recall	-8647
etime	-8648
emen	-8649
dis	-8650
▁maintained	-8651
▁association	-8652
omy	-8653
▁commonly	-8654
▁indicated	-8655
▁42	-8656
▁Aud	-8657
▁persons	-8658
▁14,	-8659
orical	-8660
rugged	-8661
▁equivalent	-8662
▁discrim	-8663
して	-8664
▁distract	-8665
front	-8666
▁Dist	-8667
▁FC	-8668
abis	-8669
▁complicated	-8670
▁Independ	-8671
▁vary	-8672
▁creature	-8673
▁hired	-8674
▁regarded	-8675
inked	-8676
▁bedroom	-8677
▁fait	-8678
▁independence	-8679
ethe	-8680
▁Bor	-8681
inois	-8682
▁Sydney	-8683
▁gard	-8684
iche	-8685
ungen	-8686
▁Marx	-8687
▁shouted	-8688
▁Crit	-8689
zed	-8690
▁marijuana	-8691
▁Ott	-8692
▁eu	-8693
▁pel	-8694
utors	-8695
–0	-8696
▁sample	-8697
iry	-8698
▁Vietnam	-8699
▁powder	-8700
▁uma	-8701
▁13,	-8702
employ	-8703
ない	-8704
▁δ	-8705
▁Nich	-8706
azed	-8707
▁grant	-8708
▁Indust	-8709
anguage	-8710
organ	-8711
mal	-8712
▁Zh	-8713
▁16,	-8714
▁Moore	-8715
▁personnel	-8716
ivery	-8717
▁diam	-8718
▁PS	-8719
▁injuries	-8720
▁Massachusetts	-8721
cut	-8722
▁consistent	-8723
▁2015.	-8724
▁disag	-8725
zing	-8726
▁foods	-8727
▁Allen	-8728
eras	-8729
▁resulted	-8730
▁Data	-8731
▁payment	-8732
▁1930	-8733
▁colors	-8734
they	-8735
▁adds	-8736
▁Ice	-8737
Man	-8738
usalem	-8739
▁2014.	-8740
bes	-8741
oped	-8742
▁fleet	-8743
▁Spring	-8744
▁developers	-8745
▁beings	-8746
▁Ast	-8747
▁Modern	-8748
▁clothing	-8749
85	-8750
▁gap	-8751
▁reportedly	-8752
▁reader	-8753
▁nos	-8754
▁Spir	-8755
▁BC	-8756
▁Fle	-8757
▁1920	-8758
▁covers	-8759
こと	-8760
▁load	-8761
▁letting	-8762
▁Belg	-8763
▁purchased	-8764
▁Android	-8765
▁Fund	-8766
▁railway	-8767
▁17,	-8768
▁poly	-8769
▁wound	-8770
▁cette	-8771
▁solutions	-8772
vals	-8773
▁tower	-8774
▁Warren	-8775
▁threats	-8776
▁phrase	-8777
▁Philip	-8778
▁menu	-8779
▁repeatedly	-8780
▁Var	-8781
▁Patrick	-8782
▁Ministry	-8783
▁Houston	-8784
enez	-8785
▁baking	-8786
▁Morgan	-8787
▁©	-8788
▁poem	-8789
▁drivers	-8790
mat	-8791
orith	-8792
▁Dave	-8793
lights	-8794
▁ε	-8795
▁machines	-8796
▁ruled	-8797
▁arts	-8798
▁Creek	-8799
▁bol	-8800
▁reven	-8801
▁ignored	-8802
▁gi	-8803
▁allies	-8804
▁continuing	-8805
▁ghost	-8806
▁raising	-8807
▁fet	-8808
iking	-8809
▁poison	-8810
ру	-8811
▁Key	-8812
▁jer	-8813
▁supplies	-8814
▁marks	-8815
▁Syrian	-8816
▁24,	-8817
▁risks	-8818
▁extensive	-8819
▁soup	-8820
▁distant	-8821
▁landing	-8822
▁(4	-8823
▁breast	-8824
▁Table	-8825
▁vig	-8826
▁Notes	-8827
▁clock	-8828
▁Rick	-8829
▁alien	-8830
▁Jason	-8831
INE	-8832
oca	-8833
▁gods	-8834
napped	-8835
quis	-8836
▁asc	-8837
▁incl	-8838
▁reasonable	-8839
▁personality	-8840
▁lucky	-8841
▁olive	-8842
▁Rh	-8843
▁brut	-8844
▁Hung	-8845
arring	-8846
eps	-8847
ologists	-8848
otte	-8849
▁Disney	-8850
▁icon	-8851
ardo	-8852
enna	-8853
▁registered	-8854
▁covering	-8855
▁entering	-8856
post	-8857
▁occasionally	-8858
▁advis	-8859
▁assign	-8860
AB	-8861
▁cul	-8862
rio	-8863
▁surf	-8864
star	-8865
▁Everyone	-8866
▁Rest	-8867
▁lands	-8868
▁fabric	-8869
▁explicit	-8870
▁impression	-8871
center	-8872
▁Third	-8873
▁borrow	-8874
▁auch	-8875
amps	-8876
▁pink	-8877
issa	-8878
▁extension	-8879
▁translation	-8880
itals	-8881
▁Front	-8882
▁od	-8883
▁personally	-8884
▁Hur	-8885
▁containing	-8886
▁whenever	-8887
▁14.	-8888
▁bones	-8889
ibl	-8890
▁elle	-8891
▁bass	-8892
▁Fa	-8893
▁Exper	-8894
▁penal	-8895
acer	-8896
▁races	-8897
▁greet	-8898
▁exch	-8899
▁continu	-8900
▁emotions	-8901
▁guards	-8902
▁ticket	-8903
64	-8904
▁shots	-8905
▁Defense	-8906
▁Michel	-8907
▁fo	-8908
▁comparison	-8909
itzer	-8910
▁congress	-8911
▁MS	-8912
▁Dad	-8913
▁Anderson	-8914
▁employed	-8915
▁44	-8916
▁1996	-8917
▁logic	-8918
▁headquarters	-8919
▁buck	-8920
▁Ts	-8921
ultane	-8922
▁factory	-8923
pat	-8924
▁Bull	-8925
▁consumers	-8926
▁ancest	-8927
▁briefly	-8928
▁wins	-8929
▁sculpt	-8930
▁recipe	-8931
▁Muslims	-8932
▁topic	-8933
▁bot	-8934
▁wings	-8935
▁Conne	-8936
▁profile	-8937
▁indicate	-8938
▁ya	-8939
▁immigrants	-8940
▁jumped	-8941
▁engineering	-8942
▁Square	-8943
▁tested	-8944
▁Raj	-8945
html	-8946
icity	-8947
▁prisoners	-8948
▁Pap	-8949
▁Minnes	-8950
▁constructed	-8951
▁heaven	-8952
▁myster	-8953
▁closing	-8954
τα	-8955
▁racial	-8956
▁Cro	-8957
▁falls	-8958
▁Final	-8959
▁torn	-8960
▁Moon	-8961
▁Argent	-8962
▁occupied	-8963
child	-8964
amer	-8965
▁Sin	-8966
▁aqu	-8967
▁tie	-8968
ester	-8969
▁coron	-8970
▁singing	-8971
▁multi	-8972
▁про	-8973
twitter	-8974
opher	-8975
▁1997	-8976
▁accurate	-8977
two	-8978
▁Mach	-8979
▁jag	-8980
▁occurs	-8981
▁suspected	-8982
km	-8983
▁Everything	-8984
▁fee	-8985
oons	-8986
▁Roll	-8987
▁dass	-8988
▁config	-8989
▁protests	-8990
▁naturally	-8991
▁utter	-8992
▁sequence	-8993
▁echo	-8994
Pl	-8995
ounce	-8996
▁Harvard	-8997
vironment	-8998
uper	-8999
▁Children	-9000
Sp	-9001
La	-9002
wich	-9003
▁Balt	-9004
▁Does	-9005
anchester	-9006
▁spokesman	-9007
▁å	-9008
▁shell	-9009
archy	-9010
▁Laure	-9011
imo	-9012
▁gif	-9013
▁leather	-9014
▁respectively	-9015
▁cycl	-9016
▁Therefore	-9017
▁subsequently	-9018
rine	-9019
▁Base	-9020
aning	-9021
▁swall	-9022
redit	-9023
▁restaurants	-9024
▁anxiety	-9025
▁dates	-9026
orious	-9027
eled	-9028
ancer	-9029
▁Energy	-9030
▁suffer	-9031
zens	-9032
▁wars	-9033
▁precisely	-9034
▁15.	-9035
acles	-9036
▁wrapped	-9037
asta	-9038
onsin	-9039
ди	-9040
▁awareness	-9041
onymous	-9042
▁Bh	-9043
▁IP	-9044
▁operate	-9045
▁30,	-9046
▁aimed	-9047
▁Sel	-9048
▁Season	-9049
▁shame	-9050
▁Priv	-9051
▁establishment	-9052
iler	-9053
▁consumer	-9054
oned	-9055
away	-9056
▁instructions	-9057
orous	-9058
▁discovery	-9059
▁anybody	-9060
▁Burn	-9061
▁1994	-9062
**.	-9063
rayed	-9064
▁inher	-9065
arer	-9066
▁breathing	-9067
▁universal	-9068
▁interrupt	-9069
▁neighb	-9070
▁shield	-9071
▁wer	-9072
▁introduction	-9073
▁Minnesota	-9074
four	-9075
▁Dall	-9076
él	-9077
▁expanded	-9078
via	-9079
ften	-9080
▁courage	-9081
▁Unfortunately	-9082
▁41	-9083
igence	-9084
▁Walter	-9085
▁consists	-9086
▁gal	-9087
▁Turkish	-9088
▁CHAPTER	-9089
ões	-9090
hesis	-9091
▁2013.	-9092
▁Illinois	-9093
▁paused	-9094
ismo	-9095
▁Nik	-9096
▁connections	-9097
▁fu	-9098
▁Ont	-9099
▁Fall	-9100
ég	-9101
▁normally	-9102
▁Jerusalem	-9103
▁Technology	-9104
atherine	-9105
enny	-9106
▁targets	-9107
▁GOP	-9108
umer	-9109
▁Mess	-9110
▁trop	-9111
▁Unt	-9112
▁Dream	-9113
▁unexpected	-9114
▁announcement	-9115
▁tow	-9116
Every	-9117
▁Gard	-9118
▁updated	-9119
▁findings	-9120
gon	-9121
▁sla	-9122
▁spaces	-9123
▁hier	-9124
▁Click	-9125
▁charm	-9126
▁nurs	-9127
69	-9128
/1	-9129
▁vulnerable	-9130
▁stretch	-9131
osit	-9132
oga	-9133
chi	-9134
▁amounts	-9135
este	-9136
▁ett	-9137
▁vit	-9138
▁Hart	-9139
▁spell	-9140
▁basically	-9141
arest	-9142
▁survived	-9143
ederation	-9144
▁eager	-9145
▁Alan	-9146
▁fraud	-9147
▁conspir	-9148
▁Pay	-9149
▁(197	-9150
▁Something	-9151
▁ninet	-9152
▁compens	-9153
isconsin	-9154
▁19,	-9155
▁Would	-9156
▁cel	-9157
▁Hans	-9158
▁accompanied	-9159
▁producing	-9160
▁bunch	-9161
inf	-9162
cur	-9163
▁dur	-9164
▁slipped	-9165
▁honey	-9166
▁intr	-9167
▁TR	-9168
▁wished	-9169
▁21,	-9170
▁lift	-9171
▁ont	-9172
▁affili	-9173
▁lip	-9174
▁Tel	-9175
▁Kal	-9176
▁outcome	-9177
▁Mountain	-9178
▁regulations	-9179
assador	-9180
▁ric	-9181
▁bitter	-9182
▁dramatic	-9183
▁recalled	-9184
▁Christians	-9185
▁allegations	-9186
▁exciting	-9187
▁Management	-9188
▁ridic	-9189
▁featuring	-9190
▁difficulty	-9191
▁25,	-9192
iami	-9193
▁lux	-9194
▁recommended	-9195
2),	-9196
▁shopping	-9197
ци	-9198
▁а	-9199
▁Expl	-9200
▁currency	-9201
▁grate	-9202
▁electronic	-9203
▁Barn	-9204
▁Prop	-9205
▁gonna	-9206
eland	-9207
▁elder	-9208
▁employment	-9209
acts	-9210
regon	-9211
▁Merc	-9212
▁festival	-9213
▁weird	-9214
▁Lear	-9215
55	-9216
low	-9217
▁divor	-9218
ials	-9219
iste	-9220
atus	-9221
▁2012.	-9222
▁representative	-9223
agh	-9224
di	-9225
▁tape	-9226
▁Represent	-9227
▁behalf	-9228
||	-9229
▁Java	-9230
ographer	-9231
▁Chap	-9232
▁posts	-9233
▁landed	-9234
▁possess	-9235
▁22,	-9236
▁riding	-9237
oded	-9238
▁staying	-9239
2).	-9240
▁virtual	-9241
alia	-9242
ocation	-9243
▁ML	-9244
▁component	-9245
▁wondering	-9246
▁obsc	-9247
▁philosoph	-9248
amos	-9249
▁grace	-9250
▁ze	-9251
▁Univers	-9252
olds	-9253
▁backed	-9254
etr	-9255
▁reviews	-9256
▁Ce	-9257
ppers	-9258
itched	-9259
mate	-9260
▁butt	-9261
▁Event	-9262
▁Andre	-9263
▁sacrif	-9264
▁beliefs	-9265
▁vine	-9266
67	-9267
rell	-9268
▁Judge	-9269
▁cake	-9270
onia	-9271
▁Ban	-9272
▁pad	-9273
▁badly	-9274
▁Greece	-9275
▁considerable	-9276
▁sake	-9277
TM	-9278
DR	-9279
▁supports	-9280
▁AC	-9281
▁ash	-9282
▁shrugged	-9283
▁même	-9284
▁ties	-9285
▁visiting	-9286
1),	-9287
▁relie	-9288
▁handful	-9289
▁ik	-9290
▁Seattle	-9291
▁pi	-9292
▁vor	-9293
-18	-9294
▁MAP	-9295
▁competitive	-9296
sky	-9297
▁shore	-9298
jet	-9299
ellow	-9300
▁Clark	-9301
bat	-9302
▁Constitution	-9303
▁Joh	-9304
OUR	-9305
found	-9306
▁roots	-9307
▁$3	-9308
▁Forest	-9309
hol	-9310
▁Cooper	-9311
--------	-9312
▁contrad	-9313
▁possession	-9314
▁Eu	-9315
high	-9316
▁actors	-9317
▁Sem	-9318
▁peak	-9319
▁propag	-9320
▁testim	-9321
änd	-9322
uits	-9323
ribed	-9324
▁folks	-9325
▁lemon	-9326
▁pride	-9327
▁FR	-9328
▁confused	-9329
▁appearances	-9330
oche	-9331
▁Chair	-9332
▁actress	-9333
gt	-9334
igs	-9335
atively	-9336
▁refers	-9337
▁1995	-9338
mi	-9339
▁operated	-9340
rix	-9341
▁47	-9342
▁Box	-9343
▁satell	-9344
▁authent	-9345
▁opponent	-9346
power	-9347
▁tech	-9348
▁2018.	-9349
▁ethnic	-9350
abet	-9351
avan	-9352
▁sections	-9353
▁vegetables	-9354
▁franch	-9355
rane	-9356
▁Ali	-9357
▁downtown	-9358
▁Within	-9359
▁disaster	-9360
isan	-9361
▁Rab	-9362
▁Ted	-9363
▁exposure	-9364
▁temporary	-9365
riv	-9366
▁dried	-9367
enz	-9368
▁Manchester	-9369
▁recover	-9370
▁amid	-9371
▁wrest	-9372
▁cher	-9373
▁warri	-9374
▁Gordon	-9375
▁bike	-9376
▁reminded	-9377
▁technologies	-9378
▁judgment	-9379
hour	-9380
▁Mun	-9381
rot	-9382
▁vel	-9383
dess	-9384
▁Adv	-9385
▁automatically	-9386
bur	-9387
▁Walker	-9388
▁pointing	-9389
▁sne	-9390
EP	-9391
▁2007,	-9392
llo	-9393
▁encouraged	-9394
▁CP	-9395
▁mole	-9396
▁neutral	-9397
esy	-9398
▁assass	-9399
:0	-9400
▁Wisconsin	-9401
kh	-9402
▁striking	-9403
▁grav	-9404
▁copies	-9405
▁programming	-9406
ieval	-9407
uto	-9408
top	-9409
▁drift	-9410
▁database	-9411
▁Fal	-9412
▁flew	-9413
Our	-9414
▁Corps	-9415
3),	-9416
▁constitu	-9417
▁Agency	-9418
▁Roger	-9419
illance	-9420
▁Ta	-9421
▁Dur	-9422
istent	-9423
▁rush	-9424
asse	-9425
utter	-9426
▁participate	-9427
offs	-9428
▁grasp	-9429
riers	-9430
▁depends	-9431
gro	-9432
date	-9433
▁simultane	-9434
▁Luke	-9435
▁م	-9436
▁humanity	-9437
▁."	-9438
▁mathemat	-9439
▁kingdom	-9440
▁blockchain	-9441
"—	-9442
_**	-9443
▁Ath	-9444
▁43	-9445
▁steady	-9446
▁rally	-9447
▁installed	-9448
▁algorith	-9449
▁activists	-9450
▁addressed	-9451
elson	-9452
▁lovely	-9453
▁creates	-9454
▁Wolf	-9455
jud	-9456
ingham	-9457
▁ö	-9458
▁CNN	-9459
▁Band	-9460
▁Grant	-9461
cup	-9462
▁worldwide	-9463
Look	-9464
▁23,	-9465
ugged	-9466
idd	-9467
▁Ni	-9468
TR	-9469
▁wisdom	-9470
yes	-9471
mic	-9472
▁slave	-9473
▁controversial	-9474
▁Silver	-9475
▁recovery	-9476
▁resemb	-9477
woman	-9478
▁Cass	-9479
▁perpet	-9480
▁smiling	-9481
▁lib	-9482
uther	-9483
enders	-9484
adi	-9485
▁ease	-9486
aga	-9487
▁Current	-9488
▁transferred	-9489
plete	-9490
▁rocks	-9491
▁license	-9492
▁communications	-9493
▁Hitler	-9494
▁Jess	-9495
▁46	-9496
▁hip	-9497
▁een	-9498
claimed	-9499
▁theore	-9500
▁Whether	-9501
ouver	-9502
▁delivery	-9503
rection	-9504
▁discl	-9505
ashes	-9506
▁puzz	-9507
▁Whit	-9508
ún	-9509
▁claiming	-9510
▁knee	-9511
▁entitled	-9512
▁Detroit	-9513
▁chamber	-9514
▁collective	-9515
sea	-9516
▁tiss	-9517
▁helpful	-9518
▁Ult	-9519
▁reply	-9520
▁secondary	-9521
▁preferred	-9522
▁ceremony	-9523
▁battery	-9524
▁reporter	-9525
ental	-9526
▁appreciate	-9527
asi	-9528
▁Oregon	-9529
▁existed	-9530
LC	-9531
oding	-9532
▁hits	-9533
▁Tai	-9534
▁revel	-9535
▁Holl	-9536
▁fears	-9537
▁involves	-9538
▁sensitive	-9539
▁compr	-9540
cover	-9541
▁soph	-9542
▁semi	-9543
rik	-9544
▁laughing	-9545
▁apps	-9546
▁cogn	-9547
▁Lyn	-9548
▁wanting	-9549
▁mic	-9550
break	-9551
▁Exec	-9552
▁signing	-9553
▁rolling	-9554
▁Inn	-9555
eria	-9556
▁Kr	-9557
iffs	-9558
ische	-9559
vet	-9560
▁pound	-9561
gener	-9562
▁Premier	-9563
ます	-9564
▁anch	-9565
walk	-9566
▁fled	-9567
abe	-9568
▁pens	-9569
▁employee	-9570
▁checked	-9571
Come	-9572
▁exped	-9573
▁tempor	-9574
▁Indians	-9575
▁Beat	-9576
▁Theatre	-9577
▁bub	-9578
▁presum	-9579
▁flower	-9580
rypt	-9581
igenous	-9582
akh	-9583
▁listened	-9584
geon	-9585
izer	-9586
▁stem	-9587
▁opponents	-9588
▁bent	-9589
▁encounter	-9590
▁hunting	-9591
▁Roberts	-9592
▁defence	-9593
▁surgery	-9594
xit	-9595
▁$5	-9596
▁wise	-9597
▁Intell	-9598
olitan	-9599
▁sobre	-9600
▁tasks	-9601
▁joining	-9602
oen	-9603
including	-9604
▁curious	-9605
▁McK	-9606
▁stake	-9607
▁texts	-9608
▁Hold	-9609
▁marry	-9610
stal	-9611
▁Creat	-9612
▁chances	-9613
▁naked	-9614
▁solve	-9615
▁Ein	-9616
▁studying	-9617
▁piano	-9618
▁flavor	-9619
▁120	-9620
▁episodes	-9621
page	-9622
▁LA	-9623
burn	-9624
▁leaf	-9625
▁analyst	-9626
lee	-9627
▁imagined	-9628
▁terrorist	-9629
▁imagination	-9630
iga	-9631
riel	-9632
▁performing	-9633
▁arranged	-9634
▁mainstream	-9635
Am	-9636
▁comic	-9637
▁losses	-9638
▁Hamilton	-9639
▁Olympic	-9640
▁Carter	-9641
idae	-9642
▁28,	-9643
▁Sure	-9644
▁glance	-9645
▁muscle	-9646
▁Margaret	-9647
▁searching	-9648
abs	-9649
▁Olympics	-9650
ulty	-9651
▁confusion	-9652
ει	-9653
▁Dou	-9654
▁Ess	-9655
▁Equ	-9656
▁Friend	-9657
ieth	-9658
▁acceler	-9659
▁Miami	-9660
▁exceed	-9661
pled	-9662
cient	-9663
ystem	-9664
▁concer	-9665
▁comprehens	-9666
▁passengers	-9667
aders	-9668
▁Pel	-9669
▁disturb	-9670
▁worker	-9671
▁Senator	-9672
▁Billy	-9673
▁Cit	-9674
▁tender	-9675
▁bay	-9676
eron	-9677
▁creatures	-9678
▁advertising	-9679
irect	-9680
velt	-9681
▁Keep	-9682
oa	-9683
▁resign	-9684
▁valley	-9685
▁Snow	-9686
▁promoted	-9687
▁2010.	-9688
▁instinct	-9689
▁FOR	-9690
▁generated	-9691
ín	-9692
ocur	-9693
apore	-9694
ext	-9695
▁Mars	-9696
▁26,	-9697
▁nights	-9698
▁branches	-9699
▁16.	-9700
rolled	-9701
▁Bruce	-9702
▁consumption	-9703
▁tries	-9704
▁Much	-9705
idelines	-9706
▁virus	-9707
eda	-9708
▁Fig	-9709
▁distributed	-9710
var	-9711
▁Tell	-9712
▁Karl	-9713
fare	-9714
▁yard	-9715
▁gene	-9716
▁Germans	-9717
▁cave	-9718
▁Nature	-9719
itches	-9720
▁cleared	-9721
▁Dal	-9722
▁elabor	-9723
▁sighed	-9724
▁metaph	-9725
bet	-9726
▁Pear	-9727
idency	-9728
▁invasion	-9729
▁Eff	-9730
▁Rev	-9731
▁Full	-9732
▁damn	-9733
▁vie	-9734
▁2011.	-9735
▁Pitt	-9736
▁intim	-9737
▁Unlike	-9738
▁overse	-9739
oni	-9740
▁march	-9741
▁ultimate	-9742
otion	-9743
gic	-9744
has	-9745
▁define	-9746
▁separated	-9747
With	-9748
▁controls	-9749
made	-9750
▁Page	-9751
から	-9752
▁deals	-9753
▁stages	-9754
▁holiday	-9755
itudes	-9756
▁27,	-9757
gun	-9758
▁Between	-9759
FA	-9760
gging	-9761
▁array	-9762
▁Jimmy	-9763
▁enable	-9764
▁crossing	-9765
fa	-9766
▁extraordinary	-9767
izar	-9768
89	-9769
amento	-9770
ictions	-9771
▁oldest	-9772
▁remarkable	-9773
äl	-9774
▁Given	-9775
▁download	-9776
▁electricity	-9777
▁Quest	-9778
▁Staff	-9779
▁lap	-9780
▁pap	-9781
▁shaking	-9782
▁Stock	-9783
▁CIA	-9784
▁struggling	-9785
▁Oak	-9786
▁ABC	-9787
pelled	-9788
osexual	-9789
▁Lawrence	-9790
▁parallel	-9791
▁э	-9792
ugby	-9793
▁strategic	-9794
▁Adams	-9795
▁villages	-9796
iere	-9797
icism	-9798
▁Being	-9799
▁coinc	-9800
▁Alab	-9801
▁CA	-9802
illery	-9803
▁drum	-9804
▁Policy	-9805
▁expectations	-9806
▁processing	-9807
ref	-9808
ateur	-9809
▁recru	-9810
hess	-9811
▁substantial	-9812
▁Row	-9813
▁kilomet	-9814
owned	-9815
▁Bureau	-9816
umped	-9817
pread	-9818
aman	-9819
▁Temple	-9820
ensed	-9821
▁innocent	-9822
jan	-9823
▁bathroom	-9824
▁allegedly	-9825
▁incredible	-9826
▁Diego	-9827
rin	-9828
▁finance	-9829
▁fishing	-9830
iang	-9831
▁whereas	-9832
pha	-9833
▁cited	-9834
%)	-9835
III	-9836
▁castle	-9837
▁birthday	-9838
▁و	-9839
▁Phys	-9840
emed	-9841
,000.	-9842
▁Iron	-9843
▁fees	-9844
▁agenda	-9845
▁Airport	-9846
▁survival	-9847
▁Abd	-9848
▁Iowa	-9849
▁Dog	-9850
▁exit	-9851
▁brilliant	-9852
▁grade	-9853
▁representing	-9854
heart	-9855
▁Round	-9856
together	-9857
▁generate	-9858
oda	-9859
arma	-9860
▁Fel	-9861
osevelt	-9862
▁lists	-9863
▁cheek	-9864
▁generations	-9865
▁Moreover	-9866
opp	-9867
▁CR	-9868
▁tale	-9869
aughters	-9870
▁greatly	-9871
▁Bos	-9872
otton	-9873
▁Lem	-9874
SE	-9875
▁frozen	-9876
▁Jonathan	-9877
rac	-9878
▁tempt	-9879
▁partly	-9880
▁reflected	-9881
▁accord	-9882
omed	-9883
uis	-9884
gie	-9885
▁comedy	-9886
▁reass	-9887
▁sixth	-9888
▁packed	-9889
▁viewed	-9890
idespread	-9891
▁behaviour	-9892
▁desperate	-9893
▁yours	-9894
▁overt	-9895
▁tox	-9896
▁joke	-9897
▁rescue	-9898
▁therapy	-9899
86	-9900
▁Doctor	-9901
uin	-9902
grad	-9903
▁framework	-9904
▁AF	-9905
▁gear	-9906
ults	-9907
1).	-9908
▁speaks	-9909
his	-9910
▁mainten	-9911
▁hardware	-9912
▁Adm	-9913
▁Soon	-9914
▁fake	-9915
▁leur	-9916
▁racing	-9917
▁tum	-9918
▁mart	-9919
▁Alice	-9920
▁notable	-9921
▁happiness	-9922
▁Environment	-9923
▁climbed	-9924
ação	-9925
▁bother	-9926
▁throwing	-9927
akespe	-9928
▁Ontario	-9929
▁folk	-9930
▁sel	-9931
resa	-9932
▁aged	-9933
▁Fried	-9934
▁succeeded	-9935
▁Venez	-9936
▁Winter	-9937
▁Benj	-9938
watch	-9939
lli	-9940
▁ignore	-9941
ede	-9942
▁mu	-9943
▁Bart	-9944
olph	-9945
▁Works	-9946
▁sear	-9947
▁Wy	-9948
Some	-9949
isch	-9950
▁Nation	-9951
ño	-9952
%.	-9953
▁pist	-9954
▁retirement	-9955
▁),	-9956
▁lawyers	-9957
▁gradually	-9958
urches	-9959
▁Isa	-9960
▁tension	-9961
▁engineer	-9962
▁scope	-9963
▁wand	-9964
AND	-9965
▁Liter	-9966
▁Dallas	-9967
▁bureau	-9968
▁negotiations	-9969
▁(195	-9970
ouses	-9971
▁).	-9972
ixon	-9973
▁corruption	-9974
▁aggressive	-9975
▁Douglas	-9976
▁cooked	-9977
bn	-9978
▁Dom	-9979
rez	-9980
▁PA	-9981
aware	-9982
▁involvement	-9983
ма	-9984
▁Kansas	-9985
.),	-9986
▁compete	-9987
white	-9988
▁artific	-9989
▁Administration	-9990
▁ceiling	-9991
▁Polish	-9992
▁quoted	-9993
▁scared	-9994
▁Samuel	-9995
▁payments	-9996
▁gathering	-9997
▁Christopher	-9998
▁Brig	-9999
▁suspic	-10000
▁contracts	-10001
▁Command	-10002
▁Control	-10003
▁Bud	-10004
▁collaps	-10005
CO	-10006
▁dirt	-10007
▁objective	-10008
geant	-10009
igious	-10010
▁Lam	-10011
▁Rather	-10012
▁devast	-10013
▁Ot	-10014
▁insert	-10015
rose	-10016
▁hypot	-10017
▁hiding	-10018
ective	-10019
▁bin	-10020
▁dough	-10021
▁sweat	-10022
▁Source	-10023
bourne	-10024
▁Hann	-10025
▁trem	-10026
▁mystery	-10027
▁gran	-10028
Maybe	-10029
▁Bron	-10030
Bec	-10031
▁entertainment	-10032
▁29,	-10033
▁jury	-10034
▁Antonio	-10035
▁bold	-10036
oval	-10037
▁elite	-10038
▁($	-10039
▁eleg	-10040
irs	-10041
prene	-10042
▁democratic	-10043
▁Russell	-10044
▁Pur	-10045
ilation	-10046
esome	-10047
Donald	-10048
illes	-10049
▁Mayor	-10050
▁stiff	-10051
▁mud	-10052
▁depression	-10053
▁prayer	-10054
▁steep	-10055
iens	-10056
Per	-10057
▁64	-10058
▁cultiv	-10059
▁shake	-10060
▁Freder	-10061
▁Alabama	-10062
ста	-10063
eters	-10064
▁Roosevelt	-10065
▁2006,	-10066
▁interpretation	-10067
mind	-10068
▁fart	-10069
reb	-10070
▁OK	-10071
▁cust	-10072
▁Graham	-10073
▁domain	-10074
▁17.	-10075
▁woods	-10076
▁stones	-10077
▁ranks	-10078
▁None	-10079
/4	-10080
▁Bishop	-10081
▁cinem	-10082
▁census	-10083
acco	-10084
antes	-10085
▁Attorney	-10086
uscript	-10087
▁regret	-10088
▁fucking	-10089
▁Democrat	-10090
▁accus	-10091
▁asleep	-10092
▁Abb	-10093
inted	-10094
▁Phill	-10095
▁colonial	-10096
▁Cole	-10097
exp	-10098
▁hyper	-10099
ussi	-10100
▁slaves	-10101
▁grat	-10102
▁shadows	-10103
▁tel	-10104
iac	-10105
iversary	-10106
oro	-10107
▁Others	-10108
▁lawsuit	-10109
axy	-10110
▁climb	-10111
aires	-10112
▁filling	-10113
▁1992	-10114
asm	-10115
▁Ay	-10116
▁register	-10117
▁worn	-10118
roc	-10119
oren	-10120
asant	-10121
▁sans	-10122
▁struggled	-10123
PD	-10124
▁abstract	-10125
▁referring	-10126
▁targeted	-10127
▁interviews	-10128
▁preparing	-10129
▁virtually	-10130
▁rely	-10131
▁Sound	-10132
▁CON	-10133
▁belt	-10134
▁rhyth	-10135
▁repeat	-10136
▁NBA	-10137
▁Move	-10138
▁Trib	-10139
▁Singapore	-10140
▁179	-10141
▁Blood	-10142
▁execution	-10143
▁shops	-10144
▁Lieutenant	-10145
▁parl	-10146
▁iPh	-10147
▁Trust	-10148
▁dating	-10149
▁Besides	-10150
TE	-10151
about	-10152
▁vocals	-10153
odox	-10154
▁crying	-10155
▁disappear	-10156
anne	-10157
▁Ocean	-10158
▁extrem	-10159
▁platforms	-10160
KE	-10161
▁drunk	-10162
▁diverse	-10163
ERS	-10164
▁fantasy	-10165
anç	-10166
▁organic	-10167
▁Fut	-10168
▁pled	-10169
▁divine	-10170
▁queen	-10171
viously	-10172
▁collapse	-10173
▁Gh	-10174
alion	-10175
▁bloody	-10176
▁ces	-10177
▁Vers	-10178
gered	-10179
▁Gene	-10180
▁Islands	-10181
Hey	-10182
alin	-10183
▁grey	-10184
▁adventure	-10185
▁corrid	-10186
rified	-10187
▁widespread	-10188
▁dozens	-10189
▁theater	-10190
akespeare	-10191
▁chat	-10192
▁keys	-10193
▁telephone	-10194
▁extend	-10195
▁Ped	-10196
▁upcoming	-10197
▁Remember	-10198
▁representation	-10199
▁programme	-10200
▁mask	-10201
▁trigger	-10202
▁hydro	-10203
▁offense	-10204
▁shifted	-10205
▁institution	-10206
VD	-10207
zt	-10208
▁variable	-10209
▁cable	-10210
▁steam	-10211
▁Castle	-10212
▁attractive	-10213
▁opens	-10214
▁reluct	-10215
▁Gib	-10216
▁buff	-10217
tery	-10218
▁Vice	-10219
▁alter	-10220
ania	-10221
▁Grace	-10222
▁faint	-10223
▁bacter	-10224
▁undert	-10225
▁imperial	-10226
▁assemb	-10227
▁mild	-10228
▁concerning	-10229
▁Near	-10230
▁consec	-10231
να	-10232
▁Pict	-10233
▁journalists	-10234
bage	-10235
▁Kings	-10236
▁beans	-10237
▁Pope	-10238
▁Until	-10239
▁bless	-10240
▁stolen	-10241
inge	-10242
▁dawn	-10243
itement	-10244
agne	-10245
▁Video	-10246
▁cousin	-10247
ATE	-10248
▁bills	-10249
▁»,	-10250
▁wider	-10251
ijing	-10252
▁resource	-10253
▁desired	-10254
ags	-10255
ahr	-10256
!!	-10257
▁requests	-10258
▁Run	-10259
▁statistics	-10260
▁educational	-10261
minute	-10262
pur	-10263
";	-10264
annels	-10265
MP	-10266
▁astron	-10267
▁dishes	-10268
:1	-10269
▁annoy	-10270
▁ich	-10271
▁significance	-10272
▁figured	-10273
ouri	-10274
▁aver	-10275
▁edges	-10276
▁Tob	-10277
▁profound	-10278
▁gut	-10279
assy	-10280
▁theories	-10281
▁Map	-10282
▁grim	-10283
▁tod	-10284
▁doct	-10285
▁harass	-10286
itate	-10287
▁frequent	-10288
scale	-10289
obs	-10290
▁Kate	-10291
▁audio	-10292
iller	-10293
writer	-10294
▁strengthen	-10295
▁sab	-10296
▁2009.	-10297
rons	-10298
atched	-10299
ested	-10300
▁Hope	-10301
▁Domin	-10302
ем	-10303
oj	-10304
▁loop	-10305
▁Stadium	-10306
▁Mind	-10307
ahn	-10308
mid	-10309
oting	-10310
teenth	-10311
▁unh	-10312
▁Fif	-10313
mos	-10314
sole	-10315
AV	-10316
aver	-10317
▁stored	-10318
▁18.	-10319
▁Prize	-10320
▁ot	-10321
▁2008.	-10322
▁Case	-10323
gs	-10324
▁jacket	-10325
iate	-10326
▁Vin	-10327
▁genetic	-10328
▁classical	-10329
▁Juan	-10330
ić	-10331
▁dirty	-10332
▁mining	-10333
Fr	-10334
▁angle	-10335
▁Sweden	-10336
▁affair	-10337
▁grateful	-10338
▁Heart	-10339
▁Area	-10340
AY	-10341
▁über	-10342
▁Transport	-10343
▁2019,	-10344
▁Soph	-10345
▁beating	-10346
▁priority	-10347
3).	-10348
▁boxes	-10349
onds	-10350
▁что	-10351
fin	-10352
▁ownership	-10353
▁В	-10354
▁assessment	-10355
▁feedback	-10356
aund	-10357
です	-10358
▁grip	-10359
ahl	-10360
▁barrel	-10361
▁lord	-10362
unted	-10363
▁conj	-10364
▁vacc	-10365
▁lun	-10366
▁Liberal	-10367
▁ages	-10368
ART	-10369
mont	-10370
▁clouds	-10371
▁performances	-10372
▁surveillance	-10373
enter	-10374
▁Treat	-10375
▁minority	-10376
され	-10377
▁Khan	-10378
▁kicked	-10379
▁passenger	-10380
HS	-10381
iri	-10382
▁Indiana	-10383
cience	-10384
▁Section	-10385
▁anth	-10386
▁camps	-10387
▁nowhere	-10388
▁regardless	-10389
▁updates	-10390
game	-10391
irds	-10392
▁NASA	-10393
trans	-10394
attan	-10395
▁murm	-10396
▁challenging	-10397
▁contributions	-10398
gov	-10399
olves	-10400
▁CO	-10401
▁Ky	-10402
▁aer	-10403
▁Indones	-10404
▁ра	-10405
ouve	-10406
▁Venezuel	-10407
"|	-10408
umbling	-10409
▁printed	-10410
spec	-10411
▁tut	-10412
▁Lang	-10413
▁cannabis	-10414
▁duties	-10415
▁sisters	-10416
4),	-10417
▁directions	-10418
▁neighbour	-10419
imore	-10420
▁trains	-10421
▁reign	-10422
▁cameras	-10423
▁punishment	-10424
▁Putin	-10425
▁scoring	-10426
lined	-10427
▁avait	-10428
▁coalition	-10429
▁Palestinian	-10430
▁wie	-10431
wall	-10432
▁albums	-10433
▁manufacturing	-10434
▁jet	-10435
▁categories	-10436
▁Eag	-10437
▁Prom	-10438
▁П	-10439
eck	-10440
▁procedure	-10441
▁Mand	-10442
hop	-10443
erness	-10444
▁Left	-10445
▁Career	-10446
▁awards	-10447
▁Gallery	-10448
▁Ark	-10449
cor	-10450
▁cryptocur	-10451
▁implementation	-10452
ля	-10453
▁hills	-10454
▁lightly	-10455
Im	-10456
EST	-10457
▁cub	-10458
▁tun	-10459
▁Copy	-10460
▁administrative	-10461
▁boots	-10462
esta	-10463
▁184	-10464
▁cheer	-10465
▁contra	-10466
hot	-10467
▁characteristics	-10468
▁rape	-10469
▁Imper	-10470
▁Garden	-10471
▁rebu	-10472
profit	-10473
▁psychological	-10474
▁overwhelming	-10475
ethod	-10476
ugar	-10477
Ah	-10478
▁contribute	-10479
▁retreat	-10480
▁(6	-10481
incial	-10482
▁concepts	-10483
ον	-10484
▁Liver	-10485
▁Corporation	-10486
tains	-10487
▁Colonel	-10488
▁damaged	-10489
itionally	-10490
▁suspended	-10491
poon	-10492
▁Robinson	-10493
88	-10494
isement	-10495
▁cabinet	-10496
▁dynamic	-10497
ether	-10498
▁citizen	-10499
▁islands	-10500
▁tamb	-10501
▁Brexit	-10502
outheast	-10503
▁attempting	-10504
zes	-10505
って	-10506
▁Ever	-10507
▁cabin	-10508
▁infin	-10509
iscal	-10510
▁seemingly	-10511
vor	-10512
orable	-10513
▁titled	-10514
▁Kl	-10515
▁Mult	-10516
▁conventional	-10517
▁indicates	-10518
▁suggesting	-10519
plate	-10520
▁GM	-10521
erver	-10522
▁Scient	-10523
▁patri	-10524
idos	-10525
▁Fat	-10526
▁onion	-10527
▁autonom	-10528
▁refugees	-10529
will	-10530
▁Arn	-10531
▁liv	-10532
▁dread	-10533
▁stops	-10534
ompson	-10535
▁urged	-10536
▁palace	-10537
backs	-10538
▁Native	-10539
omer	-10540
esters	-10541
▁Building	-10542
▁Len	-10543
▁glasses	-10544
▁Queens	-10545
▁Affairs	-10546
▁scandal	-10547
adow	-10548
▁beef	-10549
▁conversations	-10550
▁Kam	-10551
▁Sto	-10552
▁wealthy	-10553
▁Country	-10554
▁dining	-10555
▁unemploy	-10556
▁weakness	-10557
▁abortion	-10558
▁proven	-10559
▁dub	-10560
mouth	-10561
▁tear	-10562
▁strategies	-10563
▁Intelligence	-10564
ían	-10565
▁deputy	-10566
▁penalty	-10567
▁Justin	-10568
▁medal	-10569
▁scores	-10570
▁Franklin	-10571
▁Gary	-10572
azione	-10573
▁abroad	-10574
▁Schol	-10575
▁reduction	-10576
riger	-10577
▁noble	-10578
▁со	-10579
▁firmly	-10580
▁translated	-10581
▁demonstrated	-10582
some	-10583
ESS	-10584
uno	-10585
▁versus	-10586
▁Championships	-10587
sized	-10588
▁derived	-10589
▁kom	-10590
▁benefic	-10591
quer	-10592
▁deux	-10593
▁assembly	-10594
▁Andy	-10595
bling	-10596
▁Action	-10597
isi	-10598
▁Alexand	-10599
▁(1)	-10600
▁formula	-10601
▁Communist	-10602
erman	-10603
▁romantic	-10604
mers	-10605
▁periods	-10606
▁Emperor	-10607
▁occasions	-10608
▁concentration	-10609
▁muscles	-10610
▁verd	-10611
ikh	-10612
▁ranked	-10613
addy	-10614
▁Cow	-10615
stan	-10616
▁rounds	-10617
ικ	-10618
▁exem	-10619
▁complaint	-10620
▁kan	-10621
alla	-10622
▁fest	-10623
▁250	-10624
▁progressive	-10625
arded	-10626
▁cruel	-10627
▁hosted	-10628
▁empire	-10629
▁Capital	-10630
ên	-10631
▁Rand	-10632
▁nort	-10633
itty	-10634
▁Ja	-10635
iento	-10636
▁testimony	-10637
▁Buck	-10638
▁sovere	-10639
▁Benjamin	-10640
си	-10641
▁Delhi	-10642
▁substance	-10643
▁1⁄4	-10644
▁1989	-10645
▁Trade	-10646
▁partnership	-10647
▁harsh	-10648
▁Wright	-10649
▁Beijing	-10650
App	-10651
▁ignor	-10652
▁combine	-10653
▁Maj	-10654
▁synd	-10655
▁surviv	-10656
▁franchise	-10657
tha	-10658
Okay	-10659
immer	-10660
▁Express	-10661
▁Stra	-10662
▁bags	-10663
▁weekly	-10664
▁pregnant	-10665
aying	-10666
section	-10667
▁Province	-10668
▁departure	-10669
▁faire	-10670
▁worship	-10671
ió	-10672
olk	-10673
uda	-10674
▁ate	-10675
▁Morris	-10676
añ	-10677
▁Bowl	-10678
avirus	-10679
▁opinions	-10680
▁Susan	-10681
▁firing	-10682
▁shelter	-10683
▁sang	-10684
▁inhabit	-10685
FF	-10686
▁к	-10687
▁Cruz	-10688
▁Hawai	-10689
arms	-10690
▁Nether	-10691
▁Atlanta	-10692
▁interface	-10693
aration	-10694
▁photographs	-10695
only	-10696
▁Nelson	-10697
▁rhet	-10698
とい	-10699
isons	-10700
▁battles	-10701
▁horn	-10702
▁Austin	-10703
▁_(	-10704
▁Yan	-10705
igo	-10706
essa	-10707
▁Vegas	-10708
etary	-10709
▁Larry	-10710
▁Political	-10711
▁fru	-10712
Because	-10713
не	-10714
undo	-10715
▁sits	-10716
▁holes	-10717
▁accum	-10718
▁Military	-10719
cca	-10720
▁paintings	-10721
ims	-10722
▁Marine	-10723
▁repair	-10724
▁tickets	-10725
acent	-10726
▁knocked	-10727
▁intervention	-10728
▁bands	-10729
▁highway	-10730
Thank	-10731
▁sket	-10732
▁Fern	-10733
▁rating	-10734
▁fed	-10735
annon	-10736
▁BE	-10737
blic	-10738
▁hitting	-10739
▁Tennes	-10740
▁dismissed	-10741
▁51	-10742
isen	-10743
▁references	-10744
aten	-10745
▁exclusive	-10746
▁discussions	-10747
wo	-10748
▁sixt	-10749
phan	-10750
▁Cold	-10751
▁emphasis	-10752
▁ب	-10753
kee	-10754
▁Mort	-10755
▁snapped	-10756
▁traveling	-10757
▁slip	-10758
▁fighters	-10759
▁dit	-10760
▁lobby	-10761
!_	-10762
▁Ry	-10763
type	-10764
▁Tu	-10765
▁Spirit	-10766
де	-10767
bian	-10768
▁sorts	-10769
▁Shakespeare	-10770
race	-10771
▁graduate	-10772
▁dign	-10773
▁loves	-10774
▁Whatever	-10775
▁revers	-10776
▁settings	-10777
▁Know	-10778
▁patch	-10779
fish	-10780
▁compass	-10781
ILL	-10782
▁centers	-10783
▁inch	-10784
rected	-10785
▁promotion	-10786
▁pursue	-10787
▁Das	-10788
▁campaigns	-10789
▁approaches	-10790
▁vibr	-10791
▁Tower	-10792
pen	-10793
▁vague	-10794
oyd	-10795
▁maps	-10796
seless	-10797
▁whist	-10798
interest	-10799
▁Prim	-10800
▁pero	-10801
▁disorder	-10802
ít	-10803
inen	-10804
ophy	-10805
▁sind	-10806
▁Could	-10807
▁Dra	-10808
▁palm	-10809
▁quel	-10810
▁prize	-10811
▁Former	-10812
▁triumph	-10813
▁measured	-10814
▁grandfather	-10815
chell	-10816
▁sacred	-10817
▁remarks	-10818
▁daughters	-10819
▁influenced	-10820
▁wage	-10821
▁4:	-10822
▁twent	-10823
rena	-10824
▁Log	-10825
▁Batt	-10826
▁crown	-10827
abel	-10828
ís	-10829
▁distinction	-10830
arette	-10831
SC	-10832
▁Opp	-10833
▁spots	-10834
▁Ave	-10835
▁Doc	-10836
▁NOT	-10837
–10	-10838
▁Maryland	-10839
▁seized	-10840
▁veteran	-10841
▁initiative	-10842
Col	-10843
▁dancing	-10844
▁acknowledged	-10845
▁Emer	-10846
▁dollar	-10847
▁Pent	-10848
▁Pour	-10849
▁panic	-10850
▁newspapers	-10851
ixed	-10852
▁Farm	-10853
▁devoted	-10854
▁Eight	-10855
▁corps	-10856
▁Freedom	-10857
dit	-10858
igt	-10859
▁bullet	-10860
▁reserve	-10861
▁consideration	-10862
▁documentary	-10863
maker	-10864
▁Nazi	-10865
▁craw	-10866
▁reads	-10867
▁breaks	-10868
▁Thompson	-10869
▁chin	-10870
▁overcome	-10871
▁Plus	-10872
erves	-10873
▁1940	-10874
▁foss	-10875
▁Ern	-10876
ailing	-10877
▁friendship	-10878
▁genre	-10879
▁Things	-10880
▁dece	-10881
GBT	-10882
hedral	-10883
▁blade	-10884
▁Gulf	-10885
▁hers	-10886
▁lone	-10887
▁designs	-10888
▁lessons	-10889
▁pier	-10890
▁sentiment	-10891
▁bits	-10892
▁outer	-10893
▁fert	-10894
▁Local	-10895
▁inspect	-10896
▁thy	-10897
kward	-10898
People	-10899
▁descend	-10900
▁stadium	-10901
▁Small	-10902
▁uncons	-10903
emet	-10904
inda	-10905
▁households	-10906
dri	-10907
▁Code	-10908
▁Vo	-10909
gate	-10910
▁Pack	-10911
orus	-10912
▁Fra	-10913
gly	-10914
▁males	-10915
▁Cape	-10916
wind	-10917
▁acted	-10918
▁ratio	-10919
▁channels	-10920
mn	-10921
▁oz	-10922
▁Sad	-10923
▁converted	-10924
▁Share	-10925
▁essay	-10926
▁Joy	-10927
▁underground	-10928
▁participation	-10929
7),	-10930
oples	-10931
acious	-10932
market	-10933
▁hij	-10934
▁females	-10935
▁computers	-10936
Cont	-10937
amped	-10938
▁handling	-10939
London	-10940
▁Peace	-10941
▁Economic	-10942
avy	-10943
▁dar	-10944
▁Marie	-10945
▁investigate	-10946
▁Egyptian	-10947
▁failing	-10948
▁bron	-10949
alities	-10950
▁hated	-10951
▁bug	-10952
▁isolated	-10953
eur	-10954
▁reverse	-10955
cular	-10956
▁grin	-10957
▁enthusi	-10958
▁strip	-10959
▁dominant	-10960
▁Buff	-10961
▁Rap	-10962
▁lowest	-10963
▁reliable	-10964
▁boats	-10965
▁Price	-10966
▁fierce	-10967
▁Saf	-10968
▁Tennessee	-10969
▁cm	-10970
▁pleasant	-10971
▁nach	-10972
▁iPhone	-10973
▁đ	-10974
▁Jag	-10975
▁hack	-10976
▁cance	-10977
gra	-10978
▁slid	-10979
▁export	-10980
▁appointment	-10981
▁1993	-10982
▁reducing	-10983
▁uncomfort	-10984
cop	-10985
too	-10986
pless	-10987
▁vocal	-10988
▁(196	-10989
▁hockey	-10990
▁permit	-10991
▁strikes	-10992
▁Imm	-10993
▁facilit	-10994
▁deny	-10995
istant	-10996
▁Should	-10997
▁scenario	-10998
▁districts	-10999
▁Officer	-11000
▁restrictions	-11001
through	-11002
▁rushed	-11003
▁displayed	-11004
such	-11005
ombre	-11006
▁attracted	-11007
▁diver	-11008
▁judges	-11009
▁С	-11010
▁shocked	-11011
▁mini	-11012
▁hence	-11013
▁universities	-11014
▁Marshall	-11015
▁hungry	-11016
▁Heb	-11017
▁contribution	-11018
▁cloth	-11019
▁Sha	-11020
▁composition	-11021
▁swimming	-11022
▁$10	-11023
▁tips	-11024
▁reserved	-11025
▁Cut	-11026
umble	-11027
zech	-11028
▁Palace	-11029
3%	-11030
▁Jen	-11031
)_	-11032
oust	-11033
▁pou	-11034
estyle	-11035
▁picking	-11036
▁Plat	-11037
▁twist	-11038
▁Murray	-11039
▁clinical	-11040
▁orient	-11041
illo	-11042
▁smoking	-11043
weg	-11044
sten	-11045
▁dimin	-11046
▁Pas	-11047
orship	-11048
veland	-11049
▁Biden	-11050
othy	-11051
▁inject	-11052
▁celebrated	-11053
▁manuscript	-11054
▁до	-11055
auer	-11056
▁welf	-11057
▁divers	-11058
▁followers	-11059
▁Por	-11060
▁firms	-11061
▁19.	-11062
uced	-11063
▁Rain	-11064
▁reck	-11065
▁tang	-11066
▁été	-11067
▁contrary	-11068
▁forehead	-11069
ôt	-11070
Int	-11071
▁1,000	-11072
▁tablespoon	-11073
had	-11074
▁murdered	-11075
▁Ku	-11076
encer	-11077
lly	-11078
clock	-11079
▁theat	-11080
▁traged	-11081
▁AI	-11082
▁să	-11083
▁engagement	-11084
▁welfare	-11085
▁oun	-11086
▁perceived	-11087
▁responses	-11088
00,000	-11089
▁reception	-11090
pres	-11091
▁guarantee	-11092
▁mos	-11093
▁incredibly	-11094
▁Finn	-11095
▁drinks	-11096
▁everyday	-11097
▁edited	-11098
▁——	-11099
▁20.	-11100
oco	-11101
▁assured	-11102
▁executed	-11103
▁diseases	-11104
▁Block	-11105
▁NBC	-11106
▁Christianity	-11107
98	-11108
▁(8	-11109
esis	-11110
▁Around	-11111
▁courses	-11112
▁listing	-11113
upt	-11114
▁fi	-11115
adesh	-11116
▁Manh	-11117
▁trace	-11118
isms	-11119
.-	-11120
olid	-11121
▁recovered	-11122
▁stretched	-11123
▁Return	-11124
ranean	-11125
▁56	-11126
math	-11127
▁1988	-11128
ueller	-11129
oub	-11130
▁saving	-11131
▁introduce	-11132
inces	-11133
▁participated	-11134
izza	-11135
▁lesson	-11136
▁physically	-11137
bus	-11138
▁2005,	-11139
ressing	-11140
▁theatre	-11141
▁52	-11142
▁Ruth	-11143
▁potatoes	-11144
▁feared	-11145
▁traveled	-11146
▁LE	-11147
▁adequ	-11148
▁softly	-11149
▁Channel	-11150
▁constitutional	-11151
ancouver	-11152
▁Ian	-11153
▁Very	-11154
▁Ju	-11155
▁underlying	-11156
▁aussi	-11157
Ad	-11158
▁backing	-11159
▁gre	-11160
▁hosp	-11161
▁Arabia	-11162
▁replacement	-11163
▁Think	-11164
▁Mississ	-11165
first	-11166
▁había	-11167
▁waist	-11168
▁interact	-11169
klah	-11170
▁transportation	-11171
▁Swedish	-11172
▁Chen	-11173
▁Iranian	-11174
▁engines	-11175
western	-11176
endar	-11177
aa	-11178
▁entreprene	-11179
▁arc	-11180
ippi	-11181
▁Occ	-11182
▁meals	-11183
▁Executive	-11184
▁OS	-11185
▁Tan	-11186
bound	-11187
▁MORE	-11188
▁speaker	-11189
▁popularity	-11190
▁Him	-11191
▁impressed	-11192
atar	-11193
▁insight	-11194
omo	-11195
Med	-11196
▁Fab	-11197
▁hub	-11198
▁Intro	-11199
▁spotted	-11200
▁experiments	-11201
▁beaten	-11202
▁Angel	-11203
▁borders	-11204
scar	-11205
range	-11206
▁Highway	-11207
El	-11208
▁closest	-11209
▁Cond	-11210
▁2007.	-11211
▁escaped	-11212
struct	-11213
▁awkward	-11214
even	-11215
former	-11216
▁wash	-11217
▁balls	-11218
▁presents	-11219
▁banned	-11220
▁promises	-11221
▁phenomenon	-11222
▁coin	-11223
▁nurse	-11224
▁Hunter	-11225
terior	-11226
▁spirits	-11227
▁membership	-11228
human	-11229
▁legacy	-11230
▁OR	-11231
fit	-11232
▁vend	-11233
▁convert	-11234
ää	-11235
idal	-11236
▁managing	-11237
oken	-11238
▁Getty	-11239
▁controversy	-11240
▁brick	-11241
▁guid	-11242
▁excitement	-11243
▁Jake	-11244
▁Type	-11245
▁dialogue	-11246
▁UC	-11247
▁DO	-11248
cal	-11249
–17	-11250
isible	-11251
▁Seven	-11252
▁Conservative	-11253
▁2019.	-11254
▁irrit	-11255
ør	-11256
▁impe	-11257
▁tub	-11258
▁fighter	-11259
▁churches	-11260
▁Sean	-11261
alous	-11262
▁Sac	-11263
▁junior	-11264
▁3-	-11265
▁Ltd	-11266
▁thrust	-11267
ifferent	-11268
held	-11269
▁Patri	-11270
▁novels	-11271
▁summit	-11272
▁Conc	-11273
emetery	-11274
▁caf	-11275
▁constitution	-11276
▁altogether	-11277
▁31,	-11278
track	-11279
▁fare	-11280
▁lifetime	-11281
core	-11282
▁Madrid	-11283
▁$4	-11284
▁mol	-11285
▁diversity	-11286
▁emissions	-11287
▁differently	-11288
▁Dean	-11289
▁forcing	-11290
▁historian	-11291
igate	-11292
▁convince	-11293
▁scientist	-11294
▁flee	-11295
istance	-11296
▁maintenance	-11297
▁está	-11298
▁rode	-11299
▁Griff	-11300
▁Track	-11301
▁painful	-11302
▁emerging	-11303
▁disrupt	-11304
▁medieval	-11305
▁rect	-11306
▁Tokyo	-11307
▁straw	-11308
▁expecting	-11309
▁populations	-11310
▁Nar	-11311
▁fue	-11312
▁container	-11313
PC	-11314
onne	-11315
▁Kentucky	-11316
▁implemented	-11317
4).	-11318
ygen	-11319
▁$1.	-11320
▁elig	-11321
▁frequency	-11322
ski	-11323
▁1991	-11324
ün	-11325
▁activist	-11326
▁threatening	-11327
▁wre	-11328
Will	-11329
▁×	-11330
▁Nev	-11331
comes	-11332
▁swept	-11333
▁reveals	-11334
▁perception	-11335
▁Hop	-11336
klahoma	-11337
▁swing	-11338
anti	-11339
▁apr	-11340
oard	-11341
rition	-11342
▁swift	-11343
▁funeral	-11344
▁Personal	-11345
bably	-11346
▁earliest	-11347
▁improvement	-11348
▁cooperation	-11349
omes	-11350
ppy	-11351
acre	-11352
▁Maur	-11353
▁graduated	-11354
GA	-11355
agg	-11356
▁mai	-11357
▁adap	-11358
▁Cleveland	-11359
nal	-11360
▁voy	-11361
▁Magic	-11362
▁aston	-11363
,’	-11364
lav	-11365
▁developer	-11366
▁00	-11367
▁(10	-11368
yt	-11369
▁Years	-11370
▁sheep	-11371
▁examine	-11372
orig	-11373
▁thumb	-11374
▁representatives	-11375
fam	-11376
▁walks	-11377
▁57	-11378
▁58	-11379
▁helic	-11380
▁spite	-11381
▁Ga	-11382
▁Magazine	-11383
▁mm	-11384
▁eleven	-11385
по	-11386
▁accessible	-11387
▁hearts	-11388
▁Core	-11389
▁werden	-11390
▁designated	-11391
eton	-11392
unci	-11393
▁Baker	-11394
▁estimates	-11395
▁sanctions	-11396
▁artificial	-11397
▁irre	-11398
master	-11399
▁demonstrate	-11400
▁holy	-11401
▁prox	-11402
▁protecting	-11403
IGH	-11404
▁hem	-11405
▁laughter	-11406
:19	-11407
hu	-11408
▁skull	-11409
▁était	-11410
dale	-11411
▁Netherlands	-11412
isten	-11413
▁scan	-11414
▁parte	-11415
▁kissed	-11416
roph	-11417
▁routes	-11418
–200	-11419
unct	-11420
▁Medic	-11421
▁bast	-11422
▁publishing	-11423
eu	-11424
aan	-11425
▁Trail	-11426
▁Missouri	-11427
▁subtle	-11428
▁neighbors	-11429
ogy	-11430
▁neat	-11431
▁tunnel	-11432
▁Oliver	-11433
hill	-11434
▁fortune	-11435
▁Ward	-11436
▁labour	-11437
▁Obs	-11438
IST	-11439
▁circles	-11440
▁Und	-11441
▁layers	-11442
▁estimate	-11443
▁Manhattan	-11444
God	-11445
▁SU	-11446
▁Philos	-11447
▁Wayne	-11448
dog	-11449
▁Dri	-11450
▁Jefferson	-11451
▁celebrate	-11452
▁requested	-11453
▁attacking	-11454
▁provision	-11455
▁imprison	-11456
▁qualified	-11457
▁Vancouver	-11458
▁traditions	-11459
whe	-11460
▁awful	-11461
cos	-11462
▁visits	-11463
LY	-11464
three	-11465
▁argues	-11466
▁dominated	-11467
▁simultaneously	-11468
▁precious	-11469
aco	-11470
holders	-11471
▁interaction	-11472
▁Nevertheless	-11473
▁auto	-11474
▁slee	-11475
▁terrorism	-11476
▁revolutionary	-11477
▁Swiss	-11478
ños	-11479
▁odds	-11480
▁Harper	-11481
▁Mais	-11482
▁Stewart	-11483
▁Campbell	-11484
▁sacrifice	-11485
▁Nancy	-11486
▁Custom	-11487
rite	-11488
▁Bernard	-11489
esp	-11490
▁keen	-11491
▁arbit	-11492
▁screw	-11493
din	-11494
These	-11495
▁insect	-11496
▁Bah	-11497
umm	-11498
▁discipline	-11499
▁pause	-11500
rowing	-11501
▁ramp	-11502
etheless	-11503
auf	-11504
▁Tax	-11505
mented	-11506
▁prost	-11507
▁agricultural	-11508
By	-11509
▁rope	-11510
▁Bloom	-11511
сь	-11512
▁preparation	-11513
▁Lucy	-11514
▁convicted	-11515
▁demanding	-11516
▁satisfied	-11517
▁pile	-11518
▁destination	-11519
▁residence	-11520
▁contents	-11521
▁Natural	-11522
ucker	-11523
▁Support	-11524
▁bottles	-11525
ATO	-11526
▁Reserve	-11527
▁prince	-11528
sub	-11529
▁Try	-11530
▁embrace	-11531
amon	-11532
▁loaded	-11533
▁signals	-11534
beit	-11535
▁Mueller	-11536
▁Furthermore	-11537
▁transactions	-11538
▁producers	-11539
▁phones	-11540
▁encl	-11541
▁rebell	-11542
▁AB	-11543
▁retrie	-11544
▁Pic	-11545
angel	-11546
▁Robin	-11547
▁mistakes	-11548
▁Singh	-11549
▁ther	-11550
osi	-11551
▁acknowledge	-11552
▁soci	-11553
▁Credit	-11554
▁Squad	-11555
▁nomine	-11556
▁regulation	-11557
strong	-11558
▁Pra	-11559
▁suitable	-11560
▁Liverpool	-11561
▁gym	-11562
▁Qual	-11563
▁rage	-11564
▁density	-11565
uerto	-11566
▁54	-11567
acular	-11568
▁collaboration	-11569
▁Less	-11570
▁dei	-11571
▁Oklahoma	-11572
▁instantly	-11573
до	-11574
RS	-11575
▁browser	-11576
96	-11577
leton	-11578
▁Instagram	-11579
▁го	-11580
erving	-11581
▁orche	-11582
▁gross	-11583
▁efficiency	-11584
▁grid	-11585
uating	-11586
▁footage	-11587
▁instruments	-11588
imens	-11589
▁civilian	-11590
▁Clar	-11591
▁ş	-11592
otype	-11593
quest	-11594
▁Beng	-11595
▁rifle	-11596
▁Charlotte	-11597
▁FA	-11598
▁modest	-11599
▁porn	-11600
▁Perform	-11601
▁Cover	-11602
▁endless	-11603
▁jew	-11604
iper	-11605
being	-11606
▁brush	-11607
thon	-11608
1-	-11609
▁gru	-11610
▁tanks	-11611
ema	-11612
▁Chel	-11613
▁fires	-11614
▁Rachel	-11615
▁girlfriend	-11616
tail	-11617
▁resort	-11618
▁Culture	-11619
▁sink	-11620
oker	-11621
natural	-11622
cas	-11623
▁Bund	-11624
▁consent	-11625
▁mysterious	-11626
▁Baltimore	-11627
▁procedures	-11628
ifier	-11629
▁libr	-11630
▁spat	-11631
▁biological	-11632
▁temperatures	-11633
IB	-11634
▁Change	-11635
▁toile	-11636
▁spo	-11637
▁describing	-11638
GO	-11639
cat	-11640
▁Brooklyn	-11641
omic	-11642
▁Collins	-11643
▁reaches	-11644
▁Dak	-11645
▁Malays	-11646
▁¿	-11647
onut	-11648
kind	-11649
keeper	-11650
▁Memorial	-11651
seud	-11652
thodox	-11653
▁Niger	-11654
▁Parker	-11655
▁shar	-11656
▁Thor	-11657
actor	-11658
ju	-11659
opter	-11660
▁Utah	-11661
äh	-11662
▁servants	-11663
▁legitimate	-11664
▁monster	-11665
▁ikke	-11666
▁Stanley	-11667
▁Barbara	-11668
▁proportion	-11669
▁protesters	-11670
▁produces	-11671
Chapter	-11672
▁Ll	-11673
arios	-11674
Any	-11675
▁identical	-11676
▁(2)	-11677
▁questioned	-11678
▁Along	-11679
▁belonged	-11680
▁Johnny	-11681
▁blocked	-11682
üh	-11683
▁trips	-11684
▁conspiracy	-11685
ono	-11686
ERE	-11687
▁furniture	-11688
▁Lad	-11689
▁dil	-11690
▁registr	-11691
2%	-11692
▁Lane	-11693
▁stability	-11694
esar	-11695
▁Jere	-11696
▁anniversary	-11697
anim	-11698
▁admin	-11699
▁pione	-11700
cu	-11701
▁presentation	-11702
CD	-11703
▁Rio	-11704
мо	-11705
▁Philippines	-11706
1;	-11707
▁Amy	-11708
ων	-11709
itzerland	-11710
▁1986	-11711
alling	-11712
▁spare	-11713
▁Inside	-11714
▁Sport	-11715
▁burden	-11716
▁LGBT	-11717
▁ward	-11718
▁fence	-11719
▁noting	-11720
▁reun	-11721
▁sessions	-11722
▁grandmother	-11723
usk	-11724
▁torture	-11725
▁topics	-11726
ping	-11727
▁178	-11728
▁compare	-11729
▁refuse	-11730
▁observation	-11731
▁poems	-11732
▁rust	-11733
▁Alfred	-11734
▁inspiration	-11735
▁Gray	-11736
▁nost	-11737
▁killer	-11738
7).	-11739
ilia	-11740
▁Czech	-11741
▁lecture	-11742
▁gle	-11743
▁lyr	-11744
▁Benn	-11745
▁cens	-11746
▁arguing	-11747
▁plug	-11748
plus	-11749
▁Tele	-11750
▁incent	-11751
▁difficulties	-11752
▁Side	-11753
div	-11754
▁53	-11755
apolis	-11756
▁slept	-11757
good	-11758
▁occupation	-11759
▁Sciences	-11760
ete	-11761
▁bite	-11762
▁chaos	-11763
▁profits	-11764
▁е	-11765
▁Ka	-11766
▁Store	-11767
brid	-11768
▁influential	-11769
enged	-11770
iert	-11771
▁farther	-11772
▁ladies	-11773
▁samples	-11774
▁от	-11775
letter	-11776
▁sheets	-11777
boards	-11778
▁Route	-11779
▁winds	-11780
▁viewers	-11781
conf	-11782
▁Melbourne	-11783
▁hosts	-11784
ropolitan	-11785
▁mock	-11786
orph	-11787
▁Word	-11788
nut	-11789
▁comprehensive	-11790
▁explaining	-11791
▁tremend	-11792
eyed	-11793
ancial	-11794
▁Jerry	-11795
▁thoroughly	-11796
▁Monte	-11797
▁deadly	-11798
▁peaceful	-11799
▁pays	-11800
▁cigarette	-11801
month	-11802
WS	-11803
nor	-11804
▁CL	-11805
ridge	-11806
▁abund	-11807
▁decis	-11808
▁oh	-11809
și	-11810
▁finishing	-11811
ateral	-11812
▁Commer	-11813
▁satellite	-11814
▁Portland	-11815
blem	-11816
▁penetr	-11817
ographical	-11818
Pr	-11819
▁Brew	-11820
iev	-11821
▁alliance	-11822
hend	-11823
▁Tes	-11824
ioni	-11825
▁criticized	-11826
==	-11827
hin	-11828
mons	-11829
▁Ric	-11830
ushes	-11831
ceptions	-11832
▁Alliance	-11833
▁stab	-11834
▁exhaust	-11835
acional	-11836
▁throne	-11837
▁Self	-11838
▁chef	-11839
▁pressing	-11840
▁statue	-11841
▁operator	-11842
raham	-11843
▁analog	-11844
▁gifts	-11845
▁approaching	-11846
▁transformation	-11847
▁hay	-11848
▁Peters	-11849
▁excuse	-11850
▁checking	-11851
▁inaug	-11852
▁incidents	-11853
From	-11854
▁lined	-11855
otted	-11856
emp	-11857
▁rapp	-11858
owski	-11859
▁Knight	-11860
▁prest	-11861
▁peut	-11862
▁permitted	-11863
▁mounted	-11864
▁Federation	-11865
▁communicate	-11866
▁focusing	-11867
denly	-11868
▁Deep	-11869
▁Vlad	-11870
ocated	-11871
▁constra	-11872
onies	-11873
▁bree	-11874
Here	-11875
▁golf	-11876
▁lover	-11877
▁Jeremy	-11878
▁harvest	-11879
▁Railway	-11880
▁Hamp	-11881
▁dispute	-11882
▁Arist	-11883
▁Beyond	-11884
▁immense	-11885
▁nineteenth	-11886
▁guilt	-11887
▁deserve	-11888
▁dependent	-11889
▁mant	-11890
▁aest	-11891
▁twisted	-11892
essional	-11893
▁refriger	-11894
▁то	-11895
John	-11896
▁Find	-11897
▁Access	-11898
▁occasional	-11899
▁discrimination	-11900
▁ads	-11901
▁Mississippi	-11902
PM	-11903
▁2000,	-11904
comp	-11905
▁screens	-11906
sels	-11907
pers	-11908
▁Model	-11909
▁preserve	-11910
▁adopt	-11911
eta	-11912
ijn	-11913
▁recre	-11914
▁PH	-11915
1%	-11916
ricane	-11917
▁Amendment	-11918
clusive	-11919
▁innovation	-11920
▁praise	-11921
▁dual	-11922
▁curve	-11923
ilst	-11924
anting	-11925
cies	-11926
▁Eventually	-11927
etta	-11928
▁Nort	-11929
render	-11930
aser	-11931
▁safely	-11932
▁heritage	-11933
▁Cos	-11934
▁associate	-11935
▁restored	-11936
▁Fro	-11937
books	-11938
▁Beth	-11939
▁Medicine	-11940
▁reflection	-11941
▁einer	-11942
▁grain	-11943
▁accomplish	-11944
▁Bou	-11945
▁Half	-11946
▁educated	-11947
▁examined	-11948
▁competing	-11949
▁Born	-11950
▁stopping	-11951
▁corporations	-11952
▁Switzerland	-11953
iera	-11954
▁loans	-11955
igration	-11956
obi	-11957
aris	-11958
oping	-11959
duces	-11960
▁inquiry	-11961
▁CBS	-11962
▁arrangement	-11963
という	-11964
▁meters	-11965
▁hunt	-11966
▁lowered	-11967
▁Gun	-11968
▁abilities	-11969
Ab	-11970
▁True	-11971
56	-11972
▁Flore	-11973
▁ministry	-11974
▁où	-11975
▁Senior	-11976
▁haz	-11977
▁Barack	-11978
▁Bernie	-11979
ects	-11980
▁Cher	-11981
▁Laura	-11982
▁explosion	-11983
▁Member	-11984
▁stranger	-11985
▁enhance	-11986
▁wishes	-11987
▁dragged	-11988
▁dropping	-11989
▁59	-11990
▁Dragon	-11991
aciones	-11992
▁sophistic	-11993
Te	-11994
mund	-11995
▁Carlos	-11996
▁discount	-11997
▁qualities	-11998
ско	-11999
▁salad	-12000
ве	-12001
▁Kit	-12002
▁nick	-12003
▁poured	-12004
▁professionals	-12005
▁physics	-12006
▁petition	-12007
▁segment	-12008
▁quarters	-12009
▁scrap	-12010
▁artistic	-12011
▁implications	-12012
▁Digital	-12013
▁gesture	-12014
▁improvements	-12015
▁corp	-12016
▁Jun	-12017
▁Rud	-12018
▁Someone	-12019
▁consistently	-12020
lass	-12021
▁Alb	-12022
▁mechanical	-12023
▁civilians	-12024
▁ao	-12025
▁2006.	-12026
vation	-12027
▁BR	-12028
▁183	-12029
▁emails	-12030
▁Mi	-12031
».	-12032
nik	-12033
▁lawmakers	-12034
▁21.	-12035
▁punch	-12036
ème	-12037
▁eyeb	-12038
▁GP	-12039
ocial	-12040
▁mush	-12041
▁transaction	-12042
NC	-12043
▁masc	-12044
▁chronic	-12045
▁Method	-12046
▁oder	-12047
▁Chall	-12048
▁disg	-12049
▁resigned	-12050
▁complaints	-12051
▁usage	-12052
▁trusted	-12053
▁vessels	-12054
rock	-12055
–16	-12056
▁soccer	-12057
▁Ges	-12058
▁bru	-12059
▁Princess	-12060
▁asset	-12061
▁whisper	-12062
▁apple	-12063
▁brave	-12064
▁Neither	-12065
▁ib	-12066
▁Aaron	-12067
▁classified	-12068
Star	-12069
unting	-12070
del	-12071
▁Guy	-12072
oning	-12073
▁Organization	-12074
▁Pin	-12075
▁Tech	-12076
▁designer	-12077
inkle	-12078
▁Legisl	-12079
▁forming	-12080
istical	-12081
▁pants	-12082
▁hire	-12083
▁interven	-12084
fil	-12085
▁CB	-12086
ある	-12087
▁salary	-12088
▁discussing	-12089
▁essence	-12090
itis	-12091
το	-12092
▁Cho	-12093
▁inequ	-12094
tle	-12095
▁errors	-12096
»,	-12097
▁1985	-12098
▁rang	-12099
▁Catherine	-12100
▁delicious	-12101
usc	-12102
▁squeez	-12103
▁transformed	-12104
bye	-12105
▁overs	-12106
▁divisions	-12107
▁variables	-12108
▁lä	-12109
▁GOO	-12110
▁Looking	-12111
▁possibilities	-12112
▁pup	-12113
▁polls	-12114
ambling	-12115
▁purple	-12116
▁boundaries	-12117
▁resolve	-12118
▁Mitchell	-12119
▁tracking	-12120
▁diplomatic	-12121
▁wages	-12122
▁Imperial	-12123
▁predicted	-12124
▁Champ	-12125
▁floating	-12126
▁attending	-12127
▁Pow	-12128
▁todo	-12129
▁Commander	-12130
72	-12131
▁earthqu	-12132
▁prosper	-12133
▁org	-12134
▁Cohen	-12135
arity	-12136
▁vic	-12137
week	-12138
▁Dyn	-12139
▁Phoen	-12140
▁humor	-12141
▁coins	-12142
▁disappointed	-12143
IX	-12144
▁venture	-12145
▁monitoring	-12146
ser	-12147
▁Copyright	-12148
▁improving	-12149
avalry	-12150
▁gains	-12151
▁generous	-12152
▁Mission	-12153
▁2004,	-12154
▁promising	-12155
▁nomination	-12156
ocal	-12157
▁Pod	-12158
▁Pant	-12159
▁WW	-12160
town	-12161
▁acquis	-12162
/3	-12163
UD	-12164
сто	-12165
59	-12166
▁99	-12167
ptions	-12168
▁Helen	-12169
▁tackle	-12170
▁Yah	-12171
▁Gabriel	-12172
▁addresses	-12173
▁babies	-12174
▁charity	-12175
▁fantastic	-12176
rous	-12177
▁cargo	-12178
▁convenient	-12179
▁crowded	-12180
▁satisfaction	-12181
RC	-12182
▁seve	-12183
▁Guardian	-12184
eded	-12185
▁Poll	-12186
▁tissue	-12187
▁choosing	-12188
▁signature	-12189
card	-12190
▁execut	-12191
▁maintaining	-12192
usive	-12193
▁Salt	-12194
chaft	-12195
▁upp	-12196
▁Craig	-12197
▁archae	-12198
▁Crown	-12199
▁actively	-12200
▁industries	-12201
▁Taiwan	-12202
▁Cu	-12203
▁managers	-12204
ères	-12205
▁bei	-12206
▁unclear	-12207
▁screaming	-12208
▁afterwards	-12209
▁investigating	-12210
▁Chron	-12211
▁Too	-12212
▁websites	-12213
itative	-12214
iterranean	-12215
▁exhibition	-12216
▁uncomfortable	-12217
▁inevitable	-12218
ervation	-12219
▁66	-12220
▁Pete	-12221
▁skept	-12222
▁tweeted	-12223
▁pars	-12224
▁consequence	-12225
feld	-12226
keley	-12227
▁Bed	-12228
▁quit	-12229
ussion	-12230
▁companion	-12231
▁1918	-12232
▁mutual	-12233
▁Mes	-12234
▁missile	-12235
▁ridiculous	-12236
estone	-12237
’.	-12238
norm	-12239
▁anxious	-12240
ivan	-12241
▁chairs	-12242
▁plates	-12243
▁seventh	-12244
▁summon	-12245
▁waved	-12246
▁equality	-12247
▁boil	-12248
▁hint	-12249
........	-12250
icts	-12251
▁trials	-12252
▁virtue	-12253
asury	-12254
▁Mack	-12255
▁aber	-12256
opes	-12257
▁glory	-12258
▁cheeks	-12259
▁Ye	-12260
▁climbing	-12261
umed	-12262
▁abol	-12263
▁nuts	-12264
kan	-12265
▁Tog	-12266
▁ISIS	-12267
▁Village	-12268
▁couples	-12269
omething	-12270
▁Tib	-12271
▁genes	-12272
▁Text	-12273
▁thereby	-12274
58	-12275
▁ME	-12276
▁carries	-12277
ча	-12278
ienne	-12279
aned	-12280
rand	-12281
rated	-12282
▁fever	-12283
also	-12284
▁affection	-12285
▁openly	-12286
▁Reuters	-12287
▁broader	-12288
Co	-12289
▁tactics	-12290
00,	-12291
▁trim	-12292
▁Ukrain	-12293
hou	-12294
▁guidance	-12295
▁Ide	-12296
▁lets	-12297
Please	-12298
▁(9	-12299
plex	-12300
▁Trad	-12301
shaped	-12302
imb	-12303
▁dess	-12304
necess	-12305
▁alla	-12306
▁abrupt	-12307
▁circuit	-12308
ów	-12309
Ste	-12310
▁aspir	-12311
▁musicians	-12312
▁quarterback	-12313
Mr	-12314
forced	-12315
semble	-12316
▁intensity	-12317
▁Say	-12318
▁ci	-12319
izard	-12320
▁об	-12321
▁pose	-12322
▁enjoying	-12323
piece	-12324
▁Protest	-12325
▁fluid	-12326
▁tons	-12327
▁unpre	-12328
reement	-12329
▁intrig	-12330
▁counts	-12331
▁roster	-12332
▁monthly	-12333
▁suggestion	-12334
iasm	-12335
▁cultures	-12336
▁Poly	-12337
▁touchdown	-12338
sed	-12339
▁Kay	-12340
▁appearing	-12341
▁Pitts	-12342
▁Convention	-12343
▁opera	-12344
▁metres	-12345
▁console	-12346
ieu	-12347
pot	-12348
▁lav	-12349
▁nest	-12350
jar	-12351
▁Chile	-12352
▁oxygen	-12353
▁placing	-12354
▁warrant	-12355
▁ugly	-12356
▁philosophical	-12357
sch	-12358
pack	-12359
▁belly	-12360
▁overnight	-12361
press	-12362
▁Sche	-12363
▁calc	-12364
▁luxury	-12365
▁Wol	-12366
▁bulk	-12367
▁Resp	-12368
▁naval	-12369
▁capitalism	-12370
▁counterpart	-12371
count	-12372
▁Future	-12373
▁horrible	-12374
▁Mall	-12375
rien	-12376
▁во	-12377
▁pir	-12378
▁invisible	-12379
▁styles	-12380
▁peoples	-12381
omi	-12382
▁fel	-12383
▁Contin	-12384
▁sliced	-12385
▁pig	-12386
loaded	-12387
▁CS	-12388
▁pharm	-12389
▁Aqu	-12390
▁modified	-12391
lia	-12392
▁ling	-12393
▁Pierre	-12394
▁ка	-12395
insula	-12396
▁Hills	-12397
▁dragon	-12398
▁corridor	-12399
▁Kon	-12400
atted	-12401
▁Baron	-12402
▁favourite	-12403
▁genus	-12404
▁developments	-12405
rek	-12406
gage	-12407
▁Cuba	-12408
▁Hend	-12409
election	-12410
▁formerly	-12411
uez	-12412
▁portrait	-12413
▁accomplished	-12414
inst	-12415
▁Nicholas	-12416
▁neuro	-12417
▁secrets	-12418
▁athletes	-12419
▁bearing	-12420
▁societies	-12421
▁envelop	-12422
▁complained	-12423
when	-12424
▁slavery	-12425
▁themes	-12426
▁moist	-12427
▁К	-12428
chief	-12429
Gener	-12430
fund	-12431
umps	-12432
nia	-12433
▁euro	-12434
▁evac	-12435
▁secured	-12436
▁wrist	-12437
▁strain	-12438
▁dressing	-12439
▁relatives	-12440
▁racist	-12441
tainment	-12442
▁Agr	-12443
▁Prior	-12444
▁Stalin	-12445
imir	-12446
▁coronavirus	-12447
ulle	-12448
▁cyber	-12449
▁bund	-12450
▁Emily	-12451
▁faculty	-12452
▁cad	-12453
▁shower	-12454
bast	-12455
▁pine	-12456
▁span	-12457
gender	-12458
▁sixty	-12459
tar	-12460
▁ain	-12461
▁Suddenly	-12462
▁realm	-12463
▁Russians	-12464
▁gig	-12465
▁folded	-12466
▁releases	-12467
▁footballer	-12468
▁tourist	-12469
OG	-12470
▁insult	-12471
▁scattered	-12472
▁warming	-12473
▁clo	-12474
▁cats	-12475
▁Barry	-12476
▁founding	-12477
▁Kir	-12478
▁instruction	-12479
sis	-12480
▁pent	-12481
▁rivers	-12482
▁checks	-12483
▁conviction	-12484
opt	-12485
▁Pil	-12486
borne	-12487
mus	-12488
▁jaw	-12489
▁drops	-12490
▁continuous	-12491
idade	-12492
urred	-12493
▁Cameron	-12494
▁tightly	-12495
iosity	-12496
▁Woman	-12497
▁tin	-12498
▁lasted	-12499
ighs	-12500
illet	-12501
▁Dublin	-12502
▁cum	-12503
▁Ruby	-12504
nan	-12505
▁flights	-12506
▁clever	-12507
▁juris	-12508
▁Gon	-12509
▁homeless	-12510
uru	-12511
▁exclud	-12512
▁patron	-12513
▁corrupt	-12514
▁10-	-12515
▁Marcus	-12516
▁160	-12517
▁Forces	-12518
▁Beck	-12519
▁inhabitants	-12520
▁Fun	-12521
ND	-12522
▁intelligent	-12523
▁tan	-12524
▁sooner	-12525
▁Argentina	-12526
▁defending	-12527
▁drives	-12528
ções	-12529
▁Additionally	-12530
rob	-12531
▁cattle	-12532
▁submitted	-12533
▁tomatoes	-12534
▁buzz	-12535
▁Email	-12536
▁Mediterranean	-12537
"),	-12538
▁Regiment	-12539
хо	-12540
▁forests	-12541
▁Orle	-12542
▁minim	-12543
▁stere	-12544
▁restore	-12545
▁midnight	-12546
▁Nash	-12547
commun	-12548
▁frowned	-12549
▁observe	-12550
actory	-12551
▁hade	-12552
▁imposed	-12553
▁healing	-12554
▁tob	-12555
cling	-12556
▁Standard	-12557
▁witnesses	-12558
▁arbitr	-12559
ribution	-12560
shot	-12561
▁gallery	-12562
же	-12563
mill	-12564
▁Total	-12565
▁eaten	-12566
▁rocket	-12567
flix	-12568
▁aims	-12569
▁swung	-12570
▁politically	-12571
▁Leban	-12572
uta	-12573
▁EP	-12574
▁Soft	-12575
▁bark	-12576
▁thir	-12577
elia	-12578
▁NHL	-12579
aja	-12580
▁barn	-12581
▁accompany	-12582
▁legislative	-12583
ры	-12584
ELL	-12585
▁Emma	-12586
ainted	-12587
▁Leader	-12588
▁Abraham	-12589
▁Chairman	-12590
00.	-12591
▁instances	-12592
▁surprisingly	-12593
ountered	-12594
▁Independent	-12595
▁că	-12596
сти	-12597
▁expense	-12598
▁depos	-12599
▁Frederick	-12600
▁handsome	-12601
").	-12602
▁Ald	-12603
size	-12604
six	-12605
▁painter	-12606
▁propaganda	-12607
▁Politics	-12608
▁Living	-12609
▁Past	-12610
iu	-12611
non	-12612
▁guidelines	-12613
amic	-12614
▁22.	-12615
▁Tol	-12616
▁Cart	-12617
ién	-12618
▁tragedy	-12619
▁encountered	-12620
.[	-12621
▁gam	-12622
▁shaped	-12623
▁(7	-12624
idas	-12625
▁Heat	-12626
▁Bobby	-12627
▁fiscal	-12628
▁electoral	-12629
▁ت	-12630
owered	-12631
▁†	-12632
neath	-12633
▁removal	-12634
▁Norman	-12635
▁integration	-12636
▁Evans	-12637
▁exclusively	-12638
▁при	-12639
▁Kle	-12640
▁aboard	-12641
▁moderate	-12642
▁Record	-12643
▁absurd	-12644
▁”	-12645
▁trap	-12646
osystem	-12647
▁Junior	-12648
▁Puerto	-12649
▁amongst	-12650
▁Nixon	-12651
▁artic	-12652
▁overseas	-12653
▁weig	-12654
▁spray	-12655
▁Online	-12656
▁municipality	-12657
NS	-12658
▁brutal	-12659
▁hospitals	-12660
4%	-12661
▁awesome	-12662
▁Almost	-12663
▁stirring	-12664
▁outrage	-12665
▁pursuit	-12666
erie	-12667
▁Austria	-12668
▁streaming	-12669
lett	-12670
unks	-12671
▁Guide	-12672
▁−	-12673
iaz	-12674
▁unconscious	-12675
3;	-12676
ayed	-12677
▁shed	-12678
▁cotton	-12679
▁advised	-12680
▁hen	-12681
▁backs	-12682
▁poster	-12683
izations	-12684
guard	-12685
▁1/2	-12686
▁peu	-12687
▁fancy	-12688
iors	-12689
▁stair	-12690
▁mothers	-12691
▁Denver	-12692
▁nearest	-12693
▁Gill	-12694
▁Fitz	-12695
▁Imag	-12696
▁Upon	-12697
▁tens	-12698
orient	-12699
▁stack	-12700
▁servant	-12701
ollar	-12702
fulness	-12703
▁85	-12704
▁robot	-12705
UC	-12706
▁challenged	-12707
▁worthy	-12708
▁removing	-12709
▁promoting	-12710
▁él	-12711
▁hurried	-12712
▁déc	-12713
▁escal	-12714
▁vegetable	-12715
▁Pad	-12716
▁gasp	-12717
▁Earlier	-12718
▁Emb	-12719
▁Crow	-12720
▁scra	-12721
▁ο	-12722
▁unity	-12723
▁Lucas	-12724
▁Nathan	-12725
fly	-12726
▁Authority	-12727
▁snap	-12728
▁chips	-12729
▁washed	-12730
▁Township	-12731
▁dare	-12732
▁beloved	-12733
▁logical	-12734
▁duration	-12735
▁agriculture	-12736
▁infection	-12737
2;	-12738
pay	-12739
Script	-12740
▁Orleans	-12741
▁trapped	-12742
akt	-12743
▁Winn	-12744
▁dull	-12745
▁Crime	-12746
▁Jamie	-12747
▁organisation	-12748
▁Kath	-12749
▁median	-12750
▁experimental	-12751
▁noch	-12752
では	-12753
▁Norway	-12754
fi	-12755
▁Od	-12756
▁Name	-12757
▁alike	-12758
▁ἐ	-12759
abad	-12760
▁Hum	-12761
▁eld	-12762
▁Yeah	-12763
▁competed	-12764
▁Publishing	-12765
js	-12766
7%	-12767
▁Esp	-12768
▁collapsed	-12769
▁caps	-12770
▁dell	-12771
▁corners	-12772
▁cord	-12773
▁Editor	-12774
▁organis	-12775
▁fict	-12776
▁Freud	-12777
quet	-12778
▁dont	-12779
ylum	-12780
▁Fed	-12781
▁1987	-12782
▁Hindu	-12783
▁Nag	-12784
▁José	-12785
▁rows	-12786
▁correctly	-12787
1:	-12788
story	-12789
uddy	-12790
named	-12791
▁Hob	-12792
▁Leo	-12793
uction	-12794
▁overl	-12795
▁prol	-12796
▁2005.	-12797
▁slide	-12798
▁ank	-12799
▁Bert	-12800
▁YOU	-12801
▁Carm	-12802
▁deliberately	-12803
inos	-12804
▁scrut	-12805
▁notably	-12806
▁Stir	-12807
forward	-12808
hai	-12809
▁Danny	-12810
▁guer	-12811
▁chill	-12812
▁stew	-12813
▁Twenty	-12814
ITH	-12815
▁spreading	-12816
uded	-12817
▁Number	-12818
▁charts	-12819
▁Due	-12820
▁partially	-12821
BN	-12822
▁\\	-12823
bery	-12824
elta	-12825
▁republic	-12826
▁presidency	-12827
iko	-12828
▁capabilities	-12829
▁Members	-12830
▁scratch	-12831
▁unions	-12832
▁divorce	-12833
▁functional	-12834
erg	-12835
omon	-12836
▁Sor	-12837
▁Athlet	-12838
▁acceptable	-12839
▁1979	-12840
▁horizon	-12841
anka	-12842
aments	-12843
phones	-12844
▁superv	-12845
attering	-12846
cap	-12847
mare	-12848
▁Oil	-12849
▁senator	-12850
▁Lev	-12851
ospel	-12852
▁grows	-12853
▁Remove	-12854
ку	-12855
▁steal	-12856
uras	-12857
▁shapes	-12858
▁gardens	-12859
llen	-12860
ipher	-12861
▁Reading	-12862
orer	-12863
▁token	-12864
▁gaming	-12865
▁bust	-12866
▁fist	-12867
▁grief	-12868
▁banking	-12869
ivia	-12870
▁177	-12871
▁meaningful	-12872
anton	-12873
Sat	-12874
ulu	-12875
▁honour	-12876
GLE	-12877
uen	-12878
▁Entertainment	-12879
▁doorway	-12880
▁2-	-12881
▁meets	-12882
▁Century	-12883
usa	-12884
onda	-12885
▁compat	-12886
isme	-12887
▁whites	-12888
▁г	-12889
idy	-12890
▁horm	-12891
arling	-12892
irable	-12893
▁Murphy	-12894
10,	-12895
▁Progress	-12896
▁arriving	-12897
▁automatic	-12898
1/	-12899
▁~	-12900
rov	-12901
▁nå	-12902
cott	-12903
▁Hab	-12904
▁parad	-12905
ibli	-12906
▁sentenced	-12907
▁78	-12908
▁ger	-12909
▁economics	-12910
▁CC	-12911
▁entity	-12912
▁wird	-12913
▁scarce	-12914
▁inherent	-12915
▁practically	-12916
▁PD	-12917
▁dug	-12918
▁touching	-12919
▁equipped	-12920
▁Nord	-12921
aiting	-12922
▁evolved	-12923
’,	-12924
amo	-12925
▁Mann	-12926
▁minimal	-12927
_,	-12928
▁habits	-12929
▁pued	-12930
▁consensus	-12931
</	-12932
▁Clay	-12933
▁planes	-12934
▁praised	-12935
▁reforms	-12936
▁residential	-12937
uccess	-12938
▁parish	-12939
се	-12940
▁68	-12941
▁ecosystem	-12942
▁investigations	-12943
▁Player	-12944
▁cleaning	-12945
▁acceptance	-12946
▁bears	-12947
▁integrated	-12948
▁expanding	-12949
▁bonus	-12950
bean	-12951
itol	-12952
▁tat	-12953
▁sustained	-12954
▁provincial	-12955
▁Sep	-12956
▁bronze	-12957
▁Room	-12958
▁coordin	-12959
▁transmission	-12960
ahu	-12961
sal	-12962
BM	-12963
RI	-12964
▁DVD	-12965
▁Shel	-12966
▁Comb	-12967
▁damp	-12968
▁dispos	-12969
▁monument	-12970
▁Louisiana	-12971
▁drain	-12972
▁counted	-12973
OOK	-12974
▁Grey	-12975
▁Metro	-12976
▁verse	-12977
▁enabled	-12978
▁origins	-12979
embers	-12980
▁transc	-12981
▁protocol	-12982
ulus	-12983
▁cricket	-12984
ilo	-12985
rendum	-12986
pin	-12987
▁Dod	-12988
▁cognitive	-12989
▁underm	-12990
▁Pick	-12991
▁avoided	-12992
▁encouraging	-12993
ku	-12994
▁loving	-12995
▁Loading	-12996
▁shorter	-12997
▁Ral	-12998
▁1984	-12999
▁tribes	-13000
▁stating	-13001
▁Alaska	-13002
▁twentieth	-13003
sur	-13004
version	-13005
▁Gov	-13006
▁Hud	-13007
iated	-13008
▁blew	-13009
▁quote	-13010
▁volunt	-13011
▁Montreal	-13012
▁prisoner	-13013
▁premier	-13014
▁ideology	-13015
▁missions	-13016
▁prompted	-13017
▁mate	-13018
▁distinguished	-13019
чи	-13020
▁être	-13021
group	-13022
▁Fant	-13023
▁Talk	-13024
▁epic	-13025
▁Keith	-13026
▁feather	-13027
▁Fac	-13028
▁psychology	-13029
▁Sid	-13030
▁dense	-13031
▁witnessed	-13032
rus	-13033
▁displays	-13034
>.	-13035
pelling	-13036
acies	-13037
fold	-13038
▁Neil	-13039
▁Ul	-13040
▁Kirk	-13041
▁outs	-13042
▁supplement	-13043
▁23.	-13044
▁Portugal	-13045
▁Study	-13046
▁probability	-13047
▁taxi	-13048
▁Stein	-13049
▁Official	-13050
rics	-13051
▁verb	-13052
formed	-13053
▁SM	-13054
icating	-13055
ρα	-13056
▁woke	-13057
▁besides	-13058
▁tourists	-13059
▁Terry	-13060
▁magical	-13061
▁Race	-13062
▁Colomb	-13063
▁Luther	-13064
▁Admiral	-13065
▁tendency	-13066
▁complexity	-13067
anor	-13068
▁Sri	-13069
▁receiver	-13070
▁Cob	-13071
asha	-13072
▁suck	-13073
▁Quebec	-13074
▁bitcoin	-13075
▁forecast	-13076
AA	-13077
ORD	-13078
Have	-13079
llers	-13080
▁formally	-13081
▁$$	-13082
▁interrupted	-13083
user	-13084
▁vir	-13085
▁liberty	-13086
▁deployed	-13087
▁convey	-13088
▁defended	-13089
________________	-13090
voir	-13091
▁bonds	-13092
▁Churchill	-13093
EMENT	-13094
▁Hebrew	-13095
▁blanket	-13096
wealth	-13097
▁lighting	-13098
▁NS	-13099
▁Edition	-13100
hum	-13101
pit	-13102
minded	-13103
▁Uncle	-13104
▁breathe	-13105
че	-13106
Christ	-13107
▁API	-13108
gels	-13109
TP	-13110
ски	-13111
▁consisted	-13112
▁maid	-13113
▁engineers	-13114
▁homosexual	-13115
▁Perry	-13116
▁forbid	-13117
▁stare	-13118
▁enthusiasm	-13119
▁Regional	-13120
ashi	-13121
▁stance	-13122
▁revealing	-13123
!)	-13124
▁Horn	-13125
si	-13126
бо	-13127
▁bore	-13128
▁Chamber	-13129
▁ا	-13130
avor	-13131
▁Medal	-13132
▁hostile	-13133
▁electron	-13134
▁ESP	-13135
▁spy	-13136
▁1968	-13137
▁mont	-13138
▁succ	-13139
ête	-13140
▁coaches	-13141
▁cod	-13142
▁bombs	-13143
▁winners	-13144
cre	-13145
polit	-13146
▁timing	-13147
last	-13148
news	-13149
▁deemed	-13150
▁eliminate	-13151
érie	-13152
▁reactions	-13153
RL	-13154
▁Watson	-13155
▁funded	-13156
▁absent	-13157
▁premium	-13158
▁2003,	-13159
▁delicate	-13160
▁integrity	-13161
▁caution	-13162
▁prés	-13163
▁exhausted	-13164
▁Gru	-13165
▁silk	-13166
▁tribe	-13167
▁stub	-13168
▁uncon	-13169
▁tobacco	-13170
rice	-13171
▁chuck	-13172
▁Pract	-13173
▁custody	-13174
▁similarly	-13175
▁embed	-13176
▁sanct	-13177
▁certific	-13178
▁racism	-13179
▁examination	-13180
▁zur	-13181
▁Hunt	-13182
inceton	-13183
▁encore	-13184
▁leaning	-13185
▁couch	-13186
▁nominated	-13187
▁800	-13188
▁Sig	-13189
▁cer	-13190
iblical	-13191
▁vertical	-13192
▁compound	-13193
uese	-13194
▁1976	-13195
▁flames	-13196
▁investments	-13197
ulent	-13198
▁terminal	-13199
▁consecutive	-13200
antine	-13201
▁deport	-13202
▁incomp	-13203
▁Phoenix	-13204
▁artillery	-13205
▁separation	-13206
▁jazz	-13207
▁grinned	-13208
ucc	-13209
▁sar	-13210
elect	-13211
▁destro	-13212
▁Certain	-13213
▁Netflix	-13214
▁manual	-13215
bach	-13216
▁Tommy	-13217
▁worlds	-13218
base	-13219
▁gates	-13220
▁25.	-13221
▁cops	-13222
ailable	-13223
▁outstanding	-13224
IVE	-13225
gus	-13226
▁Elle	-13227
▁situated	-13228
▁Venezuela	-13229
senal	-13230
▁lifestyle	-13231
2-	-13232
▁Н	-13233
▁rings	-13234
▁Yang	-13235
▁shipping	-13236
▁identification	-13237
▁το	-13238
▁bases	-13239
orde	-13240
▁einen	-13241
▁corresponding	-13242
ück	-13243
rod	-13244
Book	-13245
▁tooth	-13246
▁lyrics	-13247
▁dent	-13248
▁pipe	-13249
▁Drive	-13250
▁proposals	-13251
▁columns	-13252
▁Muham	-13253
▁treaty	-13254
kar	-13255
▁dealt	-13256
▁migrants	-13257
▁Kaz	-13258
▁HD	-13259
aban	-13260
▁dated	-13261
▁directors	-13262
▁Interest	-13263
▁muttered	-13264
▁dock	-13265
▁senses	-13266
▁twin	-13267
▁composer	-13268
▁unemployment	-13269
▁determination	-13270
Figure	-13271
▁pregnancy	-13272
After	-13273
▁Stu	-13274
▁Eddie	-13275
▁chapters	-13276
▁ambassador	-13277
QL	-13278
▁Storm	-13279
▁congressional	-13280
stop	-13281
▁Frances	-13282
▁tant	-13283
▁heroes	-13284
▁transit	-13285
▁attributed	-13286
IO	-13287
rate	-13288
▁characteristic	-13289
▁flows	-13290
▁Vik	-13291
▁arrangements	-13292
▁peas	-13293
▁predec	-13294
▁Similarly	-13295
▁providers	-13296
▁Lisa	-13297
▁sor	-13298
▁Shah	-13299
▁volumes	-13300
▁ministers	-13301
ttes	-13302
▁elaborate	-13303
ICE	-13304
▁EX	-13305
▁Syl	-13306
▁Armen	-13307
itten	-13308
—.	-13309
▁peer	-13310
▁quart	-13311
▁relaxed	-13312
gh	-13313
value	-13314
▁wheels	-13315
hole	-13316
▁Rosen	-13317
▁inflation	-13318
▁stroke	-13319
▁investigators	-13320
pic	-13321
▁Ara	-13322
▁95	-13323
▁emerge	-13324
istically	-13325
lamm	-13326
▁wounds	-13327
▁uncertainty	-13328
▁1978	-13329
▁bacteria	-13330
▁sharply	-13331
▁frustration	-13332
arna	-13333
▁bail	-13334
▁illeg	-13335
borough	-13336
▁bureaucr	-13337
mir	-13338
ietz	-13339
▁enterprise	-13340
▁tremendous	-13341
OB	-13342
UE	-13343
▁Turner	-13344
▁conclus	-13345
▁Peng	-13346
▁2004.	-13347
hn	-13348
JP	-13349
▁Linux	-13350
▁Krist	-13351
▁rhythm	-13352
bey	-13353
▁immune	-13354
▁wherever	-13355
τε	-13356
05	-13357
▁Must	-13358
▁font	-13359
▁buses	-13360
▁Orange	-13361
hor	-13362
▁upstairs	-13363
anking	-13364
lihood	-13365
▁Nevada	-13366
ån	-13367
▁fatal	-13368
▁SER	-13369
oux	-13370
▁Pittsburgh	-13371
ια	-13372
dep	-13373
ovo	-13374
▁24.	-13375
armed	-13376
▁kings	-13377
▁secular	-13378
onte	-13379
▁ell	-13380
▁Historic	-13381
eler	-13382
▁dir	-13383
Right	-13384
▁tours	-13385
▁genius	-13386
mun	-13387
sta	-13388
▁expedition	-13389
▁maj	-13390
▁spokesperson	-13391
▁infer	-13392
▁NATO	-13393
▁compassion	-13394
▁whisk	-13395
▁freely	-13396
ACK	-13397
▁Ivan	-13398
aneous	-13399
ungle	-13400
▁barg	-13401
far	-13402
▁urge	-13403
▁dramatically	-13404
úblic	-13405
▁****	-13406
▁Nobody	-13407
▁ethical	-13408
▁loyalty	-13409
ulum	-13410
heat	-13411
▁garage	-13412
▁speakers	-13413
▁Brand	-13414
▁tremb	-13415
▁coastal	-13416
▁Oscar	-13417
▁Fem	-13418
▁Warner	-13419
ensively	-13420
▁recruit	-13421
▁elderly	-13422
▁criteria	-13423
▁starring	-13424
▁VI	-13425
▁pork	-13426
▁hatred	-13427
▁discourse	-13428
ın	-13429
asket	-13430
▁Gate	-13431
ylon	-13432
▁rhetoric	-13433
wal	-13434
▁Berkeley	-13435
▁achievement	-13436
▁Ax	-13437
▁dispar	-13438
▁și	-13439
▁Gran	-13440
▁belongs	-13441
▁retain	-13442
よう	-13443
asa	-13444
▁eligible	-13445
▁Abs	-13446
▁Studio	-13447
▁Todd	-13448
▁lingu	-13449
▁requirement	-13450
▁з	-13451
▁propri	-13452
▁paths	-13453
▁Deputy	-13454
▁Champions	-13455
ologically	-13456
azines	-13457
▁hotels	-13458
▁underneath	-13459
celona	-13460
▁Harvey	-13461
▁та	-13462
▁feeding	-13463
...'	-13464
rones	-13465
▁summary	-13466
–15	-13467
▁boards	-13468
▁contempl	-13469
▁overhead	-13470
eight	-13471
iente	-13472
▁resolved	-13473
Wor	-13474
▁ski	-13475
green	-13476
▁shouting	-13477
▁physician	-13478
▁Consider	-13479
open	-13480
pher	-13481
▁Cer	-13482
▁Iraqi	-13483
▁einem	-13484
▁elegant	-13485
▁Behind	-13486
▁crushed	-13487
▁handled	-13488
▁69	-13489
uming	-13490
▁Ukrainian	-13491
aca	-13492
ardon	-13493
▁PL	-13494
▁outdoor	-13495
▁veterans	-13496
▁Julia	-13497
▁1975	-13498
lit	-13499
50,000	-13500
cticut	-13501
▁awake	-13502
▁Madison	-13503
▁Confeder	-13504
▁Rat	-13505
▁sheer	-13506
▁1919	-13507
▁Heaven	-13508
▁tossed	-13509
▁observations	-13510
ulse	-13511
▁Cloud	-13512
▁fract	-13513
▁restra	-13514
▁psychiat	-13515
ierra	-13516
▁tennis	-13517
▁1.5	-13518
▁Financial	-13519
uki	-13520
may	-13521
▁Rs	-13522
▁spoon	-13523
ocratic	-13524
urities	-13525
▁volunteers	-13526
▁Reagan	-13527
▁Ton	-13528
▁hed	-13529
▁obl	-13530
▁Lock	-13531
▁wrap	-13532
▁descript	-13533
mile	-13534
▁Mix	-13535
▁acres	-13536
73	-13537
ду	-13538
uest	-13539
▁Late	-13540
▁Wallace	-13541
-12	-13542
▁shy	-13543
▁explicitly	-13544
▁indigenous	-13545
handed	-13546
▁tales	-13547
TO	-13548
▁**2	-13549
▁Sweet	-13550
sung	-13551
▁nun	-13552
▁operates	-13553
▁conflicts	-13554
screen	-13555
▁publish	-13556
▁chim	-13557
Journal	-13558
▁Language	-13559
▁relieved	-13560
▁parks	-13561
▁Advent	-13562
▁Television	-13563
▁Bald	-13564
ulsion	-13565
endent	-13566
/11	-13567
▁intu	-13568
▁respective	-13569
▁Engineering	-13570
wy	-13571
▁Exam	-13572
▁Begin	-13573
dig	-13574
map	-13575
olt	-13576
emit	-13577
▁beds	-13578
▁invented	-13579
▁antib	-13580
▁recipes	-13581
▁struggles	-13582
fers	-13583
▁Money	-13584
URE	-13585
▁probe	-13586
arently	-13587
▁Rav	-13588
▁wir	-13589
▁crops	-13590
▁Biography	-13591
▁requiring	-13592
▁interactions	-13593
▁Peak	-13594
dra	-13595
CAA	-13596
▁fruits	-13597
▁highlights	-13598
▁Harrison	-13599
▁unnecess	-13600
▁sophisticated	-13601
▁pond	-13602
▁yeah	-13603
▁Pi	-13604
▁unfair	-13605
▁preserved	-13606
azi	-13607
▁Ko	-13608
▁math	-13609
▁thresh	-13610
▁carpet	-13611
disc	-13612
▁migration	-13613
party	-13614
▁Ronald	-13615
▁mixing	-13616
▁restricted	-13617
pling	-13618
▁partial	-13619
▁screamed	-13620
▁USS	-13621
▁Kurd	-13622
▁shade	-13623
▁Movement	-13624
▁necessity	-13625
▁compromise	-13626
%,	-13627
▁surge	-13628
▁Article	-13629
cedented	-13630
▁pare	-13631
▁pollution	-13632
▁GR	-13633
▁jurisd	-13634
iph	-13635
▁interrog	-13636
Act	-13637
▁Mov	-13638
▁lapt	-13639
▁Survey	-13640
▁Princip	-13641
▁renamed	-13642
ня	-13643
▁utility	-13644
Tell	-13645
▁illum	-13646
▁picks	-13647
▁Marvel	-13648
struction	-13649
▁midst	-13650
▁ambit	-13651
▁hast	-13652
▁hood	-13653
▁savings	-13654
▁conversion	-13655
▁ginger	-13656
▁cryptocurrency	-13657
▁humili	-13658
▁Pir	-13659
▁turb	-13660
▁possessed	-13661
▁Alt	-13662
▁frightened	-13663
bone	-13664
▁brid	-13665
▁celebration	-13666
▁fog	-13667
▁barrier	-13668
airy	-13669
oire	-13670
▁Stanford	-13671
▁Kyle	-13672
▁Moses	-13673
▁chains	-13674
▁revenge	-13675
▁Shang	-13676
▁drums	-13677
▁halfway	-13678
ailand	-13679
▁algorithm	-13680
aque	-13681
▁Kil	-13682
▁expenses	-13683
▁Cry	-13684
▁vom	-13685
▁tomb	-13686
▁2001,	-13687
▁Advert	-13688
▁COM	-13689
▁jar	-13690
▁grie	-13691
erable	-13692
span	-13693
–12	-13694
▁Ru	-13695
▁GOOGLE	-13696
▁Region	-13697
▁calculated	-13698
▁Blake	-13699
tor	-13700
ician	-13701
▁spectrum	-13702
▁commissioned	-13703
▁XX	-13704
▁referendum	-13705
▁bour	-13706
▁Agric	-13707
▁engaging	-13708
▁privilege	-13709
▁heels	-13710
berries	-13711
▁module	-13712
BO	-13713
▁emperor	-13714
▁beast	-13715
▁Magn	-13716
▁BL	-13717
adox	-13718
arte	-13719
▁clip	-13720
▁cared	-13721
▁ballot	-13722
▁crowds	-13723
▁scholar	-13724
alis	-13725
▁Europ	-13726
▁Indonesia	-13727
▁interviewed	-13728
äm	-13729
▁mig	-13730
▁Bour	-13731
▁Sony	-13732
▁completion	-13733
anas	-13734
▁Mason	-13735
AK	-13736
▁medic	-13737
▁pockets	-13738
▁backward	-13739
▁adjacent	-13740
▁doctrine	-13741
▁advocates	-13742
▁Kel	-13743
arson	-13744
▁Coal	-13745
▁caut	-13746
rencies	-13747
▁Connecticut	-13748
.]	-13749
▁sob	-13750
▁toxic	-13751
▁singles	-13752
▁reflects	-13753
▁Mong	-13754
▁brands	-13755
igu	-13756
▁tropical	-13757
alties	-13758
▁texture	-13759
▁coaching	-13760
▁sentences	-13761
▁commanded	-13762
▁substitute	-13763
▁demol	-13764
▁civilization	-13765
-15	-13766
ALL	-13767
▁Speaking	-13768
▁Making	-13769
▁electrical	-13770
▁Altern	-13771
▁Dakota	-13772
▁compensation	-13773
▁Athens	-13774
▁infantry	-13775
▁бы	-13776
▁600	-13777
onial	-13778
▁importantly	-13779
▁suspicion	-13780
aky	-13781
arde	-13782
uffed	-13783
▁Morning	-13784
kov	-13785
▁coconut	-13786
▁accepting	-13787
▁replacing	-13788
▁Collection	-13789
▁kon	-13790
ighting	-13791
▁advocate	-13792
▁silly	-13793
▁traded	-13794
isy	-13795
▁suppl	-13796
62	-13797
ductions	-13798
▁dischar	-13799
▁fame	-13800
▁wolf	-13801
headed	-13802
ità	-13803
▁Operation	-13804
ár	-13805
▁Anti	-13806
▁Muhammad	-13807
▁Toy	-13808
▁venue	-13809
▁finely	-13810
▁lid	-13811
▁structural	-13812
▁Nad	-13813
stage	-13814
pose	-13815
▁Bak	-13816
▁Barr	-13817
▁seeks	-13818
▁marine	-13819
▁longest	-13820
▁Relations	-13821
▁Ralph	-13822
▁Steel	-13823
▁nominee	-13824
74	-13825
▁robust	-13826
▁10,000	-13827
▁fossil	-13828
▁respected	-13829
▁vez	-13830
cz	-13831
▁·	-13832
▁vest	-13833
▁eleph	-13834
aient	-13835
▁Brothers	-13836
▁blend	-13837
▁Working	-13838
▁utterly	-13839
Sec	-13840
awed	-13841
▁commented	-13842
▁boyfriend	-13843
▁trends	-13844
▁configuration	-13845
▁Catal	-13846
▁Applic	-13847
othe	-13848
matic	-13849
chair	-13850
df	-13851
lov	-13852
▁ED	-13853
▁Chelsea	-13854
▁VR	-13855
▁autumn	-13856
▁Soul	-13857
▁dorm	-13858
▁2002,	-13859
▁faded	-13860
▁invitation	-13861
▁pairs	-13862
▁repr	-13863
▁Belgium	-13864
▁switched	-13865
alid	-13866
▁operational	-13867
▁BM	-13868
▁clut	-13869
▁treasure	-13870
bul	-13871
▁ranging	-13872
▁heal	-13873
▁minist	-13874
▁Manager	-13875
▁iP	-13876
▁Dest	-13877
▁incorporated	-13878
▁lens	-13879
▁sensation	-13880
▁(15	-13881
▁Eug	-13882
▁Syn	-13883
▁rook	-13884
▁violation	-13885
▁là	-13886
▁comed	-13887
▁flame	-13888
▁musician	-13889
▁anonymous	-13890
▁globe	-13891
▁divide	-13892
▁environ	-13893
▁Give	-13894
▁Carib	-13895
▁wiped	-13896
▁Tak	-13897
▁orbit	-13898
▁Norweg	-13899
▁pré	-13900
▁Р	-13901
▁Got	-13902
▁Related	-13903
▁Protection	-13904
▁это	-13905
▁Shar	-13906
▁Chand	-13907
▁Isaac	-13908
▁width	-13909
▁Private	-13910
aha	-13911
comed	-13912
resses	-13913
2:	-13914
▁WAS	-13915
▁gau	-13916
▁Against	-13917
▁delayed	-13918
▁Lower	-13919
▁carved	-13920
▁terrorists	-13921
▁88	-13922
▁Jar	-13923
▁Nep	-13924
▁executives	-13925
▁indicating	-13926
▁Cad	-13927
▁planted	-13928
▁outbreak	-13929
▁Barcelona	-13930
▁foi	-13931
https	-13932
▁cort	-13933
▁bored	-13934
▁incon	-13935
▁temps	-13936
acia	-13937
oner	-13938
▁Register	-13939
▁expressions	-13940
ARD	-13941
▁cott	-13942
▁2003.	-13943
Eng	-13944
▁targeting	-13945
▁1945	-13946
▁mamm	-13947
ussian	-13948
▁Production	-13949
6).	-13950
▁Bird	-13951
▁noon	-13952
▁bombing	-13953
▁priests	-13954
▁pretend	-13955
▁concentrated	-13956
udge	-13957
▁Tab	-13958
▁recommendations	-13959
ajo	-13960
lag	-13961
▁tube	-13962
itably	-13963
▁devil	-13964
iration	-13965
eme	-13966
▁Boe	-13967
venty	-13968
▁Based	-13969
▁drank	-13970
▁Associated	-13971
▁suspicious	-13972
▁τη	-13973
igne	-13974
▁Tru	-13975
▁ampl	-13976
▁submit	-13977
▁mobil	-13978
▁Wang	-13979
▁accent	-13980
▁Getting	-13981
▁retained	-13982
seen	-13983
▁1969	-13984
▁solely	-13985
▁Julian	-13986
▁seal	-13987
▁carrier	-13988
▁Joan	-13989
▁unders	-13990
▁recept	-13991
▁accuracy	-13992
▁1000	-13993
▁disse	-13994
urbed	-13995
▁SA	-13996
▁intentions	-13997
▁provisions	-13998
▁sunlight	-13999
▁assumption	-14000
▁182	-14001
rah	-14002
▁tous	-14003
▁Yemen	-14004
▁Sebast	-14005
llor	-14006
▁Lost	-14007
zie	-14008
▁nas	-14009
▁adoption	-14010
▁radiation	-14011
olving	-14012
▁5:	-14013
words	-14014
▁useless	-14015
▁healthcare	-14016
▁Om	-14017
rifying	-14018
▁Heritage	-14019
agraph	-14020
▁Hampshire	-14021
▁fascinating	-14022
▁chip	-14023
▁intimate	-14024
▁Fisher	-14025
▁filter	-14026
▁adapted	-14027
▁ethics	-14028
▁М	-14029
▁forgot	-14030
▁legally	-14031
▁Youth	-14032
▁bias	-14033
▁ly	-14034
CS	-14035
eros	-14036
▁Deb	-14037
occup	-14038
▁regulatory	-14039
orie	-14040
▁onions	-14041
▁connecting	-14042
Gu	-14043
▁Aus	-14044
ontal	-14045
appropri	-14046
ampa	-14047
▁Motor	-14048
▁focuses	-14049
▁magazines	-14050
▁Hawaii	-14051
▁Newton	-14052
▁equation	-14053
▁Romney	-14054
ativ	-14055
▁Lion	-14056
▁Quick	-14057
▁Chance	-14058
▁Johann	-14059
▁void	-14060
▁Architect	-14061
▁questioning	-14062
▁hind	-14063
▁writings	-14064
▁130	-14065
▁Math	-14066
▁quad	-14067
▁blast	-14068
▁Travel	-14069
▁Broadway	-14070
asser	-14071
▁proc	-14072
▁mouse	-14073
▁intimid	-14074
▁affordable	-14075
▁Hugh	-14076
▁Warri	-14077
▁warmth	-14078
▁credits	-14079
▁expertise	-14080
▁meditation	-14081
▁parameters	-14082
▁202	-14083
▁renov	-14084
General	-14085
▁manufacturers	-14086
bin	-14087
▁Spencer	-14088
▁eighteen	-14089
▁editorial	-14090
IES	-14091
istas	-14092
▁chron	-14093
abul	-14094
▁scent	-14095
▁inex	-14096
▁warfare	-14097
▁outcomes	-14098
▁Haz	-14099
▁brig	-14100
▁prevented	-14101
beat	-14102
▁impat	-14103
vernment	-14104
PL	-14105
▁77	-14106
▁calendar	-14107
▁Sic	-14108
▁correl	-14109
▁commands	-14110
▁yelled	-14111
▁Made	-14112
▁suite	-14113
▁Theory	-14114
4;	-14115
▁Days	-14116
▁Edin	-14117
▁variation	-14118
TIS	-14119
etti	-14120
names	-14121
▁fork	-14122
▁acquire	-14123
▁Gay	-14124
▁gravity	-14125
▁publications	-14126
▁Representatives	-14127
▁believing	-14128
urned	-14129
▁Fu	-14130
▁Slo	-14131
▁unst	-14132
cery	-14133
▁desperately	-14134
▁justify	-14135
▁vanilla	-14136
▁Shaw	-14137
▁Historical	-14138
▁q	-14139
ppe	-14140
ibles	-14141
▁crypto	-14142
▁Apoll	-14143
▁patience	-14144
ρο	-14145
▁Sau	-14146
▁fib	-14147
because	-14148
▁earning	-14149
onge	-14150
▁Need	-14151
▁rubber	-14152
▁blamed	-14153
▁particles	-14154
▁guided	-14155
▁portfol	-14156
▁conservation	-14157
▁pecul	-14158
▁immun	-14159
▁Abu	-14160
▁submar	-14161
▁1983	-14162
08	-14163
▁dumb	-14164
arents	-14165
▁Holmes	-14166
iop	-14167
▁110	-14168
image	-14169
▁shallow	-14170
idays	-14171
▁Campaign	-14172
▁Verm	-14173
▁Truth	-14174
▁infant	-14175
▁survivors	-14176
eze	-14177
iox	-14178
heit	-14179
▁Rice	-14180
▁interpre	-14181
tem	-14182
▁Pun	-14183
rea	-14184
▁cuando	-14185
▁operators	-14186
qual	-14187
▁Vincent	-14188
▁characterized	-14189
▁momentum	-14190
▁condemned	-14191
▁slice	-14192
▁sixteen	-14193
▁surrender	-14194
▁Kap	-14195
▁Portuguese	-14196
▁upgr	-14197
▁attitudes	-14198
▁Cand	-14199
▁Sheriff	-14200
▁Thailand	-14201
га	-14202
UST	-14203
▁audiences	-14204
PG	-14205
▁76	-14206
▁Girls	-14207
▁despair	-14208
▁sono	-14209
▁Victorian	-14210
▁surviving	-14211
▁lou	-14212
chron	-14213
▁Fish	-14214
▁breasts	-14215
NE	-14216
▁bil	-14217
▁Brazilian	-14218
▁Karen	-14219
▁nie	-14220
▁Together	-14221
▁seated	-14222
▁Carr	-14223
▁memorial	-14224
wid	-14225
)**	-14226
▁Gand	-14227
▁citing	-14228
▁bankrupt	-14229
▁Burg	-14230
▁’	-14231
Rep	-14232
ktop	-14233
▁luc	-14234
▁Bond	-14235
▁nerve	-14236
▁purely	-14237
::	-14238
▁productive	-14239
▁Introduction	-14240
vie	-14241
Sm	-14242
cribed	-14243
▁fails	-14244
▁Richmond	-14245
▁gentleman	-14246
iker	-14247
▁sod	-14248
▁establishing	-14249
Hz	-14250
unned	-14251
▁Honor	-14252
▁aggreg	-14253
▁Throughout	-14254
▁conscience	-14255
▁BY	-14256
▁Kos	-14257
▁Tesla	-14258
▁lod	-14259
▁commod	-14260
▁epid	-14261
▁halt	-14262
▁exagger	-14263
wei	-14264
▁Kra	-14265
▁collecting	-14266
▁unprecedented	-14267
▁unde	-14268
▁tends	-14269
▁vinegar	-14270
▁Kan	-14271
alg	-14272
▁HE	-14273
▁codes	-14274
▁Kor	-14275
▁intens	-14276
▁IM	-14277
▁wo	-14278
▁şi	-14279
▁Meg	-14280
etition	-14281
▁72	-14282
ifully	-14283
▁Leonard	-14284
▁2000.	-14285
cled	-14286
▁lamp	-14287
▁Smart	-14288
ietzsche	-14289
▁>>	-14290
▁175	-14291
▁rebels	-14292
▁foolish	-14293
▁ambitious	-14294
▁exploring	-14295
stock	-14296
▁serial	-14297
▁locals	-14298
▁applies	-14299
▁Gaza	-14300
▁Rena	-14301
▁linear	-14302
pring	-14303
lements	-14304
▁adviser	-14305
▁glow	-14306
onsense	-14307
▁porque	-14308
▁owns	-14309
▁ah	-14310
▁26.	-14311
▁tune	-14312
▁Denmark	-14313
▁mechanisms	-14314
His	-14315
ías	-14316
▁Environmental	-14317
▁30.	-14318
▁Brus	-14319
▁Mail	-14320
▁ende	-14321
aton	-14322
▁ranking	-14323
imento	-14324
▁reson	-14325
Up	-14326
▁carb	-14327
▁mast	-14328
▁Maine	-14329
▁armor	-14330
▁(17	-14331
overs	-14332
▁logo	-14333
▁talented	-14334
▁municipal	-14335
alta	-14336
▁basement	-14337
istence	-14338
▁iOS	-14339
▁bout	-14340
▁$6	-14341
▁Direct	-14342
▁anthrop	-14343
▁Yale	-14344
▁crisp	-14345
▁cluster	-14346
▁annually	-14347
▁Colin	-14348
▁node	-14349
▁rushing	-14350
▁Vladimir	-14351
plant	-14352
▁Friends	-14353
▁descent	-14354
▁institutional	-14355
▁quantity	-14356
ätt	-14357
▁wheat	-14358
▁belonging	-14359
äng	-14360
▁DJ	-14361
▁bis	-14362
▁toll	-14363
▁parked	-14364
▁Commons	-14365
▁citizenship	-14366
▁temporarily	-14367
▁MAR	-14368
▁witch	-14369
▁pistol	-14370
▁Ans	-14371
▁Diet	-14372
▁frank	-14373
xx	-14374
ressive	-14375
▁troubles	-14376
-200	-14377
▁static	-14378
▁boundary	-14379
▁shifting	-14380
6),	-14381
▁ре	-14382
▁avant	-14383
▁Jennifer	-14384
aft	-14385
▁350	-14386
▁punish	-14387
bie	-14388
▁Thai	-14389
▁symbols	-14390
▁continent	-14391
cm	-14392
▁bicy	-14393
▁patrol	-14394
▁vanished	-14395
▁haben	-14396
▁slices	-14397
▁welcomed	-14398
UP	-14399
▁spa	-14400
▁Bear	-14401
▁oral	-14402
▁sizes	-14403
▁ESPN	-14404
▁farms	-14405
▁syndrome	-14406
▁hunger	-14407
▁raises	-14408
▁Zen	-14409
Time	-14410
ihad	-14411
▁Scar	-14412
97	-14413
Mus	-14414
▁Level	-14415
writing	-14416
▁Florence	-14417
▁Au	-14418
▁мо	-14419
▁Sex	-14420
▁hollow	-14421
CP	-14422
abol	-14423
▁jam	-14424
▁Dennis	-14425
▁63	-14426
anded	-14427
▁zum	-14428
cules	-14429
written	-14430
▁Berg	-14431
▁isolation	-14432
otle	-14433
▁Annie	-14434
▁Welsh	-14435
▁clearing	-14436
▁supposedly	-14437
esse	-14438
▁cinema	-14439
▁needle	-14440
▁Vas	-14441
▁suits	-14442
▁theoretical	-14443
▁Harold	-14444
▁balanced	-14445
▁hesitated	-14446
▁trill	-14447
emor	-14448
▁sustainable	-14449
dire	-14450
▁spectacular	-14451
CR	-14452
▁Wi	-14453
sing	-14454
▁invite	-14455
VP	-14456
▁Break	-14457
▁voter	-14458
▁ounces	-14459
▁collections	-14460
ivic	-14461
stick	-14462
ousing	-14463
▁inhib	-14464
▁catast	-14465
▁upward	-14466
▁hallway	-14467
Ge	-14468
inny	-14469
▁colony	-14470
half	-14471
▁Din	-14472
Trump	-14473
▁invested	-14474
▁exercises	-14475
▁Hat	-14476
▁erupt	-14477
▁betray	-14478
ebook	-14479
amation	-14480
▁Testament	-14481
▁harassment	-14482
black	-14483
people	-14484
▁rugby	-14485
▁Vienna	-14486
▁overlook	-14487
▁MD	-14488
ripp	-14489
enta	-14490
▁soy	-14491
rowth	-14492
▁burg	-14493
▁Lloyd	-14494
▁masses	-14495
▁motivated	-14496
▁Nut	-14497
athon	-14498
▁applying	-14499
ECT	-14500
▁delle	-14501
step	-14502
▁successor	-14503
isle	-14504
▁Diam	-14505
Her	-14506
▁Norwegian	-14507
▁nic	-14508
▁NCAA	-14509
▁Tyler	-14510
▁asylum	-14511
▁youngest	-14512
μα	-14513
▁Mons	-14514
▁conced	-14515
▁swallowed	-14516
▁geomet	-14517
▁->	-14518
▁makeup	-14519
▁vamp	-14520
▁speculation	-14521
ribly	-14522
steps	-14523
▁vag	-14524
area	-14525
aby	-14526
ortunate	-14527
amen	-14528
па	-14529
iary	-14530
▁très	-14531
▁trucks	-14532
▁outlets	-14533
▁Edinburgh	-14534
▁arena	-14535
▁eternal	-14536
Fig	-14537
▁gel	-14538
▁pilots	-14539
▁advantages	-14540
▁Ok	-14541
igion	-14542
▁Crim	-14543
▁receives	-14544
ну	-14545
vous	-14546
▁carriage	-14547
▁searched	-14548
▁67	-14549
▁Bog	-14550
apor	-14551
▁Citiz	-14552
▁curiosity	-14553
lon	-14554
pub	-14555
uli	-14556
amel	-14557
▁unl	-14558
LD	-14559
▁enact	-14560
▁Persian	-14561
▁Drug	-14562
umping	-14563
▁Gas	-14564
▁ges	-14565
▁wives	-14566
▁mathematics	-14567
innamon	-14568
▁Election	-14569
▁decrease	-14570
GM	-14571
drop	-14572
▁Darwin	-14573
▁Description	-14574
▁DR	-14575
ocket	-14576
▁aired	-14577
ationally	-14578
▁Clin	-14579
▁Stri	-14580
▁Wells	-14581
ounding	-14582
▁27.	-14583
▁numb	-14584
▁Buddhist	-14585
▁Sym	-14586
▁brow	-14587
oths	-14588
▁namely	-14589
▁Brigade	-14590
▁presumably	-14591
▁må	-14592
▁desires	-14593
300	-14594
▁Boys	-14595
abetes	-14596
▁jealous	-14597
Ed	-14598
▁distinctive	-14599
Like	-14600
nered	-14601
▁employers	-14602
▁Ny	-14603
▁boom	-14604
▁lawn	-14605
intendo	-14606
ountain	-14607
▁endorse	-14608
▁courtesy	-14609
▁Fol	-14610
▁UFC	-14611
▁semin	-14612
ervice	-14613
▁adequate	-14614
▁contacted	-14615
▁eliminated	-14616
▁ratings	-14617
▁ov	-14618
▁az	-14619
inery	-14620
▁acquisition	-14621
▁countless	-14622
▁addressing	-14623
▁2001.	-14624
▁ADVER	-14625
▁Dh	-14626
▁quar	-14627
▁Treasury	-14628
▁4-	-14629
▁Lud	-14630
giving	-14631
▁registration	-14632
dec	-14633
ICK	-14634
▁Duncan	-14635
▁anticipated	-14636
▁Hudson	-14637
▁laund	-14638
▁liver	-14639
winning	-14640
▁murmured	-14641
▁admission	-14642
▁philosopher	-14643
▁Hey	-14644
▁ga	-14645
▁orn	-14646
▁catching	-14647
▁ally	-14648
▁Urban	-14649
icker	-14650
▁wallet	-14651
▁Salv	-14652
▁recur	-14653
▁incons	-14654
ANT	-14655
▁ET	-14656
▁defender	-14657
▁copper	-14658
▁exchanges	-14659
▁panels	-14660
▁freshly	-14661
▁tsp	-14662
lando	-14663
ensing	-14664
▁photography	-14665
400	-14666
igue	-14667
▁missiles	-14668
▁Hem	-14669
▁readily	-14670
▁chick	-14671
▁Training	-14672
▁midfield	-14673
▁installation	-14674
▁technological	-14675
▁hob	-14676
ocity	-14677
▁Init	-14678
▁sway	-14679
▁guaranteed	-14680
53	-14681
▁jack	-14682
▁gaining	-14683
▁WE	-14684
▁bishop	-14685
▁magnific	-14686
▁stunning	-14687
HA	-14688
gins	-14689
▁Eis	-14690
▁Romans	-14691
▁stabil	-14692
▁Princeton	-14693
▁assembled	-14694
éri	-14695
gang	-14696
ului	-14697
▁cure	-14698
pos	-14699
▁Arabic	-14700
▁Quarter	-14701
ivals	-14702
▁libraries	-14703
▁$20	-14704
dated	-14705
lighten	-14706
Sure	-14707
▁Mum	-14708
ambers	-14709
▁divid	-14710
▁farming	-14711
▁Chuck	-14712
▁Milan	-14713
▁brains	-14714
▁varied	-14715
▁Capitol	-14716
▁distinguish	-14717
DE	-14718
▁err	-14719
impse	-14720
▁gorge	-14721
▁100%	-14722
▁toilet	-14723
▁Commissioner	-14724
▁trailer	-14725
▁inequality	-14726
Even	-14727
▁Kant	-14728
▁ours	-14729
▁detective	-14730
▁Stuart	-14731
.'"	-14732
omot	-14733
isode	-14734
▁canvas	-14735
▁fights	-14736
arettes	-14737
▁traditionally	-14738
')	-14739
ία	-14740
uum	-14741
▁Hi	-14742
▁Overall	-14743
▁journalism	-14744
ulin	-14745
▁nel	-14746
▁bind	-14747
▁stal	-14748
▁Rogers	-14749
▁suggestions	-14750
▁NO	-14751
▁exh	-14752
▁prey	-14753
▁Ident	-14754
▁Beaut	-14755
▁helpless	-14756
present	-14757
▁limitations	-14758
▁Own	-14759
▁Naval	-14760
▁mistaken	-14761
▁resid	-14762
▁intend	-14763
▁Mans	-14764
▁disgust	-14765
▁Assistant	-14766
▁realistic	-14767
▁releasing	-14768
82	-14769
▁deriv	-14770
."_	-14771
▁Theod	-14772
pop	-14773
▁Ghost	-14774
▁innovative	-14775
▁acute	-14776
IDS	-14777
▁appet	-14778
▁tense	-14779
▁Process	-14780
▁fourteen	-14781
rogen	-14782
▁disgu	-14783
▁dignity	-14784
bot	-14785
▁Minor	-14786
▁quantum	-14787
6%	-14788
▁analys	-14789
▁persec	-14790
▁Anim	-14791
▁cease	-14792
wear	-14793
itivity	-14794
▁eighth	-14795
▁variations	-14796
▁dys	-14797
▁altered	-14798
▁packages	-14799
▁wur	-14800
Getty	-14801
▁plun	-14802
▁---|---|---	-14803
▁counting	-14804
▁Mountains	-14805
▁threshold	-14806
amy	-14807
▁Gram	-14808
▁ú	-14809
develop	-14810
inea	-14811
▁sigh	-14812
▁trav	-14813
urated	-14814
▁Henri	-14815
pent	-14816
stad	-14817
▁hug	-14818
▁Camb	-14819
▁opposing	-14820
▁lane	-14821
▁colleague	-14822
▁consisting	-14823
▁slammed	-14824
ей	-14825
▁entities	-14826
days	-14827
ieder	-14828
▁armies	-14829
Ref	-14830
▁Malaysia	-14831
▁Queensland	-14832
▁viv	-14833
▁projected	-14834
▁Mak	-14835
think	-14836
▁pizza	-14837
▁penc	-14838
▁congreg	-14839
▁pension	-14840
itu	-14841
▁ware	-14842
▁Martha	-14843
▁Students	-14844
▁territories	-14845
▁fost	-14846
▁Hig	-14847
▁crashed	-14848
ieg	-14849
shore	-14850
▁Album	-14851
▁cracked	-14852
▁tide	-14853
▁ADVERTIS	-14854
▁consumed	-14855
▁theft	-14856
▁whilst	-14857
▁Lanc	-14858
▁ruin	-14859
▁Index	-14860
Nothing	-14861
▁farmer	-14862
▁tragic	-14863
▁strings	-14864
sted	-14865
▁Gor	-14866
▁Tibet	-14867
▁counties	-14868
▁northeast	-14869
▁Rou	-14870
▁contempt	-14871
▁experiencing	-14872
63	-14873
▁vain	-14874
▁draws	-14875
quality	-14876
▁sticks	-14877
▁prospects	-14878
▁SD	-14879
▁Results	-14880
?)	-14881
▁commentary	-14882
▁Reed	-14883
▁bizar	-14884
▁volunteer	-14885
▁Intel	-14886
▁radar	-14887
ductive	-14888
▁Update	-14889
▁sv	-14890
▁Aber	-14891
▁Meet	-14892
function	-14893
▁Writing	-14894
▁reinforce	-14895
▁marble	-14896
.).	-14897
pert	-14898
▁Transl	-14899
▁Stars	-14900
▁Better	-14901
▁marched	-14902
▁resting	-14903
▁Arkansas	-14904
▁indication	-14905
zzle	-14906
▁Hence	-14907
▁Infantry	-14908
oft	-14909
store	-14910
▁raid	-14911
▁merchant	-14912
▁suspension	-14913
▁maxim	-14914
9).	-14915
▁più	-14916
▁spun	-14917
800	-14918
second	-14919
▁Mol	-14920
▁rim	-14921
lings	-14922
▁Select	-14923
▁glimpse	-14924
▁arist	-14925
▁popul	-14926
▁Liberty	-14927
▁podcast	-14928
▁attributes	-14929
▁confirmation	-14930
▁stocks	-14931
keit	-14932
▁Yor	-14933
▁Gonz	-14934
▁traff	-14935
▁fitted	-14936
▁lesser	-14937
át	-14938
▁py	-14939
ollen	-14940
▁1977	-14941
▁heter	-14942
▁animated	-14943
▁Esc	-14944
▁пре	-14945
▁Bras	-14946
▁processor	-14947
mist	-14948
▁Pros	-14949
▁fits	-14950
▁folder	-14951
▁conclusions	-14952
▁γ	-14953
▁1-	-14954
▁Cha	-14955
▁dimension	-14956
▁affects	-14957
▁Aw	-14958
▁floors	-14959
▁Account	-14960
▁Kum	-14961
▁Arena	-14962
▁lonely	-14963
ioned	-14964
▁pulse	-14965
▁vacation	-14966
▁ale	-14967
▁Gy	-14968
▁vivid	-14969
▁affirm	-14970
eches	-14971
shirt	-14972
▁terrain	-14973
▁Cann	-14974
▁rabb	-14975
▁unfold	-14976
iolet	-14977
▁tast	-14978
▁Galaxy	-14979
imer	-14980
▁sous	-14981
heastern	-14982
▁renewed	-14983
▁mg	-14984
note	-14985
achelor	-14986
BL	-14987
▁pseud	-14988
▁polar	-14989
▁herbs	-14990
▁Kind	-14991
▁earthquake	-14992
AG	-14993
odies	-14994
▁laboratory	-14995
boys	-14996
▁stressed	-14997
▁donations	-14998
▁Costa	-14999
▁tomato	-15000
▁5-	-15001
Hist	-15002
▁surn	-15003
friendly	-15004
▁supplied	-15005
IGHT	-15006
otta	-15007
▁rod	-15008
▁Fourth	-15009
▁preventing	-15010
▁Shadow	-15011
breaking	-15012
▁warriors	-15013
1]	-15014
▁ع	-15015
▁souls	-15016
▁excessive	-15017
▁Compan	-15018
have	-15019
▁1973	-15020
▁quot	-15021
▁warrior	-15022
▁suspects	-15023
▁legendary	-15024
heimer	-15025
▁printing	-15026
▁northwest	-15027
▁withdrawal	-15028
iban	-15029
▁locally	-15030
▁meantime	-15031
igers	-15032
storm	-15033
Ob	-15034
orf	-15035
▁1)	-15036
▁EM	-15037
inas	-15038
▁blocking	-15039
8).	-15040
▁vu	-15041
▁Roc	-15042
▁lag	-15043
▁Sold	-15044
▁durch	-15045
irmingham	-15046
▁Cultural	-15047
▁Owen	-15048
▁Stage	-15049
AST	-15050
Cal	-15051
▁170	-15052
arency	-15053
mitt	-15054
ylan	-15055
▁McM	-15056
▁Rol	-15057
▁stern	-15058
▁Systems	-15059
▁ADVERTISEMENT	-15060
▁ink	-15061
oubted	-15062
▁cheaper	-15063
▁avoiding	-15064
▁sympathy	-15065
ña	-15066
iza	-15067
verning	-15068
mination	-15069
▁champions	-15070
▁Decl	-15071
▁Wing	-15072
▁mice	-15073
▁bleeding	-15074
▁parliamentary	-15075
kens	-15076
▁Rah	-15077
unc	-15078
▁Venice	-15079
▁Oakland	-15080
▁evaluation	-15081
gger	-15082
▁helicopter	-15083
▁62	-15084
▁Aunt	-15085
athetic	-15086
▁silently	-15087
▁socialist	-15088
▁sua	-15089
▁monde	-15090
▁classroom	-15091
▁lightning	-15092
▁environments	-15093
atti	-15094
boat	-15095
hero	-15096
▁Fame	-15097
▁Battalion	-15098
▁chemicals	-15099
▁prosecutors	-15100
anza	-15101
illon	-15102
▁beard	-15103
▁remarked	-15104
opy	-15105
Comm	-15106
▁muy	-15107
▁aunt	-15108
▁casting	-15109
▁ancestors	-15110
incing	-15111
▁Curt	-15112
▁courty	-15113
▁agreements	-15114
▁influences	-15115
▁researcher	-15116
▁esta	-15117
enne	-15118
wering	-15119
▁Pearl	-15120
▁poorly	-15121
▁disorders	-15122
zel	-15123
▁dip	-15124
▁whistle	-15125
esso	-15126
▁años	-15127
▁subsid	-15128
▁frustrated	-15129
osph	-15130
▁fiber	-15131
▁Holland	-15132
▁sank	-15133
isting	-15134
▁jeans	-15135
▁Samsung	-15136
▁Squadron	-15137
▁marginal	-15138
Fi	-15139
oan	-15140
▁indirect	-15141
▁stepping	-15142
▁Ring	-15143
▁zones	-15144
▁181	-15145
▁lifting	-15146
▁pipeline	-15147
anked	-15148
▁decides	-15149
▁28.	-15150
▁arrow	-15151
▁customs	-15152
50,	-15153
▁indul	-15154
ту	-15155
▁Horse	-15156
lessness	-15157
▁Baseball	-15158
▁provider	-15159
Black	-15160
▁predomin	-15161
▁headlines	-15162
▁demonstration	-15163
gom	-15164
cker	-15165
mbre	-15166
▁1982	-15167
▁unre	-15168
▁Napole	-15169
▁sphere	-15170
▁sexually	-15171
▁McL	-15172
▁Unit	-15173
▁buttons	-15174
▁transparent	-15175
▁portray	-15176
▁flexible	-15177
Com	-15178
▁Kash	-15179
▁adaptation	-15180
▁Fast	-15181
lichen	-15182
▁servers	-15183
▁thirteen	-15184
▁ml	-15185
▁contacts	-15186
▁Chem	-15187
▁mature	-15188
▁Butler	-15189
▁COV	-15190
ensen	-15191
▁1967	-15192
▁unve	-15193
▁Exchange	-15194
▁participating	-15195
▁Franç	-15196
atz	-15197
azar	-15198
▁Falls	-15199
pection	-15200
▁anchor	-15201
▁regiment	-15202
▁Nietzsche	-15203
93	-15204
ikk	-15205
▁Angela	-15206
▁Raymond	-15207
emos	-15208
folk	-15209
▁Rangers	-15210
Oct	-15211
▁2002.	-15212
▁endors	-15213
▁6:	-15214
▁Cris	-15215
▁protective	-15216
▁controlling	-15217
にな	-15218
▁WITH	-15219
▁cookies	-15220
▁pedest	-15221
▁Product	-15222
▁hopefully	-15223
imos	-15224
ensis	-15225
▁viewing	-15226
▁companions	-15227
▁вы	-15228
▁Hus	-15229
▁1965	-15230
▁Partners	-15231
▁criminals	-15232
▁decorated	-15233
eous	-15234
yram	-15235
ouched	-15236
▁todos	-15237
▁fulfill	-15238
▁charging	-15239
▁departments	-15240
▁(16	-15241
▁interference	-15242
ggy	-15243
umbs	-15244
▁Upper	-15245
▁snake	-15246
▁attraction	-15247
wic	-15248
olia	-15249
▁kön	-15250
adores	-15251
▁documented	-15252
▁Bapt	-15253
▁pasta	-15254
▁melted	-15255
▁Bennett	-15256
▁Palestine	-15257
10)	-15258
conscious	-15259
▁Via	-15260
proof	-15261
▁photograp	-15262
houses	-15263
▁considerably	-15264
▁también	-15265
▁animation	-15266
▁ruins	-15267
▁Ple	-15268
opard	-15269
▁appl	-15270
ounted	-15271
▁Wag	-15272
▁finest	-15273
▁tended	-15274
▁editors	-15275
▁61	-15276
▁Lamb	-15277
▁compelling	-15278
oka	-15279
thal	-15280
▁Wes	-15281
▁Chart	-15282
▁ineff	-15283
▁Sent	-15284
▁resent	-15285
▁Caribbean	-15286
▁upgrade	-15287
▁strictly	-15288
▁historically	-15289
▁raz	-15290
▁declare	-15291
▁Universal	-15292
▁hurry	-15293
▁consolid	-15294
▁relating	-15295
▁manufacturer	-15296
ohy	-15297
olan	-15298
uates	-15299
était	-15300
icians	-15301
▁Croat	-15302
6;	-15303
▁Pom	-15304
▁ceased	-15305
▁runner	-15306
▁troubled	-15307
▁slope	-15308
жи	-15309
▁Path	-15310
▁flowing	-15311
▁tensions	-15312
τη	-15313
▁Wu	-15314
leen	-15315
▁mercy	-15316
▁spine	-15317
Euro	-15318
chant	-15319
▁Climate	-15320
him	-15321
▁cosm	-15322
ischer	-15323
ictionary	-15324
▁identifying	-15325
▁Often	-15326
▁insane	-15327
▁treating	-15328
▁meanwhile	-15329
▁reasoning	-15330
▁Luis	-15331
▁Herbert	-15332
▁motivation	-15333
▁Papers	-15334
$$	-15335
▁realised	-15336
▁specified	-15337
9%	-15338
▁Wik	-15339
▁traits	-15340
▁Electric	-15341
▁keyboard	-15342
anno	-15343
▁colored	-15344
▁dimensions	-15345
agar	-15346
▁ἀ	-15347
▁inherit	-15348
▁travelling	-15349
oqu	-15350
▁playoffs	-15351
▁Gent	-15352
▁reviewed	-15353
▁aesthetic	-15354
▁deadline	-15355
estab	-15356
▁intersection	-15357
ánd	-15358
rust	-15359
every	-15360
▁Pain	-15361
▁FL	-15362
izable	-15363
▁6-	-15364
[...]
