<pad>	0
<unk>	0
</s>	0
,	-3.26227
▁the	-3.31545
.	-3.34205
s	-3.56514
▁	-3.86784
▁of	-4.07431
▁and	-4.10145
▁to	-4.11987
▁a	-4.13868
▁in	-4.34536
1	-4.70045
'	-4.72799
0	-4.8862
-	-5.00051
▁that	-5.03115
2	-5.11325
▁for	-5.1997
▁is	-5.22125
▁it	-5.22487
▁was	-5.22775
t	-5.24559
▁i	-5.3007
▁"	-5.34804
▁he	-5.35125
▁on	-5.36441
▁with	-5.43266
9	-5.48257
▁as	-5.53422
ed	-5.59304
▁(	-5.59363
d	-5.64212
▁you	-5.68539
▁be	-5.72564
▁his	-5.72923
ing	-5.73355
3	-5.77658
▁at	-5.7789
:	-5.78365
5	-5.82992
▁by	-5.86407
’	-5.881
4	-5.8937
▁from	-5.89517
▁this	-5.92946
8	-5.92964
)	-5.93837
i	-5.95869
▁but	-6.01212
6	-6.02067
▁not	-6.05176
▁are	-6.05412
▁an	-6.05915
7	-6.06095
e	-6.06189
▁had	-6.06714
▁have	-6.08281
▁her	-6.10039
a	-6.13169
▁she	-6.13842
▁or	-6.1435
▁they	-6.17211
▁we	-6.2028
_	-6.30925
▁one	-6.36706
."	-6.36943
▁de	-6.37436
▁were	-6.39938
▁all	-6.40237
er	-6.40542
▁_	-6.42625
m	-6.44594
ly	-6.44979
y	-6.45445
▁said	-6.47554
re	-6.47749
▁their	-6.47886
▁so	-6.49413
▁has	-6.51655
▁can	-6.54574
▁out	-6.57233
;	-6.6036
▁who	-6.60542
▁my	-6.61315
▁up	-6.61543
▁more	-6.62343
▁which	-6.62344
▁me	-6.63768
▁there	-6.64384
▁when	-6.65024
▁no	-6.65409
▁if	-6.65779
n	-6.65955
▁will	-6.66025
▁would	-6.66276
▁about	-6.67017
▁“	-6.68299
o	-6.69649
▁been	-6.71188
▁what	-6.73133
▁do	-6.73576
▁him	-6.75904
?	-6.77228
"	-6.79933
es	-6.8144
▁your	-6.82204
▁into	-6.84414
in	-6.8637
▁time	-6.87313
▁like	-6.87512
r	-6.89371
,"	-6.90257
▁new	-6.9032
▁them	-6.94879
▁also	-6.95352
▁over	-6.95748
c	-6.97321
▁other	-6.97716
al	-6.99356
/	-6.99586
—	-7.0288
▁some	-7.03901
▁first	-7.04166
▁'	-7.04698
▁after	-7.06231
▁la	-7.06532
▁–	-7.07155
▁than	-7.08231
▁could	-7.09602
▁just	-7.09763
▁two	-7.11963
▁people	-7.12672
the	-7.1397
▁then	-7.15247
▁its	-7.15259
▁only	-7.1633
▁back	-7.18561
en	-7.18566
▁un	-7.21184
▁our	-7.21842
ve	-7.22098
g	-7.25015
▁now	-7.25185
it	-7.26141
–	-7.27217
b	-7.28719
▁re	-7.28791
▁how	-7.296
k	-7.32947
▁even	-7.34901
▁us	-7.35838
l	-7.3673
▁most	-7.37647
▁these	-7.38561
▁see	-7.38974
▁get	-7.39344
▁man	-7.39879
ll	-7.39903
),	-7.40981
▁|	-7.41613
th	-7.42544
?"	-7.42575
▁where	-7.42841
▁way	-7.43301
▁any	-7.43771
▁don	-7.45029
▁down	-7.45731
▁before	-7.46551
▁may	-7.46635
p	-7.46772
▁know	-7.47437
).	-7.48431
▁through	-7.49575
▁because	-7.50043
▁well	-7.50774
▁en	-7.51404
to	-7.51409
▁go	-7.52176
▁make	-7.53164
▁**	-7.53298
▁did	-7.54504
▁many	-7.55275
or	-7.55872
▁world	-7.56064
▁made	-7.56508
▁years	-7.56545
f	-7.57699
▁while	-7.59118
an	-7.60612
▁e	-7.60647
▁p	-7.60776
!	-7.62398
▁much	-7.62525
u	-7.62539
▁here	-7.62741
▁work	-7.62743
▁being	-7.62947
▁such	-7.63885
”	-7.65558
▁—	-7.65849
h	-7.66146
▁very	-7.66198
▁those	-7.67608
on	-7.68032
▁good	-7.68205
▁still	-7.68615
man	-7.68764
▁d	-7.68975
▁right	-7.69036
▁off	-7.69193
ers	-7.69906
**	-7.70433
ar	-7.71553
de	-7.71628
▁under	-7.71629
te	-7.71825
▁long	-7.72337
▁l	-7.72737
us	-7.74042
▁day	-7.74118
▁le	-7.74317
▁last	-7.74456
▁own	-7.74655
▁between	-7.75033
▁life	-7.75123
le	-7.75827
z	-7.75931
▁think	-7.76529
▁around	-7.77026
▁year	-7.77413
x	-7.7769
▁c	-7.77896
▁take	-7.78559
▁part	-7.79922
▁should	-7.80004
▁three	-7.80216
▁state	-7.81163
no	-7.81706
and	-7.83483
▁que	-7.83912
▁use	-7.84081
▁against	-7.84537
w	-7.84854
▁going	-7.85199
▁both	-7.85351
▁same	-7.87304
▁want	-7.87539
.”	-7.88392
▁con	-7.89147
▁another	-7.89197
▁come	-7.90291
▁too	-7.90403
▁during	-7.90425
able	-7.92406
▁o	-7.93139
▁never	-7.94097
▁place	-7.94635
▁se	-7.94697
is	-7.9487
▁each	-7.95332
▁little	-7.95658
▁say	-7.95684
▁per	-7.95803
na	-7.96132
▁need	-7.9643
▁b	-7.96547
we	-7.96667
...	-7.96861
▁used	-7.97393
▁home	-7.97536
▁men	-7.97561
▁war	-7.9788
▁$	-7.98706
▁since	-7.99058
ta	-7.99714
▁end	-7.99773
▁al	-7.99829
▁g	-8.00239
▁didn	-8.00567
▁u	-8.01
▁house	-8.01383
▁again	-8.01898
▁something	-8.02275
]	-8.02632
j	-8.02993
,”	-8.03205
v	-8.03334
ic	-8.03533
la	-8.03823
▁might	-8.04469
▁head	-8.04642
as	-8.04813
▁m	-8.04879
ation	-8.0517
▁city	-8.05581
he	-8.06443
▁left	-8.06565
▁-	-8.0694
ne	-8.07148
▁el	-8.07233
▁found	-8.07257
▁high	-8.08094
▁every	-8.09169
▁great	-8.0954
ity	-8.09889
▁hand	-8.1013
▁until	-8.107
▁[	-8.11097
▁few	-8.1135
▁away	-8.11813
▁got	-8.11839
▁best	-8.119
▁told	-8.11942
▁co	-8.11998
ch	-8.1261
ra	-8.13907
▁without	-8.13948
▁later	-8.14178
▁came	-8.14275
ma	-8.14473
%	-8.14523
▁thought	-8.14825
▁second	-8.15067
▁look	-8.15303
▁government	-8.1531
▁set	-8.15329
▁f	-8.16195
▁car	-8.16359
▁team	-8.16678
▁school	-8.16691
co	-8.16879
▁next	-8.17144
ment	-8.17313
do	-8.1817
▁n	-8.18439
▁water	-8.18618
▁must	-8.18633
▁y	-8.19069
you	-8.19333
▁et	-8.19672
▁k	-8.20362
▁find	-8.20711
ton	-8.21188
▁old	-8.21506
me	-8.21747
▁put	-8.21818
il	-8.21942
▁*	-8.22187
el	-8.22255
▁game	-8.22266
ia	-8.22274
com	-8.22384
▁however	-8.22471
▁called	-8.22708
▁things	-8.22798
▁took	-8.22819
▁national	-8.23244
▁far	-8.2338
▁really	-8.23635
▁let	-8.23645
▁am	-8.23668
▁american	-8.24537
▁why	-8.25692
▁though	-8.26001
▁public	-8.26158
▁black	-8.2616
▁white	-8.26204
▁name	-8.26734
▁once	-8.27262
▁help	-8.27337
ion	-8.27639
▁small	-8.27736
▁family	-8.27953
▁president	-8.28238
▁different	-8.28608
▁number	-8.2868
un	-8.29178
▁st	-8.29387
▁group	-8.29673
▁v	-8.30039
▁went	-8.30069
▁side	-8.30162
▁night	-8.3024
▁point	-8.30486
be	-8.30729
▁always	-8.30767
ge	-8.31021
▁pro	-8.31098
▁says	-8.3137
ness	-8.31542
▁power	-8.31577
▁face	-8.3171
▁di	-8.31836
ist	-8.32182
▁j	-8.33079
am	-8.33277
▁women	-8.33842
at	-8.33896
da	-8.33915
▁four	-8.34208
▁asked	-8.34374
▁does	-8.3495
▁system	-8.35418
os	-8.35642
▁open	-8.35946
▁show	-8.36663
▁states	-8.36809
ro	-8.36819
ie	-8.37597
▁t	-8.39251
ry	-8.39253
ism	-8.39275
▁book	-8.39355
▁better	-8.39405
▁trump	-8.39626
▁university	-8.39927
▁case	-8.40448
▁love	-8.40655
est	-8.41303
▁pre	-8.41313
ca	-8.41532
▁r	-8.41961
▁h	-8.42205
▁enough	-8.42546
▁including	-8.4287
son	-8.43053
▁company	-8.4306
▁thing	-8.43163
▁air	-8.43392
▁top	-8.43443
▁ever	-8.43496
▁w	-8.43621
▁du	-8.4369
▁early	-8.43974
▁na	-8.44262
ten	-8.4433
ting	-8.44347
▁united	-8.44721
▁eyes	-8.44842
▁season	-8.44945
ce	-8.44974
▁support	-8.45823
ir	-8.46201
▁york	-8.46382
▁room	-8.46478
id	-8.46674
▁hard	-8.46691
▁big	-8.47004
▁country	-8.4722
▁&	-8.47298
▁free	-8.47519
▁play	-8.47579
▁ha	-8.47988
▁himself	-8.48347
ian	-8.4838
ive	-8.48561
▁line	-8.48675
▁yet	-8.48768
▁history	-8.48868
up	-8.49261
▁order	-8.49542
(	-8.49558
▁da	-8.49778
é	-8.49868
lo	-8.50065
▁||	-8.50108
▁looked	-8.50394
ine	-8.50439
▁known	-8.51067
▁children	-8.51384
▁general	-8.51438
▁days	-8.51659
▁give	-8.51744
▁using	-8.51928
▁human	-8.52139
▁already	-8.52218
▁south	-8.52235
▁course	-8.52412
▁times	-8.52455
▁several	-8.52587
▁often	-8.52669
▁light	-8.52805
▁real	-8.53055
▁keep	-8.53102
▁lot	-8.53218
go	-8.53476
▁north	-8.53515
▁die	-8.5355
▁god	-8.53831
▁along	-8.53843
ling	-8.54183
▁won	-8.54196
▁according	-8.54402
▁change	-8.54613
▁young	-8.54637
▁john	-8.54802
▁police	-8.5485
▁large	-8.55542
ted	-8.55561
st	-8.55614
▁past	-8.55827
▁father	-8.55854
ant	-8.55913
▁full	-8.55961
▁nothing	-8.56058
ga	-8.5616
▁red	-8.56358
▁run	-8.56533
▁fact	-8.56752
so	-8.56754
ter	-8.56826
▁across	-8.57124
▁tell	-8.57179
▁social	-8.57271
et	-8.57327
▁body	-8.57439
▁des	-8.57636
▁saw	-8.57656
▁become	-8.57861
▁local	-8.57903
▁information	-8.58345
ke	-8.58647
▁having	-8.58705
▁mind	-8.58733
▁law	-8.58829
▁call	-8.58843
▁film	-8.58894
▁within	-8.59019
▁party	-8.59113
▁post	-8.59256
▁story	-8.59426
▁together	-8.59453
▁sa	-8.59603
▁less	-8.59668
▁seen	-8.59905
▁least	-8.59916
▁son	-8.60386
▁making	-8.60469
ty	-8.60508
▁mother	-8.6052
▁knew	-8.60711
▁following	-8.60776
▁kind	-8.60987
▁five	-8.611
▁week	-8.61323
▁important	-8.61472
ous	-8.62371
▁feel	-8.62389
▁behind	-8.62782
▁sure	-8.62939
▁money	-8.62979
▁data	-8.63174
▁began	-8.63431
▁death	-8.63673
age	-8.64022
▁court	-8.64043
▁became	-8.64077
▁business	-8.64099
▁almost	-8.64123
mo	-8.64257
▁given	-8.64492
▁half	-8.649
▁dis	-8.64967
if	-8.65023
▁among	-8.65186
se	-8.6546
▁fire	-8.65524
▁su	-8.65816
▁woman	-8.66007
▁done	-8.66203
▁ne	-8.66417
▁wanted	-8.6643
▁person	-8.66627
▁ma	-8.67186
▁non	-8.67187
▁read	-8.67313
▁political	-8.68051
▁front	-8.68638
ley	-8.68806
▁million	-8.68987
▁moment	-8.69211
▁ver	-8.69306
ka	-8.69373
▁lo	-8.69863
li	-8.69945
▁felt	-8.69987
den	-8.70053
▁anything	-8.70213
ul	-8.70304
▁turned	-8.70314
▁area	-8.7058
ci	-8.70593
▁à	-8.70609
▁able	-8.70692
ated	-8.70834
but	-8.71127
▁door	-8.71557
rs	-8.7177
▁live	-8.71879
▁control	-8.71967
▁today	-8.721
▁working	-8.72252
▁les	-8.72375
▁start	-8.72478
▁short	-8.72567
▁mr	-8.7257
!"	-8.72614
▁example	-8.72706
▁care	-8.73038
ha	-8.7326
▁#	-8.73377
less	-8.73678
di	-8.73743
▁close	-8.74115
ur	-8.7432
va	-8.74356
▁form	-8.74371
▁par	-8.74766
▁single	-8.74926
what	-8.74976
▁service	-8.75049
▁der	-8.75134
men	-8.75451
▁news	-8.75593
▁others	-8.75615
▁west	-8.75767
ate	-8.75929
que	-8.76147
▁former	-8.76238
▁bar	-8.76388
▁press	-8.76519
▁process	-8.76596
▁rest	-8.76728
▁series	-8.76908
▁looking	-8.76911
ja	-8.7708
▁turn	-8.77134
one	-8.77162
ba	-8.77204
▁office	-8.77214
▁heart	-8.77303
▁rather	-8.77518
▁march	-8.77583
ner	-8.77689
▁started	-8.77785
▁doing	-8.7785
▁question	-8.78162
▁space	-8.78361
ut	-8.78397
▁add	-8.78656
▁music	-8.78965
▁wasn	-8.79392
の	-8.79467
▁art	-8.79708
▁international	-8.79787
land	-8.79876
by	-8.79959
▁held	-8.80246
pe	-8.80254
▁possible	-8.80295
▁believe	-8.80768
▁food	-8.81011
▁main	-8.81352
▁x	-8.81528
▁health	-8.81563
▁whether	-8.81576
▁street	-8.81584
▁final	-8.81829
ent	-8.81996
▁si	-8.82295
my	-8.82328
led	-8.82645
▁idea	-8.82785
▁media	-8.83101
▁major	-8.83181
▁taken	-8.83888
▁minutes	-8.83904
ad	-8.84017
▁whole	-8.84035
▁someone	-8.84172
▁everything	-8.84205
per	-8.84213
der	-8.84298
▁although	-8.8434
ish	-8.84509
▁land	-8.84662
ful	-8.84834
out	-8.85343
▁sense	-8.85347
▁doesn	-8.85436
▁del	-8.85446
ti	-8.85529
▁vi	-8.85571
▁words	-8.85706
▁green	-8.8597
▁late	-8.86166
▁ten	-8.86322
▁project	-8.86374
▁road	-8.86439
▁near	-8.86588
um	-8.86695
▁park	-8.86699
▁bit	-8.86764
ler	-8.86818
▁mar	-8.87129
▁six	-8.87145
▁sea	-8.87243
=	-8.87403
▁pay	-8.87484
▁voice	-8.8749
▁center	-8.87628
▁percent	-8.87739
▁community	-8.87851
▁research	-8.87969
▁clear	-8.88089
▁hands	-8.88326
▁king	-8.88386
▁je	-8.88444
▁los	-8.885
po	-8.88576
che	-8.88845
for	-8.89026
▁instead	-8.89248
▁future	-8.89299
▁ho	-8.89446
▁town	-8.89477
ary	-8.89514
▁members	-8.89965
that	-8.90038
▁means	-8.90137
▁ja	-8.90335
▁plan	-8.90384
▁low	-8.90434
▁report	-8.90438
▁development	-8.90455
▁ground	-8.90615
▁gave	-8.90639
▁either	-8.90742
▁view	-8.90796
em	-8.90799
gen	-8.908
▁self	-8.91093
▁outside	-8.91102
▁age	-8.91141
▁act	-8.91171
▁tu	-8.91239
▁‘	-8.91266
▁trying	-8.91283
▁building	-8.91488
ating	-8.91508
▁problem	-8.91509
▁move	-8.91611
▁anti	-8.91759
▁getting	-8.91955
▁special	-8.92004
▁present	-8.92018
▁actually	-8.92212
▁em	-8.92297
ri	-8.92446
▁matter	-8.92734
▁word	-8.92797
▁il	-8.92875
q	-8.93137
▁months	-8.93296
▁stop	-8.94196
▁third	-8.94328
▁list	-8.94332
▁dr	-8.94416
▁table	-8.94514
▁level	-8.94735
▁based	-8.94881
▁upon	-8.95027
▁experience	-8.95115
▁soon	-8.95154
、	-8.95187
▁reason	-8.95231
▁market	-8.95275
▁class	-8.9539
ak	-8.95392
▁campaign	-8.9552
▁lost	-8.95597
year	-8.9581
▁cup	-8.95846
▁mean	-8.96025
▁river	-8.96072
▁=	-8.96168
▁inside	-8.96321
con	-8.9635
▁ex	-8.96544
▁child	-8.96573
ber	-8.96617
▁force	-8.96855
▁above	-8.96898
pa	-8.9694
▁taking	-8.9713
ng	-8.97132
▁east	-8.97154
tic	-8.97224
▁chapter	-8.97379
▁heard	-8.97462
ance	-8.97781
▁cut	-8.97917
▁bad	-8.97923
▁san	-8.98047
▁true	-8.98092
▁para	-8.98101
▁sub	-8.98202
▁sun	-8.98218
▁further	-8.9825
▁dark	-8.98273
▁else	-8.98328
ies	-8.98373
ex	-8.98478
▁nor	-8.98514
line	-8.98622
▁position	-8.98738
▁seemed	-8.98738
▁try	-8.98973
▁coming	-8.9912
ized	-8.99156
▁leave	-8.99158
time	-8.99238
▁deal	-8.99461
▁lu	-8.99492
▁job	-8.99786
▁itself	-9.00048
▁qui	-9.00318
▁round	-9.00486
▁return	-9.005
▁hours	-9.00509
▁america	-9.00543
▁fa	-9.00843
well	-9.00853
▁due	-9.01163
▁period	-9.02217
let	-9.02379
▁ca	-9.02395
▁security	-9.02451
▁church	-9.02462
▁morning	-9.02579
ac	-9.02614
▁league	-9.02621
▁probably	-9.02655
▁games	-9.02714
▁british	-9.02893
▁common	-9.0297
ard	-9.03055
▁talk	-9.03085
▁understand	-9.03096
▁military	-9.03245
ah	-9.03578
▁category	-9.03771
▁ni	-9.03827
▁und	-9.04061
▁bo	-9.04178
▁mo	-9.0426
▁video	-9.04279
im	-9.04299
ze	-9.0439
▁hit	-9.04609
ence	-9.04751
ó	-9.04951
▁led	-9.05053
▁available	-9.05143
bo	-9.05179
▁star	-9.05227
á	-9.0524
▁living	-9.05576
▁perhaps	-9.05609
▁college	-9.05748
í	-9.05756
▁ge	-9.05923
▁toward	-9.05985
▁added	-9.05989
▁department	-9.06017
▁june	-9.0603
▁sent	-9.06157
ko	-9.06227
▁themselves	-9.06253
▁dead	-9.0629
▁win	-9.06316
of	-9.06317
▁director	-9.06344
les	-9.06347
▁wrote	-9.06454
old	-9.0651
▁played	-9.06693
ni	-9.06699
▁quite	-9.06738
▁design	-9.07022
ver	-9.07027
▁august	-9.07264
▁field	-9.07312
▁makes	-9.07416
ap	-9.07426
▁club	-9.07503
▁program	-9.07526
▁ago	-9.07686
tion	-9.07812
▁likely	-9.07923
way	-9.08687
▁district	-9.08777
ho	-9.09
▁career	-9.09026
je	-9.09096
▁couldn	-9.09115
▁po	-9.09157
bi	-9.09299
▁london	-9.094
▁study	-9.09431
▁sat	-9.09588
▁action	-9.09616
ally	-9.09744
▁result	-9.09757
▁saying	-9.09837
▁pe	-9.10001
▁role	-9.10072
nd	-9.10101
▁sound	-9.10141
▁everyone	-9.10215
▁blue	-9.10373
mi	-9.10389
▁wall	-9.10763
▁county	-9.10797
fa	-9.10888
▁certain	-9.10952
▁mc	-9.11108
▁finally	-9.11316
▁band	-9.1135
▁bill	-9.1141
▁july	-9.11418
▁•	-9.11509
▁den	-9.11871
▁key	-9.12042
▁friends	-9.12092
▁ka	-9.12152
▁board	-9.12218
▁army	-9.12303
▁minister	-9.1231
▁april	-9.12336
。	-9.12394
▁forward	-9.12572
▁english	-9.12784
io	-9.12883
all	-9.12927
▁released	-9.1311
▁brought	-9.13288
oc	-9.1332
▁middle	-9.13331
▁station	-9.13391
▁attack	-9.13513
▁century	-9.14011
▁oil	-9.14034
▁longer	-9.14238
ki	-9.14367
▁needed	-9.14395
?'	-9.14412
▁french	-9.14428
au	-9.14447
▁similar	-9.14482
▁september	-9.14861
ster	-9.14899
ger	-9.15028
▁van	-9.15036
▁society	-9.15044
▁record	-9.1517
▁er	-9.1521
▁bring	-9.15271
ck	-9.15273
▁especially	-9.15318
▁sometimes	-9.15408
▁students	-9.15473
▁ko	-9.15481
▁met	-9.15579
▁include	-9.15674
▁tried	-9.15726
▁value	-9.15739
▁es	-9.15743
▁type	-9.15795
▁comes	-9.15815
▁blood	-9.15918
▁modern	-9.1604
▁simply	-9.16187
▁deep	-9.16238
▁friend	-9.16243
▁image	-9.16256
▁moved	-9.16335
▁remember	-9.1649
▁central	-9.16652
red	-9.16693
▁access	-9.16755
▁total	-9.16764
ped	-9.16913
sh	-9.17029
▁member	-9.17118
▁super	-9.17321
▁fi	-9.17368
▁october	-9.17594
▁january	-9.17849
▁lead	-9.17995
▁strong	-9.18008
▁watch	-9.18233
▁feet	-9.18252
▁population	-9.18309
▁jo	-9.18345
▁pan	-9.18354
▁hear	-9.18472
op	-9.18629
▁ba	-9.18659
▁private	-9.18667
this	-9.18762
▁current	-9.18784
vi	-9.19088
▁te	-9.19168
▁china	-9.192
not	-9.19226
▁personal	-9.19308
▁ask	-9.19334
ung	-9.19382
▁battle	-9.19391
>	-9.19463
▁li	-9.19537
▁ta	-9.19581
▁create	-9.19595
▁figure	-9.19691
▁paul	-9.19814
▁energy	-9.199
▁wife	-9.19903
▁david	-9.20015
mer	-9.20065
▁pa	-9.20112
▁maybe	-9.20323
▁ce	-9.20336
▁provide	-9.20357
▁hair	-9.20359
▁running	-9.20378
ning	-9.20406
▁built	-9.20597
dy	-9.20766
▁girl	-9.2089
▁player	-9.20985
▁boy	-9.21091
▁anyone	-9.2116
qui	-9.21178
▁phone	-9.21211
▁che	-9.21259
▁code	-9.21433
▁nature	-9.21534
▁gone	-9.21564
▁account	-9.21567
▁cost	-9.21593
▁below	-9.21723
▁policy	-9.21737
▁hope	-9.21745
▁november	-9.21861
▁union	-9.21886
▁arm	-9.21909
▁received	-9.22201
▁published	-9.22208
lin	-9.22264
▁check	-9.22389
▁tra	-9.22662
▁worked	-9.22711
▁federal	-9.22941
▁ro	-9.22951
­	-9.23021
▁original	-9.2303
▁earlier	-9.23093
ol	-9.23219
▁mark	-9.23235
ham	-9.23283
▁step	-9.23406
▁model	-9.23484
don	-9.23493
▁month	-9.23532
▁whose	-9.23586
▁ran	-9.23709
▁players	-9.23761
▁sign	-9.23879
▁died	-9.23933
▁fall	-9.23996
▁issue	-9.24027
wa	-9.24091
▁sort	-9.24121
▁app	-9.24225
▁har	-9.24359
▁hold	-9.2447
▁simple	-9.24568
▁z	-9.24643
▁cu	-9.24703
▁site	-9.24985
right	-9.25162
▁test	-9.25202
▁services	-9.25213
▁language	-9.25299
▁est	-9.25311
za	-9.25386
vo	-9.25512
tro	-9.25515
▁seems	-9.2553
▁economic	-9.25615
▁couple	-9.25872
▁happened	-9.25922
▁hu	-9.25934
off	-9.25957
▁summer	-9.26105
ach	-9.26196
に	-9.26205
▁stay	-9.26297
▁cannot	-9.2636
▁earth	-9.26369
▁chief	-9.26587
_.	-9.26609
▁por	-9.26697
can	-9.26784
▁isn	-9.2682
▁fight	-9.26821
tra	-9.26948
day	-9.26951
▁stand	-9.26962
▁version	-9.27157
▁myself	-9.2723
▁brown	-9.27304
▁despite	-9.27353
▁december	-9.27362
▁science	-9.2743
▁wrong	-9.27529
▁inter	-9.27609
ya	-9.27881
▁production	-9.27939
▁share	-9.281
▁pass	-9.28216
▁german	-9.2826
▁grand	-9.28395
▁base	-9.28424
▁trade	-9.28541
▁decision	-9.28665
▁washington	-9.287
▁gun	-9.28709
▁mid	-9.28853
ron	-9.28916
▁rights	-9.29034
▁paper	-9.29048
▁natural	-9.29064
▁release	-9.29132
▁interest	-9.29149
are	-9.29195
▁hall	-9.29257
▁pas	-9.29311
ization	-9.29346
▁writing	-9.2948
tor	-9.29483
▁education	-9.29502
://	-9.29535
▁james	-9.29653
ier	-9.29753
▁pour	-9.29803
jo	-9.29864
▁recent	-9.29898
▁books	-9.29903
ft	-9.30009
▁various	-9.30011
▁evidence	-9.30106
▁«	-9.30162
▁quickly	-9.30171
ab	-9.30178
▁event	-9.30305
fe	-9.3035
▁alone	-9.30411
▁floor	-9.30592
▁character	-9.30671
▁born	-9.30763
▁race	-9.30818
▁range	-9.30824
hi	-9.30899
ite	-9.30929
▁bed	-9.30941
▁answer	-9.31045
▁follow	-9.3109
▁election	-9.31091
ny	-9.31142
▁ra	-9.31231
▁una	-9.31272
▁easy	-9.31295
▁mi	-9.31547
du	-9.31576
▁ob	-9.31651
see	-9.31758
▁bank	-9.31854
how	-9.31963
▁culture	-9.32068
▁break	-9.32095
ran	-9.32116
▁points	-9.32132
▁continue	-9.3225
▁staff	-9.32278
▁continued	-9.3229
▁comp	-9.3254
▁written	-9.32785
▁george	-9.32848
▁song	-9.32895
▁page	-9.32974
▁response	-9.32991
nt	-9.33253
▁works	-9.33301
▁reported	-9.33544
▁gold	-9.33622
▁decided	-9.3369
▁rock	-9.33704
▁robert	-9.33807
▁created	-9.33838
▁source	-9.33852
ken	-9.34172
ang	-9.34468
▁killed	-9.34625
▁named	-9.34664
▁secret	-9.34743
▁island	-9.34761
▁individual	-9.34826
▁build	-9.34985
▁foreign	-9.34994
▁attention	-9.35003
);	-9.3516
our	-9.35249
▁cross	-9.35276
there	-9.35313
▁thus	-9.35356
▁hot	-9.35507
▁risk	-9.35535
▁price	-9.35546
▁thinking	-9.35549
▁é	-9.35636
▁global	-9.35808
▁meet	-9.35838
▁cold	-9.35841
▁pick	-9.35909
▁mis	-9.35966
ä	-9.35991
▁wind	-9.35991
▁nearly	-9.36186
▁february	-9.36246
▁popular	-9.36248
▁playing	-9.36363
▁france	-9.36499
pro	-9.36638
mar	-9.36691
▁qu	-9.36705
▁au	-9.36745
min	-9.3675
▁opened	-9.36802
▁beyond	-9.36842
▁##	-9.36969
▁network	-9.36994
▁walk	-9.37131
▁movement	-9.37226
▁kept	-9.37232
▁reached	-9.37454
▁particular	-9.37458
▁herself	-9.37462
ana	-9.37505
▁followed	-9.37561
▁stood	-9.37569
ps	-9.37651
▁im	-9.377
she	-9.37745
▁style	-9.37805
▁meeting	-9.37811
▁size	-9.37887
▁weeks	-9.38011
her	-9.38173
を	-9.3826
ado	-9.38272
▁fine	-9.38328
▁lord	-9.38356
car	-9.38464
▁council	-9.38519
▁content	-9.3855
ise	-9.38601
▁seven	-9.38609
mon	-9.38611
▁plus	-9.38757
ize	-9.38779
oh	-9.38781
▁match	-9.38822
tu	-9.38852
▁entire	-9.38868
▁chance	-9.39017
▁cover	-9.39148
が	-9.39183
▁com	-9.39187
▁village	-9.39228
mp	-9.39554
▁--	-9.39596
▁european	-9.39616
▁effect	-9.39637
▁ju	-9.39662
▁hospital	-9.39838
▁eye	-9.39847
▁review	-9.39926
▁practice	-9.40009
▁letter	-9.40025
side	-9.401
▁wouldn	-9.40188
▁truth	-9.40223
▁companies	-9.40243
▁eu	-9.40543
▁pretty	-9.40575
▁text	-9.40611
▁shot	-9.40686
▁ab	-9.4073
▁term	-9.40824
▁lower	-9.41025
▁questions	-9.41045
▁camp	-9.41076
▁technology	-9.41099
▁fun	-9.41174
▁author	-9.41195
▁events	-9.41237
▁allow	-9.41312
▁lives	-9.41346
▁seem	-9.41396
chi	-9.41459
▁results	-9.41488
▁sir	-9.41489
hr	-9.41495
▁included	-9.41514
▁op	-9.41534
▁tax	-9.41537
▁countries	-9.41605
mb	-9.41609
⁄	-9.41611
ek	-9.41613
end	-9.41746
▁situation	-9.41883
▁drive	-9.42004
▁industry	-9.42126
▁note	-9.42127
▁brother	-9.42136
▁europe	-9.42187
▁legal	-9.42243
▁sp	-9.4226
▁higher	-9.42267
▁usually	-9.42315
gi	-9.42327
▁album	-9.42454
▁:	-9.42613
▁master	-9.42633
▁football	-9.42639
▁eight	-9.42677
ă	-9.42843
▁parents	-9.4291
▁cor	-9.42938
ities	-9.42972
▁subject	-9.43004
▁sex	-9.43036
▁issues	-9.43237
▁fear	-9.43259
▁ball	-9.43293
▁terms	-9.43462
▁division	-9.43486
▁stage	-9.43528
▁sin	-9.43594
like	-9.43595
▁learn	-9.4361
bb	-9.43626
▁sch	-9.43828
▁heat	-9.43868
▁cause	-9.4405
▁beginning	-9.44061
born	-9.44204
ven	-9.44305
▁ready	-9.44313
▁difficult	-9.44363
▁command	-9.44382
lu	-9.4462
▁india	-9.44654
▁box	-9.44689
they	-9.44707
back	-9.44717
▁considered	-9.44767
ou	-9.44909
ile	-9.45027
ez	-9.45145
ig	-9.45195
▁russian	-9.45206
▁statement	-9.45302
▁###	-9.45506
▁port	-9.45548
ff	-9.45564
bar	-9.45664
▁han	-9.45761
fi	-9.45795
▁bi	-9.45911
▁official	-9.45934
har	-9.46081
▁involved	-9.4625
▁financial	-9.4626
lan	-9.46329
▁western	-9.46454
▁groups	-9.46597
▁via	-9.46604
▁england	-9.46622
ina	-9.46622
▁fast	-9.46702
▁shows	-9.46816
▁committee	-9.46927
▁track	-9.4699
▁performance	-9.47026
▁needs	-9.4714
▁medical	-9.47148
▁average	-9.47275
ville	-9.47532
▁leader	-9.47667
▁training	-9.47726
▁ri	-9.47733
▁feeling	-9.47745
▁spent	-9.47835
▁appeared	-9.4786
▁announced	-9.47952
ku	-9.4802
▁online	-9.48065
▁passed	-9.48084
▁lack	-9.48172
gar	-9.4823
gu	-9.48361
▁returned	-9.48402
▁professional	-9.48537
▁region	-9.48545
▁function	-9.4862
ship	-9.48622
▁nu	-9.48672
▁yes	-9.48883
▁talking	-9.48942
▁forces	-9.48944
pp	-9.48964
▁une	-9.4904
▁served	-9.49137
yes	-9.49163
▁/	-9.49259
▁wide	-9.49313
▁expected	-9.4937
▁problems	-9.49452
▁chi	-9.49515
▁pain	-9.49535
▁travel	-9.49559
▁michael	-9.49593
ji	-9.49642
ative	-9.49772
han	-9.49918
[	-9.49918
▁cast	-9.49934
ag	-9.50026
▁described	-9.50041
▁ban	-9.50106
▁dans	-9.50125
▁path	-9.50155
▁california	-9.50277
▁map	-9.50393
ial	-9.50416
▁justice	-9.50418
pi	-9.5057
ible	-9.50576
▁capital	-9.50792
▁twenty	-9.50961
▁mouth	-9.50977
▁consider	-9.51006
tes	-9.51006
▁wa	-9.51091
▁ship	-9.51158
▁credit	-9.51226
▁cha	-9.51255
▁sam	-9.51371
▁search	-9.51519
king	-9.51756
▁ga	-9.51903
▁specific	-9.52068
▁contact	-9.52078
▁visit	-9.5209
".	-9.52102
▁tv	-9.52218
▁changes	-9.52449
▁offer	-9.52455
▁william	-9.5247
▁throughout	-9.5247
▁impact	-9.52531
▁rose	-9.52541
▁rate	-9.52585
ud	-9.52606
▁vol	-9.52656
▁stone	-9.52685
▁goal	-9.52784
▁congress	-9.52846
▁reading	-9.5289
▁success	-9.52924
▁arms	-9.53021
▁ar	-9.53091
new	-9.53098
▁buy	-9.53183
▁fe	-9.53287
▁spring	-9.53356
▁complete	-9.53395
▁...	-9.5343
▁radio	-9.53505
uk	-9.53539
▁poor	-9.53587
▁ways	-9.53924
▁hour	-9.53975
▁worth	-9.54026
は	-9.54109
▁peter	-9.54128
▁immediately	-9.5416
▁allowed	-9.54243
▁amount	-9.54374
▁daughter	-9.54432
▁goes	-9.54434
▁prime	-9.54506
▁va	-9.54557
▁»	-9.54572
▁potential	-9.54807
▁mass	-9.54815
▁relationship	-9.54928
▁lake	-9.55031
▁association	-9.55032
▁wild	-9.55069
`	-9.55081
ical	-9.55097
su	-9.55191
▁sal	-9.55235
▁store	-9.55243
▁chinese	-9.55287
▁wood	-9.55322
▁tour	-9.5541
port	-9.55469
▁rep	-9.55508
▁wait	-9.55516
▁changed	-9.556
ada	-9.55677
▁section	-9.5569
▁article	-9.55728
tri	-9.55824
▁civil	-9.55827
▁closed	-9.55841
ns	-9.55874
▁sur	-9.55953
sch	-9.55958
ai	-9.56039
▁addition	-9.56062
▁cool	-9.56115
wi	-9.56124
▁knowledge	-9.56173
▁speed	-9.56211
van	-9.56269
▁>	-9.56298
▁speak	-9.56356
▁gi	-9.56364
",	-9.56382
▁administration	-9.56482
▁rich	-9.56526
▁previous	-9.56643
▁<	-9.56645
▁daily	-9.56771
▁ru	-9.56937
▁hotel	-9.5694
▁title	-9.56989
▁areas	-9.56995
▁happy	-9.57171
):	-9.57398
▁fresh	-9.57483
▁nation	-9.57501
ford	-9.57525
▁recently	-9.57527
▁skin	-9.57559
▁clean	-9.57639
▁stories	-9.57712
▁window	-9.57751
▁towards	-9.57769
field	-9.57795
net	-9.57801
ney	-9.57871
▁officer	-9.57909
cha	-9.57927
▁species	-9.57938
▁moving	-9.57975
iv	-9.58035
▁gu	-9.58037
▁yourself	-9.58059
:**	-9.58071
▁brain	-9.58131
▁fu	-9.58175
▁whom	-9.58208
▁organization	-9.5823
▁cases	-9.58257
▁slow	-9.58319
▁features	-9.58365
▁officials	-9.58475
ip	-9.586
▁double	-9.58654
▁trust	-9.58979
cy	-9.59061
▁fell	-9.59083
е	-9.59152
▁workers	-9.59229
ring	-9.593
▁increase	-9.59363
▁approach	-9.59374
kin	-9.59395
▁scene	-9.5942
▁royal	-9.59512
sta	-9.59541
▁kill	-9.59604
▁bra	-9.5962
len	-9.59671
▁meant	-9.59723
▁sl	-9.59784
▁hill	-9.59815
▁mal	-9.5985
ium	-9.59855
▁material	-9.59874
▁guy	-9.59923
▁ke	-9.6004
▁era	-9.60043
▁mu	-9.60044
▁takes	-9.60079
▁doubt	-9.60125
▁os	-9.60187
ec	-9.60283
▁bay	-9.60394
▁huge	-9.60437
▁det	-9.60438
cul	-9.60488
▁focus	-9.60535
sen	-9.60574
▁gas	-9.60586
▁mission	-9.60624
▁canada	-9.60739
▁photo	-9.60824
▁eventually	-9.60957
ru	-9.60963
▁husband	-9.60981
▁ice	-9.61038
▁vote	-9.61139
▁standard	-9.61206
▁google	-9.61264
▁whatever	-9.61272
▁straight	-9.61318
ow	-9.61347
over	-9.61405
ok	-9.61515
▁miles	-9.61549
pm	-9.61593
▁interview	-9.61635
▁leading	-9.61642
ey	-9.61648
▁standing	-9.61656
▁giving	-9.61722
▁zu	-9.61898
based	-9.61968
ists	-9.6209
▁piece	-9.62166
work	-9.62217
▁particularly	-9.62218
м	-9.62341
▁stock	-9.62402
▁sky	-9.62424
▁q	-9.62426
ju	-9.62471
▁sha	-9.62578
▁mit	-9.62613
ü	-9.62642
▁choice	-9.62669
▁в	-9.6268
▁miss	-9.62722
▁date	-9.62808
▁extra	-9.62833
▁please	-9.62884
▁happen	-9.62949
▁website	-9.62972
▁trans	-9.62992
▁write	-9.62997
▁corner	-9.63002
zi	-9.63023
▁completely	-9.63063
▁required	-9.63067
▁onto	-9.63079
▁send	-9.63173
▁sleep	-9.63229
▁salt	-9.63243
hu	-9.63266
▁located	-9.63495
▁dream	-9.63511
▁exactly	-9.63525
▁russia	-9.63604
▁reach	-9.63621
▁conference	-9.6369
▁host	-9.637
▁direct	-9.63755
fer	-9.63854
▁color	-9.63873
▁therefore	-9.63877
▁defense	-9.64169
т	-9.64207
bu	-9.64223
▁respect	-9.64225
▁chair	-9.64364
▁lay	-9.64489
▁ser	-9.64489
▁surface	-9.64502
ping	-9.64565
▁picture	-9.64648
▁certainly	-9.64801
▁currently	-9.64881
▁studies	-9.64883
▁centre	-9.64893
▁leaving	-9.649
▁manager	-9.65
▁stopped	-9.65012
vis	-9.65068
▁web	-9.65095
▁method	-9.65097
と	-9.65137
ev	-9.65149
▁begin	-9.65207
▁ben	-9.65228
pt	-9.65259
▁fla	-9.65394
▁screen	-9.65396
▁card	-9.65514
▁fit	-9.65538
я	-9.65616
▁fair	-9.65693
▁pen	-9.65728
▁imp	-9.65753
ker	-9.65754
▁sit	-9.65765
▁shall	-9.65767
▁foot	-9.65868
▁grow	-9.6593
▁mon	-9.65942
ding	-9.6595
▁meaning	-9.65982
▁cap	-9.66004
▁heavy	-9.66147
▁raised	-9.6616
▁fan	-9.66199
▁walked	-9.66212
▁email	-9.66218
▁ability	-9.66225
▁fat	-9.66327
▁trip	-9.66337
▁democratic	-9.6638
▁var	-9.66439
▁brand	-9.66448
▁dé	-9.66528
ee	-9.6673
▁investigation	-9.6675
▁train	-9.66775
▁beautiful	-9.66954
н	-9.66977
▁indeed	-9.67008
istic	-9.67054
▁effort	-9.67076
▁ahead	-9.67151
▁safe	-9.6716
ub	-9.67167
elle	-9.67216
▁za	-9.67368
▁provided	-9.67376
▁message	-9.67433
ious	-9.67566
▁pulled	-9.67679
▁uk	-9.67851
▁significant	-9.67993
pre	-9.68003
▁expect	-9.68028
▁dog	-9.68122
rd	-9.68166
▁necessary	-9.68187
▁square	-9.68274
▁hundred	-9.68393
ius	-9.68459
▁las	-9.68461
▁bridge	-9.68484
▁collection	-9.68513
▁ii	-9.68536
▁mor	-9.68666
▁file	-9.68828
house	-9.68875
▁save	-9.68883
tal	-9.68976
▁billion	-9.68977
▁facebook	-9.69061
ν	-9.69133
ator	-9.69202
▁museum	-9.69394
nes	-9.69515
ure	-9.69542
ology	-9.69974
▁serious	-9.69981
ik	-9.70101
nu	-9.70113
ita	-9.70163
▁bowl	-9.70165
▁looks	-9.70194
▁mac	-9.70201
ward	-9.70205
▁weight	-9.70228
▁independent	-9.70236
▁gar	-9.70258
▁thomas	-9.70396
▁trouble	-9.70477
ened	-9.70557
▁systems	-9.70582
▁exchange	-9.70602
▁student	-9.70804
▁pressure	-9.70817
▁twitter	-9.70831
▁eat	-9.70843
war	-9.70901
▁indian	-9.70933
▁serve	-9.70938
▁fra	-9.7099
▁theory	-9.71015
▁growth	-9.71052
▁dan	-9.71105
▁ad	-9.71106
▁management	-9.71124
nie	-9.71309
▁directly	-9.71329
▁sc	-9.71367
▁physical	-9.71398
af	-9.71402
▁television	-9.71436
▁paris	-9.71539
cing	-9.71602
▁roman	-9.71677
ot	-9.71745
lic	-9.71759
▁places	-9.71807
▁peace	-9.7186
▁suddenly	-9.71956
▁holding	-9.72032
▁property	-9.72036
▁waiting	-9.72058
▁complex	-9.7209
ov	-9.72106
▁block	-9.7211
▁min	-9.72183
▁cell	-9.72217
▁breath	-9.72261
▁lines	-9.72317
▁;	-9.72322
izing	-9.72338
▁environment	-9.72346
val	-9.7235
iz	-9.72478
▁glass	-9.72537
▁perfect	-9.72584
▁growing	-9.72654
▁professor	-9.72686
▁dar	-9.72697
ide	-9.72707
▁religious	-9.72709
▁related	-9.72716
▁rise	-9.72724
ned	-9.72771
▁influence	-9.72821
▁southern	-9.72918
▁established	-9.72942
▁rules	-9.73039
▁forest	-9.73041
▁ch	-9.73125
▁touch	-9.73127
▁starting	-9.73189
▁`	-9.73244
▁produced	-9.73444
▁quality	-9.73456
▁obama	-9.73497
▁nice	-9.73608
tin	-9.73628
▁charles	-9.73645
▁cook	-9.73682
om	-9.7372
get	-9.73752
rie	-9.73766
▁tri	-9.73798
▁smile	-9.7381
="	-9.73813
ade	-9.73816
ries	-9.73825
▁caught	-9.73826
▁edge	-9.73879
▁ram	-9.73902
▁sweet	-9.73923
▁images	-9.73934
▁showed	-9.74065
▁med	-9.74082
▁senior	-9.74164
▁smith	-9.7417
▁tar	-9.74257
▁paid	-9.74282
▁married	-9.74284
▁quick	-9.74325
▁lived	-9.74326
▁developed	-9.74338
▁germany	-9.74397
▁spoke	-9.74436
▁executive	-9.74509
▁product	-9.74533
▁bu	-9.7466
▁numbers	-9.74809
▁structure	-9.74838
▁mine	-9.74871
ett	-9.7495
▁israel	-9.75006
▁contract	-9.75049
board	-9.75171
▁treatment	-9.75279
▁count	-9.75396
▁protect	-9.75425
▁plant	-9.75438
wood	-9.75495
ice	-9.75601
▁object	-9.75602
▁charge	-9.75626
▁records	-9.75676
▁doctor	-9.75686
▁internet	-9.75692
▁col	-9.75751
▁ku	-9.75857
▁mad	-9.75892
▁plans	-9.75961
▁kids	-9.76008
▁judge	-9.76097
▁cent	-9.76155
▁remain	-9.76291
▁address	-9.76334
bre	-9.76392
▁australia	-9.76445
▁clearly	-9.76476
bra	-9.76481
▁ze	-9.76495
ph	-9.76499
ς	-9.76601
в	-9.76659
rk	-9.76685
use	-9.7673
▁reality	-9.76748
ens	-9.76769
ations	-9.76801
▁www	-9.76827
▁conditions	-9.76843
▁drop	-9.7691
▁row	-9.76926
▁{	-9.7693
▁freedom	-9.76931
▁wine	-9.76968
▁republican	-9.77052
del	-9.77068
▁beat	-9.77141
▁northern	-9.77211
▁border	-9.77224
ving	-9.77278
▁wish	-9.77283
▁length	-9.77321
▁join	-9.77503
▁baby	-9.77533
▁joined	-9.77538
▁tree	-9.77547
▁designed	-9.77559
▁spread	-9.77595
▁easily	-9.77604
▁lady	-9.77639
▁soft	-9.77667
▁helped	-9.77784
▁behavior	-9.77841
▁coach	-9.77912
▁reports	-9.77922
▁pu	-9.77935
▁politics	-9.7794
▁christian	-9.78016
ido	-9.78039
▁details	-9.78041
▁och	-9.78074
▁sunday	-9.78078
▁parts	-9.78086
▁appear	-9.78104
▁fish	-9.78122
▁offered	-9.78202
▁rule	-9.78229
▁jack	-9.78285
▁warm	-9.78287
▁hell	-9.78292
▁powerful	-9.78376
▁guard	-9.78383
▁avoid	-9.78389
▁economy	-9.78401
▁trail	-9.78404
▁forced	-9.78457
▁produce	-9.78484
▁direction	-9.78498
▁apple	-9.78501
▁families	-9.78508
▁remained	-9.78568
い	-9.78573
▁expression	-9.78589
▁regular	-9.78698
ble	-9.78756
▁pop	-9.7877
press	-9.78878
▁vo	-9.78917
point	-9.78983
▁thank	-9.78995
▁award	-9.79032
▁arrived	-9.79083
▁opportunity	-9.7909
▁leaders	-9.79111
ura	-9.79195
ix	-9.79208
ben	-9.79248
▁von	-9.79287
▁friday	-9.79304
ا	-9.79337
▁hadn	-9.79357
▁female	-9.79361
▁sister	-9.79388
▁captain	-9.79425
▁loss	-9.79434
▁normal	-9.79573
ably	-9.79619
▁counter	-9.79625
▁cat	-9.79678
▁pi	-9.7968
▁ring	-9.79709
▁ré	-9.7973
+	-9.79734
▁rain	-9.79735
▁traditional	-9.79775
▁evening	-9.79815
▁quarter	-9.79815
▁basic	-9.79818
▁bright	-9.79885
▁remains	-9.79908
zo	-9.79928
▁greater	-9.80053
▁av	-9.80056
ella	-9.80061
▁memory	-9.80173
▁sitting	-9.80202
р	-9.80231
▁computer	-9.80253
▁girls	-9.80253
vin	-9.80291
▁products	-9.8038
▁snow	-9.80414
▁multiple	-9.80447
▁movie	-9.80488
▁additional	-9.80609
▁richard	-9.8064
www	-9.8067
form	-9.80735
ea	-9.80758
▁finished	-9.8078
▁limited	-9.80787
▁coast	-9.80788
|	-9.80794
▁opening	-9.80805
▁sold	-9.8082
ria	-9.80951
▁none	-9.8101
▁sexual	-9.81037
▁mary	-9.81054
▁crowd	-9.81081
▁learned	-9.81137
▁except	-9.81159
▁notes	-9.81229
▁martin	-9.81247
з	-9.81285
▁multi	-9.81314
▁positive	-9.81318
с	-9.81326
▁foundation	-9.81343
ren	-9.81356
▁officers	-9.81446
▁queen	-9.81452
▁crime	-9.81527
sha	-9.81555
▁pair	-9.81556
▁distance	-9.81674
▁wi	-9.81732
▁shown	-9.82054
▁analysis	-9.82128
ified	-9.82209
▁teams	-9.82249
▁seat	-9.82322
▁believed	-9.82324
▁winter	-9.82354
▁soul	-9.82359
▁challenge	-9.8243
▁firm	-9.82513
▁male	-9.82531
▁sta	-9.82612
berg	-9.82635
▁intelligence	-9.82637
▁attempt	-9.82653
▁shape	-9.82681
▁difference	-9.82691
tz	-9.82706
book	-9.8271
▁agreement	-9.82813
▁frank	-9.82837
▁secretary	-9.82876
cc	-9.83026
cho	-9.83031
▁agency	-9.8304
▁pat	-9.83056
ming	-9.83061
ée	-9.83125
▁safety	-9.83129
▁fo	-9.8314
▁claim	-9.83193
ö	-9.83256
▁violence	-9.83284
▁ya	-9.83301
des	-9.83315
▁murder	-9.83372
▁sugar	-9.83395
cer	-9.83398
▁spot	-9.8341
▁users	-9.83414
▁speech	-9.83541
cher	-9.83545
で	-9.83545
ari	-9.83627
▁cal	-9.83688
ino	-9.83737
ire	-9.83759
な	-9.8377
▁damage	-9.83771
▁bottom	-9.83797
ste	-9.83819
dis	-9.83851
▁climate	-9.83854
▁seeing	-9.83939
▁route	-9.84122
▁cur	-9.84149
ell	-9.84196
▁bus	-9.84246
▁failed	-9.84263
▁condition	-9.84282
▁+	-9.84406
▁flight	-9.84437
▁journal	-9.84464
▁receive	-9.84522
mm	-9.84542
▁dry	-9.8459
row	-9.84608
with	-9.84692
▁interesting	-9.84698
▁machine	-9.84725
▁unit	-9.84791
▁christ	-9.8484
▁stuff	-9.84874
era	-9.84899
▁choose	-9.84986
▁critical	-9.85041
who	-9.85134
▁garden	-9.85259
▁sports	-9.85276
▁marriage	-9.85301
par	-9.85321
▁americans	-9.85359
▁majority	-9.85402
▁purpose	-9.85437
▁sell	-9.85437
▁horse	-9.85438
▁institute	-9.85505
▁draw	-9.85565
▁understanding	-9.85568
tte	-9.85603
gan	-9.85686
▁stick	-9.85774
▁tend	-9.85857
▁farm	-9.85915
ー	-9.85951
▁cla	-9.86013
▁mountain	-9.86053
▁nine	-9.86057
▁monday	-9.86064
▁drug	-9.86169
▁library	-9.86205
▁associated	-9.8621
ong	-9.86211
▁moral	-9.86222
app	-9.86246
▁includes	-9.86295
▁roll	-9.8641
▁notice	-9.86476
▁som	-9.86526
▁hurt	-9.86682
▁birth	-9.86694
▁commission	-9.86697
▁placed	-9.86723
uff	-9.86746
▁reform	-9.86777
—"	-9.86849
▁magazine	-9.87123
set	-9.872
▁cre	-9.87303
ging	-9.87315
▁labor	-9.87378
ρ	-9.87382
▁tre	-9.87451
light	-9.87455
▁debate	-9.87568
▁till	-9.8757
▁carried	-9.87727
▁click	-9.87948
▁older	-9.88008
▁incident	-9.88015
▁levels	-9.88174
▁ideas	-9.88234
▁slowly	-9.88237
▁cultural	-9.88248
ré	-9.88273
fo	-9.88338
▁novel	-9.8837
▁japan	-9.88409
▁flat	-9.88571
▁ancient	-9.88618
down	-9.88648
▁sand	-9.88657
tan	-9.8868
ı	-9.88762
▁agreed	-9.88811
▁om	-9.88848
▁honor	-9.88884
▁sight	-9.8898
▁enjoy	-9.88986
▁larger	-9.89009
▁appears	-9.89016
▁comment	-9.89089
▁iron	-9.89093
dic	-9.89148
▁bur	-9.8916
▁conflict	-9.89212
▁display	-9.89247
▁bat	-9.89253
od	-9.89332
▁strength	-9.8942
▁primary	-9.89439
▁wants	-9.89449
▁increased	-9.89459
▁watching	-9.89468
▁learning	-9.89501
▁enter	-9.89551
ute	-9.89565
▁successful	-9.89593
▁henry	-9.89629
▁spirit	-9.8966
▁audience	-9.89709
bel	-9.89781
▁japanese	-9.89841
▁construction	-9.89923
▁disease	-9.90061
gue	-9.90069
nce	-9.90218
▁clinton	-9.90228
▁status	-9.90243
▁fer	-9.90289
une	-9.90357
int	-9.9036
tar	-9.90387
▁fighting	-9.90441
▁famous	-9.90452
▁criminal	-9.90478
ни	-9.90489
mate	-9.90496
▁generally	-9.90545
ug	-9.9061
▁ein	-9.90697
▁african	-9.90712
▁effects	-9.90742
av	-9.90827
▁instance	-9.90843
▁signed	-9.90876
▁worse	-9.90892
▁windows	-9.91031
play	-9.91136
té	-9.91193
▁hat	-9.91198
▁largest	-9.91268
&	-9.9127
▁pot	-9.9127
▁digital	-9.91329
▁thick	-9.91333
▁ti	-9.91338
▁user	-9.91403
▁pin	-9.91497
▁vision	-9.91535
ía	-9.91629
▁um	-9.917
▁ended	-9.91704
ification	-9.91755
sk	-9.91848
▁cro	-9.91881
mann	-9.91975
ery	-9.91993
org	-9.92184
▁texas	-9.92215
*	-9.92221
▁covered	-9.92245
▁lose	-9.92248
▁mag	-9.92264
tter	-9.9236
▁beach	-9.92392
▁flow	-9.92435
▁prison	-9.92512
▁bell	-9.92558
к	-9.92623
▁taste	-9.92643
▁resources	-9.92686
▁presence	-9.92734
sion	-9.9298
▁spend	-9.93005
▁senate	-9.93107
▁strange	-9.93213
▁caption	-9.93223
▁guess	-9.93231
when	-9.93259
why	-9.93293
ā	-9.93311
▁fully	-9.93348
▁prevent	-9.9339
act	-9.93473
▁silver	-9.93516
▁lie	-9.93573
▁valley	-9.93577
▁efforts	-9.93577
▁feature	-9.93585
some	-9.93615
▁caused	-9.93635
▁conversation	-9.93639
ult	-9.93693
▁@	-9.93768
▁donald	-9.93796
▁activity	-9.93804
gg	-9.93813
▁tea	-9.93849
▁wo	-9.93913
hl	-9.93947
▁names	-9.93947
und	-9.93986
▁watched	-9.9413
▁location	-9.94141
art	-9.94141
▁protection	-9.94213
▁bag	-9.94247
▁das	-9.94263
▁pra	-9.94275
▁express	-9.9433
▁på	-9.94419
▁fellow	-9.94419
▁fans	-9.94454
▁investment	-9.94477
▁schools	-9.94502
▁unique	-9.94578
▁tuesday	-9.9482
tain	-9.94905
▁desire	-9.94928
▁bre	-9.94931
▁|-	-9.9498
▁religion	-9.94993
но	-9.95212
▁lee	-9.95259
cre	-9.95309
die	-9.95316
▁suit	-9.95364
chen	-9.95377
ep	-9.95412
▁animal	-9.95465
▁core	-9.95525
▁link	-9.95537
▁joe	-9.9554
▁steps	-9.95546
▁task	-9.95571
▁liberal	-9.95571
ы	-9.95645
eg	-9.95653
mit	-9.95747
pping	-9.95768
▁africa	-9.95775
▁overall	-9.95795
▁italian	-9.9581
▁activities	-9.95894
▁haven	-9.95919
▁fl	-9.95942
▁trees	-9.95955
▁lock	-9.95983
▁soldiers	-9.96043
▁highly	-9.9607
mos	-9.96089
▁leaves	-9.96111
▁income	-9.96147
à	-9.96159
▁governor	-9.96175
▁val	-9.96191
▁wonder	-9.96202
▁prior	-9.96219
▁kitchen	-9.96379
▁cities	-9.964
▁thousands	-9.9643
▁competition	-9.96486
▁pull	-9.96547
▁previously	-9.96553
▁artist	-9.96621
▁}	-9.96685
▁operations	-9.96685
▁auto	-9.96811
ien	-9.96827
▁catch	-9.96937
»	-9.97
▁mrs	-9.97023
▁speaking	-9.97216
▁managed	-9.97234
▁commercial	-9.97286
▁minute	-9.97313
▁broken	-9.97333
▁advantage	-9.97339
▁editor	-9.9741
▁appeal	-9.97424
▁sales	-9.97434
▁gives	-9.97457
ration	-9.97495
▁leg	-9.97521
ture	-9.97529
▁demand	-9.97546
▁active	-9.97603
▁neither	-9.97636
▁slightly	-9.97637
▁operation	-9.97641
ité	-9.9767
▁target	-9.97672
▁latest	-9.97774
▁fruit	-9.9781
▁reasons	-9.97815
▁prop	-9.97823
▁magic	-9.97864
▁gain	-9.97895
▁native	-9.97941
▁ou	-9.98002
▁calls	-9.98004
▁thursday	-9.9802
▁background	-9.98077
▁becoming	-9.98101
▁pp	-9.98152
▁oh	-9.98278
▁claims	-9.98332
й	-9.98348
▁saturday	-9.98365
▁accept	-9.98431
▁progress	-9.98462
ability	-9.9853
cal	-9.98539
▁metal	-9.98574
▁fourth	-9.98584
▁separate	-9.9867
▁laws	-9.98841
▁broad	-9.98865
▁explained	-9.98888
gged	-9.98927
ris	-9.9896
▁authority	-9.9903
▁nodded	-9.99053
▁canadian	-9.99117
▁aren	-9.99152
ini	-9.99167
▁calling	-9.99184
▁agree	-9.99194
è	-9.99213
ue	-9.99262
ions	-9.99313
cia	-9.99351
gra	-9.99415
▁saint	-9.9944
lie	-9.99448
eur	-9.99527
▁ensure	-9.99531
▁mais	-9.99534
▁eastern	-9.99584
stone	-9.99686
▁ki	-9.99711
▁shared	-9.99775
▁alternative	-9.9978
▁push	-9.99794
$	-9.99826
sis	-9.99829
head	-9.99866
just	-9.99867
▁drink	-9.99869
▁bal	-9.9988
▁mostly	-9.99923
▁sources	-9.99945
▁revolution	-9.99949
▁imagine	-9.99981
▁telling	-10.0001
▁thousand	-10.0006
uch	-10.0019
▁writer	-10.0038
▁guide	-10.006
▁til	-10.0061
▁tall	-10.0072
ique	-10.0074
ane	-10.0077
▁crisis	-10.0077
▁carry	-10.008
▁shop	-10.0082
▁festival	-10.0088
д	-10.0089
ual	-10.0094
nk	-10.0104
▁platform	-10.0105
▁characters	-10.0106
gy	-10.0109
ра	-10.0113
▁filled	-10.0113
now	-10.0122
▁individuals	-10.0124
▁dropped	-10.0126
▁wednesday	-10.0128
▁boys	-10.0132
▁sie	-10.0136
▁blow	-10.0145
▁shoulder	-10.0159
star	-10.0159
▁ph	-10.0163
▁animals	-10.0166
lor	-10.0168
▁draft	-10.0171
▁exercise	-10.0173
▁prince	-10.018
▁edition	-10.0182
▁claimed	-10.0182
▁coffee	-10.0189
az	-10.0191
hal	-10.0192
med	-10.0197
▁walking	-10.0199
▁poll	-10.0211
▁supposed	-10.0214
▁option	-10.0218
bro	-10.022
▁pur	-10.0221
nic	-10.0226
▁volume	-10.023
▁britain	-10.0231
▁thanks	-10.0238
▁bomb	-10.0238
which	-10.0239
▁storm	-10.0242
ara	-10.0248
ava	-10.0251
▁actual	-10.0251
▁application	-10.0252
▁discovered	-10.0254
▁mix	-10.0262
ky	-10.0262
zy	-10.0272
▁ham	-10.0272
▁crew	-10.0279
lia	-10.0279
▁tr	-10.028
▁strike	-10.028
▁faith	-10.0287
▁favorite	-10.029
▁listen	-10.0292
non	-10.0293
dr	-10.0298
▁survey	-10.03
▁context	-10.0306
▁attorney	-10.0313
▁software	-10.0316
ли	-10.0318
dan	-10.0321
ette	-10.0322
}	-10.0323
▁explain	-10.0325
▁creating	-10.0332
▁dance	-10.0334
mu	-10.0334
serv	-10.0339
▁brief	-10.0348
hn	-10.0349
▁championship	-10.0357
▁episode	-10.0357
ida	-10.0358
▁exist	-10.0359
▁scale	-10.036
▁jan	-10.0365
▁enemy	-10.0365
illa	-10.0367
▁aid	-10.0373
▁gra	-10.0376
ski	-10.0378
▁greek	-10.0378
▁chicago	-10.0384
▁jean	-10.0386
▁grew	-10.0398
ima	-10.04
rich	-10.0406
▁tower	-10.0416
▁dem	-10.042
▁bow	-10.0423
▁actions	-10.0429
▁meat	-10.0431
▁thin	-10.0432
▁moon	-10.0433
ér	-10.0434
ement	-10.0443
▁####	-10.0449
▁compared	-10.0449
▁loved	-10.0458
▁historical	-10.0462
▁turning	-10.0462
▁suggested	-10.047
â	-10.0473
▁chain	-10.0476
air	-10.048
▁remove	-10.0482
lon	-10.0484
▁advance	-10.0492
gel	-10.0494
▁trial	-10.0494
▁australian	-10.0497
shi	-10.0511
xi	-10.0516
long	-10.0524
▁degree	-10.0524
ments	-10.0527
▁planet	-10.0527
▁familiar	-10.0529
▁threat	-10.0533
bri	-10.0536
hand	-10.0536
▁chest	-10.0537
▁reduce	-10.0539
▁silence	-10.0542
ica	-10.0546
▁rev	-10.0549
mal	-10.0554
▁aware	-10.0555
▁hearing	-10.0556
▁mental	-10.0561
gram	-10.0568
▁setting	-10.057
▁temple	-10.0572
▁grant	-10.0583
▁cash	-10.0591
ل	-10.0608
▁asking	-10.0608
ン	-10.0617
▁launch	-10.0623
▁weak	-10.0624
▁gets	-10.0635
▁ny	-10.0645
▁serving	-10.0646
▁micro	-10.0649
▁kingdom	-10.0657
low	-10.0658
▁values	-10.0659
▁youth	-10.0676
▁otherwise	-10.0676
▁ref	-10.0678
▁mer	-10.0678
▁province	-10.068
▁mention	-10.0684
take	-10.0702
▁apart	-10.0713
▁becomes	-10.0716
▁mas	-10.0721
cu	-10.0722
▁develop	-10.0728
▁basis	-10.073
▁по	-10.0735
▁partner	-10.0736
▁burn	-10.0736
ient	-10.0739
▁types	-10.074
fully	-10.074
▁dangerous	-10.0745
▁dinner	-10.0749
▁closer	-10.0756
▁victory	-10.0759
▁limit	-10.0765
▁goals	-10.0767
ata	-10.0773
▁attacks	-10.0777
▁pieces	-10.0777
▁initial	-10.0778
▁transfer	-10.0779
▁ci	-10.0784
los	-10.0789
lar	-10.0795
▁mode	-10.0799
▁entirely	-10.08
▁fill	-10.0804
▁parties	-10.0806
▁smoke	-10.0807
▁fingers	-10.081
▁surprise	-10.0814
▁request	-10.0814
eu	-10.0815
dra	-10.0815
yn	-10.0818
ties	-10.082
mes	-10.0825
る	-10.0831
▁opinion	-10.0835
▁afternoon	-10.0836
▁responsible	-10.0837
.**	-10.0838
▁johnson	-10.0849
▁noted	-10.0851
ised	-10.0851
▁с	-10.0852
▁concept	-10.0853
cker	-10.0859
▁neck	-10.0859
▁realized	-10.0865
▁flash	-10.087
top	-10.088
▁formed	-10.088
▁raise	-10.0884
▁vice	-10.0884
▁og	-10.0886
▁tip	-10.0887
ola	-10.0887
л	-10.0889
▁budget	-10.0894
{	-10.0895
▁benefit	-10.0896
▁biggest	-10.0897
ale	-10.09
rin	-10.0905
▁entered	-10.0909
▁narrow	-10.0912
▁jobs	-10.0912
wing	-10.0913
▁highest	-10.0913
▁shut	-10.0919
▁cancer	-10.0919
▁bear	-10.0934
▁gen	-10.0937
▁failure	-10.0939
▁jewish	-10.0942
▁empty	-10.0958
▁interested	-10.0961
▁forms	-10.0965
nc	-10.0967
▁ger	-10.0972
▁keeping	-10.0978
▁provides	-10.0982
▁score	-10.0985
▁arch	-10.0986
▁hy	-10.0987
met	-10.0989
▁print	-10.099
ched	-10.0991
▁transport	-10.0994
▁quiet	-10.0998
▁finding	-10.1
α	-10.1005
▁seek	-10.1007
ani	-10.1011
▁protest	-10.1013
▁troops	-10.1013
▁jesus	-10.1019
▁introduced	-10.1022
▁weapons	-10.1029
▁correct	-10.1031
class	-10.1031
▁elements	-10.1044
rick	-10.1053
▁como	-10.1059
▁shook	-10.1059
▁milk	-10.1065
▁pepper	-10.1066
▁recorded	-10.1067
ign	-10.1069
cut	-10.1071
▁argument	-10.1072
▁favor	-10.1081
▁yellow	-10.1084
▁fox	-10.109
▁nuclear	-10.1092
▁adding	-10.1093
▁variety	-10.1096
▁democrats	-10.1096
▁smiled	-10.1104
▁impossible	-10.1104
▁guys	-10.1112
▁sharp	-10.1116
▁bio	-10.1123
term	-10.1129
▁на	-10.1131
sky	-10.1133
ks	-10.1138
▁label	-10.1139
し	-10.1148
ο	-10.1151
ción	-10.1153
▁weather	-10.1157
▁smart	-10.1157
▁motion	-10.1161
▁nations	-10.117
▁empire	-10.1171
ay	-10.1171
▁worry	-10.1175
sp	-10.1176
▁shooting	-10.1181
fr	-10.1183
▁camera	-10.1184
▁originally	-10.1185
town	-10.1196
room	-10.1197
cent	-10.1197
more	-10.1206
▁conduct	-10.1214
ants	-10.1214
ological	-10.1215
▁prepared	-10.1227
▁decades	-10.1228
▁align	-10.1231
▁appearance	-10.1235
▁mike	-10.1237
▁yu	-10.1238
▁solution	-10.1238
▁broke	-10.1242
▁mentioned	-10.1243
▁patients	-10.1244
▁knows	-10.125
▁fuel	-10.1258
▁planning	-10.1263
▁picked	-10.1263
ala	-10.1264
▁letters	-10.1264
▁mayor	-10.1265
▁smaller	-10.1267
▁offers	-10.127
▁wear	-10.1271
uri	-10.1272
ons	-10.1273
ern	-10.1279
▁pointed	-10.128
▁medium	-10.1281
ati	-10.1282
▁golden	-10.1283
▁costs	-10.1284
▁decide	-10.1284
part	-10.1286
▁annual	-10.1287
▁strategy	-10.1287
▁effective	-10.1288
▁studio	-10.1292
ва	-10.1319
▁traffic	-10.1333
▁struggle	-10.1334
▁net	-10.1335
win	-10.1342
▁string	-10.1344
▁zi	-10.1346
▁plate	-10.1346
ese	-10.1358
▁affect	-10.1361
▁boat	-10.1361
▁walls	-10.1362
ition	-10.1367
▁leadership	-10.1379
cur	-10.1379
▁gr	-10.1385
▁bush	-10.1386
▁dad	-10.139
▁ride	-10.1395
▁mat	-10.1397
▁för	-10.1401
▁supply	-10.1403
▁soviet	-10.1406
▁airport	-10.1421
▁sorry	-10.1426
▁generation	-10.1427
▁remaining	-10.1427
▁revealed	-10.1428
▁reaction	-10.143
▁concerned	-10.1431
▁gal	-10.1439
▁legs	-10.1446
vy	-10.1447
▁cra	-10.1449
▁weekend	-10.1451
▁authorities	-10.1451
pr	-10.1454
")	-10.1454
▁solid	-10.1458
ces	-10.1462
▁views	-10.1468
▁abuse	-10.1468
vent	-10.1469
▁km	-10.1471
▁thirty	-10.1471
▁projects	-10.1473
ula	-10.1477
aries	-10.1478
kh	-10.1481
ath	-10.1481
▁agent	-10.1483
vol	-10.1486
▁pack	-10.1487
var	-10.1487
▁handle	-10.1488
▁manner	-10.149
å	-10.15
▁journey	-10.1514
dia	-10.1518
▁connection	-10.1527
▁identity	-10.1529
▁mill	-10.153
col	-10.1531
▁mom	-10.1532
▁ocean	-10.1533
▁bull	-10.1533
▁concern	-10.1541
▁removed	-10.1544
▁restaurant	-10.1546
▁cream	-10.1547
ê	-10.1547
▁candidate	-10.1559
cor	-10.1559
▁driver	-10.1568
▁stream	-10.1571
ded	-10.1579
lich	-10.1582
▁yo	-10.1587
▁equal	-10.159
ball	-10.159
▁programs	-10.1593
▁frame	-10.16
▁comments	-10.1604
cus	-10.1615
▁harm	-10.1617
▁edward	-10.1617
▁putting	-10.162
▁internal	-10.1621
▁catholic	-10.1635
ges	-10.1638
mic	-10.1641
▁lui	-10.1642
▁pool	-10.1644
ich	-10.1646
ano	-10.165
▁tight	-10.1651
▁zone	-10.1653
▁presidential	-10.1657
▁twice	-10.1659
▁massive	-10.166
▁songs	-10.1661
▁wheel	-10.1662
▁showing	-10.1662
▁useful	-10.1664
▁aim	-10.1664
mat	-10.1665
▁killing	-10.1665
▁bond	-10.167
▁negative	-10.1672
▁ap	-10.1673
ob	-10.1673
▁options	-10.1676
▁citizens	-10.1676
▁stars	-10.1679
▁sen	-10.1679
law	-10.1686
▁rec	-10.1686
▁wave	-10.1687
án	-10.1693
▁sad	-10.1695
▁allows	-10.1696
▁unless	-10.1698
▁device	-10.17
ord	-10.1703
▁fund	-10.1703
▁customers	-10.1704
▁steel	-10.1707
▁height	-10.1713
▁runs	-10.1717
▁false	-10.1718
▁chicken	-10.1719
▁opposition	-10.1721
▁и	-10.1724
і	-10.1729
▁auf	-10.1731
и	-10.1745
▁bri	-10.175
rate	-10.1751
▁louis	-10.1754
▁upper	-10.1756
ille	-10.176
▁origin	-10.176
▁reflect	-10.1765
lla	-10.1766
▁fri	-10.1767
▁plane	-10.1769
▁sick	-10.1771
▁finish	-10.1772
▁peak	-10.1773
▁supreme	-10.1774
▁reference	-10.1776
sur	-10.1781
bert	-10.1781
▁missing	-10.1784
ito	-10.1785
▁bro	-10.1785
▁apparently	-10.1792
zu	-10.1794
▁channel	-10.1797
qu	-10.1798
▁improve	-10.1809
vert	-10.181
▁iran	-10.1815
▁£	-10.1815
ye	-10.1816
rt	-10.1818
▁florida	-10.1818
▁wearing	-10.1826
▁communities	-10.1829
▁balance	-10.183
▁throw	-10.1836
▁dev	-10.1852
▁fly	-10.1852
▁truly	-10.1856
▁stra	-10.1861
ي	-10.1862
▁mexico	-10.1864
zer	-10.1866
ory	-10.1867
aw	-10.1874
▁relations	-10.188
cle	-10.1882
▁replied	-10.1888
▁smell	-10.1888
か	-10.1889
▁virginia	-10.1889
▁bodies	-10.1895
▁angeles	-10.1895
▁conservative	-10.1904
▁planned	-10.1908
▁scientific	-10.191
wan	-10.1912
▁butter	-10.1914
hy	-10.1914
▁shift	-10.1931
ante	-10.1931
pen	-10.1932
▁anyway	-10.1934
▁require	-10.1938
ric	-10.1941
br	-10.1944
▁smooth	-10.1948
▁pocket	-10.1953
pu	-10.1954
▁sides	-10.1954
▁continues	-10.1954
▁commander	-10.1962
▁danger	-10.1964
▁sh	-10.1967
list	-10.1972
mas	-10.1976
fu	-10.1976
rus	-10.1986
▁completed	-10.2
▁elected	-10.2003
▁discussion	-10.2005
▁spanish	-10.2007
▁kid	-10.2008
▁measure	-10.2014
free	-10.2014
▁ordered	-10.2016
water	-10.2016
▁republic	-10.2031
▁labour	-10.2037
▁log	-10.2045
▁prove	-10.2047
▁cop	-10.2048
▁classic	-10.2052
▁escape	-10.2053
▁pushed	-10.2056
bit	-10.2069
ros	-10.2073
▁patient	-10.2078
sive	-10.2081
▁etc	-10.2086
▁ideal	-10.2099
▁sum	-10.2105
▁jones	-10.2105
▁driving	-10.2114
▁(@	-10.2122
▁sk	-10.2124
put	-10.2124
▁ste	-10.2132
ε	-10.2133
▁description	-10.2136
▁launched	-10.2136
▁joseph	-10.2143
arm	-10.2147
log	-10.2148
▁plain	-10.2149
▁refer	-10.215
▁happens	-10.2155
▁comme	-10.216
pl	-10.2162
▁cheese	-10.2177
ato	-10.2185
tur	-10.2188
ency	-10.2189
▁adult	-10.219
ر	-10.2191
▁alive	-10.2191
▁joint	-10.2192
lig	-10.2193
▁knowing	-10.2198
uring	-10.2198
▁cho	-10.2201
▁aside	-10.2208
▁tiny	-10.2209
▁drew	-10.2218
▁gay	-10.222
▁daniel	-10.2221
▁benefits	-10.2222
▁environmental	-10.2225
▁motor	-10.2232
▁offering	-10.2233
▁senator	-10.2237
▁shi	-10.2238
▁mount	-10.2256
mor	-10.2262
▁presented	-10.2268
ple	-10.2272
▁plot	-10.2275
▁winning	-10.2278
▁angel	-10.2282
▁dress	-10.2291
▁lit	-10.2293
▁signal	-10.2296
▁chris	-10.2297
american	-10.2318
▁engine	-10.2318
▁apartment	-10.2328
▁gray	-10.233
▁respond	-10.2334
▁easier	-10.2336
▁intended	-10.234
▁att	-10.2347
▁uses	-10.2354
yl	-10.2354
lle	-10.2355
uck	-10.2356
▁directed	-10.2357
▁vast	-10.2361
▁elle	-10.2363
▁panel	-10.2363
▁split	-10.2372
▁cam	-10.2375
▁worst	-10.2377
▁tro	-10.2377
▁proposed	-10.2383
▁scott	-10.2396
@	-10.2397
zen	-10.2397
dig	-10.2399
state	-10.24
ama	-10.2401
▁kan	-10.2404
▁visual	-10.2408
did	-10.2409
▁employees	-10.2411
▁matt	-10.2414
fall	-10.242
▁understood	-10.242
lum	-10.242
▁parliament	-10.242
▁char	-10.2425
lt	-10.2427
▁beside	-10.2432
▁mus	-10.2436
▁treat	-10.2441
▁afraid	-10.2443
ø	-10.2443
▁mobile	-10.2445
▁obvious	-10.2446
▁sounds	-10.2451
under	-10.246
▁debut	-10.2462
▁maintain	-10.2462
▁pr	-10.247
▁mut	-10.247
ged	-10.2477
▁lips	-10.2478
」	-10.2482
ux	-10.2487
о	-10.2488
▁package	-10.2498
▁regional	-10.2503
▁gro	-10.2503
clu	-10.2512
▁hundreds	-10.2513
▁hate	-10.2516
ira	-10.2517
▁reg	-10.252
▁passage	-10.2525
λ	-10.2531
▁ken	-10.2534
▁forget	-10.2534
ú	-10.254
▁gaze	-10.254
▁confirmed	-10.2542
▁max	-10.2543
▁voters	-10.2552
▁debt	-10.2554
▁performed	-10.2557
り	-10.2557
▁cars	-10.2566
▁hor	-10.2567
fl	-10.2569
▁tools	-10.257
▁hay	-10.257
ht	-10.2575
▁truck	-10.2576
▁suggest	-10.2576
ect	-10.2579
▁spending	-10.2582
name	-10.2583
▁bread	-10.2584
▁residents	-10.2592
ram	-10.2597
▁urban	-10.2601
▁tech	-10.2601
table	-10.2602
▁drawing	-10.2604
▁minor	-10.2605
▁fur	-10.2606
▁vehicle	-10.2608
cio	-10.2612
▁determined	-10.2619
▁document	-10.2621
▁kar	-10.2625
then	-10.2632
▁skills	-10.2633
▁cells	-10.2635
▁symbol	-10.2638
▁fix	-10.264
http	-10.2645
bin	-10.2647
▁assault	-10.2648
▁flu	-10.2649
dom	-10.2654
▁concerns	-10.2658
▁ol	-10.2662
▁streets	-10.2665
▁creation	-10.267
▁intention	-10.2672
▁dollars	-10.2674
▁bob	-10.2674
▁extremely	-10.2679
▁existence	-10.269
▁stated	-10.269
▁fre	-10.269
ically	-10.2691
even	-10.2694
▁exp	-10.2696
▁buildings	-10.2698
▁corn	-10.2704
▁figures	-10.2706
▁pilot	-10.2708
▁jim	-10.271
try	-10.2715
▁equipment	-10.2718
▁estate	-10.272
cl	-10.2722
▁select	-10.2723
kan	-10.2723
▁tim	-10.2724
▁pictures	-10.2724
š	-10.2727
spect	-10.2729
sol	-10.273
κ	-10.2731
▁opposite	-10.2732
cra	-10.2734
▁pattern	-10.2735
▁bitcoin	-10.2738
where	-10.2739
も	-10.2739
▁bought	-10.274
ians	-10.274
▁contrast	-10.2741
▁kick	-10.2742
▁ye	-10.2743
ene	-10.2752
▁beneath	-10.2756
ii	-10.2761
▁illegal	-10.2761
æ	-10.2765
▁founded	-10.2768
▁bla	-10.2768
▁nearby	-10.2768
▁pitch	-10.2769
▁rare	-10.2774
▁noticed	-10.2777
▁evil	-10.278
▁researchers	-10.2783
sure	-10.2787
▁aircraft	-10.2793
pat	-10.2797
▁perform	-10.2806
▁sentence	-10.2807
▁mess	-10.2809
cat	-10.2815
▁crack	-10.2816
▁combat	-10.2816
▁shell	-10.2816
▁italy	-10.2817
▁server	-10.2821
gon	-10.2831
а	-10.2833
▁ur	-10.2836
▁possibly	-10.2842
▁sy	-10.2843
▁arts	-10.2849
▁refused	-10.2853
▁entre	-10.2854
▁greatest	-10.2855
▁pal	-10.2855
▁strip	-10.2864
▁perspective	-10.2867
eh	-10.2875
▁hol	-10.2881
▁button	-10.2882
pon	-10.2887
▁cy	-10.2888
▁calm	-10.2891
▁sale	-10.2894
▁priest	-10.29
▁awards	-10.29
▁circle	-10.2905
▁premier	-10.2907
▁sword	-10.2914
▁tradition	-10.2915
▁units	-10.2923
▁essential	-10.2924
▁domestic	-10.2927
▁clothes	-10.2928
▁stress	-10.2929
▁medicine	-10.2932
▁rap	-10.2933
▁supported	-10.2934
▁somewhere	-10.2935
▁trick	-10.294
from	-10.2944
▁alex	-10.2946
▁gre	-10.2949
!'	-10.295
read	-10.295
post	-10.2951
▁items	-10.2965
gate	-10.2965
▁mil	-10.2966
▁warning	-10.2973
ş	-10.2974
▁assistant	-10.2978
ole	-10.298
▁prize	-10.2983
▁philosophy	-10.2984
▁ms	-10.2986
▁defeat	-10.2987
iff	-10.2991
▁thoughts	-10.2993
▁plants	-10.2998
ening	-10.3002
▁sector	-10.3005
mail	-10.3008
▁latter	-10.3012
▁ski	-10.3012
▁flag	-10.3017
▁surprised	-10.3017
▁willing	-10.3017
▁decade	-10.3017
▁appropriate	-10.3017
lam	-10.3019
sia	-10.3021
▁cloud	-10.3024
ose	-10.3025
▁reserve	-10.3029
▁pie	-10.303
▁constant	-10.3031
pot	-10.3031
▁bon	-10.3035
tus	-10.3041
▁rat	-10.3042
tom	-10.3046
ets	-10.3047
▁capacity	-10.3049
▁ty	-10.3052
▁purchase	-10.3064
nn	-10.3065
▁discuss	-10.3067
▁railway	-10.3069
tive	-10.3073
”.	-10.3081
▁tool	-10.3083
▁obviously	-10.309
▁teaching	-10.3094
▁discover	-10.3095
▁replaced	-10.3095
▁manage	-10.3097
▁http	-10.3101
▁policies	-10.3101
▁stepped	-10.3105
▁fin	-10.3105
▁hide	-10.3106
▁arrested	-10.3109
▁meanwhile	-10.3111
comp	-10.3111
hen	-10.3112
▁shadow	-10.3113
ington	-10.3114
“	-10.3118
▁navy	-10.3118
ever	-10.3119
century	-10.3125
▁update	-10.3126
ib	-10.3127
▁sto	-10.3128
ici	-10.314
▁gift	-10.3142
▁industrial	-10.3151
▁switch	-10.3153
▁eating	-10.3161
▁recording	-10.3165
▁blog	-10.3166
▁rome	-10.3169
sse	-10.3171
▁tough	-10.3175
▁ultimately	-10.3177
▁rates	-10.318
▁regard	-10.3181
▁tournament	-10.3187
▁andrew	-10.3188
rio	-10.3189
▁owner	-10.3193
good	-10.3198
▁conclusion	-10.3203
▁existing	-10.3203
▁academy	-10.3208
▁passing	-10.3219
?”	-10.322
ista	-10.3223
▁focused	-10.3223
▁spell	-10.3224
▁grave	-10.323
qua	-10.3235
▁teacher	-10.3237
▁numerous	-10.3248
▁housing	-10.3251
▁syn	-10.3253
▁younger	-10.3257
mus	-10.3259
▁pad	-10.3266
gre	-10.3269
▁dust	-10.327
▁bor	-10.3274
▁roof	-10.3277
ick	-10.3281
▁largely	-10.3281
▁changing	-10.3287
π	-10.329
▁films	-10.3291
▁sauce	-10.3303
kar	-10.3304
▁tan	-10.3304
▁turns	-10.3306
▁hi	-10.3307
▁identified	-10.3308
°	-10.3311
▁accident	-10.3313
oo	-10.3316
▁mini	-10.3321
tel	-10.3324
▁teaspoon	-10.3324
▁joy	-10.333
▁accepted	-10.334
▁marine	-10.334
box	-10.3342
ked	-10.3353
▁realize	-10.3358
aba	-10.3359
▁francisco	-10.3362
▁coat	-10.3367
▁gang	-10.3368
ão	-10.3372
▁photos	-10.3373
leg	-10.3374
▁jar	-10.3386
▁sar	-10.3388
▁nose	-10.3389
▁emotional	-10.3392
▁fashion	-10.3397
was	-10.3401
las	-10.3405
▁proposal	-10.3405
▁phase	-10.3406
rid	-10.341
ре	-10.3411
look	-10.3411
▁grass	-10.3419
style	-10.342
ther	-10.3423
run	-10.3425
#	-10.3426
▁carefully	-10.3427
ón	-10.3436
vel	-10.3436
▁unable	-10.3442
▁sites	-10.3443
▁determine	-10.3445
▁weren	-10.3447
cap	-10.3451
▁literature	-10.3454
▁funding	-10.3456
▁rising	-10.3456
то	-10.3457
▁issued	-10.3458
tell	-10.3466
▁christmas	-10.3478
▁sig	-10.3479
▁radical	-10.3483
tr	-10.3487
▁usual	-10.3487
▁prices	-10.3488
▁talked	-10.3488
bal	-10.3491
▁secure	-10.3497
▁castle	-10.35
gging	-10.3504
▁artists	-10.3505
life	-10.3507
▁pale	-10.3509
▁suspect	-10.3511
▁detail	-10.3516
ock	-10.3517
▁def	-10.3517
▁copy	-10.3517
▁pet	-10.3517
▁assembly	-10.3518
▁fundamental	-10.3518
▁boston	-10.3522
▁jump	-10.3525
▁ear	-10.3526
▁providing	-10.353
▁phil	-10.3533
▁unlike	-10.3536
▁contains	-10.3536
▁references	-10.3541
▁brothers	-10.3543
▁cer	-10.3544
▁possibility	-10.3545
▁ireland	-10.3552
▁academic	-10.3559
most	-10.3565
▁plays	-10.3569
▁gru	-10.357
▁korea	-10.3571
din	-10.3574
..."	-10.3575
▁hum	-10.3576
▁newspaper	-10.3581
cept	-10.3582
ero	-10.3582
▁ut	-10.3592
▁distribution	-10.3595
és	-10.3605
eth	-10.3609
▁în	-10.361
▁element	-10.3612
▁affairs	-10.3615
▁wing	-10.3616
ban	-10.3617
ро	-10.3619
▁responsibility	-10.3621
dor	-10.3622
▁tells	-10.3622
▁promise	-10.3627
ore	-10.3632
▁bird	-10.3639
▁accused	-10.3641
▁beer	-10.3641
bl	-10.3643
ologist	-10.3643
▁orange	-10.3643
▁root	-10.3646
ave	-10.3649
amp	-10.365
▁dear	-10.3652
▁testing	-10.3653
▁methods	-10.3658
▁documents	-10.3662
▁mirror	-10.3663
μ	-10.367
▁connect	-10.367
ray	-10.3673
▁scientists	-10.3684
▁stretch	-10.3685
dar	-10.3686
▁blind	-10.3688
▁charges	-10.369
▁merely	-10.369
▁custom	-10.369
nny	-10.3691
▁heaven	-10.3701
▁zo	-10.3707
▁jackson	-10.3711
▁actor	-10.3716
pel	-10.3718
▁advanced	-10.3718
hold	-10.3719
kt	-10.3723
uc	-10.3727
た	-10.373
▁okay	-10.3732
▁declared	-10.3735
ew	-10.3737
py	-10.3744
▁cl	-10.3746
tig	-10.3749
▁victim	-10.375
▁https	-10.3751
▁gla	-10.3754
▁bound	-10.3762
▁proper	-10.3762
▁bringing	-10.3764
▁fixed	-10.3766
oon	-10.3767
▁relatively	-10.3768
▁trend	-10.377
▁harry	-10.3771
▁vor	-10.3777
▁republicans	-10.3778
▁surrounding	-10.3778
▁losing	-10.3779
▁loose	-10.3781
▁assist	-10.3783
▁committed	-10.3787
vers	-10.3793
▁lunch	-10.3796
▁somehow	-10.3808
ena	-10.3808
▁importance	-10.3811
▁universe	-10.3812
▁interests	-10.3812
▁objects	-10.3814
▁barr	-10.3815
str	-10.3819
ό	-10.382
▁euro	-10.3822
▁lies	-10.3824
▁struck	-10.383
▁apply	-10.3832
fire	-10.3832
eux	-10.3833
▁laugh	-10.3835
ス	-10.384
▁elections	-10.384
▁sport	-10.3841
▁wake	-10.3843
▁listed	-10.3844
▁allowing	-10.3846
▁glad	-10.385
emp	-10.3851
▁rice	-10.3851
▁pleasure	-10.3853
▁pages	-10.3853
▁chose	-10.3861
ncia	-10.3868
ere	-10.3872
()	-10.3873
cies	-10.3873
▁adam	-10.3877
ify	-10.3881
any	-10.3884
eb	-10.389
▁hip	-10.3894
▁medal	-10.3898
▁disc	-10.3898
char	-10.391
▁historic	-10.3917
▁elizabeth	-10.3926
▁prefer	-10.3928
▁chamber	-10.3931
▁ray	-10.3931
▁laid	-10.3935
▁gender	-10.3937
č	-10.394
gene	-10.3943
cen	-10.3946
▁applied	-10.3949
▁nobody	-10.3952
hin	-10.3952
▁ourselves	-10.3955
▁signs	-10.396
▁occurred	-10.3962
▁inform	-10.3965
▁anger	-10.397
gin	-10.3973
▁sich	-10.3975
▁connected	-10.3976
▁advice	-10.3978
ral	-10.398
nne	-10.3981
▁giant	-10.3982
pass	-10.3982
load	-10.3984
▁colour	-10.3986
「	-10.3986
▁talent	-10.3991
ère	-10.3994
▁noise	-10.3995
ras	-10.3998
▁tin	-10.4003
▁rooms	-10.4004
rum	-10.4005
▁increasing	-10.4009
▁deliver	-10.4009
▁happening	-10.401
▁epi	-10.4013
place	-10.4014
▁drawn	-10.4017
phy	-10.403
▁combined	-10.403
▁selected	-10.4033
▁comfort	-10.4033
▁charged	-10.4036
▁represent	-10.4038
▁silent	-10.4041
▁download	-10.4043
▁steam	-10.4044
uit	-10.4049
hol	-10.405
ait	-10.4052
▁irish	-10.4053
▁theatre	-10.4056
▁nicht	-10.4057
▁increasingly	-10.4061
▁asia	-10.4062
▁hang	-10.4062
▁admit	-10.4063
ash	-10.4064
▁scar	-10.4071
▁plastic	-10.4071
▁requires	-10.4074
▁poet	-10.4074
▁healthy	-10.4076
▁iii	-10.4079
▁banks	-10.4081
rant	-10.4083
▁mel	-10.4085
▁combination	-10.4087
▁models	-10.4088
▁craft	-10.4091
▁appointed	-10.4094
▁pic	-10.4098
▁column	-10.41
▁flood	-10.4102
▁rear	-10.4108
ст	-10.4112
arch	-10.4112
▁devices	-10.4116
▁grown	-10.4118
▁cycle	-10.4131
▁finger	-10.4132
▁rh	-10.4136
▁fifth	-10.4137
▁weapon	-10.4138
nch	-10.4142
▁holy	-10.4147
▁temperature	-10.4149
▁ships	-10.4152
wer	-10.4152
▁principal	-10.4161
▁pure	-10.4163
▁pod	-10.4164
▁arrest	-10.4164
▁technical	-10.4165
ered	-10.4168
▁loud	-10.417
▁protein	-10.417
▁prospect	-10.4171
▁gap	-10.4171
▁initially	-10.4172
▁violent	-10.4178
▁jews	-10.418
ación	-10.4187
▁cards	-10.4188
ла	-10.4188
▁aus	-10.4191
▁armed	-10.4195
▁williams	-10.4202
▁ill	-10.4203
▁neighborhood	-10.4207
▁fail	-10.4209
▁plenty	-10.4211
▁israeli	-10.4212
▁experienced	-10.4216
cycl	-10.4218
▁posted	-10.4218
▁egg	-10.4222
▁angry	-10.4227
▁pakistan	-10.4231
▁pos	-10.4234
▁kim	-10.4236
▁tap	-10.4242
pin	-10.4243
▁extended	-10.4243
▁palm	-10.425
η	-10.4251
▁desert	-10.4252
ering	-10.4253
де	-10.4255
▁narrative	-10.4256
▁finance	-10.4256
turn	-10.4256
▁recipe	-10.4262
▁desk	-10.4265
tti	-10.4267
▁highway	-10.4269
▁drugs	-10.4273
▁universal	-10.4273
▁hardly	-10.4275
▁mod	-10.4276
▁emergency	-10.4276
ando	-10.428
▁kon	-10.428
▁copyright	-10.4282
▁electric	-10.4283
▁simon	-10.4286
▁relief	-10.4295
▁speaker	-10.4304
▁creative	-10.4309
ά	-10.4309
tant	-10.4311
▁wolf	-10.4315
▁attitude	-10.4315
▁proud	-10.4318
▁contest	-10.4327
▁victims	-10.4328
▁nick	-10.4329
▁stared	-10.4333
▁odd	-10.4336
tru	-10.4336
▁communication	-10.4337
▁client	-10.4339
▁reward	-10.4342
▁teeth	-10.4343
▁explore	-10.4345
▁represented	-10.4348
▁carrying	-10.4355
▁dia	-10.4356
▁duty	-10.4356
▁laughed	-10.4361
view	-10.437
▁hack	-10.4373
▁dragon	-10.4376
▁ren	-10.4381
og	-10.4381
▁helping	-10.4381
▁format	-10.4385
▁trace	-10.4391
ax	-10.4392
▁flying	-10.4393
ι	-10.4396
▁reduced	-10.4398
▁matters	-10.4409
▁chemical	-10.441
▁settlement	-10.4414
nan	-10.4415
▁carolina	-10.4416
gli	-10.4417
roll	-10.442
▁bru	-10.442
▁syria	-10.4422
foot	-10.4429
▁beauty	-10.4431
▁random	-10.4438
х	-10.444
▁liked	-10.4443
▁organizations	-10.4445
▁facing	-10.4449
gal	-10.445
▁dun	-10.4459
sti	-10.446
▁programme	-10.4462
▁stephen	-10.4462
▁begins	-10.4463
▁deck	-10.4464
▁feed	-10.4468
sey	-10.447
▁ok	-10.4472
▁excellent	-10.4473
cht	-10.4479
tas	-10.4481
▁fields	-10.4481
▁rival	-10.4482
ô	-10.4482
да	-10.4483
▁singer	-10.4487
▁operating	-10.4493
▁esp	-10.4495
isation	-10.4498
▁chairman	-10.4499
▁muslim	-10.4513
▁tom	-10.4514
▁seconds	-10.452
▁wr	-10.452
ei	-10.4521
duc	-10.4523
▁typically	-10.4523
▁wealth	-10.4523
▁sus	-10.4524
▁pun	-10.4528
▁sought	-10.4528
▁taught	-10.4533
▁measures	-10.454
▁insurance	-10.4546
▁amazing	-10.4547
test	-10.4547
▁parent	-10.4549
▁sul	-10.4549
zz	-10.4549
ox	-10.4551
▁yards	-10.4552
▁classes	-10.4554
▁papers	-10.4557
▁recognized	-10.4558
▁factor	-10.4561
gri	-10.4561
▁territory	-10.4561
▁hidden	-10.4563
▁definitely	-10.4568
mark	-10.4569
▁broadcast	-10.457
▁recognize	-10.4573
▁absolutely	-10.4576
tta	-10.4583
▁gall	-10.4583
▁semi	-10.4586
▁chart	-10.4586
▁hunt	-10.4594
▁convention	-10.4596
gger	-10.4598
▁ter	-10.4602
▁ministry	-10.4603
bed	-10.4607
▁remembered	-10.4607
brook	-10.4613
eo	-10.4615
▁portion	-10.462
rc	-10.4621
▁pres	-10.4624
rated	-10.4632
▁diet	-10.4633
ef	-10.4633
▁follows	-10.4635
▁welcome	-10.4637
bus	-10.464
▁regime	-10.4642
▁answered	-10.4649
▁spiritual	-10.465
▁musical	-10.465
▁waste	-10.465
ت	-10.4652
γ	-10.4652
▁drama	-10.4654
▁electronic	-10.4659
▁steve	-10.466
▁humans	-10.4661
▁mail	-10.4664
aire	-10.4665
power	-10.4668
▁avec	-10.4672
ising	-10.4673
yo	-10.4673
san	-10.4675
ico	-10.4678
▁ble	-10.468
▁expressed	-10.4681
▁lying	-10.4689
sign	-10.4691
▁funds	-10.4694
tract	-10.4695
▁crash	-10.4695
▁decisions	-10.4696
▁formula	-10.47
▁gate	-10.4702
stra	-10.4706
▁mixed	-10.4708
▁regarding	-10.4724
▁palace	-10.473
▁rail	-10.4732
▁iraq	-10.4734
pet	-10.4734
▁standards	-10.4735
ister	-10.4735
ί	-10.4738
▁bien	-10.4741
▁branch	-10.4741
▁tout	-10.4743
▁hal	-10.4747
▁rent	-10.4749
▁suffered	-10.4751
▁businesses	-10.4753
▁unknown	-10.4754
▁throat	-10.4757
▁script	-10.4757
▁más	-10.4759
▁suggests	-10.476
▁developing	-10.4762
▁knight	-10.4765
▁raw	-10.4765
▁resistance	-10.4767
▁grace	-10.4768
▁admitted	-10.4772
▁fed	-10.4772
▁extreme	-10.4773
▁acting	-10.4775
▁chosen	-10.4775
▁attend	-10.4778
▁featured	-10.4783
▁breast	-10.4792
▁fbi	-10.4793
pha	-10.4799
▁circumstances	-10.4799
▁poly	-10.4808
nal	-10.4811
▁barely	-10.4811
▁joke	-10.4814
▁bishop	-10.4818
▁specifically	-10.4819
och	-10.4823
ن	-10.4826
vor	-10.4831
▁entry	-10.4832
lk	-10.4835
▁bottle	-10.4836
pan	-10.4836
▁liquid	-10.4836
▁tears	-10.4838
ō	-10.4838
dem	-10.4842
▁referred	-10.4842
iva	-10.4842
د	-10.4844
▁tag	-10.4849
▁jane	-10.4849
▁twin	-10.485
▁definition	-10.4851
zar	-10.4852
▁kh	-10.4852
▁shoot	-10.4852
ika	-10.4856
atory	-10.4857
▁constitution	-10.4864
▁experiment	-10.4864
▁peer	-10.4865
▁boss	-10.4865
▁frequently	-10.4868
▁transition	-10.4871
▁materials	-10.4877
▁introduction	-10.4878
▁kat	-10.4881
▁dec	-10.4885
ados	-10.4897
▁contemporary	-10.4901
▁wound	-10.4903
▁avenue	-10.4905
▁alexander	-10.4914
▁seeking	-10.4915
poli	-10.4916
▁accounts	-10.4922
lies	-10.4926
▁stayed	-10.494
▁spin	-10.4942
▁usa	-10.4943
two	-10.4944
▁selection	-10.4951
▁achieve	-10.4951
▁shirt	-10.4952
type	-10.4957
▁falling	-10.4957
▁pit	-10.4957
▁wonderful	-10.4959
▁valid	-10.4961
▁pol	-10.4962
ddle	-10.4963
▁studied	-10.4965
▁defined	-10.4967
mente	-10.4967
ison	-10.4971
▁factors	-10.4975
▁spain	-10.4979
те	-10.4982
att	-10.4988
▁arrive	-10.4995
▁breaking	-10.4996
inch	-10.4998
stan	-10.5001
▁turkey	-10.5003
▁destroy	-10.5004
▁suppose	-10.5006
sel	-10.5008
▁dy	-10.5009
▁adventure	-10.5012
▁rein	-10.5016
▁lawyer	-10.5021
▁candidates	-10.5021
▁destroyed	-10.5023
▁jam	-10.5025
▁terrible	-10.5028
▁demon	-10.5028
▁houses	-10.503
key	-10.5031
▁capable	-10.5031
\	-10.5032
▁crown	-10.5036
▁suffering	-10.5036
▁seriously	-10.5042
▁mp	-10.5043
▁luc	-10.5044
▁marked	-10.5049
▁owned	-10.5053
yard	-10.5059
▁profile	-10.5061
▁fought	-10.5061
▁dam	-10.5064
burg	-10.5066
▁revenue	-10.5067
▁fired	-10.5069
far	-10.5069
▁не	-10.507
▁criticism	-10.5074
▁carl	-10.5076
▁darkness	-10.5084
mel	-10.5088
▁orders	-10.5091
▁feels	-10.5093
▁juice	-10.5098
▁zero	-10.5102
▁waited	-10.5104
▁deeply	-10.5107
card	-10.5107
▁worried	-10.5108
▁institutions	-10.5112
▁index	-10.5116
ка	-10.5116
dri	-10.5116
▁wil	-10.5117
shire	-10.5132
▁applications	-10.5135
▁injury	-10.5136
▁pla	-10.5145
▁linked	-10.5152
▁bin	-10.5153
▁soil	-10.5153
ans	-10.5153
▁busy	-10.5158
▁baseball	-10.517
▁concert	-10.5175
▁champion	-10.5177
▁argued	-10.5181
▁duke	-10.5183
و	-10.5186
▁promote	-10.5188
▁у	-10.519
▁neuro	-10.5195
ти	-10.5195
pers	-10.5196
▁widely	-10.5196
ssa	-10.5199
▁bigger	-10.5203
gle	-10.5203
▁wondered	-10.5206
▁feelings	-10.5207
▁encourage	-10.5209
▁identify	-10.5211
▁santa	-10.5214
▁campus	-10.5217
▁ent	-10.5221
▁contra	-10.5225
▁scheme	-10.5226
ough	-10.5227
fin	-10.5227
▁repeat	-10.5228
his	-10.523
▁faced	-10.5234
▁treated	-10.5237
▁anna	-10.5241
ily	-10.5243
▁mai	-10.5246
▁gene	-10.5255
▁everybody	-10.5262
▁writers	-10.5265
▁solo	-10.527
▁arab	-10.5271
▁fiction	-10.5273
▁jail	-10.5275
▁formal	-10.5282
▁о	-10.5283
σ	-10.5285
▁expensive	-10.5291
face	-10.5291
ident	-10.5291
▁grade	-10.5293
▁confidence	-10.5294
▁tomorrow	-10.5297
▁error	-10.5298
▁alongside	-10.5299
▁georgia	-10.5301
your	-10.5305
▁schedule	-10.5307
▁guns	-10.5308
▁birds	-10.5312
▁uniform	-10.5312
▁dogs	-10.5313
▁ml	-10.5317
align	-10.5318
▁stadium	-10.5322
▁spark	-10.5324
ł	-10.5325
▁recall	-10.5327
▁alcohol	-10.5328
▁external	-10.533
▁approximately	-10.5334
▁fleet	-10.5334
▁missed	-10.5335
▁somewhat	-10.5337
▁kra	-10.5338
▁assume	-10.5339
▁millions	-10.5341
▁meta	-10.5343
▁mountains	-10.5349
▁inner	-10.535
▁stands	-10.535
▁crazy	-10.5362
▁hole	-10.5364
▁drove	-10.5364
▁moments	-10.5368
▁intellectual	-10.5369
ches	-10.5378
▁solar	-10.5378
▁cave	-10.5379
▁latin	-10.5394
▁landscape	-10.54
▁guitar	-10.5407
aux	-10.5411
▁immigration	-10.5415
path	-10.5421
udi	-10.5422
idad	-10.5424
ack	-10.5425
▁philip	-10.5426
▁pacific	-10.5427
▁powers	-10.5428
rá	-10.5429
mont	-10.543
reg	-10.5431
▁uncle	-10.5431
":	-10.5432
wn	-10.5432
matic	-10.5433
▁alien	-10.5438
▁explanation	-10.5439
text	-10.5443
▁interior	-10.5444
▁sweat	-10.5445
▁closely	-10.5446
ле	-10.5447
▁qua	-10.5448
▁shoulders	-10.5449
г	-10.5449
▁heads	-10.5449
▁engineering	-10.545
▁stir	-10.5451
▁operate	-10.5455
oma	-10.5456
may	-10.5457
▁eine	-10.5457
▁photograph	-10.5457
▁tam	-10.5459
shed	-10.5459
ston	-10.5459
world	-10.5465
▁import	-10.5469
ule	-10.547
▁olive	-10.548
▁für	-10.5484
▁rescue	-10.5484
▁nie	-10.5487
だ	-10.5488
▁raid	-10.5492
▁settled	-10.5497
▁teach	-10.5501
▁nurse	-10.5501
▁conce	-10.5501
▁register	-10.5501
né	-10.5507
▁cake	-10.5507
▁("	-10.5507
än	-10.5509
на	-10.5513
els	-10.5518
▁ven	-10.5519
▁faces	-10.552
▁jr	-10.552
▁lion	-10.5521
ua	-10.5522
▁contain	-10.5522
▁shortly	-10.5525
▁terrorist	-10.5528
▁examples	-10.553
▁belief	-10.5531
▁corporate	-10.5539
▁jersey	-10.554
lock	-10.5541
ific	-10.5543
▁lang	-10.5544
note	-10.555
▁promised	-10.5556
bat	-10.5556
ça	-10.5557
▁translation	-10.556
ld	-10.5562
▁tank	-10.5562
▁gut	-10.5568
▁legislation	-10.5569
▁opera	-10.5569
▁cd	-10.5572
▁oxford	-10.5578
▁zealand	-10.5579
▁temp	-10.5586
▁outcome	-10.5586
▁describe	-10.5586
cro	-10.5586
▁observed	-10.5587
▁rush	-10.5595
▁permission	-10.5595
▁solve	-10.5596
▁attended	-10.5598
▁discussed	-10.5599
▁sol	-10.56
▁guest	-10.5603
▁anywhere	-10.5611
▁shake	-10.5613
▁ryan	-10.5613
▁af	-10.5615
▁doors	-10.5616
▁alliance	-10.5619
▁markets	-10.5622
▁shock	-10.5624
five	-10.5624
▁faster	-10.5628
▁wire	-10.5631
▁ali	-10.5634
▁selling	-10.5634
▁session	-10.5635
ska	-10.5637
▁amazon	-10.5637
▁functions	-10.5638
▁berlin	-10.564
▁recruit	-10.5642
▁tone	-10.5642
▁sn	-10.5643
▁exception	-10.5646
▁starts	-10.5652
▁ghost	-10.5652
ente	-10.5654
▁entrance	-10.5655
▁replace	-10.5658
▁holiday	-10.5659
bol	-10.5663
season	-10.5663
▁acid	-10.5665
▁brush	-10.5666
▁mono	-10.5669
stein	-10.567
▁principle	-10.5671
tv	-10.5672
▁conducted	-10.5672
▁files	-10.5672
▁wilson	-10.5679
ora	-10.568
έ	-10.5681
▁delivered	-10.5685
▁positions	-10.5685
iel	-10.5691
▁mask	-10.5693
inter	-10.5693
▁unusual	-10.5699
▁democracy	-10.5701
▁theater	-10.5703
▁mixture	-10.5703
▁hook	-10.5709
▁trigger	-10.571
ense	-10.5713
▁offensive	-10.5716
stre	-10.5716
▁rural	-10.5717
▁myth	-10.5717
▁heavily	-10.5719
bury	-10.5722
tis	-10.5727
equ	-10.5731
sie	-10.5734
▁tur	-10.5735
▁twelve	-10.5739
rian	-10.574
▁immediate	-10.574
▁leads	-10.5741
▁islamic	-10.5743
▁fifty	-10.5744
▁stat	-10.5753
▁counsel	-10.5755
▁considering	-10.5757
▁rod	-10.5759
▁proved	-10.5766
ates	-10.5767
▁cooking	-10.5781
vid	-10.5784
rat	-10.579
ige	-10.5793
aka	-10.5798
▁lane	-10.5802
▁mur	-10.5803
hard	-10.5803
▁chat	-10.5805
▁loop	-10.5807
▁tests	-10.5807
▁imperial	-10.5811
▁communist	-10.5818
▁vehicles	-10.5818
▁returning	-10.5823
▁founder	-10.5828
▁producer	-10.5831
ulation	-10.5835
struct	-10.5836
real	-10.5836
▁breakfast	-10.5836
pur	-10.5837
▁bou	-10.584
jan	-10.5841
▁corps	-10.5844
▁inc	-10.5849
▁passion	-10.5852
▁mot	-10.5852
▁toronto	-10.5852
▁taylor	-10.5855
▁dynamic	-10.5855
mmer	-10.5861
▁comfortable	-10.5862
▁grey	-10.5871
anti	-10.5876
▁dozen	-10.5878
▁tele	-10.5882
▁listening	-10.5883
▁superior	-10.5887
ila	-10.5887
▁bun	-10.5887
▁proof	-10.5888
tle	-10.5888
▁lab	-10.5888
▁entertainment	-10.5894
▁bike	-10.5895
▁affected	-10.5897
voir	-10.5909
▁drinking	-10.591
▁islands	-10.5913
▁opportunities	-10.5914
▁perfectly	-10.5917
▁lights	-10.592
▁knife	-10.5924
▁ceo	-10.5925
▁defence	-10.5925
▁formation	-10.5928
▁prayer	-10.5931
ui	-10.5931
▁depend	-10.5931
html	-10.5934
▁practices	-10.5935
م	-10.5936
▁sab	-10.5936
▁ال	-10.5939
▁carbon	-10.5943
▁paying	-10.5944
▁owners	-10.5945
▁pace	-10.5948
▁tape	-10.5949
▁rating	-10.5949
dale	-10.5951
uv	-10.5952
▁asian	-10.5956
last	-10.5962
▁din	-10.5963
▁jet	-10.5965
▁prominent	-10.5967
lyn	-10.5971
ali	-10.5975
▁tonight	-10.5975
▁eric	-10.5983
▁hon	-10.5984
burn	-10.5986
▁differences	-10.599
▁headed	-10.5992
▁remote	-10.5993
▁depth	-10.5995
▁shore	-10.5996
hop	-10.6003
▁bath	-10.6004
▁dur	-10.6006
▁phrase	-10.6006
oy	-10.6007
▁acts	-10.6007
▁deserve	-10.6008
▁hero	-10.601
slav	-10.6012
▁sec	-10.6015
▁vis	-10.6016
▁agents	-10.6017
ith	-10.6017
år	-10.6023
▁gear	-10.6026
▁ibid	-10.6028
til	-10.603
▁chocolate	-10.6031
▁commitment	-10.6033
▁layer	-10.604
▁tal	-10.6047
у	-10.6048
▁lin	-10.6055
rri	-10.6056
amente	-10.6059
▁forty	-10.6066
▁pri	-10.6068
▁supporters	-10.6072
nia	-10.6074
▁causes	-10.608
▁storage	-10.6082
▁honest	-10.6087
▁teachers	-10.6089
worth	-10.6089
▁forth	-10.609
▁painting	-10.6094
cast	-10.6098
▁threw	-10.61
▁cri	-10.6102
▁properties	-10.6104
▁cambridge	-10.6111
▁vie	-10.6117
▁angle	-10.6122
▁defensive	-10.613
yer	-10.6133
eau	-10.6138
▁experts	-10.614
nel	-10.6142
arian	-10.6144
▁vs	-10.6145
▁emperor	-10.6146
ña	-10.6148
▁roger	-10.6156
▁hoped	-10.6156
▁stuck	-10.6159
▁jon	-10.6159
rp	-10.6162
termin	-10.6163
▁dal	-10.6165
▁fallen	-10.6167
▁disorder	-10.6167
▁experiences	-10.6169
▁shouldn	-10.6171
exp	-10.6172
▁notion	-10.6176
▁supporting	-10.6178
▁cab	-10.6181
bling	-10.6182
▁cry	-10.6183
▁initiative	-10.6183
▁predict	-10.6184
▁shit	-10.6185
▁visible	-10.6197
▁hung	-10.6198
▁links	-10.62
▁load	-10.6201
▁flavor	-10.6202
have	-10.6205
▁insist	-10.6206
▁privacy	-10.6206
▁opposed	-10.6208
▁rapid	-10.6208
▁forever	-10.6209
▁bone	-10.6213
▁bitter	-10.6214
▁dick	-10.6214
▁coverage	-10.6219
▁clo	-10.6221
▁terror	-10.6223
▁objective	-10.6223
▁polish	-10.6224
ware	-10.6226
▁attempts	-10.6226
hm	-10.6229
lé	-10.623
tho	-10.6239
▁kit	-10.6241
kov	-10.6246
▁advertisement	-10.6247
▁customer	-10.6248
▁survive	-10.6252
▁architecture	-10.6255
ender	-10.6256
wick	-10.6259
▁thread	-10.6261
▁stem	-10.6265
game	-10.6268
▁dedicated	-10.6268
▁gallery	-10.6271
▁jag	-10.6281
▁extent	-10.6284
nz	-10.6285
▁poetry	-10.6285
▁organized	-10.6286
will	-10.6289
▁ross	-10.629
▁estimated	-10.6293
та	-10.63
▁careful	-10.6301
▁encounter	-10.6304
▁tired	-10.6312
▁winner	-10.6313
▁captured	-10.6315
▁pink	-10.6317
related	-10.6328
▁sail	-10.6328
▁enforcement	-10.6328
elli	-10.6333
▁resolution	-10.6335
corr	-10.6341
▁cutting	-10.6341
gun	-10.6346
▁marketing	-10.635
▁lifted	-10.6351
yan	-10.6353
▁sequence	-10.6355
▁neo	-10.6356
high	-10.6363
▁buck	-10.6363
▁hunter	-10.6364
▁fifteen	-10.6371
▁junior	-10.6372
ingly	-10.6375
▁horses	-10.6376
▁sim	-10.6378
▁trading	-10.6378
▁kur	-10.6381
dal	-10.6384
▁enable	-10.6384
ace	-10.6384
▁prepare	-10.6387
▁bid	-10.6388
uni	-10.6403
▁ohio	-10.6403
▁hoping	-10.6404
▁independence	-10.6405
nis	-10.6408
thank	-10.6409
▁tension	-10.6413
▁soldier	-10.6413
▁bullet	-10.6414
▁tweet	-10.6416
▁ker	-10.6417
dio	-10.6419
▁mistake	-10.6422
▁rub	-10.6422
▁excited	-10.6423
▁grim	-10.6424
▁bass	-10.6424
▁pm	-10.6424
▁tail	-10.6428
▁horror	-10.6429
▁guilty	-10.643
tors	-10.643
▁monster	-10.643
▁retail	-10.6431
▁install	-10.6432
oli	-10.6436
▁seats	-10.6441
bas	-10.6442
▁kin	-10.6443
▁€	-10.6446
▁oct	-10.6447
▁severe	-10.6453
▁inspired	-10.6455
▁michigan	-10.6457
▁fred	-10.6457
▁kal	-10.6459
▁extract	-10.6462
▁mont	-10.6463
▁drain	-10.6466
▁serves	-10.6466
nen	-10.6472
augh	-10.6473
τ	-10.6477
ele	-10.6477
ador	-10.6479
▁divided	-10.6479
▁wore	-10.648
▁tie	-10.6481
▁unfortunately	-10.6483
▁fal	-10.6483
▁fate	-10.6487
tique	-10.6488
ми	-10.649
▁expansion	-10.6491
▁dealing	-10.6496
▁mood	-10.6498
lem	-10.6502
▁quest	-10.6504
▁earned	-10.6506
▁relationships	-10.6509
▁tongue	-10.6511
▁vous	-10.6512
lay	-10.6512
bble	-10.6514
υ	-10.6518
spir	-10.6521
page	-10.6523
▁surely	-10.6524
▁eggs	-10.6524
bul	-10.6525
▁begun	-10.6525
rit	-10.6529
▁mile	-10.6532
ket	-10.6533
▁repeated	-10.6535
aria	-10.6537
ona	-10.6538
center	-10.6545
nom	-10.6548
▁flowers	-10.6552
▁suicide	-10.6554
▁gran	-10.6556
▁readers	-10.6557
▁articles	-10.6559
▁centuries	-10.6561
▁rob	-10.6563
▁monitor	-10.6565
▁literary	-10.6568
bil	-10.657
▁barn	-10.6571
▁gor	-10.6573
▁consequences	-10.6573
cas	-10.6574
▁gh	-10.6575
▁sudden	-10.6576
▁reputation	-10.6577
▁cart	-10.6581
го	-10.6581
▁capture	-10.6582
ase	-10.6583
▁wooden	-10.6588
▁nazi	-10.6588
▁sample	-10.6589
▁coal	-10.6589
▁tied	-10.6591
▁knock	-10.6594
▁tracks	-10.6599
▁essay	-10.6601
astic	-10.6603
left	-10.6611
▁dutch	-10.6615
▁dish	-10.6615
的	-10.6616
▁afford	-10.6616
kel	-10.6617
▁somebody	-10.6618
▁knee	-10.6618
▁scotland	-10.662
▁kiss	-10.6621
▁confirm	-10.6622
▁extensive	-10.6623
▁organ	-10.6624
eller	-10.6625
▁critics	-10.6626
claim	-10.6628
level	-10.663
▁profit	-10.6631
ert	-10.6633
▁relative	-10.6634
▁spa	-10.6635
▁lemon	-10.6636
▁pac	-10.664
tha	-10.6644
▁permit	-10.6645
stand	-10.6651
via	-10.6652
▁appreciate	-10.6653
mis	-10.6654
called	-10.6658
▁fault	-10.6658
▁od	-10.6659
▁bel	-10.6662
▁belt	-10.6665
▁legend	-10.6665
▁pl	-10.6671
body	-10.6672
▁blend	-10.6672
▁yesterday	-10.6672
igh	-10.6676
▁sm	-10.6679
▁habit	-10.6679
media	-10.6681
▁coin	-10.6682
▁extension	-10.6683
▁responded	-10.6686
▁bug	-10.6693
▁sens	-10.6695
mond	-10.6697
▁permanent	-10.6699
kins	-10.6704
ière	-10.6709
▁coll	-10.671
▁horn	-10.671
▁sanders	-10.6711
people	-10.6714
▁brian	-10.6715
▁minimum	-10.6716
イ	-10.6719
▁ep	-10.672
tag	-10.6721
▁nous	-10.6725
▁mainly	-10.6726
▁scored	-10.6727
▁davis	-10.6727
▁glanced	-10.6736
▁typical	-10.6737
▁holds	-10.674
wo	-10.6741
▁exit	-10.6742
▁relation	-10.6749
▁everywhere	-10.675
ean	-10.6752
▁facilities	-10.6753
ters	-10.6756
▁ash	-10.6761
▁strain	-10.6763
ль	-10.6763
▁visited	-10.6766
▁personnel	-10.6767
▁dressed	-10.6769
▁maria	-10.677
て	-10.6771
▁resist	-10.6772
four	-10.6772
▁occur	-10.6776
ump	-10.6778
▁votes	-10.6783
about	-10.6786
▁provision	-10.6788
trans	-10.6788
▁mari	-10.6789
▁pré	-10.6792
front	-10.6797
▁sw	-10.6797
く	-10.6798
kk	-10.6806
lot	-10.6807
bc	-10.6807
▁cas	-10.6808
▁ingredients	-10.681
▁flesh	-10.6812
▁besides	-10.6815
nda	-10.6817
hill	-10.6819
▁sem	-10.6821
▁alleged	-10.6828
▁matches	-10.683
space	-10.6838
▁creek	-10.6839
▁household	-10.6839
▁kom	-10.684
▁expert	-10.6842
ть	-10.685
▁rough	-10.685
▁alarm	-10.6853
▁mechanism	-10.6854
▁skill	-10.6854
▁th	-10.6856
dies	-10.6857
▁stupid	-10.6859
▁hills	-10.6865
bor	-10.6868
▁intense	-10.6869
▁primarily	-10.6879
▁paint	-10.6881
▁flour	-10.6885
▁adopted	-10.689
▁infrastructure	-10.6892
▁wie	-10.6898
▁clock	-10.6899
▁warned	-10.6903
▁squad	-10.6904
▁deputy	-10.6905
▁luck	-10.6907
ж	-10.6907
▁honour	-10.6909
▁hint	-10.6912
▁wal	-10.6919
▁burning	-10.692
▁chill	-10.6921
nant	-10.6921
▁principles	-10.6923
▁invited	-10.6924
▁menu	-10.6925
▁basketball	-10.6926
▁comparison	-10.6929
är	-10.6931
▁granted	-10.6933
lit	-10.6933
▁protected	-10.6934
▁lieutenant	-10.6935
▁progressive	-10.6939
▁collective	-10.6939
▁whenever	-10.6941
▁blame	-10.6948
circ	-10.6952
direct	-10.6953
▁lap	-10.6955
_**	-10.6956
▁sav	-10.6956
▁blo	-10.6959
▁stomach	-10.6962
▁cabinet	-10.6962
▁journalist	-10.6964
▁challenges	-10.6965
▁totally	-10.6966
▁associate	-10.6967
▁egypt	-10.6975
fri	-10.6978
▁bol	-10.6985
▁ron	-10.6985
▁miller	-10.6987
▁techniques	-10.6989
▁interaction	-10.6992
▁gathered	-10.6994
▁lib	-10.6997
hood	-10.6998
▁impression	-10.6999
▁snap	-10.7002
▁burst	-10.7003
▁powder	-10.7004
▁lift	-10.7004
▁bbc	-10.7005
▁soup	-10.7006
▁belong	-10.701
ß	-10.7011
ils	-10.7011
▁gil	-10.7012
▁nervous	-10.7014
▁reader	-10.7017
▁engaged	-10.7017
▁swing	-10.7017
▁promotion	-10.7021
▁define	-10.7022
▁receiving	-10.7025
after	-10.7027
▁nfl	-10.7028
▁practical	-10.703
▁curve	-10.7031
▁elsewhere	-10.7032
▁export	-10.7036
▁hasn	-10.7039
▁honey	-10.7039
▁representative	-10.7039
making	-10.704
rac	-10.7041
▁publication	-10.7042
▁wedding	-10.7044
▁roughly	-10.705
▁dig	-10.7059
▁ends	-10.7061
▁extend	-10.7063
▁ease	-10.7067
▁defend	-10.7071
▁establishment	-10.7072
%)	-10.7078
▁facility	-10.7081
main	-10.7083
ло	-10.7085
vu	-10.709
▁genetic	-10.709
▁approved	-10.7096
▁meal	-10.7097
▁exact	-10.7098
▁retired	-10.7098
▁falls	-10.7104
▁establish	-10.7106
▁historian	-10.7109
▁nas	-10.7109
because	-10.7109
gh	-10.711
▁elite	-10.7111
▁arthur	-10.7113
ür	-10.7115
▁enjoyed	-10.7118
▁coup	-10.7119
▁reaching	-10.7119
▁sending	-10.7124
lian	-10.7125
▁enormous	-10.7125
▁shield	-10.7126
▁obtain	-10.7128
onic	-10.7131
▁buried	-10.7136
▁decline	-10.7136
▁korean	-10.7137
▁tru	-10.7138
<	-10.7141
▁publishing	-10.7141
▁sheet	-10.7145
▁rank	-10.7147
▁arrival	-10.7149
ular	-10.715
ais	-10.7151
eng	-10.7152
▁yield	-10.7154
ously	-10.7154
nde	-10.7155
▁attacked	-10.7162
▁vital	-10.7164
▁scal	-10.7165
▁homes	-10.7166
▁xi	-10.7167
▁rem	-10.7167
▁mexican	-10.7168
▁за	-10.7169
▁patch	-10.717
rous	-10.7174
▁database	-10.7175
▁repair	-10.7177
▁cr	-10.7178
▁aspects	-10.718
▁cups	-10.7182
▁ending	-10.7189
rah	-10.719
▁nar	-10.7191
teen	-10.7192
▁sarah	-10.7193
▁notable	-10.7195
itz	-10.7196
▁companion	-10.7198
▁tab	-10.7198
▁jordan	-10.7201
▁gently	-10.7205
▁fuck	-10.7205
▁ec	-10.7216
▁fairly	-10.7216
ç	-10.7218
sub	-10.7218
▁processes	-10.7221
▁bare	-10.7224
▁stores	-10.7225
iness	-10.7226
▁rolled	-10.7229
ル	-10.723
▁leur	-10.7232
▁cow	-10.7234
▁witness	-10.7237
ude	-10.7237
ott	-10.7238
▁injured	-10.7238
▁tent	-10.7238
▁possession	-10.7239
▁operator	-10.724
▁amendment	-10.7241
▁shelter	-10.7244
▁mol	-10.7245
dding	-10.7249
▁delay	-10.7251
ア	-10.7252
bla	-10.7253
▁blade	-10.7253
▁denied	-10.7258
▁islam	-10.726
▁recognition	-10.7261
▁saved	-10.7261
▁implement	-10.7261
▁anymore	-10.7261
▁disp	-10.7263
▁alert	-10.7268
rig	-10.7271
▁boost	-10.7276
▁leak	-10.7277
▁lewis	-10.7277
bn	-10.728
▁engineer	-10.7283
▁jay	-10.7286
▁pride	-10.7288
▁domain	-10.7288
▁pennsylvania	-10.729
▁harder	-10.7294
▁wise	-10.7294
▁gotten	-10.7296
▁communications	-10.7296
sum	-10.7299
lis	-10.73
▁depending	-10.7301
▁noble	-10.7308
▁sharing	-10.7308
▁instant	-10.7308
range	-10.731
▁ros	-10.7311
▁critic	-10.7315
▁routine	-10.7315
▁driven	-10.7319
▁license	-10.732
▁pretend	-10.7323
▁rifle	-10.733
▁steven	-10.7334
jun	-10.7336
▁jeff	-10.7338
▁whit	-10.7338
ع	-10.734
▁cousin	-10.7341
▁oven	-10.7342
▁exposed	-10.7342
мо	-10.7342
▁argue	-10.7344
▁della	-10.7346
▁stack	-10.7348
ching	-10.7349
▁defeated	-10.7349
▁cli	-10.7352
ject	-10.7355
▁dc	-10.7358
▁radi	-10.7361
▁fond	-10.7364
▁constantly	-10.7364
▁combine	-10.7365
▁%	-10.7367
▁mé	-10.7369
▁ears	-10.737
▁agencies	-10.7371
berry	-10.7371
aff	-10.7373
yeah	-10.7373
▁esta	-10.7374
looking	-10.7376
west	-10.7376
▁bible	-10.7378
▁kil	-10.738
▁attempted	-10.738
▁tel	-10.7381
▁leaned	-10.7382
▁spoken	-10.7384
come	-10.7385
ço	-10.7386
▁crossed	-10.7386
color	-10.7393
▁visitors	-10.7396
▁transform	-10.7398
▁mun	-10.7401
ami	-10.7403
away	-10.7405
▁gli	-10.7406
▁cable	-10.7407
▁landing	-10.7409
▁chopped	-10.7412
bot	-10.7415
▁talks	-10.7425
▁touched	-10.7425
▁acc	-10.7428
▁filed	-10.7428
▁nest	-10.7428
▁а	-10.743
white	-10.7431
▁scrap	-10.7432
quin	-10.7433
▁este	-10.7433
phi	-10.7435
▁significantly	-10.7435
▁cheap	-10.7436
cons	-10.7437
lus	-10.7438
▁properly	-10.7444
duct	-10.7445
▁shares	-10.7446
▁lip	-10.7454
▁dispute	-10.746
▁pressed	-10.7463
▁taxes	-10.7463
▁tha	-10.7466
ри	-10.747
▁kun	-10.7473
▁moscow	-10.7473
き	-10.7473
▁ordinary	-10.7474
very	-10.7475
▁fool	-10.7476
▁robb	-10.7476
▁movies	-10.7477
▁regiment	-10.7481
▁insight	-10.7482
▁parking	-10.7482
▁pushing	-10.7482
▁partners	-10.7483
▁allies	-10.7485
▁politician	-10.7486
▁messages	-10.7487
▁necessarily	-10.7489
▁disaster	-10.749
ello	-10.7492
▁howard	-10.7496
▁ky	-10.7504
eri	-10.7507
rest	-10.7508
▁partnership	-10.7512
▁dreams	-10.7512
▁youtube	-10.7515
▁ces	-10.7517
▁census	-10.7518
▁pray	-10.7521
▁wy	-10.7522
gie	-10.7524
band	-10.7524
▁br	-10.7527
▁ruling	-10.7534
▁stranger	-10.7536
▁quietly	-10.7538
▁awarded	-10.7539
ori	-10.754
▁dawn	-10.7541
▁uma	-10.7543
▁fig	-10.7546
▁rid	-10.7548
▁pound	-10.7548
▁react	-10.755
▁kam	-10.7551
▁stable	-10.7551
▁judgment	-10.7553
▁maximum	-10.7558
gno	-10.7558
sam	-10.7559
▁lucky	-10.7559
pper	-10.7561
▁climb	-10.7561
▁math	-10.7562
▁shoes	-10.7562
wall	-10.7563
▁equally	-10.7564
▁gesture	-10.7566
▁collect	-10.7567
▁detailed	-10.7569
vic	-10.7572
▁cole	-10.7572
▁fabric	-10.7574
▁essentially	-10.7574
▁hyper	-10.7578
here	-10.7579
▁mud	-10.7579
▁emerged	-10.7582
▁hollywood	-10.7583
▁rational	-10.7584
gui	-10.7586
▁newly	-10.7586
▁yan	-10.7589
▁pc	-10.7589
pol	-10.759
ž	-10.7592
▁tony	-10.7592
pic	-10.7594
▁merc	-10.7602
▁consumer	-10.7605
▁discovery	-10.7607
master	-10.7608
▁voting	-10.7609
▁blockchain	-10.7613
▁compete	-10.7615
known	-10.7615
position	-10.7617
▁crimes	-10.7621
▁lor	-10.7624
▁shame	-10.7625
had	-10.7626
ography	-10.7627
▁doctors	-10.7628
▁friendly	-10.7628
ides	-10.763
▁suffer	-10.7632
para	-10.7632
▁organisation	-10.7632
▁cette	-10.7635
▁percentage	-10.7638
▁francis	-10.7643
cin	-10.7645
▁locked	-10.7645
rock	-10.7647
▁fame	-10.7654
▁improved	-10.7655
▁dra	-10.7658
mination	-10.7659
▁jacob	-10.766
cri	-10.7664
ção	-10.7666
▁è	-10.7667
govern	-10.7667
▁garlic	-10.7668
▁output	-10.7669
▁crop	-10.7672
▁obtained	-10.7673
▁não	-10.7674
▁lecture	-10.7677
ю	-10.7679
tern	-10.769
▁mau	-10.769
lag	-10.7692
▁colleagues	-10.7694
▁contained	-10.7696
▁gained	-10.7698
▁leap	-10.7698
▁onion	-10.7699
▁helps	-10.77
▁kong	-10.7703
▁android	-10.7705
▁palestinian	-10.7708
▁handed	-10.7708
▁pig	-10.7715
▁resort	-10.7716
▁coalition	-10.7717
night	-10.7718
ī	-10.7721
▁distinct	-10.7723
▁threatened	-10.7725
▁lar	-10.7728
tum	-10.7728
ibility	-10.773
▁factory	-10.7733
▁quo	-10.7735
人	-10.7736
▁childhood	-10.774
ancy	-10.7745
▁effectively	-10.7745
ega	-10.7747
tech	-10.7748
▁lots	-10.7748
pal	-10.7748
bach	-10.7753
▁salad	-10.7756
gna	-10.7756
▁missile	-10.7758
▁achieved	-10.7761
▁alter	-10.7764
▁punch	-10.7764
▁relevant	-10.7766
▁patterns	-10.777
▁convinced	-10.7771
п	-10.7772
▁lind	-10.7774
▁causing	-10.7774
▁assistance	-10.7777
rl	-10.7779
▁parallel	-10.7788
▁swa	-10.7791
chu	-10.7791
▁poverty	-10.7793
mbo	-10.7795
▁abandoned	-10.7795
▁strategic	-10.7797
▁bedroom	-10.7802
▁attached	-10.7807
▁folk	-10.7808
▁bureau	-10.7814
▁aspect	-10.7817
plan	-10.782
▁„	-10.7823
▁technique	-10.7823
▁rot	-10.7827
▁sing	-10.783
▁acquired	-10.783
ría	-10.7835
▁circuit	-10.7835
▁collected	-10.7838
▁dying	-10.7839
▁sets	-10.784
▁construct	-10.7845
▁towns	-10.7848
rä	-10.7848
uous	-10.7849
▁remind	-10.7852
▁convert	-10.7858
▁corporation	-10.786
▁participants	-10.7862
▁kelly	-10.7868
▁logic	-10.787
rna	-10.7871
▁cinema	-10.7872
▁boil	-10.7872
▁drunk	-10.7876
ende	-10.7877
▁hanging	-10.7879
▁fen	-10.7881
▁comic	-10.7883
▁clip	-10.7883
▁funny	-10.7883
▁tunnel	-10.7893
▁wales	-10.7896
lä	-10.7903
▁bc	-10.7903
▁columbia	-10.7912
▁bent	-10.7916
vie	-10.7917
▁writes	-10.7919
▁requirements	-10.7919
ctu	-10.7922
▁depression	-10.7923
▁enemies	-10.7923
ą	-10.7926
eva	-10.7928
▁ward	-10.7929
▁awake	-10.7931
▁controlled	-10.7933
ма	-10.7934
▁loan	-10.7935
first	-10.7935
organ	-10.7935
▁valuable	-10.7939
▁whispered	-10.7939
▁pala	-10.794
▁bis	-10.794
する	-10.794
▁represents	-10.7941
χ	-10.7942
▁nov	-10.7943
▁sont	-10.7945
verse	-10.7947
▁racing	-10.795
▁bas	-10.7952
▁returns	-10.7956
iya	-10.7957
nor	-10.7962
aa	-10.7963
city	-10.7964
▁adults	-10.7965
▁videos	-10.7971
ви	-10.7977
▁leaf	-10.7978
▁ji	-10.7984
ill	-10.7987
▁grip	-10.7991
▁hong	-10.7991
▁attribu	-10.7991
▁interpretation	-10.7992
▁stake	-10.7992
▁substantial	-10.7994
▁atmosphere	-10.7997
▁slip	-10.8
nte	-10.8
▁så	-10.8004
gro	-10.8006
ario	-10.8009
▁literally	-10.801
▁absence	-10.8013
▁hence	-10.8014
▁pounds	-10.8016
▁intent	-10.8025
lp	-10.8026
▁graduate	-10.8027
▁reporting	-10.8033
▁headquarters	-10.8033
▁kings	-10.8034
▁plea	-10.8036
present	-10.8037
▁prof	-10.8037
▁memorial	-10.8038
▁fee	-10.8042
▁cit	-10.8048
ч	-10.8049
▁curious	-10.8053
▁mul	-10.8057
▁seeds	-10.8058
such	-10.8058
▁poison	-10.8059
▁destruction	-10.8059
▁officially	-10.8061
した	-10.8063
▁saudi	-10.8064
▁exhibit	-10.8066
▁devil	-10.8068
▁consciousness	-10.8068
った	-10.807
ら	-10.8071
▁lover	-10.8073
wait	-10.8073
▁potentially	-10.8075
▁assumed	-10.8075
▁microsoft	-10.8076
▁racial	-10.8078
▁buying	-10.8078
lick	-10.808
nut	-10.8081
east	-10.8082
▁efficient	-10.8082
nell	-10.8085
gio	-10.8085
▁bgcolor	-10.8086
aya	-10.8087
lands	-10.8088
▁updated	-10.8088
▁lincoln	-10.8089
▁farmers	-10.8093
▁reveal	-10.8096
▁assets	-10.81
▁flo	-10.8101
«	-10.8103
▁heritage	-10.8104
▁representation	-10.8105
▁crucial	-10.8106
▁guards	-10.8108
▁kennedy	-10.8109
▁reverse	-10.811
▁tender	-10.8111
▁announcement	-10.8111
▁spar	-10.8115
▁scheduled	-10.8118
mart	-10.8118
▁array	-10.8118
▁är	-10.8119
link	-10.8121
▁item	-10.8123
gor	-10.8124
▁matthew	-10.8124
nik	-10.8126
▁wars	-10.8126
▁sacrifice	-10.8132
▁representatives	-10.8133
▁informed	-10.8133
▁mate	-10.8134
▁graphic	-10.8135
▁virtual	-10.8139
aj	-10.814
▁sleeping	-10.8143
rad	-10.8146
▁naturally	-10.8148
imp	-10.8148
gb	-10.8149
action	-10.8152
esse	-10.8152
metric	-10.8152
▁lands	-10.8153
▁mall	-10.8154
▁rick	-10.8157
▁expense	-10.8157
▁facts	-10.816
▁dire	-10.8161
▁fantasy	-10.8163
▁approached	-10.8165
▁philadelphia	-10.8166
▁memories	-10.8166
▁filter	-10.8166
▁slo	-10.8168
▁surrounded	-10.8173
▁duck	-10.8173
urg	-10.8176
▁politicians	-10.8177
▁expand	-10.8178
bon	-10.8178
▁enterprise	-10.818
▁albert	-10.8181
tour	-10.8182
made	-10.8186
▁chin	-10.8188
temp	-10.8188
▁hawk	-10.8191
▁authors	-10.8194
▁equivalent	-10.8195
▁forgotten	-10.8196
aged	-10.8198
lio	-10.8199
▁rarely	-10.8199
▁voted	-10.8201
▁staring	-10.8208
▁heading	-10.8209
zie	-10.821
▁seasons	-10.821
live	-10.8211
hon	-10.8214
▁believes	-10.8217
▁aux	-10.8219
▁plum	-10.822
eck	-10.8223
▁purposes	-10.8226
hole	-10.823
▁cried	-10.8235
▁evolution	-10.8237
vil	-10.8239
▁cad	-10.824
▁occasionally	-10.8243
▁investors	-10.8243
▁audio	-10.8243
nam	-10.8245
▁rolling	-10.8252
▁substance	-10.8254
▁ongoing	-10.8258
▁regularly	-10.826
▁damn	-10.826
▁assessment	-10.8261
▁cher	-10.8263
▁resulting	-10.8272
has	-10.8273
▁occasion	-10.8273
plo	-10.8274
cial	-10.8277
▁trained	-10.8277
nate	-10.8287
▁venture	-10.8289
▁deaths	-10.8289
sc	-10.8291
▁grab	-10.8295
too	-10.8298
▁statements	-10.8301
das	-10.8304
▁ritual	-10.8306
▁scenario	-10.8308
oz	-10.8308
mini	-10.8312
ws	-10.8314
▁cum	-10.8317
▁degrees	-10.8318
▁glow	-10.8318
ander	-10.8321
け	-10.8327
▁hockey	-10.8328
▁clients	-10.8334
▁chu	-10.8334
▁structures	-10.8335
▁chase	-10.8335
▁personality	-10.8336
erie	-10.8337
▁victoria	-10.8338
▁nach	-10.834
▁τ	-10.8341
ae	-10.8342
mir	-10.8346
▁blast	-10.8347
▁concluded	-10.8353
▁pole	-10.8353
▁auch	-10.8353
▁sounded	-10.8354
jor	-10.8356
morph	-10.8359
▁basically	-10.8361
▁grain	-10.8363
rn	-10.8365
▁statistics	-10.8367
▁default	-10.8369
▁moves	-10.8369
▁suggestion	-10.8372
miss	-10.8373
▁concrete	-10.8376
▁consult	-10.8378
▁mir	-10.838
oid	-10.8385
olo	-10.8386
▁approval	-10.8387
▁ticket	-10.8391
▁kinds	-10.8397
▁tear	-10.8399
▁sons	-10.8401
▁achievement	-10.8406
▁grabbed	-10.8406
gt	-10.8407
ciones	-10.8409
▁mah	-10.841
▁athletic	-10.8414
▁wings	-10.8415
▁glance	-10.8418
▁beast	-10.8418
▁slave	-10.8419
▁fortune	-10.8421
▁liber	-10.8423
▁subsequent	-10.8429
▁stations	-10.8431
ño	-10.8431
code	-10.8436
▁movements	-10.8442
▁nevertheless	-10.8442
▁downtown	-10.8443
▁woods	-10.8445
bet	-10.8445
ites	-10.8448
▁explains	-10.8452
ま	-10.8452
hor	-10.8456
▁earn	-10.847
hour	-10.847
▁aggressive	-10.8471
▁fc	-10.8471
▁fait	-10.8472
▁span	-10.8473
itude	-10.8474
▁knees	-10.8475
sim	-10.8477
▁burned	-10.8479
only	-10.8481
▁dim	-10.8482
▁marijuana	-10.8483
ova	-10.8483
rb	-10.8484
▁deeper	-10.8484
▁wounded	-10.8487
sex	-10.8487
▁framework	-10.849
▁impressive	-10.8491
▁input	-10.8493
=#	-10.8493
▁rapidly	-10.8495
cover	-10.8495
viv	-10.8499
▁stronger	-10.8502
▁kevin	-10.8506
▁painted	-10.8508
▁normally	-10.8508
ache	-10.851
▁insisted	-10.8513
▁psycho	-10.8514
▁crystal	-10.8514
kes	-10.8515
dle	-10.8517
▁brings	-10.852
].	-10.852
▁marry	-10.8525
▁drag	-10.8526
▁reception	-10.8528
▁illness	-10.8529
▁assigned	-10.8531
▁thrown	-10.8531
osa	-10.8532
▁ruin	-10.8533
▁spec	-10.8534
▁privilege	-10.8537
▁weekly	-10.8539
mina	-10.8546
▁payment	-10.8547
▁mere	-10.8548
▁metro	-10.8551
▁stairs	-10.8552
▁engage	-10.8553
▁flower	-10.8554
▁crossing	-10.8554
▁ann	-10.8562
▁kha	-10.8564
imo	-10.8564
▁pulling	-10.8565
▁preparation	-10.8568
▁μ	-10.8574
▁anthony	-10.8577
▁answers	-10.858
▁slice	-10.8582
▁waves	-10.8585
▁cass	-10.8585
▁generate	-10.8588
▁!	-10.8589
▁sco	-10.8594
▁bench	-10.8594
▁solutions	-10.8595
ffer	-10.8595
▁quote	-10.8595
▁discipline	-10.8596
▁subsequently	-10.8599
ín	-10.8601
▁virus	-10.8601
▁pero	-10.8603
▁sink	-10.8606
lop	-10.8607
tie	-10.861
▁shopping	-10.8611
▁piano	-10.8612
nish	-10.8614
fund	-10.8614
▁versions	-10.8614
▁bother	-10.8615
wed	-10.862
▁limits	-10.862
isa	-10.862
▁guests	-10.8624
mie	-10.8625
▁strongly	-10.8625
▁hillary	-10.8625
▁hopes	-10.8629
hab	-10.8629
▁pipe	-10.863
▁poli	-10.8634
▁apparent	-10.8637
▁creature	-10.8639
god	-10.8642
▁continuing	-10.8643
ação	-10.8646
pra	-10.8646
▁syrian	-10.8646
▁hub	-10.8648
▁panic	-10.8648
▁amid	-10.8648
▁hunting	-10.8652
▁languages	-10.8655
lessly	-10.8657
▁personally	-10.8657
▁lobby	-10.8662
▁rocket	-10.8663
▁iv	-10.8663
▁tale	-10.8663
▁networks	-10.8663
▁actress	-10.8667
ラ	-10.8667
▁ought	-10.8673
vit	-10.8674
▁similarly	-10.868
ś	-10.8683
uh	-10.8685
▁poem	-10.8686
▁**_	-10.8686
▁bunch	-10.8688
▁technologies	-10.8689
boy	-10.8689
▁closing	-10.869
▁brick	-10.8693
▁container	-10.8693
ifying	-10.8694
▁yeah	-10.8696
▁composition	-10.8696
▁regions	-10.8697
▁dave	-10.8702
▁disappeared	-10.8703
▁asks	-10.8704
▁ultimate	-10.8705
▁trap	-10.8707
▁innovation	-10.8715
▁charlie	-10.8716
▁employment	-10.8718
▁consideration	-10.8719
▁lawsuit	-10.872
urs	-10.8721
▁proceed	-10.8721
▁naval	-10.8723
▁tablespoons	-10.8723
▁absolute	-10.8724
▁chan	-10.8726
ör	-10.8729
▁examine	-10.8729
cum	-10.873
▁symptoms	-10.8733
▁eve	-10.8734
word	-10.8734
▁gross	-10.8734
▁comedy	-10.8742
gl	-10.8748
▁reporter	-10.8756
▁oak	-10.8761
keeper	-10.8762
▁pose	-10.8764
▁princess	-10.8769
ко	-10.8772
▁rejected	-10.8772
hel	-10.8773
▁describes	-10.8773
qué	-10.8775
▁audit	-10.8776
▁sil	-10.8778
mount	-10.8781
ential	-10.8783
▁manifest	-10.8785
▁gau	-10.8785
stop	-10.8787
▁components	-10.8788
▁proportion	-10.8789
▁whereas	-10.8789
▁retreat	-10.879
▁transportation	-10.8793
▁rag	-10.8793
▁divine	-10.8793
▁exposure	-10.8796
▁secondary	-10.8796
ounce	-10.88
bie	-10.88
▁pile	-10.88
▁distant	-10.8801
▁pope	-10.8801
ż	-10.8804
▁lung	-10.881
▁wir	-10.8811
meter	-10.8812
▁developers	-10.8815
isse	-10.8816
▁gathering	-10.8821
▁eager	-10.8821
rait	-10.8822
div	-10.8825
hey	-10.8825
una	-10.883
▁yard	-10.883
▁designer	-10.8832
aient	-10.8835
twitter	-10.8835
shot	-10.8836
lee	-10.8836
heim	-10.8836
▁confident	-10.884
▁alt	-10.8844
▁battery	-10.8844
ф	-10.8845
▁echo	-10.8852
▁bones	-10.8854
awa	-10.8854
▁scenes	-10.8854
▁demands	-10.8856
coming	-10.8857
τα	-10.8858
▁blocks	-10.886
ió	-10.8861
cé	-10.8862
rr	-10.8863
fish	-10.8864
▁composed	-10.8865
lim	-10.8866
▁dash	-10.8869
▁ambassador	-10.8871
▁wisdom	-10.8872
▁moore	-10.8873
▁raising	-10.8873
bia	-10.8876
▁detective	-10.8876
▁colonel	-10.8876
▁allen	-10.8878
▁stu	-10.8878
▁leather	-10.8879
▁eagle	-10.888
dh	-10.8882
▁jun	-10.8885
▁dna	-10.8886
gress	-10.889
ending	-10.8892
▁competitive	-10.8892
ве	-10.8892
▁deny	-10.8893
▁riding	-10.8895
rel	-10.89
▁topic	-10.8901
▁brave	-10.8902
aki	-10.8904
▁cigarette	-10.8905
nder	-10.8906
uda	-10.891
▁sang	-10.8911
▁subjects	-10.8911
▁recommend	-10.8911
ه	-10.8912
self	-10.8913
▁weigh	-10.8913
▁pou	-10.8914
▁sac	-10.8915
▁fewer	-10.8918
▁walter	-10.8922
▁regret	-10.8922
uel	-10.8923
én	-10.8923
▁kor	-10.8924
▁nur	-10.8924
▁cin	-10.8925
quel	-10.8925
lf	-10.8926
▁regulations	-10.8926
▁cran	-10.893
▁segment	-10.8939
asse	-10.8947
▁reporters	-10.8951
scale	-10.8952
rose	-10.8952
▁harris	-10.8954
▁edit	-10.8956
▁cm	-10.8956
▁intervention	-10.8956
nar	-10.896
▁atlantic	-10.8962
maker	-10.8963
ме	-10.8964
▁lamb	-10.8964
▁ethnic	-10.8967
pf	-10.8967
▁sau	-10.8968
δ	-10.897
▁clark	-10.8973
▁slide	-10.8975
▁letting	-10.8975
▁eleven	-10.8979
▁ir	-10.8979
essa	-10.898
▁vin	-10.8981
▁fake	-10.8983
fla	-10.8986
llo	-10.8986
▁injuries	-10.8987
▁fau	-10.8988
▁ele	-10.8989
▁statue	-10.899
▁passes	-10.8991
▁guardian	-10.8991
▁weird	-10.8992
pit	-10.8992
▁monument	-10.8994
▁clothing	-10.8994
▁marvel	-10.8995
ugh	-10.8996
▁bot	-10.8996
▁mala	-10.8999
▁publicly	-10.9001
▁colonial	-10.9001
▁colorado	-10.9006
ios	-10.901
ου	-10.9011
▁baker	-10.9017
cz	-10.9018
▁compound	-10.9021
uz	-10.9022
▁innocent	-10.9024
▁warren	-10.9024
▁baking	-10.9028
▁jen	-10.9029
▁demanded	-10.903
▁reply	-10.9031
▁dor	-10.9032
▁alle	-10.9032
▁portrait	-10.9032
mod	-10.9037
▁unlikely	-10.9041
▁cult	-10.9041
mma	-10.9044
▁consistent	-10.9045
▁const	-10.9045
▁successfully	-10.9046
▁rely	-10.9047
▁regardless	-10.905
▁wet	-10.9056
▁cos	-10.906
▁poland	-10.9063
fect	-10.9063
▁patrol	-10.9065
fc	-10.9068
▁interpret	-10.9071
▁arc	-10.9071
▁summit	-10.9074
▁cricket	-10.9074
▁rally	-10.9076
▁sho	-10.9077
vat	-10.9081
▁courage	-10.9083
!”	-10.9084
▁locations	-10.9087
aver	-10.9088
▁bathroom	-10.9088
▁anne	-10.909
▁scottish	-10.9093
▁fil	-10.9093
lect	-10.9094
▁exhibition	-10.9094
▁upset	-10.9096
▁walker	-10.9099
б	-10.9102
▁foi	-10.9103
не	-10.9107
isi	-10.911
▁suck	-10.9113
late	-10.9118
▁brazil	-10.912
▁emp	-10.9122
▁stan	-10.9125
▁interface	-10.9126
than	-10.9126
▁oz	-10.9128
▁greg	-10.913
▁institution	-10.9132
▁shade	-10.9134
▁über	-10.9134
▁meetings	-10.9138
▁wage	-10.9139
▁demonstrate	-10.9143
craft	-10.9144
▁inches	-10.9144
▁arizona	-10.9146
▁ukraine	-10.9149
▁cliff	-10.915
elect	-10.9151
mission	-10.9151
▁pap	-10.9151
▁exc	-10.9154
count	-10.9157
lip	-10.9158
▁robot	-10.9159
▁nun	-10.9159
▁covering	-10.9162
▁declined	-10.9162
▁socialist	-10.9163
▁brilliant	-10.9164
▁vas	-10.9169
▁morgan	-10.9171
▁commonly	-10.9174
▁registered	-10.9182
ela	-10.9183
cou	-10.9184
active	-10.9186
θ	-10.9187
▁drivers	-10.9188
▁programming	-10.9189
▁supplies	-10.9189
▁entering	-10.9189
these	-10.919
▁birthday	-10.919
▁jacket	-10.9193
▁contributed	-10.9193
▁borrow	-10.9197
▁eli	-10.9204
▁complicated	-10.9205
▁involving	-10.9205
▁ich	-10.9208
▁même	-10.921
▁anxiety	-10.9211
▁satellite	-10.9213
▁instructions	-10.9215
▁awareness	-10.9215
?_	-10.9217
iti	-10.9218
map	-10.922
ør	-10.9224
▁scr	-10.9226
リ	-10.9231
▁sydney	-10.9231
▁tiger	-10.9232
gas	-10.9234
▁adopt	-10.9235
▁barrier	-10.9235
че	-10.924
human	-10.9241
▁//	-10.9241
guard	-10.9247
▁vietnam	-10.9248
▁recovery	-10.9252
▁bang	-10.9253
corn	-10.9253
▁pleased	-10.9254
▁offense	-10.9254
mr	-10.9255
▁dimension	-10.9256
▁afghanistan	-10.9256
▁torture	-10.9261
▁reportedly	-10.9265
▁favour	-10.9269
▁про	-10.9275
▁hired	-10.9276
▁foods	-10.9279
lent	-10.928
▁invasion	-10.9282
lc	-10.9291
▁ignore	-10.9294
roy	-10.9294
▁classical	-10.9295
▁arguments	-10.9296
▁eva	-10.9303
▁sentiment	-10.9305
▁clinical	-10.9306
km	-10.9312
▁protocol	-10.9313
▁singing	-10.9313
weight	-10.9314
▁liberty	-10.9314
▁cuts	-10.9315
gua	-10.9316
vä	-10.9316
▁emerge	-10.9316
▁rape	-10.9317
▁sixth	-10.9318
▁recommended	-10.932
▁patrick	-10.932
▁maintained	-10.9321
▁reasonable	-10.9321
▁component	-10.9323
cion	-10.9326
▁raf	-10.9327
▁mum	-10.9328
▁gan	-10.9329
vio	-10.9331
▁mystery	-10.9335
▁execution	-10.9337
▁worship	-10.9337
arse	-10.9338
▁regarded	-10.934
▁houston	-10.9341
iza	-10.9342
▁glo	-10.9343
ators	-10.9344
▁indicated	-10.9346
▁imagination	-10.9346
▁rope	-10.9346
prov	-10.9349
maybe	-10.935
▁orchestra	-10.935
stead	-10.9354
▁rust	-10.9359
cate	-10.936
▁pub	-10.9363
▁deci	-10.9363
▁shouted	-10.9365
▁tackle	-10.9369
liga	-10.937
▁exists	-10.9372
▁architect	-10.9373
wr	-10.9373
ün	-10.9374
▁repeatedly	-10.9376
▁consumers	-10.9377
▁golf	-10.9378
cca	-10.938
▁thu	-10.9383
▁α	-10.9383
cup	-10.9383
▁flick	-10.9384
▁bli	-10.9384
▁anybody	-10.9386
▁sake	-10.9386
ät	-10.9391
▁indicate	-10.9393
▁arrow	-10.9394
▁refuse	-10.9394
▁exploit	-10.9396
▁prisoners	-10.9396
hem	-10.9396
wor	-10.9398
▁emotions	-10.9402
ない	-10.9402
▁ei	-10.9404
▁massachusetts	-10.9405
▁agenda	-10.941
▁worldwide	-10.941
▁abortion	-10.9412
▁moreover	-10.9413
▁commissioner	-10.9413
▁clay	-10.9413
rap	-10.9414
▁killer	-10.9418
▁roads	-10.942
ulated	-10.9425
▁airline	-10.9425
▁briefly	-10.9433
▁neutral	-10.9434
▁dramatic	-10.9436
script	-10.9437
▁fisher	-10.9437
▁concentration	-10.9438
▁purchased	-10.9438
span	-10.9441
▁luke	-10.9444
▁gop	-10.9444
▁victor	-10.9445
▁neu	-10.9447
▁decrease	-10.9447
avi	-10.9447
lov	-10.9448
▁destination	-10.945
rent	-10.9457
れ	-10.9459
▁currency	-10.9463
▁drift	-10.9464
▁jason	-10.9465
ann	-10.9465
▁organic	-10.9469
▁telephone	-10.9473
tail	-10.9477
▁psychological	-10.9481
vé	-10.9483
▁immigrants	-10.9485
▁choices	-10.9486
ك	-10.9487
こと	-10.9487
▁muscle	-10.9487
▁lan	-10.9488
▁listing	-10.9489
▁excuse	-10.9495
▁cord	-10.9495
▁ignored	-10.9497
▁patriot	-10.9501
fel	-10.9503
▁occupation	-10.9503
ή	-10.9504
▁adapt	-10.9507
▁pens	-10.9507
▁å	-10.9507
black	-10.9508
▁fue	-10.951
▁seed	-10.951
ivity	-10.9517
▁voices	-10.9518
▁marks	-10.952
idade	-10.9521
cp	-10.9522
▁disney	-10.9534
▁scan	-10.9536
▁romantic	-10.9537
three	-10.9537
▁genre	-10.9537
fle	-10.9539
▁cru	-10.954
▁breathing	-10.9541
▁abstract	-10.9544
▁kir	-10.955
▁cluster	-10.9551
▁analyst	-10.9552
▁©	-10.9552
▁authentic	-10.9554
▁affair	-10.9555
▁recover	-10.9559
▁ag	-10.9559
▁rang	-10.9562
▁resource	-10.9566
▁containing	-10.9579
▁lamp	-10.9582
▁aunt	-10.9582
▁machines	-10.9582
mme	-10.9586
▁constructed	-10.9586
phone	-10.9588
▁ruled	-10.9591
▁scandal	-10.9591
▁merchant	-10.9592
▁unexpected	-10.9594
▁contribute	-10.9597
▁scholar	-10.9605
ungen	-10.9606
▁arena	-10.9607
▁occupied	-10.961
▁featuring	-10.9611
▁titles	-10.9612
▁colors	-10.9615
▁_"	-10.9618
own	-10.962
▁pis	-10.9623
▁anchor	-10.9623
▁grande	-10.9623
▁precisely	-10.9624
▁accurate	-10.9625
▁sufficient	-10.9625
▁advertising	-10.9627
say	-10.9628
ogen	-10.9629
▁vent	-10.9635
$$	-10.9636
▁earl	-10.9638
▁bren	-10.9639
news	-10.9642
φ	-10.9646
▁legacy	-10.9649
priv	-10.9654
while	-10.9655
▁rider	-10.9655
▁wins	-10.9655
▁treasure	-10.9658
▁spokesman	-10.9661
izz	-10.9661
▁seal	-10.9665
▁humanity	-10.9669
▁gonna	-10.967
▁resulted	-10.967
▁bud	-10.9671
▁perception	-10.9672
▁participate	-10.9674
▁als	-10.9675
though	-10.9676
▁constitutional	-10.9678
lea	-10.9681
▁visiting	-10.9684
pad	-10.9686
bank	-10.9691
▁sv	-10.9691
▁thunder	-10.9693
dir	-10.9694
ridge	-10.9703
lier	-10.9704
▁citizen	-10.9714
▁employed	-10.9717
▁scout	-10.9719
iro	-10.972
tens	-10.9723
national	-10.9725
▁anderson	-10.9726
▁scope	-10.9731
▁twist	-10.9733
▁infantry	-10.9734
▁reign	-10.9735
▁sensor	-10.9738
▁expanded	-10.9738
cie	-10.9738
▁node	-10.9744
bell	-10.9744
fen	-10.9745
▁guarantee	-10.9748
▁wrapped	-10.9753
▁num	-10.9754
bound	-10.9755
▁assess	-10.9757
▁behaviour	-10.976
▁verse	-10.9761
▁stroke	-10.9762
▁reduction	-10.9765
tric	-10.9766
ん	-10.9768
▁succeed	-10.9768
▁performing	-10.9771
▁appointment	-10.9772
▁quoted	-10.9773
amento	-10.9773
う	-10.9777
make	-10.978
▁minnesota	-10.9784
pri	-10.9784
▁roots	-10.9785
▁orbit	-10.9787
▁threats	-10.9787
▁playoff	-10.9787
▁deposit	-10.9788
▁possess	-10.979
▁championships	-10.9791
grad	-10.9792
▁difficulty	-10.9793
▁assert	-10.9794
▁surgery	-10.9794
▁forum	-10.9796
▁dass	-10.9796
▁continuous	-10.9798
▁py	-10.98
▁beck	-10.9802
vision	-10.9804
▁steal	-10.9809
ego	-10.9809
▁delivery	-10.981
▁pleasant	-10.9811
▁dock	-10.9812
▁suspected	-10.9814
▁algorithm	-10.9815
igen	-10.9815
▁jumped	-10.9816
▁signing	-10.9817
▁introduce	-10.9818
vr	-10.982
▁hop	-10.982
▁bold	-10.9824
▁reviews	-10.9826
phe	-10.9827
lev	-10.9829
▁vulnerable	-10.983
▁attract	-10.9832
▁ratio	-10.9835
▁boom	-10.9837
▁mock	-10.9839
î	-10.9841
rais	-10.9844
▁staying	-10.9844
mag	-10.9846
ć	-10.9848
▁restaurants	-10.9851
▁tested	-10.9853
▁friendship	-10.9853
▁defender	-10.9853
▁pump	-10.9853
▁brutal	-10.9854
uer	-10.9859
▁dried	-10.9859
▁harvard	-10.9862
▁educational	-10.9863
▁dump	-10.9863
acle	-10.9864
▁naked	-10.9865
▁clubs	-10.987
▁witch	-10.9872
▁abandon	-10.9872
▁vegetables	-10.9873
▁steady	-10.9875
▁foster	-10.9875
issa	-10.9875
▁compare	-10.9878
▁virtue	-10.988
▁survival	-10.9882
think	-10.9883
▁ceiling	-10.9885
▁shan	-10.9886
ili	-10.9887
▁hur	-10.9888
iling	-10.9892
▁jerusalem	-10.9893
▁respectively	-10.9893
äl	-10.9894
uro	-10.9896
▁temporary	-10.9904
▁hun	-10.9905
uf	-10.9906
pul	-10.9907
▁increases	-10.9907
▁revolutionary	-10.9909
▁villa	-10.9909
▁cock	-10.991
▁diamond	-10.9911
ggle	-10.9915
bur	-10.9915
▁democrat	-10.9922
▁roles	-10.9925
▁wrap	-10.9926
▁halt	-10.9926
grav	-10.9928
▁thy	-10.9929
▁settle	-10.993
▁employee	-10.9932
watch	-10.9933
▁hart	-10.9933
ologie	-10.9935
lv	-10.9936
▁violation	-10.9938
borough	-10.994
▁spi	-10.9942
▁cata	-10.9944
▁beam	-10.9946
▁aimed	-10.9953
colo	-10.9957
▁shar	-10.9959
▁soccer	-10.9963
▁fighter	-10.9964
cil	-10.9964
▁accompanied	-10.9965
▁allegations	-10.9966
▁turkish	-10.997
▁opponent	-10.9971
||	-10.9974
▁producing	-10.9979
▁employer	-10.998
▁frozen	-10.9984
ome	-10.9984
▁punishment	-10.9987
▁smiling	-10.9988
▁bend	-10.9988
▁illinois	-10.9989
▁southeast	-10.999
▁worker	-10.9995
▁carrier	-10.9995
▁sobre	-10.9995
ois	-11.0003
▁exciting	-11.0005
rup	-11.0007
▁faint	-11.0009
▁grin	-11.0009
▁grasp	-11.0012
phon	-11.0014
▁prompt	-11.0018
▁hil	-11.0019
▁implementation	-11.0021
▁casual	-11.0024
▁sessions	-11.0025
tica	-11.003
holder	-11.0035
▁monte	-11.0036
▁dough	-11.0037
▁paused	-11.0038
ées	-11.0039
▁confused	-11.0039
▁assumption	-11.0041
▁cheer	-11.0042
ech	-11.0044
lusion	-11.0045
▁gods	-11.0046
commun	-11.0046
▁protests	-11.0047
▁therapy	-11.0048
▁bars	-11.0051
▁grounds	-11.0051
▁gradually	-11.0055
▁sept	-11.0057
▁actors	-11.0063
▁champions	-11.0064
▁margin	-11.0064
chan	-11.0072
chester	-11.0076
▁outline	-11.0076
▁cle	-11.0079
▁stamp	-11.0079
▁fist	-11.0081
▁survived	-11.0082
▁controversial	-11.0083
▁chap	-11.0086
chapter	-11.0088
▁warrant	-11.0095
▁battalion	-11.0097
▁connections	-11.0099
▁collapse	-11.01
▁helpful	-11.01
▁fragment	-11.0102
▁consists	-11.0104
▁alan	-11.0106
▁scratch	-11.0107
▁thrill	-11.0108
▁divorce	-11.0108
▁suite	-11.011
▁douglas	-11.0111
mig	-11.0113
▁wondering	-11.0116
▁muslims	-11.0119
date	-11.0119
▁imagin	-11.0124
▁occurs	-11.0126
ę	-11.0128
▁runner	-11.0129
▁insert	-11.0129
tics	-11.0131
▁slipped	-11.0138
▁sacred	-11.0139
▁fol	-11.0148
▁signature	-11.0148
▁manual	-11.0151
▁infection	-11.0153
ische	-11.0156
▁cannabis	-11.0158
▁differ	-11.0159
▁rack	-11.016
▁hans	-11.0163
▁retirement	-11.0166
▁laughing	-11.0167
▁sciences	-11.017
▁folks	-11.017
▁fold	-11.0171
▁lovely	-11.0172
▁ul	-11.0176
▁bil	-11.0176
eight	-11.0176
▁activists	-11.0177
▁seattle	-11.0178
▁spy	-11.0178
▁jazz	-11.0182
illo	-11.0183
▁brad	-11.0187
▁mort	-11.0188
gul	-11.0189
ی	-11.019
▁está	-11.019
ote	-11.0194
figure	-11.0195
step	-11.0199
▁handful	-11.02
▁physician	-11.0201
▁raj	-11.0202
▁detect	-11.0205
▁recalled	-11.0205
ω	-11.0208
▁considerable	-11.021
▁lean	-11.021
cru	-11.0213
sburg	-11.0214
▁een	-11.0214
▁happiness	-11.0214
▁striking	-11.0217
▁grill	-11.0221
▁hardware	-11.0222
▁acknowledge	-11.0223
・	-11.0226
▁behalf	-11.0227
▁cyber	-11.0228
▁earning	-11.0231
later	-11.0236
▁hind	-11.0238
▁tries	-11.0242
▁armor	-11.0246
▁dirty	-11.0249
▁tit	-11.025
▁confusion	-11.0251
▁bir	-11.0253
▁treaty	-11.0254
▁shrugged	-11.0256
▁distributed	-11.0259
▁elder	-11.0262
▁ceremony	-11.0268
▁wished	-11.0269
▁joining	-11.027
▁silk	-11.0273
ssen	-11.0273
▁copies	-11.0274
▁lime	-11.0275
pay	-11.0276
▁spur	-11.0278
bru	-11.0286
▁greece	-11.029
▁susan	-11.0292
▁sel	-11.0293
▁automatically	-11.0294
▁plug	-11.0295
▁grateful	-11.0295
▁mainstream	-11.0297
▁administrative	-11.03
▁headline	-11.0301
univers	-11.0301
curr	-11.0302
▁electricity	-11.0303
▁badly	-11.0303
▁incredible	-11.0304
▁sheriff	-11.0308
otto	-11.0308
▁lil	-11.031
print	-11.0316
von	-11.0322
▁gordon	-11.0326
▁encouraged	-11.0327
ago	-11.0331
▁underground	-11.0331
▁ry	-11.0332
love	-11.0333
▁flew	-11.0334
▁rou	-11.0334
▁emphasis	-11.0335
▁cia	-11.0338
nim	-11.0339
ки	-11.0339
▁baron	-11.0342
▁boot	-11.0342
же	-11.0344
▁cape	-11.0344
▁fulfill	-11.0345
▁fence	-11.0345
▁brow	-11.0345
▁nomination	-11.0348
▁processing	-11.0349
▁chip	-11.0353
▁ridge	-11.0359
▁whisper	-11.036
▁inte	-11.0363
open	-11.0365
▁operated	-11.0366
▁losses	-11.0367
▁beef	-11.0368
▁mega	-11.0369
▁beans	-11.0369
▁reflection	-11.037
▁manchester	-11.0372
</	-11.0377
▁findings	-11.0377
▁publisher	-11.0378
▁genes	-11.0379
▁había	-11.0382
▁thumb	-11.0383
▁prophet	-11.0384
▁compromise	-11.0386
scribe	-11.0389
▁situations	-11.0392
▁searching	-11.0395
value	-11.0396
kn	-11.0396
▁distinction	-11.0398
▁theme	-11.0399
▁dates	-11.0399
▁frequent	-11.04
▁moderate	-11.0402
▁filling	-11.0403
▁sole	-11.0404
pie	-11.0407
▁carter	-11.0409
▁preferred	-11.0409
▁bloody	-11.0411
▁jury	-11.0415
ò	-11.0416
▁fishing	-11.0417
大	-11.0417
including	-11.042
ру	-11.0422
▁patron	-11.0422
▁hob	-11.0423
▁margaret	-11.0425
gé	-11.0426
▁terminal	-11.0429
ivo	-11.0429
▁adjust	-11.0433
▁dollar	-11.0435
▁sym	-11.0436
▁stri	-11.0437
▁moi	-11.044
round	-11.044
▁keen	-11.0441
rod	-11.0442
thy	-11.0444
▁module	-11.0455
▁mild	-11.0455
▁extraordinary	-11.0456
▁minority	-11.0457
▁sé	-11.046
data	-11.0461
olu	-11.0462
▁transferred	-11.0463
kon	-11.0463
▁consumption	-11.0464
▁rhythm	-11.0466
▁supplement	-11.0466
▁franchise	-11.0469
▁bark	-11.0471
▁burden	-11.0472
▁targets	-11.0473
▁upgrade	-11.0474
mul	-11.0474
▁brit	-11.0474
▁wisconsin	-11.0478
▁sensitive	-11.0478
▁gather	-11.048
▁corruption	-11.048
▁shu	-11.0481
▁bore	-11.0482
ск	-11.0483
▁tube	-11.0483
▁\	-11.0485
fic	-11.0489
▁harsh	-11.0491
▁kri	-11.0493
▁ranking	-11.0494
▁ses	-11.0495
▁landed	-11.0498
▁geo	-11.0499
▁opponents	-11.0501
▁triumph	-11.0501
▁reminded	-11.0503
▁psychology	-11.0506
▁neighbor	-11.0506
って	-11.0507
▁gem	-11.0508
pc	-11.051
▁constitute	-11.0512
▁transformation	-11.0513
▁contents	-11.0513
во	-11.0514
▁mining	-11.0515
zel	-11.0516
▁beliefs	-11.0518
dé	-11.052
▁claiming	-11.0522
▁egyptian	-11.0523
▁installed	-11.0524
flu	-11.0525
▁jaw	-11.0527
▁conscious	-11.0529
▁voi	-11.053
▁detroit	-11.053
▁hitler	-11.0533
▁olympic	-11.0535
tó	-11.0537
▁patent	-11.0538
zed	-11.0544
▁disappear	-11.0545
▁subscribe	-11.0546
alis	-11.0546
home	-11.0547
▁covers	-11.055
▁khan	-11.0553
tina	-11.0555
▁snake	-11.0555
whi	-11.0557
▁entitled	-11.0558
kers	-11.0559
yu	-11.0563
▁appearances	-11.0564
▁accomplish	-11.0564
▁ultra	-11.0569
▁cited	-11.0571
ume	-11.0571
▁font	-11.0572
▁limb	-11.0573
ш	-11.0574
izer	-11.0575
vier	-11.0577
mac	-11.0578
▁surprising	-11.0579
▁sisters	-11.0579
▁δ	-11.0581
▁dirt	-11.0581
·	-11.0581
▁cnn	-11.0583
amo	-11.0589
▁chef	-11.059
mid	-11.059
え	-11.059
▁tissue	-11.0591
▁passengers	-11.0592
▁browser	-11.0592
▁shots	-11.0592
graph	-11.0594
kill	-11.0596
▁mutual	-11.06
▁translated	-11.06
▁engagement	-11.0602
liter	-11.0603
source	-11.0604
▁risks	-11.0606
το	-11.0606
▁retain	-11.0607
▁agriculture	-11.061
iden	-11.061
▁oregon	-11.0622
▁throne	-11.0625
▁pointing	-11.0626
▁punish	-11.063
▁shadows	-11.0631
▁addressed	-11.0633
▁gentle	-11.0634
order	-11.0635
wind	-11.0637
▁rib	-11.064
▁loading	-11.064
▁clan	-11.0648
cell	-11.0651
▁sara	-11.0653
▁cheek	-11.0654
▁backward	-11.0657
▁shaking	-11.0659
cos	-11.0663
▁sensation	-11.0663
ienne	-11.0664
▁barrel	-11.0665
▁к	-11.0665
▁desperate	-11.0672
▁dip	-11.0673
▁episodes	-11.0674
▁withdraw	-11.0676
▁steep	-11.0677
▁promoted	-11.0677
▁samuel	-11.0678
▁branches	-11.0681
▁commit	-11.0683
fon	-11.0685
propria	-11.0689
cub	-11.069
tions	-11.0692
ffe	-11.0692
ein	-11.0693
nov	-11.0693
▁colon	-11.0694
▁legislative	-11.0695
▁artificial	-11.0696
pher	-11.0698
pho	-11.0698
▁attractive	-11.0705
minute	-11.0705
▁studying	-11.0706
used	-11.0706
▁instrument	-11.0707
▁curl	-11.0711
▁cooper	-11.0711
ь	-11.0713
▁boots	-11.0715
ب	-11.0718
▁billy	-11.0719
ți	-11.0721
▁creatures	-11.0724
▁nerve	-11.0726
▁stones	-11.0731
▁hamilton	-11.0732
▁bruce	-11.0733
▁roy	-11.0734
▁virgin	-11.0736
▁miami	-11.0739
trust	-11.0741
▁congressional	-11.0741
▁parish	-11.0742
pla	-11.0742
▁communicate	-11.0744
▁rode	-11.0744
▁sno	-11.0752
▁expectations	-11.0752
▁races	-11.0753
▁lawyers	-11.0753
▁lou	-11.0755
▁departure	-11.0755
▁kate	-11.0755
▁gates	-11.0757
▁explosion	-11.0757
▁tun	-11.076
▁fatal	-11.0762
esh	-11.0763
▁variable	-11.0764
ont	-11.0768
▁tyr	-11.0769
▁arranged	-11.077
lement	-11.077
taking	-11.0771
hall	-11.0772
dress	-11.0773
▁betray	-11.0775
▁fled	-11.0777
▁infant	-11.0777
▁bolt	-11.0779
▁vari	-11.078
makers	-11.0782
▁stiff	-11.0783
▁rocks	-11.0789
▁township	-11.079
▁casa	-11.0792
▁advocate	-11.0793
▁tang	-11.0794
▁venue	-11.0794
acy	-11.0796
▁depends	-11.0797
▁bonus	-11.0808
▁hammer	-11.0808
▁scholarship	-11.0809
▁abu	-11.0809
dog	-11.081
▁oli	-11.0811
liber	-11.0811
▁cloth	-11.0813
rom	-11.0813
▁console	-11.0816
▁squadron	-11.0818
▁exceed	-11.0818
▁existed	-11.0826
care	-11.0829
▁painful	-11.0831
▁pine	-11.0841
▁cabin	-11.0844
▁relax	-11.0844
▁manufacturing	-11.0845
▁struggling	-11.0849
green	-11.0851
▁fraud	-11.0854
file	-11.0854
gur	-11.0856
▁remarkable	-11.0857
▁mm	-11.0858
▁expedition	-11.0859
や	-11.086
iest	-11.0862
▁parameter	-11.0862
▁equi	-11.0864
▁norman	-11.0865
▁iowa	-11.0872
▁drill	-11.0876
▁nail	-11.0877
▁tips	-11.088
sson	-11.0881
▁generated	-11.0882
"—	-11.0883
▁surrender	-11.0884
▁puzzle	-11.0884
found	-11.0886
▁demo	-11.0886
ril	-11.0888
▁strengthen	-11.0888
▁ties	-11.0888
mouth	-11.0889
▁surveillance	-11.0889
▁passenger	-11.0889
▁fucking	-11.089
ğ	-11.0891
▁listened	-11.0892
▁nowhere	-11.0894
▁vest	-11.0896
chin	-11.0897
▁oldest	-11.0899
iii	-11.0901
ū	-11.0901
▁railroad	-11.0902
▁northeast	-11.0907
β	-11.0909
▁ε	-11.091
sión	-11.0913
▁corridor	-11.0914
▁concerning	-11.0919
feld	-11.0921
▁checked	-11.0921
▁horizon	-11.0921
▁graham	-11.0923
▁sketch	-11.0925
hren	-11.0927
stä	-11.0928
▁dialogue	-11.0929
▁imagined	-11.0929
▁jimmy	-11.0929
▁blanc	-11.0931
▁grid	-11.0931
▁conventional	-11.0933
posed	-11.0933
▁throwing	-11.0933
▁thi	-11.0934
▁medieval	-11.0939
etta	-11.0941
▁pier	-11.0942
▁involves	-11.0942
ди	-11.0944
▁presentation	-11.0945
▁globe	-11.0948
▁ages	-11.0949
▁philosopher	-11.095
stream	-11.095
▁dozens	-11.0952
▁]	-11.0952
▁scholars	-11.0952
▁pursue	-11.0957
▁tickets	-11.0957
▁vel	-11.0958
▁spice	-11.0958
▁quit	-11.0959
▁vocal	-11.0959
▁ev	-11.096
▁fried	-11.0961
▁conviction	-11.0962
gov	-11.0965
▁negotiations	-11.0967
▁exclusive	-11.0972
▁refers	-11.0973
▁rage	-11.0977
▁wider	-11.098
usa	-11.0983
▁proven	-11.0985
▁referring	-11.0986
▁painter	-11.0991
一	-11.0992
▁outdoor	-11.0992
▁volunteer	-11.0996
▁allegedly	-11.0997
ة	-11.0998
▁karl	-11.1
▁lawrence	-11.1002
member	-11.1006
▁separated	-11.1012
年	-11.1014
▁tune	-11.1016
ف	-11.1019
▁gel	-11.1031
ク	-11.1034
▁preparing	-11.1036
▁ballot	-11.1038
▁sighed	-11.1041
▁diverse	-11.1041
bbing	-11.1041
firm	-11.1043
▁vocals	-11.1044
▁pause	-11.1045
▁virtually	-11.1049
got	-11.1052
▁suppress	-11.1052
▁dating	-11.1052
▁verb	-11.1053
▁sind	-11.1053
▁finds	-11.1054
▁strategies	-11.1054
▁sack	-11.1055
▁sections	-11.1059
▁lend	-11.106
▁aussi	-11.106
▁nasa	-11.1061
jer	-11.1063
▁edited	-11.1064
ा	-11.1065
▁physics	-11.1067
▁icon	-11.1069
▁sans	-11.1069
▁procedure	-11.1069
から	-11.107
▁representing	-11.107
▁involvement	-11.1071
▁invest	-11.1078
▁diego	-11.1079
sized	-11.108
ambi	-11.1082
anna	-11.1084
▁gabriel	-11.1088
▁partly	-11.1089
▁hiding	-11.109
▁gill	-11.1092
▁welfare	-11.1092
▁celebrate	-11.1092
▁journalists	-11.1093
tori	-11.1094
▁posts	-11.1094
▁praise	-11.1094
▁harvest	-11.1094
▁minds	-11.1095
▁antonio	-11.1097
▁jonathan	-11.1098
▁harbor	-11.1099
▁cir	-11.1101
▁brigade	-11.1102
▁retro	-11.1104
recht	-11.1105
▁fees	-11.1106
▁ris	-11.1108
▁cara	-11.111
▁transit	-11.1117
▁pok	-11.1118
▁residence	-11.1121
idae	-11.1125
▁pronoun	-11.1126
▁crypto	-11.1126
▁curse	-11.1127
▁dat	-11.1128
▁preserve	-11.1147
▁packed	-11.1148
▁replacement	-11.1151
▁indigenous	-11.1151
▁managing	-11.1153
boo	-11.1154
▁alice	-11.1159
▁prim	-11.1159
▁rum	-11.1161
▁wanting	-11.1163
▁dean	-11.1164
roid	-11.1165
▁aber	-11.1168
▁thr	-11.1169
],	-11.117
▁resident	-11.1171
▁lodge	-11.1174
▁theories	-11.1176
▁olympics	-11.1177
base	-11.1178
mine	-11.118
▁plat	-11.1181
pop	-11.1182
▁printed	-11.1182
chy	-11.1184
▁agricultural	-11.1185
por	-11.1185
▁creator	-11.1186
▁bab	-11.1187
general	-11.1188
▁christians	-11.1191
▁confi	-11.1196
▁offices	-11.1198
▁biological	-11.1198
▁taxi	-11.1199
▁dancing	-11.1203
▁significance	-11.1204
▁documentary	-11.1206
hello	-11.1206
▁devi	-11.1207
▁sid	-11.1209
▁blu	-11.1209
▁inspiration	-11.1211
duction	-11.1215
▁cooked	-11.1216
aging	-11.1216
▁pea	-11.1217
crypt	-11.1218
▁celebration	-11.1218
▁intend	-11.1219
▁humor	-11.1219
▁scared	-11.1219
▁marc	-11.122
▁rugby	-11.1222
▁monk	-11.1227
▁dit	-11.123
▁feedback	-11.1231
▁veteran	-11.1231
crib	-11.1232
▁boo	-11.1234
cb	-11.1234
▁persons	-11.1235
▁drum	-11.1236
rou	-11.1236
▁sponsor	-11.1236
▁albums	-11.1239
tier	-11.124
▁poems	-11.1242
▁viewed	-11.1243
▁governments	-11.1244
nico	-11.1246
quer	-11.1251
nick	-11.1253
プ	-11.1254
▁particle	-11.1255
▁thinks	-11.1256
▁cali	-11.1257
▁wrist	-11.1257
س	-11.126
zan	-11.1262
▁lens	-11.1263
pack	-11.1268
shirt	-11.1269
▁sche	-11.1271
▁payments	-11.1272
▁lifetime	-11.1273
▁amounts	-11.1275
▁dallas	-11.1275
▁reflected	-11.1275
▁beating	-11.1277
▁developer	-11.1277
▁bite	-11.1278
▁abc	-11.128
beat	-11.128
▁purple	-11.1281
▁ladies	-11.1283
▁spill	-11.1284
▁vet	-11.1285
▁christopher	-11.1285
▁priority	-11.1288
▁mars	-11.1289
ttle	-11.1292
blo	-11.1293
▁bias	-11.1293
▁russell	-11.1294
▁cleared	-11.1295
▁clinic	-11.1296
▁dive	-11.1297
▁cruz	-11.1297
▁failing	-11.13
▁ontario	-11.1301
▁stall	-11.1301
▁beau	-11.1302
▁arabia	-11.1302
▁kansas	-11.1303
▁membership	-11.1306
▁grandfather	-11.1307
ried	-11.1309
▁chile	-11.1311
agne	-11.1313
▁biography	-11.1313
erson	-11.1314
▁maps	-11.1314
▁dare	-11.1316
▁melt	-11.1319
final	-11.132
▁gulf	-11.1327
▁apps	-11.1329
▁ruth	-11.133
▁juan	-11.1331
▁sixteen	-11.1333
▁tasks	-11.1337
▁funeral	-11.1339
▁slaves	-11.134
▁aero	-11.1342
▁complain	-11.1344
▁slight	-11.1346
▁stolen	-11.1346
▁climbed	-11.1346
▁newsletter	-11.1348
▁adams	-11.135
▁roosevelt	-11.135
▁divide	-11.1352
▁succeeded	-11.1354
▁canal	-11.1354
▁crying	-11.1357
▁deux	-11.136
▁modest	-11.1361
▁employ	-11.1361
tia	-11.1372
▁summary	-11.1373
▁sor	-11.1375
rog	-11.1375
▁mig	-11.1376
▁ownership	-11.1376
tura	-11.1377
▁ras	-11.1382
▁charlotte	-11.1389
image	-11.1391
▁graph	-11.1393
▁blanket	-11.1394
▁bronze	-11.14
▁bump	-11.1403
oni	-11.1404
▁universities	-11.1404
▁scoring	-11.141
▁hits	-11.1412
▁vague	-11.1414
crimin	-11.1415
▁slid	-11.1415
▁ps	-11.1417
▁upcoming	-11.1417
▁lightly	-11.1419
▁tomb	-11.1422
▁pioneer	-11.1426
▁emotion	-11.1427
して	-11.1427
▁worn	-11.143
lik	-11.1431
▁raz	-11.1431
size	-11.1433
▁outrage	-11.1435
▁widespread	-11.1436
enza	-11.1437
▁nat	-11.1439
▁singapore	-11.1442
▁alabama	-11.1442
mad	-11.1442
▁fluid	-11.1448
\\	-11.1448
anza	-11.1451
okay	-11.1455
fil	-11.1456
▁asleep	-11.1463
▁targeted	-11.147
ground	-11.1471
▁automat	-11.1472
▁dishes	-11.1472
▁settings	-11.1473
aunt	-11.1474
agon	-11.1474
▁refugees	-11.1475
▁versus	-11.1481
▁flee	-11.1482
antes	-11.1484
▁courts	-11.1485
▁awful	-11.1493
please	-11.1493
berries	-11.1495
▁kay	-11.1495
▁endless	-11.1496
▁chaos	-11.1499
hara	-11.1502
▁generations	-11.1504
▁parte	-11.1505
▁yang	-11.1505
vik	-11.1506
▁linear	-11.1511
▁announce	-11.1512
interest	-11.1513
▁wool	-11.1514
▁greatly	-11.1515
▁owe	-11.1515
▁riot	-11.1516
▁lid	-11.1516
▁realm	-11.1519
▁merit	-11.1522
group	-11.1524
ono	-11.1531
▁swimming	-11.1531
atic	-11.1533
▁investigate	-11.1534
nation	-11.1535
▁что	-11.1539
▁wander	-11.1539
▁penn	-11.154
▁entertain	-11.1541
▁faculty	-11.1541
▁industries	-11.1542
ста	-11.1543
▁hood	-11.1544
tering	-11.1547
hou	-11.1547
née	-11.1554
▁rumor	-11.1555
▁categories	-11.1556
▁enhance	-11.1557
rang	-11.1557
▁peaceful	-11.1558
▁texts	-11.1559
▁hut	-11.156
▁vil	-11.1561
▁dining	-11.1563
▁epic	-11.1563
▁regulation	-11.1565
▁characteristics	-11.1567
▁cf	-11.1568
▁spare	-11.1568
▁skip	-11.1571
omi	-11.1573
▁admire	-11.1577
voc	-11.1578
hun	-11.158
walk	-11.1581
▁demonstration	-11.1583
▁contrary	-11.1584
▁fantastic	-11.1584
▁ple	-11.1585
▁iranian	-11.1586
wide	-11.1586
▁slope	-11.1591
日	-11.1596
▁cooperation	-11.1596
▁roar	-11.1597
person	-11.1597
onym	-11.16
▁و	-11.1601
▁sour	-11.1603
▁saving	-11.1604
fort	-11.1604
▁observe	-11.1606
vir	-11.1607
▁boxes	-11.161
▁mysterious	-11.161
▁neat	-11.1612
▁collaboration	-11.1616
▁glove	-11.1619
▁scientist	-11.162
あ	-11.1621
▁sergeant	-11.1622
▁spray	-11.1624
▁nba	-11.1625
▁embrace	-11.1628
▁fierce	-11.163
cock	-11.1633
▁contributions	-11.1634
▁visa	-11.1638
▁clouds	-11.1642
▁unity	-11.1645
▁qual	-11.1646
▁brexit	-11.1648
▁iphone	-11.165
rine	-11.1653
rar	-11.1653
nge	-11.1653
▁lesson	-11.1656
sort	-11.1656
ân	-11.166
▁crawl	-11.1661
▁keeps	-11.1661
jar	-11.1665
vp	-11.1667
rain	-11.1669
een	-11.1676
▁mechanical	-11.1677
▁cotton	-11.1679
▁reuters	-11.1682
cip	-11.1684
▁proc	-11.1685
▁struggled	-11.1688
▁bills	-11.1689
▁manuscript	-11.1691
▁updates	-11.1693
▁wash	-11.1695
▁northwest	-11.1695
▁delhi	-11.1696
▁chances	-11.1698
▁profound	-11.1704
▁obligation	-11.1705
▁duties	-11.1706
▁challenging	-11.1713
▁ко	-11.1714
▁($	-11.1714
▁complaint	-11.1716
▁ranks	-11.1718
wy	-11.172
cade	-11.1723
▁wit	-11.1725
ulate	-11.1728
tico	-11.1732
igo	-11.1733
▁penalty	-11.1735
▁vow	-11.1738
▁liv	-11.1741
▁abroad	-11.1743
ischen	-11.1744
▁petition	-11.1744
▁weakness	-11.1747
grade	-11.1748
▁shower	-11.1748
rise	-11.175
▁loyal	-11.1751
▁fighters	-11.1754
▁electoral	-11.1756
rez	-11.1757
▁anniversary	-11.1757
▁bears	-11.1758
▁adviser	-11.1758
се	-11.176
▁dj	-11.176
▁adds	-11.1761
▁flip	-11.1763
second	-11.1763
▁robin	-11.1763
▁skull	-11.1766
olog	-11.1768
tered	-11.1769
▁preference	-11.1774
▁marie	-11.1776
som	-11.1782
▁tier	-11.1785
zia	-11.1787
fit	-11.1787
▁scream	-11.1787
▁ruler	-11.1788
▁smash	-11.1792
yle	-11.1794
check	-11.1799
▁strict	-11.1799
▁arise	-11.18
▁composer	-11.1801
▁chuck	-11.1802
greg	-11.1803
€	-11.1805
▁observer	-11.1806
▁potatoes	-11.1808
▁desired	-11.1809
▁equation	-11.1809
▁churches	-11.181
▁cardinal	-11.181
▁shifted	-11.1811
▁hindu	-11.1812
fra	-11.1818
▁firing	-11.1819
▁terrorism	-11.1819
zh	-11.1824
▁waters	-11.1824
ș	-11.1827
▁improvement	-11.1828
▁rav	-11.1829
train	-11.1834
▁seemingly	-11.1834
▁lessons	-11.1837
▁crow	-11.1837
▁decent	-11.1838
▁swim	-11.1843
éc	-11.1844
▁glory	-11.1844
▁σ	-11.1848
▁teenager	-11.1848
ë	-11.1855
▁participation	-11.1855
▁federation	-11.1856
▁đ	-11.1859
clock	-11.1861
▁backed	-11.1862
hora	-11.1863
▁rhetoric	-11.1864
▁vr	-11.1864
▁testimony	-11.1865
▁до	-11.1868
▁со	-11.1868
▁receiver	-11.1868
▁cour	-11.1869
being	-11.1873
▁bloom	-11.1877
▁glasses	-11.1877
other	-11.1879
▁ranked	-11.1882
▁contribution	-11.1883
would	-11.1885
▁seventh	-11.1885
▁conservation	-11.1885
cm	-11.1886
enta	-11.1886
▁directions	-11.1887
▁smoking	-11.1888
rina	-11.1889
▁submit	-11.1892
▁gym	-11.1895
▁substitute	-11.1895
▁suspended	-11.1898
▁indians	-11.1903
▁keys	-11.1905
▁benjamin	-11.1906
etto	-11.1906
wise	-11.1908
▁sweden	-11.191
▁venezuela	-11.1913
▁generous	-11.1914
max	-11.1915
▁anxious	-11.1915
flow	-11.1919
▁diversity	-11.192
▁robinson	-11.1923
version	-11.1928
"|	-11.1929
lib	-11.1932
▁stored	-11.1935
▁shops	-11.1938
▁publications	-11.1938
big	-11.1939
▁gardens	-11.1945
▁reject	-11.1946
uto	-11.1947
vul	-11.1947
▁traveling	-11.1952
▁dismiss	-11.1957
▁fever	-11.1962
▁morris	-11.1963
add	-11.1963
▁wealthy	-11.1964
▁stages	-11.1964
▁blank	-11.1965
▁stain	-11.1967
▁torn	-11.1968
aud	-11.197
▁chor	-11.1971
▁ace	-11.1972
▁pregnant	-11.1972
▁goods	-11.1972
bio	-11.1976
▁approaches	-11.1978
です	-11.1979
▁figured	-11.1982
▁candle	-11.1983
iah	-11.1988
▁attempting	-11.199
▁bern	-11.1991
▁needle	-11.1991
▁kicked	-11.1991
▁interviews	-11.1991
▁overwhelming	-11.1993
▁nut	-11.1993
▁sue	-11.1994
ality	-11.1996
▁photographs	-11.1997
▁aged	-11.2006
▁michel	-11.2006
▁sandwich	-11.2012
▁hurricane	-11.2016
▁overcome	-11.2017
▁unter	-11.2018
▁contracts	-11.2019
▁ska	-11.2019
▁sheep	-11.2019
hat	-11.2021
▁avait	-11.2024
▁picking	-11.2026
▁handling	-11.2028
▁tables	-11.2029
▁publish	-11.203
enberg	-11.2031
rite	-11.2033
also	-11.2033
ibly	-11.2034
▁helen	-11.2035
▁consent	-11.2036
▁attraction	-11.2036
▁revelation	-11.204
▁derived	-11.2042
string	-11.2044
▁charter	-11.2044
▁conceal	-11.2047
fight	-11.2052
▁indiana	-11.2052
▁comb	-11.2056
▁emphasize	-11.2057
▁indonesia	-11.2057
ché	-11.2058
▁franklin	-11.2059
▁insult	-11.2063
▁dominant	-11.2067
▁bubble	-11.2068
▁males	-11.2071
osh	-11.2072
▁everyday	-11.2074
▁platforms	-11.2074
▁spo	-11.2076
▁beijing	-11.2077
▁hitting	-11.2078
▁putin	-11.208
▁subtle	-11.2081
▁sap	-11.2083
▁pledge	-11.2083
▁mcg	-11.2085
▁comprehensive	-11.2087
▁batter	-11.209
psych	-11.2091
▁favourite	-11.2099
▁emerging	-11.2099
zione	-11.2104
▁quarterback	-11.2107
zon	-11.211
▁legitimate	-11.211
▁admiral	-11.2115
▁sna	-11.2115
court	-11.2116
▁corp	-11.2119
▁hungry	-11.2119
▁damaged	-11.2121
▁hire	-11.2122
▁titled	-11.2124
▁maintenance	-11.2124
▁controversy	-11.2127
dling	-11.2128
bian	-11.2128
▁charity	-11.2129
bear	-11.2129
mara	-11.2131
▁urged	-11.2134
drop	-11.2134
clar	-11.2135
▁observation	-11.2137
▁mg	-11.2138
keep	-11.214
third	-11.2141
▁cancel	-11.2141
▁nel	-11.2143
▁gaming	-11.2145
▁spoon	-11.2148
mile	-11.215
▁reserved	-11.2151
cf	-11.2154
▁spider	-11.2155
▁irre	-11.2156
▁rico	-11.2157
six	-11.2162
▁suggesting	-11.2165
▁insect	-11.2167
▁drone	-11.2167
ej	-11.2167
▁marshall	-11.2167
ref	-11.2173
▁berg	-11.2173
▁ramp	-11.2173
jen	-11.2182
▁austin	-11.2185
▁requests	-11.2186
▁concepts	-11.2187
▁prohibit	-11.2188
ön	-11.2192
▁stro	-11.2193
▁exile	-11.2194
י	-11.2195
homme	-11.2197
▁analog	-11.2201
▁jose	-11.2201
▁shaw	-11.2201
▁reducing	-11.2202
toria	-11.2203
▁atlanta	-11.2206
▁hosted	-11.2206
mc	-11.2208
▁pizza	-11.2209
▁creates	-11.2211
▁pursuit	-11.2215
▁firmly	-11.2215
▁villages	-11.2215
▁bulk	-11.2216
▁liz	-11.2217
hit	-11.2217
▁persuade	-11.2218
▁speaks	-11.2219
▁transaction	-11.2221
▁stitch	-11.2224
london	-11.2225
▁intelligent	-11.2226
start	-11.2229
▁gary	-11.223
▁nh	-11.2232
call	-11.2233
▁julie	-11.2234
wiki	-11.2237
▁dice	-11.2239
▁buzz	-11.224
▁economics	-11.2241
▁#####	-11.2242
hap	-11.2242
▁economist	-11.2249
▁philosophical	-11.225
▁pes	-11.2252
pid	-11.2253
wich	-11.2253
gia	-11.2254
▁vegas	-11.2255
ча	-11.2256
▁ginger	-11.2257
▁nelson	-11.2257
▁demonstrated	-11.2258
camp	-11.2259
▁diese	-11.2259
▁float	-11.226
lation	-11.226
fur	-11.226
▁restrict	-11.2264
stat	-11.2264
public	-11.2265
lton	-11.2267
▁pul	-11.2268
gil	-11.227
▁mou	-11.227
▁doctrine	-11.2271
▁bernard	-11.2272
▁nik	-11.2273
▁levi	-11.2273
▁resolve	-11.2275
▁wright	-11.2277
▁neg	-11.2278
▁scores	-11.2282
▁crisp	-11.2288
▁wildlife	-11.2291
ει	-11.2291
▁convince	-11.2291
▁provincial	-11.2292
▁declaration	-11.2293
▁schu	-11.2293
hur	-11.2295
odor	-11.2295
▁tid	-11.2295
▁municipal	-11.2296
john	-11.23
ector	-11.2301
▁sei	-11.2302
mil	-11.2302
▁rip	-11.2307
▁remarks	-11.2312
▁shakespeare	-11.2313
adas	-11.2313
▁hypo	-11.2314
posit	-11.2316
▁civilization	-11.2317
▁texture	-11.2319
▁warriors	-11.2323
▁monthly	-11.2325
dec	-11.2327
▁pont	-11.2327
▁interact	-11.2329
▁mist	-11.2329
control	-11.233
▁sag	-11.2332
▁larry	-11.2332
mino	-11.2334
▁instinct	-11.2334
▁peu	-11.2335
▁kla	-11.2336
▁tourist	-11.2339
▁indicates	-11.2342
▁vale	-11.2342
▁triple	-11.2342
enti	-11.2342
▁bacteria	-11.2343
mé	-11.2344
▁anonymous	-11.2349
dad	-11.2351
rak	-11.2352
prim	-11.2354
▁pearl	-11.2357
week	-11.2361
▁wu	-11.2362
punk	-11.2363
▁gest	-11.2365
▁sr	-11.237
strat	-11.2376
▁dismissed	-11.2377
▁activist	-11.2377
▁trains	-11.2378
▁muscles	-11.2379
▁knocked	-11.2381
▁heroes	-11.2382
itu	-11.2382
▁gam	-11.2384
▁midnight	-11.2388
▁marx	-11.2389
ロ	-11.2389
▁newspapers	-11.239
▁paintings	-11.2393
▁flame	-11.24
▁fiber	-11.24
▁artillery	-11.2402
▁restrictions	-11.2402
▁galaxy	-11.2405
▁slot	-11.2406
▁justin	-11.2412
▁bail	-11.2416
▁migration	-11.2418
▁lowest	-11.2419
▁cham	-11.2421
▁reliable	-11.2424
▁carol	-11.2424
sent	-11.2425
▁whisk	-11.2428
▁strand	-11.2431
▁beard	-11.2431
▁brewer	-11.2435
▁tablespoon	-11.2435
▁hydro	-11.2436
▁municipality	-11.2437
omo	-11.2437
election	-11.2438
▁vessel	-11.2439
▁inquiry	-11.244
▁incredibly	-11.2443
jon	-11.2446
▁neighbour	-11.2449
▁spear	-11.2451
▁snapped	-11.2451
▁pill	-11.2452
child	-11.2454
▁fiscal	-11.2455
screen	-11.2455
▁feather	-11.2456
itch	-11.2457
▁nathan	-11.2457
▁isolated	-11.246
▁experimental	-11.2463
▁erect	-11.2464
▁influenced	-11.2465
▁thompson	-11.2465
▁clue	-11.2466
▁frequency	-11.2466
every	-11.2467
▁fourteen	-11.2474
▁measured	-11.2474
▁equality	-11.2484
▁aug	-11.2485
iser	-11.2489
▁devoted	-11.2489
▁rebel	-11.2489
anda	-11.2492
vig	-11.2493
def	-11.2494
▁biden	-11.2496
▁cameras	-11.2496
▁rom	-11.2497
ckle	-11.25
▁conta	-11.2502
▁excess	-11.2503
▁vic	-11.2503
▁afterwards	-11.2505
シ	-11.2506
▁delicious	-11.2506
▁legislature	-11.2507
▁maryland	-11.2511
cott	-11.2511
iste	-11.2514
ää	-11.2515
▁screw	-11.2515
▁genuine	-11.2519
ın	-11.252
▁tales	-11.2521
▁inspector	-11.2523
▁să	-11.2523
▁pulse	-11.2523
uta	-11.2524
dict	-11.2527
▁fossil	-11.2527
mobil	-11.2529
▁couch	-11.2531
adi	-11.2533
▁rosa	-11.2535
▁charm	-11.2538
▁surge	-11.2543
▁examination	-11.2545
eman	-11.2546
▁shocked	-11.2546
▁sala	-11.2547
▁apo	-11.2548
stick	-11.2548
▁commerce	-11.255
▁seized	-11.2554
▁furthermore	-11.2558
▁tire	-11.2558
▁followers	-11.256
▁pistol	-11.2561
school	-11.2561
▁reci	-11.2563
▁waist	-11.2569
mur	-11.2571
▁laboratory	-11.2575
▁conversations	-11.2576
▁protesters	-11.2578
▁estimate	-11.2578
▁roster	-11.2579
lung	-11.2587
レ	-11.2589
▁suspicion	-11.259
▁civilian	-11.259
nier	-11.259
chel	-11.2591
▁hij	-11.2592
▁déc	-11.2593
▁measurement	-11.2595
▁bearing	-11.2598
kra	-11.2598
▁urge	-11.2599
▁carr	-11.2603
▁tide	-11.2606
▁mouse	-11.2606
quar	-11.2608
▁sean	-11.2608
▁occasions	-11.261
▁acknowledged	-11.261
πο	-11.2613
▁clash	-11.2615
anne	-11.2616
▁stern	-11.2616
nica	-11.2618
▁thrust	-11.2619
▁dressing	-11.2619
▁resemble	-11.2622
▁gy	-11.2622
▁bust	-11.2622
▁homo	-11.2622
▁mach	-11.2623
▁specialist	-11.2625
▁info	-11.2629
bird	-11.2629
▁leon	-11.263
conf	-11.2634
▁altogether	-11.2635
rica	-11.2637
▁converted	-11.2637
▁elect	-11.2638
eurs	-11.2644
▁dual	-11.2647
▁cathedral	-11.2647
▁spotted	-11.2652
▁coordinate	-11.2654
▁infinite	-11.2654
▁thirteen	-11.2657
▁outstanding	-11.2658
▁murray	-11.2659
わ	-11.2661
crit	-11.2663
▁usage	-11.2664
journal	-11.2665
▁macro	-11.2665
etti	-11.2665
▁laughter	-11.2668
▁grandmother	-11.2669
shing	-11.267
▁vit	-11.2671
▁descend	-11.2671
great	-11.2673
▁api	-11.2673
▁elaborate	-11.2675
▁_(	-11.2675
▁satisfy	-11.2677
▁veterans	-11.2678
▁vir	-11.2679
▁physically	-11.268
ţi	-11.268
rov	-11.2681
▁fears	-11.2684
iri	-11.2688
▁involve	-11.2688
▁evident	-11.2689
▁mushroom	-11.2694
▁tennessee	-11.2694
▁gm	-11.2696
elia	-11.2697
▁transactions	-11.2698
▁swift	-11.27
▁opinions	-11.2701
▁ethics	-11.2703
mise	-11.2705
case	-11.2706
▁keyboard	-11.2707
▁holes	-11.2708
▁chant	-11.2709
assa	-11.2711
▁joan	-11.2711
▁ridiculous	-11.2712
▁celebrated	-11.2715
▁integration	-11.2717
▁sri	-11.2718
▁upward	-11.2719
held	-11.2719
▁chronicle	-11.272
▁engineers	-11.2722
▁underlying	-11.2722
nah	-11.2724
▁ب	-11.2724
oper	-11.2726
▁highlight	-11.2727
▁capitalism	-11.2727
▁vertical	-11.2729
ан	-11.273
▁jake	-11.2731
rade	-11.2734
▁affirm	-11.2734
▁conspiracy	-11.2735
▁spe	-11.2736
utter	-11.2736
▁tribe	-11.274
▁discussions	-11.2745
▁instantly	-11.2747
kie	-11.2748
endo	-11.2749
▁toast	-11.275
▁judges	-11.275
▁nutrition	-11.2753
▁bake	-11.2753
^	-11.2756
▁pav	-11.2758
opa	-11.2764
cular	-11.2765
odo	-11.2766
▁guidelines	-11.2766
▁attracted	-11.2768
▁ltd	-11.277
▁assured	-11.2774
▁murdered	-11.2777
▁coronavirus	-11.2777
▁asset	-11.2778
month	-11.2784
track	-11.2784
▁papa	-11.2786
▁probe	-11.2786
▁dell	-11.2786
hua	-11.2788
▁vitamin	-11.2791
▁thor	-11.2792
haus	-11.2795
▁discourse	-11.2797
▁awkward	-11.2797
▁bha	-11.2798
▁monarch	-11.2799
▁tat	-11.2799
break	-11.28
▁simultaneously	-11.28
▁vegetable	-11.2801
▁perceived	-11.2803
▁excitement	-11.2804
▁getty	-11.2804
▁conclude	-11.2806
▁precious	-11.2811
▁premium	-11.2817
integr	-11.2818
▁unconscious	-11.2821
си	-11.2823
▁clever	-11.2826
▁shin	-11.2827
▁germans	-11.2828
フ	-11.2828
▁softly	-11.2829
▁continent	-11.2829
▁impressed	-11.2829
▁immer	-11.2831
▁occ	-11.2832
pod	-11.2834
па	-11.2834
▁diseases	-11.2836
▁loving	-11.2836
▁cel	-11.2838
▁rushed	-11.2839
▁edges	-11.2842
constitu	-11.2842
▁estimates	-11.2845
▁gab	-11.2847
lang	-11.2847
▁efficiency	-11.2848
▁helicopter	-11.2855
oph	-11.2855
user	-11.2856
fusion	-11.2857
▁emissions	-11.2858
▁forehead	-11.286
▁banned	-11.2865
▁popularity	-11.2866
cient	-11.287
▁lauren	-11.2871
▁politi	-11.2872
▁curtain	-11.2873
▁tokyo	-11.2874
▁été	-11.2875
▁winners	-11.2875
▁executed	-11.2879
▁hated	-11.2882
▁borders	-11.2882
▁topics	-11.2885
plat	-11.2885
▁phenomenon	-11.2886
cco	-11.2889
▁displayed	-11.2891
▁affection	-11.2892
jah	-11.2892
▁deals	-11.2893
▁beaten	-11.2895
▁nineteenth	-11.2895
▁gin	-11.2897
▁faire	-11.2898
▁mob	-11.2901
";	-11.2904
!_	-11.2907
eta	-11.2907
▁christianity	-11.2908
▁stein	-11.2908
▁qualified	-11.2908
ו	-11.2909
▁rio	-11.2912
piece	-11.2915
▁basil	-11.2916
▁outer	-11.2918
▁lightning	-11.2921
▁designated	-11.2922
▁confess	-11.2923
▁josh	-11.2925
▁recovered	-11.2925
▁invitation	-11.2927
rü	-11.2928
▁tomatoes	-11.2929
▁cleveland	-11.2929
▁fest	-11.2929
ñ	-11.293
▁chapel	-11.2931
▁cargo	-11.2932
icia	-11.2933
bone	-11.2933
▁protecting	-11.2935
▁satisfied	-11.2936
▁participated	-11.2939
▁nbc	-11.2942
▁households	-11.2947
▁kitt	-11.2948
▁contend	-11.295
▁dull	-11.2952
smith	-11.2954
▁describing	-11.2956
▁distinguish	-11.2956
▁pirate	-11.2957
▁boats	-11.2958
ον	-11.2958
rop	-11.2959
▁comics	-11.2959
▁strikes	-11.2963
▁essence	-11.2963
owski	-11.2963
▁instruments	-11.2963
▁dropping	-11.2964
osis	-11.2964
▁monitoring	-11.2965
▁rd	-11.2968
fat	-11.297
▁motivation	-11.2972
▁distinguished	-11.2974
▁stretched	-11.2974
▁meals	-11.2978
▁utter	-11.2979
scription	-11.2979
▁escort	-11.2979
▁toxic	-11.2982
activ	-11.2982
▁workshop	-11.2986
▁habitat	-11.2986
▁experiments	-11.2988
bridge	-11.299
▁stark	-11.299
fold	-11.2991
▁variant	-11.2991
▁configuration	-11.2991
▁invisible	-11.2991
▁artistic	-11.2991
author	-11.2991
▁hike	-11.2991
lash	-11.3
▁sixty	-11.3
▁analyze	-11.3001
lac	-11.3003
ota	-11.3005
▁functional	-11.3009
▁sanctions	-11.3011
▁doll	-11.3011
best	-11.3013
▁animation	-11.3013
▁breach	-11.3013
▁swedish	-11.3014
▁earliest	-11.3014
ش	-11.3019
ár	-11.302
▁intercept	-11.3022
▁stability	-11.3027
▁choosing	-11.3027
▁accessible	-11.3029
ì	-11.3029
▁earthquake	-11.3029
▁closest	-11.3031
▁acted	-11.3034
▁neighbors	-11.3035
▁convey	-11.304
▁deadly	-11.3046
▁pension	-11.3049
▁shout	-11.305
▁tick	-11.3052
▁enforce	-11.3052
▁madrid	-11.3053
▁blur	-11.3055
▁bags	-11.3057
▁footage	-11.3057
▁sup	-11.306
▁elbow	-11.3062
▁jerk	-11.3062
▁performances	-11.3065
▁tobacco	-11.3066
▁logical	-11.3066
▁admission	-11.3075
bad	-11.3078
▁breathe	-11.3079
▁channels	-11.3079
▁identical	-11.308
boat	-11.3082
▁camps	-11.3083
▁origins	-11.3084
▁temper	-11.3085
▁centers	-11.3086
bak	-11.3086
▁producers	-11.3087
▁furniture	-11.309
grat	-11.3091
▁dug	-11.3093
ق	-11.3093
▁intimate	-11.3095
▁forcing	-11.3096
▁charts	-11.3101
sea	-11.3101
▁theoretical	-11.3102
▁entrepreneur	-11.3105
▁costume	-11.3105
▁café	-11.311
▁spirits	-11.3112
▁escaped	-11.3117
▁werden	-11.3117
▁diplomatic	-11.3118
▁logo	-11.312
▁nominee	-11.312
▁accent	-11.3121
mut	-11.3123
figur	-11.3123
▁ambition	-11.3124
中	-11.3125
▁seventeen	-11.3125
▁whip	-11.3125
▁haunt	-11.3126
▁installation	-11.3128
▁swan	-11.313
zin	-11.3131
▁genus	-11.3132
▁computers	-11.3132
▁footballer	-11.3132
▁lä	-11.3138
ет	-11.3141
▁transmission	-11.3141
▁fry	-11.3145
▁expecting	-11.3148
▁instagram	-11.3152
tiv	-11.3154
▁missouri	-11.3154
▁discrimination	-11.3156
▁discount	-11.3158
▁mounted	-11.3159
▁jefferson	-11.3159
▁tem	-11.316
▁hawaii	-11.3164
▁bul	-11.3166
▁photographer	-11.3167
▁swept	-11.3168
▁traveled	-11.3168
medic	-11.3169
lique	-11.317
▁stor	-11.3172
ania	-11.3172
▁calendar	-11.3173
▁farther	-11.3173
са	-11.3173
▁threatening	-11.3174
▁kentucky	-11.3174
▁vancouver	-11.3181
fine	-11.3183
ggi	-11.3183
▁implemented	-11.3184
▁cemetery	-11.3185
▁feared	-11.3186
▁parade	-11.3189
▁wheat	-11.319
▁persist	-11.3191
▁от	-11.3191
▁whale	-11.3193
▁witnesses	-11.3195
▁loaded	-11.3196
xx	-11.3198
iko	-11.3201
▁racist	-11.3202
▁healing	-11.3203
▁girlfriend	-11.3206
ml	-11.3206
▁daughters	-11.3207
▁singh	-11.3207
▁disagree	-11.3209
上	-11.3212
▁dependent	-11.3212
▁lists	-11.3214
▁uncertain	-11.3217
▁profession	-11.3219
▁southwest	-11.322
▁awesome	-11.3221
▁magical	-11.3221
wen	-11.3221
▁spit	-11.3223
▁hollow	-11.3224
▁graduated	-11.3225
▁swiss	-11.3229
▁puts	-11.323
▁decor	-11.3232
▁tennis	-11.3234
▁aesthetic	-11.3238
▁wayne	-11.3239
▁titan	-11.3241
itis	-11.3243
▁slavery	-11.3243
▁spite	-11.3248
▁density	-11.325
▁sci	-11.3251
pdf	-11.3261
▁widow	-11.3263
▁kel	-11.327
▁oklahoma	-11.3272
▁breed	-11.3279
eter	-11.3279
▁kol	-11.3279
▁spots	-11.328
▁distress	-11.328
!)	-11.3282
▁convicted	-11.3282
▁lawmakers	-11.3283
▁reluctant	-11.3284
cken	-11.3285
▁glimpse	-11.3291
▁manhattan	-11.3294
ndo	-11.3295
ulating	-11.3298
▁suburb	-11.3298
▁typ	-11.3299
▁pastor	-11.3299
▁guilt	-11.3299
▁rig	-11.33
▁nancy	-11.33
▁additionally	-11.3302
▁presidency	-11.3305
▁sigh	-11.3305
▁processor	-11.3306
▁phillip	-11.3307
▁ted	-11.3309
qa	-11.331
▁tropical	-11.3313
▁dumb	-11.3313
▁militant	-11.3313
▁odds	-11.3314
▁netherlands	-11.3315
current	-11.3315
▁gasp	-11.3316
▁duration	-11.3316
▁kissed	-11.3317
▁engines	-11.3321
▁suitable	-11.3322
▁pork	-11.3322
▁miracle	-11.3322
atur	-11.3323
azione	-11.3324
▁knot	-11.3325
▁finishing	-11.3328
sound	-11.3329
▁novels	-11.3329
▁hatch	-11.3329
▁escal	-11.333
▁ruby	-11.3332
▁stewart	-11.3332
rö	-11.3335
▁bombing	-11.3336
▁instruction	-11.3344
▁oliver	-11.3348
▁promises	-11.3349
▁boast	-11.3351
▁campbell	-11.3356
▁parker	-11.336
▁females	-11.336
design	-11.3361
▁---|---	-11.3362
▁tai	-11.3364
imi	-11.3364
▁×	-11.3364
▁dominated	-11.3366
▁makeup	-11.3366
▁polar	-11.3368
▁attacking	-11.3368
▁tracking	-11.3369
mari	-11.3369
luck	-11.3369
▁wallet	-11.337
▁delicate	-11.337
▁courtesy	-11.3371
▁explaining	-11.3375
▁ikke	-11.3375
yon	-11.3376
nothing	-11.3379
▁invite	-11.3381
ち	-11.3382
▁lifestyle	-11.3385
▁visits	-11.3386
▁babies	-11.3386
nine	-11.3386
▁collins	-11.3389
hoe	-11.3392
▁tragedy	-11.3395
onia	-11.3397
▁wol	-11.3397
▁leonard	-11.3398
▁relate	-11.3399
▁polite	-11.34
сь	-11.34
▁adequate	-11.3402
▁todd	-11.3404
▁societies	-11.3405
▁aff	-11.3406
▁mason	-11.3406
▁procedures	-11.3407
▁kas	-11.3407
oso	-11.3407
▁layers	-11.3407
▁gospel	-11.3411
▁johnny	-11.3413
▁absent	-11.3416
▁maxim	-11.3416
▁lucy	-11.3417
▁eliminate	-11.3419
▁chop	-11.3421
▁stare	-11.3421
▁bog	-11.3422
force	-11.3423
▁twisted	-11.3427
▁vary	-11.3428
▁differently	-11.3429
▁servants	-11.3432
▁trim	-11.3433
▁bryan	-11.3434
abil	-11.3434
▁mechanic	-11.3435
▁floating	-11.3436
▁implications	-11.3436
▁peut	-11.344
aires	-11.3443
▁mueller	-11.3443
▁checking	-11.3445
▁mona	-11.3446
▁negotiate	-11.3447
▁pierre	-11.3448
▁conversion	-11.345
▁grove	-11.3454
▁reveals	-11.3454
▁thorn	-11.3454
▁resp	-11.3454
▁cage	-11.3455
▁arrangement	-11.3456
▁requested	-11.3457
▁fro	-11.3462
▁surprisingly	-11.3463
▁jerry	-11.3463
gif	-11.3465
▁declare	-11.3466
▁conquer	-11.3467
▁demanding	-11.3468
▁influential	-11.3468
▁rachel	-11.3469
▁eternal	-11.347
isk	-11.3471
▁était	-11.3472
▁traditions	-11.3473
▁quad	-11.3474
ح	-11.3475
▁drinks	-11.3475
▁restore	-11.3475
▁bernie	-11.3481
▁analytic	-11.3482
▁oder	-11.3483
ジ	-11.3483
▁prima	-11.3484
store	-11.3484
▁studios	-11.3488
▁ivan	-11.3493
corporate	-11.3494
▁allied	-11.3495
▁distract	-11.3496
▁plato	-11.3497
▁signals	-11.3498
▁competitor	-11.3501
pris	-11.3502
▁suff	-11.3503
▁java	-11.3503
num	-11.3511
▁overnight	-11.3513
)_	-11.3515
▁liverpool	-11.3515
▁barbara	-11.352
amos	-11.3521
▁exhaust	-11.3525
▁pris	-11.3525
▁arguing	-11.3526
▁baltimore	-11.3528
▁interval	-11.3529
arra	-11.353
▁conservatives	-11.3533
▁stanley	-11.3534
▁reaches	-11.3537
kö	-11.3537
▁coconut	-11.3538
▁focusing	-11.3545
▁où	-11.3547
logy	-11.3549
jä	-11.355
▁skirt	-11.3554
▁copper	-11.3555
▁gua	-11.3555
gam	-11.3558
▁utah	-11.3558
▁stopping	-11.356
▁brooklyn	-11.3561
▁difficulties	-11.3565
▁forecast	-11.3565
shaped	-11.3565
▁dh	-11.3565
▁pants	-11.3566
▁servant	-11.3569
ike	-11.3571
▁seu	-11.3573
▁editorial	-11.3577
▁occasional	-11.3577
▁stalin	-11.358
hä	-11.358
▁nonetheless	-11.3582
▁tanks	-11.3585
aid	-11.3587
▁feb	-11.3591
▁climbing	-11.3595
kka	-11.3595
▁sphere	-11.3595
jack	-11.3595
mill	-11.3596
▁belonging	-11.3596
▁pé	-11.3596
▁barb	-11.3596
story	-11.3599
▁ö	-11.3599
▁toilet	-11.36
▁ugly	-11.3602
ifies	-11.3602
▁divers	-11.3604
▁alfred	-11.3606
▁thoroughly	-11.3606
▁laura	-11.3607
▁cognitive	-11.3609
▁gig	-11.3609
▁dio	-11.3611
▁addiction	-11.3612
▁overseas	-11.3623
▁slept	-11.3623
▁competing	-11.3638
▁testament	-11.3641
▁assignment	-11.3641
▁median	-11.3642
ト	-11.3643
▁integrated	-11.3644
▁propaganda	-11.3646
▁confront	-11.3647
▁affordable	-11.3648
photo	-11.3648
▁cartoon	-11.3654
▁explosive	-11.3657
▁marco	-11.3658
hir	-11.3658
ます	-11.366
▁straw	-11.3661
▁milli	-11.3663
social	-11.3663
▁boundaries	-11.3665
rob	-11.3666
eyed	-11.3668
once	-11.367
▁disrupt	-11.3671
▁mississippi	-11.3671
▁restrain	-11.3672
▁woke	-11.3673
▁improving	-11.3674
▁intel	-11.3676
zza	-11.3679
▁classroom	-11.368
▁wreck	-11.3681
▁circles	-11.3682
▁crush	-11.3683
▁minimal	-11.3688
▁warn	-11.3688
▁freeze	-11.3689
▁removal	-11.3691
db	-11.3692
▁nightmare	-11.3695
▁investigators	-11.3695
▁portland	-11.37
▁approaching	-11.37
▁pressing	-11.3701
▁frost	-11.3701
▁при	-11.3707
▁warrior	-11.3708
▁mistakes	-11.3709
▁sein	-11.3712
▁él	-11.3714
▁immense	-11.3714
▁melbourne	-11.3715
▁meditation	-11.3716
▁blocked	-11.3717
▁variables	-11.3719
igne	-11.3719
ddy	-11.372
▁lgbt	-11.372
kal	-11.3721
▁tactics	-11.3721
▁educated	-11.3723
▁sits	-11.3723
▁mold	-11.3727
lift	-11.373
▁regulate	-11.3731
▁fancy	-11.3733
▁bacon	-11.3735
▁improvements	-11.3735
▁placing	-11.3736
▁abilities	-11.3738
▁¿	-11.3739
▁cats	-11.374
▁banking	-11.3744
▁rim	-11.3745
国	-11.3746
ся	-11.3747
▁esc	-11.3747
yama	-11.3748
aro	-11.3751
▁loans	-11.3752
▁grad	-11.3752
▁creep	-11.3754
▁belonged	-11.3759
▁certificate	-11.3759
▁automatic	-11.376
▁cruel	-11.376
▁satisfaction	-11.3763
▁amateur	-11.3765
▁craig	-11.3765
▁giants	-11.3767
▁athletes	-11.377
web	-11.377
▁delight	-11.3771
▁elephant	-11.3774
ła	-11.3776
▁carpet	-11.3776
▁jewel	-11.3782
leigh	-11.3782
▁peninsula	-11.3783
чи	-11.3783
▁kara	-11.3785
▁scent	-11.3785
uma	-11.3787
▁grape	-11.3789
▁embassy	-11.379
▁salary	-11.3794
▁sheets	-11.3796
▁sooner	-11.3799
▁tremendous	-11.3799
ów	-11.3801
▁philippines	-11.3802
▁illustration	-11.3805
▁ancestor	-11.3807
course	-11.3807
▁leaning	-11.3808
▁maintaining	-11.381
▁jeremy	-11.381
▁metropolitan	-11.3812
▁hopefully	-11.3812
ッ	-11.3813
▁frustration	-11.3814
▁electrical	-11.3814
connect	-11.3814
market	-11.3814
▁prediction	-11.3815
▁puis	-11.3815
▁trek	-11.3816
▁twentieth	-11.3817
▁guidance	-11.3821
▁classified	-11.3825
something	-11.3826
▁medication	-11.3827
▁smartphone	-11.3827
watt	-11.3828
▁paw	-11.3829
▁cattle	-11.3829
▁samples	-11.383
▁gui	-11.3831
▁firms	-11.3834
▁leo	-11.3834
▁shipping	-11.3834
▁hier	-11.3837
▁autumn	-11.3837
▁polls	-11.3838
▁elementary	-11.3839
coin	-11.3841
▁poster	-11.3842
▁balls	-11.3842
▁sculpture	-11.3843
▁notably	-11.3844
▁restored	-11.3847
cross	-11.3849
▁canvas	-11.3849
ogni	-11.385
▁holder	-11.385
▁shy	-11.385
horn	-11.3851
▁administrator	-11.3851
▁oxygen	-11.3852
▁defect	-11.3852
▁ethical	-11.3854
▁consequence	-11.3855
▁apologize	-11.3856
▁criticized	-11.3856
▁sneak	-11.3857
▁alpha	-11.3861
▁elegant	-11.3861
writer	-11.3861
▁formerly	-11.3865
▁temperatures	-11.3866
▁pete	-11.3867
tung	-11.3867
▁caution	-11.3868
▁flames	-11.3869
▁luxury	-11.387
▁permitted	-11.3871
▁screaming	-11.3872
▁bottles	-11.3872
▁resigned	-11.3873
▁qualities	-11.3875
▁coins	-11.388
▁autre	-11.3881
▁voyage	-11.3881
▁cuando	-11.3882
▁motive	-11.3882
‐	-11.3888
▁garage	-11.3891
▁nan	-11.3893
▁drown	-11.3893
trud	-11.3895
▁structural	-11.3897
▁routes	-11.3899
▁sua	-11.3899
▁profits	-11.3901
▁meters	-11.3903
▁fog	-11.3903
▁spoil	-11.3908
▁attain	-11.3908
▁password	-11.391
▁ranch	-11.3911
▁einer	-11.3921
▁musicians	-11.3922
ци	-11.3922
▁wishes	-11.3925
▁vac	-11.3927
▁discussing	-11.3928
▁basket	-11.3929
▁siege	-11.3929
▁corporations	-11.393
▁argues	-11.3931
▁во	-11.3934
▁acquisition	-11.3934
▁malaysia	-11.3934
▁trusted	-11.3935
▁trunk	-11.3935
ità	-11.3937
brand	-11.3937
▁identification	-11.394
▁pipeline	-11.3942
▁convenient	-11.3946
rating	-11.3947
▁frederick	-11.3947
quest	-11.3948
▁critique	-11.3951
▁invade	-11.3953
iger	-11.3953
▁safely	-11.3956
▁genius	-11.3957
▁alaska	-11.396
▁promising	-11.3962
ин	-11.3962
▁carlos	-11.3962
▁controller	-11.3962
▁investigating	-11.3963
igan	-11.3964
▁marcus	-11.3964
▁addresses	-11.3965
itate	-11.3965
▁sham	-11.3969
▁handsome	-11.3976
▁coastal	-11.3977
▁mcca	-11.3979
▁barack	-11.398
▁rabbi	-11.3981
▁wrestling	-11.3982
▁modified	-11.3983
zzo	-11.3984
▁wagon	-11.3986
▁belly	-11.399
▁accusation	-11.3991
never	-11.3994
▁cav	-11.3995
▁servi	-11.3997
▁possibilities	-11.3997
▁tooth	-11.3999
▁consistently	-11.4
▁evaluation	-11.4
exist	-11.4005
▁precise	-11.4007
▁quant	-11.401
▁mitchell	-11.401
▁dragged	-11.4011
▁prisoner	-11.4012
▁complaints	-11.4013
▁horrible	-11.4013
▁switzerland	-11.4013
▁cbs	-11.4015
▁dose	-11.4016
▁sage	-11.4017
tiva	-11.4019
mili	-11.4022
▁illusion	-11.4023
▁characteristic	-11.4023
▁founding	-11.4025
▁gifts	-11.4025
bill	-11.4027
▁removing	-11.4028
scot	-11.4031
▁examined	-11.4032
▁feminist	-11.4034
▁chronic	-11.4036
block	-11.4037
worthy	-11.4039
▁disappointed	-11.4039
▁questioned	-11.4039
▁highlights	-11.404
▁viewers	-11.4041
▁folder	-11.4041
auto	-11.4044
▁absurd	-11.4045
▁nav	-11.4045
grand	-11.4046
logue	-11.4049
▁amongst	-11.4051
loo	-11.4053
lice	-11.4058
▁accord	-11.4059
▁aaron	-11.4061
▁scroll	-11.4065
kor	-11.4067
▁booth	-11.4067
▁mineral	-11.407
▁doom	-11.4071
bah	-11.4072
という	-11.4074
▁spike	-11.4076
▁clutch	-11.4077
▁bron	-11.4077
▁revenge	-11.4077
ξ	-11.4082
▁statistical	-11.4084
valu	-11.4084
▁void	-11.4085
dine	-11.4088
つ	-11.4093
▁adaptation	-11.4095
め	-11.4096
▁outbreak	-11.4096
ún	-11.4097
▁helmet	-11.4098
▁attending	-11.4099
▁б	-11.4104
▁transformed	-11.4105
▁evaluate	-11.4106
mä	-11.4108
▁catherine	-11.411
▁wherever	-11.411
ド	-11.4112
▁disgust	-11.4112
▁civilians	-11.4112
ны	-11.4112
▁warming	-11.4116
▁doorway	-11.4117
▁eyebrow	-11.4118
▁meaningful	-11.4123
length	-11.4126
ucci	-11.4129
ку	-11.4133
▁occupy	-11.4136
▁arriving	-11.4136
▁indication	-11.4141
▁serial	-11.4141
▁photography	-11.4143
▁appearing	-11.4144
▁tourism	-11.4145
dev	-11.4145
▁lance	-11.4146
▁pear	-11.4148
▁diff	-11.4149
fig	-11.4151
▁suspicious	-11.4151
▁styl	-11.4153
▁cuba	-11.4154
▁mathematics	-11.4155
▁defending	-11.4155
▁racism	-11.4155
▁inevitable	-11.4157
rail	-11.4159
▁trauma	-11.416
▁cohen	-11.416
▁streaming	-11.4161
title	-11.4161
▁enjoying	-11.4163
▁intensity	-11.4163
wel	-11.4166
▁predicted	-11.4168
south	-11.4169
science	-11.417
τε	-11.4173
▁cease	-11.4173
▁uncomfortable	-11.4174
fü	-11.418
jur	-11.418
お	-11.418
▁mandate	-11.4181
▁trials	-11.4188
▁urgent	-11.4189
▁vessels	-11.4189
party	-11.4197
さ	-11.4199
▁unclear	-11.4203
▁warfare	-11.4206
aron	-11.4209
▁emily	-11.4209
▁kai	-11.421
extrem	-11.4211
ある	-11.4211
▁sleeve	-11.4213
▁bau	-11.4213
▁swear	-11.4214
▁dense	-11.4215
▁integrity	-11.4217
▁recon	-11.4218
▁argentina	-11.4221
ić	-11.4222
▁healthcare	-11.4225
host	-11.4225
он	-11.4226
service	-11.4227
perhaps	-11.4231
▁colony	-11.4232
▁rad	-11.4234
▁shark	-11.4236
▁envi	-11.424
▁condo	-11.4243
▁beloved	-11.4248
▁coaches	-11.4253
▁wages	-11.4253
bili	-11.4254
▁neglect	-11.4257
does	-11.4258
▁shah	-11.4261
▁taiwan	-11.4261
rå	-11.4262
▁lowered	-11.4262
▁furious	-11.4263
continu	-11.4264
▁tweeted	-11.4266
▁isis	-11.4266
▁linger	-11.4268
▁outfit	-11.4269
▁corrupt	-11.427
▁disk	-11.4272
▁jour	-11.4273
anto	-11.4276
▁dodge	-11.4277
▁scho	-11.4277
▁romance	-11.4279
vocation	-11.428
wie	-11.4281
bay	-11.4282
▁actively	-11.4285
▁residential	-11.4288
▁buses	-11.429
▁ideology	-11.4291
▁damp	-11.4294
▁errors	-11.4295
να	-11.4295
カ	-11.4296
gla	-11.4298
▁kirk	-11.4298
▁iraqi	-11.4304
▁submitted	-11.4307
▁syndrome	-11.4308
▁scattered	-11.431
▁slim	-11.4311
hawk	-11.4311
▁farmer	-11.4312
team	-11.4313
▁touchdown	-11.4317
▁hail	-11.4317
▁eco	-11.4318
メ	-11.4319
▁carries	-11.432
still	-11.4321
▁raven	-11.4326
woman	-11.4326
▁crowded	-11.4327
▁sliced	-11.4328
▁jamie	-11.4329
▁mug	-11.4329
ró	-11.4329
stage	-11.4329
▁counterpart	-11.4332
▁customs	-11.4336
▁clerk	-11.4338
kind	-11.4339
▁об	-11.4339
бо	-11.4339
▁evans	-11.4339
▁entity	-11.4342
▁marble	-11.4345
▁carriage	-11.4346
▁premise	-11.435
sql	-11.435
▁assassin	-11.4352
gru	-11.4353
▁negro	-11.4356
▁poured	-11.4358
▁goddess	-11.4358
▁separation	-11.436
▁endure	-11.436
▁successor	-11.4362
▁consensus	-11.4364
▁deadline	-11.4364
αν	-11.4366
heart	-11.4367
due	-11.4367
▁spectrum	-11.4369
▁brun	-11.437
▁uno	-11.437
▁că	-11.4373
▁streak	-11.4373
▁podcast	-11.4376
▁oscar	-11.4384
▁stance	-11.4385
▁orthodox	-11.4388
▁broader	-11.4389
ulu	-11.439
▁cavalry	-11.4394
inen	-11.4396
yne	-11.4397
▁politically	-11.4397
▁deficit	-11.44
bag	-11.4404
imento	-11.4406
▁hunger	-11.4406
▁registration	-11.4406
▁inhabitants	-11.441
natural	-11.4411
chief	-11.4412
▁mint	-11.4413
▁ecosystem	-11.4416
र	-11.4417
▁pitcher	-11.4418
complete	-11.4418
▁emma	-11.4423
▁thereby	-11.4423
blue	-11.4424
▁timing	-11.4428
seven	-11.4428
▁zen	-11.4433
出	-11.4433
wald	-11.4436
▁puerto	-11.4437
hra	-11.4438
▁petit	-11.4438
▁sono	-11.4441
▁cure	-11.4442
क	-11.4442
▁nicholas	-11.4442
lö	-11.4444
▁persona	-11.4446
girl	-11.4448
▁metaphor	-11.4448
)**	-11.4449
lessness	-11.445
être	-11.445
▁retrieve	-11.445
oriented	-11.4451
▁anton	-11.4457
▁stirring	-11.446
▁accomplished	-11.4462
▁eff	-11.4463
▁parliamentary	-11.4464
▁metres	-11.4465
▁haul	-11.4468
▁grief	-11.447
rist	-11.4471
▁marsh	-11.4471
▁promoting	-11.4471
▁noch	-11.4472
father	-11.4473
▁waved	-11.4474
▁secured	-11.4481
▁arrange	-11.4484
▁accompany	-11.4491
コ	-11.4492
▁coaching	-11.4494
standing	-11.4501
▁wizard	-11.4508
nova	-11.4509
▁exclude	-11.451
rik	-11.4511
ural	-11.4513
▁dealer	-11.4514
▁encore	-11.4515
▁diary	-11.4516
▁acceptance	-11.4518
▁folded	-11.4522
▁determination	-11.4523
▁nato	-11.4523
マ	-11.4524
▁rue	-11.4533
▁chunk	-11.4539
▁hurry	-11.4539
▁barry	-11.4541
▁journalism	-11.4541
▁glen	-11.4545
▁mediterranean	-11.4545
▁chips	-11.4547
▁bobby	-11.4548
▁cameron	-11.455
stock	-11.4551
▁lined	-11.4553
▁johann	-11.4554
▁submission	-11.4555
president	-11.4557
histori	-11.4558
▁legion	-11.4562
▁cleaning	-11.4564
▁robe	-11.4566
cake	-11.4566
▁dublin	-11.4568
▁peasant	-11.4575
▁disse	-11.4576
▁franc	-11.4576
▁frontier	-11.4578
▁comprise	-11.4581
▁brace	-11.4584
▁transcript	-11.4587
▁isabel	-11.4589
frame	-11.4589
▁jug	-11.4589
▁complained	-11.459
ographic	-11.4592
▁treasury	-11.4592
▁dai	-11.4592
▁trailer	-11.4595
▁trapped	-11.4599
▁banner	-11.46
vari	-11.4601
hang	-11.4601
▁vein	-11.4602
▁operational	-11.4604
▁goat	-11.4606
▁gir	-11.4607
▁nationalist	-11.461
▁calculation	-11.4618
▁shoe	-11.4622
▁ukrainian	-11.4628
▁eighth	-11.463
▁tightly	-11.463
mund	-11.4633
▁bundle	-11.4633
▁freud	-11.4639
▁exam	-11.4642
▁archive	-11.4642
▁nearest	-11.4643
▁exceptional	-11.4643
logical	-11.4645
▁vez	-11.4647
▁ost	-11.465
▁mercy	-11.4651
▁forming	-11.4653
▁predator	-11.4653
factor	-11.4655
▁bran	-11.4655
eye	-11.4655
▁openly	-11.4655
▁secular	-11.4656
▁hedge	-11.4656
▁sustainable	-11.466
▁dome	-11.4661
▁alley	-11.4663
▁collar	-11.4663
▁mourn	-11.4663
▁classification	-11.4663
▁behave	-11.4664
zioni	-11.4665
▁dynasty	-11.4665
road	-11.4666
▁kre	-11.4667
▁threaten	-11.4667
lord	-11.4671
▁cheeks	-11.4672
apped	-11.4674
▁continua	-11.4674
▁alternate	-11.4676
▁volunteers	-11.4676
▁finn	-11.4676
▁unemployment	-11.4677
▁abraham	-11.4677
▁activate	-11.4678
▁yoga	-11.468
rne	-11.4683
▁lé	-11.4684
▁eaten	-11.4685
▁liver	-11.4687
▁savage	-11.4688
▁henri	-11.4691
▁variation	-11.4691
iente	-11.4692
▁tribes	-11.4692
▁compassion	-11.4693
▁owen	-11.4695
▁delete	-11.4699
▁austria	-11.4703
▁probability	-11.4706
му	-11.4708
▁corresponding	-11.471
ções	-11.4711
mother	-11.4712
▁pil	-11.4715
▁starring	-11.4715
τι	-11.4716
acious	-11.4717
▁nominated	-11.4719
▁practically	-11.4719
▁nuts	-11.4723
▁shallow	-11.4725
û	-11.4728
▁towel	-11.473
▁complexity	-11.4732
▁expanding	-11.4733
▁touching	-11.4739
▁feeding	-11.4741
▁frowned	-11.4742
▁swung	-11.4743
race	-11.4747
hé	-11.4747
▁denver	-11.4749
▁tomato	-11.4749
▁nhl	-11.475
▁buffalo	-11.475
▁refresh	-11.4753
▁situated	-11.4754
built	-11.4756
▁imposed	-11.4758
▁nixon	-11.4758
▁phoenix	-11.476
▁mich	-11.4764
▁flank	-11.4764
‘	-11.4766
▁lucas	-11.477
タ	-11.4773
▁exclusively	-11.4773
▁это	-11.4776
▁nova	-11.4777
▁worthy	-11.4778
minded	-11.4781
product	-11.4782
▁eighteen	-11.4784
▁whilst	-11.4786
▁inflation	-11.4787
▁faction	-11.4792
damn	-11.4793
▁surf	-11.4797
▁stag	-11.4797
े	-11.4798
ager	-11.4799
▁digest	-11.4802
▁condemn	-11.4802
▁être	-11.4807
▁rebellion	-11.4808
▁fram	-11.4809
system	-11.481
▁swallow	-11.4812
▁vanilla	-11.4813
▁thro	-11.4813
▁enthusiasm	-11.4814
▁pregnancy	-11.4816
▁partially	-11.4818
▁hin	-11.4818
▁milan	-11.482
ograph	-11.4821
listen	-11.4822
▁hostile	-11.4823
▁hurried	-11.4825
▁tense	-11.4825
▁lisa	-11.4829
▁cruise	-11.483
him	-11.4831
▁stalk	-11.4833
ès	-11.4833
▁faithful	-11.4834
▁partial	-11.4834
▁capabilities	-11.4834
▁advised	-11.4836
▁upstairs	-11.4836
▁mü	-11.4841
▁reservation	-11.4844
▁archives	-11.4845
▁relatives	-11.4845
▁oversee	-11.4847
▁imper	-11.4848
▁grind	-11.4849
▁orleans	-11.4853
▁reinforce	-11.4853
hoo	-11.4856
▁blessing	-11.4859
▁mak	-11.4863
▁seg	-11.4864
isch	-11.4865
▁washed	-11.4865
▁pelo	-11.4865
▁deliberately	-11.4867
▁dil	-11.4869
▁halfway	-11.487
ц	-11.487
▁proposition	-11.4872
▁canyon	-11.4873
▁savings	-11.4875
▁lyrics	-11.4878
▁spreading	-11.4878
bun	-11.4882
▁cannon	-11.4884
▁†	-11.4884
▁prevail	-11.4885
▁encountered	-11.4886
▁utility	-11.4886
▁neil	-11.4887
content	-11.4893
▁estado	-11.4895
▁noon	-11.4895
▁rs	-11.4897
▁eddie	-11.4899
▁potato	-11.4902
▁shaped	-11.4903
▁potter	-11.4906
▁josé	-11.4906
▁technological	-11.4907
▁lac	-11.4907
▁pinch	-11.4909
▁inherent	-11.4909
み	-11.491
▁conception	-11.4911
▁hd	-11.4913
▁tant	-11.4913
▁depict	-11.4914
▁claw	-11.4916
cious	-11.4922
▁tragic	-11.4922
者	-11.4922
▁rubber	-11.4923
ой	-11.4923
▁sandy	-11.4925
number	-11.4927
change	-11.493
▁ego	-11.4932
▁consecutive	-11.4933
▁equipped	-11.4933
▁persian	-11.4934
▁acceptable	-11.4935
▁evolved	-11.4937
nh	-11.4938
safe	-11.4939
▁cottage	-11.4942
▁incentive	-11.4944
origin	-11.4948
jou	-11.4949
▁regulatory	-11.495
▁recipient	-11.4952
▁mole	-11.4952
▁habits	-11.4953
▁murphy	-11.4954
▁jul	-11.4955
fix	-11.4956
▁pru	-11.4957
lina	-11.4959
▁bomber	-11.496
modern	-11.496
▁correctly	-11.496
▁radar	-11.4961
▁corpse	-11.4961
▁terry	-11.4961
▁bout	-11.4961
▁lent	-11.4962
▁dispatch	-11.4964
▁norway	-11.497
half	-11.4971
▁flush	-11.4972
eff	-11.4973
▁exploration	-11.4978
▁sustained	-11.4978
▁mama	-11.4979
▁peru	-11.498
▁encouraging	-11.498
▁kent	-11.4982
▁walt	-11.4983
▁collapsed	-11.4984
▁turk	-11.4986
▁challenged	-11.4986
gang	-11.4988
▁mature	-11.4989
tron	-11.4991
easy	-11.4991
▁quantum	-11.4992
▁lighting	-11.4992
kom	-11.4999
sight	-11.5
▁danny	-11.5001
▁avant	-11.5004
▁competed	-11.5007
▁commentary	-11.5007
▁hybrid	-11.5009
amine	-11.501
▁shorter	-11.501
▁vacation	-11.5013
▁overhead	-11.5015
▁migrants	-11.5016
▁demographic	-11.5017
give	-11.5019
сти	-11.5022
▁pollution	-11.5023
▁rabbit	-11.5024
▁vampire	-11.5027
▁loyalty	-11.5028
▁monde	-11.5029
▁dispos	-11.5029
▁spectacular	-11.5029
quarter	-11.503
▁nickname	-11.503
по	-11.5031
月	-11.5037
▁geography	-11.5038
▁cough	-11.5038
▁hull	-11.5042
▁comun	-11.5044
▁formally	-11.5051
▁−	-11.5052
▁advisor	-11.5053
▁gravity	-11.5056
öl	-11.5056
▁uncertainty	-11.5056
▁holland	-11.5058
▁sprinkle	-11.506
▁foul	-11.5061
▁underneath	-11.5062
▁acquire	-11.5064
graf	-11.5064
▁thigh	-11.5065
▁wird	-11.5066
iano	-11.5071
сто	-11.5071
fan	-11.5071
▁sä	-11.5072
▁excessive	-11.5073
lade	-11.5073
▁arsenal	-11.5074
▁cryptocurrency	-11.5078
▁referendum	-11.5078
▁canon	-11.508
▁unlock	-11.5082
▁historically	-11.5084
▁gov	-11.5087
す	-11.5093
▁blew	-11.5094
э	-11.5095
▁drums	-11.5099
▁portugal	-11.5101
▁heir	-11.5102
sync	-11.5103
▁tray	-11.5103
▁sentenced	-11.5105
▁plague	-11.5105
clair	-11.5108
▁jungle	-11.511
▁keith	-11.5114
▁publishers	-11.5121
anni	-11.5122
▁enabled	-11.5122
▁subsidi	-11.5123
▁dvd	-11.5124
▁louisiana	-11.513
moto	-11.5133
▁adjacent	-11.5134
oxid	-11.5134
▁smo	-11.5136
▁compensation	-11.5136
▁speculation	-11.5137
▁exploring	-11.5138
▁dart	-11.514
では	-11.514
door	-11.5143
▁defendant	-11.5148
▁sz	-11.5148
▁printing	-11.5148
▁montreal	-11.5149
▁correction	-11.5151
▁bride	-11.5151
▁salmon	-11.5152
よ	-11.5154
▁exhausted	-11.5156
▁tourists	-11.5156
qual	-11.5157
▁lonely	-11.5159
memor	-11.5161
▁judicial	-11.5163
▁bargain	-11.5165
ît	-11.5165
▁warner	-11.5166
▁undermine	-11.5167
▁spokesperson	-11.5167
▁electro	-11.5168
oxy	-11.517
▁criteria	-11.5171
▁krist	-11.5172
▁linux	-11.5173
▁completion	-11.5174
▁mathematical	-11.5178
cultural	-11.5178
▁peel	-11.518
pac	-11.518
▁spine	-11.5182
▁obstacle	-11.5184
▁traditionally	-11.5186
credit	-11.5187
▁mixing	-11.5189
▁requirement	-11.5189
▁kä	-11.5189
▁praised	-11.5195
▁beta	-11.5196
▁homeless	-11.52
▁accommodation	-11.5201
▁mehr	-11.5201
migrant	-11.5201
construct	-11.5203
▁immune	-11.5203
▁custody	-11.5205
▁penguin	-11.5205
▁stating	-11.5206
▁modi	-11.5206
help	-11.5207
▁troop	-11.5207
▁patience	-11.5209
▁luther	-11.521
▁tendency	-11.5211
▁asylum	-11.5213
▁afterward	-11.5214
▁prompted	-11.5214
▁mario	-11.5216
▁passionate	-11.5217
▁pomp	-11.5222
ج	-11.5224
ema	-11.5224
▁seine	-11.5225
wash	-11.5227
▁lb	-11.5229
xxx	-11.5231
clin	-11.5231
▁acres	-11.5235
▁citizenship	-11.5235
▁costa	-11.5236
▁rocky	-11.5236
▁zoo	-11.5236
▁deployed	-11.5237
▁propose	-11.5238
▁diminish	-11.5238
▁roast	-11.5238
▁rend	-11.5239
▁incorporated	-11.5242
▁churchill	-11.5245
▁obscure	-11.5247
▁vaccine	-11.5249
▁revealing	-11.5249
▁interrupted	-11.525
▁laptop	-11.5254
▁dissolve	-11.5255
▁dorm	-11.5255
▁watson	-11.5257
▁facilitate	-11.5258
rium	-11.5258
▁liberation	-11.5259
▁musician	-11.5262
fast	-11.5262
▁whoever	-11.5267
▁perry	-11.5268
▁static	-11.527
▁ankle	-11.5271
spiel	-11.5272
▁radiation	-11.5273
▁sip	-11.5273
га	-11.5275
▁fraction	-11.5278
▁belle	-11.5281
▁clause	-11.5282
▁petr	-11.5284
nig	-11.5284
▁herald	-11.5285
publish	-11.5285
▁vida	-11.5286
▁providers	-11.5293
witt	-11.5297
▁realistic	-11.5297
▁timber	-11.5298
▁observations	-11.53
inated	-11.5302
▁undergo	-11.5302
▁și	-11.5302
μα	-11.5304
▁hatred	-11.5305
▁hebrew	-11.5305
special	-11.531
writing	-11.531
▁quebec	-11.5311
▁advocates	-11.5312
▁einen	-11.5313
▁pond	-11.5313
▁conscience	-11.5314
▁gentleman	-11.5315
▁rookie	-11.5316
▁tommy	-11.5318
▁proceedings	-11.532
▁mack	-11.5321
▁deemed	-11.5323
▁م	-11.5325
▁render	-11.5325
▁institutional	-11.5331
▁calories	-11.5333
▁chew	-11.5333
▁witnessed	-11.5335
▁funded	-11.5338
plus	-11.534
▁adoption	-11.534
▁correspond	-11.5341
▁viola	-11.5342
▁bounce	-11.5344
apa	-11.5345
▁territories	-11.5345
mass	-11.5347
▁må	-11.5347
▁rebels	-11.5348
gp	-11.5348
▁hir	-11.5351
both	-11.5351
▁harper	-11.5352
▁netflix	-11.5354
▁nigeria	-11.5362
▁~	-11.5362
dou	-11.5365
▁kap	-11.5366
▁defended	-11.537
ше	-11.5371
~	-11.5371
▁julia	-11.5372
▁counted	-11.5373
▁massacre	-11.5375
▁zum	-11.5375
tale	-11.5378
▁buddhist	-11.5379
▁presumably	-11.5379
▁carrot	-11.5381
▁likewise	-11.5381
▁libraries	-11.5381
▁elderly	-11.5391
▁portray	-11.5394
lining	-11.5395
▁marginal	-11.5396
plane	-11.5397
▁marina	-11.5399
▁consisted	-11.54
handed	-11.5401
▁portfolio	-11.5403
ě	-11.5405
▁tau	-11.5405
▁maid	-11.5406
▁jin	-11.5408
▁citing	-11.5408
create	-11.5409
▁despair	-11.5413
▁homeland	-11.5414
friend	-11.5415
▁\\	-11.5415
▁bai	-11.5417
ï	-11.5418
▁prosecution	-11.5418
▁avoided	-11.5424
glo	-11.5425
true	-11.5425
lene	-11.5426
ה	-11.5428
▁turner	-11.5428
▁variations	-11.5431
kha	-11.5431
▁wenn	-11.5432
▁envelope	-11.5432
▁voter	-11.5433
labor	-11.5435
デ	-11.5438
▁hallway	-11.5441
▁oppose	-11.5441
▁sunlight	-11.5441
▁hazard	-11.5443
▁vinegar	-11.5446
▁administer	-11.545
▁trot	-11.5451
▁eligible	-11.5454
cite	-11.5456
▁importantly	-11.5457
▁assuming	-11.5458
ど	-11.5459
ду	-11.546
ismo	-11.546
gard	-11.5463
compatible	-11.5467
speed	-11.5468
▁butler	-11.5468
▁junction	-11.5469
こ	-11.547
owned	-11.5472
▁nevada	-11.5473
ικ	-11.5473
▁là	-11.5474
generation	-11.5478
ndre	-11.548
those	-11.5481
▁silly	-11.5481
▁swell	-11.5482
▁são	-11.5484
▁attributed	-11.5484
esco	-11.5484
▁protestant	-11.5485
▁intersection	-11.5488
▁unfold	-11.5489
▁accuracy	-11.5492
▁withdrawal	-11.5492
ál	-11.5493
▁cookies	-11.5494
▁grinned	-11.5496
impl	-11.5496
▁dread	-11.5498
▁elliot	-11.5498
▁capitol	-11.5501
although	-11.5502
▁julian	-11.5503
▁counties	-11.5507
eiro	-11.5509
▁pittsburgh	-11.551
▁arrangements	-11.5513
▁franco	-11.5515
▁memo	-11.5519
▁quint	-11.5522
▁voor	-11.5523
▁manufacturers	-11.5525
▁kro	-11.5525
▁consultant	-11.5527
rf	-11.553
ня	-11.5531
gha	-11.5532
▁relaxed	-11.5536
▁necessity	-11.5537
access	-11.5542
▁complement	-11.5545
▁organism	-11.5547
▁whistle	-11.5548
▁vid	-11.5549
▁tribute	-11.555
▁ihre	-11.5552
▁basin	-11.5553
▁biology	-11.5554
▁terra	-11.5554
▁muttered	-11.5555
▁loom	-11.5556
▁prosecutors	-11.5557
jp	-11.5559
▁quelque	-11.5561
▁caso	-11.5563
▁replacing	-11.5566
political	-11.5566
▁fare	-11.5568
▁rosen	-11.5569
▁blake	-11.557
▁shouting	-11.5572
▁pasta	-11.5574
friendly	-11.5575
▁resolved	-11.5576
▁recommendations	-11.5577
▁restricted	-11.558
▁crushed	-11.558
▁berkeley	-11.5583
▁wallace	-11.5583
▁translate	-11.5584
▁dakota	-11.5587
▁thai	-11.5593
▁justify	-11.5594
▁petro	-11.5595
hum	-11.5601
▁endorse	-11.5604
▁monkey	-11.5605
▁threshold	-11.5611
kun	-11.5611
▁relieved	-11.5618
▁invented	-11.5622
storm	-11.5623
▁pupil	-11.5627
bud	-11.5629
western	-11.5632
autre	-11.5632
▁predecessor	-11.5635
▁troll	-11.5636
conscious	-11.5638
▁dramatically	-11.5641
▁colombia	-11.5641
▁diplomat	-11.5645
▁hö	-11.5646
spring	-11.5648
▁adapted	-11.5648
▁phenomena	-11.5648
され	-11.5649
▁compress	-11.5652
pound	-11.5652
atta	-11.5652
▁socio	-11.5657
▁believing	-11.5659
▁ferry	-11.566
▁submarine	-11.5661
▁distinctive	-11.5661
▁heels	-11.5663
▁harvey	-11.5663
▁madison	-11.5667
▁sharply	-11.5667
▁sophisticated	-11.5668
▁mosque	-11.5668
assi	-11.5669
▁requiring	-11.567
▁engaging	-11.567
▁hug	-11.567
▁unfair	-11.5671
▁absorb	-11.5673
▁causa	-11.5676
▁preserved	-11.5677
▁binding	-11.5678
angle	-11.5679
▁performer	-11.5679
▁mortgage	-11.5685
phra	-11.569
▁null	-11.5691
▁frightened	-11.5692
▁desde	-11.5697
▁brass	-11.5698
wyn	-11.57
▁prose	-11.57
▁politic	-11.5701
▁renamed	-11.5703
▁robust	-11.5703
▁jurisdiction	-11.5705
▁şi	-11.5709
angel	-11.5709
illustr	-11.571
▁bucket	-11.5713
moral	-11.5714
▁boundary	-11.5714
▁longest	-11.5718
▁trop	-11.5718
▁hog	-11.5719
▁illustrate	-11.5725
▁basement	-11.5725
▁klein	-11.5727
tero	-11.5727
▁connecting	-11.5729
eira	-11.5732
▁restoration	-11.5733
▁cocktail	-11.5734
▁capitalist	-11.5734
▁curiosity	-11.5736
▁taxpayer	-11.5736
▁illustrated	-11.5736
inate	-11.5736
▁reagan	-11.5738
▁collector	-11.5739
▁survivors	-11.5739
▁dated	-11.5739
▁slaughter	-11.574
ля	-11.5741
▁einem	-11.5744
▁dru	-11.5747
▁kyle	-11.5749
▁momentum	-11.575
▁setup	-11.575
▁prevention	-11.575
talk	-11.5751
▁commissioned	-11.5756
▁accepting	-11.5758
optional	-11.5762
▁interrupt	-11.5763
▁feast	-11.5767
▁vendor	-11.5767
know	-11.577
よう	-11.5772
specific	-11.5774
▁wang	-11.5775
▁chemistry	-11.5778
▁reddit	-11.5779
▁explicitly	-11.5783
▁harrison	-11.5785
▁trophy	-11.5786
▁kann	-11.5788
▁rela	-11.5789
▁tossed	-11.5792
▁poi	-11.5793
▁idiot	-11.5794
▁intern	-11.5796
habit	-11.5798
▁advertise	-11.5799
▁sprint	-11.5799
▁geno	-11.5804
▁descent	-11.5805
▁andrea	-11.5806
▁jealous	-11.5808
▁possessed	-11.5809
nak	-11.5809
▁suspension	-11.5815
prop	-11.5815
▁simmer	-11.5815
▁ladder	-11.5816
▁respective	-11.5818
prob	-11.5819
▁visitor	-11.582
▁soap	-11.5824
▁victorian	-11.5826
▁empower	-11.5828
▁prosecutor	-11.5828
▁delta	-11.5829
match	-11.5829
identifi	-11.583
▁lawn	-11.5831
▁país	-11.5833
ān	-11.5833
▁musk	-11.5833
▁fury	-11.5834
▁también	-11.5835
▁día	-11.5838
▁bind	-11.5842
▁vine	-11.5842
▁objection	-11.5845
cost	-11.5846
▁guided	-11.5849
find	-11.5851
▁bastard	-11.5854
sexual	-11.586
▁template	-11.586
▁finely	-11.586
▁herbs	-11.5866
ρα	-11.5867
▁boyfriend	-11.5867
cun	-11.5868
▁brazilian	-11.5869
fact	-11.5877
zier	-11.5877
▁biblical	-11.5877
▁strap	-11.5878
▁applying	-11.588
▁midst	-11.5881
▁legendary	-11.5883
▁vector	-11.5887
enter	-11.5889
▁animated	-11.5895
▁moses	-11.5897
▁lone	-11.5897
▁ronald	-11.5898
headed	-11.5898
▁hiv	-11.59
▁porque	-11.5902
▁calculated	-11.5905
zzi	-11.5911
▁eso	-11.5912
▁targeting	-11.5918
▁helm	-11.5921
▁pilgrim	-11.5924
▁regain	-11.5924
▁freely	-11.5925
時	-11.5928
aban	-11.5934
▁stanford	-11.5935
▁czech	-11.5935
▁lump	-11.594
▁forgive	-11.5941
▁depart	-11.5941
ographer	-11.5942
▁plaza	-11.5943
▁width	-11.5944
▁athens	-11.5945
tivo	-11.5945
▁distort	-11.5946
▁cube	-11.5947
ksi	-11.595
会	-11.5957
▁landmark	-11.5958
▁protective	-11.5959
▁surviving	-11.5962
▁muhammad	-11.5965
building	-11.5965
▁utili	-11.5965
park	-11.5968
▁gaza	-11.5968
▁cloak	-11.5968
▁screamed	-11.5968
▁handled	-11.5969
sports	-11.5969
▁spun	-11.597
flat	-11.5971
▁porter	-11.5972
أ	-11.5974
▁utterly	-11.5975
super	-11.5977
▁trash	-11.5979
▁wives	-11.5981
rique	-11.5982
▁productive	-11.5984
government	-11.5991
äh	-11.5993
▁tiene	-11.5993
▁dancer	-11.5994
shaw	-11.5995
verb	-11.5996
enstein	-11.5999
▁memoir	-11.6
▁acute	-11.6001
north	-11.6002
▁dialect	-11.6004
▁overview	-11.6008
▁honestly	-11.6009
▁prey	-11.6013
▁lease	-11.6017
▁closure	-11.6017
agh	-11.6019
▁commence	-11.602
▁thou	-11.6023
▁lesser	-11.6024
▁systematic	-11.6024
▁arg	-11.6025
▁javascript	-11.6026
▁seminar	-11.6026
▁carved	-11.6027
▁delayed	-11.6028
▁scha	-11.6029
▁axe	-11.603
▁connecticut	-11.603
▁burger	-11.6032
▁interviewed	-11.6034
except	-11.6035
ов	-11.6037
▁expertise	-11.6039
ifier	-11.6039
▁barbar	-11.6042
▁freak	-11.6043
▁contributor	-11.6047
▁inequality	-11.6051
▁shiver	-11.6053
since	-11.6054
▁ralph	-11.6055
▁karen	-11.6056
▁slam	-11.6057
▁terrace	-11.6057
▁libya	-11.6064
▁banana	-11.6067
▁hugh	-11.6068
▁veil	-11.6074
written	-11.6075
バ	-11.6077
ulator	-11.6079
▁fascinating	-11.608
στ	-11.6089
▁freshly	-11.6091
▁matrix	-11.6092
▁starter	-11.6092
util	-11.6094
▁casting	-11.6097
▁ranging	-11.61
ύ	-11.6101
▁laser	-11.6104
▁puff	-11.6104
▁altar	-11.6106
▁addressing	-11.6106
▁invention	-11.6108
▁blessed	-11.611
▁isaac	-11.6112
lü	-11.6114
▁conven	-11.6114
▁faded	-11.6116
▁cowboy	-11.6117
▁conform	-11.6118
▁establishing	-11.6118
グ	-11.612
▁reich	-11.6121
▁santo	-11.6122
▁chelsea	-11.6123
▁reminder	-11.6124
▁clearing	-11.6125
▁farming	-11.6135
▁notorious	-11.6135
▁mentor	-11.6136
▁legally	-11.6137
▁isolation	-11.6137
▁indicating	-11.6142
proof	-11.6144
▁otro	-11.6145
▁contractor	-11.615
▁durch	-11.6151
サ	-11.6153
▁backup	-11.6155
発	-11.6155
▁seated	-11.6155
▁portuguese	-11.6155
quality	-11.6158
▁collecting	-11.6158
för	-11.6159
▁renaissance	-11.616
▁tempo	-11.6161
▁stru	-11.6163
liche	-11.6164
▁rhode	-11.6165
▁sway	-11.6166
root	-11.6167
▁belgium	-11.6169
▁barcelona	-11.6174
▁shifting	-11.6174
rado	-11.6174
▁warmth	-11.6177
ту	-11.618
fest	-11.618
生	-11.618
▁orientation	-11.6181
▁concentrated	-11.6182
▁pillow	-11.6184
biotic	-11.6184
frac	-11.6186
▁utilize	-11.6187
▁chess	-11.6187
▁forgot	-11.6196
▁almond	-11.6197
▁cherry	-11.6197
▁crust	-11.6201
▁breeze	-11.6201
nnen	-11.6202
breaking	-11.6204
▁foolish	-11.6205
▁accommodate	-11.6206
▁quantity	-11.6207
plex	-11.6211
▁dennis	-11.6213
▁bicycle	-11.6213
▁traded	-11.6217
▁cheat	-11.6221
▁cautious	-11.6222
wild	-11.6224
▁constraint	-11.6224
▁python	-11.6224
▁switched	-11.6225
gold	-11.6226
▁wiped	-11.6227
could	-11.6228
▁indoor	-11.6232
▁drank	-11.6232
▁idol	-11.6234
▁affiliate	-11.6234
▁mansion	-11.6237
language	-11.6238
bile	-11.624
▁mortal	-11.6241
▁tak	-11.6241
▁desperately	-11.6242
▁ved	-11.6243
▁roth	-11.6246
chte	-11.6251
▁prep	-11.6254
▁casino	-11.6261
▁armies	-11.6262
▁commonwealth	-11.6266
▁norwegian	-11.6266
▁spencer	-11.6266
▁romney	-11.6267
▁refuge	-11.6269
oka	-11.627
▁surgeon	-11.627
▁worm	-11.6274
▁splash	-11.6277
▁slate	-11.6279
▁sank	-11.628
▁rushing	-11.6281
teil	-11.6282
▁shine	-11.6284
princip	-11.6289
行	-11.6291
borg	-11.6294
hui	-11.6298
▁buddha	-11.6298
▁porn	-11.6302
▁militia	-11.6303
▁torch	-11.6304
▁peculiar	-11.6305
▁kant	-11.6307
winning	-11.6307
▁caesar	-11.6308
οι	-11.6308
▁transparent	-11.6308
▁saddle	-11.6308
ovich	-11.6309
▁cafe	-11.6309
▁innovative	-11.631
cola	-11.631
▁hampshire	-11.6315
▁vladimir	-11.6315
▁retained	-11.6317
health	-11.6318
▁solely	-11.6319
profit	-11.6321
▁stepping	-11.6322
▁balanced	-11.6323
▁respected	-11.6324
enchant	-11.6324
close	-11.633
▁yemen	-11.633
▁consul	-11.6332
________________	-11.6332
▁commanded	-11.6332
▁sweep	-11.6333
▁ambitious	-11.6333
خ	-11.6336
scope	-11.6336
▁adjustment	-11.6338
ensis	-11.6339
▁registr	-11.634
click	-11.634
▁billboard	-11.6343
▁hormone	-11.6345
paul	-11.6351
▁colin	-11.6357
▁terrain	-11.6358
▁discharge	-11.6358
getty	-11.6359
emia	-11.6361
▁organize	-11.6362
▁spat	-11.6364
▁vincent	-11.6366
▁commented	-11.6368
bé	-11.6369
▁humble	-11.6369
▁filing	-11.637
▁broadway	-11.6372
▁pharma	-11.6372
▁supposedly	-11.6373
▁masses	-11.6375
▁flourish	-11.6375
事	-11.6375
▁zur	-11.6378
ème	-11.6381
▁startup	-11.6383
▁femme	-11.6394
cue	-11.6396
▁obey	-11.6397
▁confirmation	-11.6397
ência	-11.6398
▁tesla	-11.6399
▁counting	-11.64
▁impose	-11.6403
▁catching	-11.6408
▁wireless	-11.641
▁bengal	-11.641
▁broth	-11.6411
▁tub	-11.6412
operative	-11.6415
ène	-11.6419
▁ideological	-11.6423
▁holmes	-11.6424
▁planted	-11.6424
populated	-11.6425
culture	-11.6428
vak	-11.6434
▁condemned	-11.6435
▁bald	-11.6435
▁mice	-11.6436
▁focuses	-11.6437
▁harassment	-11.6438
▁lloyd	-11.6444
family	-11.6446
▁sep	-11.6449
▁yelled	-11.6449
▁countless	-11.6452
▁newton	-11.6456
▁sporting	-11.6456
prec	-11.6457
▁layout	-11.6461
бе	-11.6461
▁uber	-11.6461
▁vain	-11.6462
▁falcon	-11.6465
▁bachelor	-11.6467
film	-11.6472
lichen	-11.6473
▁snack	-11.6475
▁thailand	-11.6485
▁useless	-11.6488
▁richmond	-11.6488
▁supplied	-11.6489
▁aviation	-11.6492
▁characterized	-11.6492
pues	-11.6493
▁purely	-11.6493
chain	-11.6497
▁ninth	-11.6503
▁blamed	-11.6504
▁disclose	-11.6505
gå	-11.6508
spec	-11.6508
▁reside	-11.6509
▁seventy	-11.6512
cian	-11.6519
▁ellis	-11.652
▁talented	-11.6521
▁limitations	-11.6523
▁equity	-11.6528
▁plunge	-11.6528
▁tir	-11.653
▁harbour	-11.6532
▁très	-11.6533
▁rotation	-11.6533
分	-11.6533
pose	-11.6535
endra	-11.6536
▁unprecedented	-11.6536
▁transgender	-11.6541
▁inhibit	-11.6542
▁marker	-11.6543
▁disappointment	-11.6546
lá	-11.6546
▁impulse	-11.655
▁legisla	-11.6556
▁fru	-11.6556
▁guild	-11.6557
▁educa	-11.656
▁auction	-11.6565
▁sustain	-11.6565
це	-11.6566
▁editing	-11.6567
▁haben	-11.6569
▁dignity	-11.6569
▁temporarily	-11.6574
▁florence	-11.6581
▁attach	-11.6585
▁contradict	-11.6587
▁pencil	-11.6588
ían	-11.6594
▁provider	-11.6597
▁applies	-11.6597
tele	-11.6598
▁denmark	-11.6602
through	-11.6608
▁fairy	-11.661
▁wax	-11.661
▁deployment	-11.661
▁prevented	-11.6611
▁vanished	-11.6613
▁paradox	-11.6615
▁jennifer	-11.6617
vine	-11.662
▁consequently	-11.662
ulous	-11.6622
iller	-11.6625
▁arctic	-11.6626
wow	-11.6627
model	-11.6628
▁annually	-11.6635
▁rental	-11.6638
▁premiere	-11.6638
▁yale	-11.664
▁elevator	-11.6641
▁harold	-11.6645
▁releasing	-11.6651
▁addict	-11.6651
ifer	-11.666
▁diagnosis	-11.6661
music	-11.6662
troph	-11.6664
▁darwin	-11.6666
▁chron	-11.6666
▁covid	-11.6667
river	-11.6669
▁>>	-11.6672
zio	-11.6675
fun	-11.6676
▁blaze	-11.6677
▁motivated	-11.6677
▁battlefield	-11.6681
▁shortage	-11.6682
▁candy	-11.6683
russian	-11.6684
▁frustrated	-11.6685
▁thorough	-11.6689
äng	-11.669
▁porch	-11.669
▁burial	-11.6692
▁explicit	-11.6693
▁solicit	-11.6695
▁prototype	-11.6697
▁tsp	-11.6697
▁ounces	-11.67
▁tribal	-11.6705
march	-11.6706
▁passport	-11.671
▁hid	-11.6711
▁pitt	-11.6712
до	-11.6714
▁manufacturer	-11.6717
▁broadcasting	-11.672
▁steak	-11.672
▁anglo	-11.6721
▁stuart	-11.6725
▁architectural	-11.6726
▁colored	-11.6727
▁quart	-11.6727
▁fitness	-11.6733
▁sony	-11.6734
▁singular	-11.6734
▁welsh	-11.6741
bha	-11.6741
▁revolt	-11.6741
▁bizarre	-11.6745
▁stunning	-11.6745
rrell	-11.6746
▁lifting	-11.6746
▁colleague	-11.6748
berger	-11.6748
▁inspection	-11.6748
▁researcher	-11.6749
▁batch	-11.6749
▁vienna	-11.675
▁sadly	-11.675
▁tattoo	-11.6751
▁civic	-11.6752
security	-11.6752
▁ignoring	-11.6753
▁youngest	-11.6754
paper	-11.6756
chrom	-11.6756
▁brasil	-11.6757
▁annie	-11.6757
▁availability	-11.6758
▁armour	-11.6758
ț	-11.6758
▁kg	-11.6761
▁quand	-11.6761
▁crude	-11.6762
▁controlling	-11.6762
▁guaranteed	-11.6763
abad	-11.6763
▁portal	-11.6766
▁bleeding	-11.6768
▁tyler	-11.6769
bow	-11.677
▁syrup	-11.677
их	-11.6772
pool	-11.6772
▁rak	-11.6776
▁duncan	-11.6778
▁verbal	-11.6779
shore	-11.6782
▁nano	-11.6783
▁slash	-11.6784
▁arabic	-11.6785
ário	-11.6787
▁prix	-11.679
▁resignation	-11.6793
sym	-11.6796
should	-11.6797
不	-11.6798
▁opposing	-11.6801
▁horizontal	-11.6802
▁wilderness	-11.6804
▁identifying	-11.6806
▁eliminated	-11.6809
ului	-11.6812
自	-11.6813
▁cuban	-11.6817
▁trio	-11.6817
▁espn	-11.6818
▁projection	-11.682
▁entra	-11.682
用	-11.682
τη	-11.6821
▁indicator	-11.6821
motion	-11.6822
▁delle	-11.6825
▁strictly	-11.6832
▁meadow	-11.6833
personal	-11.6835
▁vene	-11.6839
▁attachment	-11.684
▁fortunately	-11.6842
▁rash	-11.6848
▁hesitated	-11.6849
founder	-11.6852
report	-11.6854
▁purse	-11.6855
▁invested	-11.6855
ム	-11.6855
allow	-11.6857
▁ncaa	-11.6858
▁welcomed	-11.6859
▁doug	-11.6863
central	-11.687
▁avoiding	-11.6872
ligt	-11.6872
▁villain	-11.6872
rier	-11.6878
▁frog	-11.688
▁navigation	-11.688
thus	-11.6881
▁query	-11.6886
▁nicola	-11.6887
▁serbia	-11.6887
▁martha	-11.6889
▁gaining	-11.6893
▁meantime	-11.6894
▁swallowed	-11.6898
▁edinburgh	-11.69
release	-11.69
dorf	-11.6902
▁hudson	-11.6902
▁compact	-11.6903
▁transmit	-11.6905
▁succession	-11.6905
▁flexible	-11.6907
▁fountain	-11.691
▁transcend	-11.691
▁correspondence	-11.6913
▁gilbert	-11.6914
ń	-11.6915
▁muy	-11.6917
iendo	-11.6917
▁organizer	-11.6917
▁participating	-11.6917
▁wolves	-11.692
flower	-11.6924
▁lust	-11.6928
▁entities	-11.6933
zone	-11.6942
▁silently	-11.6944
▁fern	-11.6947
▁teenage	-11.6948
▁få	-11.6951
▁anticipated	-11.6954
▁dominic	-11.6958
▁sorrow	-11.6963
▁adj	-11.6963
▁exempt	-11.6963
▁cope	-11.6963
▁puede	-11.6964
▁travelling	-11.6965
▁pierce	-11.6967
▁vai	-11.6967
▁resume	-11.6967
▁fetch	-11.6971
▁insane	-11.6977
▁experiencing	-11.6977
▁->	-11.6977
▁harmony	-11.6982
▁altered	-11.6982
▁ἀ	-11.6984
▁upload	-11.6986
▁reproduce	-11.6994
▁charging	-11.6994
▁mistress	-11.6994
▁congregation	-11.6997
▁computing	-11.6997
▁claire	-11.6998
▁documentation	-11.6998
▁trillion	-11.6999
▁desktop	-11.7001
ну	-11.7004
▁assembled	-11.7005
▁deploy	-11.7005
▁ufc	-11.7005
▁vivid	-11.7009
っ	-11.7012
▁cracked	-11.7013
▁apollo	-11.7013
onder	-11.7015
▁terre	-11.7016
coat	-11.7017
▁precede	-11.7019
voluntary	-11.7019
▁symbolic	-11.7019
▁brig	-11.7022
▁jew	-11.7023
▁mistaken	-11.7025
▁vigil	-11.7027
▁sunset	-11.7029
▁princeton	-11.7029
▁contempt	-11.7029
▁warehouse	-11.7029
arrow	-11.7034
mind	-11.7036
cry	-11.7039
fiction	-11.7039
▁limp	-11.7039
▁attendance	-11.7041
▁sera	-11.7042
▁courtyard	-11.7042
▁destiny	-11.7044
▁immigrant	-11.7045
▁mystic	-11.705
▁readily	-11.7051
▁aftermath	-11.7052
▁nä	-11.7054
▁renewable	-11.7054
▁circular	-11.7057
before	-11.7057
▁consisting	-11.706
▁expose	-11.706
▁confession	-11.7061
▁murmured	-11.7064
▁confrontation	-11.7065
щ	-11.7066
phor	-11.7069
responsibilities	-11.7072
εν	-11.7072
▁spl	-11.7073
faced	-11.7073
▁detention	-11.7074
uci	-11.7076
especially	-11.7078
phan	-11.7078
▁renewed	-11.7079
reason	-11.7082
establish	-11.7083
little	-11.7083
▁austrian	-11.7084
▁pip	-11.7087
▁triangle	-11.7087
▁execute	-11.709
▁dann	-11.7096
▁decisive	-11.7098
▁dial	-11.7099
▁stud	-11.7099
german	-11.71
earn	-11.7101
▁broker	-11.7103
tate	-11.7104
▁shelf	-11.7111
▁shuttle	-11.7112
▁pillar	-11.7112
really	-11.7113
▁preventing	-11.7116
性	-11.7119
▁wicked	-11.7119
▁preliminary	-11.7122
condition	-11.7122
riel	-11.7123
▁varied	-11.7125
▁vegan	-11.7126
▁paradise	-11.7127
▁shining	-11.7129
▁revival	-11.713
▁oath	-11.713
▁slammed	-11.7133
large	-11.7134
▁lace	-11.7135
▁organizing	-11.7136
▁chancellor	-11.714
▁simulation	-11.714
wave	-11.7141
▁più	-11.7143
▁adrian	-11.7144
optim	-11.7146
▁penny	-11.7146
▁blocking	-11.7146
▁sympathy	-11.7147
▁stroll	-11.7149
▁hiring	-11.7156
▁dub	-11.7156
▁linguistic	-11.7157
▁shooter	-11.7157
▁concentrate	-11.7158
franc	-11.7162
▁travers	-11.7162
trip	-11.7163
section	-11.7165
▁jumping	-11.7166
paid	-11.7171
▁viking	-11.7174
▁panther	-11.7178
間	-11.718
▁consumed	-11.7186
▁fm	-11.7188
▁queensland	-11.7188
▁afghan	-11.7191
tree	-11.7191
▁cinnamon	-11.7193
▁tee	-11.7193
▁blunt	-11.7195
around	-11.7196
▁fitted	-11.7198
▁creativity	-11.7201
▁relating	-11.7201
▁spiral	-11.7203
dimensional	-11.721
▁sometime	-11.7213
connor	-11.7215
▁paragraph	-11.7222
▁finest	-11.7222
▁autonomous	-11.7224
history	-11.7224
million	-11.7225
▁riv	-11.7233
▁cheaper	-11.7234
▁ottawa	-11.7234
▁oakland	-11.7237
ään	-11.7239
children	-11.7241
▁contributing	-11.7242
▁interference	-11.7244
sorry	-11.7245
▁arkansas	-11.7249
▁interactive	-11.7252
blood	-11.7253
▁abruptly	-11.7253
▁snatch	-11.7255
ز	-11.7257
▁messenger	-11.7257
▁pathway	-11.7257
▁contre	-11.7257
▁responding	-11.7258
▁crashed	-11.7258
▁archer	-11.7259
frey	-11.7259
▁regulator	-11.726
▁treating	-11.7265
uru	-11.7265
▁из	-11.7266
hib	-11.7267
▁hypothesis	-11.727
article	-11.727
▁disciple	-11.7275
▁passive	-11.7275
▁vom	-11.7277
▁continental	-11.7278
キ	-11.7279
▁packet	-11.7282
lena	-11.7283
▁melan	-11.7284
treat	-11.729
▁conserva	-11.7291
▁catalog	-11.7292
▁flies	-11.7293
rück	-11.7295
nard	-11.7296
▁refusing	-11.7298
▁ottoman	-11.73
imiento	-11.7301
ще	-11.7303
▁morality	-11.7303
utta	-11.7304
▁embedded	-11.7305
shift	-11.7306
▁pela	-11.7306
▁inevitably	-11.7308
▁fictional	-11.7313
▁magnificent	-11.7313
▁nursing	-11.7315
reich	-11.7318
▁arnold	-11.7318
fill	-11.7322
etz	-11.7323
▁colonies	-11.7324
▁pixel	-11.7324
▁fortress	-11.7329
function	-11.7331
dead	-11.7331
▁maj	-11.7334
▁sovereign	-11.7334
observa	-11.7339
▁stuffed	-11.7339
▁disturbing	-11.734
▁blink	-11.7345
▁bennett	-11.7347
▁français	-11.7349
lite	-11.7352
▁crusade	-11.7352
▁venice	-11.7354
見	-11.7356
▁schul	-11.736
▁refugee	-11.7361
▁enthusiastic	-11.7362
▁gust	-11.7363
▁ascend	-11.7364
▁hän	-11.7365
plu	-11.7366
▁lineup	-11.7366
▁unfortunate	-11.7372
rès	-11.7374
encontr	-11.7381
▁artwork	-11.7383
▁screening	-11.7386
isen	-11.7386
▁decorated	-11.7388
▁rab	-11.7392
error	-11.7393
illon	-11.7397
▁pep	-11.7398
▁madame	-11.7401
▁disguise	-11.7401
▁varieties	-11.7404
▁lynch	-11.7404
▁commune	-11.7405
▁samsung	-11.7407
▁años	-11.7409
▁sexually	-11.7411
▁impeachment	-11.7411
▁tactical	-11.7413
▁angela	-11.7414
▁approve	-11.7418
▁foto	-11.7419
→	-11.7419
▁poorly	-11.7422
▁damned	-11.7429
ص	-11.743
kara	-11.7431
pain	-11.7432
▁surname	-11.7433
▁tenure	-11.7438
balance	-11.7441
▁knit	-11.7441
information	-11.7444
▁adhere	-11.7444
▁mash	-11.7445
zion	-11.7447
était	-11.7449
▁stressed	-11.745
getting	-11.745
▁shak	-11.7451
earth	-11.7451
▁nietzsche	-11.7453
▁enhanced	-11.7454
▁romania	-11.7454
▁mira	-11.7455
▁wurde	-11.7456
▁denial	-11.746
fax	-11.7462
πα	-11.7462
▁brussels	-11.7464
pun	-11.7464
▁summon	-11.7465
ان	-11.7469
▁darling	-11.7469
▁tucked	-11.7469
▁guinea	-11.7469
▁offence	-11.747
food	-11.747
▁magnetic	-11.747
▁roma	-11.7475
▁accelerate	-11.7477
▁sealed	-11.7479
clean	-11.7482
capac	-11.7484
amba	-11.7485
▁tart	-11.7487
▁solomon	-11.749
▁unhappy	-11.7492
ого	-11.7493
▁badge	-11.7494
▁grit	-11.7495
▁squeeze	-11.7497
++	-11.7497
▁sak	-11.7497
▁introducing	-11.7498
▁recount	-11.7498
▁diabetes	-11.7503
▁conquest	-11.7503
▁notebook	-11.7504
▁nonprofit	-11.7507
▁charming	-11.7509
▁remarked	-11.751
▁supervisor	-11.7511
lough	-11.7511
▁palestine	-11.7513
▁compelling	-11.7513
▁raymond	-11.752
▁casualties	-11.7522
rome	-11.7525
▁xbox	-11.753
▁celebrity	-11.7532
▁lesbian	-11.7532
▁nacional	-11.7534
▁melted	-11.7534
▁aroma	-11.7535
▁deciding	-11.7536
▁vault	-11.7536
support	-11.7537
onne	-11.7538
▁launching	-11.7539
▁assassination	-11.754
▁chorus	-11.7541
▁consume	-11.7543
▁highland	-11.7543
▁soundtrack	-11.7544
lige	-11.7545
▁crunch	-11.7546
▁hamburg	-11.7547
▁bash	-11.7549
▁pau	-11.7549
▁replica	-11.7551
ło	-11.7553
▁caribbean	-11.7553
▁scramble	-11.7553
▁fé	-11.7555
▁gum	-11.7557
▁alors	-11.7558
hov	-11.756
▁swap	-11.756
▁scripture	-11.756
▁abbey	-11.7561
▁ensuring	-11.7562
▁retire	-11.7563
▁magnitude	-11.7563
▁assure	-11.7564
▁esto	-11.7566
▁après	-11.7567
▁crab	-11.7567
▁turtle	-11.7567
luc	-11.7571
▁napoleon	-11.7574
▁strongest	-11.7575
▁explorer	-11.7576
▁unnecessary	-11.7577
ている	-11.7581
▁sidewalk	-11.7581
▁applicant	-11.7584
▁happily	-11.7587
▁daddy	-11.7588
▁nintendo	-11.759
▁qualification	-11.7593
▁considerably	-11.7595
▁pentagon	-11.7595
▁swirl	-11.7598
су	-11.7598
▁cada	-11.7598
disc	-11.7607
▁herbert	-11.7608
virtu	-11.7612
▁nationwide	-11.7612
cook	-11.7613
▁specified	-11.7615
▁marcel	-11.7617
▁instrumental	-11.7618
▁sponsored	-11.7622
▁danish	-11.7622
▁primitive	-11.7627
▁inspire	-11.7629
▁monetary	-11.7632
rol	-11.7639
▁sexuality	-11.7643
europe	-11.7645
▁multipli	-11.7651
▁qualify	-11.7651
illi	-11.7653
▁intact	-11.7653
▁dav	-11.7653
▁balloon	-11.7654
▁extending	-11.7655
czy	-11.7656
▁kenya	-11.7657
▁leverage	-11.7658
▁dame	-11.7659
▁pursuing	-11.7664
▁mull	-11.7665
▁bitch	-11.7667
width	-11.7668
charge	-11.7669
▁maple	-11.7671
economic	-11.7672
▁documented	-11.7674
▁deaf	-11.7675
▁flowing	-11.7681
▁measuring	-11.7683
object	-11.7684
enko	-11.7684
▁pity	-11.7685
▁confederate	-11.7685
▁skilled	-11.7686
▁durante	-11.7687
living	-11.7687
▁governance	-11.7691
▁squeezed	-11.7692
▁zombie	-11.7694
▁ceased	-11.7696
liness	-11.7696
▁rendered	-11.77
sweet	-11.7704
▁exterior	-11.7704
▁remainder	-11.7707
▁sunny	-11.771
▁modification	-11.7714
▁sniff	-11.7719
▁mik	-11.7719
▁mcdonald	-11.772
▁garbage	-11.7723
▁stride	-11.7725
▁severely	-11.7726
▁securities	-11.7728
▁repeal	-11.7729
▁alberta	-11.7729
▁realised	-11.773
▁rien	-11.7731
▁pall	-11.7732
▁elevation	-11.7734
▁shocking	-11.7735
nais	-11.7736
fashioned	-11.7736
▁conceptual	-11.7736
▁elevated	-11.7736
search	-11.7737
assemble	-11.7744
▁michelle	-11.7745
▁slap	-11.7745
▁diana	-11.7748
parent	-11.7748
▁lenin	-11.7749
▁birmingham	-11.775
▁heath	-11.7756
escu	-11.7757
pia	-11.7758
▁estaba	-11.7758
▁transparency	-11.7761
▁pedro	-11.7765
▁squat	-11.7769
作	-11.7771
▁eighteenth	-11.7771
▁brake	-11.7773
▁trademark	-11.7776
▁rebuild	-11.7777
▁inherited	-11.7777
▁shepherd	-11.778
▁pardon	-11.778
▁diameter	-11.7783
fuck	-11.7786
▁zijn	-11.7788
▁atomic	-11.7788
▁violin	-11.779
チ	-11.7792
articul	-11.7793
▁reckon	-11.7794
stadt	-11.7795
▁detection	-11.7796
лу	-11.7797
scape	-11.7799
▁heroin	-11.78
ブ	-11.78
¡	-11.7801
▁sanctuary	-11.7809
▁manipulate	-11.7809
▁revised	-11.7812
▁correspondent	-11.7814
▁gegen	-11.7815
▁immortal	-11.782
▁sausage	-11.7823
▁verdict	-11.7823
ieren	-11.7826
▁clarity	-11.7827
▁chau	-11.7828
lopp	-11.7828
lte	-11.7829
▁moor	-11.783
▁defining	-11.7831
§	-11.7833
▁clara	-11.7842
women	-11.7843
italia	-11.7844
▁maha	-11.7847
\(	-11.785
rada	-11.7853
▁unsuccessful	-11.7855
▁bast	-11.7857
▁militar	-11.7857
▁comparative	-11.7861
background	-11.7861
trump	-11.7866
write	-11.7876
▁businessman	-11.788
▁amend	-11.7881
▁stripped	-11.7882
▁wink	-11.7883
ppen	-11.7884
▁madness	-11.7885
shell	-11.7886
china	-11.7887
united	-11.7891
▁columbus	-11.7896
▁steadily	-11.7896
▁devastating	-11.7899
▁hungarian	-11.79
▁excel	-11.7902
▁autor	-11.7907
phen	-11.791
▁shaft	-11.791
▁delighted	-11.7911
жи	-11.7913
▁cache	-11.7913
financi	-11.7916
▁compliment	-11.7921
▁hatte	-11.7932
▁specify	-11.7936
▁cultivate	-11.7937
▁sultan	-11.7937
▁comrade	-11.7947
▁motorcycle	-11.7948
мен	-11.795
▁tribunal	-11.7959
▁moth	-11.7959
naire	-11.7961
▁när	-11.7962
lí	-11.7962
▁inclusion	-11.7963
▁ribbon	-11.7965
purpose	-11.7969
▁licensed	-11.797
consider	-11.7974
▁delivering	-11.7975
▁hughes	-11.7976
league	-11.7978
▁adjusted	-11.7979
▁infected	-11.7979
ων	-11.7981
▁suo	-11.7983
▁mao	-11.7986
テ	-11.7989
▁spectacle	-11.7992
graphic	-11.7993
▁improv	-11.7994
▁dislike	-11.7996
▁oval	-11.7996
▁merri	-11.7996
ἐ	-11.7996
▁meteor	-11.8001
lå	-11.8005
▁peeled	-11.8008
▁dessert	-11.8009
▁jesse	-11.8009
▁commentator	-11.8011
▁twitch	-11.8016
nette	-11.8018
▁rebound	-11.8019
ư	-11.8022
▁maneuver	-11.8022
▁convincing	-11.8025
▁swamp	-11.8026
ví	-11.8027
▁manuel	-11.803
cier	-11.8031
▁ammunition	-11.8033
▁psychologist	-11.8033
▁staple	-11.8034
▁sally	-11.8036
▁persistent	-11.8037
▁lily	-11.8039
▁rigid	-11.8041
▁breakdown	-11.8045
▁tbsp	-11.8047
▁digit	-11.8049
▁wipe	-11.8049
ל	-11.805
▁embarrassed	-11.8053
orient	-11.8059
▁valve	-11.8061
▁croatia	-11.8063
▁nj	-11.8068
▁baptist	-11.8072
▁shrink	-11.8073
▁jihad	-11.8073
ウ	-11.8075
▁governing	-11.8077
▁tumor	-11.8083
▁mali	-11.809
▁imported	-11.809
▁beneficial	-11.8094
hak	-11.8097
▁instructed	-11.8099
▁technically	-11.8102
▁majesty	-11.8106
▁holl	-11.8109
▁silicon	-11.8109
▁artifact	-11.8111
▁integral	-11.8112
▁tapped	-11.8112
▁absorbed	-11.8113
▁disabled	-11.8114
▁countryside	-11.8115
▁invalid	-11.8115
▁louise	-11.8117
▁socialism	-11.8119
─	-11.8119
}}	-11.8122
▁skulle	-11.8122
▁ignorance	-11.8122
▁decree	-11.8126
▁investor	-11.8128
induced	-11.8139
▁preview	-11.8142
▁destroying	-11.8143
▁pseudo	-11.8145
▁insider	-11.8145
cele	-11.8146
▁junk	-11.8146
▁sophie	-11.8148
industri	-11.815
▁sweeping	-11.815
▁digging	-11.8151
じ	-11.8155
▁terrified	-11.8156
▁delegates	-11.8161
▁perfection	-11.8163
▁nephew	-11.8167
▁gratitude	-11.8167
▁hispanic	-11.8167
▁dairy	-11.8168
−	-11.817
▁hungary	-11.8172
▁patriarch	-11.8173
▁ibn	-11.8174
▁prejudice	-11.8178
▁justified	-11.818
anthrop	-11.8181
▁crouch	-11.8181
▁martial	-11.8184
лю	-11.8184
▁gdp	-11.8186
▁curry	-11.819
▁alexandr	-11.819
▁interpreted	-11.8191
hof	-11.8192
▁rubbed	-11.8193
▁detected	-11.8195
▁offline	-11.8196
bry	-11.8198
process	-11.8201
▁thereafter	-11.8206
amour	-11.8211
▁investigated	-11.8211
▁echoed	-11.8212
▁trent	-11.8216
ţ	-11.8217
▁permanently	-11.8217
▁revolve	-11.8218
▁pivot	-11.8218
▁mercury	-11.822
▁overlap	-11.8223
▁bundes	-11.8224
▁cela	-11.8225
nice	-11.8225
▁fastest	-11.8225
▁accuse	-11.8226
▁=>	-11.8227
▁withdrew	-11.8229
▁investing	-11.8233
▁longtime	-11.8233
▁decay	-11.8234
▁portrayed	-11.8235
▁scoop	-11.8236
▁contradiction	-11.8237
▁kell	-11.8238
▁satan	-11.824
▁downstairs	-11.824
▁ernest	-11.8242
▁stole	-11.8242
▁dominate	-11.8245
▁jeg	-11.8245
soft	-11.8246
auf	-11.8248
▁stew	-11.8252
▁productivity	-11.8256
▁dwarf	-11.8257
▁stove	-11.8261
▁boring	-11.8264
filled	-11.8265
▁undoubtedly	-11.8266
▁iconic	-11.8273
▁scare	-11.8273
snip	-11.8275
▁cellar	-11.828
▁scam	-11.828
▁lyon	-11.8286
▁ruined	-11.8286
▁bala	-11.8291
▁monastery	-11.8291
▁pyramid	-11.8291
having	-11.8292
▁tack	-11.8292
子	-11.8294
secret	-11.8296
adores	-11.8296
▁amanda	-11.83
場	-11.8302
▁dylan	-11.8303
▁grammar	-11.8305
bug	-11.831
acqui	-11.8312
▁hp	-11.8314
▁leisure	-11.8317
▁workplace	-11.8317
runner	-11.832
▁lever	-11.832
▁rapport	-11.832
▁flock	-11.8324
▁monta	-11.8326
qaeda	-11.8328
▁whirl	-11.8334
▁interfere	-11.8336
▁flavour	-11.834
▁peanut	-11.834
cine	-11.8342
▁consist	-11.8342
▁corona	-11.8343
▁mccain	-11.8344
ャ	-11.8344
argent	-11.8345
▁thermo	-11.8345
▁irregular	-11.8345
christ	-11.8349
▁assertion	-11.8349
▁fatigue	-11.8351
▁pest	-11.8352
▁glorious	-11.8354
▁bangladesh	-11.8357
guin	-11.8358
▁advisory	-11.8358
ات	-11.8359
▁castro	-11.8363
▁griffin	-11.8364
seat	-11.8366
▁greeted	-11.8367
▁shanghai	-11.8368
▁caroline	-11.8373
▁rattle	-11.838
▁baked	-11.8381
▁intervene	-11.8382
▁practitioner	-11.8382
▁bulgaria	-11.8383
▁gauge	-11.8383
▁resign	-11.8384
full	-11.8387
▁joshua	-11.8389
▁confronted	-11.8393
▁marshal	-11.8393
▁shrine	-11.8394
▁beaches	-11.8397
saxon	-11.8399
▁grunt	-11.8399
▁iceland	-11.84
▁hannah	-11.8401
▁depicted	-11.8403
▁inclined	-11.8406
deep	-11.8411
▁tenth	-11.8412
station	-11.8412
mmel	-11.8414
▁marathon	-11.8423
ulf	-11.8425
▁rude	-11.8427
▁frown	-11.8427
せ	-11.8427
▁poetic	-11.8428
▁mound	-11.8431
▁reconstruction	-11.8431
▁europa	-11.8433
▁latino	-11.8442
▁remark	-11.8444
▁appreciation	-11.8446
▁cré	-11.8447
▁safer	-11.8449
▁pursued	-11.8451
cellular	-11.8452
ος	-11.8457
▁belgian	-11.8457
об	-11.846
▁erik	-11.8461
▁subscription	-11.8462
▁nada	-11.8464
că	-11.8466
▁implant	-11.8466
limit	-11.8474
glass	-11.8475
without	-11.8477
▁gregory	-11.8478
neck	-11.848
▁incumbent	-11.8486
enburg	-11.8488
▁authorized	-11.8489
normal	-11.8489
▁ainsi	-11.8493
▁simpson	-11.8498
▁specimen	-11.8498
▁medio	-11.8498
▁departed	-11.8502
▁descended	-11.8505
▁generic	-11.8508
▁cpu	-11.8508
▁shudder	-11.8509
▁specialized	-11.8509
▁preheat	-11.851
▁accurately	-11.851
▁washing	-11.851
▁implies	-11.8512
▁humanitarian	-11.8512
▁lanka	-11.8513
▁donated	-11.8515
▁cobb	-11.8515
▁pentru	-11.8518
には	-11.8518
▁halv	-11.8518
▁celtic	-11.8519
▁enlarge	-11.8519
sometimes	-11.852
▁gew	-11.8525
médi	-11.8526
enden	-11.8527
different	-11.8528
ем	-11.8529
▁embraced	-11.853
▁plural	-11.853
▁flora	-11.8531
▁mentally	-11.8532
▁spinning	-11.8534
ώ	-11.8534
ר	-11.8535
▁murderer	-11.8538
▁completing	-11.8538
▁viral	-11.8542
▁tribune	-11.8544
▁orlando	-11.8548
′′	-11.855
▁recession	-11.8552
▁batman	-11.8555
▁sovereignty	-11.8555
▁diagram	-11.856
▁sebastian	-11.8562
▁wedge	-11.8562
▁airplane	-11.8562
▁straightforward	-11.8564
▁initiated	-11.8566
▁batteries	-11.8567
▁kane	-11.8567
▁omni	-11.8576
\)	-11.8577
▁speeches	-11.8578
▁hydrogen	-11.8579
lead	-11.858
▁gag	-11.8582
▁supplier	-11.8585
▁grocery	-11.8588
▁settlers	-11.8592
▁cycling	-11.8594
ных	-11.8597
▁powell	-11.8599
wheel	-11.8601
▁blond	-11.8602
▁separately	-11.8602
▁garrison	-11.8602
▁magnet	-11.8603
▁sequel	-11.8604
▁cogn	-11.8604
▁cheerful	-11.8604
▁boiling	-11.8605
▁coordinator	-11.8605
▁proceeded	-11.8607
▁malcolm	-11.8608
▁mainland	-11.8611
▁circulation	-11.8611
embla	-11.8611
▁chang	-11.8612
▁loudly	-11.8613
▁imply	-11.8618
▁highlighted	-11.8621
方	-11.8623
▁georg	-11.8623
rebbe	-11.8625
▁comparing	-11.8626
▁martyr	-11.8629
▁capability	-11.863
за	-11.863
ения	-11.8632
▁footsteps	-11.8632
publi	-11.8632
▁graz	-11.8636
▁stealing	-11.8636
▁joel	-11.8639
▁showcase	-11.8644
▁telegraph	-11.8644
▁thé	-11.8645
▁rejection	-11.8647
▁cement	-11.8649
consuming	-11.8651
▁drawer	-11.8653
この	-11.8654
▁helpless	-11.8654
▁flexibility	-11.8655
▁unaware	-11.8656
zhou	-11.8656
phil	-11.8658
ý	-11.8658
▁feud	-11.866
▁enlightenment	-11.8661
russia	-11.8662
▁pleaded	-11.8663
▁finland	-11.8663
▁risen	-11.8664
在	-11.8665
ού	-11.8667
▁jessica	-11.8667
εί	-11.8667
▁[...]	-11.867
▁choke	-11.8674
▁cosa	-11.8675
copy	-11.8676
histoire	-11.8678
®	-11.8679
ी	-11.8682
ophil	-11.8682
λλ	-11.8687
ного	-11.8688
hurst	-11.8689
▁stumbled	-11.8689
▁advise	-11.8692
info	-11.8693
▁vintage	-11.8694
合	-11.8699
▁skate	-11.8699
▁scrutiny	-11.8701
▁accumulate	-11.8703
▁tolerate	-11.8704
्	-11.8705
▁καὶ	-11.8705
▁crest	-11.8707
ニ	-11.8714
▁dictionary	-11.8714
▁compilation	-11.8714
▁compiled	-11.8715
▁wholly	-11.8718
同	-11.872
▁disadvantage	-11.872
▁entries	-11.8723
▁embark	-11.8723
▁serge	-11.8725
▁bourgeois	-11.8726
▁exotic	-11.8726
▁blinked	-11.8727
▁nasty	-11.8728
▁priorities	-11.8729
▁curb	-11.873
ной	-11.8731
songwriter	-11.8731
▁compliance	-11.8732
▁refrigerator	-11.8732
fair	-11.8738
hearted	-11.8741
▁protagonist	-11.8741
hash	-11.8741
local	-11.8743
▁vacuum	-11.8744
▁pricing	-11.8746
price	-11.8747
math	-11.8751
▁gentlemen	-11.8751
osta	-11.8751
▁merged	-11.8753
▁vicious	-11.8754
▁vend	-11.8758
▁cuisine	-11.8759
▁carbohydrate	-11.8762
depend	-11.8762
▁reactor	-11.8766
▁saga	-11.8767
▁sierra	-11.8771
▁greenhouse	-11.8772
▁scrub	-11.8773
omic	-11.8773
▁vista	-11.8774
▁kissing	-11.8775
▁dictate	-11.8775
▁downward	-11.8777
▁automobile	-11.8783
▁locate	-11.8783
buster	-11.8783
▁implicit	-11.8786
▁rebecca	-11.8789
shoot	-11.879
▁realizing	-11.8791
сть	-11.8791
état	-11.8792
▁moan	-11.8793
everything	-11.8793
▁headache	-11.8794
▁electron	-11.8794
▁amsterdam	-11.8795
profile	-11.8795
pio	-11.8796
▁moins	-11.8796
▁mongol	-11.8799
gado	-11.88
▁buyers	-11.88
▁concession	-11.8801
php	-11.8801
▁chrome	-11.8802
▁solidarity	-11.8804
▁squash	-11.8807
▁invoke	-11.8808
▁salvation	-11.8813
kommen	-11.8813
▁gleam	-11.8813
▁oversight	-11.8818
オ	-11.8821
▁так	-11.8824
▁otra	-11.8825
▁consistency	-11.8825
▁kru	-11.8826
▁derby	-11.8828
▁ensemble	-11.883
changing	-11.8831
ュ	-11.8833
▁exploded	-11.8834
▁achieving	-11.8836
▁revision	-11.8839
▁constituency	-11.8839
▁certified	-11.8839
▁refusal	-11.8839
ghan	-11.8841
ビ	-11.8842
▁whim	-11.8842
▁hugo	-11.8844
▁sailing	-11.8844
▁ripped	-11.8845
▁precision	-11.8845
bourg	-11.8846
▁clarke	-11.8848
▁και	-11.8848
location	-11.8849
▁startled	-11.8849
▁subway	-11.8851
ши	-11.8853
▁rainbow	-11.8861
physical	-11.8862
collect	-11.8863
▁forbidden	-11.8863
▁statute	-11.8866
▁nombre	-11.8867
▁disclosure	-11.8869
▁provo	-11.887
ты	-11.8872
▁collision	-11.8873
▁exert	-11.8876
▁bradley	-11.8877
issue	-11.8878
▁gerald	-11.8883
▁gloom	-11.8886
▁provoke	-11.8886
▁travelled	-11.8886
▁montgomery	-11.8888
од	-11.8891
स	-11.8894
index	-11.8899
定	-11.8905
cylinder	-11.8906
▁prescription	-11.891
入	-11.8911
▁vermont	-11.8915
▁sliding	-11.8916
▁territorial	-11.8918
nato	-11.8919
▁peach	-11.8921
philosoph	-11.8924
▁miserable	-11.893
▁certainty	-11.8933
ры	-11.8942
▁yeast	-11.8942
▁functionality	-11.8943
▁hick	-11.8947
crossref	-11.8948
▁debris	-11.8948
▁brandon	-11.8949
õ	-11.8951
▁continually	-11.8951
▁thrive	-11.8953
euse	-11.8956
▁plantation	-11.8961
▁lounge	-11.8962
ком	-11.8964
▁reasonably	-11.8965
▁kilometers	-11.8966
▁diesel	-11.8967
▁innings	-11.8967
▁meyer	-11.8968
▁caucus	-11.8969
▁hopeful	-11.897
garde	-11.897
▁sufficiently	-11.897
▁litter	-11.8971
▁orphan	-11.8974
sufficient	-11.8974
▁boulevard	-11.8975
▁abolish	-11.8975
plica	-11.8977
krishna	-11.8979
▁roasted	-11.898
▁rug	-11.898
giving	-11.8981
haired	-11.8984
▁calculate	-11.8986
nih	-11.8988
▁blair	-11.899
kä	-11.8991
▁ripe	-11.8992
efficient	-11.8995
▁filmmaker	-11.8996
▁supermarket	-11.8998
synchro	-11.9
gone	-11.9
▁frei	-11.9001
baum	-11.9002
particip	-11.9002
▁unwilling	-11.9003
▁kidney	-11.9003
▁trois	-11.9004
▁taliban	-11.9006
▁huff	-11.9007
▁scary	-11.9007
▁blossom	-11.9009
mbra	-11.901
controlled	-11.9012
▁gandhi	-11.9012
▁qualifying	-11.9015
hul	-11.9019
▁sensible	-11.9021
▁lebanon	-11.9021
▁edgar	-11.9022
▁verge	-11.9023
arbeit	-11.9026
▁drought	-11.9027
horse	-11.9031
▁factories	-11.9033
hör	-11.9033
хо	-11.9041
▁luna	-11.9042
▁glacier	-11.9046
▁commute	-11.9048
▁preservation	-11.9049
▁boulder	-11.9049
▁troy	-11.905
▁reef	-11.9051
▁tolerance	-11.9052
бу	-11.9055
▁mandatory	-11.9061
▁queue	-11.9065
ő	-11.9073
▁stunned	-11.9073
▁navigate	-11.9073
▁examining	-11.9073
▁probable	-11.9076
न	-11.9079
▁aggression	-11.9079
▁derivative	-11.9079
▁wandering	-11.9079
▁sailed	-11.908
▁traders	-11.9081
▁welt	-11.9082
▁announcing	-11.9085
▁bruise	-11.9086
▁mundo	-11.9087
▁urging	-11.9087
▁pedestrian	-11.9088
▁steer	-11.909
ligen	-11.9092
▁marketplace	-11.9094
▁varying	-11.9094
♦	-11.9095
▁comparable	-11.9095
▁cath	-11.9095
▁bristol	-11.9098
wah	-11.9098
ř	-11.9101
series	-11.9101
▁rendering	-11.9102
▁genuinely	-11.9103
▁shrimp	-11.9105
▁prosperity	-11.911
▁eventual	-11.9114
▁predominant	-11.9119
▁där	-11.912
▁logan	-11.9124
▁как	-11.9126
▁organised	-11.9127
▁marque	-11.913
▁modify	-11.913
▁sprawl	-11.9131
▁palmer	-11.9134
▁loft	-11.9135
cloth	-11.9136
▁deliberate	-11.9137
▁cincinnati	-11.9138
▁dolphin	-11.9138
▁armstrong	-11.9139
income	-11.9144
▁molly	-11.9145
動	-11.9146
▁epa	-11.9148
▁glenn	-11.9152
▁recognised	-11.9154
▁coral	-11.9154
ggling	-11.9157
▁impatient	-11.9159
▁shattered	-11.9162
▁sodium	-11.9163
▁recommendation	-11.9169
▁effectiveness	-11.9171
▁altitude	-11.9172
▁terri	-11.9173
▁violet	-11.9175
▁perceive	-11.918
▁ditch	-11.9182
▁informal	-11.9183
▁determining	-11.9184
protect	-11.9184
▁breeding	-11.919
▁tangle	-11.9195
▁playstation	-11.9196
している	-11.9196
▁instructor	-11.9197
▁hopkins	-11.9197
▁earnest	-11.92
▁liquor	-11.9203
▁evolutionary	-11.9207
▁cooperative	-11.9208
▁feat	-11.921
▁rover	-11.9212
▁gorgeous	-11.9212
▁arguably	-11.9215
élé	-11.9217
▁categori	-11.9221
▁facial	-11.9222
ση	-11.9224
▁cork	-11.9224
▁archbishop	-11.9225
▁dinosaur	-11.9225
mol	-11.9225
pole	-11.9227
▁gibb	-11.9228
ह	-11.9234
vá	-11.9239
▁hacer	-11.9239
▁crap	-11.9239
▁supper	-11.9243
mobile	-11.9248
pick	-11.9249
▁epidemic	-11.9253
▁spectator	-11.9256
▁relay	-11.9259
▁bribe	-11.9263
▁divert	-11.9265
▁fracture	-11.9268
▁neighbourhood	-11.9272
▁donors	-11.9276
rrh	-11.9277
▁champagne	-11.9278
▁distraction	-11.9278
пи	-11.9279
▁amber	-11.928
▁eisenhower	-11.9281
▁generator	-11.9284
▁anime	-11.9288
▁lyric	-11.929
▁efter	-11.9291
▁hierarchy	-11.9293
▁sympathetic	-11.9293
▁confined	-11.9295
▁daylight	-11.9296
▁constituent	-11.9297
▁harmful	-11.9298
▁suburban	-11.93
▁shri	-11.9306
▁solemn	-11.9306
ök	-11.9312
▁brewing	-11.9312
▁detained	-11.9313
▁inferior	-11.9322
pv	-11.9322
politi	-11.9324
▁nsa	-11.9326
▁arbitra	-11.9327
▁justification	-11.9327
▁appetite	-11.9334
▁archaeological	-11.9334
▁chez	-11.9336
▁ornament	-11.9338
前	-11.934
など	-11.9341
▁potent	-11.9342
▁zwei	-11.9343
▁devotion	-11.9347
maid	-11.9347
その	-11.9347
▁gameplay	-11.9348
!!!	-11.9351
▁gown	-11.9352
▁hostage	-11.9354
ugu	-11.9355
▁topped	-11.9356
▁discern	-11.9359
▁gossip	-11.9359
▁mustard	-11.9361
κα	-11.9364
speaking	-11.9364
▁divin	-11.9371
▁aggregate	-11.9372
▁reset	-11.9373
▁exclaimed	-11.9375
▁apprentice	-11.9378
▁montana	-11.9381
efici	-11.9382
▁victories	-11.9382
▁accordance	-11.9384
▁appoint	-11.9387
▁correlation	-11.9391
▁spouse	-11.9393
▁flynn	-11.9406
▁ethan	-11.9409
video	-11.9411
▁confidential	-11.9413
hack	-11.9415
£	-11.9415
▁evidently	-11.9416
▁advocacy	-11.942
▁optimistic	-11.9423
selling	-11.9424
▁expire	-11.9424
▁resumed	-11.9426
▁viable	-11.9427
▁tailor	-11.9428
▁willingness	-11.9434
▁novelist	-11.9435
地	-11.9436
▁pagan	-11.9439
early	-11.9442
▁occurring	-11.9444
▁aristotle	-11.9445
rito	-11.9447
▁kernel	-11.9448
▁delegation	-11.9448
▁kindness	-11.9451
▁manufactured	-11.9451
▁ethereum	-11.9451
▁converge	-11.9452
▁toujours	-11.9458
▁tumble	-11.9458
本	-11.9464
▁travail	-11.9465
dependent	-11.9466
▁cookie	-11.9467
▁bulb	-11.947
ют	-11.9471
▁summoned	-11.9474
▁ponder	-11.9474
▁skeleton	-11.9483
▁lynn	-11.9485
reuters	-11.9487
▁bonne	-11.9489
▁slack	-11.949
▁wad	-11.9494
▁gravel	-11.9495
▁dubbed	-11.9497
▁offset	-11.9499
▁precedent	-11.9499
手	-11.9499
▁selv	-11.95
country	-11.9506
hong	-11.951
laud	-11.9511
▁computation	-11.9512
▁vigorous	-11.9512
▁moist	-11.9515
▁tamil	-11.9519
▁privat	-11.9519
ometer	-11.952
▁beetle	-11.9524
ović	-11.9525
▁nonsense	-11.9532
▁problematic	-11.9532
▁bjp	-11.9534
▁enrich	-11.9535
▁backpack	-11.9537
▁ambulance	-11.9538
toxic	-11.9541
flor	-11.9541
▁mormon	-11.9545
lipp	-11.955
▁intermediate	-11.9551
▁buddy	-11.9552
▁ripple	-11.9555
▁bloc	-11.9558
▁manufacture	-11.9559
sanct	-11.9561
▁adolescent	-11.9564
▁wade	-11.9566
voice	-11.9567
▁spokeswoman	-11.9567
took	-11.957
▁complication	-11.957
▁jeffrey	-11.957
▁expectation	-11.9574
▁captive	-11.9574
пу	-11.9577
▁aloud	-11.9577
essen	-11.9581
venir	-11.9583
▁greeting	-11.9585
▁violated	-11.9585
▁goodbye	-11.9587
▁pyr	-11.9591
▁excellence	-11.9593
beck	-11.9594
▁unpleasant	-11.9596
▁rogue	-11.9597
▁verify	-11.9597
пе	-11.9598
▁coarse	-11.9599
▁parsley	-11.96
▁stubborn	-11.9602
▁bracket	-11.9602
▁guru	-11.9607
▁skillet	-11.9607
▁över	-11.961
▁fragile	-11.9612
death	-11.9613
sheet	-11.9616
ù	-11.9617
birth	-11.9618
▁covenant	-11.9619
▁slogan	-11.962
▁poco	-11.9626
▁nepal	-11.9626
▁somali	-11.9628
lapse	-11.963
▁holocaust	-11.9635
▁obliged	-11.9635
ança	-11.9636
▁scarcely	-11.9645
▁evangelical	-11.9645
pathetic	-11.9646
パ	-11.9647
guil	-11.9649
▁injection	-11.9651
œ	-11.9654
▁apology	-11.9656
ῶ	-11.9658
draw	-11.9662
▁silva	-11.9662
▁generating	-11.9663
▁merger	-11.9666
▁poder	-11.9666
▁salon	-11.9668
▁cecil	-11.9676
▁depuis	-11.9677
▁ferguson	-11.968
▁hank	-11.9683
新	-11.9683
villa	-11.9685
▁barber	-11.969
▁symphony	-11.969
▁hiking	-11.9691
▁posture	-11.9692
ovsky	-11.9693
driven	-11.9695
▁reopen	-11.9696
▁decoration	-11.9698
▁mobility	-11.97
▁maggie	-11.9702
▁uncovered	-11.9703
uelle	-11.9711
▁glasgow	-11.9713
▁overwhelmed	-11.9714
▁velvet	-11.9715
▁foil	-11.9717
られ	-11.9718
▁accidentally	-11.9719
▁alphabet	-11.972
ги	-11.9721
▁articulate	-11.9722
▁shiny	-11.9724
ба	-11.9729
▁waving	-11.9729
▁ashamed	-11.9732
▁inventory	-11.9736
ē	-11.9736
zak	-11.9738
▁cries	-11.9738
▁convenience	-11.9739
▁bailey	-11.9744
evolution	-11.9746
▁sensitivity	-11.9749
▁steering	-11.975
▁######	-11.975
esteem	-11.9751
▁molecular	-11.9753
▁vietnamese	-11.9754
▁assurance	-11.9759
▁futur	-11.976
▁quinn	-11.976
▁chili	-11.9765
▁economies	-11.9765
▁schwe	-11.9766
▁machinery	-11.9768
ב	-11.9775
▁circus	-11.9777
▁gris	-11.9781
fang	-11.9791
▁injustice	-11.9792
▁miners	-11.9793
πε	-11.9794
▁glitter	-11.9794
▁cancelled	-11.9795
▁enabling	-11.9799
▁telescope	-11.9799
ット	-11.9801
natal	-11.9803
▁curriculum	-11.9805
▁tease	-11.9806
▁drake	-11.9806
▁emil	-11.981
▁identities	-11.9815
▁cala	-11.9815
▁telegram	-11.9817
ὸ	-11.9818
▁fade	-11.982
▁tanto	-11.982
wife	-11.9823
effective	-11.9824
▁binary	-11.9825
▁sunshine	-11.9825
▁garner	-11.9825
▁jung	-11.9825
business	-11.9827
▁diving	-11.9834
▁misery	-11.9836
▁diagnosed	-11.9838
▁torre	-11.9841
▁munich	-11.9843
▁fringe	-11.9848
▁cunning	-11.9848
▁chick	-11.9851
▁sido	-11.9852
▁eigen	-11.9853
▁dissent	-11.9855
▁omar	-11.9858
▁buff	-11.9859
▁geographical	-11.986
▁exploitation	-11.9861
▁advancing	-11.9861
build	-11.9864
▁sedan	-11.9865
ת	-11.9868
▁gambling	-11.9868
▁quando	-11.987
▁patricia	-11.987
▁tiempo	-11.9871
▁zoom	-11.9874
record	-11.9876
▁strait	-11.9878
▁judiciary	-11.9878
▁opp	-11.9883
▁manifestation	-11.9884
▁———.	-11.9885
▁swiftly	-11.9887
izar	-11.989
ं	-11.9891
▁petty	-11.9892
resistant	-11.9893
strom	-11.9894
▁disturbed	-11.9896
hiro	-11.9896
▁damaging	-11.9899
▁violate	-11.99
leader	-11.9901
ateur	-11.9901
開	-11.9911
▁relied	-11.9912
▁seize	-11.9914
▁shelves	-11.9915
▁tampa	-11.9919
attack	-11.9924
▁acclaim	-11.9925
▁imagery	-11.9926
▁favorable	-11.9928
▁stefan	-11.993
▁realization	-11.9931
▁ethiopia	-11.9938
▁likelihood	-11.9938
σε	-11.9938
▁brett	-11.9939
given	-11.9941
▁tramp	-11.9943
▁heather	-11.9946
▁valor	-11.995
би	-11.9953
klar	-11.9954
[...]
