<pad>	0
<unk>	0
</s>	0
,	-3.20019
▁the	-3.25594
.	-3.28093
s	-3.88613
▁	-3.92459
▁of	-4.01223
▁and	-4.03934
▁to	-4.066
▁a	-4.11872
▁in	-4.31225
1	-4.63787
'	-4.66812
0	-4.82363
-	-4.94132
▁that	-4.96855
2	-5.05068
▁is	-5.15307
▁for	-5.15448
▁was	-5.16676
▁it	-5.16967
▁i	-5.27342
▁"	-5.28648
▁on	-5.30713
▁he	-5.31636
▁with	-5.37113
9	-5.42
▁as	-5.45874
t	-5.47949
▁(	-5.53956
▁you	-5.62325
▁his	-5.66963
3	-5.71401
▁at	-5.71788
▁be	-5.72073
:	-5.72728
5	-5.76735
▁by	-5.80824
’	-5.81943
4	-5.83113
▁from	-5.83258
▁this	-5.86677
8	-5.86707
)	-5.88045
▁but	-5.9533
6	-5.9581
▁are	-5.98983
7	-5.99838
▁not	-6.00631
▁had	-6.00782
▁have	-6.02056
▁an	-6.03234
▁her	-6.05123
▁she	-6.0951
▁they	-6.098
▁or	-6.10098
d	-6.12556
▁we	-6.17708
i	-6.18622
_	-6.27621
▁one	-6.30381
."	-6.31031
▁were	-6.33681
▁all	-6.3681
▁_	-6.37341
a	-6.3847
e	-6.41122
▁said	-6.41296
▁their	-6.41375
ed	-6.4308
ing	-6.43342
▁de	-6.4619
▁has	-6.47152
▁can	-6.49795
▁so	-6.52271
▁who	-6.5434
;	-6.55244
▁my	-6.55478
▁out	-6.55575
▁more	-6.56052
▁which	-6.56276
▁there	-6.57421
▁up	-6.58533
▁when	-6.59117
▁if	-6.59424
▁would	-6.60061
▁about	-6.60756
▁will	-6.60817
▁“	-6.62317
▁me	-6.63613
▁been	-6.64878
▁no	-6.65715
▁what	-6.67148
m	-6.69386
▁him	-6.69855
?	-6.72961
▁your	-6.75837
▁do	-6.76327
"	-6.76444
▁into	-6.78159
re	-6.78491
▁like	-6.81426
▁time	-6.82407
,"	-6.84142
▁new	-6.87542
▁them	-6.87737
▁also	-6.8909
▁other	-6.92187
/	-6.94381
▁over	-6.94992
er	-6.96223
—	-6.96723
▁'	-6.97345
▁first	-6.97907
▁some	-6.98097
▁after	-6.9997
▁–	-7.00809
▁than	-7.02045
ly	-7.02346
y	-7.02696
▁could	-7.03389
▁just	-7.0369
▁its	-7.04037
▁two	-7.05701
▁people	-7.06412
▁then	-7.07015
n	-7.09472
▁only	-7.09651
o	-7.15088
the	-7.15265
▁our	-7.15462
▁la	-7.15561
▁back	-7.16733
▁now	-7.18907
–	-7.2107
▁how	-7.23239
in	-7.25632
▁even	-7.29864
r	-7.311
▁most	-7.3142
▁these	-7.31745
▁us	-7.31855
▁get	-7.33684
▁see	-7.35568
▁|	-7.35875
?"	-7.3633
),	-7.36391
▁way	-7.37529
▁where	-7.37722
▁any	-7.37936
▁before	-7.40766
▁may	-7.41042
es	-7.41148
en	-7.41709
▁down	-7.4174
▁know	-7.42094
▁through	-7.43322
▁because	-7.43782
).	-7.43953
ve	-7.44964
▁well	-7.45522
▁man	-7.47706
▁did	-7.48141
▁many	-7.48952
c	-7.49397
▁make	-7.49411
▁years	-7.49657
▁**	-7.49663
▁don	-7.50109
▁world	-7.50389
▁made	-7.50903
▁while	-7.5284
▁go	-7.53828
▁un	-7.54616
ll	-7.55416
▁here	-7.56135
▁being	-7.57313
▁much	-7.5734
▁such	-7.57605
!	-7.5901
▁—	-7.59883
▁very	-7.59889
▁work	-7.59995
”	-7.60409
it	-7.6044
▁those	-7.61349
▁still	-7.62355
▁good	-7.65732
▁right	-7.65795
▁off	-7.68141
▁own	-7.68642
▁between	-7.68774
▁en	-7.68775
▁long	-7.69032
▁life	-7.70271
▁day	-7.70544
▁around	-7.7076
▁think	-7.71935
▁last	-7.71946
▁year	-7.72461
**	-7.73029
▁should	-7.73873
▁three	-7.73954
▁take	-7.74428
▁state	-7.76649
th	-7.76723
▁under	-7.77808
▁against	-7.78284
▁use	-7.78366
▁going	-7.78733
▁both	-7.79502
g	-7.79969
▁l	-7.80543
▁same	-7.81034
▁too	-7.82326
▁want	-7.8242
▁another	-7.82936
▁part	-7.8295
.”	-7.83016
al	-7.83316
▁que	-7.83982
▁during	-7.84163
▁d	-7.84186
to	-7.8529
▁e	-7.86442
b	-7.87672
▁never	-7.87833
and	-7.8788
▁come	-7.89009
▁each	-7.8911
▁little	-7.89398
▁say	-7.90279
▁used	-7.90536
k	-7.90656
▁place	-7.9113
▁$	-7.92865
▁le	-7.93086
▁need	-7.93505
▁didn	-7.94262
▁men	-7.95657
▁again	-7.95681
▁since	-7.95715
▁something	-7.96016
▁p	-7.9635
▁re	-7.96486
,”	-7.97215
▁-	-7.98345
▁house	-7.98758
▁home	-7.99167
▁city	-7.99222
an	-7.99397
▁war	-8.00114
▁end	-8.00376
▁might	-8.0089
man	-8.01154
on	-8.01596
▁found	-8.01705
]	-8.01713
▁high	-8.01936
or	-8.02285
▁c	-8.02475
▁every	-8.02844
▁left	-8.03036
no	-8.04154
▁until	-8.04437
▁great	-8.04569
▁head	-8.04669
▁few	-8.05147
▁away	-8.05149
▁told	-8.05609
▁[	-8.05726
▁o	-8.06109
l	-8.06341
...	-8.06681
▁best	-8.07481
▁without	-8.07597
we	-8.07679
▁u	-8.0783
▁got	-8.07865
%	-8.0836
▁later	-8.09121
p	-8.09191
▁came	-8.10218
▁second	-8.1071
▁next	-8.10885
▁government	-8.10917
▁school	-8.11155
▁look	-8.11264
▁set	-8.11578
f	-8.11614
u	-8.11997
▁thought	-8.12347
▁must	-8.15025
you	-8.1504
▁team	-8.15044
▁old	-8.1515
▁find	-8.15273
▁things	-8.15948
▁however	-8.16239
▁called	-8.1629
▁took	-8.16337
▁put	-8.16794
▁really	-8.17298
▁hand	-8.17438
▁*	-8.17758
▁far	-8.17772
▁game	-8.17782
▁el	-8.1816
▁american	-8.1899
▁water	-8.19211
▁why	-8.19415
▁though	-8.19812
▁let	-8.20335
ers	-8.20369
▁b	-8.20496
▁y	-8.20551
▁once	-8.20788
▁se	-8.21225
▁family	-8.21679
▁help	-8.22147
▁et	-8.22288
▁public	-8.22352
▁national	-8.22373
▁per	-8.22436
▁white	-8.22738
x	-8.23519
▁went	-8.23775
▁says	-8.24028
▁group	-8.24129
▁always	-8.24542
▁president	-8.24577
▁al	-8.24716
▁small	-8.24716
▁name	-8.24835
▁number	-8.24885
▁side	-8.2517
▁different	-8.25354
▁face	-8.26205
h	-8.2687
us	-8.27221
▁women	-8.27579
▁four	-8.2793
▁asked	-8.27987
▁point	-8.28098
z	-8.28234
▁does	-8.28428
▁black	-8.29185
▁states	-8.2921
▁power	-8.31074
▁night	-8.31271
▁system	-8.31516
com	-8.31625
▁better	-8.33153
he	-8.33208
▁show	-8.33378
▁university	-8.33705
▁am	-8.34094
le	-8.34692
▁top	-8.35231
is	-8.35937
▁trump	-8.36066
▁enough	-8.3631
▁including	-8.36605
▁company	-8.36819
▁case	-8.36994
▁thing	-8.37673
▁early	-8.3768
▁open	-8.37851
▁eyes	-8.38256
▁united	-8.38383
as	-8.39012
▁love	-8.39311
te	-8.40916
▁country	-8.4096
▁&	-8.41015
▁ever	-8.41351
▁book	-8.41356
▁big	-8.41472
ar	-8.4154
▁himself	-8.42088
▁g	-8.42159
▁york	-8.42391
▁room	-8.42463
▁yet	-8.42508
de	-8.42509
▁history	-8.42616
▁times	-8.42764
▁car	-8.43152
▁days	-8.43685
▁looked	-8.43838
▁||	-8.43843
▁season	-8.44025
▁m	-8.4438
▁known	-8.44668
▁j	-8.45004
▁children	-8.45085
▁using	-8.45207
▁often	-8.4571
▁already	-8.45961
▁general	-8.46329
▁several	-8.46351
▁order	-8.47301
▁give	-8.47327
▁along	-8.47544
▁play	-8.4762
▁air	-8.47709
▁n	-8.48399
▁young	-8.48408
▁south	-8.48438
▁line	-8.48556
▁john	-8.48571
▁lot	-8.48869
▁keep	-8.48922
▁change	-8.49205
▁human	-8.49281
▁large	-8.49361
▁con	-8.49583
▁nothing	-8.49795
▁won	-8.504
▁north	-8.50505
▁across	-8.50845
▁course	-8.51144
▁free	-8.51481
na	-8.51488
▁tell	-8.51649
▁within	-8.52006
▁less	-8.5205
▁information	-8.52061
▁become	-8.5235
▁saw	-8.52373
▁having	-8.52397
▁according	-8.52439
▁father	-8.52446
▁real	-8.52455
▁full	-8.52588
▁party	-8.52682
▁police	-8.52873
▁support	-8.52966
▁body	-8.53007
▁together	-8.53194
▁hard	-8.53256
▁god	-8.53425
▁seen	-8.53472
▁least	-8.53659
▁red	-8.53731
▁die	-8.53846
▁making	-8.54184
▁social	-8.542
▁following	-8.54439
▁knew	-8.54449
▁fact	-8.54736
▁five	-8.54767
▁important	-8.55279
do	-8.55588
able	-8.55701
(	-8.55921
▁light	-8.56005
▁des	-8.5615
▁sure	-8.56401
▁behind	-8.56545
▁story	-8.56551
▁law	-8.5663
▁call	-8.56673
▁money	-8.5677
▁feel	-8.57052
▁began	-8.57142
▁run	-8.5765
▁di	-8.57691
▁became	-8.57829
▁almost	-8.57913
▁mind	-8.57984
▁death	-8.5809
▁given	-8.58151
v	-8.5838
▁week	-8.58473
▁half	-8.58654
▁data	-8.58774
▁past	-8.58797
▁du	-8.58849
▁son	-8.58869
▁among	-8.58969
▁mother	-8.59448
▁business	-8.59599
▁wanted	-8.59715
▁woman	-8.59734
▁st	-8.59776
▁done	-8.60083
▁f	-8.60121
▁co	-8.60617
▁kind	-8.60738
▁political	-8.61827
ness	-8.61883
▁able	-8.61968
▁front	-8.62231
la	-8.62654
j	-8.62754
▁film	-8.63319
▁local	-8.63371
▁les	-8.63623
▁felt	-8.63749
▁turned	-8.63891
▁anything	-8.63955
▁à	-8.64112
w	-8.64302
▁area	-8.64579
▁news	-8.64597
▁v	-8.64628
▁non	-8.65053
▁others	-8.65094
▁person	-8.65259
▁million	-8.65504
▁working	-8.65582
▁today	-8.65675
▁court	-8.65935
!"	-8.66379
▁k	-8.66405
▁mr	-8.66816
▁#	-8.6693
▁example	-8.67183
▁w	-8.68414
what	-8.68833
▁door	-8.69122
▁read	-8.69322
▁service	-8.69544
▁form	-8.69635
▁live	-8.69819
▁former	-8.6987
am	-8.70134
▁doing	-8.70252
▁looking	-8.70271
▁start	-8.70513
▁series	-8.70682
▁post	-8.7097
▁moment	-8.71145
▁started	-8.71291
▁rather	-8.71301
so	-8.71404
▁wasn	-8.71623
▁press	-8.7175
▁office	-8.71759
▁west	-8.71818
▁close	-8.72682
▁music	-8.72736
if	-8.73559
▁control	-8.7383
▁held	-8.73905
▁possible	-8.7405
▁short	-8.74276
ch	-8.74785
ne	-8.74914
▁food	-8.74956
▁whether	-8.75315
ta	-8.75469
ra	-8.75496
▁r	-8.75613
ia	-8.75763
un	-8.75953
co	-8.76175
▁single	-8.76351
▁add	-8.76475
▁major	-8.76912
ation	-8.76931
ma	-8.77018
il	-8.77257
▁idea	-8.77285
▁minutes	-8.77399
▁international	-8.77469
▁taken	-8.77493
▁health	-8.77583
▁street	-8.77686
▁everything	-8.77944
▁someone	-8.77945
▁although	-8.78074
but	-8.78242
▁process	-8.78258
▁whole	-8.78274
▁da	-8.78502
▁fire	-8.78646
el	-8.78821
▁media	-8.79097
▁doesn	-8.79138
▁der	-8.79272
▁words	-8.79883
▁care	-8.80365
da	-8.80906
▁believe	-8.8101
▁hands	-8.81025
ism	-8.81077
ton	-8.81184
▁t	-8.81397
▁percent	-8.81507
▁pre	-8.81507
▁los	-8.81567
▁community	-8.81628
▁turn	-8.81657
▁land	-8.81793
▁research	-8.81839
▁main	-8.81851
os	-8.82071
▁march	-8.82287
▁h	-8.8273
▁age	-8.82772
▁king	-8.82843
▁instead	-8.82938
▁six	-8.83
▁future	-8.83061
▁members	-8.83125
▁means	-8.83148
▁art	-8.83246
▁near	-8.83307
▁town	-8.83328
ie	-8.83527
at	-8.83594
up	-8.83622
that	-8.83778
▁space	-8.84109
▁question	-8.84118
▁gave	-8.84395
▁either	-8.84447
▁trying	-8.84875
▁‘	-8.84997
ic	-8.8519
é	-8.85321
▁report	-8.85336
▁act	-8.85497
▁getting	-8.85577
▁voice	-8.85627
の	-8.85836
▁building	-8.85844
▁actually	-8.85923
▁move	-8.86074
▁low	-8.86098
▁months	-8.86474
▁self	-8.86617
▁road	-8.86638
▁late	-8.86792
ist	-8.87108
▁center	-8.87393
▁sense	-8.8779
▁third	-8.88027
=	-8.88323
▁based	-8.88405
ity	-8.88647
▁upon	-8.88695
▁soon	-8.88762
▁final	-8.88766
▁clear	-8.8882
、	-8.88938
▁list	-8.88984
▁heart	-8.8901
▁project	-8.8906
est	-8.89189
▁level	-8.89206
▁lost	-8.89262
▁problem	-8.8937
▁del	-8.89432
year	-8.89653
▁experience	-8.89702
▁inside	-8.89761
▁outside	-8.89828
▁market	-8.89883
▁il	-8.90265
▁plan	-8.90338
▁above	-8.90676
me	-8.90684
▁mean	-8.90697
▁taking	-8.90722
▁heard	-8.90851
▁matter	-8.91027
▁ground	-8.91264
▁true	-8.91697
▁further	-8.92015
▁else	-8.92151
▁word	-8.92158
▁seemed	-8.92326
▁su	-8.92438
▁rest	-8.92475
▁try	-8.92481
▁coming	-8.9249
▁bad	-8.93034
▁class	-8.9316
▁leave	-8.9364
▁hours	-8.93754
▁itself	-8.93773
▁child	-8.93812
▁=	-8.93995
▁cup	-8.9423
▁job	-8.9425
▁development	-8.94299
▁force	-8.94303
▁america	-8.94319
▁bit	-8.94543
▁sea	-8.94603
▁games	-8.94948
be	-8.95033
▁return	-8.9541
ment	-8.95469
go	-8.95552
▁security	-8.96149
▁church	-8.96216
▁reason	-8.96379
▁morning	-8.96379
▁probably	-8.96393
▁due	-8.96505
id	-8.96576
▁british	-8.9663
ten	-8.96726
▁military	-8.96954
▁special	-8.97259
▁stop	-8.97454
▁category	-8.97543
▁makes	-8.9766
▁east	-8.97826
▁talk	-8.97836
▁green	-8.97862
▁si	-8.97908
▁chapter	-8.98148
▁available	-8.98833
▁ten	-8.99299
▁perhaps	-8.99341
▁added	-8.99448
▁table	-8.99512
▁park	-8.99813
▁june	-8.99822
▁toward	-8.99994
▁themselves	-8.99996
▁played	-9.00115
et	-9.00153
▁wrote	-9.00236
▁league	-9.00293
▁x	-9.00351
▁video	-9.00391
▁cut	-9.0041
▁quite	-9.00523
▁position	-9.00653
son	-9.00681
ian	-9.00769
▁view	-9.0086
▁likely	-9.01043
▁dead	-9.01242
▁san	-9.01463
▁field	-9.01467
▁living	-9.01538
st	-9.01613
▁par	-9.01851
▁deal	-9.01883
▁led	-9.01982
▁club	-9.02018
▁campaign	-9.02058
▁dark	-9.02309
▁ne	-9.02474
▁couldn	-9.02536
▁pay	-9.02813
▁saying	-9.03074
▁study	-9.03359
▁program	-9.03454
ry	-9.03665
men	-9.03691
▁london	-9.03899
▁everyone	-9.0394
▁action	-9.03979
ro	-9.04371
▁county	-9.0449
▁role	-9.04566
▁certain	-9.04807
▁sent	-9.04924
▁finally	-9.0495
my	-9.05092
▁friends	-9.05104
▁und	-9.05115
▁july	-9.05163
▁college	-9.05212
▁•	-9.05213
▁sa	-9.0525
▁river	-9.05337
▁department	-9.05477
▁ago	-9.05835
▁anti	-9.05955
▁army	-9.05969
▁april	-9.06073
▁forward	-9.06189
▁english	-9.0652
▁understand	-9.06588
▁comes	-9.06607
by	-9.06622
▁common	-9.06694
▁result	-9.06698
▁pro	-9.06792
▁released	-9.06798
▁brought	-9.07032
▁career	-9.07174
▁wall	-9.07287
▁august	-9.07308
▁needed	-9.07498
▁longer	-9.07684
▁century	-9.0772
▁oil	-9.07812
▁present	-9.07927
。	-9.07986
▁middle	-9.08002
▁french	-9.08165
▁win	-9.0821
ca	-9.08219
ley	-9.08284
?'	-9.08528
▁september	-9.08599
▁students	-9.0877
▁society	-9.08814
ge	-9.08977
▁especially	-9.09056
▁sometimes	-9.0909
▁para	-9.09185
▁tried	-9.09308
▁bar	-9.09606
▁je	-9.09715
▁sound	-9.09886
▁moved	-9.0989
▁simply	-9.09954
▁bring	-9.09963
less	-9.10042
old	-9.1009
▁include	-9.10361
▁sun	-9.10389
▁met	-9.10676
▁image	-9.1073
▁friend	-9.10789
▁bill	-9.10829
▁hit	-9.10941
▁round	-9.11019
▁na	-9.11211
▁october	-9.11332
▁member	-9.11514
land	-9.11562
▁january	-9.11588
ka	-9.11864
▁feet	-9.11951
one	-9.12161
▁sat	-9.12212
ling	-9.12393
▁current	-9.1247
▁total	-9.12547
▁lead	-9.12624
▁key	-9.12921
▁ask	-9.12925
▁dr	-9.13239
▁central	-9.13335
▁district	-9.1336
this	-9.13454
▁record	-9.1346
for	-9.1348
of	-9.13504
▁hear	-9.13534
▁blood	-9.13575
▁wife	-9.13606
▁energy	-9.13638
▁type	-9.13649
▁maybe	-9.14029
▁create	-9.14081
▁running	-9.14106
▁built	-9.14233
▁figure	-9.14321
▁anyone	-9.14921
▁china	-9.14986
▁station	-9.15027
▁personal	-9.15079
▁gone	-9.15136
▁strong	-9.15156
▁girl	-9.15333
ba	-9.15335
▁below	-9.15408
▁worked	-9.15409
▁player	-9.15452
▁november	-9.15599
▁nature	-9.15753
▁received	-9.15855
▁star	-9.15901
se	-9.15901
▁published	-9.15991
▁similar	-9.16464
▁hope	-9.16588
▁value	-9.16659
▁players	-9.1668
▁federal	-9.16735
­	-9.16764
▁earlier	-9.16835
▁died	-9.16881
▁period	-9.16913
▁original	-9.16916
▁whose	-9.17264
▁david	-9.17339
well	-9.17615
▁policy	-9.17652
▁ha	-9.17652
▁services	-9.17712
▁modern	-9.1772
▁attack	-9.17883
▁month	-9.18076
▁isn	-9.18156
ce	-9.18241
▁minister	-9.18266
▁seems	-9.18533
▁deep	-9.18543
▁issue	-9.18645
▁director	-9.189
▁rights	-9.18917
▁hold	-9.19139
▁ma	-9.19186
▁site	-9.19448
▁happened	-9.19521
▁provide	-9.19574
▁test	-9.19587
▁language	-9.19775
▁summer	-9.19806
▁hair	-9.19856
▁private	-9.20051
▁cannot	-9.20095
▁blue	-9.20932
▁brown	-9.20966
▁myself	-9.20967
▁despite	-9.21093
▁december	-9.211
not	-9.21237
▁wrong	-9.21317
▁qui	-9.2144
▁version	-9.21582
den	-9.21647
▁watch	-9.21661
▁lo	-9.2172
▁science	-9.21844
▁boy	-9.21949
ine	-9.22175
▁ver	-9.22199
▁board	-9.22247
um	-9.22286
ter	-9.22373
▁washington	-9.22435
▁population	-9.22902
▁works	-9.23077
▁earth	-9.23112
▁code	-9.2319
▁decision	-9.232
://	-9.23277
▁education	-9.23289
▁access	-9.23313
▁er	-9.23407
▁remember	-9.23413
▁james	-9.2345
_.	-9.23571
▁points	-9.23629
▁recent	-9.23679
▁fall	-9.23691
▁«	-9.23708
▁various	-9.23745
▁quickly	-9.23865
▁evidence	-9.23875
▁interest	-9.23936
▁cost	-9.23956
▁event	-9.24101
▁es	-9.24197
▁step	-9.24206
▁alone	-9.24245
▁band	-9.24702
▁easy	-9.24891
▁model	-9.25043
▁economic	-9.25118
▁german	-9.25144
▁election	-9.25508
▁natural	-9.25823
▁phone	-9.25834
▁continued	-9.25899
▁follow	-9.25996
▁books	-9.2621
▁arm	-9.26361
▁paul	-9.26367
▁sign	-9.26407
der	-9.26418
▁written	-9.26474
▁stay	-9.26497
ir	-9.26559
▁mark	-9.26701
▁hall	-9.26731
▁design	-9.26863
▁continue	-9.26898
▁reported	-9.2708
ion	-9.27183
▁created	-9.27484
time	-9.27858
▁named	-9.28081
▁killed	-9.28191
▁union	-9.28205
▁den	-9.28258
▁source	-9.28278
▁fight	-9.2837
▁simple	-9.28449
▁thinking	-9.2858
▁thus	-9.28686
▁attention	-9.2878
▁battle	-9.2898
gen	-9.29048
▁song	-9.29118
▁production	-9.29231
▁cold	-9.29438
ant	-9.29616
all	-9.29653
▁playing	-9.29808
▁nearly	-9.2981
▁stand	-9.29849
▁opened	-9.29938
▁february	-9.29985
▁george	-9.30006
▁born	-9.30012
ting	-9.30025
▁weeks	-9.30042
▁popular	-9.30053
▁por	-9.30229
▁ran	-9.30468
▁share	-9.3054
▁decided	-9.30608
▁beyond	-9.30645
pa	-9.30724
▁##	-9.30747
▁page	-9.3079
em	-9.30871
▁kept	-9.3097
▁reached	-9.31036
▁followed	-9.31081
▁fine	-9.3118
▁herself	-9.31194
▁particular	-9.3127
see	-9.31293
▁stood	-9.3131
there	-9.3152
▁movement	-9.31692
▁floor	-9.31705
▁pass	-9.31844
▁trade	-9.31866
don	-9.31934
▁paper	-9.31983
▁character	-9.32054
▁meeting	-9.32117
▁council	-9.32286
▁plus	-9.32475
▁island	-9.32663
▁chief	-9.32793
▁check	-9.32865
▁questions	-9.32999
ha	-9.33023
▁wouldn	-9.33258
▁lives	-9.33434
▁european	-9.33453
▁:	-9.3347
▁chance	-9.33483
▁writing	-9.33507
▁una	-9.33612
rs	-9.33681
▁ce	-9.33731
▁release	-9.33757
▁sort	-9.33981
▁companies	-9.33986
led	-9.34034
▁events	-9.34106
▁effect	-9.34126
▁results	-9.34132
ner	-9.3419
▁price	-9.342
ized	-9.34239
ja	-9.34317
▁pretty	-9.34386
▁staff	-9.34412
▁letter	-9.34473
q	-9.3459
▁answer	-9.34656
▁technology	-9.34789
▁race	-9.34797
▁bank	-9.34824
▁seven	-9.34829
▁van	-9.34871
▁shot	-9.34878
▁individual	-9.3507
▁included	-9.35082
▁countries	-9.35346
⁄	-9.35354
lo	-9.35415
▁france	-9.3548
▁higher	-9.35745
▁europe	-9.35822
▁industry	-9.35896
ga	-9.35904
▁foreign	-9.35905
age	-9.35971
▁risk	-9.35974
▁usually	-9.36014
▁issues	-9.3606
▁parents	-9.36181
▁pour	-9.36237
▁terms	-9.36269
▁sub	-9.36324
▁situation	-9.36369
▁base	-9.36452
▁couple	-9.36497
▁football	-9.36522
▁entire	-9.3665
▁brother	-9.3673
▁album	-9.36935
▁hot	-9.36996
oh	-9.37274
▁truth	-9.37318
);	-9.37346
▁needs	-9.37357
▁culture	-9.37425
▁bed	-9.3752
▁note	-9.37674
they	-9.37775
▁learn	-9.37789
▁beginning	-9.378
▁groups	-9.37949
▁est	-9.38024
▁ready	-9.38041
▁rock	-9.38099
▁network	-9.38127
▁difficult	-9.38209
▁india	-9.38252
▁considered	-9.38302
▁shows	-9.38363
▁cover	-9.38393
per	-9.38434
を	-9.38463
ni	-9.38538
▁nor	-9.38568
▁cause	-9.38677
she	-9.38705
▁###	-9.39249
li	-9.39345
ko	-9.39348
▁via	-9.39353
ad	-9.39545
▁legal	-9.39791
▁statement	-9.39797
▁pas	-9.39928
▁involved	-9.39994
▁western	-9.40094
▁global	-9.40158
▁--	-9.4019
▁village	-9.40229
▁seem	-9.40257
▁gold	-9.40311
▁sir	-9.40394
▁england	-9.40403
▁lower	-9.40436
▁eye	-9.40603
▁official	-9.40613
▁size	-9.40745
▁response	-9.409
▁medical	-9.40931
▁meet	-9.41084
ke	-9.41098
▁forces	-9.4115
▁account	-9.41291
▁em	-9.41368
▁training	-9.41393
▁super	-9.41435
▁allow	-9.41449
▁appeared	-9.41449
je	-9.41492
▁content	-9.415
▁passed	-9.41541
▁spent	-9.41565
▁performance	-9.4157
▁online	-9.4159
▁mar	-9.41626
▁announced	-9.41665
▁heat	-9.41715
▁problems	-9.41739
▁returned	-9.41811
▁term	-9.41835
out	-9.41885
▁feeling	-9.41913
▁ways	-9.42019
▁leader	-9.42037
▁lord	-9.42061
nd	-9.42385
▁talking	-9.42426
▁yes	-9.42559
▁served	-9.42767
▁dans	-9.42887
▁expected	-9.42924
ler	-9.43044
▁practice	-9.43087
va	-9.43116
▁region	-9.43151
ty	-9.43181
▁michael	-9.43329
▁stage	-9.43453
mo	-9.43473
▁build	-9.43501
▁tax	-9.43781
▁described	-9.43783
▁qu	-9.43981
▁california	-9.44018
ur	-9.44028
▁style	-9.44068
▁justice	-9.44184
▁changes	-9.442
ted	-9.44668
▁twenty	-9.44699
▁gun	-9.44899
▁mid	-9.44975
▁cross	-9.45181
▁range	-9.4537
▁arms	-9.45446
▁ge	-9.45578
▁vi	-9.45578
▁eight	-9.45828
▁/	-9.4585
▁fear	-9.45946
▁pain	-9.4609
▁throughout	-9.46167
に	-9.46244
▁reading	-9.46332
▁offer	-9.4643
▁fast	-9.4663
▁financial	-9.46659
▁map	-9.46874
di	-9.46889
▁mouth	-9.46937
▁visit	-9.47007
▁che	-9.47098
▁complete	-9.47185
▁author	-9.47206
▁average	-9.47269
▁capital	-9.47345
▁committee	-9.4737
yes	-9.47492
▁break	-9.47493
▁te	-9.47535
▁z	-9.47588
how	-9.47639
".	-9.47679
▁...	-9.47699
▁allowed	-9.47739
▁goes	-9.47748
▁ca	-9.47827
▁immediately	-9.47878
▁ja	-9.47983
▁subject	-9.4811
▁app	-9.48347
born	-9.48425
▁rate	-9.48478
▁au	-9.48501
▁areas	-9.48595
▁stone	-9.48634
▁potential	-9.48661
ul	-9.48668
▁walk	-9.48863
▁text	-9.48882
line	-9.48919
▁tv	-9.48932
▁changed	-9.48971
▁daughter	-9.48983
▁chinese	-9.49116
▁>	-9.49138
▁takes	-9.49219
▁closed	-9.49341
▁william	-9.49398
▁cases	-9.49434
▁relationship	-9.49453
like	-9.49469
ies	-9.49597
▁dis	-9.49673
▁addition	-9.49855
con	-9.49859
が	-9.49886
▁section	-9.50152
▁grand	-9.50177
io	-9.50178
▁article	-9.50189
▁towards	-9.5023
▁administration	-9.50256
▁daily	-9.50489
▁previous	-9.50514
▁robert	-9.50794
ous	-9.50999
▁happy	-9.51017
▁radio	-9.51084
ya	-9.51149
▁russian	-9.51172
▁recently	-9.51179
▁whom	-9.51256
▁officials	-9.51358
▁title	-9.51428
▁stories	-9.51491
▁features	-9.51569
▁division	-9.51613
▁species	-9.51678
▁speak	-9.51758
▁yourself	-9.51796
▁moving	-9.51808
im	-9.51822
▁nation	-9.51934
):	-9.51938
:**	-9.52033
are	-9.52096
▁rose	-9.52225
▁window	-9.52236
",	-9.52318
▁officer	-9.52345
▁wide	-9.52392
ate	-9.52422
▁hour	-9.52487
▁track	-9.52492
bo	-9.52542
▁workers	-9.5279
▁sex	-9.52811
▁fell	-9.52919
▁las	-9.52954
▁amount	-9.52976
▁function	-9.53052
▁meant	-9.53064
▁tu	-9.53221
▁success	-9.53303
▁knowledge	-9.53383
▁consider	-9.53393
▁store	-9.53555
▁approach	-9.53561
▁buy	-9.53647
ci	-9.53699
ish	-9.53735
▁increase	-9.54023
▁une	-9.54084
ti	-9.54168
▁congress	-9.54241
▁guy	-9.54443
`	-9.54498
▁canada	-9.5454
ger	-9.54569
▁mass	-9.54595
▁box	-9.54661
▁sur	-9.54679
▁eventually	-9.54717
▁husband	-9.54783
▁focus	-9.54788
▁drive	-9.54931
▁miles	-9.54963
▁whatever	-9.5498
▁google	-9.55
▁standing	-9.55068
can	-9.55076
▁har	-9.55199
▁leading	-9.55212
▁poor	-9.55215
>	-9.55268
▁giving	-9.55385
▁pick	-9.55443
▁peter	-9.55512
▁hospital	-9.5554
based	-9.55666
▁particularly	-9.55868
▁vote	-9.55888
▁ball	-9.55964
▁ice	-9.55967
▁ship	-9.56041
day	-9.56274
▁ex	-9.56418
▁onto	-9.5648
▁piece	-9.56596
▁specific	-9.56605
▁please	-9.56697
▁completely	-9.5673
▁required	-9.56733
▁pan	-9.56839
ri	-9.56892
▁date	-9.56916
▁<	-9.56995
▁exactly	-9.57239
▁choice	-9.57269
▁located	-9.57285
▁material	-9.57316
▁russia	-9.57327
▁write	-9.57449
▁therefore	-9.57632
▁match	-9.57768
▁worth	-9.57781
▁reach	-9.57803
▁happen	-9.57838
▁defense	-9.57905
▁ii	-9.58098
は	-9.58216
▁cast	-9.583
▁color	-9.58327
▁civil	-9.58338
▁goal	-9.58416
▁currently	-9.58514
▁certainly	-9.58517
let	-9.58578
▁studies	-9.58631
▁wind	-9.58635
▁leaving	-9.58681
▁stopped	-9.5874
▁camp	-9.59081
▁association	-9.591
▁ability	-9.59351
ó	-9.59432
▁review	-9.59445
▁shall	-9.59453
▁scene	-9.59552
▁walked	-9.59641
▁raised	-9.59782
▁huge	-9.59798
▁heavy	-9.59884
▁democratic	-9.60067
new	-9.60084
▁standard	-9.60096
▁master	-9.60141
▁organization	-9.60273
▁hill	-9.60285
▁skin	-9.60322
▁era	-9.60329
▁looks	-9.60367
▁salt	-9.60483
▁ahead	-9.60666
▁miss	-9.60777
▁indeed	-9.60844
▁safe	-9.60876
▁provided	-9.60889
▁interview	-9.60909
ful	-9.61047
▁royal	-9.61076
▁places	-9.61115
▁pulled	-9.61248
▁systems	-9.61362
▁secret	-9.61547
les	-9.6169
▁significant	-9.61795
▁sam	-9.61834
▁photo	-9.61866
▁eu	-9.61881
▁message	-9.61915
▁necessary	-9.61958
▁save	-9.61979
pm	-9.61999
▁det	-9.62001
▁straight	-9.62029
right	-9.62062
▁impact	-9.6215
ng	-9.62194
▁wait	-9.62199
ver	-9.62399
▁professional	-9.62495
▁sleep	-9.62577
▁sky	-9.62627
▁kill	-9.62701
▁hundred	-9.62891
▁facebook	-9.62918
▁file	-9.63061
▁fun	-9.63124
▁lines	-9.63297
▁theory	-9.63357
off	-9.63424
▁;	-9.63461
▁weight	-9.63479
▁lake	-9.63524
▁extra	-9.63595
▁bay	-9.63605
▁ni	-9.63612
za	-9.63786
ah	-9.63842
▁gas	-9.63938
▁brain	-9.63946
▁fresh	-9.63957
▁thomas	-9.64229
▁ka	-9.64239
▁effort	-9.64339
▁uk	-9.64456
▁twitter	-9.64541
▁han	-9.64603
▁é	-9.64699
▁growth	-9.64756
▁management	-9.64851
▁directly	-9.64988
▁physical	-9.65102
nt	-9.65137
▁eat	-9.65144
ally	-9.65206
▁television	-9.65218
▁conference	-9.65224
▁numbers	-9.65253
▁student	-9.65411
▁hotel	-9.65448
▁meaning	-9.65545
▁waiting	-9.65586
▁parts	-9.65649
▁search	-9.65657
▁suddenly	-9.65695
▁indian	-9.65738
▁property	-9.65832
▁serve	-9.65836
▁peace	-9.65948
▁rules	-9.66041
pe	-9.66064
▁begin	-9.6607
▁sit	-9.66157
▁growing	-9.66163
▁related	-9.66233
▁glass	-9.66288
▁direct	-9.66315
▁images	-9.66353
▁perfect	-9.66396
▁speed	-9.66417
▁dog	-9.66417
▁religious	-9.66444
▁starting	-9.66446
▁command	-9.66599
▁prime	-9.66704
▁southern	-9.66711
▁`	-9.66732
▁established	-9.66742
▁path	-9.6682
car	-9.66852
▁showed	-9.66979
▁produced	-9.66992
▁quality	-9.67176
▁obama	-9.67306
▁inter	-9.67312
▁centre	-9.67437
▁send	-9.67458
▁caught	-9.67569
▁wood	-9.67683
po	-9.67683
▁plans	-9.67699
▁lived	-9.67797
▁records	-9.67911
▁paid	-9.67918
ze	-9.67944
▁senior	-9.67956
▁married	-9.68024
▁developed	-9.68048
▁picture	-9.68073
▁germany	-9.68093
▁spoke	-9.68219
▁serious	-9.68287
que	-9.68413
▁edge	-9.68593
▁lay	-9.68891
▁product	-9.68973
ization	-9.6906
▁kids	-9.6916
▁paris	-9.69303
▁square	-9.69416
▁zu	-9.69435
▁internet	-9.69488
ung	-9.69542
▁conditions	-9.69607
▁reports	-9.69865
▁trust	-9.69884
▁vol	-9.69897
▁beautiful	-9.69937
▁web	-9.69975
▁clearly	-9.70038
▁contact	-9.70124
▁australia	-9.7015
▁israel	-9.70162
ki	-9.70179
="	-9.7038
▁www	-9.70468
▁reality	-9.70477
ado	-9.70486
▁helped	-9.70594
▁address	-9.70621
▁freedom	-9.70765
▁fair	-9.70909
▁designed	-9.70915
rd	-9.70957
▁northern	-9.71001
▁och	-9.71006
▁joined	-9.71059
▁foot	-9.71065
▁remain	-9.71163
▁loss	-9.71213
▁details	-9.71231
▁fa	-9.71302
▁smith	-9.71303
▁hadn	-9.71327
▁easily	-9.71347
▁stock	-9.71385
▁politics	-9.71444
▁mi	-9.71459
▁lady	-9.71506
▁republican	-9.71606
▁tour	-9.71636
▁offered	-9.71654
▁evening	-9.71696
▁museum	-9.71716
▁notes	-9.71723
ster	-9.71743
▁leaders	-9.7178
ac	-9.71781
▁tree	-9.71826
▁pressure	-9.71828
▁teams	-9.71845
▁forced	-9.7185
▁fish	-9.71861
▁border	-9.71875
her	-9.71889
▁sunday	-9.71891
mi	-9.7191
▁jack	-9.71992
▁powerful	-9.72097
▁remained	-9.72098
▁economy	-9.72176
▁var	-9.7218
▁von	-9.72246
▁families	-9.72297
▁lack	-9.72512
▁fat	-9.72547
▁christian	-9.72548
▁regular	-9.72583
▁girls	-9.72638
▁award	-9.72663
▁arrived	-9.72731
▁surface	-9.72768
▁opportunity	-9.72833
▁complex	-9.72836
▁ko	-9.7284
▁double	-9.72855
▁remains	-9.7286
ent	-9.73063
▁appear	-9.73089
▁friday	-9.73096
▁baby	-9.73262
▁rule	-9.7328
▁captain	-9.73302
▁products	-9.7332
ber	-9.73346
▁bo	-9.73353
▁normal	-9.73367
▁holding	-9.73403
▁greater	-9.73411
▁{	-9.73483
fi	-9.73508
mer	-9.73524
lin	-9.73552
▁traditional	-9.73554
bar	-9.7358
▁basic	-9.73635
▁professor	-9.7372
▁po	-9.73773
▁opening	-9.73809
▁female	-9.73843
au	-9.73852
wa	-9.73908
▁sister	-9.73912
▁memory	-9.73913
▁website	-9.73971
▁sitting	-9.73985
▁spring	-9.7401
▁billion	-9.74047
▁officers	-9.74202
▁charles	-9.7421
▁multiple	-9.74231
▁finished	-9.74368
▁additional	-9.74397
▁limited	-9.74427
▁»	-9.74472
▁richard	-9.74483
▁direction	-9.74516
▁mary	-9.7452
www	-9.74526
ating	-9.7453
▁learned	-9.74577
▁cool	-9.74638
▁spread	-9.74734
▁none	-9.74748
▁sexual	-9.74751
ham	-9.74788
ary	-9.7483
▁computer	-9.74832
▁except	-9.74846
í	-9.74908
ny	-9.74926
▁charge	-9.74959
▁movie	-9.75071
▁quick	-9.75083
▁chair	-9.75103
▁bridge	-9.75107
▁mit	-9.75288
▁expect	-9.75399
▁card	-9.75467
▁americans	-9.7547
▁shown	-9.75611
▁credit	-9.75636
▁doctor	-9.75648
▁believed	-9.75664
▁analysis	-9.75779
▁seeing	-9.75784
▁users	-9.76052
▁independent	-9.76102
ive	-9.76137
▁winter	-9.76184
▁train	-9.76271
▁mo	-9.76291
▁intelligence	-9.76373
▁sold	-9.76489
▁mc	-9.76519
▁wild	-9.76553
▁secretary	-9.76682
▁agency	-9.76832
▁safety	-9.76917
▁avoid	-9.76958
▁im	-9.76977
▁violence	-9.77106
▁sugar	-9.77198
▁difference	-9.77219
▁claim	-9.77336
▁speech	-9.77398
▁bottom	-9.7753
▁attempt	-9.77532
▁pa	-9.77624
▁rich	-9.77647
▁climate	-9.7769
▁wants	-9.77812
▁rise	-9.77853
▁failed	-9.77864
▁+	-9.77874
▁touch	-9.77895
▁nice	-9.77936
▁method	-9.77944
▁plant	-9.78081
▁collection	-9.78174
ada	-9.78185
▁coach	-9.78191
▁email	-9.78228
ut	-9.78243
▁structure	-9.78272
▁block	-9.78312
field	-9.7834
ated	-9.78372
▁sports	-9.7846
▁includes	-9.7852
▁investigation	-9.78533
|	-9.78598
▁choose	-9.78727
▁travel	-9.78816
ana	-9.78869
▁environment	-9.78904
▁understanding	-9.78905
▁stuff	-9.78949
▁smile	-9.78957
▁com	-9.78991
▁jo	-9.79052
▁male	-9.79057
▁marriage	-9.79117
▁port	-9.79132
▁majority	-9.79158
▁machine	-9.79219
▁institute	-9.79225
▁op	-9.79305
▁protect	-9.7937
▁placed	-9.79531
▁nine	-9.79567
ier	-9.7969
▁object	-9.79748
▁monday	-9.79801
▁ideas	-9.79845
▁associated	-9.79858
▁influence	-9.79891
▁purpose	-9.79924
▁library	-9.79943
▁levels	-9.80026
▁join	-9.80124
▁в	-9.80158
▁treatment	-9.80371
ak	-9.80481
▁hell	-9.80586
▁manager	-9.80706
—"	-9.80707
▁firm	-9.80768
▁sin	-9.80838
▁mis	-9.80896
ning	-9.80938
▁dream	-9.80974
▁commission	-9.81026
ance	-9.81066
ina	-9.81233
▁older	-9.81377
▁corner	-9.81402
▁carried	-9.81485
▁sweet	-9.81526
+	-9.81581
vi	-9.81649
▁wish	-9.81662
ap	-9.81698
▁slowly	-9.81854
▁appears	-9.8191
▁judge	-9.81939
▁crime	-9.82007
▁ban	-9.8203
▁va	-9.82033
▁seat	-9.82047
▁japan	-9.82243
▁respect	-9.82269
▁ancient	-9.82324
▁agreed	-9.8238
▁spot	-9.82421
▁clean	-9.8259
▁larger	-9.82628
▁das	-9.82818
▁ben	-9.8285
▁watching	-9.82939
▁increased	-9.8302
▁cu	-9.83062
▁os	-9.83076
▁learning	-9.8308
▁primary	-9.83175
mar	-9.83176
▁doubt	-9.83199
▁effects	-9.83228
▁successful	-9.83394
▁martin	-9.83465
▁henry	-9.83489
▁japanese	-9.83574
▁distance	-9.83716
▁drug	-9.83726
▁windows	-9.83731
▁construction	-9.83741
▁executive	-9.83744
▁schools	-9.83968
▁clinton	-9.83972
▁generally	-9.84007
with	-9.8402
▁fighting	-9.84024
▁spirit	-9.84059
▁status	-9.84157
▁ended	-9.84158
dy	-9.84207
▁apple	-9.84222
▁signed	-9.84381
ho	-9.84438
▁african	-9.84535
▁bowl	-9.84549
▁disease	-9.84552
ron	-9.84554
▁mission	-9.84565
▁slow	-9.84567
▁cook	-9.84623
▁wine	-9.84684
▁warm	-9.84801
▁bus	-9.84807
▁route	-9.84818
▁positive	-9.84987
▁largest	-9.85087
&	-9.85124
▁digital	-9.85144
▁breath	-9.85157
▁fit	-9.85182
[	-9.85216
ise	-9.85275
▁coast	-9.85329
▁cell	-9.85359
▁dry	-9.8538
▁labor	-9.85457
che	-9.85532
hi	-9.85628
▁mon	-9.8564
▁ho	-9.85643
▁trans	-9.85681
▁beach	-9.85748
▁covered	-9.85808
▁unit	-9.8583
▁fully	-9.85848
▁texas	-9.8605
▁resources	-9.86154
▁bi	-9.86261
▁efforts	-9.86264
▁um	-9.86375
wood	-9.86412
▁prison	-9.86442
▁presence	-9.8647
▁fans	-9.86587
min	-9.86615
ard	-9.86624
▁contract	-9.86627
▁interesting	-9.86664
end	-9.8668
▁rain	-9.86693
▁damage	-9.86775
▁senate	-9.86829
▁caption	-9.86954
▁challenge	-9.87003
▁fan	-9.87063
▁names	-9.87108
why	-9.87147
▁caused	-9.87154
when	-9.87155
▁valley	-9.87318
▁silver	-9.87375
▁watched	-9.87399
▁@	-9.87429
▁mine	-9.87445
▁activity	-9.87532
▁trip	-9.87584
▁cultural	-9.87601
▁snow	-9.8762
▁donald	-9.87641
▁foundation	-9.87652
▁worse	-9.87676
▁bag	-9.87677
▁steps	-9.8771
▁haven	-9.87863
▁leaves	-9.87891
▁gives	-9.87953
▁på	-9.88123
▁mrs	-9.88143
▁queen	-9.88147
▁conversation	-9.88164
▁feature	-9.88226
▁fellow	-9.88266
▁beat	-9.88315
▁till	-9.88509
▁location	-9.8852
uk	-9.88575
▁tuesday	-9.886
▁calls	-9.88604
red	-9.88608
▁screen	-9.88636
▁av	-9.8864
▁guard	-9.88675
▁trees	-9.88712
sen	-9.88775
▁critical	-9.88783
▁expression	-9.88826
who	-9.88835
▁mountain	-9.88952
▁reasons	-9.89154
▁q	-9.8925
tu	-9.8925
▁|-	-9.89255
▁user	-9.89284
▁novel	-9.89334
▁highly	-9.89362
▁soldiers	-9.89395
▁thousands	-9.89441
▁overall	-9.89491
▁africa	-9.89571
▁pp	-9.89576
▁activities	-9.89637
▁operations	-9.89673
▁italian	-9.89755
▁income	-9.89882
org	-9.89931
▁prior	-9.90033
▁journal	-9.90055
▁cities	-9.90086
▁kitchen	-9.9012
▁animal	-9.9012
▁ju	-9.9013
▁drop	-9.9016
▁previously	-9.90193
▁ke	-9.90251
net	-9.90404
▁forest	-9.90405
▁gets	-9.90555
▁cap	-9.90617
▁lee	-9.90693
▁speaking	-9.90697
▁managed	-9.90833
▁notice	-9.90867
▁active	-9.91008
▁pot	-9.91077
▁noted	-9.91113
▁dan	-9.91147
▁broken	-9.91153
▁claims	-9.9116
ou	-9.91215
▁horse	-9.91258
▁slightly	-9.91358
▁agreement	-9.91399
▁latest	-9.91442
▁neither	-9.91473
jo	-9.91475
▁artist	-9.91475
▁nu	-9.91539
▁laws	-9.916
▁roman	-9.91734
▁becoming	-9.91757
▁native	-9.91784
▁background	-9.91791
ey	-9.91798
▁thursday	-9.918
fa	-9.91814
tion	-9.91854
▁flat	-9.91863
our	-9.91913
▁aren	-9.91946
▁minute	-9.91961
han	-9.92049
▁operation	-9.9218
▁saturday	-9.92201
▁sources	-9.92227
▁calling	-9.92235
▁exchange	-9.92257
du	-9.92305
▁ou	-9.92306
▁fourth	-9.9235
▁explained	-9.92431
▁demand	-9.92549
▁strength	-9.92561
▁separate	-9.92662
▁counter	-9.92687
▁target	-9.9271
get	-9.92738
▁authority	-9.92741
ck	-9.92761
▁cat	-9.92774
▁nodded	-9.92796
▁mostly	-9.92841
mon	-9.92956
▁som	-9.92973
▁characters	-9.93035
▁shared	-9.93084
▁boys	-9.93103
▁telling	-9.93173
▁individuals	-9.93306
▁metal	-9.93326
ford	-9.93394
▁garden	-9.93407
▁eastern	-9.93476
▁imagine	-9.9354
lan	-9.93542
▁trouble	-9.93601
▁produce	-9.93729
house	-9.93813
▁core	-9.94049
▁soul	-9.94167
▁receive	-9.94177
▁condition	-9.94267
▁pop	-9.94399
▁crisis	-9.94573
▁animals	-9.946
▁carry	-9.94602
▁writer	-9.94617
▁filled	-9.94647
▁drink	-9.94664
▁thousand	-9.94679
tic	-9.94698
▁crowd	-9.94765
vo	-9.94856
▁thanks	-9.94952
▁dropped	-9.9499
▁mac	-9.95058
▁wednesday	-9.95066
▁famous	-9.95083
ville	-9.95199
▁comment	-9.95275
▁claimed	-9.95309
now	-9.95376
▁walking	-9.95464
▁spend	-9.955
▁shoulder	-9.95509
▁prince	-9.95515
ai	-9.95537
▁platform	-9.95643
▁ku	-9.9566
ex	-9.95694
▁coffee	-9.95694
▁sales	-9.95706
▁supposed	-9.95871
▁lose	-9.95896
way	-9.95952
▁britain	-9.96049
▁discovered	-9.96096
▁actions	-9.96102
▁length	-9.96111
▁murder	-9.96142
▁unique	-9.96149
which	-9.96231
▁behavior	-9.96272
▁shape	-9.96332
▁actual	-9.96409
ize	-9.96452
▁grow	-9.96574
▁favorite	-9.96633
▁knows	-9.96818
▁sie	-9.96874
▁faith	-9.96926
▁software	-9.96955
▁application	-9.97013
▁creating	-9.9715
▁}	-9.97213
op	-9.97252
▁oh	-9.97263
ez	-9.97329
▁li	-9.97379
ol	-9.97387
▁enemy	-9.97396
▁chicago	-9.97572
▁joe	-9.97603
▁becomes	-9.97646
▁hat	-9.97662
▁grew	-9.97696
▁loved	-9.97728
▁turning	-9.97732
gar	-9.97797
sh	-9.98037
▁dé	-9.98041
▁soft	-9.98043
▁episode	-9.98065
▁championship	-9.98066
▁med	-9.98109
▁row	-9.98185
$	-9.98196
▁compared	-9.98197
▁explain	-9.98205
▁values	-9.98207
▁####	-9.98228
▁suggested	-9.98263
▁commercial	-9.98271
▁moon	-9.98312
▁task	-9.98367
▁revolution	-9.98388
▁hurt	-9.98476
▁protection	-9.98518
▁pen	-9.98537
▁historical	-9.98538
▁mais	-9.98632
▁sight	-9.9866
▁ar	-9.9868
▁remove	-9.98688
▁australian	-9.98757
▁strange	-9.98778
▁thank	-9.98837
▁magazine	-9.98929
▁enjoy	-9.98939
ence	-9.98947
▁aware	-9.99001
▁asking	-9.99028
▁types	-9.99039
*	-9.99111
▁attacks	-9.99126
と	-9.99149
▁silence	-9.99161
tor	-9.99242
▁enter	-9.99273
▁trial	-9.99498
▁flight	-9.99536
▁governor	-9.99653
▁degree	-9.99732
▁sand	-9.99748
cha	-9.99773
▁tea	-9.99887
▁threat	-10
izing	-10.0008
▁draw	-10.0011
▁setting	-10.0011
▁leg	-10.0012
▁progress	-10.0024
▁forms	-10.0024
bi	-10.0026
▁kingdom	-10.003
▁pieces	-10.0032
▁prevent	-10.0043
▁vision	-10.0044
▁criminal	-10.0051
▁ein	-10.0053
▁otherwise	-10.0056
▁option	-10.0059
▁jobs	-10.0072
▁za	-10.0074
▁basis	-10.0102
▁frank	-10.0107
▁closer	-10.0117
▁ensure	-10.0117
ble	-10.0121
▁dinner	-10.0124
▁victory	-10.013
▁meat	-10.0134
▁click	-10.0136
▁fingers	-10.0137
ă	-10.014
▁moral	-10.0146
▁audience	-10.0147
back	-10.0153
▁birth	-10.0154
▁provides	-10.0155
▁formed	-10.0156
▁fi	-10.0158
▁entirely	-10.016
▁ed	-10.0168
▁magic	-10.0173
ists	-10.0176
▁parties	-10.0197
▁cent	-10.02
▁surprise	-10.0208
▁responsible	-10.0214
▁neck	-10.0216
▁afternoon	-10.0216
▁johnson	-10.0219
▁realized	-10.0227
▁ser	-10.0228
▁lu	-10.023
▁link	-10.0239
▁ya	-10.0241
▁entered	-10.0253
ig	-10.0254
▁competition	-10.0258
▁goals	-10.0259
▁biggest	-10.0276
▁budget	-10.028
▁chi	-10.0288
▁interested	-10.0288
▁highest	-10.0289
▁cancer	-10.029
ran	-10.029
▁opinion	-10.0293
chi	-10.0297
▁keeping	-10.0302
gi	-10.0308
.**	-10.0312
▁religion	-10.0312
▁concept	-10.0317
su	-10.0319
▁troops	-10.032
ku	-10.0324
▁jewish	-10.0333
▁wonder	-10.0338
▁weapons	-10.0338
hu	-10.0338
ite	-10.0339
▁finding	-10.0343
▁empty	-10.0344
▁elements	-10.0347
ab	-10.0352
▁guys	-10.036
▁og	-10.0362
▁om	-10.0363
kin	-10.0379
▁recorded	-10.0385
▁quiet	-10.0389
▁introduced	-10.0391
▁jesus	-10.0392
▁adding	-10.0393
▁push	-10.0394
ps	-10.0402
ji	-10.0404
▁ring	-10.0408
▁nations	-10.0409
▁como	-10.0431
▁shook	-10.0433
▁costs	-10.0435
▁accept	-10.0436
▁democrats	-10.0438
▁pull	-10.0439
ik	-10.0444
▁cash	-10.0447
hr	-10.0452
▁smiled	-10.0455
▁yellow	-10.0458
▁bear	-10.0462
nie	-10.0468
▁variety	-10.047
▁fox	-10.0474
▁offers	-10.0478
▁nuclear	-10.0482
▁letters	-10.0483
▁impossible	-10.0484
▁views	-10.05
▁pe	-10.0503
▁vice	-10.0506
▁brand	-10.0512
▁shop	-10.0513
▁walls	-10.0515
▁pointed	-10.0523
▁lie	-10.0523
▁argument	-10.0529
▁weather	-10.053
▁projects	-10.0532
▁patients	-10.0532
▁host	-10.0534
lu	-10.0534
▁canadian	-10.0538
▁decades	-10.0539
ju	-10.0541
▁shooting	-10.0542
▁originally	-10.0542
▁на	-10.0546
▁empire	-10.0553
▁initial	-10.0575
▁picked	-10.0585
▁sell	-10.059
▁familiar	-10.0593
▁prepared	-10.0594
▁smaller	-10.0595
▁apart	-10.0597
▁mentioned	-10.0598
▁broke	-10.0615
▁mike	-10.0617
tro	-10.0622
▁multi	-10.0622
▁sp	-10.0628
▁desire	-10.0635
▁planning	-10.0635
▁debate	-10.0638
▁camera	-10.0642
▁effective	-10.0649
▁instance	-10.0657
▁iron	-10.0659
▁strategy	-10.0662
▁medium	-10.0663
ek	-10.0665
▁mix	-10.0668
▁golden	-10.067
▁runs	-10.067
▁annual	-10.0676
▁appearance	-10.0684
で	-10.0693
side	-10.0694
▁solution	-10.0696
▁legs	-10.0704
fer	-10.0709
▁count	-10.0709
▁stars	-10.0717
▁programs	-10.0739
pro	-10.0741
une	-10.0751
▁leadership	-10.0752
▁km	-10.0759
▁youth	-10.0761
war	-10.0769
mann	-10.0769
▁remaining	-10.0778
▁soviet	-10.078
▁boat	-10.0783
▁concerned	-10.0785
▁revealed	-10.0791
▁airport	-10.0793
▁sorry	-10.0798
▁dangerous	-10.08
▁studio	-10.0821
▁authorities	-10.0824
ns	-10.0826
▁ad	-10.083
▁mad	-10.0834
▁thirty	-10.0844
▁solid	-10.085
▁comments	-10.085
▁festival	-10.0851
▁songs	-10.0857
▁net	-10.0857
▁generation	-10.0863
▁dad	-10.0867
▁jan	-10.087
▁mental	-10.0878
pp	-10.0881
elle	-10.0883
▁journey	-10.0888
▁allows	-10.0889
▁sharp	-10.0892
▁uses	-10.0896
▁removed	-10.0903
▁identity	-10.0904
▁sides	-10.0913
▁ocean	-10.0916
▁partner	-10.0919
▁showing	-10.0937
▁agent	-10.095
▁options	-10.095
▁ta	-10.0959
▁ch	-10.0974
▁catch	-10.0977
▁equal	-10.0983
▁putting	-10.0985
▁connection	-10.0987
▁taste	-10.0994
▁chest	-10.1002
▁restaurant	-10.1005
▁dance	-10.1006
▁candidate	-10.1009
▁mal	-10.1009
▁citizens	-10.1016
▁driver	-10.1024
▁pair	-10.1025
▁guess	-10.1027
▁customers	-10.1028
▁advantage	-10.1028
▁presidential	-10.1029
▁massive	-10.1031
▁concern	-10.1036
▁twice	-10.1038
▁traffic	-10.1041
▁guide	-10.1045
▁mayor	-10.1046
▁ms	-10.1067
▁fund	-10.107
▁conflict	-10.1072
▁scale	-10.1075
▁unless	-10.1079
▁auf	-10.1087
▁hearing	-10.1093
▁thick	-10.1093
▁opposition	-10.1095
▁milk	-10.1107
ä	-10.1108
▁upper	-10.1123
▁useful	-10.1126
▁missing	-10.1127
ship	-10.1127
▁crew	-10.113
▁sc	-10.1132
▁trail	-10.1139
▁iran	-10.1147
▁supreme	-10.1148
▁continues	-10.1149
▁editor	-10.1152
▁christ	-10.1156
ker	-10.1158
▁för	-10.116
▁device	-10.116
▁attorney	-10.1164
▁investment	-10.1166
▁£	-10.117
▁apparently	-10.1172
▁shut	-10.1173
▁serving	-10.1176
▁wearing	-10.1179
▁request	-10.1182
▁improve	-10.1185
▁context	-10.119
oc	-10.1192
▁florida	-10.1193
▁relations	-10.1196
▁incident	-10.1196
▁quarter	-10.1197
▁balance	-10.1199
▁communities	-10.1203
ring	-10.1206
▁develop	-10.122
ial	-10.1222
▁truly	-10.1223
zo	-10.1228
▁fill	-10.1229
▁edition	-10.1241
val	-10.1243
▁channel	-10.1245
▁mexico	-10.125
▁angeles	-10.1262
▁benefit	-10.1262
ius	-10.1262
▁replied	-10.1263
just	-10.1263
▁virginia	-10.1264
▁mom	-10.1267
▁bodies	-10.1268
▁ordered	-10.1273
▁greek	-10.1286
▁planned	-10.1291
▁cor	-10.1293
▁knowing	-10.1302
tra	-10.1304
▁farm	-10.1306
▁anyway	-10.131
▁auto	-10.1328
▁reduce	-10.1332
▁completed	-10.1348
▁bright	-10.135
era	-10.1351
▁conservative	-10.1353
▁aside	-10.1366
star	-10.1371
ney	-10.1381
▁rep	-10.1385
▁happens	-10.1392
▁spanish	-10.1392
▁pushed	-10.1402
▁elected	-10.1403
▁score	-10.1407
▁smart	-10.141
▁etc	-10.1412
▁labour	-10.1412
▁republic	-10.1414
ken	-10.1414
▁require	-10.1415
term	-10.1433
▁escape	-10.144
ok	-10.1444
▁cars	-10.1445
ft	-10.145
▁discussion	-10.1457
ola	-10.1472
▁ra	-10.1478
▁launched	-10.1483
▁jones	-10.1488
▁benefits	-10.149
▁(@	-10.1498
▁supply	-10.15
▁measure	-10.1501
ang	-10.1502
▁driving	-10.1506
▁alive	-10.1519
ff	-10.1521
▁exist	-10.1527
▁listen	-10.1534
▁dem	-10.155
▁display	-10.1551
▁presented	-10.1555
▁sounds	-10.1565
▁gay	-10.1572
▁tiny	-10.1574
dis	-10.1584
ée	-10.1585
▁environmental	-10.1592
▁strike	-10.1593
▁drew	-10.1595
class	-10.1613
▁temple	-10.1632
▁winning	-10.1648
mm	-10.1654
▁sen	-10.1665
▁thin	-10.167
▁butter	-10.1673
more	-10.1679
ee	-10.1695
some	-10.17
▁intended	-10.1703
▁gray	-10.1704
american	-10.1706
▁directed	-10.1706
▁easier	-10.1711
▁streets	-10.1723
▁thoughts	-10.1723
head	-10.1724
ure	-10.1743
▁broad	-10.1743
▁employees	-10.1749
▁worst	-10.1752
▁hundreds	-10.1755
▁proposed	-10.1755
▁bell	-10.1764
▁mu	-10.1777
@	-10.178
▁engine	-10.1782
▁buildings	-10.1786
▁scott	-10.1789
▁understood	-10.1799
á	-10.1804
▁scientific	-10.1805
sch	-10.1813
▁reform	-10.1814
▁arts	-10.1815
▁lips	-10.1816
▁afraid	-10.1818
▁tend	-10.1819
▁cells	-10.1823
▁mobile	-10.1826
▁obvious	-10.1827
iv	-10.1828
▁att	-10.1831
▁beside	-10.1844
▁figures	-10.1862
▁tools	-10.1866
ción	-10.1868
▁saint	-10.187
▁regional	-10.1871
▁transport	-10.1873
▁stated	-10.1876
▁negative	-10.1881
har	-10.1883
▁fruit	-10.1886
▁failure	-10.189
▁roll	-10.1892
▁confirmed	-10.1899
cho	-10.1903
▁voters	-10.1904
len	-10.1906
▁performed	-10.1909
▁smoke	-10.1911
over	-10.1919
▁spending	-10.1932
▁residents	-10.1934
▁honor	-10.1936
▁cheese	-10.1937
▁launch	-10.1938
▁concerns	-10.1947
▁skills	-10.195
▁tall	-10.195
▁motion	-10.1957
▁province	-10.1958
▁bush	-10.1962
▁dar	-10.1969
▁urban	-10.1972
▁liberal	-10.1973
▁minor	-10.1974
▁founded	-10.1988
▁determined	-10.1995
▁fly	-10.1998
▁dollars	-10.2013
▁volume	-10.2014
▁chris	-10.2016
▁manner	-10.2039
▁brief	-10.2047
▁extremely	-10.2048
mp	-10.2048
▁creation	-10.2052
bra	-10.2056
ities	-10.206
▁joseph	-10.2062
▁vehicle	-10.2064
▁killing	-10.2064
▁ré	-10.2065
ru	-10.2067
▁storm	-10.2068
▁internal	-10.2069
▁forget	-10.2071
▁tar	-10.2072
▁existence	-10.208
ement	-10.2083
▁equipment	-10.2092
▁rare	-10.2105
▁opposite	-10.2106
▁contrast	-10.2112
▁bought	-10.2114
▁bitcoin	-10.2123
where	-10.2123
▁reference	-10.2125
▁noticed	-10.2127
king	-10.213
▁beneath	-10.213
▁researchers	-10.213
gan	-10.2136
ries	-10.2137
▁nearby	-10.2141
▁awards	-10.2146
fe	-10.215
▁ro	-10.2156
▁units	-10.2158
▁gain	-10.2163
▁supported	-10.2168
▁ba	-10.2168
ised	-10.2174
▁chicken	-10.2175
▁survey	-10.2175
▁evil	-10.2177
▁films	-10.2179
▁aircraft	-10.218
free	-10.2181
▁italy	-10.2185
▁tri	-10.219
▁pattern	-10.2196
▁louis	-10.2202
▁parliament	-10.2205
▁possibly	-10.2206
▁transfer	-10.2207
т	-10.2208
▁draft	-10.2211
down	-10.2214
▁plants	-10.2216
▁alternative	-10.2216
▁refused	-10.2216
▁greatest	-10.2221
▁turns	-10.2223
▁по	-10.2233
▁agree	-10.2234
▁tool	-10.224
▁finish	-10.2251
▁ob	-10.2265
▁worry	-10.2265
cu	-10.2267
board	-10.2271
▁ride	-10.2273
▁kid	-10.2281
▁suit	-10.229
ben	-10.2291
▁items	-10.2292
▁essential	-10.2295
▁chain	-10.2295
▁weekend	-10.2303
▁medicine	-10.2306
▁domestic	-10.2308
▁somewhere	-10.231
▁clothes	-10.231
▁planet	-10.2312
い	-10.2319
▁daniel	-10.2319
▁с	-10.2326
」	-10.2328
▁bob	-10.2331
▁jim	-10.2333
from	-10.2334
▁cream	-10.2345
▁assistant	-10.235
▁philosophy	-10.2359
▁tom	-10.236
▁aid	-10.236
▁min	-10.2365
▁rates	-10.2367
▁и	-10.2368
▁sad	-10.2368
qui	-10.2373
▁surprised	-10.2374
▁tradition	-10.2375
▁latter	-10.2378
nes	-10.238
!'	-10.2388
▁correct	-10.2399
▁plays	-10.2401
pre	-10.2403
▁false	-10.2405
▁raise	-10.2421
ー	-10.2422
▁pepper	-10.2428
▁capacity	-10.2433
ita	-10.2435
▁willing	-10.2438
▁jean	-10.2448
▁obviously	-10.2456
}	-10.2457
▁replaced	-10.2459
▁cloud	-10.246
▁arrested	-10.2462
▁decade	-10.2464
▁policies	-10.2475
van	-10.2475
▁stepped	-10.2478
▁hate	-10.2484
▁meanwhile	-10.2485
▁navy	-10.2486
▁http	-10.2491
▁pool	-10.2491
▁refer	-10.2497
▁favor	-10.2505
▁wear	-10.2507
century	-10.251
berg	-10.2518
▁eating	-10.252
des	-10.2526
ag	-10.2536
cy	-10.2541
▁passing	-10.2541
▁ultimately	-10.2547
▁tells	-10.2559
use	-10.2573
▁existing	-10.2573
▁patient	-10.2577
▁focused	-10.2579
good	-10.2582
▁academy	-10.2582
▁sites	-10.2583
▁owner	-10.2586
▁younger	-10.2591
▁weren	-10.2593
then	-10.2606
?”	-10.261
▁update	-10.2611
▁largely	-10.2615
▁wa	-10.2616
▁numerous	-10.2622
▁housing	-10.2625
ini	-10.2632
▁prices	-10.2638
▁changing	-10.2643
▁limit	-10.2643
▁pictures	-10.265
▁exercise	-10.2666
▁document	-10.2666
▁nose	-10.2675
”.	-10.2678
ible	-10.2678
▁sauce	-10.2678
▁identified	-10.2682
▁accepted	-10.2682
°	-10.2686
▁teacher	-10.2697
▁sal	-10.2698
р	-10.27
▁mention	-10.2704
▁vast	-10.2706
▁decide	-10.271
▁tra	-10.2719
▁brothers	-10.2726
▁francisco	-10.2735
▁ki	-10.2745
▁suggest	-10.2746
▁realize	-10.2747
long	-10.2752
▁wave	-10.2755
▁handle	-10.2757
▁ga	-10.2757
▁unable	-10.2763
▁pat	-10.2763
▁artists	-10.2766
▁fuel	-10.2775
▁express	-10.2781
▁narrow	-10.2781
▁talked	-10.2785
▁issued	-10.2792
art	-10.2794
▁carefully	-10.2795
ile	-10.2797
▁combat	-10.2803
▁references	-10.2804
▁funding	-10.2809
▁pi	-10.281
▁bio	-10.2816
▁rising	-10.2817
▁methods	-10.2817
▁split	-10.2828
▁literature	-10.2829
▁determine	-10.2832
▁contains	-10.2835
ven	-10.2838
▁classic	-10.2844
▁industrial	-10.2854
▁ref	-10.2858
▁christmas	-10.2859
▁grant	-10.2862
▁usual	-10.2863
▁rooms	-10.2864
▁lies	-10.2872
▁bra	-10.2872
port	-10.2881
▁castle	-10.2881
▁mode	-10.2885
▁beer	-10.2892
▁assembly	-10.2892
▁val	-10.29
▁providing	-10.2904
▁abuse	-10.2905
ura	-10.2907
▁charges	-10.2907
▁unlike	-10.291
▁sick	-10.2911
▁boston	-10.2916
▁dress	-10.2919
▁possibility	-10.2919
▁tower	-10.2922
е	-10.2924
▁throw	-10.2938
▁documents	-10.2939
▁ireland	-10.294
▁affairs	-10.2943
▁ti	-10.2944
▁prove	-10.2948
▁korea	-10.2949
wing	-10.295
pi	-10.2956
és	-10.2957
▁distribution	-10.2959
▁interests	-10.2962
▁commander	-10.2966
▁sale	-10.2969
▁bird	-10.2972
▁testing	-10.2977
▁adult	-10.298
bu	-10.2993
▁pages	-10.2995
▁elections	-10.2996
▁responsibility	-10.2999
ette	-10.3005
▁accused	-10.301
▁objects	-10.3013
▁în	-10.3013
▁republicans	-10.3014
ella	-10.3016
..."	-10.3017
▁steel	-10.3018
▁edward	-10.3018
▁scientists	-10.3024
▁stream	-10.3025
▁newspaper	-10.3031
▁orange	-10.3033
▁bread	-10.304
▁catholic	-10.3043
par	-10.3045
▁signs	-10.3049
▁respond	-10.3055
▁matt	-10.3057
▁merely	-10.3059
▁advanced	-10.3066
ste	-10.3071
▁losing	-10.3077
▁pu	-10.3078
▁ham	-10.3081
▁bringing	-10.3083
▁mount	-10.3096
▁https	-10.3097
▁okay	-10.3101
▁promise	-10.3102
▁max	-10.3107
▁declared	-10.3109
▁micro	-10.3109
▁gen	-10.311
▁fixed	-10.3112
▁proper	-10.3116
tz	-10.3122
▁relatively	-10.3137
▁harry	-10.3152
▁listed	-10.3155
light	-10.3158
▁committed	-10.316
▁description	-10.3164
ud	-10.3164
▁allowing	-10.3175
▁models	-10.3178
▁actor	-10.3178
▁somehow	-10.3178
▁seconds	-10.3181
▁banks	-10.3181
té	-10.3183
▁importance	-10.3185
▁apply	-10.3193
▁victim	-10.3199
▁advance	-10.3202
▁struck	-10.3204
mb	-10.3204
▁asia	-10.3216
▁wake	-10.3218
vis	-10.3218
▁rice	-10.3219
ari	-10.3226
▁pleasure	-10.3227
ria	-10.3227
▁chose	-10.3236
▁ci	-10.3244
▁universe	-10.3258
ging	-10.3261
▁struggle	-10.3264
▁align	-10.3265
del	-10.3266
▁debt	-10.3271
work	-10.3272
▁laid	-10.3293
▁historic	-10.3297
▁ram	-10.3298
▁elizabeth	-10.3307
▁ships	-10.3308
▁danger	-10.3316
▁sport	-10.3319
ane	-10.332
▁offering	-10.3322
vin	-10.3323
▁applied	-10.3324
▁col	-10.3326
▁ourselves	-10.3329
▁assault	-10.333
ov	-10.3333
▁occurred	-10.3336
▁gender	-10.3342
▁connected	-10.3343
ité	-10.3344
▁nobody	-10.3347
▁happening	-10.335
▁advice	-10.3353
▁requires	-10.3354
▁anger	-10.3355
▁cards	-10.3358
was	-10.336
▁fin	-10.3363
▁liked	-10.3365
▁flow	-10.3365
▁zone	-10.3367
▁noise	-10.3367
▁iii	-10.3372
▁kar	-10.3373
set	-10.3375
▁shadow	-10.338
▁selected	-10.3381
▁charged	-10.3382
▁combined	-10.3392
▁devices	-10.3394
▁pure	-10.3397
▁drawn	-10.3398
▁hide	-10.34
▁increasing	-10.3401
▁drugs	-10.3404
hl	-10.3408
istic	-10.3414
▁matters	-10.3415
▁shift	-10.3416
▁healthy	-10.3417
▁circle	-10.3418
▁silent	-10.3421
ido	-10.3422
▁ze	-10.3428
▁increasingly	-10.3428
▁nicht	-10.3431
▁giant	-10.3434
▁theatre	-10.3438
▁irish	-10.3441
bit	-10.3442
▁constant	-10.3445
▁posted	-10.3449
▁seek	-10.3458
▁plastic	-10.3459
ren	-10.3467
▁grown	-10.3474
▁holy	-10.3475
▁debut	-10.3476
▁appointed	-10.3479
▁estate	-10.3489
zi	-10.3489
▁humans	-10.3496
▁gar	-10.3503
gu	-10.3504
ros	-10.3505
▁armed	-10.3511
▁houses	-10.3521
law	-10.3524
▁represent	-10.3529
▁fifth	-10.3531
▁jews	-10.3532
▁experienced	-10.3532
▁cre	-10.3534
▁principal	-10.3535
name	-10.3536
▁initially	-10.3536
▁prize	-10.3538
ene	-10.3553
▁entre	-10.3553
▁fields	-10.356
▁technical	-10.3561
▁finger	-10.3562
▁ear	-10.3563
ky	-10.3563
▁tight	-10.3566
af	-10.357
town	-10.3588
▁vor	-10.3588
mos	-10.3589
▁plenty	-10.3592
▁elle	-10.3592
▁hardly	-10.3592
▁dear	-10.3594
▁extended	-10.3598
▁desk	-10.3599
▁angry	-10.3601
▁temperature	-10.3606
ano	-10.3606
▁stared	-10.3609
▁ab	-10.3611
▁organizations	-10.3612
▁helping	-10.3616
▁poll	-10.3616
▁victims	-10.3622
▁secure	-10.363
▁maintain	-10.3637
▁highway	-10.3641
▁papers	-10.3646
▁smooth	-10.3648
▁begins	-10.365
▁electric	-10.3652
▁copyright	-10.3656
▁emergency	-10.3658
▁tim	-10.3658
▁relief	-10.3676
gue	-10.368
▁kan	-10.3681
▁appropriate	-10.3686
▁tan	-10.369
▁creative	-10.3692
▁carrying	-10.3704
point	-10.3706
▁sich	-10.3708
▁apartment	-10.3708
▁perform	-10.3709
▁laughed	-10.3711
▁represented	-10.3712
▁teeth	-10.3715
▁plane	-10.3717
▁railway	-10.3718
style	-10.3719
ped	-10.3731
▁discuss	-10.3732
▁string	-10.374
▁duty	-10.3742
▁flying	-10.3744
▁gi	-10.3746
▁joint	-10.3746
▁drawing	-10.3748
▁reduced	-10.3748
ology	-10.3769
▁copy	-10.3772
▁follows	-10.3773
nu	-10.3774
▁waste	-10.3778
dan	-10.3779
▁communication	-10.3782
gy	-10.3785
▁jump	-10.3788
▁carolina	-10.379
▁plate	-10.3796
▁beauty	-10.3805
▁lui	-10.3808
▁tech	-10.3811
▁lit	-10.3811
▁blog	-10.3815
▁syria	-10.3815
▁measures	-10.3817
▁decisions	-10.3829
▁yards	-10.3829
à	-10.3838
▁facing	-10.3853
eur	-10.3857
▁excellent	-10.3859
▁calm	-10.3859
▁photos	-10.386
▁operating	-10.3866
▁wing	-10.3869
▁orders	-10.3883
▁signal	-10.3885
▁accounts	-10.3891
▁print	-10.3892
▁typically	-10.3892
▁stick	-10.3896
▁protest	-10.3897
▁remembered	-10.3899
▁sought	-10.3903
cc	-10.3904
▁classes	-10.3904
▁chairman	-10.3907
▁taught	-10.3907
ida	-10.3913
▁standards	-10.3914
▁illegal	-10.3917
ative	-10.3917
▁definitely	-10.3918
▁recognized	-10.3919
▁comme	-10.3921
▁grass	-10.3924
▁insurance	-10.3927
▁sum	-10.3928
▁tip	-10.393
м	-10.3933
▁territory	-10.3936
iz	-10.3941
▁element	-10.3943
▁absolutely	-10.3945
▁hidden	-10.3949
▁williams	-10.395
▁roof	-10.395
▁answered	-10.3953
▁muslim	-10.3955
▁funds	-10.3967
▁recognize	-10.3971
▁factor	-10.3974
sky	-10.3974
▁ministry	-10.3977
▁chart	-10.3989
▁pin	-10.399
bel	-10.399
▁feels	-10.3994
▁tre	-10.3999
▁cal	-10.3999
▁musical	-10.4
sta	-10.4002
▁welcome	-10.401
▁expressed	-10.4011
▁jackson	-10.4012
bb	-10.4021
▁suggests	-10.4023
▁regime	-10.4023
▁pocket	-10.403
▁lying	-10.4036
▁steve	-10.4038
▁mixed	-10.4047
▁materials	-10.4056
▁bur	-10.406
▁andrew	-10.4065
▁joy	-10.4068
▁avec	-10.4073
▁powers	-10.4074
▁regarding	-10.4076
▁til	-10.4079
tri	-10.4081
▁rear	-10.4081
ante	-10.4091
▁acting	-10.4093
▁businesses	-10.4095
ris	-10.4095
▁owned	-10.4102
▁palace	-10.4103
▁tournament	-10.4103
▁más	-10.4109
▁developing	-10.411
▁suffered	-10.411
▁fashion	-10.4117
▁iraq	-10.412
▁ill	-10.4126
▁unknown	-10.4127
▁israeli	-10.4132
▁branch	-10.4132
▁raw	-10.4133
▁perspective	-10.4133
▁featured	-10.4134
ator	-10.4134
▁tears	-10.4141
▁chosen	-10.4144
▁throat	-10.4145
▁resistance	-10.4148
▁grace	-10.4152
▁extreme	-10.4154
▁fbi	-10.4158
state	-10.416
▁detail	-10.416
hand	-10.416
▁circumstances	-10.4163
▁radical	-10.4164
▁defeat	-10.4172
▁rome	-10.4173
▁sch	-10.4177
▁barely	-10.4179
▁gift	-10.4189
pt	-10.4189
mente	-10.419
▁stress	-10.419
did	-10.4192
▁specifically	-10.4192
▁usa	-10.4202
▁teaching	-10.4203
▁warning	-10.4206
▁moments	-10.4214
▁referred	-10.4216
▁entry	-10.4226
▁frequently	-10.4238
▁stayed	-10.424
▁faces	-10.4242
▁millions	-10.4242
▁weak	-10.4243
ix	-10.4244
▁introduction	-10.4251
book	-10.4255
▁constitution	-10.4259
air	-10.4264
▁seeking	-10.4265
▁panel	-10.4268
▁factors	-10.4269
▁falling	-10.427
▁kim	-10.4271
▁contemporary	-10.4276
▁breaking	-10.4281
▁purchase	-10.4283
▁candidates	-10.4288
▁avenue	-10.4288
var	-10.4294
tte	-10.4296
▁peak	-10.4296
▁alexander	-10.43
▁frame	-10.4303
▁client	-10.4305
▁conduct	-10.4311
▁phase	-10.4317
▁sector	-10.4319
▁defined	-10.432
▁selection	-10.4321
▁reaction	-10.4323
ping	-10.4324
water	-10.4332
ium	-10.4334
▁bound	-10.4335
ani	-10.4339
▁studied	-10.4341
▁dust	-10.4342
▁marked	-10.4343
▁weapon	-10.4344
▁spain	-10.4347
▁guns	-10.4353
▁achieve	-10.4354
▁fired	-10.4354
▁corn	-10.4357
cal	-10.436
▁academic	-10.4367
▁feelings	-10.4368
tes	-10.4369
▁tough	-10.4373
▁destroyed	-10.4373
tar	-10.4374
▁premier	-10.4374
▁turkey	-10.4377
▁lunch	-10.4377
ait	-10.4379
cher	-10.4382
▁adam	-10.4385
▁applications	-10.4387
ata	-10.4391
▁vs	-10.4394
▁suffering	-10.4398
▁seriously	-10.44
▁capable	-10.44
▁terrible	-10.4402
▁suppose	-10.4404
▁stands	-10.4408
ン	-10.4409
▁bu	-10.4412
▁waited	-10.4419
ram	-10.4421
ski	-10.4422
▁inner	-10.4423
▁heads	-10.4429
▁stephen	-10.4434
а	-10.4434
▁institutions	-10.4436
▁fought	-10.4436
ban	-10.444
▁criticism	-10.4447
▁soil	-10.4447
mu	-10.4448
▁deeply	-10.4452
▁darkness	-10.4454
▁examples	-10.4459
▁sword	-10.4468
▁glad	-10.4469
▁lawyer	-10.4471
▁juice	-10.4471
▁cha	-10.4478
two	-10.4481
▁pie	-10.4482
▁worried	-10.4482
▁faced	-10.4485
▁index	-10.4485
▁plot	-10.4486
ique	-10.4489
▁dogs	-10.4495
▁diet	-10.4496
▁doors	-10.4505
even	-10.4508
▁writers	-10.4509
▁injury	-10.451
▁zero	-10.4511
▁select	-10.4516
▁busy	-10.4518
▁gate	-10.4529
▁solo	-10.4529
▁wondered	-10.4541
wi	-10.4541
▁starts	-10.4542
▁duke	-10.4544
▁baseball	-10.4544
▁argued	-10.4545
▁simon	-10.4547
▁widely	-10.4549
▁mountains	-10.4553
▁harm	-10.4556
ability	-10.457
▁bigger	-10.4574
▁treated	-10.4574
ino	-10.4587
▁hole	-10.4591
ot	-10.4592
▁wealth	-10.4597
▁identify	-10.4602
your	-10.4606
form	-10.4613
▁fiction	-10.4624
も	-10.4625
▁champion	-10.4628
▁anna	-10.4632
▁positions	-10.4635
▁pic	-10.4641
zu	-10.4641
▁passage	-10.4644
▁markets	-10.4644
▁wi	-10.4644
▁blind	-10.4651
▁missed	-10.4652
▁everybody	-10.4657
▁visual	-10.4661
▁shoulders	-10.4664
▁expensive	-10.4665
▁confidence	-10.4668
▁alongside	-10.467
▁lights	-10.468
▁tomorrow	-10.4683
▁не	-10.4686
▁mirror	-10.469
▁birds	-10.4695
▁ny	-10.4695
▁plain	-10.4696
▁stadium	-10.4696
▁bin	-10.47
▁ideal	-10.4702
ā	-10.4704
▁truck	-10.4704
▁mas	-10.4706
▁approximately	-10.4707
▁schedule	-10.4712
▁external	-10.4713
▁somewhat	-10.4714
▁sha	-10.472
▁regard	-10.4723
▁bien	-10.473
▁error	-10.4732
▁solar	-10.4735
▁drove	-10.4737
▁santa	-10.4738
▁button	-10.4742
▁server	-10.4743
▁latin	-10.4744
ade	-10.4745
▁functions	-10.4746
▁drama	-10.4746
▁crazy	-10.4749
▁origin	-10.4751
▁eine	-10.4766
▁amazing	-10.4773
▁uncle	-10.4774
ii	-10.4775
▁closely	-10.4776
▁tap	-10.4786
▁universal	-10.4788
▁pacific	-10.4793
▁guitar	-10.4794
▁download	-10.4798
▁emotional	-10.48
▁immigration	-10.4801
▁semi	-10.4814
▁interior	-10.4818
▁engineering	-10.4819
▁leads	-10.4824
▁bottle	-10.483
▁alex	-10.4832
▁corporate	-10.4835
»	-10.4843
▁egg	-10.4845
illa	-10.4847
▁fix	-10.4848
▁jr	-10.485
▁shortly	-10.4852
▁olive	-10.4855
ν	-10.4855
▁tone	-10.4856
▁für	-10.4856
▁formal	-10.4858
▁bow	-10.4861
▁settled	-10.4862
▁gaze	-10.4873
▁bond	-10.4876
http	-10.4878
▁files	-10.4891
▁ok	-10.4895
▁pack	-10.4901
▁tests	-10.4904
▁opera	-10.4912
sse	-10.4914
▁promised	-10.4914
▁jersey	-10.4914
▁pale	-10.4915
▁register	-10.4915
sk	-10.4919
low	-10.4921
▁teaspoon	-10.4935
▁legislation	-10.4943
▁attended	-10.4948
▁surrounding	-10.495
▁discussed	-10.495
▁senator	-10.495
▁burn	-10.495
▁selling	-10.4951
table	-10.4952
▁observed	-10.4953
▁zealand	-10.4954
run	-10.4958
▁laugh	-10.4959
five	-10.4965
▁("	-10.4974
▁faster	-10.4976
▁permission	-10.498
▁oxford	-10.4983
")	-10.4984
▁acts	-10.4984
▁anywhere	-10.4986
▁sy	-10.4987
▁belief	-10.499
▁islands	-10.4994
▁alliance	-10.5001
▁conducted	-10.5006
los	-10.5009
▁ryan	-10.5012
▁practices	-10.502
fo	-10.502
▁manage	-10.5022
▁amazon	-10.5027
":	-10.5027
▁entrance	-10.503
▁delivered	-10.5031
cer	-10.5034
▁pilot	-10.5036
▁replace	-10.5042
▁describe	-10.5044
▁spiritual	-10.5045
lar	-10.5045
▁berlin	-10.5045
▁rush	-10.5047
▁wilson	-10.5051
▁combination	-10.5051
room	-10.5054
な	-10.5057
rin	-10.5066
take	-10.507
▁shock	-10.5071
▁motor	-10.5076
▁mixture	-10.5077
▁considering	-10.5081
▁headed	-10.5082
▁vehicles	-10.5088
▁bre	-10.509
▁rural	-10.509
▁democracy	-10.5092
▁heavily	-10.5093
▁smell	-10.5098
▁offensive	-10.5102
▁session	-10.5102
ス	-10.5107
▁cooking	-10.5113
▁twelve	-10.5113
с	-10.5116
ão	-10.5119
▁returning	-10.512
▁proved	-10.512
▁forth	-10.512
▁principle	-10.5121
▁immediate	-10.5121
▁sig	-10.5123
▁recording	-10.5124
▁fifty	-10.5131
▁islamic	-10.5134
▁height	-10.5137
▁transition	-10.514
▁admitted	-10.5145
▁feed	-10.515
▁hay	-10.5152
life	-10.5156
▁experiences	-10.5159
▁reserve	-10.5162
▁appeal	-10.5165
post	-10.5172
▁asian	-10.5172
▁root	-10.518
▁owners	-10.5185
non	-10.5191
ip	-10.5193
sp	-10.5199
▁differences	-10.5202
▁sentence	-10.5205
▁forty	-10.5209
▁liquid	-10.521
ara	-10.521
ball	-10.5213
▁causes	-10.5215
▁breakfast	-10.522
▁listening	-10.5223
▁ray	-10.5224
▁violent	-10.5228
▁paying	-10.5228
▁affected	-10.5229
▁comfortable	-10.5234
▁ap	-10.5234
▁proof	-10.5237
▁taylor	-10.5237
▁toronto	-10.5238
ery	-10.5246
▁corps	-10.5253
pen	-10.5254
▁drinking	-10.5255
▁blow	-10.5259
▁ceo	-10.5264
ли	-10.5268
▁agents	-10.5272
▁entertainment	-10.5274
▁perfectly	-10.5275
stone	-10.5279
▁singer	-10.5283
▁nick	-10.5287
▁opportunities	-10.5288
▁producer	-10.5289
▁ends	-10.5295
▁defence	-10.5298
▁formation	-10.5302
▁gang	-10.5307
▁carbon	-10.5308
▁knife	-10.5309
▁tonight	-10.5311
ide	-10.5312
ray	-10.532
ons	-10.5325
zy	-10.5332
▁dozen	-10.5339
▁gear	-10.534
▁wonderful	-10.5357
▁teachers	-10.536
bre	-10.5372
ón	-10.5377
rie	-10.538
▁flag	-10.5384
▁links	-10.5388
▁mail	-10.5389
▁supporting	-10.5398
▁narrative	-10.5399
▁gap	-10.5403
part	-10.5406
▁ibid	-10.5408
ando	-10.541
▁chocolate	-10.5413
ú	-10.5415
か	-10.5419
я	-10.5421
▁pit	-10.5427
▁shi	-10.5432
▁proud	-10.5433
▁attempts	-10.5434
▁fed	-10.5435
▁formula	-10.5438
▁hunt	-10.544
▁experts	-10.5444
▁hoped	-10.5453
▁eric	-10.5455
ations	-10.5456
tive	-10.5458
▁storage	-10.5468
▁package	-10.547
▁shouldn	-10.5472
▁threw	-10.5474
▁properties	-10.5478
▁conclusion	-10.5479
▁supporters	-10.5483
▁cambridge	-10.5483
▁pm	-10.5485
tur	-10.5493
▁deck	-10.5495
ati	-10.55
▁layer	-10.5503
▁defensive	-10.5504
ric	-10.5513
▁sar	-10.5516
▁emperor	-10.552
▁cry	-10.5526
▁bone	-10.5528
▁stuck	-10.553
fu	-10.5531
▁painting	-10.5537
▁cycle	-10.5538
▁forever	-10.555
▁shell	-10.5551
▁fallen	-10.5551
kar	-10.5558
▁fra	-10.5559
▁stir	-10.556
▁attend	-10.5565
▁opposed	-10.5576
▁rapid	-10.5578
▁lock	-10.5579
▁privacy	-10.558
▁coverage	-10.559
▁jag	-10.5591
▁visible	-10.5594
▁terror	-10.5595
align	-10.5597
▁hung	-10.5598
▁odd	-10.5604
dar	-10.5605
▁shit	-10.5607
his	-10.5607
ira	-10.561
tal	-10.5615
▁seats	-10.5616
▁advertisement	-10.562
bin	-10.5623
ified	-10.5626
▁ri	-10.5626
▁marketing	-10.5637
▁architecture	-10.5638
cat	-10.5639
▁survive	-10.5639
type	-10.5639
án	-10.564
▁arrest	-10.5642
app	-10.5644
▁dedicated	-10.5644
▁gallery	-10.5645
▁yo	-10.5647
▁sus	-10.5648
▁serves	-10.5649
rate	-10.5655
▁extent	-10.5659
▁relationships	-10.566
▁estimated	-10.566
▁tired	-10.5662
▁poetry	-10.5667
▁suspect	-10.5667
▁palm	-10.5669
▁eggs	-10.567
▁mess	-10.5671
▁pink	-10.5673
▁captured	-10.5676
▁organized	-10.5679
▁careful	-10.5681
▁hang	-10.5685
▁customer	-10.5686
▁deliver	-10.5687
▁desert	-10.569
▁aus	-10.5697
die	-10.5698
▁gro	-10.5701
▁lifted	-10.5705
ably	-10.5709
▁enforcement	-10.5709
▁articles	-10.571
▁pace	-10.5711
▁talent	-10.5715
▁mai	-10.5721
bed	-10.5723
▁resolution	-10.5725
▁cutting	-10.5728
▁coat	-10.5731
▁junior	-10.5746
▁trading	-10.575
▁fleet	-10.5753
▁treat	-10.5757
▁wie	-10.5759
▁hoping	-10.576
▁crown	-10.5761
row	-10.5764
▁homes	-10.5765
aba	-10.5771
▁prepare	-10.5774
▁readers	-10.5774
▁tracks	-10.5776
▁ohio	-10.5777
▁dealing	-10.5779
▁tail	-10.5779
▁ger	-10.5779
▁winner	-10.5782
win	-10.5785
▁mini	-10.5787
▁independence	-10.5789
ph	-10.5792
▁imp	-10.5798
game	-10.5798
▁excited	-10.5799
▁guilty	-10.5801
▁horror	-10.5803
▁rent	-10.5811
▁kon	-10.5814
▁contain	-10.5818
▁fundamental	-10.582
▁inspired	-10.5822
uri	-10.5826
▁michigan	-10.5831
▁flowers	-10.5832
▁wore	-10.5833
top	-10.5836
▁holds	-10.584
box	-10.5843
▁divided	-10.5845
▁surely	-10.5845
▁pra	-10.5848
▁switch	-10.5849
▁contest	-10.5849
ato	-10.585
lic	-10.585
▁unfortunately	-10.5854
▁marine	-10.5862
▁earned	-10.5863
▁expansion	-10.5865
▁broadcast	-10.5866
▁critics	-10.587
り	-10.5871
▁affect	-10.5874
▁mistake	-10.5876
ec	-10.5878
▁soldier	-10.5878
▁ken	-10.5884
▁tongue	-10.5885
▁script	-10.5886
▁log	-10.5886
▁repeated	-10.5889
▁begun	-10.589
▁discover	-10.5892
▁grey	-10.5897
▁tied	-10.5899
▁mile	-10.5901
ev	-10.5901
▁consequences	-10.5911
▁campus	-10.5914
mail	-10.5919
▁jail	-10.5922
▁suicide	-10.5929
ü	-10.5934
▁centuries	-10.5935
left	-10.5935
▁vous	-10.5938
▁€	-10.594
▁literary	-10.5942
▁random	-10.5943
▁votes	-10.5943
▁ter	-10.5946
rich	-10.5947
center	-10.595
▁reputation	-10.5952
▁wooden	-10.5954
▁boss	-10.5955
▁sudden	-10.5958
level	-10.5959
▁guest	-10.5959
ica	-10.5967
▁tout	-10.5969
▁capture	-10.5969
▁belt	-10.5976
▁nous	-10.5978
gate	-10.5986
tan	-10.5988
mit	-10.5988
▁scotland	-10.5995
lie	-10.5996
zer	-10.5999
tel	-10.6
▁loud	-10.6
zen	-10.6
▁dutch	-10.6001
ue	-10.6002
▁somebody	-10.6002
▁definition	-10.6017
▁responded	-10.6026
called	-10.6031
key	-10.605
▁mainly	-10.6052
▁sample	-10.6053
▁yesterday	-10.6055
▁aim	-10.6057
し	-10.6058
▁chamber	-10.6067
▁bomb	-10.607
▁sanders	-10.6071
▁scored	-10.6073
▁visited	-10.6075
н	-10.6077
▁brian	-10.6084
▁protein	-10.6085
▁besides	-10.6087
▁exit	-10.6089
▁fer	-10.609
▁minimum	-10.6091
▁davis	-10.6092
▁permanent	-10.6093
▁cups	-10.6095
▁glanced	-10.6099
people	-10.6099
▁relative	-10.61
▁falls	-10.61
world	-10.6102
▁typical	-10.6103
▁tr	-10.6104
▁accident	-10.6105
▁ph	-10.6106
л	-10.6107
▁fur	-10.6109
▁pakistan	-10.6114
▁challenges	-10.612
▁hasn	-10.6123
▁everywhere	-10.6125
▁facilities	-10.6127
▁dressed	-10.613
pin	-10.6135
ell	-10.6135
om	-10.6137
kan	-10.6139
ito	-10.6145
ep	-10.6145
▁neighborhood	-10.6147
▁luck	-10.6151
dr	-10.6155
▁maria	-10.6156
▁shirt	-10.6156
cia	-10.6159
▁personnel	-10.6162
▁convention	-10.6165
put	-10.6169
ration	-10.617
▁bishop	-10.6172
▁ingredients	-10.6174
▁fu	-10.6175
▁matches	-10.618
▁flesh	-10.6186
▁bon	-10.6196
▁heaven	-10.6196
▁hero	-10.62
page	-10.6204
▁alleged	-10.6208
▁principles	-10.6211
▁creek	-10.6212
▁profile	-10.6215
▁format	-10.6215
ong	-10.6217
▁horses	-10.6218
▁ending	-10.6218
▁explore	-10.6222
▁sets	-10.6224
▁occur	-10.6227
ía	-10.6227
▁wars	-10.6229
lock	-10.6234
▁bull	-10.6234
▁meal	-10.6239
й	-10.6239
▁helps	-10.624
foot	-10.6244
▁prefer	-10.6244
▁adopted	-10.6245
▁rough	-10.625
▁protected	-10.6252
▁burning	-10.6252
ula	-10.6253
▁primarily	-10.6253
▁flour	-10.6258
▁warned	-10.6258
▁granted	-10.6259
▁clock	-10.6264
▁infrastructure	-10.6266
▁landscape	-10.627
▁poet	-10.6272
▁proposal	-10.6274
yo	-10.6277
▁deputy	-10.6279
▁squad	-10.6279
bro	-10.6284
▁invited	-10.6291
▁finance	-10.6292
▁techniques	-10.6293
▁paint	-10.6298
▁dragon	-10.6298
▁basketball	-10.6301
▁tie	-10.6305
▁totally	-10.6305
▁whenever	-10.6307
▁mat	-10.6307
▁menu	-10.6308
▁georgia	-10.631
▁expert	-10.631
▁lieutenant	-10.6318
az	-10.6328
▁stores	-10.633
▁blame	-10.6332
▁cabinet	-10.6336
▁stomach	-10.6336
▁miller	-10.634
▁cd	-10.6345
▁alcohol	-10.6347
â	-10.6351
▁comp	-10.6353
▁gathered	-10.6353
ō	-10.6356
▁fe	-10.6356
▁coal	-10.6361
▁egypt	-10.6363
isation	-10.6368
▁pet	-10.6371
()	-10.6371
▁soup	-10.6373
▁wolf	-10.6375
▁engaged	-10.638
▁linked	-10.6381
▁ut	-10.6381
▁experiment	-10.6382
med	-10.6391
▁practical	-10.6397
▁notable	-10.6399
▁receiving	-10.6399
▁lift	-10.64
▁nfl	-10.64
▁bbc	-10.6401
▁elsewhere	-10.6406
sha	-10.641
▁assume	-10.6413
▁wedding	-10.6416
▁roughly	-10.6418
▁rec	-10.6418
making	-10.6421
▁attacked	-10.6429
▁shares	-10.6435
▁lots	-10.6435
▁talks	-10.6437
▁tank	-10.6439
▁enjoyed	-10.644
▁sending	-10.6442
▁bat	-10.6443
▁facility	-10.6455
▁comfort	-10.6456
▁establishment	-10.646
%)	-10.6467
▁dec	-10.6468
▁retired	-10.6468
▁reaching	-10.647
sur	-10.6476
▁exact	-10.6479
▁aspects	-10.6479
▁ears	-10.6482
▁approved	-10.6482
▁prominent	-10.6482
▁representative	-10.6489
because	-10.6494
▁publication	-10.6496
▁inc	-10.6498
▁steam	-10.6499
▁arthur	-10.6502
▁publishing	-10.6502
▁reader	-10.6504
▁korean	-10.6506
list	-10.6506
▁buried	-10.651
▁sheet	-10.6513
▁tape	-10.6514
▁mil	-10.6523
▁decline	-10.6524
▁arrival	-10.6524
▁tag	-10.6525
▁shoot	-10.6527
high	-10.6529
▁fate	-10.653
tin	-10.6536
come	-10.6538
▁rolled	-10.6542
▁stra	-10.6543
▁ru	-10.6545
▁database	-10.6549
“	-10.655
▁dreams	-10.6552
▁mexican	-10.6552
▁sing	-10.6556
▁processes	-10.6556
▁sarah	-10.6563
▁angel	-10.6564
▁saved	-10.6567
▁fairly	-10.6568
▁communications	-10.6569
▁intellectual	-10.6572
▁hills	-10.6577
▁jay	-10.6579
▁gently	-10.6579
▁defend	-10.6581
▁harder	-10.6587
▁mill	-10.6588
▁jordan	-10.6589
chen	-10.6593
▁pc	-10.6593
▁bass	-10.6597
▁settlement	-10.6598
▁%	-10.6599
dia	-10.66
▁label	-10.6602
▁portion	-10.6613
▁injured	-10.6614
▁kick	-10.6623
▁medal	-10.6625
▁newly	-10.6631
▁denied	-10.6632
rick	-10.6634
▁ol	-10.6635
▁anymore	-10.6635
▁rank	-10.6636
▁recognition	-10.6643
▁messages	-10.6644
▁grave	-10.6647
▁arab	-10.6648
▁loose	-10.6649
▁depending	-10.6649
▁electronic	-10.6651
▁lewis	-10.6653
bri	-10.6655
▁pride	-10.6656
▁gotten	-10.6658
ré	-10.6658
▁movies	-10.6658
▁hon	-10.6661
▁pennsylvania	-10.6664
▁crossed	-10.6668
▁driven	-10.6669
▁noble	-10.6669
▁landing	-10.6673
▁bal	-10.6674
и	-10.6678
▁lemon	-10.6679
▁partners	-10.6681
▁della	-10.6685
▁defeated	-10.6687
uff	-10.6688
▁fo	-10.6691
▁sharing	-10.6692
ks	-10.6694
▁mor	-10.6695
▁instant	-10.6696
▁attempted	-10.6703
nan	-10.6704
▁jane	-10.6706
ding	-10.6707
▁oven	-10.6709
▁exposed	-10.6711
\	-10.6713
▁pressed	-10.6721
▁constantly	-10.6727
▁parking	-10.6729
▁filed	-10.6734
▁visitors	-10.6736
▁touched	-10.6737
▁leaned	-10.674
▁bible	-10.6742
▁agencies	-10.6745
▁jeff	-10.6745
eau	-10.6753
▁dc	-10.6753
▁ron	-10.6754
ification	-10.6755
yeah	-10.6756
▁spoken	-10.676
{	-10.6761
▁handed	-10.6761
▁seasons	-10.6763
may	-10.6763
▁doctors	-10.677
▁chopped	-10.6786
▁significantly	-10.6789
inch	-10.6796
mark	-10.6799
▁uma	-10.6799
▁fri	-10.68
ere	-10.6801
▁flash	-10.6805
▁revenue	-10.6807
▁argue	-10.6807
▁properly	-10.6808
▁phil	-10.681
white	-10.6811
▁allies	-10.6811
▁grade	-10.6813
▁facts	-10.6814
▁translation	-10.6815
▁taxes	-10.6816
▁crimes	-10.6817
▁pushing	-10.6819
ero	-10.6822
ily	-10.6824
ea	-10.6828
pan	-10.683
▁destroy	-10.6831
▁uniform	-10.684
▁tony	-10.6846
▁howard	-10.6847
▁è	-10.6849
ва	-10.685
▁regiment	-10.6855
▁awarded	-10.6858
▁moscow	-10.6858
▁ordinary	-10.6863
▁necessarily	-10.6864
▁disaster	-10.6865
ire	-10.6865
▁este	-10.6869
▁fool	-10.6875
▁youtube	-10.6892
▁census	-10.6893
ista	-10.6897
▁returns	-10.6897
▁stable	-10.6898
▁quietly	-10.6899
▁shoes	-10.6902
ens	-10.6902
▁ruling	-10.6904
ned	-10.6908
▁videos	-10.6911
▁detailed	-10.6912
▁lucky	-10.6926
▁equally	-10.6926
▁chemical	-10.6927
▁judgment	-10.6927
▁hal	-10.6929
▁maximum	-10.6932
š	-10.6934
ical	-10.6935
▁dawn	-10.6936
▁emerged	-10.6937
▁essentially	-10.6938
bus	-10.6939
▁profit	-10.6941
▁repeat	-10.6949
▁politician	-10.6949
tv	-10.6949
▁sons	-10.6956
▁locked	-10.6959
will	-10.6961
▁collect	-10.6962
▁friendly	-10.6964
▁fail	-10.6964
▁notion	-10.6966
▁theater	-10.6967
▁discovery	-10.6967
▁hollywood	-10.6968
most	-10.6969
▁lap	-10.6974
cut	-10.6974
▁gene	-10.6979
▁passion	-10.6984
▁journalist	-10.6986
▁blockchain	-10.6987
▁superior	-10.699
gel	-10.6991
▁believes	-10.6992
▁improved	-10.6994
▁voting	-10.6996
▁fault	-10.6999
▁unusual	-10.7
▁cette	-10.7004
mont	-10.7005
mal	-10.7008
▁percentage	-10.7009
cio	-10.7011
▁explanation	-10.7012
▁kong	-10.7014
▁gained	-10.7017
▁francis	-10.7019
▁wheel	-10.7019
▁patterns	-10.702
ua	-10.7021
▁obtained	-10.7022
▁kinds	-10.7023
▁suffer	-10.7024
▁android	-10.7025
log	-10.7032
▁colleagues	-10.7037
▁garlic	-10.7038
pl	-10.7045
▁não	-10.7046
▁output	-10.705
▁import	-10.7052
▁ur	-10.7052
▁deaths	-10.7054
▁fifteen	-10.7055
▁als	-10.7056
▁writes	-10.7056
▁contained	-10.7057
▁gu	-10.7059
▁consumer	-10.7071
▁threatened	-10.7085
▁resort	-10.7087
▁aspect	-10.7088
▁coalition	-10.7091
▁salad	-10.7101
eg	-10.7101
ación	-10.7103
▁effectively	-10.7107
▁mer	-10.711
▁childhood	-10.7114
▁achieved	-10.7117
▁factory	-10.7121
▁scheme	-10.7121
ties	-10.7122
▁admit	-10.7123
ward	-10.7125
pur	-10.7125
▁rail	-10.7132
▁poly	-10.7133
▁convinced	-10.7137
aw	-10.7138
▁remote	-10.7139
▁relevant	-10.714
▁causing	-10.7148
▁ali	-10.7148
▁abandoned	-10.7149
▁assistance	-10.7149
ien	-10.715
▁dish	-10.7151
▁sont	-10.7152
▁authors	-10.7154
▁acid	-10.7161
▁folk	-10.7162
▁adults	-10.7165
▁comic	-10.7168
▁parallel	-10.717
▁attached	-10.7172
▁relation	-10.7175
▁poverty	-10.7176
▁dying	-10.7178
text	-10.7178
yn	-10.7178
▁din	-10.718
▁cake	-10.7183
▁tin	-10.7184
ras	-10.7184
▁teach	-10.7185
mas	-10.7185
è	-10.7188
▁guards	-10.7189
▁collected	-10.7191
ção	-10.7191
▁bedroom	-10.7195
▁„	-10.7197
▁acquired	-10.7198
elli	-10.7203
▁represents	-10.7203
▁bid	-10.7206
▁custom	-10.7209
after	-10.721
▁cro	-10.721
▁participants	-10.7219
yl	-10.7219
▁mag	-10.722
▁circuit	-10.7222
▁hanging	-10.7223
▁ty	-10.7226
▁pounds	-10.7227
▁stupid	-10.7228
▁kelly	-10.7232
▁ward	-10.7233
▁severe	-10.7235
anti	-10.7241
▁communist	-10.725
lich	-10.7255
▁moves	-10.7255
▁requirements	-10.7256
▁founder	-10.7257
▁wales	-10.726
▁skill	-10.7263
▁funny	-10.7267
fl	-10.728
▁technique	-10.7281
very	-10.7282
▁priest	-10.7286
▁parent	-10.729
▁whispered	-10.7291
▁depression	-10.7297
▁enemies	-10.7297
▁controlled	-10.7298
▁reporting	-10.73
▁columbia	-10.7303
▁corporation	-10.731
▁valuable	-10.7313
▁heading	-10.7313
nce	-10.7315
▁attitude	-10.7318
▁rescue	-10.7318
first	-10.732
▁racing	-10.7325
▁stations	-10.7326
▁seeds	-10.7326
▁aux	-10.7331
▁ste	-10.7331
з	-10.7332
fully	-10.7333
▁loan	-10.7334
▁progressive	-10.7334
four	-10.7335
had	-10.7338
▁hong	-10.7343
▁bath	-10.7346
▁afford	-10.7347
known	-10.7348
ル	-10.7352
▁symbol	-10.7354
lon	-10.7355
▁slip	-10.7366
▁craft	-10.7368
▁atmosphere	-10.7372
▁logic	-10.7373
ow	-10.7375
▁ren	-10.7378
▁statements	-10.7379
▁är	-10.7382
▁absence	-10.7387
▁leaf	-10.7388
ama	-10.739
▁buying	-10.7391
nen	-10.7392
▁purposes	-10.7402
▁literally	-10.7404
▁crack	-10.7405
▁ash	-10.7405
ach	-10.7407
▁arch	-10.7407
▁headquarters	-10.7408
▁officially	-10.7409
▁pur	-10.741
nis	-10.741
▁memorial	-10.7413
▁household	-10.7415
▁farmers	-10.7419
about	-10.7421
▁representatives	-10.7423
▁assets	-10.7424
▁potentially	-10.7425
under	-10.7426
▁assumed	-10.7427
▁destruction	-10.7434
▁saudi	-10.7435
「	-10.7439
▁arrive	-10.7439
▁structures	-10.744
▁honest	-10.744
▁updated	-10.7441
▁strip	-10.7446
▁column	-10.7448
▁mood	-10.7449
kh	-10.7451
fall	-10.746
▁sleeping	-10.7462
▁microsoft	-10.7462
▁honey	-10.7465
▁consciousness	-10.7466
▁bike	-10.7468
した	-10.7468
▁approached	-10.7469
▁politicians	-10.747
▁woods	-10.7472
▁islam	-10.7473
▁staring	-10.7473
▁lincoln	-10.7474
▁bgcolor	-10.7475
ral	-10.7475
▁scheduled	-10.7476
▁racial	-10.7478
▁heritage	-10.7479
▁crucial	-10.748
▁wet	-10.7483
▁announcement	-10.7483
▁kennedy	-10.7484
▁naturally	-10.7489
▁bureau	-10.7491
▁movements	-10.7496
▁brings	-10.7497
made	-10.7497
▁crash	-10.75
▁speaker	-10.7501
▁auch	-10.7502
kt	-10.7506
▁item	-10.7508
ena	-10.7509
▁rob	-10.7509
▁ses	-10.7512
▁pad	-10.7514
▁informed	-10.7515
av	-10.7516
tis	-10.7519
▁yu	-10.752
▁powder	-10.7523
have	-10.7523
▁dig	-10.7524
▁establish	-10.7527
▁voted	-10.7527
▁degrees	-10.7528
▁spin	-10.7529
ika	-10.7529
▁array	-10.7532
▁lane	-10.7532
look	-10.7533
▁connect	-10.7536
▁tel	-10.7536
▁virtual	-10.7538
▁philadelphia	-10.7539
▁nest	-10.754
▁memories	-10.754
▁surrounded	-10.7541
▁euro	-10.7544
▁fantasy	-10.7545
▁answers	-10.7547
▁resulting	-10.7554
▁rarely	-10.7562
_**	-10.7565
▁commitment	-10.7567
▁evolution	-10.7568
▁equivalent	-10.7569
▁cried	-10.7573
▁forgotten	-10.758
▁expand	-10.7583
▁reveal	-10.7584
▁clients	-10.7585
▁hy	-10.7588
▁lab	-10.7588
▁investors	-10.7589
▁damn	-10.7591
▁rolling	-10.7598
▁ross	-10.76
int	-10.7604
▁за	-10.7605
▁sounded	-10.7607
cap	-10.7608
▁mere	-10.761
dor	-10.7612
▁occasionally	-10.7612
▁tab	-10.7612
▁grab	-10.7613
▁regularly	-10.7615
▁habit	-10.7615
▁hopes	-10.7619
▁trained	-10.7621
▁asks	-10.7623
▁versions	-10.763
sc	-10.7631
▁mir	-10.7639
ese	-10.7641
▁assessment	-10.7643
▁ongoing	-10.7649
▁audio	-10.7652
▁cho	-10.7655
▁explains	-10.7656
▁hip	-10.7657
▁hu	-10.7658
▁networks	-10.7659
ians	-10.7661
▁languages	-10.7664
eu	-10.7665
▁nach	-10.7669
mes	-10.7682
space	-10.7682
▁enormous	-10.7683
only	-10.7684
▁imperial	-10.7687
▁knees	-10.77
▁personality	-10.7701
▁hockey	-10.7703
pr	-10.7707
▁concluded	-10.7713
▁victoria	-10.7717
related	-10.7718
▁rid	-10.772
▁chin	-10.7722
ob	-10.7722
▁jon	-10.7724
via	-10.7725
▁gut	-10.7731
▁basically	-10.7734
▁dam	-10.7734
gg	-10.7735
▁dick	-10.7739
▁limits	-10.7742
▁philip	-10.7743
▁occasion	-10.7744
▁fait	-10.775
▁cam	-10.7752
▁concrete	-10.7753
▁waves	-10.7758
▁mot	-10.7759
▁approval	-10.7761
▁default	-10.7772
ي	-10.7773
▁statistics	-10.7774
here	-10.7778
▁regions	-10.7778
▁grabbed	-10.7781
▁drag	-10.7782
▁tro	-10.7783
ye	-10.7788
wan	-10.779
▁iv	-10.7792
▁burned	-10.7794
▁bare	-10.7797
▁recipe	-10.7799
▁input	-10.7802
cing	-10.7803
▁у	-10.7804
▁vital	-10.7805
▁glance	-10.7806
gre	-10.7808
▁subsequent	-10.7811
▁pero	-10.7812
▁solutions	-10.7813
▁downtown	-10.7815
▁earn	-10.7815
▁nevertheless	-10.7816
▁deeper	-10.7817
ming	-10.7818
▁wounded	-10.7824
▁stretch	-10.7825
▁ven	-10.783
▁promote	-10.7835
▁jar	-10.7837
▁stronger	-10.7838
▁crossing	-10.7846
▁weekly	-10.7846
aka	-10.7846
dale	-10.7848
▁wise	-10.7849
▁insisted	-10.7849
▁extension	-10.7851
▁marijuana	-10.7858
▁ticket	-10.7859
▁rapidly	-10.786
▁witness	-10.7861
▁load	-10.7863
▁normally	-10.7863
▁framework	-10.7864
=#	-10.7867
ava	-10.787
such	-10.787
▁impressive	-10.7872
▁kiss	-10.7873
▁guests	-10.7873
ice	-10.7877
▁painted	-10.7878
▁kevin	-10.7879
▁rat	-10.7881
san	-10.7883
view	-10.7887
▁pulling	-10.7894
▁thrown	-10.7894
▁subjects	-10.7896
▁cheap	-10.7898
▁char	-10.7902
ale	-10.7902
las	-10.7903
nn	-10.791
▁assigned	-10.7922
hour	-10.7925
х	-10.7925
▁scenes	-10.7926
▁stairs	-10.7926
▁reflect	-10.7935
▁burst	-10.7941
▁towns	-10.7942
▁intense	-10.7944
▁fond	-10.7953
▁strongly	-10.7961
▁anthony	-10.7961
▁engage	-10.7963
▁subsequently	-10.7966
▁photograph	-10.7969
mor	-10.797
▁о	-10.797
▁blocks	-10.7971
▁cm	-10.7978
но	-10.798
▁shopping	-10.7983
▁piano	-10.7985
▁personally	-10.7989
ī	-10.7997
▁hillary	-10.7997
▁slave	-10.7998
vol	-10.8
hy	-10.8002
▁payment	-10.8008
ados	-10.8009
▁hence	-10.801
▁similarly	-10.8012
ces	-10.8013
dra	-10.8013
▁syrian	-10.8014
▁continuing	-10.8017
▁boost	-10.8017
▁ich	-10.8018
▁apparent	-10.8019
▁wings	-10.8026
vert	-10.8027
▁rod	-10.8034
sion	-10.8041
▁demands	-10.8042
▁actress	-10.8042
▁cave	-10.8042
▁math	-10.8043
▁describes	-10.8043
▁tale	-10.8045
▁tablespoons	-10.8045
▁climb	-10.8049
▁bunch	-10.805
▁yeah	-10.8057
▁disappeared	-10.8057
py	-10.8061
cur	-10.8062
▁closing	-10.8063
▁technologies	-10.8064
▁sta	-10.8069
shi	-10.8079
▁comparison	-10.8083
▁ultimate	-10.8084
▁symptoms	-10.8088
▁naval	-10.8089
▁creature	-10.8089
▁components	-10.809
▁loop	-10.8091
▁employment	-10.8091
▁cuts	-10.8091
▁gross	-10.8092
ib	-10.8092
▁divine	-10.8094
▁sequence	-10.8095
▁ought	-10.8096
▁bis	-10.8096
ple	-10.8097
].	-10.8098
▁charlie	-10.8103
▁comedy	-10.8106
▁depth	-10.8107
ich	-10.8109
▁allen	-10.8111
▁pitch	-10.8112
▁absolute	-10.8114
▁oak	-10.8118
▁**_	-10.812
▁kor	-10.8123
▁bones	-10.8123
▁developers	-10.8125
▁whereas	-10.8125
▁rejected	-10.8128
hen	-10.8131
▁pope	-10.8132
ches	-10.8133
▁princess	-10.8135
▁poem	-10.8137
▁mod	-10.8146
od	-10.8149
▁carl	-10.8154
▁mp	-10.8154
▁secondary	-10.8158
▁phrase	-10.8159
▁reporter	-10.8161
▁jam	-10.8161
▁transportation	-10.8163
gle	-10.8165
pu	-10.8167
▁anne	-10.8171
hey	-10.8172
▁meetings	-10.8172
▁distant	-10.8174
▁knight	-10.8176
▁exposure	-10.8178
▁fewer	-10.8182
▁genetic	-10.8185
▁!	-10.8186
▁od	-10.819
▁gathering	-10.8192
cht	-10.8196
nia	-10.8203
aire	-10.8204
▁mont	-10.8204
▁dna	-10.8206
hn	-10.8207
▁hi	-10.8208
▁bars	-10.8212
▁battery	-10.8212
▁moore	-10.8213
▁mono	-10.8216
mr	-10.8217
ö	-10.8217
▁nervous	-10.8218
twitter	-10.822
▁topic	-10.8222
▁yard	-10.8223
▁bc	-10.8224
br	-10.8229
▁kings	-10.8229
▁ski	-10.823
▁reporters	-10.8232
▁holiday	-10.8238
ay	-10.8239
▁ky	-10.8239
▁regulations	-10.8242
▁composed	-10.8242
ê	-10.8244
▁riding	-10.8245
▁ambassador	-10.8245
▁wisdom	-10.8246
▁contra	-10.825
▁polish	-10.8251
path	-10.8251
ima	-10.8252
▁leather	-10.8253
ets	-10.8258
▁concert	-10.8258
▁strategic	-10.8264
ы	-10.8267
▁colonel	-10.8268
rá	-10.8268
▁locations	-10.827
▁theme	-10.827
▁oct	-10.827
▁voices	-10.8275
▁publicly	-10.8277
▁raising	-10.8279
▁competitive	-10.8281
▁lin	-10.8285
▁walter	-10.8286
mel	-10.8286
osa	-10.8289
ı	-10.829
stra	-10.8291
▁angle	-10.8305
▁recommend	-10.8309
▁impression	-10.8313
play	-10.8314
▁fake	-10.8318
▁atlantic	-10.832
▁trick	-10.8323
has	-10.8324
▁thread	-10.8327
в	-10.8327
▁harris	-10.8327
ndo	-10.8328
dic	-10.8329
▁shore	-10.8329
▁letting	-10.8331
lor	-10.8332
▁passes	-10.8335
km	-10.8339
hol	-10.8347
▁demanded	-10.8352
▁clothing	-10.8355
sie	-10.8359
的	-10.836
▁injuries	-10.8361
▁reply	-10.8362
▁wy	-10.8363
▁weird	-10.8365
god	-10.8367
▁fuck	-10.8378
aria	-10.8379
ora	-10.838
▁colorado	-10.838
▁guardian	-10.8387
▁exception	-10.8395
▁drivers	-10.8397
▁innocent	-10.8398
▁successfully	-10.84
▁unlikely	-10.8403
▁baking	-10.8405
ston	-10.8406
▁warren	-10.8406
bat	-10.8409
▁mall	-10.8413
▁marks	-10.8415
▁hook	-10.8424
▁shake	-10.8425
▁poland	-10.8428
▁breast	-10.8432
▁regardless	-10.8432
ser	-10.8435
▁consistent	-10.8435
▁amendment	-10.8439
any	-10.844
▁rally	-10.8441
scale	-10.8443
▁inches	-10.8447
▁summit	-10.8448
eb	-10.8457
ille	-10.8458
▁walker	-10.8458
▁covering	-10.8458
▁crystal	-10.8459
▁bathroom	-10.8462
▁scottish	-10.8466
▁wound	-10.8466
▁coin	-10.8467
▁ces	-10.8467
▁roads	-10.8468
ments	-10.8469
▁wire	-10.8475
▁bru	-10.8485
▁foods	-10.8485
▁exists	-10.8485
▁pri	-10.8489
nal	-10.8493
▁sk	-10.8494
▁commonly	-10.8498
act	-10.8498
!”	-10.8499
▁interface	-10.8499
▁dave	-10.85
▁arguments	-10.8501
▁mate	-10.8507
▁engineer	-10.8508
▁entering	-10.8508
▁brazil	-10.8509
▁arizona	-10.852
▁declined	-10.852
cast	-10.8521
▁ukraine	-10.8523
▁gods	-10.8526
▁registered	-10.8527
▁über	-10.8527
▁trend	-10.8529
▁instructions	-10.8538
tus	-10.8538
▁lip	-10.8539
▁morgan	-10.8541
▁socialist	-10.8544
▁sang	-10.855
▁contributed	-10.8554
▁license	-10.8555
▁programming	-10.8561
▁reg	-10.8562
▁jacket	-10.8563
▁supplies	-10.8563
▁birthday	-10.8564
master	-10.8572
▁collective	-10.8572
▁fig	-10.8572
▁encounter	-10.8572
▁solve	-10.8574
▁pleased	-10.8578
▁flood	-10.8579
▁involving	-10.8579
ć	-10.858
▁même	-10.8581
ions	-10.8581
▁complicated	-10.8581
▁choices	-10.8582
▁institution	-10.8583
ér	-10.8585
▁anxiety	-10.8585
lay	-10.8586
sis	-10.859
▁fame	-10.8591
▁hunter	-10.8591
▁elite	-10.8594
human	-10.8595
pers	-10.86
▁counsel	-10.86
▁esta	-10.8601
▁awareness	-10.8604
▁reportedly	-10.8605
▁sydney	-10.8606
▁mel	-10.8614
?_	-10.8615
▁recovery	-10.8617
▁//	-10.8618
#	-10.8623
▁hired	-10.8625
д	-10.8625
▁offense	-10.8625
ans	-10.8626
ш	-10.863
▁afghanistan	-10.8631
▁cable	-10.8631
▁vietnam	-10.8633
▁combine	-10.8633
▁upset	-10.8634
ali	-10.8638
о	-10.864
▁sake	-10.8646
tr	-10.8647
▁maintained	-10.8649
▁classical	-10.865
▁spell	-10.8655
▁invasion	-10.8656
▁extensive	-10.8657
▁reviews	-10.8658
▁consumers	-10.8661
▁ease	-10.8663
▁singing	-10.8665
▁regarded	-10.867
▁pal	-10.8677
▁clinical	-10.8677
▁sixth	-10.8679
▁recommended	-10.8679
▁bent	-10.8683
▁ignore	-10.8683
▁reasonable	-10.8683
▁liberty	-10.8686
▁hyper	-10.8688
▁titles	-10.8691
▁encourage	-10.8695
▁indicated	-10.8706
▁colors	-10.8708
▁mystery	-10.8709
▁emotions	-10.8711
▁execution	-10.8712
▁houston	-10.8715
▁prisoners	-10.8716
▁imagination	-10.8717
▁patrick	-10.8718
ute	-10.872
τ	-10.8721
▁shouted	-10.8721
▁lang	-10.8723
▁gop	-10.8726
tter	-10.8731
tell	-10.8731
▁machines	-10.8732
maybe	-10.8733
▁wo	-10.8734
▁repeatedly	-10.8741
▁listing	-10.8743
▁domain	-10.8745
▁anybody	-10.8756
▁mud	-10.8756
▁ros	-10.8757
▁golf	-10.8761
▁moreover	-10.8765
▁clubs	-10.8766
▁grounds	-10.8768
jan	-10.8771
▁purchased	-10.8781
▁agenda	-10.8783
▁worldwide	-10.8784
▁massachusetts	-10.8784
▁organic	-10.8784
▁briefly	-10.8786
oo	-10.879
fish	-10.8795
د	-10.8797
▁gran	-10.8798
▁dynamic	-10.8798
▁rev	-10.8799
▁component	-10.88
news	-10.8801
far	-10.8801
rp	-10.8803
burn	-10.8804
▁inte	-10.8806
▁reception	-10.8808
▁abortion	-10.8808
▁dramatic	-10.8809
▁ghost	-10.8809
ska	-10.8812
▁fee	-10.8819
▁roles	-10.8821
bal	-10.8821
▁flavor	-10.8822
ett	-10.8822
▁immigrants	-10.8824
▁fabric	-10.8824
▁jason	-10.8827
▁aunt	-10.8843
▁fc	-10.8843
▁prayer	-10.8844
▁promotion	-10.8847
▁telephone	-10.8847
▁quest	-10.8848
▁ye	-10.8849
▁sim	-10.885
▁breathing	-10.8852
▁knee	-10.8855
▁arena	-10.8855
▁ignored	-10.8857
▁lands	-10.8858
▁currency	-10.8862
▁bol	-10.8865
▁objective	-10.8867
din	-10.8868
▁thinks	-10.8871
west	-10.8871
▁indicate	-10.8871
▁psychological	-10.8872
cent	-10.8878
▁initiative	-10.8884
▁twin	-10.8888
black	-10.8892
к	-10.8895
▁romantic	-10.8906
▁intent	-10.8907
▁oz	-10.8907
▁resulted	-10.8909
▁intention	-10.8911
▁grip	-10.8911
▁dass	-10.8911
▁ruled	-10.8917
sure	-10.8919
three	-10.892
▁©	-10.8926
▁constructed	-10.8927
▁colour	-10.8932
▁muscle	-10.8937
▁containing	-10.8942
eh	-10.8944
▁sufficient	-10.8946
人	-10.8948
▁occupied	-10.8952
mus	-10.8959
▁roots	-10.896
▁pod	-10.8967
▁threats	-10.8973
▁championships	-10.8974
aa	-10.898
▁increases	-10.8984
▁contribute	-10.8984
ende	-10.8984
▁dim	-10.8987
▁visiting	-10.899
く	-10.899
ture	-10.8992
ς	-10.8993
▁precisely	-10.8993
▁ratio	-10.8997
▁programme	-10.8997
▁featuring	-10.9
▁obtain	-10.9001
▁advertising	-10.9001
▁compete	-10.9002
る	-10.9004
た	-10.9005
▁accurate	-10.9006
▁shield	-10.9009
▁_"	-10.9013
ala	-10.9018
ever	-10.9022
▁legacy	-10.9023
▁humanity	-10.9023
▁recall	-10.9028
▁earl	-10.9029
rum	-10.9029
▁operate	-10.9029
▁anderson	-10.9034
▁spokesman	-10.9035
▁chat	-10.9036
▁partnership	-10.9037
▁resource	-10.9043
▁gonna	-10.9044
dom	-10.9045
▁kra	-10.9048
▁distinct	-10.9051
▁bug	-10.9052
bert	-10.9053
▁restaurants	-10.9054
▁participate	-10.9062
kov	-10.9068
▁employed	-10.907
▁scope	-10.9073
λ	-10.9074
▁seed	-10.9074
▁hunting	-10.9078
ering	-10.9081
▁vie	-10.9087
▁expanded	-10.9087
▁signing	-10.9091
ious	-10.9091
yan	-10.9092
▁reign	-10.9094
▁protests	-10.9105
amente	-10.9105
▁infantry	-10.9107
▁alan	-10.9113
▁quoted	-10.9121
▁staying	-10.9124
▁prospect	-10.913
▁sciences	-10.913
▁performing	-10.9131
▁reduction	-10.9134
▁outcome	-10.9134
▁behaviour	-10.9134
▁ei	-10.9134
▁difficulty	-10.9136
bound	-10.9138
▁suspected	-10.9142
▁wrapped	-10.9148
▁jumped	-10.9149
▁stack	-10.9152
▁minnesota	-10.9158
▁terrorist	-10.9159
▁tested	-10.916
▁citizen	-10.9164
ux	-10.9166
▁surgery	-10.9168
figure	-10.9169
▁delivery	-10.917
gri	-10.9175
▁shame	-10.9184
▁vegetables	-10.9191
▁cow	-10.9195
ef	-10.9203
▁possession	-10.9207
▁fl	-10.9207
▁educational	-10.921
▁vulnerable	-10.9215
▁cer	-10.9219
▁metro	-10.922
ر	-10.9224
▁friendship	-10.9226
▁dried	-10.923
▁naked	-10.9235
place	-10.9242
▁trace	-10.9245
▁steady	-10.9249
▁harvard	-10.925
▁rival	-10.925
▁swing	-10.9251
▁survival	-10.9256
▁foster	-10.9256
▁finds	-10.9257
▁ceiling	-10.9259
▁wins	-10.9259
て	-10.9259
▁brave	-10.9263
▁respectively	-10.9263
▁aimed	-10.9263
boy	-10.9265
gon	-10.9266
▁jerusalem	-10.9275
та	-10.9279
▁cia	-10.928
▁lean	-10.9282
▁worker	-10.9282
▁sessions	-10.9287
▁actors	-10.9295
▁temporary	-10.9296
▁connections	-10.9297
ching	-10.9299
ل	-10.9299
▁revolutionary	-10.9304
▁legend	-10.9305
▁inform	-10.9307
hal	-10.9312
▁champions	-10.9315
▁delay	-10.9319
▁patrol	-10.9319
▁patch	-10.9319
▁bri	-10.932
▁mask	-10.932
▁constitutional	-10.9322
▁tender	-10.9324
tom	-10.9326
▁governments	-10.9329
ui	-10.933
cus	-10.933
▁goods	-10.9333
▁neo	-10.9333
▁compare	-10.9333
▁accompanied	-10.9339
▁sobre	-10.9342
▁affair	-10.9344
ه	-10.9347
▁mars	-10.9349
▁soccer	-10.935
▁appreciate	-10.935
▁producing	-10.9352
▁turkish	-10.9356
||	-10.9357
▁punishment	-10.9358
▁smiling	-10.9362
▁illinois	-10.9363
▁jacob	-10.9367
map	-10.9368
▁frozen	-10.937
▁adventure	-10.9372
▁muslims	-10.9372
▁allegations	-10.9373
▁albert	-10.9377
▁clark	-10.9377
▁exciting	-10.9379
▁tweet	-10.9385
▁def	-10.9385
▁bench	-10.9389
▁devil	-10.939
▁implementation	-10.9391
▁een	-10.9392
gal	-10.9393
▁sh	-10.9394
▁occurs	-10.9394
▁employee	-10.9396
▁situations	-10.9399
▁paused	-10.9399
▁therapy	-10.9401
pping	-10.9404
▁posts	-10.9406
▁ps	-10.9407
▁hub	-10.941
▁confused	-10.9411
▁democrat	-10.9411
▁kit	-10.9413
▁fighter	-10.9413
▁enable	-10.9415
rah	-10.9416
σ	-10.9421
▁opponent	-10.9421
▁cop	-10.9422
eo	-10.9426
▁gradually	-10.9427
▁contents	-10.9428
▁gra	-10.9429
▁villa	-10.9433
cor	-10.9436
▁wondering	-10.9436
▁survived	-10.9437
▁settle	-10.9438
value	-10.9439
▁blade	-10.9442
sson	-10.9443
▁consists	-10.9444
▁lovely	-10.9447
ify	-10.9449
gra	-10.9452
▁dates	-10.9458
looking	-10.946
ais	-10.9462
▁warrant	-10.9465
▁controversial	-10.9465
ente	-10.9469
▁curious	-10.9469
burg	-10.947
▁battalion	-10.9471
chapter	-10.9473
iva	-10.9478
▁helpful	-10.9481
▁covers	-10.9482
▁roger	-10.9482
▁så	-10.9484
▁douglas	-10.9485
leg	-10.9486
▁collapse	-10.9487
م	-10.9488
▁install	-10.949
▁activists	-10.949
▁routine	-10.9494
▁define	-10.9496
ware	-10.9497
▁ent	-10.95
rk	-10.9501
▁tent	-10.9503
▁laughing	-10.9505
stein	-10.9509
▁mur	-10.9511
▁luke	-10.9511
▁slipped	-10.9512
▁sacred	-10.9513
ти	-10.9516
▁alien	-10.9519
▁folks	-10.9523
nik	-10.9527
▁ages	-10.9528
▁risks	-10.953
▁recalled	-10.9532
▁myth	-10.9532
▁cannabis	-10.9533
▁cape	-10.9535
▁retirement	-10.954
open	-10.954
▁cas	-10.9544
nk	-10.9544
▁kam	-10.9545
gun	-10.9545
tru	-10.9546
▁barn	-10.9549
oli	-10.955
▁confident	-10.955
▁gre	-10.955
▁seattle	-10.9551
▁jazz	-10.9554
kel	-10.9555
▁findings	-10.9555
▁processing	-10.9558
▁handful	-10.956
▁panic	-10.956
▁wished	-10.9565
shire	-10.9571
▁considerable	-10.9576
rus	-10.9582
lig	-10.9582
▁joining	-10.9583
▁flower	-10.9586
▁happiness	-10.9588
▁striking	-10.9591
▁silk	-10.9594
lam	-10.9595
▁hardware	-10.9595
▁trigger	-10.9598
aux	-10.9598
▁rape	-10.9598
idad	-10.9598
▁shots	-10.9599
▁rick	-10.96
▁behalf	-10.9601
・	-10.9601
▁cart	-10.9604
▁bla	-10.9606
▁treaty	-10.9607
vid	-10.9608
▁tries	-10.9609
▁races	-10.9615
▁interpretation	-10.9615
▁tele	-10.962
▁cord	-10.9621
▁badly	-10.9623
▁confusion	-10.9623
stop	-10.9626
▁ridge	-10.9628
▁distributed	-10.9629
▁shrugged	-10.963
olo	-10.9631
html	-10.9633
ual	-10.9633
▁targets	-10.9635
▁dirty	-10.9636
ges	-10.964
▁ال	-10.9641
▁ceremony	-10.9643
▁zo	-10.9644
▁copies	-10.9646
▁kin	-10.9647
▁colonial	-10.9653
▁rating	-10.9661
▁greece	-10.9664
oz	-10.9665
▁encouraged	-10.9667
ub	-10.9667
▁automatically	-10.9667
link	-10.9669
▁mainstream	-10.967
▁th	-10.9671
▁grateful	-10.9672
▁electricity	-10.9675
lia	-10.9675
▁susan	-10.9677
▁landed	-10.9678
▁incredible	-10.9678
▁searching	-10.968
▁fence	-10.9682
▁administrative	-10.9682
▁sheriff	-10.9682
▁ann	-10.9685
ants	-10.9689
▁kom	-10.9691
▁monitor	-10.9694
▁worship	-10.9696
▁gal	-10.9696
▁fred	-10.97
▁gordon	-10.97
▁representation	-10.9703
▁underground	-10.9703
▁flew	-10.9706
▁sisters	-10.9707
▁rocks	-10.9709
▁luc	-10.9718
▁sans	-10.9719
▁beef	-10.972
▁losses	-10.9721
cl	-10.9722
▁operated	-10.9722
ю	-10.9723
▁wage	-10.9724
▁nurse	-10.9724
▁emphasis	-10.9729
▁filling	-10.9731
▁fishing	-10.9733
▁bloody	-10.974
▁manchester	-10.9742
▁carter	-10.9742
▁dal	-10.9742
▁pointing	-10.9742
▁illness	-10.9746
▁persons	-10.9747
▁appearances	-10.9748
▁regret	-10.9756
och	-10.9758
▁pr	-10.976
nic	-10.9763
▁rational	-10.9765
▁monster	-10.9766
▁beliefs	-10.9768
▁distinction	-10.9768
mat	-10.9775
▁frequent	-10.9779
▁jury	-10.9782
▁preferred	-10.9782
▁keen	-10.9784
▁horn	-10.9785
▁transform	-10.9786
▁dun	-10.9787
▁confirm	-10.979
▁mining	-10.9794
▁stones	-10.9794
▁opponents	-10.9795
▁margaret	-10.9799
yard	-10.9803
these	-10.9804
▁ties	-10.9804
including	-10.9805
oon	-10.9806
▁terminal	-10.9806
▁organ	-10.9807
round	-10.9808
▁mm	-10.9812
▁virus	-10.9814
▁publisher	-10.982
press	-10.982
ø	-10.9824
▁beans	-10.9825
▁minority	-10.9828
▁bitter	-10.9828
▁extraordinary	-10.983
▁transferred	-10.9835
▁consumption	-10.9838
▁reminded	-10.9838
▁chase	-10.9839
▁episodes	-10.9839
▁claiming	-10.9841
▁shadows	-10.9842
▁burden	-10.9842
say	-10.9846
▁sensitive	-10.985
▁offices	-10.9855
▁graduate	-10.9855
å	-10.9856
▁installed	-10.986
▁wisconsin	-10.986
▁orchestra	-10.9866
▁marry	-10.9867
▁franchise	-10.9867
▁implement	-10.9868
▁scandal	-10.9869
▁span	-10.987
fin	-10.9873
▁corruption	-10.9874
у	-10.9875
▁boot	-10.9876
▁blast	-10.9878
▁wil	-10.9878
▁psychology	-10.988
▁khan	-10.988
▁dollar	-10.988
▁amid	-10.9881
▁gil	-10.9881
▁transformation	-10.9882
▁fortune	-10.9883
▁courts	-10.9883
▁pol	-10.9885
▁passengers	-10.9892
▁flu	-10.9893
ą	-10.9895
face	-10.9896
▁egyptian	-10.9896
▁tips	-10.9899
hood	-10.9899
▁hitler	-10.9902
▁detroit	-10.9904
▁cited	-10.9909
▁grim	-10.991
▁mé	-10.9913
▁waters	-10.9913
file	-10.9914
▁depends	-10.9918
media	-10.9921
▁addressed	-10.9932
fr	-10.9932
▁cousin	-10.9932
▁entitled	-10.9933
sey	-10.9934
▁apps	-10.9934
inter	-10.994
▁extract	-10.9944
ч	-10.995
▁font	-10.9955
▁chef	-10.9959
▁gates	-10.9959
▁fal	-10.9959
▁surprising	-10.996
▁matthew	-10.9961
▁tur	-10.9962
▁studying	-10.9964
▁browser	-10.9968
▁rifle	-10.9971
▁engagement	-10.9973
▁translated	-10.9976
ona	-10.9983
▁agriculture	-10.9984
▁olympic	-10.9985
▁å	-10.9986
▁dirt	-10.9987
▁tunnel	-10.9993
▁lawyers	-10.9994
▁throne	-10.9994
▁oregon	-10.9996
tie	-10.9997
test	-11.0001
▁cnn	-11.0002
▁pine	-11.0004
▁creatures	-11.0006
▁kate	-11.0008
▁shelter	-11.001
sized	-11.0012
<	-11.0013
▁mum	-11.0017
▁gentle	-11.0017
▁promoted	-11.0018
▁shaking	-11.0019
oma	-11.0021
ei	-11.0024
▁alert	-11.0026
▁disorder	-11.0027
lle	-11.003
▁brilliant	-11.003
▁billy	-11.0032
▁loading	-11.0032
ο	-11.0034
▁aber	-11.0035
▁joke	-11.0042
dal	-11.0044
▁branches	-11.0046
▁jaw	-11.0047
lot	-11.0048
▁steep	-11.005
▁samuel	-11.0052
▁desperate	-11.0054
hard	-11.0054
hin	-11.0062
rat	-11.0062
▁esp	-11.0064
▁aggressive	-11.0065
ни	-11.0065
▁disney	-11.0066
▁alt	-11.0068
▁legislative	-11.0069
lit	-11.007
▁generate	-11.0072
▁prop	-11.0075
ened	-11.0076
ters	-11.0077
ening	-11.0077
▁attractive	-11.0078
▁artificial	-11.0079
pet	-11.0079
▁drunk	-11.0083
▁dit	-11.0084
▁hits	-11.0088
minute	-11.0089
▁sections	-11.0089
▁eve	-11.009
▁expectations	-11.0093
▁vo	-11.01
▁gather	-11.01
▁cheek	-11.0102
▁bruce	-11.0104
▁nie	-11.0106
▁buck	-11.0107
▁commit	-11.0109
tag	-11.011
ла	-11.0111
▁jet	-11.0112
ère	-11.0112
▁py	-11.0112
▁miami	-11.0113
▁composition	-11.0114
▁congressional	-11.0116
▁hamilton	-11.0117
ρ	-11.012
▁tension	-11.012
▁refers	-11.0121
▁leur	-11.0128
▁departure	-11.0129
▁explosion	-11.0132
▁rage	-11.0134
▁efficient	-11.0134
▁arranged	-11.0135
▁existed	-11.0138
▁wanting	-11.014
▁checked	-11.0147
pot	-11.0148
▁virgin	-11.0155
▁snap	-11.0156
▁keeps	-11.0156
uv	-11.0157
▁cloth	-11.0158
▁township	-11.0161
イ	-11.0163
▁ethnic	-11.0167
▁]	-11.0171
ssa	-11.0172
iness	-11.0174
▁gr	-11.0177
ae	-11.0181
▁ml	-11.0182
thank	-11.0186
▁console	-11.019
▁scholars	-11.0191
▁squadron	-11.0191
да	-11.0193
▁scholarship	-11.0194
▁listened	-11.0195
▁retail	-11.0198
▁dozens	-11.0201
▁cabin	-11.0202
ico	-11.0205
ew	-11.0206
▁rag	-11.0207
▁sind	-11.0208
▁albums	-11.0216
▁pub	-11.0219
▁hammer	-11.0221
▁struggling	-11.0223
▁manufacturing	-11.0225
▁extend	-11.0226
▁sec	-11.0227
▁imagined	-11.0229
▁remarkable	-11.0231
▁vis	-11.0232
▁variable	-11.0232
▁tickets	-11.0233
や	-11.0235
▁fucking	-11.0237
▁courage	-11.0245
▁minds	-11.025
▁amounts	-11.0251
▁concerning	-11.0252
▁involves	-11.0253
▁oldest	-11.0258
▁partly	-11.0258
▁fraud	-11.0259
▁dock	-11.0259
▁iowa	-11.0259
▁throwing	-11.0261
▁edit	-11.0263
▁surveillance	-11.0263
▁generated	-11.0264
▁baker	-11.0264
▁nowhere	-11.0267
▁christians	-11.0268
▁convert	-11.0268
▁backed	-11.0269
ele	-11.0273
▁railroad	-11.0276
▁dire	-11.0277
▁nov	-11.0284
▁canal	-11.0286
▁conventional	-11.0286
▁presentation	-11.0287
▁corridor	-11.0288
▁maps	-11.0289
band	-11.0292
▁fees	-11.0294
"—	-11.0294
▁graham	-11.0295
mis	-11.0298
▁bun	-11.0302
▁jimmy	-11.0303
▁dialogue	-11.0303
▁vocals	-11.0303
xi	-11.0305
▁wir	-11.0307
▁occupation	-11.0308
▁trap	-11.0308
▁horizon	-11.0311
▁lid	-11.0313
sar	-11.0318
miss	-11.032
▁negotiations	-11.032
▁brick	-11.0322
する	-11.0322
▁medieval	-11.0324
▁grid	-11.0325
▁adds	-11.0329
▁globe	-11.0336
▁journalists	-11.0337
vers	-11.0338
away	-11.0338
▁passenger	-11.034
▁stan	-11.034
▁wider	-11.0342
▁cinema	-11.0343
▁pursue	-11.0344
▁separated	-11.0345
▁dean	-11.0346
те	-11.0346
care	-11.0348
▁dating	-11.0356
▁eleven	-11.0357
cker	-11.0358
▁exclusive	-11.0359
▁referring	-11.036
nar	-11.036
▁allegedly	-11.0361
一	-11.0364
▁wash	-11.0364
action	-11.0366
zz	-11.0371
rn	-11.0374
▁cab	-11.0375
▁lawrence	-11.0376
uring	-11.0377
▁proven	-11.0377
onic	-11.0378
き	-11.0379
▁arc	-11.0381
uc	-11.0386
年	-11.0389
rock	-11.0389
▁substantial	-11.0392
tta	-11.0394
▁cole	-11.0396
▁sighed	-11.0399
▁texts	-11.0399
▁diverse	-11.04
bur	-11.04
tum	-11.0402
issa	-11.0403
μ	-11.0404
▁gan	-11.0406
▁beating	-11.0408
▁viewed	-11.0411
▁preparing	-11.0411
▁representing	-11.0412
▁virtually	-11.0414
▁taxi	-11.0423
▁innovation	-11.0427
▁tasks	-11.0428
ami	-11.0429
▁strategies	-11.0429
▁bills	-11.0432
▁fla	-11.0433
▁edited	-11.0434
▁diego	-11.0441
▁involvement	-11.0444
▁tear	-11.045
▁hiding	-11.0452
ло	-11.0455
▁pause	-11.0457
▁transit	-11.0464
▁welfare	-11.0466
met	-11.0466
▁cleared	-11.0468
▁antonio	-11.047
▁olympics	-11.047
▁jonathan	-11.0473
▁physics	-11.0473
▁brigade	-11.0476
try	-11.0477
▁alice	-11.0477
▁harbor	-11.0478
▁verb	-11.0479
sia	-11.0479
▁praise	-11.048
▁celebrate	-11.0481
ع	-11.0483
▁ji	-11.0484
▁а	-11.0485
▁packed	-11.0486
▁printed	-11.0486
▁onion	-11.0487
▁sept	-11.0488
hall	-11.0489
▁abc	-11.0489
から	-11.0489
ld	-11.0491
worth	-11.0492
▁invest	-11.0493
rid	-11.0495
▁residence	-11.0495
▁bor	-11.0502
▁permit	-11.0509
▁coup	-11.0511
▁essay	-11.0511
▁poems	-11.0518
▁procedure	-11.0519
▁replacement	-11.0522
ро	-11.0522
▁scared	-11.0524
▁managing	-11.0525
▁indigenous	-11.0525
▁adams	-11.0526
size	-11.0535
▁rode	-11.0536
▁cooked	-11.0537
qu	-11.0544
▁payments	-11.0544
▁preserve	-11.0545
▁associate	-11.0547
▁theories	-11.0548
▁tables	-11.0552
ert	-11.0553
▁suite	-11.0553
▁casa	-11.0555
▁bel	-11.0557
▁bold	-11.0557
▁agricultural	-11.0559
γ	-11.056
real	-11.0566
qua	-11.0566
æ	-11.0567
▁biological	-11.0571
general	-11.0572
▁dancing	-11.0575
▁reflected	-11.0577
▁documentary	-11.0578
▁significance	-11.0578
▁lamb	-11.0583
▁hart	-11.0584
▁inspiration	-11.0585
gh	-11.0586
▁enterprise	-11.0587
lis	-11.0588
▁parte	-11.059
▁pleasant	-11.0591
▁reverse	-11.0592
col	-11.0595
▁rugby	-11.0596
ę	-11.0598
▁sau	-11.0599
▁cricket	-11.0602
▁feedback	-11.0604
ered	-11.0606
ther	-11.0607
▁lawsuit	-11.0607
▁slaves	-11.0613
▁cf	-11.0614
dos	-11.062
▁repair	-11.0622
▁settings	-11.0625
gas	-11.0626
▁failing	-11.0631
▁marc	-11.0631
vor	-11.0632
lio	-11.0633
ello	-11.0635
▁dough	-11.0635
east	-11.0639
fire	-11.0639
▁hor	-11.064
▁examine	-11.0643
▁resident	-11.0643
▁lifetime	-11.0646
▁chances	-11.0647
▁ladies	-11.0647
ação	-11.065
▁resist	-11.0652
ase	-11.0653
▁purple	-11.0654
▁priority	-11.0657
▁juan	-11.0658
ising	-11.0658
▁cruz	-11.0663
▁beast	-11.0666
▁keys	-11.0667
▁russell	-11.0668
▁christopher	-11.0671
▁alle	-11.0672
χ	-11.0672
▁generations	-11.0674
▁nazi	-11.0674
▁ontario	-11.0675
▁kansas	-11.0677
nc	-11.0678
▁membership	-11.0679
ean	-11.0679
▁assist	-11.068
▁veteran	-11.0681
▁alarm	-11.0683
▁biography	-11.0687
▁climbed	-11.0687
▁lightly	-11.0689
ió	-11.0689
eth	-11.0692
rt	-11.0695
▁qua	-11.0698
▁succeeded	-11.07
▁gulf	-11.0702
▁crying	-11.0704
▁dallas	-11.0704
▁grandfather	-11.0705
▁developer	-11.0706
▁parish	-11.0706
▁funeral	-11.0713
▁wal	-11.0714
rio	-11.0715
▁slight	-11.0716
▁stolen	-11.0718
▁roosevelt	-11.0725
home	-11.0726
▁sole	-11.0726
▁xi	-11.0733
▁про	-11.0733
▁karl	-11.0737
],	-11.0742
bank	-11.0742
▁greatly	-11.0742
▁summary	-11.0748
tern	-11.0748
▁ownership	-11.075
ن	-11.0752
nte	-11.0754
▁aged	-11.0755
▁ker	-11.0757
▁nasa	-11.0761
fen	-11.0762
chu	-11.0763
▁graph	-11.0765
ра	-11.0771
▁sil	-11.0773
▁bronze	-11.0773
▁sweat	-11.0776
▁boots	-11.0777
▁targeted	-11.0777
▁thumb	-11.0778
▁universities	-11.0779
six	-11.0779
image	-11.078
▁upcoming	-11.078
▁divide	-11.078
▁ep	-11.0783
▁boom	-11.0796
▁hood	-11.0803
▁refugees	-11.0804
sam	-11.0804
ت	-11.0809
▁scoring	-11.0809
▁widespread	-11.081
▁fluid	-11.0813
▁mah	-11.0814
str	-11.0815
▁alabama	-11.0816
▁singapore	-11.0816
▁clay	-11.0817
sex	-11.0819
ori	-11.083
og	-11.0833
▁worn	-11.0834
usa	-11.0834
▁dishes	-11.0836
▁asleep	-11.0838
▁dat	-11.0841
stand	-11.0842
▁stem	-11.0842
▁wrap	-11.0845
okay	-11.0847
▁realm	-11.0849
▁stages	-11.0849
being	-11.0854
▁versus	-11.0855
▁commissioner	-11.0857
▁cri	-11.0863
▁chaos	-11.0863
▁clouds	-11.0865
▁knock	-11.0868
und	-11.0869
▁pré	-11.0871
person	-11.0871
▁substance	-11.0878
▁nas	-11.0879
▁meta	-11.0879
▁characteristics	-11.0882
▁unity	-11.0884
▁modest	-11.0885
tech	-11.0886
cum	-11.0888
▁dining	-11.089
eux	-11.0893
▁updates	-11.0893
nor	-11.0894
phy	-11.0898
▁linear	-11.0899
night	-11.09
▁yang	-11.0903
▁swimming	-11.0905
gov	-11.0911
ncia	-11.0914
▁faculty	-11.0915
igen	-11.0916
▁industries	-11.0918
▁nar	-11.092
▁investigate	-11.0921
▁intervention	-11.0921
▁bears	-11.0922
fc	-11.0925
stan	-11.0926
▁categories	-11.0927
code	-11.0928
watch	-11.093
▁killer	-11.0932
▁contributions	-11.0935
▁ritual	-11.0936
ense	-11.0937
tain	-11.094
▁gardens	-11.0944
▁react	-11.0945
▁thunder	-11.0949
▁directions	-11.095
▁contracts	-11.095
▁boxes	-11.0951
rc	-11.0952
▁indians	-11.0952
▁valid	-11.0955
gin	-11.0955
▁contrary	-11.0956
▁iranian	-11.0957
▁bou	-11.0958
▁shower	-11.0964
▁interviews	-11.0965
▁organisation	-11.0966
step	-11.0968
▁cooperation	-11.0968
▁bro	-11.0968
▁fantastic	-11.0969
日	-11.097
▁ranks	-11.0971
season	-11.0972
▁aussi	-11.0973
arian	-11.0974
▁critic	-11.0979
▁nba	-11.0982
▁id	-11.0982
ische	-11.0982
dig	-11.0983
▁mysterious	-11.0985
present	-11.0987
▁mechanism	-11.0987
lands	-11.099
▁collaboration	-11.0991
▁mega	-11.0998
▁sink	-11.1002
▁spray	-11.1002
▁sergeant	-11.1005
▁iphone	-11.1007
ose	-11.1008
▁export	-11.101
▁struggled	-11.1011
▁emotion	-11.1012
▁shops	-11.1015
▁embrace	-11.1016
▁succeed	-11.1016
▁observe	-11.1019
▁excuse	-11.1022
▁fighters	-11.1023
▁concentration	-11.1024
▁pla	-11.1025
▁mechanical	-11.1025
▁victor	-11.1027
▁disc	-11.1029
tha	-11.103
▁pos	-11.103
last	-11.1031
pass	-11.1034
▁brexit	-11.104
bol	-11.1041
▁gall	-11.1047
▁rope	-11.1051
▁reuters	-11.1051
▁creates	-11.1053
▁economics	-11.1054
▁saving	-11.1054
▁cotton	-11.1054
▁orbit	-11.1056
▁ec	-11.1057
▁marie	-11.1057
▁regulation	-11.1058
▁kal	-11.1059
ま	-11.1061
▁delhi	-11.1066
lé	-11.1067
▁northwest	-11.1069
card	-11.107
▁rub	-11.1074
ة	-11.1074
ж	-11.1075
▁lesson	-11.1076
vel	-11.1076
▁cyber	-11.1077
▁duties	-11.1077
▁villages	-11.1083
▁rs	-11.1084
zione	-11.1084
▁challenging	-11.1087
▁rely	-11.109
▁males	-11.1098
▁scientist	-11.11
▁dia	-11.1101
▁exhibition	-11.1102
▁adopt	-11.1107
▁penalty	-11.1109
▁chip	-11.1114
▁petition	-11.1115
mc	-11.1115
▁($	-11.1121
▁rap	-11.1121
▁shifted	-11.1121
▁vent	-11.1122
▁grain	-11.1124
▁desired	-11.1125
▁loyal	-11.1126
▁lessons	-11.1131
▁anniversary	-11.1131
▁electoral	-11.1132
▁photographs	-11.1134
▁complaint	-11.1138
▁churches	-11.114
α	-11.1149
second	-11.1149
▁skull	-11.115
▁bang	-11.1152
wo	-11.1155
▁abroad	-11.1157
▁robin	-11.1162
▁detective	-11.1167
▁marvel	-11.1172
▁puts	-11.1174
▁terrorism	-11.1175
▁stake	-11.1178
▁potatoes	-11.1179
▁composer	-11.118
▁publications	-11.1184
nz	-11.1184
▁brush	-11.1185
▁firing	-11.1195
dem	-11.1195
ario	-11.1198
ory	-11.1199
ites	-11.1199
▁harsh	-11.1202
▁platforms	-11.1204
cm	-11.1204
▁speaks	-11.1205
▁depend	-11.1205
hill	-11.1206
▁hans	-11.1208
▁strict	-11.1208
▁stored	-11.1209
▁decent	-11.1209
▁seemingly	-11.121
▁receiver	-11.121
▁traveling	-11.1213
fort	-11.1216
▁glory	-11.1216
▁palestinian	-11.1217
idae	-11.122
▁sara	-11.1221
▁preparation	-11.1225
▁acc	-11.1226
ann	-11.1227
▁participation	-11.1229
▁glasses	-11.123
▁federation	-11.1231
clock	-11.1236
▁testimony	-11.124
matic	-11.124
gged	-11.1245
▁seventh	-11.1249
▁ranked	-11.1257
▁figured	-11.1257
▁quit	-11.1258
▁gm	-11.1258
▁conservation	-11.1259
tier	-11.126
▁tam	-11.1263
▁suspended	-11.1264
mile	-11.127
would	-11.1271
too	-11.1276
▁picking	-11.1276
▁af	-11.1276
▁substitute	-11.1278
lik	-11.1279
▁requests	-11.128
ле	-11.128
▁benjamin	-11.128
▁epic	-11.128
▁companion	-11.1281
▁smoking	-11.1283
▁improvement	-11.1285
▁sweden	-11.1285
▁clan	-11.1286
tti	-11.1286
also	-11.1291
▁moderate	-11.1296
▁robinson	-11.1296
arch	-11.1298
▁kicked	-11.1299
▁attempting	-11.1301
▁crypto	-11.1302
▁diversity	-11.1304
▁genre	-11.1307
anna	-11.1314
▁vr	-11.1315
▁roy	-11.1319
▁cooper	-11.1319
gli	-11.132
▁historian	-11.1321
▁instrument	-11.1321
▁wealthy	-11.1323
▁shade	-11.1323
▁expedition	-11.1323
▁lion	-11.1324
▁approaches	-11.1326
ciones	-11.1328
▁concepts	-11.1331
cul	-11.1334
▁contribution	-11.1334
▁trains	-11.1334
▁morris	-11.1337
▁cult	-11.1337
▁pregnant	-11.1346
▁nun	-11.1349
▁sheep	-11.1352
aki	-11.1354
▁blank	-11.1365
▁bend	-11.1366
sel	-11.1369
▁epi	-11.1369
▁abstract	-11.1372
▁scores	-11.1372
self	-11.1374
wick	-11.1377
▁rocket	-11.1382
▁putin	-11.1383
▁hurricane	-11.139
▁zi	-11.1391
▁overcome	-11.1392
▁charter	-11.1394
▁acknowledge	-11.1396
▁indiana	-11.1396
ア	-11.14
uf	-11.1401
▁torn	-11.1403
▁consent	-11.1407
ils	-11.1413
▁handling	-11.1413
▁hol	-11.1418
▁tackle	-11.1418
gb	-11.1419
▁cy	-11.142
ient	-11.1423
▁fled	-11.1423
cle	-11.143
▁franklin	-11.1431
note	-11.1433
▁scenario	-11.1434
▁damaged	-11.1434
▁hitting	-11.144
▁stranger	-11.1441
▁everyday	-11.1442
ition	-11.1445
isi	-11.1446
▁derived	-11.1446
uch	-11.1449
▁beijing	-11.1451
▁hosted	-11.1451
▁sol	-11.1453
das	-11.1455
▁dominant	-11.1455
▁hire	-11.1456
▁avait	-11.1456
▁deals	-11.1459
▁comprehensive	-11.1462
▁forum	-11.1462
▁aug	-11.1466
▁subtle	-11.1468
▁favourite	-11.1472
▁emerging	-11.1474
ude	-11.1474
▁titled	-11.1476
▁reserved	-11.1478
hold	-11.148
▁quarterback	-11.1481
▁satellite	-11.1484
▁legitimate	-11.1484
mate	-11.149
▁hungry	-11.1491
▁urged	-11.1493
▁suggesting	-11.1495
▁gaming	-11.1497
▁charity	-11.1497
ologist	-11.1498
▁maintenance	-11.1498
▁protocol	-11.1499
gt	-11.15
▁controversy	-11.1501
color	-11.1503
ή	-11.1507
▁faint	-11.1511
▁gary	-11.1515
cas	-11.1518
para	-11.1518
▁consideration	-11.1518
▁justin	-11.1522
phon	-11.1522
▁mari	-11.1522
▁fears	-11.1528
▁spider	-11.1528
gro	-11.1533
▁statue	-11.1535
ington	-11.1539
▁marshall	-11.1541
▁tal	-11.1542
▁outer	-11.1543
▁sees	-11.1545
▁sm	-11.1547
▁spoon	-11.155
▁austin	-11.1558
▁centers	-11.1558
▁firmly	-11.156
▁bulk	-11.1564
oy	-11.1576
▁reducing	-11.1577
▁deux	-11.1579
▁stiff	-11.158
▁atlanta	-11.158
wall	-11.1584
▁pizza	-11.1584
▁newspapers	-11.1585
▁demon	-11.1586
▁observation	-11.1587
▁pursuit	-11.1589
▁hop	-11.1593
isa	-11.1593
▁attract	-11.1595
▁#####	-11.1598
▁demonstrated	-11.1605
eight	-11.1605
▁cur	-11.1608
london	-11.1608
▁seal	-11.1609
sub	-11.1612
▁intelligent	-11.1614
▁indicates	-11.1614
▁dev	-11.1615
▁clo	-11.1618
kk	-11.162
data	-11.1623
▁reward	-11.1624
▁philosophical	-11.1625
▁paintings	-11.1626
ô	-11.1628
▁warriors	-11.163
▁nelson	-11.163
arm	-11.1634
▁cock	-11.1636
▁cameras	-11.1639
base	-11.1643
▁yield	-11.1643
▁wright	-11.1644
▁pearl	-11.1644
▁remarks	-11.1645
▁doctrine	-11.1645
▁germans	-11.1645
▁había	-11.1646
▁monthly	-11.1648
▁gem	-11.165
▁sho	-11.1651
please	-11.1652
▁muscles	-11.1652
▁lan	-11.1655
ici	-11.1661
π	-11.1661
▁resolve	-11.1664
▁wildlife	-11.1665
▁pala	-11.1665
ador	-11.1666
▁rio	-11.1667
ili	-11.1667
▁declaration	-11.1667
▁portrait	-11.1669
▁provincial	-11.1669
ched	-11.1672
cen	-11.1672
▁vegas	-11.1672
▁cluster	-11.1672
▁guarantee	-11.1674
▁conversations	-11.1674
▁convince	-11.1679
だ	-11.168
john	-11.1682
▁municipal	-11.1685
ole	-11.1685
▁civilization	-11.169
▁transaction	-11.169
▁texture	-11.1691
▁perception	-11.1695
▁container	-11.1697
▁appointment	-11.1702
▁shakespeare	-11.1703
▁larry	-11.1703
▁lamp	-11.1704
▁deny	-11.1704
▁kat	-11.1707
▁knocked	-11.1707
▁judges	-11.1707
▁tomb	-11.1709
mond	-11.171
▁sail	-11.1713
▁está	-11.1713
yer	-11.1719
▁dismissed	-11.1723
▁belong	-11.1724
ū	-11.1725
week	-11.173
▁venture	-11.1732
▁grande	-11.1733
▁anonymous	-11.1734
θ	-11.1735
▁vel	-11.1736
ки	-11.1739
▁demo	-11.1742
▁raid	-11.1743
▁tune	-11.1743
▁heroes	-11.1743
char	-11.1744
source	-11.1745
▁dare	-11.1749
tas	-11.1749
▁tide	-11.1753
▁tales	-11.1758
▁rack	-11.176
▁beam	-11.176
idade	-11.1765
▁influenced	-11.1766
▁fiber	-11.1767
green	-11.1767
hole	-11.1767
▁spy	-11.1775
▁artillery	-11.1776
▁galaxy	-11.1779
▁lowest	-11.1783
▁tourist	-11.1783
▁к	-11.1785
ка	-11.1786
▁triple	-11.1787
▁visa	-11.1789
▁migration	-11.1792
▁midnight	-11.1796
▁athletic	-11.1796
▁reliable	-11.1798
▁introduce	-11.1803
pc	-11.1808
▁municipality	-11.1809
▁measured	-11.181
iti	-11.1811
▁ford	-11.1813
▁inquiry	-11.1814
▁discipline	-11.1815
▁incredibly	-11.1817
▁experimental	-11.1818
▁rhythm	-11.1819
▁alter	-11.182
▁afterwards	-11.182
bil	-11.1821
▁fiscal	-11.1822
▁cr	-11.1823
▁snapped	-11.1824
ça	-11.1827
cf	-11.1828
▁activist	-11.1829
▁sean	-11.1829
▁lists	-11.183
▁sri	-11.1831
▁opinions	-11.1832
▁restrictions	-11.1833
▁mob	-11.1834
▁frequency	-11.1839
▁thompson	-11.1839
▁interaction	-11.184
screen	-11.184
▁isolated	-11.184
▁unexpected	-11.184
power	-11.1841
▁sacrifice	-11.1844
▁favour	-11.1849
س	-11.185
▁equality	-11.1853
▁biden	-11.1854
▁info	-11.1855
▁devoted	-11.1858
▁eager	-11.1858
▁mild	-11.1859
▁neuro	-11.1861
▁greg	-11.1863
▁ruth	-11.1864
itz	-11.1865
▁occasions	-11.1868
ś	-11.1871
▁scholar	-11.1873
▁excess	-11.1877
una	-11.1878
▁edges	-11.1878
▁shocked	-11.1879
▁bas	-11.188
▁delicious	-11.1881
▁legislature	-11.1881
▁charm	-11.1882
▁să	-11.1882
▁maryland	-11.1884
▁twist	-11.1886
▁gill	-11.1887
▁tablespoon	-11.1887
▁vessel	-11.189
▁holes	-11.1893
▁inspector	-11.1898
▁pulse	-11.19
sten	-11.19
read	-11.19
▁genuine	-11.1901
▁fossil	-11.1901
▁discussions	-11.1901
на	-11.1902
▁supports	-11.1904
▁engineers	-11.1905
▁seized	-11.1905
▁followers	-11.1909
▁ultra	-11.1915
etta	-11.1915
▁diseases	-11.1917
▁borders	-11.1919
▁commerce	-11.1922
▁rebel	-11.1922
▁pac	-11.1931
▁torture	-11.1931
▁waist	-11.1931
▁furthermore	-11.1932
▁pistol	-11.1935
▁couch	-11.1935
▁designer	-11.1937
▁examination	-11.194
▁dressing	-11.1942
▁protesters	-11.1943
live	-11.1943
big	-11.1944
▁roster	-11.1944
▁bud	-11.1946
▁laboratory	-11.1948
▁steal	-11.1954
got	-11.1957
main	-11.1958
▁rum	-11.1959
▁mun	-11.1961
▁acknowledged	-11.1963
▁bearing	-11.1963
▁veterans	-11.1965
date	-11.1966
▁cl	-11.1966
▁chu	-11.1967
▁strikes	-11.1967
ungen	-11.1968
▁mouse	-11.1968
▁mus	-11.1969
jar	-11.197
lum	-11.197
sum	-11.197
fri	-11.1971
▁converted	-11.1971
▁southeast	-11.1973
aged	-11.1976
▁announce	-11.1978
▁stern	-11.198
bl	-11.1981
ł	-11.1982
rod	-11.1984
ela	-11.1986
▁rd	-11.1987
▁performances	-11.1989
▁ted	-11.199
▁transactions	-11.1993
▁nights	-11.1993
▁compound	-11.1995
▁thrust	-11.1997
▁usage	-11.1998
gor	-11.2008
trans	-11.2008
▁altogether	-11.2009
▁slid	-11.201
sign	-11.2012
▁что	-11.2012
▁urge	-11.2012
▁spotted	-11.202
▁physically	-11.2021
▁cathedral	-11.2022
nick	-11.2022
▁unter	-11.2027
▁outstanding	-11.203
mir	-11.2033
▁murray	-11.2033
▁api	-11.2035
▁civilian	-11.2035
oni	-11.2036
▁controls	-11.2037
▁emp	-11.2043
▁grandmother	-11.2043
▁destination	-11.2045
▁dell	-11.2045
▁_(	-11.2046
journal	-11.2051
▁murdered	-11.2052
great	-11.2055
▁elaborate	-11.2055
▁probe	-11.2059
▁beau	-11.2059
▁laughter	-11.206
▁origins	-11.2063
▁segment	-11.2063
▁rang	-11.2066
▁tennessee	-11.2069
uel	-11.2071
▁celebrated	-11.2073
▁diamond	-11.2074
▁estimate	-11.2074
range	-11.2074
▁hated	-11.2074
▁gabriel	-11.2076
▁stein	-11.2077
▁pile	-11.2079
▁swift	-11.2081
rr	-11.2083
▁integration	-11.2092
▁evident	-11.2094
▁underlying	-11.2095
▁pose	-11.2096
▁ridiculous	-11.2096
tia	-11.2097
▁boats	-11.2098
ör	-11.2102
▁spare	-11.2103
▁detect	-11.2104
▁jake	-11.2104
▁winners	-11.2106
▁capitalism	-11.2107
▁conspiracy	-11.2109
▁attracted	-11.211
▁instantly	-11.211
▁hack	-11.2112
▁experiments	-11.2112
ila	-11.2114
aj	-11.2115
bor	-11.2118
▁duck	-11.2118
▁dual	-11.2125
load	-11.2125
▁bags	-11.2131
while	-11.2131
ín	-11.2133
month	-11.214
▁assured	-11.214
▁asset	-11.214
▁guidelines	-11.2141
▁estimates	-11.2141
▁dur	-11.2144
▁topics	-11.2145
▁households	-11.2145
▁ethics	-11.2147
▁missile	-11.2149
▁coronavirus	-11.2152
▁pound	-11.2152
▁ltd	-11.2154
▁spa	-11.2154
▁involve	-11.2154
▁daughters	-11.2156
▁boil	-11.2157
▁flame	-11.2157
і	-11.2158
▁softly	-11.2163
▁displayed	-11.2165
▁vitamin	-11.2166
bury	-11.2167
▁rushed	-11.2169
▁perceived	-11.217
▁simultaneously	-11.2172
▁operator	-11.2173
pal	-11.2175
▁tribe	-11.2177
pic	-11.2178
▁excitement	-11.2178
▁cos	-11.2179
track	-11.2179
▁continent	-11.218
▁acted	-11.2181
▁discourse	-11.2183
▁precious	-11.2183
▁computers	-11.2184
▁hil	-11.2184
▁blend	-11.2185
▁faire	-11.2186
▁spirits	-11.2187
▁premium	-11.2191
wn	-11.2193
▁impressed	-11.2195
▁recover	-11.2196
▁conscious	-11.2196
▁clever	-11.2199
order	-11.22
▁ele	-11.2202
ova	-11.2202
▁meals	-11.2208
リ	-11.2209
call	-11.2211
▁hint	-11.2212
▁comics	-11.2213
▁instruments	-11.2216
▁neighbors	-11.2218
bn	-11.2219
▁channels	-11.2224
▁kil	-11.2227
▁protecting	-11.2228
▁popularity	-11.2228
ological	-11.2229
ées	-11.2229
▁curve	-11.2229
▁sel	-11.223
ür	-11.223
▁lover	-11.2231
▁strain	-11.2233
▁forehead	-11.2234
▁banned	-11.2237
大	-11.2242
▁efficiency	-11.2243
▁loving	-11.2244
▁executed	-11.2245
▁communicate	-11.2245
illo	-11.2245
▁tokyo	-11.2247
ë	-11.225
▁vegetable	-11.2252
▁mort	-11.2254
▁beaten	-11.2256
▁manual	-11.2257
verse	-11.2258
▁phenomenon	-11.226
▁grin	-11.2265
▁recovered	-11.2266
▁christianity	-11.2275
▁emissions	-11.2278
▁stretched	-11.2282
▁qualified	-11.2282
gram	-11.2283
▁cargo	-11.2284
▁forcing	-11.2285
▁nineteenth	-11.2285
▁stark	-11.2286
▁artistic	-11.2287
▁lightning	-11.2287
▁spots	-11.2289
ked	-11.2292
▁participated	-11.2295
▁été	-11.2297
▁charts	-11.2297
▁dull	-11.2298
▁tomatoes	-11.2299
▁monitoring	-11.2299
▁bullet	-11.2299
▁josh	-11.23
▁invitation	-11.2302
▁producers	-11.2302
ath	-11.2302
▁mutual	-11.2303
▁cleveland	-11.2303
js	-11.2304
ない	-11.2304
▁chapel	-11.2307
▁satisfied	-11.231
▁spaces	-11.231
▁nbc	-11.2313
▁sanctions	-11.2316
▁dug	-11.2319
▁visits	-11.2321
▁distinguished	-11.2321
▁gla	-11.2322
";	-11.2323
!_	-11.2326
adas	-11.2326
att	-11.2327
mic	-11.2328
▁designated	-11.2329
κ	-11.2329
▁wool	-11.2329
▁bonus	-11.2331
▁describing	-11.2332
▁kh	-11.2333
▁steven	-11.2334
▁dropping	-11.2336
ω	-11.2336
▁novels	-11.2336
▁essence	-11.2337
▁rim	-11.2337
▁gor	-11.234
love	-11.2341
bad	-11.2342
υ	-11.2344
ency	-11.2345
▁refuse	-11.2346
▁motivation	-11.2347
▁awful	-11.2347
cr	-11.2347
rian	-11.2351
▁deadly	-11.2355
ク	-11.2359
го	-11.236
▁sixty	-11.2363
bridge	-11.2363
▁functional	-11.2363
avi	-11.2364
▁stat	-11.2365
▁arabia	-11.2368
▁rem	-11.2369
▁habitat	-11.2373
▁halt	-11.2376
▁sour	-11.2376
author	-11.2378
▁configuration	-11.238
▁bake	-11.238
▁fold	-11.2382
▁penn	-11.2383
wen	-11.2383
though	-11.2385
ically	-11.2386
▁closest	-11.2387
▁traveled	-11.2387
▁animation	-11.2387
▁swedish	-11.2388
▁earliest	-11.2388
▁demonstrate	-11.2389
▁females	-11.2393
▁stability	-11.2395
▁invisible	-11.2397
▁insight	-11.2398
▁accessible	-11.2399
▁retain	-11.2401
▁choosing	-11.2402
▁endless	-11.2404
▁painful	-11.2404
▁geo	-11.2405
div	-11.2406
▁tick	-11.2406
▁virtue	-11.2408
▁architect	-11.2409
▁charlotte	-11.241
lf	-11.2413
▁pension	-11.2414
▁unconscious	-11.2416
▁feared	-11.2417
▁logo	-11.2421
▁madrid	-11.2426
▁footage	-11.2426
boat	-11.2428
▁expecting	-11.243
▁dash	-11.243
tens	-11.2432
▁odds	-11.2433
▁ry	-11.2438
▁ip	-11.2438
▁tobacco	-11.244
▁diplomatic	-11.2447
mie	-11.2448
▁admission	-11.2448
är	-11.245
▁escaped	-11.2451
fra	-11.2452
то	-11.2452
▁identical	-11.2454
cz	-11.2457
▁sr	-11.2463
▁furniture	-11.2464
▁stare	-11.2465
▁footballer	-11.2466
ق	-11.2467
exp	-11.247
▁engines	-11.247
▁patent	-11.2471
▁fr	-11.2475
feld	-11.2475
▁parade	-11.2483
▁café	-11.2484
▁photographer	-11.2485
cell	-11.2486
▁werden	-11.2492
▁dive	-11.2492
iya	-11.2492
▁installation	-11.2492
enberg	-11.2493
▁triumph	-11.2493
▁sul	-11.2494
▁nominee	-11.2494
▁genus	-11.2497
▁hearts	-11.2497
phone	-11.2499
▁mounted	-11.2505
▁magical	-11.2506
ison	-11.2507
sol	-11.2508
ht	-11.251
▁bite	-11.251
▁ginger	-11.2511
▁masters	-11.2511
sat	-11.2512
ige	-11.2513
▁helen	-11.2513
▁implemented	-11.2513
▁transmission	-11.2515
▁balls	-11.2517
▁loaded	-11.252
▁signals	-11.2524
▁threatening	-11.2524
че	-11.2526
▁promises	-11.2526
▁instagram	-11.2527
bet	-11.2527
▁missouri	-11.2528
▁wayne	-11.2531
▁quote	-11.2532
▁dependent	-11.2532
▁jefferson	-11.2534
ら	-11.2541
▁swept	-11.2542
▁farther	-11.2544
▁calendar	-11.2547
▁kentucky	-11.2549
▁nur	-11.2549
▁anchor	-11.2549
č	-11.2553
▁discrimination	-11.2553
▁hindu	-11.2554
▁vancouver	-11.2555
▁pipe	-11.2559
▁witnesses	-11.2559
▁cemetery	-11.2559
▁wu	-11.2561
▁wheat	-11.2565
▁drinks	-11.2565
«	-11.2568
▁thi	-11.2569
▁graduated	-11.2569
▁đ	-11.2569
▁signature	-11.257
▁bands	-11.2574
version	-11.2575
▁designs	-11.2576
▁baron	-11.2576
▁healing	-11.2577
ischen	-11.2578
én	-11.2579
▁singh	-11.2579
▁attacking	-11.2585
▁ber	-11.2586
▁polls	-11.2589
▁awesome	-11.2595
rated	-11.2597
▁girlfriend	-11.2601
▁spite	-11.2601
▁reflection	-11.2603
▁monte	-11.2603
▁swiss	-11.2603
▁tennis	-11.2606
▁racist	-11.2606
kon	-11.2607
▁chile	-11.2608
ao	-11.2609
▁layers	-11.261
vy	-11.2615
▁studios	-11.2617
▁pole	-11.2617
▁sits	-11.2618
▁profession	-11.2619
ded	-11.262
ά	-11.2621
▁bombing	-11.2624
▁density	-11.2624
▁parker	-11.2626
▁aesthetic	-11.2627
▁tracking	-11.2628
▁norman	-11.2634
▁traditions	-11.2634
▁rico	-11.2635
▁dispute	-11.2637
▁widow	-11.2638
▁additionally	-11.2642
▁kissed	-11.2646
▁oklahoma	-11.2646
▁finishing	-11.2646
▁slavery	-11.2647
eva	-11.2647
▁adjust	-11.2648
▁convicted	-11.265
▁retreat	-11.265
user	-11.265
▁processor	-11.2652
▁differently	-11.2653
string	-11.2655
ст	-11.2657
▁glimpse	-11.2665
▁checking	-11.2666
▁manhattan	-11.2668
▁conservatives	-11.267
▁nancy	-11.2671
▁cigarette	-11.2671
▁pork	-11.2673
▁crow	-11.2675
▁rivers	-11.2676
▁dj	-11.2678
▁ruby	-11.2678
▁presidency	-11.2679
▁slide	-11.268
▁grove	-11.2681
▁duration	-11.2681
qué	-11.2683
▁mut	-11.2685
▁tropical	-11.2686
▁procedures	-11.2686
▁suitable	-11.2688
▁pretend	-11.2688
▁lawmakers	-11.2689
▁netherlands	-11.2689
▁explaining	-11.269
uh	-11.2691
mod	-11.2693
▁breaks	-11.2695
hir	-11.2695
mbo	-11.2696
▁guilt	-11.2698
▁reveals	-11.2699
▁honour	-11.27
▁vest	-11.2701
▁oliver	-11.2701
▁scar	-11.2702
▁spi	-11.2705
▁cage	-11.2705
▁stewart	-11.2707
▁sigh	-11.271
▁makeup	-11.2713
dd	-11.2719
nde	-11.2719
▁wallet	-11.2722
uta	-11.2723
▁peer	-11.2724
▁gli	-11.2724
maker	-11.2725
▁upgrade	-11.2727
▁vas	-11.2728
▁wr	-11.2728
▁campbell	-11.273
▁lodge	-11.2731
ej	-11.2731
▁vocal	-11.2732
▁servants	-11.2732
▁×	-11.2733
▁---|---	-11.2736
▁lou	-11.2739
▁achievement	-11.2739
▁tanks	-11.274
▁slot	-11.274
▁delicate	-11.2745
▁vary	-11.2746
llo	-11.2747
▁drain	-11.2748
▁peaceful	-11.2752
▁requested	-11.2753
▁manifest	-11.2757
▁polar	-11.2757
▁dip	-11.2759
▁lifestyle	-11.2759
▁babies	-11.2759
▁lucy	-11.2759
▁collins	-11.2762
▁fen	-11.2764
▁invite	-11.2764
▁leon	-11.2765
▁dominated	-11.2765
▁twisted	-11.2765
nothing	-11.2765
▁parks	-11.2767
▁tragedy	-11.2769
▁ris	-11.277
▁sua	-11.2773
▁peut	-11.2773
mac	-11.2774
ule	-11.2775
▁voi	-11.2775
▁demanding	-11.2778
▁sue	-11.2778
▁pier	-11.2779
▁societies	-11.2779
▁disappear	-11.278
▁fever	-11.2782
▁johnny	-11.2782
▁rounds	-11.2782
▁courtesy	-11.2783
cro	-11.2784
▁circles	-11.2784
▁gospel	-11.2785
▁floating	-11.2785
eta	-11.2786
▁implications	-11.2788
▁margin	-11.2789
front	-11.279
!)	-11.2792
▁hatch	-11.2793
▁humor	-11.2798
▁neutral	-11.28
ف	-11.2806
ug	-11.2806
▁eliminate	-11.2807
▁woke	-11.2807
▁ikke	-11.2808
isse	-11.2808
▁instruction	-11.2811
ك	-11.2812
▁foi	-11.2815
▁mueller	-11.2816
▁oder	-11.2817
ò	-11.2819
mmer	-11.2819
▁rh	-11.282
▁firms	-11.2821
▁conversion	-11.2822
▁focusing	-11.2827
▁surprisingly	-11.2828
▁lung	-11.283
▁fist	-11.2831
▁bernie	-11.2836
▁jerry	-11.2838
▁était	-11.2839
aid	-11.2839
ago	-11.2841
▁influential	-11.2842
▁rachel	-11.2843
ore	-11.2844
▁eternal	-11.2844
▁rot	-11.2845
▁intel	-11.2847
▁thor	-11.2848
sun	-11.2849
▁java	-11.285
▁pressing	-11.2851
▁volunteer	-11.2854
ría	-11.2855
▁restore	-11.2856
▁armor	-11.2859
▁brad	-11.2861
tori	-11.2861
:_	-11.2874
▁routes	-11.2874
▁decrease	-11.2875
▁allied	-11.2876
▁spec	-11.2876
por	-11.2878
▁isis	-11.2881
▁verse	-11.2882
▁overnight	-11.2882
▁reaches	-11.2882
uni	-11.2883
▁barbara	-11.2885
gie	-11.2885
▁pierre	-11.2885
▁arrow	-11.2886
ру	-11.2887
▁liverpool	-11.289
▁backing	-11.2891
etti	-11.2893
▁arguing	-11.29
▁rad	-11.2902
▁arrangement	-11.2905
▁stanley	-11.2907
▁tru	-11.2909
▁sé	-11.2911
▁coconut	-11.2913
▁responses	-11.2916
▁baltimore	-11.2917
▁où	-11.2921
▁sage	-11.2922
imp	-11.2925
▁copper	-11.2926
▁belonging	-11.2927
ax	-11.2927
uz	-11.2927
▁stopping	-11.2928
▁mistakes	-11.2928
▁él	-11.2928
▁utah	-11.293
▁tier	-11.293
zel	-11.293
▁cats	-11.2933
▁difficulties	-11.2935
▁brooklyn	-11.2936
▁climbing	-11.2937
▁stalin	-11.2937
lyn	-11.2938
▁proportion	-11.2941
ь	-11.2941
▁forecast	-11.2942
▁giants	-11.2943
cre	-11.2946
▁inch	-11.2948
▁shin	-11.2948
rar	-11.2949
▁editorial	-11.2949
shaped	-11.295
▁singles	-11.2951
▁occasional	-11.2951
▁nonetheless	-11.2957
▁bore	-11.2959
▁leo	-11.2962
▁fog	-11.2962
▁bernard	-11.2965
▁founding	-11.2965
dc	-11.2968
pel	-11.2971
▁scan	-11.2971
▁elder	-11.2973
gl	-11.2973
▁laura	-11.2973
▁thoroughly	-11.2974
▁ugly	-11.2975
▁blocked	-11.2975
▁toilet	-11.2978
▁pig	-11.2979
▁banking	-11.2979
▁approaching	-11.298
▁ace	-11.298
▁alfred	-11.2981
lib	-11.2983
▁addiction	-11.2984
▁pioneer	-11.2985
▁deserve	-11.2985
ラ	-11.2989
▁secrets	-11.299
▁districts	-11.2991
▁kir	-11.2991
▁variables	-11.2992
▁sheets	-11.2994
▁bother	-11.2996
bie	-11.2996
▁overseas	-11.2997
▁slept	-11.2998
▁painter	-11.2999
▁cognitive	-11.3001
▁tissue	-11.3005
▁nomination	-11.3007
▁sphere	-11.3009
▁marco	-11.3009
▁vil	-11.301
▁rip	-11.3011
▁competing	-11.3012
ί	-11.3012
▁integrated	-11.3012
horn	-11.3015
▁testament	-11.3015
▁improvements	-11.3017
▁sem	-11.3018
▁tours	-11.3018
▁affordable	-11.3019
city	-11.302
add	-11.3024
▁vin	-11.3024
)_	-11.3025
▁res	-11.3026
▁loans	-11.303
▁improving	-11.303
▁propaganda	-11.3031
ι	-11.3031
▁bottles	-11.3036
▁investigators	-11.3036
craft	-11.3036
▁boundaries	-11.3039
▁flip	-11.304
▁vet	-11.3041
▁ads	-11.3041
ifying	-11.3042
▁pray	-11.3043
chy	-11.3044
▁temperatures	-11.3044
▁mississippi	-11.3046
social	-11.3048
gna	-11.3048
▁periods	-11.305
▁samples	-11.3051
▁classroom	-11.3052
▁median	-11.306
▁campaigns	-11.3061
έ	-11.3061
▁tactics	-11.3062
▁gesture	-11.3063
▁servant	-11.3064
hara	-11.3065
▁removal	-11.3065
▁neu	-11.3066
▁¿	-11.3067
ography	-11.3068
▁dei	-11.3068
▁portland	-11.3069
▁drum	-11.307
▁nightmare	-11.307
story	-11.3072
▁predict	-11.3076
oso	-11.3077
zan	-11.3079
▁belonged	-11.308
▁sketch	-11.3083
▁node	-11.3084
▁sooner	-11.3085
▁profits	-11.3087
▁fatal	-11.3087
ть	-11.3087
▁feb	-11.3088
▁melbourne	-11.3089
▁icon	-11.309
▁meditation	-11.3091
▁pants	-11.3092
▁hum	-11.3095
▁»,	-11.3096
▁()	-11.3097
▁educated	-11.3101
▁fancy	-11.3101
▁frost	-11.3101
bas	-11.3102
▁bacon	-11.3104
▁coins	-11.3106
▁gifts	-11.3107
roll	-11.3109
▁bli	-11.3111
▁abilities	-11.3112
▁placing	-11.3112
▁mau	-11.3114
▁questioned	-11.3114
ular	-11.3116
▁при	-11.3119
▁token	-11.312
▁shy	-11.3123
bot	-11.3125
▁subscribe	-11.3125
▁maintaining	-11.3126
▁craig	-11.3127
▁certificate	-11.3134
▁delight	-11.3135
▁fried	-11.3138
▁amateur	-11.3139
▁formerly	-11.3141
▁cruel	-11.3143
rä	-11.3144
▁breathe	-11.3144
▁moi	-11.3145
▁clip	-11.3146
▁flames	-11.3146
▁carpet	-11.3146
▁satisfaction	-11.3146
rou	-11.3147
ls	-11.3147
▁philippines	-11.3147
ów	-11.3155
▁notably	-11.3155
▁pete	-11.3155
▁rosa	-11.3156
▁peninsula	-11.3157
▁argues	-11.316
▁salary	-11.316
▁nel	-11.3162
tant	-11.3162
▁whit	-11.3163
▁embassy	-11.3164
hor	-11.3165
yu	-11.3165
script	-11.3166
wind	-11.3166
rak	-11.3166
▁corporations	-11.3166
▁automatic	-11.3168
う	-11.3169
▁trusted	-11.317
nom	-11.3173
▁tremendous	-11.3173
▁divorce	-11.3175
rl	-11.3176
▁electrical	-11.3179
▁warrior	-11.318
▁sorts	-11.318
▁ah	-11.3183
▁jeremy	-11.3184
▁metropolitan	-11.3186
mini	-11.3187
▁frustration	-11.3188
lä	-11.3189
▁guidance	-11.3195
▁classified	-11.3196
market	-11.3196
lv	-11.3197
▁musicians	-11.32
▁cattle	-11.3202
▁leaning	-11.3202
▁num	-11.3203
eck	-11.3203
▁admiral	-11.3204
▁shipping	-11.3205
▁hopefully	-11.3206
▁restored	-11.3207
▁twentieth	-11.3207
rant	-11.321
▁elementary	-11.3211
something	-11.3212
▁shah	-11.3214
▁stops	-11.3219
▁fil	-11.3219
▁screaming	-11.322
г	-11.3221
▁tube	-11.3223
jen	-11.3224
▁autumn	-11.3225
▁oxygen	-11.3226
▁canvas	-11.3232
start	-11.3234
▁resigned	-11.3236
▁elegant	-11.3236
▁criticized	-11.3237
▁snake	-11.3238
▁southwest	-11.324
▁permitted	-11.3242
не	-11.3243
child	-11.3243
▁luxury	-11.3244
▁submit	-11.3245
pat	-11.3246
▁ethical	-11.3248
▁qualities	-11.3248
▁до	-11.3249
▁discussing	-11.3249
▁kas	-11.325
▁grill	-11.325
than	-11.3252
▁punch	-11.3254
nas	-11.3254
▁cuando	-11.3255
▁compromise	-11.3257
▁garage	-11.3259
▁hun	-11.326
▁einer	-11.3261
▁voyage	-11.3262
‐	-11.3263
▁alpha	-11.3265
▁highlights	-11.3266
bc	-11.3267
itude	-11.3268
best	-11.3269
▁wishes	-11.327
▁trials	-11.3273
comp	-11.3273
aient	-11.3274
never	-11.3274
▁anxious	-11.3276
word	-11.3277
▁athletes	-11.3277
fold	-11.328
tine	-11.3281
け	-11.3287
▁ballot	-11.329
η	-11.3291
▁complaints	-11.3291
national	-11.3291
▁safely	-11.3292
uda	-11.3294
▁mint	-11.3297
▁nut	-11.3298
iden	-11.33
▁structural	-11.33
▁genes	-11.33
▁belly	-11.3301
▁cru	-11.3302
▁bits	-11.3302
▁consequence	-11.3306
▁bloom	-11.3308
▁acquisition	-11.3308
▁trunk	-11.3309
▁continuous	-11.3311
▁siege	-11.3311
▁password	-11.3313
nine	-11.3313
▁addresses	-11.3313
▁winds	-11.3313
▁identification	-11.3314
▁pipeline	-11.3316
▁rein	-11.3319
▁kay	-11.3321
▁frederick	-11.3322
▁coastal	-11.3324
▁customs	-11.3325
▁critique	-11.3325
▁dumb	-11.3327
bon	-11.3328
▁marcus	-11.333
▁genius	-11.333
▁chronic	-11.3332
▁promising	-11.3336
▁investigating	-11.3336
mé	-11.3338
▁basket	-11.3339
▁trips	-11.3339
eng	-11.3343
▁alaska	-11.3344
▁brutal	-11.3344
▁bolt	-11.3345
ž	-11.3347
▁handsome	-11.335
▁hosts	-11.3351
▁barack	-11.3352
▁northeast	-11.3355
▁wrestling	-11.3356
▁modified	-11.3357
▁ul	-11.3358
▁sei	-11.3358
▁meters	-11.3358
▁wagon	-11.336
▁viewers	-11.3362
tura	-11.3362
▁consistently	-11.3363
uto	-11.3364
▁robot	-11.3367
▁void	-11.3368
▁mg	-11.3368
grade	-11.337
▁possibilities	-11.3371
pper	-11.3372
▁construct	-11.3372
▁walks	-11.3372
▁presents	-11.3373
▁examined	-11.3376
▁reed	-11.3378
▁mitchell	-11.3384
▁dragged	-11.3384
▁folder	-11.3384
▁infant	-11.3386
▁warming	-11.3386
▁controller	-11.3386
▁horrible	-11.3388
▁switzerland	-11.3388
▁precise	-11.3388
▁abandon	-11.339
wed	-11.3394
▁abu	-11.3395
▁illusion	-11.3396
▁civilians	-11.3397
nel	-11.3398
▁generous	-11.3403
▁aaron	-11.3403
▁evaluation	-11.3403
▁removing	-11.3404
▁amongst	-11.3404
▁beard	-11.3409
▁disk	-11.3412
▁getty	-11.3413
once	-11.3414
▁chuck	-11.3415
ль	-11.3416
▁disappointed	-11.3416
▁carlos	-11.342
court	-11.3421
▁witch	-11.3424
▁spike	-11.3425
▁shu	-11.3425
lla	-11.3426
▁attending	-11.3427
▁feminist	-11.343
▁transformed	-11.3431
▁booth	-11.3432
vat	-11.3432
▁carrier	-11.3433
▁echo	-11.3433
▁prisoner	-11.3433
▁tai	-11.3433
▁outdoor	-11.3434
▁appearing	-11.3435
iel	-11.3439
ा	-11.3442
▁drill	-11.3442
▁suggestion	-11.3446
▁scroll	-11.3448
chan	-11.345
▁revenge	-11.3451
▁enjoying	-11.3453
lier	-11.3454
ξ	-11.3456
▁dh	-11.3457
▁wherever	-11.3458
י	-11.346
▁adaptation	-11.3461
▁outbreak	-11.3462
bach	-11.3463
ко	-11.3463
▁wages	-11.3464
zar	-11.3466
つ	-11.3466
▁streaming	-11.3468
sti	-11.3469
▁helmet	-11.3471
▁characteristic	-11.3471
▁lowered	-11.3474
▁vessels	-11.3474
uck	-11.3477
▁predicted	-11.3478
▁lance	-11.3478
▁fork	-11.348
▁wrist	-11.3482
ont	-11.3482
▁catherine	-11.3484
▁errors	-11.3484
ffe	-11.3486
▁doorway	-11.3486
▁glow	-11.3487
▁accord	-11.3488
iko	-11.3488
cons	-11.3489
▁tat	-11.349
▁defending	-11.3496
▁photography	-11.3496
eri	-11.3496
▁cbs	-11.3497
▁ruin	-11.3499
▁meaningful	-11.3499
▁jen	-11.35
▁bran	-11.3511
▁arriving	-11.3511
party	-11.3512
▁serial	-11.3513
til	-11.3515
▁indication	-11.3515
▁tourism	-11.3515
▁papa	-11.3518
▁gains	-11.3526
▁fue	-11.3526
seven	-11.3527
▁cuba	-11.3528
▁cohen	-11.3529
▁mathematics	-11.3529
▁inevitable	-11.3531
▁racism	-11.3531
aya	-11.3535
▁conviction	-11.3541
▁poured	-11.3542
▁tit	-11.3543
▁uncomfortable	-11.3548
ios	-11.355
▁intensity	-11.3554
heim	-11.3555
shot	-11.3556
▁pays	-11.3557
▁carol	-11.3566
anza	-11.3571
cca	-11.3574
▁unclear	-11.3575
▁emily	-11.3576
▁camps	-11.3577
▁rue	-11.3577
▁warfare	-11.3581
▁crowded	-11.3583
▁tweeted	-11.3584
▁lime	-11.3585
lift	-11.3588
erie	-11.3588
▁advocate	-11.359
ws	-11.3591
▁colony	-11.3591
▁brit	-11.3591
▁integrity	-11.3592
▁argentina	-11.3595
▁coaches	-11.3598
wise	-11.3598
duc	-11.3599
▁healthcare	-11.3599
ern	-11.3603
▁surrender	-11.3604
▁accent	-11.3606
▁nat	-11.3607
▁hin	-11.3608
service	-11.361
▁sv	-11.3612
▁sono	-11.3613
▁lecture	-11.3613
iu	-11.3615
perhaps	-11.3616
▁opens	-11.3619
▁ett	-11.362
▁bot	-11.3623
▁forming	-11.3624
▁damp	-11.3629
▁incidents	-11.3629
▁actively	-11.3629
▁beloved	-11.3629
▁leap	-11.3634
▁buses	-11.3634
▁romance	-11.3636
school	-11.3637
eren	-11.3638
▁lor	-11.3642
nos	-11.3643
▁managers	-11.3644
▁exploit	-11.3646
piece	-11.3648
δ	-11.3648
▁sci	-11.3651
tle	-11.3653
▁infection	-11.3653
duct	-11.3656
▁br	-11.3656
lov	-11.3659
و	-11.3662
▁sliced	-11.3662
▁residential	-11.3662
▁politically	-11.3663
▁brow	-11.3663
▁slim	-11.3665
▁ideology	-11.3665
▁iraqi	-11.3666
▁tha	-11.3667
▁employ	-11.3668
▁că	-11.3668
▁scattered	-11.3668
yne	-11.367
vu	-11.3673
▁ot	-11.3674
▁algorithm	-11.3674
aries	-11.3676
▁pitcher	-11.3678
▁submitted	-11.368
imo	-11.368
▁syndrome	-11.3682
▁kirk	-11.369
▁barrier	-11.3691
gene	-11.3694
still	-11.3696
▁jamie	-11.3697
▁farmer	-11.3706
woman	-11.3706
▁possess	-11.3708
▁remind	-11.3709
▁entity	-11.371
▁clerk	-11.3711
▁marble	-11.3714
▁tiger	-11.3716
▁crisp	-11.3719
▁carriage	-11.3721
▁successor	-11.3721
▁pl	-11.3722
team	-11.3724
▁broader	-11.3725
tig	-11.3727
▁cle	-11.3731
▁goddess	-11.3732
▁stance	-11.3733
▁separation	-11.3734
▁chips	-11.3735
▁lined	-11.3737
▁mul	-11.3737
▁consensus	-11.3738
▁nato	-11.3739
nus	-11.3739
▁timing	-11.374
▁deadline	-11.374
▁spectrum	-11.3744
▁streak	-11.3748
\\	-11.3749
▁sap	-11.3751
▁podcast	-11.3751
▁hut	-11.3751
▁thereby	-11.3752
ό	-11.3753
▁oscar	-11.3755
▁buzz	-11.3756
▁emma	-11.3756
ill	-11.376
▁hunger	-11.3763
▁nathan	-11.3763
▁quarters	-11.3764
lus	-11.3764
▁carries	-11.3768
▁cavalry	-11.3769
▁expense	-11.3772
nut	-11.3772
▁deficit	-11.3774
レ	-11.3775
▁registration	-11.3777
▁coaching	-11.3778
▁psycho	-11.3782
pos	-11.3783
▁produces	-11.3783
▁inhabitants	-11.3784
kie	-11.3785
▁celebration	-11.3786
oe	-11.3787
▁lei	-11.3789
▁ecosystem	-11.379
φ	-11.3791
num	-11.3793
▁bog	-11.3795
▁hike	-11.3796
▁accomplished	-11.3796
▁waved	-11.3797
stä	-11.3799
▁pump	-11.3803
stock	-11.3805
出	-11.3807
fig	-11.3807
▁pens	-11.3807
▁cleaning	-11.3808
▁slice	-11.3809
▁plates	-11.3811
▁puerto	-11.3811
adi	-11.3813
ml	-11.3813
▁secured	-11.3813
▁ras	-11.3813
▁cops	-11.3815
late	-11.3816
▁nicholas	-11.3817
▁ev	-11.3818
blue	-11.3822
▁outfit	-11.3823
▁professionals	-11.3827
▁exile	-11.3828
▁treasure	-11.3831
▁stirring	-11.3833
mid	-11.3834
▁finn	-11.3835
▁lobby	-11.3835
▁parliamentary	-11.3836
▁hollow	-11.3838
▁raj	-11.3839
tica	-11.3841
▁metres	-11.3842
▁grief	-11.3845
▁promoting	-11.3846
▁exhibit	-11.3847
▁barrel	-11.3848
photo	-11.3851
wide	-11.3853
▁cure	-11.3855
igan	-11.3856
▁folded	-11.3857
▁blues	-11.3857
▁barry	-11.3857
▁divisions	-11.3857
▁trailer	-11.3859
▁openly	-11.3863
▁diary	-11.3863
▁kun	-11.387
▁nova	-11.3871
▁cons	-11.3871
▁arrange	-11.3872
▁sid	-11.3875
fat	-11.3877
lee	-11.3877
▁volunteers	-11.3879
▁evans	-11.3879
els	-11.3881
▁dome	-11.3883
)**	-11.3888
▁acceptance	-11.3889
▁rings	-11.3891
▁scent	-11.3892
▁encore	-11.3892
▁module	-11.3894
tour	-11.3897
▁syn	-11.3901
gia	-11.3904
▁joan	-11.3908
▁journalism	-11.3912
▁cameron	-11.3912
▁μ	-11.3913
▁liver	-11.3917
▁logical	-11.3918
▁glen	-11.3919
▁mediterranean	-11.392
▁bobby	-11.3922
▁legion	-11.3922
mad	-11.3922
iza	-11.3927
▁complained	-11.3928
▁cheeks	-11.3934
▁determination	-11.3935
▁puzzle	-11.3935
kins	-11.3936
▁vertical	-11.394
ו	-11.3941
▁dublin	-11.3942
president	-11.3948
ا	-11.395
お	-11.3955
▁emails	-11.3958
lect	-11.3958
▁operational	-11.3959
▁sala	-11.396
▁beta	-11.3961
▁nuts	-11.3961
▁nationalist	-11.3963
▁mist	-11.3964
▁frontier	-11.3965
▁bail	-11.3965
▁treasury	-11.3967
▁banner	-11.3967
▁shoe	-11.397
▁tightly	-11.3972
ech	-11.3973
▁tribes	-11.3974
amp	-11.3977
wy	-11.3977
body	-11.3979
frame	-11.3981
minded	-11.3982
▁kha	-11.3985
▁ale	-11.3985
▁eighth	-11.3986
▁mala	-11.3987
▁sixteen	-11.3987
▁mich	-11.3989
ota	-11.399
▁sor	-11.3993
▁populations	-11.3993
▁trapped	-11.3995
▁worthy	-11.3997
▁mercy	-11.4
▁noch	-11.4001
▁ukrainian	-11.4002
▁absent	-11.4003
rel	-11.4004
▁nearest	-11.4005
▁freud	-11.4007
▁enhance	-11.4007
▁touching	-11.4008
▁bundle	-11.4009
ander	-11.401
▁exam	-11.4016
nin	-11.4025
▁secular	-11.4027
▁mol	-11.4028
atory	-11.4029
▁ska	-11.4029
ح	-11.4031
vik	-11.4032
▁sustainable	-11.4033
ş	-11.4034
▁classification	-11.4034
ried	-11.4035
nica	-11.4036
▁lighting	-11.4037
▁collar	-11.4039
▁dynasty	-11.4039
▁crop	-11.4042
▁scrap	-11.4043
stre	-11.4047
▁relatives	-11.4048
▁outline	-11.4049
▁alternate	-11.4049
▁eaten	-11.405
▁swan	-11.4051
▁counts	-11.4051
▁unemployment	-11.4051
▁abraham	-11.4051
▁chan	-11.4053
cos	-11.4056
▁owen	-11.4056
▁grasp	-11.4056
▁savage	-11.4057
▁corresponding	-11.4059
▁yoga	-11.4059
▁cass	-11.4061
▁feeding	-11.4063
▁investigations	-11.4064
▁noon	-11.4064
▁breach	-11.4064
▁cra	-11.4065
▁fierce	-11.4066
ña	-11.4068
▁bir	-11.4069
▁cit	-11.4071
▁expanding	-11.4076
▁amy	-11.4077
aro	-11.4078
▁practically	-11.4078
bling	-11.4078
▁probability	-11.4079
▁austria	-11.4082
▁ego	-11.4083
▁hr	-11.4085
▁hd	-11.4089
▁starring	-11.4089
wer	-11.409
ois	-11.4092
aga	-11.4093
other	-11.4094
▁chill	-11.4095
▁complexity	-11.4096
▁shallow	-11.4096
▁bonds	-11.4097
▁frowned	-11.4098
▁habits	-11.4098
▁phones	-11.4102
sent	-11.4103
▁kai	-11.4105
▁toxic	-11.4105
nne	-11.4106
▁nhl	-11.4106
reg	-11.411
▁fre	-11.4113
max	-11.4114
▁swung	-11.4115
vic	-11.4116
▁denver	-11.4116
▁directors	-11.4119
▁imposed	-11.412
▁от	-11.4121
case	-11.4124
▁buffalo	-11.4125
▁situated	-11.4127
▁nominated	-11.4128
▁vez	-11.413
▁jug	-11.4132
▁nixon	-11.4133
hot	-11.4134
▁lucas	-11.4135
position	-11.4135
▁exclusively	-11.4138
▁variation	-11.4138
▁archives	-11.4139
ied	-11.414
▁websites	-11.414
bell	-11.4142
▁savings	-11.4143
sive	-11.4143
▁zen	-11.4144
▁scha	-11.4145
▁phoenix	-11.4148
ct	-11.415
‘	-11.4151
▁reject	-11.4151
▁gel	-11.4153
▁sup	-11.4156
mission	-11.4157
▁lyrics	-11.4157
▁archive	-11.4158
▁eighteen	-11.4159
▁whilst	-11.4161
▁spreading	-11.4161
».	-11.4161
▁être	-11.4161
▁milan	-11.4162
▁merchant	-11.4166
▁interact	-11.4168
▁shaped	-11.417
▁ministers	-11.4171
▁pap	-11.4175
▁inflation	-11.4178
▁rebellion	-11.4183
▁prophet	-11.4184
▁vanilla	-11.4185
▁partially	-11.4186
▁cliff	-11.4188
▁enthusiasm	-11.4189
▁pregnancy	-11.4191
gging	-11.4191
system	-11.4194
▁hostile	-11.4194
cola	-11.4195
▁senators	-11.4197
▁washed	-11.4199
▁eagle	-11.4201
▁advised	-11.4201
▁encountered	-11.4202
▁\	-11.4203
▁dai	-11.4204
▁drums	-11.4205
▁chant	-11.4208
▁capabilities	-11.4209
ienne	-11.4209
▁cruise	-11.4209
▁emerge	-11.4209
azione	-11.421
▁mak	-11.4211
▁upstairs	-11.4211
▁doll	-11.4214
mine	-11.4215
▁partial	-11.4216
ein	-11.4219
▁blanket	-11.4223
▁rou	-11.4225
▁orleans	-11.4227
▁runner	-11.4228
ace	-11.4231
▁halfway	-11.4233
rri	-11.4233
▁filter	-11.4234
▁stroke	-11.4235
▁tomato	-11.4236
▁deliberately	-11.4237
hat	-11.4237
▁chop	-11.424
▁canyon	-11.4241
▁rows	-11.4242
▁proposition	-11.4242
▁blessing	-11.4244
▁hur	-11.4245
active	-11.4249
▁lens	-11.425
▁sandy	-11.4252
▁neil	-11.4254
▁†	-11.4256
▁marx	-11.4256
▁drops	-11.4258
▁utility	-11.4259
▁costa	-11.4261
▁cannon	-11.4261
▁shorter	-11.4264
▁gym	-11.4265
spir	-11.4268
ivo	-11.4269
dio	-11.427
ache	-11.427
▁physician	-11.4271
▁thy	-11.4271
jer	-11.4272
▁eddie	-11.4273
être	-11.4273
▁rhetoric	-11.4273
▁conception	-11.4274
▁styles	-11.4277
▁trends	-11.4277
ave	-11.4278
lation	-11.4278
▁challenged	-11.4279
ás	-11.4279
▁jose	-11.428
▁potato	-11.4281
▁kent	-11.4281
sic	-11.4281
▁technological	-11.4281
▁josé	-11.4282
election	-11.4284
▁beck	-11.4285
み	-11.4285
▁rubber	-11.4295
group	-11.4295
▁uncertain	-11.4296
jun	-11.4296
▁correctly	-11.43
▁acceptable	-11.4301
▁saints	-11.4301
▁evolved	-11.4304
ome	-11.4306
って	-11.4307
▁consecutive	-11.4308
▁lisa	-11.431
check	-11.431
▁reads	-11.4312
▁persian	-11.4313
▁forests	-11.4316
▁cottage	-11.4316
hon	-11.4319
ве	-11.4325
▁lac	-11.4325
▁swim	-11.4326
▁regulatory	-11.4327
▁radar	-11.4328
▁murphy	-11.4328
itis	-11.433
tet	-11.4332
▁terry	-11.4332
▁aims	-11.4332
па	-11.4334
▁norway	-11.4334
iff	-11.4334
▁sustained	-11.4335
▁carr	-11.4336
▁collapsed	-11.4337
cin	-11.434
anne	-11.4342
▁equipped	-11.4343
▁competed	-11.4345
ending	-11.4345
▁tray	-11.4349
ον	-11.4349
▁exploration	-11.4352
▁mature	-11.4354
▁encouraging	-11.4354
kö	-11.4355
▁harvest	-11.4356
sim	-11.4358
det	-11.436
▁avant	-11.4362
▁scratch	-11.4362
▁danny	-11.4362
▁quantum	-11.4365
▁publishers	-11.437
▁adapt	-11.4371
▁wheels	-11.4372
▁spe	-11.4374
▁monde	-11.4375
ect	-11.4377
▁commentary	-11.4377
mme	-11.4379
▁rabbit	-11.438
ی	-11.438
▁curse	-11.4381
.[	-11.4381
▁flights	-11.4383
▁hybrid	-11.4383
▁vacation	-11.4383
▁pou	-11.4385
▁overhead	-11.4386
ми	-11.4387
▁hull	-11.4388
thy	-11.4388
»,	-11.4388
▁mason	-11.4392
▁profound	-11.4393
▁wit	-11.4397
▁chairs	-11.4397
▁pollution	-11.4397
▁formally	-11.4398
▁loyalty	-11.44
▁sl	-11.4401
▁vampire	-11.4401
▁spectacular	-11.4403
every	-11.4403
pad	-11.4404
door	-11.4405
▁wird	-11.4405
▁recipes	-11.4408
▁geography	-11.441
月	-11.4412
prov	-11.4413
phe	-11.4413
▁sentenced	-11.4415
▁−	-11.4418
lc	-11.442
▁spine	-11.4422
ει	-11.4422
som	-11.4424
▁pros	-11.4426
▁historically	-11.4427
stick	-11.4427
▁hospitals	-11.4428
▁tourists	-11.4428
▁uncertainty	-11.4429
▁holland	-11.4429
▁gravity	-11.443
▁zoo	-11.4431
▁aboard	-11.4431
lem	-11.4432
▁tons	-11.4433
▁sprinkle	-11.4434
▁suck	-11.4434
▁mama	-11.4435
▁underneath	-11.4436
▁printing	-11.4437
▁monument	-11.4439
カ	-11.444
bla	-11.4441
rna	-11.4445
▁excessive	-11.4445
▁arsenal	-11.4449
▁gov	-11.4449
▁advisor	-11.445
▁acquire	-11.4452
▁blew	-11.4452
▁referendum	-11.4453
▁cryptocurrency	-11.4453
half	-11.4455
▁pont	-11.4456
▁tense	-11.4458
zing	-11.4458
ità	-11.4459
gio	-11.4459
▁sto	-11.4459
ups	-11.4461
▁awake	-11.4463
ash	-11.4464
▁discount	-11.4464
▁awkward	-11.4464
▁trek	-11.4469
▁investments	-11.4471
▁intimate	-11.4471
▁foul	-11.4475
▁bride	-11.4475
▁portugal	-11.4475
ult	-11.4478
▁blo	-11.4479
▁jungle	-11.448
▁bacteria	-11.4481
▁credits	-11.4482
▁enabled	-11.4482
▁static	-11.4485
▁stating	-11.4485
▁mixing	-11.4485
vr	-11.4485
▁advocates	-11.4486
inn	-11.4486
ți	-11.4487
▁vir	-11.4488
▁keith	-11.4488
▁fare	-11.4489
▁poison	-11.4492
hang	-11.4492
▁exhausted	-11.4493
▁ft	-11.4497
▁warner	-11.4498
▁dvd	-11.4498
▁whisk	-11.4499
▁mold	-11.4501
▁louisiana	-11.4505
cp	-11.4505
▁ranking	-11.4508
▁battles	-11.4508
▁adjacent	-11.4508
▁salmon	-11.4509
▁vida	-11.4509
lian	-11.451
▁migrants	-11.451
▁compensation	-11.451
▁speculation	-11.4511
wel	-11.4511
▁provision	-11.4512
esh	-11.4512
▁exploring	-11.4513
▁gest	-11.4514
▁mig	-11.4516
▁traditionally	-11.452
▁overwhelming	-11.4521
です	-11.4522
▁montreal	-11.4524
▁bab	-11.4525
▁lonely	-11.4527
▁mehr	-11.4528
▁trauma	-11.4531
ß	-11.4532
▁breed	-11.4536
▁springs	-11.4537
▁prompted	-11.4538
▁spokesperson	-11.4542
▁spark	-11.4543
▁rocky	-11.4544
ì	-11.4545
▁criteria	-11.4546
▁completion	-11.4548
jack	-11.4548
▁praised	-11.4548
plus	-11.4549
▁mathematical	-11.4552
▁kara	-11.4557
▁tak	-11.4559
▁minimal	-11.4564
▁judicial	-11.4566
▁observations	-11.4571
dec	-11.4573
vent	-11.4573
▁accommodation	-11.4575
gé	-11.4575
eye	-11.4576
▁franc	-11.4576
▁immune	-11.4577
▁venue	-11.4579
▁custody	-11.4579
▁penguin	-11.4579
▁linux	-11.458
▁patience	-11.4583
▁tendency	-11.4584
▁asylum	-11.4587
▁cad	-11.4589
▁revealing	-11.4589
▁defender	-11.459
wait	-11.459
rest	-11.459
▁deployed	-11.459
make	-11.459
▁providers	-11.4592
rf	-11.4592
quin	-11.4596
▁counted	-11.4597
▁interrupted	-11.46
▁perry	-11.4605
▁oral	-11.4608
▁citizenship	-11.4609
▁creator	-11.4613
sea	-11.4614
▁thirteen	-11.4617
▁churchill	-11.4618
▁rebels	-11.462
▁whoever	-11.4621
________________	-11.4625
▁rabbi	-11.4627
▁laptop	-11.4628
bia	-11.4628
▁liberation	-11.4628
ridge	-11.4629
ре	-11.4629
▁incorporated	-11.4631
▁afterward	-11.4632
▁watson	-11.4632
sión	-11.4633
▁maid	-11.4634
▁requirement	-11.4634
▁peel	-11.464
▁radiation	-11.4641
▁fourteen	-11.4642
dad	-11.4642
▁lasted	-11.4646
ić	-11.4649
rea	-11.465
ema	-11.4651
▁fraction	-11.4652
▁corners	-11.4653
▁loves	-11.4654
▁witnessed	-11.4658
▁sab	-11.466
▁einen	-11.466
tics	-11.466
true	-11.4661
hello	-11.4661
▁cultures	-11.4663
rov	-11.4664
handed	-11.4666
▁timber	-11.4668
dir	-11.4668
ego	-11.4669
▁turner	-11.4669
▁ved	-11.467
mouth	-11.467
▁brands	-11.4671
▁avoided	-11.4675
という	-11.4675
▁hatred	-11.4676
both	-11.4677
dog	-11.4677
▁bil	-11.4678
▁reactions	-11.468
▁columns	-11.468
df	-11.4683
▁mt	-11.4683
▁acres	-11.4685
▁quebec	-11.4685
▁conscience	-11.4686
▁butler	-11.4686
▁gentleman	-11.4687
dling	-11.4688
▁tommy	-11.4689
▁\\	-11.469
▁rookie	-11.4691
▁lions	-11.4693
▁defended	-11.4696
▁deemed	-11.4697
▁hebrew	-11.4698
▁angels	-11.4699
▁planes	-11.47
▁gam	-11.4701
▁stall	-11.4702
▁importantly	-11.4703
cd	-11.4704
▁calories	-11.4706
lies	-11.4708
iro	-11.4709
▁instances	-11.4709
▁herald	-11.471
▁speakers	-11.4711
▁adoption	-11.4711
▁merit	-11.4714
▁brun	-11.4714
▁gin	-11.4716
▁territories	-11.472
spect	-11.4721
▁harper	-11.4723
▁variations	-11.4723
▁citing	-11.4725
▁scream	-11.4726
▁owe	-11.4726
ande	-11.4727
▁todo	-11.4728
▁funded	-11.4728
▁netflix	-11.4728
▁~	-11.473
▁musician	-11.4732
▁și	-11.4734
ain	-11.4734
ин	-11.4734
▁cartoon	-11.4737
gla	-11.474
▁proceed	-11.474
▁prof	-11.4743
alis	-11.4744
▁elderly	-11.4749
ż	-11.4749
▁massacre	-11.475
dine	-11.475
▁bubble	-11.4751
▁courses	-11.4751
▁clause	-11.4751
▁bias	-11.4753
▁likewise	-11.4753
uro	-11.4753
▁riot	-11.4754
▁render	-11.4755
▁libraries	-11.4756
▁consisted	-11.4759
▁wenn	-11.4763
▁whip	-11.4764
▁privilege	-11.4764
▁casual	-11.4765
す	-11.4766
▁buddhist	-11.4766
▁venezuela	-11.4768
▁julia	-11.4769
pit	-11.4771
▁homeland	-11.4772
▁presumably	-11.4773
▁pond	-11.4773
▁pasta	-11.4776
amento	-11.4776
▁portfolio	-11.4777
▁reforms	-11.4778
bru	-11.4782
€	-11.4785
nda	-11.4788
▁despair	-11.4788
hm	-11.4789
grad	-11.479
▁proceedings	-11.479
▁missions	-11.4791
▁prosecution	-11.4792
▁arrangements	-11.4794
▁weakness	-11.4795
▁couples	-11.4801
▁vague	-11.4802
▁ça	-11.4805
▁gru	-11.4807
member	-11.4809
▁sunlight	-11.4812
▁hallway	-11.4813
▁ian	-11.4813
▁со	-11.4813
▁об	-11.4813
▁cookies	-11.4815
▁vinegar	-11.482
aus	-11.4821
▁adviser	-11.4823
▁backward	-11.4824
ord	-11.4825
▁eligible	-11.4828
▁oppose	-11.4828
▁hydro	-11.483
▁trim	-11.483
▁manufacturers	-11.4831
▁modi	-11.4834
speed	-11.4834
▁upp	-11.4834
▁exp	-11.4836
rous	-11.4842
▁silly	-11.4842
▁assumption	-11.4844
▁flo	-11.4844
▁protestant	-11.4844
▁spur	-11.4845
ç	-11.4847
▁nevada	-11.4848
▁radi	-11.4848
▁julian	-11.4849
▁são	-11.4849
▁newsletter	-11.4849
those	-11.485
▁withdrawal	-11.4855
tale	-11.4857
▁zum	-11.4857
▁prosecutors	-11.4857
▁caso	-11.4859
▁junction	-11.486
▁intersection	-11.4862
▁voor	-11.4863
ket	-11.4864
vas	-11.4865
▁franco	-11.4866
▁relaxed	-11.4866
▁accuracy	-11.4867
▁tens	-11.4867
▁kol	-11.4869
▁grinned	-11.4869
▁puis	-11.4869
▁voter	-11.487
gui	-11.4871
▁attributed	-11.4872
▁assuming	-11.4874
▁rolls	-11.4875
▁capitol	-11.4875
▁bei	-11.4875
▁counties	-11.4876
although	-11.4876
show	-11.4877
yr	-11.4877
▁fro	-11.4877
▁basil	-11.4878
▁basin	-11.4884
▁pittsburgh	-11.4884
iest	-11.4884
▁shapes	-11.4887
endo	-11.4888
▁hotels	-11.4888
▁dated	-11.4889
ffer	-11.4891
▁consultant	-11.4891
▁themes	-11.4892
rina	-11.4893
▁recommendations	-11.4897
▁plea	-11.4902
oid	-11.4904
▁slope	-11.4904
▁thai	-11.4904
▁nan	-11.4905
urs	-11.4905
▁lib	-11.4907
▁elect	-11.4908
lev	-11.4908
▁publish	-11.4908
ske	-11.491
▁restricted	-11.4911
▁necessity	-11.4912
urg	-11.4913
▁ir	-11.4915
▁shouting	-11.4919
▁là	-11.4921
▁crushed	-11.4922
vit	-11.4925
weight	-11.4925
▁tribute	-11.4926
eyed	-11.4928
▁propose	-11.4928
▁blake	-11.493
ан	-11.4931
▁resolved	-11.4931
tions	-11.4932
serv	-11.4933
▁muttered	-11.4934
▁raf	-11.4935
▁arise	-11.4935
shirt	-11.4936
▁replacing	-11.494
osis	-11.4941
▁screw	-11.4941
▁whistle	-11.4941
▁needle	-11.4945
▁suspicion	-11.4945
lat	-11.4948
friendly	-11.4952
▁dice	-11.4954
中	-11.4955
block	-11.4955
▁wallace	-11.4956
▁cheer	-11.4958
▁md	-11.4961
▁dakota	-11.4961
▁biology	-11.4969
nell	-11.497
▁adapted	-11.4972
▁hier	-11.4972
▁neighbor	-11.4973
▁envelope	-11.4976
▁equation	-11.498
▁berkeley	-11.4984
▁relieved	-11.4984
ock	-11.4985
国	-11.4985
▁threshold	-11.4985
▁raz	-11.4986
ри	-11.4988
▁analyst	-11.4989
gr	-11.4991
▁proposals	-11.4991
▁desde	-11.4992
▁interactions	-11.4994
▁sentiment	-11.4994
▁invented	-11.5004
▁fisher	-11.5005
pie	-11.5006
▁absurd	-11.5008
ij	-11.5008
▁estado	-11.501
▁brass	-11.501
▁sharply	-11.5011
▁dramatically	-11.5015
emp	-11.5015
▁commissioned	-11.5016
beat	-11.5018
▁sym	-11.5022
eurs	-11.5023
▁revelation	-11.5024
▁shan	-11.5024
▁ferry	-11.5025
▁connecting	-11.503
zie	-11.503
▁distinctive	-11.5032
quel	-11.5034
camp	-11.5034
▁submarine	-11.5036
▁justify	-11.5037
▁harvey	-11.5038
▁sensation	-11.5038
db	-11.5039
▁madison	-11.504
iser	-11.5041
mma	-11.5042
▁mosque	-11.5044
▁requiring	-11.5044
▁engaging	-11.5044
▁ramp	-11.5044
▁accepting	-11.5045
aud	-11.5046
ume	-11.5048
pound	-11.5049
▁longest	-11.5049
▁preserved	-11.505
▁gau	-11.5051
▁drives	-11.5051
▁survivors	-11.5052
▁sophisticated	-11.5055
▁believing	-11.5056
ró	-11.5057
pes	-11.5057
▁mortgage	-11.5059
▁kann	-11.506
▁dimension	-11.506
▁displays	-11.5061
▁releases	-11.5063
▁nerve	-11.5066
▁chains	-11.5066
▁lone	-11.5067
▁heels	-11.5067
▁frightened	-11.5069
tico	-11.507
▁sneak	-11.507
▁grows	-11.5071
▁lawn	-11.5073
▁wounds	-11.5075
▁sn	-11.5075
▁null	-11.5077
▁basement	-11.5078
▁renamed	-11.5078
▁robust	-11.5079
▁jurisdiction	-11.5079
ick	-11.5079
▁volumes	-11.508
talk	-11.508
▁bucket	-11.5081
▁ranch	-11.5081
▁mos	-11.5082
▁binding	-11.5083
force	-11.5084
▁boundary	-11.5085
wal	-11.5086
▁illustrated	-11.5087
lip	-11.5088
né	-11.5092
ière	-11.5096
used	-11.5098
ма	-11.5099
▁soap	-11.5099
nov	-11.5101
▁kyle	-11.5103
gger	-11.5104
ет	-11.5104
▁unions	-11.5105
▁einem	-11.5105
▁restoration	-11.5108
▁cocktail	-11.5108
▁curiosity	-11.511
▁dio	-11.511
▁meets	-11.511
▁reagan	-11.5112
▁momentum	-11.5115
udi	-11.5115
▁prevention	-11.5116
ingly	-11.5118
▁setup	-11.5119
▁hawk	-11.5122
girl	-11.5123
bee	-11.5124
find	-11.5125
▁violation	-11.5126
▁freely	-11.5126
▁tossed	-11.5127
▁operators	-11.5127
▁manuscript	-11.5128
▁crops	-11.5128
▁chap	-11.5132
▁possessed	-11.5135
nak	-11.5137
▁feast	-11.5139
▁capitalist	-11.514
cra	-11.5141
▁guided	-11.5143
ج	-11.5143
▁explicitly	-11.5151
▁reddit	-11.5151
specific	-11.5154
▁harrison	-11.5157
fan	-11.5158
▁trophy	-11.5159
▁clinic	-11.516
▁şi	-11.516
▁fury	-11.5161
dam	-11.5162
▁sprint	-11.5167
▁idiot	-11.5171
▁airlines	-11.5171
▁bump	-11.5172
were	-11.5172
▁finely	-11.5172
▁delta	-11.5173
▁klein	-11.5176
books	-11.5176
▁descent	-11.5177
▁prey	-11.5181
▁tang	-11.5184
▁victorian	-11.5184
rose	-11.5185
▁simmer	-11.5185
▁temps	-11.5186
ismo	-11.5188
▁respective	-11.5188
▁eli	-11.5189
▁suspension	-11.5189
▁ladder	-11.519
▁chemistry	-11.5193
▁temper	-11.5197
ен	-11.5197
▁knights	-11.5198
▁convey	-11.52
▁applying	-11.52
dding	-11.5201
▁rig	-11.5202
▁spun	-11.5203
▁expenses	-11.5206
termin	-11.5209
▁también	-11.5209
ates	-11.5209
ggle	-11.521
▁targeting	-11.5212
tron	-11.5215
▁batter	-11.5216
▁mara	-11.5219
▁accomplish	-11.5219
owned	-11.5225
▁bastard	-11.5227
emi	-11.5228
▁porter	-11.523
して	-11.5235
ancy	-11.5237
glo	-11.5238
▁handled	-11.5238
▁midst	-11.524
rit	-11.524
▁boyfriend	-11.5241
asse	-11.5241
▁brazilian	-11.5242
▁clearing	-11.5243
▁width	-11.5246
him	-11.5248
▁biblical	-11.5251
▁interviewed	-11.5254
▁legendary	-11.5255
▁bark	-11.5256
▁lesser	-11.5257
▁boo	-11.5259
▁visitor	-11.526
▁template	-11.5262
awa	-11.5264
▁porque	-11.5266
▁farms	-11.5267
▁calculated	-11.527
де	-11.5271
▁rust	-11.5271
▁moses	-11.5273
een	-11.5273
▁animated	-11.5273
ку	-11.5275
▁infinite	-11.5276
▁tub	-11.5276
▁prosecutor	-11.5279
pod	-11.528
▁coll	-11.5282
lang	-11.5287
▁vector	-11.5291
▁philosopher	-11.5291
▁beg	-11.5291
▁theoretical	-11.5292
ál	-11.5292
▁belongs	-11.5293
▁ronald	-11.5294
▁lad	-11.5304
▁screamed	-11.5304
▁fruits	-11.5306
▁trash	-11.5307
▁scho	-11.5308
▁stanford	-11.5308
▁wang	-11.5308
▁michel	-11.5309
▁czech	-11.531
▁athens	-11.531
▁flows	-11.531
▁complain	-11.5311
▁plaza	-11.5315
▁casting	-11.5316
▁macro	-11.5321
▁ella	-11.5322
since	-11.5324
▁protective	-11.5324
zh	-11.5325
kes	-11.5326
hit	-11.5327
▁bind	-11.5328
antes	-11.5328
▁farming	-11.533
▁landmark	-11.5331
▁seated	-11.5332
▁alley	-11.5333
ress	-11.5335
▁utterly	-11.5335
ono	-11.5335
▁affection	-11.5335
▁priests	-11.5336
grand	-11.5336
▁surviving	-11.5337
▁sham	-11.5338
▁muhammad	-11.5339
▁cloak	-11.534
▁liv	-11.534
chin	-11.5342
▁gy	-11.5342
ensis	-11.5342
▁delayed	-11.5343
rac	-11.5346
▁kant	-11.5348
▁productive	-11.5349
▁pelo	-11.5349
▁alla	-11.5349
п	-11.535
▁ole	-11.535
rating	-11.5351
▁distress	-11.5351
▁provisions	-11.5352
▁wives	-11.5353
▁highlight	-11.5354
▁onions	-11.5359
▁eh	-11.5359
▁opt	-11.536
▁honestly	-11.5361
ucci	-11.5363
ов	-11.5367
▁laser	-11.537
▁patron	-11.5371
▁overview	-11.5373
▁acute	-11.5373
▁parameters	-11.5374
▁tempo	-11.5374
mag	-11.5376
▁rib	-11.5376
▁poi	-11.5377
clu	-11.5378
▁addressing	-11.5379
▁uni	-11.5381
▁peru	-11.5383
▁indonesia	-11.5383
▁plug	-11.5384
▁caution	-11.5385
▁gig	-11.5387
▁bombs	-11.539
▁russians	-11.539
▁closure	-11.5391
▁thou	-11.5398
▁javascript	-11.54
▁carved	-11.54
▁herbs	-11.5403
▁questioning	-11.5404
▁connecticut	-11.5404
▁freshly	-11.5405
▁fires	-11.5406
rb	-11.5406
▁karen	-11.5411
▁todd	-11.5411
▁freak	-11.5412
▁expertise	-11.5413
▁gaza	-11.5413
south	-11.5414
▁cum	-11.5419
▁dealt	-11.5419
plan	-11.5419
め	-11.5419
▁alike	-11.542
▁inequality	-11.5425
▁collections	-11.5425
▁stre	-11.5427
dl	-11.5428
▁terrace	-11.5428
▁traded	-11.5429
▁ralph	-11.5429
inen	-11.5431
▁graphics	-11.5431
mur	-11.5432
▁reminder	-11.5433
▁disagree	-11.5435
▁sein	-11.5436
▁banana	-11.5437
cate	-11.5441
ön	-11.5441
▁assess	-11.5443
▁legally	-11.5444
web	-11.5446
▁establishing	-11.5448
brook	-11.5449
▁eco	-11.5454
▁fascinating	-11.5454
▁mentor	-11.5457
crypt	-11.5457
hem	-11.5458
▁puff	-11.5458
▁suspicious	-11.5464
▁matrix	-11.5465
▁shifting	-11.5468
izer	-11.5472
bone	-11.5473
▁__	-11.5475
▁faded	-11.5475
▁hugh	-11.5477
▁marsh	-11.5478
▁hedge	-11.5478
▁checks	-11.5483
▁invention	-11.5484
▁isaac	-11.5485
aron	-11.5486
▁writings	-11.5486
▁shine	-11.5486
▁altar	-11.5487
zia	-11.5489
▁proc	-11.5491
▁cp	-11.5491
▁commanded	-11.5492
imi	-11.5492
▁bean	-11.5492
▁blessed	-11.5494
▁collecting	-11.5494
▁ranging	-11.5497
▁chess	-11.5497
▁chelsea	-11.5497
▁earning	-11.55
▁berg	-11.5501
root	-11.5503
▁durch	-11.5503
för	-11.5504
▁lä	-11.5506
wyn	-11.5507
▁switched	-11.5507
cup	-11.5508
▁δ	-11.551
▁isolation	-11.5511
▁belle	-11.5516
▁indicating	-11.5516
上	-11.5519
▁graphic	-11.552
▁souls	-11.5521
etto	-11.5523
▁respected	-11.5524
▁insert	-11.5526
▁portuguese	-11.553
▁backup	-11.5531
▁renaissance	-11.5534
▁warmth	-11.5537
fre	-11.5538
lets	-11.5539
ast	-11.5541
▁qual	-11.5542
▁bald	-11.5542
▁terrorists	-11.5543
▁belgium	-11.5543
▁dense	-11.5543
わ	-11.5543
pra	-11.5544
▁concentrated	-11.5545
quality	-11.5546
▁barcelona	-11.5548
▁ratings	-11.5551
マ	-11.5553
chel	-11.5553
eli	-11.5553
生	-11.5555
▁forgot	-11.5555
▁orientation	-11.5556
▁pillow	-11.5558
▁vers	-11.5558
▁levi	-11.5558
▁operates	-11.5559
▁apo	-11.556
enza	-11.5562
▁peu	-11.5563
▁plum	-11.5563
▁cherry	-11.5567
brand	-11.5568
▁vain	-11.557
gard	-11.5572
▁earthquake	-11.5573
▁tem	-11.5575
▁mortal	-11.5577
▁breeze	-11.5577
▁foolish	-11.5577
vil	-11.5577
▁homeless	-11.5577
▁quantity	-11.5579
▁accommodate	-11.558
▁mansion	-11.5581
quer	-11.5583
▁déc	-11.5583
▁wiped	-11.5585
▁playoffs	-11.5586
▁conflicts	-11.5587
▁bicycle	-11.5587
▁attitudes	-11.5589
▁dennis	-11.5593
aging	-11.5597
▁hug	-11.5603
▁desperately	-11.5605
▁electro	-11.5605
▁drank	-11.5608
▁rushing	-11.5608
nh	-11.5609
▁hai	-11.5611
▁indoor	-11.5612
▁cara	-11.5612
dies	-11.5613
could	-11.5615
▁commented	-11.5615
▁taiwan	-11.5617
▁barr	-11.5619
guard	-11.5621
language	-11.5624
▁pt	-11.5624
▁armies	-11.563
▁python	-11.5631
▁keyboard	-11.5634
▁planted	-11.5635
▁casino	-11.5637
▁counting	-11.5637
ality	-11.5637
edge	-11.5638
▁surgeon	-11.5638
print	-11.5639
▁balanced	-11.564
final	-11.564
▁norwegian	-11.564
▁spencer	-11.564
▁commonwealth	-11.564
▁arg	-11.5641
▁romney	-11.5641
▁colin	-11.5643
oka	-11.5644
ła	-11.5645
▁deer	-11.5647
▁retained	-11.5648
▁wan	-11.5651
▁heights	-11.5653
▁supplement	-11.5653
▁pul	-11.5654
▁refuge	-11.5655
winning	-11.5656
ides	-11.5658
dle	-11.5659
▁maxim	-11.5659
▁doc	-11.566
▁relax	-11.5663
行	-11.5666
lt	-11.5667
▁cafe	-11.5669
▁rider	-11.5672
▁spit	-11.5673
▁buddha	-11.5673
▁appeals	-11.5676
▁militia	-11.5677
▁filing	-11.5678
▁solely	-11.5678
▁roberts	-11.568
▁peculiar	-11.568
▁particles	-11.568
▁sentences	-11.5681
▁catching	-11.5682
▁monk	-11.5682
▁transparent	-11.5682
▁caesar	-11.5683
▁struggles	-11.5683
▁innovative	-11.5684
▁saddle	-11.5685
▁hampshire	-11.5689
▁vladimir	-11.5689
▁freeze	-11.5689
▁stepping	-11.569
▁dy	-11.5692
▁gab	-11.5694
▁ak	-11.5695
▁hawaii	-11.5697
▁vu	-11.5699
▁sank	-11.5699
▁newton	-11.5699
▁·	-11.5699
▁comb	-11.57
▁yemen	-11.5701
ias	-11.5703
▁masses	-11.5704
dh	-11.5706
rent	-11.5706
sound	-11.5707
profit	-11.5707
▁outcomes	-11.5707
▁ambitious	-11.5708
click	-11.5708
خ	-11.571
ом	-11.571
▁ag	-11.5711
▁supposedly	-11.5712
▁neat	-11.5714
▁billboard	-11.5714
▁disorders	-11.5717
stat	-11.5718
fine	-11.572
cel	-11.5721
▁bout	-11.5722
▁fest	-11.5724
▁sweep	-11.5724
▁terrain	-11.5726
▁vii	-11.573
▁reich	-11.573
▁nh	-11.5732
▁burns	-11.5734
hop	-11.5734
kal	-11.5739
▁eva	-11.574
▁vincent	-11.574
itu	-11.5741
▁humble	-11.5741
count	-11.5741
▁broadway	-11.5742
▁float	-11.5744
pop	-11.5744
getty	-11.5747
nch	-11.5747
▁cease	-11.5747
kor	-11.5755
apa	-11.5756
▁fol	-11.5757
▁chronicle	-11.5757
chain	-11.5759
▁leonard	-11.576
essa	-11.5764
▁confirmation	-11.5765
ência	-11.5771
▁tesla	-11.5772
▁focuses	-11.5772
▁uno	-11.5772
▁sporting	-11.5773
kind	-11.5774
▁condemned	-11.5774
▁wireless	-11.5777
▁pockets	-11.578
▁و	-11.578
▁startup	-11.5781
operative	-11.5781
▁bengal	-11.5783
ب	-11.5783
▁helicopter	-11.5785
gif	-11.5785
tty	-11.5786
▁employers	-11.5787
▁organize	-11.5788
▁impose	-11.5788
▁reflects	-11.5788
▁stor	-11.5789
rais	-11.5789
▁leak	-11.5789
▁ils	-11.5792
fic	-11.5792
sal	-11.5792
▁paste	-11.5793
core	-11.5794
▁tragic	-11.5796
▁ideological	-11.5797
▁holmes	-11.5798
▁wander	-11.5799
▁pilots	-11.5799
▁liberals	-11.5803
ţi	-11.5803
▁developments	-11.5804
▁specialist	-11.5805
▁sous	-11.5807
▁paths	-11.5808
▁insist	-11.581
▁harassment	-11.5811
▁talented	-11.5812
▁ped	-11.5816
rik	-11.5817
▁lloyd	-11.5818
▁insult	-11.5819
▁countless	-11.5821
▁confront	-11.5821
▁nutrition	-11.5822
ivity	-11.5826
▁useless	-11.5828
rg	-11.5828
▁falcon	-11.5832
▁oli	-11.5833
▁yelled	-11.5833
▁layout	-11.5833
▁convenient	-11.5833
▁upward	-11.5835
isch	-11.5839
▁blamed	-11.5841
▁bachelor	-11.5842
ør	-11.5843
▁purely	-11.5844
music	-11.5844
elo	-11.5845
▁intentions	-11.5846
▁sco	-11.5848
▁escort	-11.5849
▁surge	-11.585
fel	-11.585
▁intend	-11.5853
▁towers	-11.5855
▁mice	-11.5857
▁prevented	-11.5859
▁thailand	-11.5859
smith	-11.586
▁richmond	-11.5861
sburg	-11.5862
▁supplied	-11.5863
▁exc	-11.5863
▁exercises	-11.5863
▁pastor	-11.5864
▁aviation	-11.5865
б	-11.5866
lined	-11.5866
ár	-11.5869
▁tooth	-11.587
▁characterized	-11.587
▁cel	-11.5871
▁corrupt	-11.5872
lice	-11.5872
▁seventy	-11.5875
▁ninth	-11.5877
cept	-11.5877
▁whisper	-11.5878
▁skip	-11.5878
▁nord	-11.5879
▁institutional	-11.5879
▁rangers	-11.588
▁pairs	-11.5881
▁α	-11.5881
tail	-11.5881
").	-11.5882
ref	-11.5884
bul	-11.5886
▁uber	-11.5888
▁sche	-11.5892
▁len	-11.5894
▁namely	-11.5898
▁merc	-11.5898
▁rotation	-11.5898
▁symbols	-11.5898
fly	-11.5898
lord	-11.5899
suit	-11.5899
▁equity	-11.5899
▁editing	-11.59
▁bau	-11.5901
▁très	-11.5904
agh	-11.5904
▁harbour	-11.5906
teen	-11.5907
▁cc	-11.5908
ators	-11.5911
dé	-11.5913
march	-11.5914
▁transgender	-11.5915
▁grad	-11.5916
▁hey	-11.5916
▁moss	-11.5919
▁disappointment	-11.592
▁straw	-11.5921
super	-11.5921
▁unprecedented	-11.5922
▁stu	-11.5922
kit	-11.5924
▁fairy	-11.5928
▁pres	-11.5933
▁riders	-11.5933
▁anglo	-11.5933
ith	-11.5934
▁cancel	-11.5936
▁dor	-11.5938
▁auction	-11.5939
▁mechanisms	-11.5939
▁dignity	-11.5944
▁demonstration	-11.5944
▁haben	-11.5945
▁impulse	-11.5945
▁candle	-11.5945
tric	-11.5945
▁finals	-11.5946
▁temporarily	-11.5949
▁mandate	-11.595
iri	-11.5951
▁wax	-11.5953
▁noting	-11.5954
者	-11.5955
▁florence	-11.5956
▁lace	-11.5957
polis	-11.5958
▁stitch	-11.5959
▁pencil	-11.5961
▁sony	-11.5961
▁guild	-11.5962
▁zur	-11.5966
▁dump	-11.5966
public	-11.5968
▁trio	-11.5968
▁applies	-11.5969
▁limitations	-11.5969
▁luis	-11.5969
▁candy	-11.5972
▁ivan	-11.5974
▁denmark	-11.5975
https	-11.5976
uer	-11.5976
▁sens	-11.5976
▁annually	-11.5977
αν	-11.5979
kun	-11.5981
▁blaze	-11.5981
▁deployment	-11.5981
pool	-11.5984
cco	-11.5988
▁lar	-11.5988
▁yale	-11.5989
▁rental	-11.5991
▁jennifer	-11.5992
▁chapters	-11.5992
▁vanished	-11.5993
length	-11.5994
▁consequently	-11.5994
through	-11.5995
▁orthodox	-11.5998
▁melt	-11.6
▁authentic	-11.6
cross	-11.6001
ssel	-11.6006
^	-11.6006
▁provider	-11.6008
ged	-11.601
does	-11.6011
▁harold	-11.6015
"),	-11.6015
▁elevator	-11.6016
▁jets	-11.6017
▁purse	-11.6017
film	-11.6021
▁releasing	-11.6025
ages	-11.6029
liber	-11.6029
▁arctic	-11.6029
▁broadcasting	-11.603
▁attach	-11.6031
▁mills	-11.6031
▁heir	-11.6032
▁diagnosis	-11.6035
▁covid	-11.6036
▁seg	-11.6037
▁darwin	-11.6038
▁seeks	-11.6039
listen	-11.6041
▁metaphor	-11.6046
▁porch	-11.6046
▁motivated	-11.6047
▁suggestions	-11.6047
sley	-11.6049
▁assassin	-11.605
▁battlefield	-11.6053
▁symbolic	-11.6056
▁frustrated	-11.6059
zio	-11.6061
▁burial	-11.6063
tim	-11.6063
▁tsp	-11.6063
▁beings	-11.6066
▁grams	-11.6066
gua	-11.6067
▁cope	-11.6068
▁historians	-11.607
▁essays	-11.6071
▁prototype	-11.6071
▁explicit	-11.6074
standing	-11.6075
▁attraction	-11.6076
▁passport	-11.6077
▁lifting	-11.6077
▁tribal	-11.6078
lei	-11.608
▁breasts	-11.6081
▁bases	-11.6082
▁cardinal	-11.6083
ambi	-11.6084
ви	-11.6084
pid	-11.6085
▁annie	-11.6086
▁sadly	-11.6087
▁steak	-11.6089
▁researcher	-11.609
▁adequate	-11.6091
▁cared	-11.6093
ovich	-11.6094
▁delle	-11.6097
▁temp	-11.6097
▁stuart	-11.6098
fs	-11.6098
▁fitness	-11.6099
▁guaranteed	-11.61
▁statistical	-11.61
▁portal	-11.61
▁architectural	-11.61
▁colored	-11.6102
▁pil	-11.6102
esse	-11.6102
▁bha	-11.6103
▁miracle	-11.6104
mia	-11.6107
▁youngest	-11.6108
von	-11.6111
ugh	-11.6112
▁editors	-11.6112
▁crude	-11.6112
▁expressions	-11.6113
▁mug	-11.6114
▁adventures	-11.6114
▁welsh	-11.6115
▁drone	-11.6116
▁controlling	-11.6117
▁revolt	-11.6118
▁hij	-11.6119
▁bizarre	-11.612
▁stunning	-11.612
lim	-11.612
vé	-11.6121
▁forgive	-11.6122
▁faithful	-11.6124
▁inspection	-11.6124
▁vienna	-11.6125
▁tattoo	-11.6125
▁civic	-11.6125
ului	-11.6125
▁lust	-11.6127
▁ignoring	-11.6127
▁ε	-11.6128
▁identifying	-11.6128
▁swear	-11.613
▁quand	-11.6131
▁availability	-11.6132
▁hurry	-11.6132
▁avoiding	-11.6134
▁π	-11.6135
▁magazines	-11.6136
▁espn	-11.6137
thanks	-11.6138
▁verbal	-11.6139
▁tyler	-11.6139
▁slices	-11.6139
ário	-11.614
rait	-11.6142
▁syrup	-11.6145
▁bleeding	-11.6147
▁arabic	-11.615
▁immense	-11.615
▁duncan	-11.615
▁dont	-11.6152
▁strings	-11.6154
あ	-11.6155
▁gaining	-11.6157
▁prix	-11.6158
iers	-11.6158
▁ounces	-11.6162
▁parked	-11.6164
building	-11.6164
▁eliminated	-11.6165
▁picks	-11.6166
▁resignation	-11.6166
▁manufacturer	-11.6166
▁mario	-11.6167
不	-11.6168
▁вы	-11.6168
iger	-11.617
▁fry	-11.6171
▁dial	-11.6174
▁horizontal	-11.6176
▁opposing	-11.6176
bag	-11.6177
gn	-11.6178
pol	-11.6178
▁wilderness	-11.6179
▁gui	-11.618
▁viewing	-11.6181
should	-11.6182
▁trucks	-11.6183
▁dimensions	-11.6187
▁ruler	-11.6187
▁welcomed	-11.6188
▁invested	-11.6192
▁az	-11.6192
rse	-11.6192
▁commons	-11.6194
▁doug	-11.6195
▁monarch	-11.6195
▁divers	-11.6195
▁strictly	-11.6195
▁muy	-11.6198
▁colleague	-11.62
▁strengthen	-11.6201
cb	-11.6202
berry	-11.6202
friend	-11.6205
kill	-11.6208
▁attachment	-11.6211
lp	-11.6215
▁hesitated	-11.6215
ト	-11.6215
▁cuban	-11.6216
▁maine	-11.6218
ф	-11.6219
▁realistic	-11.6222
▁fortunately	-11.6223
र	-11.6227
arse	-11.6228
▁lend	-11.6229
▁fails	-11.6229
▁sheer	-11.623
help	-11.6231
▁tensions	-11.6232
▁ncaa	-11.6232
▁hurried	-11.6233
▁mighty	-11.6236
▁compact	-11.6238
▁kur	-11.6238
▁frog	-11.6239
recht	-11.624
▁swallowed	-11.6243
▁sno	-11.6243
cie	-11.6252
site	-11.6256
▁elbow	-11.6256
founder	-11.6257
▁martha	-11.6259
fit	-11.626
▁negro	-11.626
acy	-11.6261
▁dann	-11.6261
▁poli	-11.6262
▁meantime	-11.6264
▁succession	-11.6265
▁gum	-11.6265
▁skirt	-11.6267
ssen	-11.6269
nah	-11.6269
▁navigation	-11.6271
▁borrow	-11.6273
▁edinburgh	-11.6274
ча	-11.6275
zzo	-11.6275
▁cracked	-11.6275
▁executives	-11.6277
▁hudson	-11.6277
ania	-11.6279
▁outlets	-11.628
▁projected	-11.628
▁flexible	-11.6282
▁query	-11.6283
▁bai	-11.6283
▁fountain	-11.6284
▁altered	-11.6285
liter	-11.6285
rier	-11.6286
▁correspondence	-11.6287
stead	-11.6287
▁gilbert	-11.6289
▁maker	-11.629
ving	-11.629
rad	-11.6291
▁participating	-11.6292
▁silently	-11.6294
▁nap	-11.6299
▁entities	-11.6305
meter	-11.6305
▁sting	-11.6307
anta	-11.6308
xa	-11.6308
▁terre	-11.631
▁attributes	-11.631
▁heap	-11.6311
▁teen	-11.6314
▁dom	-11.6315
▁stamp	-11.6317
った	-11.6319
ific	-11.6319
roy	-11.6321
▁anticipated	-11.6321
pas	-11.6321
wie	-11.6323
▁todos	-11.6325
▁travelling	-11.6328
▁villain	-11.6328
▁lovers	-11.6331
uli	-11.6332
cé	-11.6334
▁eagles	-11.6335
tiv	-11.6336
▁sorrow	-11.6336
uma	-11.6339
hum	-11.6339
▁wolves	-11.6339
▁insane	-11.6339
lessly	-11.6339
ύ	-11.634
rer	-11.6344
▁fetch	-11.6345
▁maha	-11.635
▁experiencing	-11.6351
cri	-11.6352
▁teenage	-11.6353
▁ios	-11.6354
aan	-11.6354
▁resume	-11.6355
itch	-11.6357
▁sustain	-11.6357
▁sandwich	-11.636
▁bern	-11.636
▁exchanges	-11.6362
▁harmony	-11.6362
▁prospects	-11.6362
▁archer	-11.6364
▁documentation	-11.6365
▁conclusions	-11.6366
▁pinch	-11.6367
▁mistress	-11.6369
zon	-11.637
▁jin	-11.637
▁congregation	-11.6371
▁computing	-11.6371
viv	-11.6371
trip	-11.6371
ço	-11.6371
▁audiences	-11.6373
▁diese	-11.6373
▁trillion	-11.6373
really	-11.6375
▁vai	-11.6375
▁tant	-11.6376
using	-11.6376
▁ufc	-11.6377
▁lakes	-11.6377
▁urgent	-11.6378
ksi	-11.6379
▁fm	-11.6382
▁cir	-11.6382
dell	-11.6383
▁preventing	-11.6384
ih	-11.6388
▁brew	-11.6389
▁apollo	-11.639
▁soy	-11.639
▁blocking	-11.639
▁assembled	-11.6392
▁searched	-11.6393
▁ng	-11.6394
▁contacted	-11.6395
iah	-11.6396
▁declare	-11.6397
▁desktop	-11.6397
▁clue	-11.6399
▁sunset	-11.6402
pack	-11.6403
▁warehouse	-11.6403
iste	-11.6404
tam	-11.6404
▁charging	-11.6407
arna	-11.6407
▁vid	-11.6408
▁aired	-11.641
science	-11.6412
▁attendance	-11.6412
▁courtyard	-11.6414
ifies	-11.6414
hel	-11.6416
tique	-11.6419
▁consisting	-11.6419
▁furious	-11.642
▁ö	-11.6421
▁destiny	-11.6423
▁readily	-11.6423
▁murmured	-11.6424
▁aftermath	-11.6425
▁hips	-11.6426
mother	-11.6426
▁toast	-11.6428
▁confession	-11.6429
▁renewable	-11.643
pay	-11.643
▁missiles	-11.6431
▁mothers	-11.6432
▁circular	-11.6432
▁princeton	-11.6432
▁kre	-11.6432
▁confrontation	-11.6435
▁ruins	-11.6437
▁airline	-11.6438
▁withdraw	-11.6439
▁varied	-11.6442
before	-11.6443
responsibilities	-11.6446
▁blanc	-11.6447
▁detention	-11.6448
ой	-11.6449
coat	-11.6449
▁expose	-11.645
▁crowds	-11.645
pf	-11.6452
▁austrian	-11.6452
▁claire	-11.6453
little	-11.6453
▁vene	-11.6455
hur	-11.6456
nier	-11.6456
▁gh	-11.6456
cip	-11.6456
▁shooter	-11.6456
fashioned	-11.6457
▁dag	-11.6457
во	-11.6458
▁jun	-11.6461
▁triangle	-11.6461
▁boards	-11.6461
▁renewed	-11.6462
▁esc	-11.6463
especially	-11.6463
▁crust	-11.6465
▁shaw	-11.6465
vio	-11.6465
change	-11.6466
kom	-11.6467
▁shed	-11.6467
▁shelf	-11.6468
▁confi	-11.6469
outs	-11.647
tó	-11.6471
▁jumping	-11.6472
▁accordingly	-11.6472
▁shining	-11.6473
▁mann	-11.6474
▁donations	-11.6477
▁partisan	-11.6477
▁->	-11.6478
ñ	-11.6478
▁limp	-11.6481
dimensional	-11.6483
hui	-11.6484
▁shuttle	-11.6485
▁oath	-11.6491
know	-11.6492
iga	-11.6492
▁decisive	-11.6493
▁malaysia	-11.6494
drop	-11.6495
▁preliminary	-11.6497
▁penny	-11.6498
▁execute	-11.6498
▁wicked	-11.6502
tree	-11.6502
▁swallow	-11.6503
uru	-11.6504
▁revival	-11.6504
▁hiring	-11.6504
▁resting	-11.6505
▁slammed	-11.6507
▁sac	-11.6507
gur	-11.6509
▁organizing	-11.651
▁shout	-11.6511
▁adrian	-11.6513
▁simulation	-11.6514
▁vegan	-11.6514
ش	-11.6515
▁più	-11.6517
▁reasoning	-11.6521
▁ancestors	-11.6521
▁kel	-11.6521
▁sympathy	-11.6522
▁interpret	-11.6524
▁paradise	-11.6524
▁enforce	-11.6525
flu	-11.6527
idi	-11.6527
▁assignment	-11.6531
▁immigrant	-11.6531
▁dose	-11.6533
"|	-11.6535
sz	-11.6536
▁chancellor	-11.6536
▁treating	-11.654
▁crashed	-11.6543
▁concentrate	-11.6546
dri	-11.6547
▁locally	-11.6548
▁memo	-11.6549
▁linguistic	-11.655
ox	-11.6551
▁responding	-11.6552
▁consumed	-11.6554
headed	-11.6556
bill	-11.6557
lb	-11.6557
▁advantages	-11.6559
▁zones	-11.6559
▁fitted	-11.656
▁packages	-11.656
number	-11.6562
▁queensland	-11.6564
▁afghan	-11.6565
▁cinnamon	-11.6567
tip	-11.6568
▁hypo	-11.6569
culture	-11.657
jon	-11.6572
▁relating	-11.6573
▁creativity	-11.6575
▁spiral	-11.6576
▁barb	-11.6576
▁accessed	-11.6577
▁stuffed	-11.6578
▁conta	-11.6578
▁finest	-11.6583
▁rom	-11.6587
▁cheaper	-11.6587
rine	-11.6587
▁kä	-11.6591
▁commands	-11.6591
chief	-11.6594
▁paragraph	-11.6595
▁deposit	-11.6595
▁axis	-11.6595
では	-11.6599
▁screening	-11.66
iii	-11.6601
▁accounting	-11.6602
walk	-11.6603
rig	-11.6606
▁esto	-11.6608
▁ottawa	-11.6608
history	-11.6609
▁surf	-11.661
▁consult	-11.661
▁oakland	-11.6611
▁lacking	-11.6611
▁sack	-11.6612
▁petr	-11.6612
sty	-11.6613
many	-11.6614
▁contributing	-11.6616
▁suits	-11.6616
▁autonomous	-11.6617
het	-11.6618
▁interference	-11.6618
▁scout	-11.662
▁playoff	-11.662
▁headlines	-11.6621
million	-11.6622
▁jos	-11.6622
▁interactive	-11.6622
▁arkansas	-11.6623
▁abruptly	-11.6625
▁admire	-11.6626
sorry	-11.6627
▁passive	-11.6628
▁contre	-11.6629
▁messenger	-11.6631
▁sometime	-11.6632
ем	-11.6632
се	-11.6633
▁duo	-11.6636
▁hash	-11.6637
▁employer	-11.6638
igne	-11.6638
▁quo	-11.6639
▁packet	-11.664
think	-11.664
ulated	-11.6642
blood	-11.6643
▁polite	-11.6643
each	-11.6644
▁hypothesis	-11.6644
▁continental	-11.6644
▁во	-11.6647
coin	-11.6648
nish	-11.6654
def	-11.6654
▁idol	-11.6657
ε	-11.6659
dead	-11.6661
▁morality	-11.6664
hou	-11.6665
▁mechanics	-11.6665
▁catalog	-11.6666
lá	-11.6668
っ	-11.6671
▁refusing	-11.6672
▁observer	-11.6673
ロ	-11.6674
▁ottoman	-11.6677
▁fictional	-11.6679
mut	-11.6679
continu	-11.6679
▁embedded	-11.668
▁seine	-11.6681
▁inevitably	-11.6682
▁troubled	-11.6685
▁anton	-11.6686
▁magnificent	-11.6687
▁nursing	-11.6688
▁punk	-11.6689
▁nano	-11.6689
▁arnold	-11.6693
▁spice	-11.6693
wash	-11.6694
▁colonies	-11.6696
▁flies	-11.6696
pac	-11.6697
▁pixel	-11.6698
▁mock	-11.6699
▁cada	-11.6701
▁fortress	-11.6704
lessness	-11.6704
▁hän	-11.6704
▁disturbing	-11.6706
▁drift	-11.6706
ου	-11.6708
▁dove	-11.6708
▁lind	-11.6712
▁raises	-11.6713
ジ	-11.6713
▁reserves	-11.6715
▁thu	-11.6716
▁rogers	-11.6718
▁bennett	-11.6722
iert	-11.6723
▁angela	-11.6723
▁stressed	-11.6725
▁pela	-11.6725
▁bh	-11.6726
hart	-11.6726
▁sovereign	-11.6726
▁matching	-11.6726
▁venice	-11.6727
▁maj	-11.6727
▁poorly	-11.6728
lton	-11.6729
hra	-11.673
▁costume	-11.673
▁weigh	-11.6732
по	-11.6733
▁quint	-11.6733
▁lineup	-11.6735
ц	-11.6737
▁sexually	-11.6738
▁rela	-11.674
▁terra	-11.6741
▁lé	-11.6744
▁damned	-11.6748
▁recon	-11.6748
え	-11.6749
bio	-11.6749
assa	-11.675
cott	-11.6751
hof	-11.6751
▁beds	-11.6751
fund	-11.6753
▁unfortunate	-11.6754
▁marking	-11.6756
prop	-11.6757
▁panels	-11.6757
zzi	-11.6757
▁canon	-11.6757
alla	-11.6759
dp	-11.6759
▁lighter	-11.6759
▁ت	-11.6762
▁artwork	-11.6762
▁fragment	-11.6762
▁decorated	-11.6765
bis	-11.6767
ural	-11.6767
bh	-11.677
ди	-11.6772
▁crab	-11.6772
▁pledge	-11.6773
▁sticks	-11.6773
▁prep	-11.6774
paul	-11.6774
▁hello	-11.6775
▁varieties	-11.6778
gno	-11.678
▁samsung	-11.6781
▁fitting	-11.6781
▁madame	-11.6782
▁sealed	-11.6785
▁tactical	-11.6785
▁impeachment	-11.6786
aff	-11.6786
▁prima	-11.6787
heart	-11.6793
▁lynch	-11.6793
oxy	-11.6796
vp	-11.6797
▁jew	-11.6798
▁retro	-11.6802
ilo	-11.6803
▁poster	-11.6803
▁refugee	-11.6804
ص	-11.6804
▁tenure	-11.6805
▁approve	-11.6806
give	-11.6808
▁flank	-11.681
▁analysts	-11.681
▁surname	-11.681
shing	-11.6811
▁launching	-11.6812
▁entra	-11.6812
▁vale	-11.6814
▁enhanced	-11.6816
.'"	-11.6816
▁prose	-11.6816
ää	-11.6817
ск	-11.6817
igh	-11.682
▁vit	-11.6822
liche	-11.6824
▁rend	-11.6825
third	-11.6825
▁denial	-11.6827
会	-11.6827
▁commune	-11.6831
control	-11.6833
était	-11.6835
▁brussels	-11.6838
graph	-11.684
▁theft	-11.6841
▁pon	-11.6843
▁guinea	-11.6843
vir	-11.6845
▁sculpture	-11.6847
▁nietzsche	-11.6847
▁rewards	-11.6847
▁assure	-11.6847
▁tends	-11.6849
food	-11.685
▁charming	-11.685
▁tucked	-11.6851
▁bart	-11.6852
▁freed	-11.6852
▁melted	-11.6852
▁magnetic	-11.6856
▁strangers	-11.6857
▁summon	-11.6858
kha	-11.6859
▁warn	-11.686
▁solomon	-11.6863
▁из	-11.6865
▁remarked	-11.6865
▁passionate	-11.6865
eman	-11.6866
▁traits	-11.6868
▁unhappy	-11.6869
▁trails	-11.6871
▁introducing	-11.6872
++	-11.6872
▁prod	-11.6872
▁conquest	-11.6873
▁años	-11.6874
▁diabetes	-11.6877
▁posting	-11.6877
▁nonprofit	-11.6882
▁squeeze	-11.6884
▁chemicals	-11.6884
▁supervisor	-11.6885
▁palestine	-11.6888
▁****	-11.6888
▁compelling	-11.6888
▁notebook	-11.6889
lichen	-11.689
▁pity	-11.6891
▁teenager	-11.6891
▁esa	-11.6891
▁linda	-11.6891
▁gur	-11.6892
▁roma	-11.6893
▁raymond	-11.6893
held	-11.6894
▁casualties	-11.6896
▁rumors	-11.6897
▁affiliate	-11.6897
cion	-11.6899
▁brook	-11.6901
▁xbox	-11.6902
kka	-11.6902
▁headline	-11.6905
▁lesbian	-11.6905
▁chorus	-11.6906
due	-11.6906
▁celebrity	-11.6906
▁alors	-11.6908
</	-11.6908
▁vault	-11.6908
▁nacional	-11.6909
▁assassination	-11.691
▁explorer	-11.691
storm	-11.691
▁reviewed	-11.6911
▁hiv	-11.6911
ét	-11.6915
▁flowing	-11.6916
▁deciding	-11.6916
▁soundtrack	-11.6918
hai	-11.6921
rv	-11.6921
rol	-11.6923
▁rivals	-11.6923
tir	-11.6924
▁herbert	-11.6925
▁caribbean	-11.6927
▁dame	-11.6928
▁colon	-11.6929
▁marched	-11.6929
▁darling	-11.6929
▁politi	-11.693
rada	-11.693
▁scripture	-11.6933
▁whale	-11.6935
▁abbey	-11.6935
▁ensuring	-11.6935
▁strongest	-11.6937
▁magnitude	-11.6938
▁stride	-11.6938
▁stocks	-11.6939
▁turtle	-11.6941
▁mull	-11.6941
▁porn	-11.6942
▁día	-11.6943
tivo	-11.6948
▁napoleon	-11.6948
nation	-11.6949
▁emphasize	-11.6949
▁documented	-11.6951
ulation	-11.6951
▁unnecessary	-11.6951
▁retire	-11.6952
▁remembering	-11.6954
▁sidewalk	-11.6954
▁explosive	-11.6955
▁brains	-11.696
▁happily	-11.6961
section	-11.6962
▁nintendo	-11.6964
igo	-11.6965
▁considerably	-11.6966
▁extending	-11.6969
▁pentagon	-11.6969
ān	-11.697
alo	-11.697
tä	-11.6973
▁monsters	-11.6975
▁bos	-11.6979
wr	-11.6981
ologie	-11.6981
▁ov	-11.6982
▁après	-11.6983
ender	-11.6985
ään	-11.6986
▁danish	-11.6986
▁nationwide	-11.6986
▁twins	-11.6986
▁specified	-11.6988
▁instrumental	-11.6989
▁kenya	-11.6991
▁skilled	-11.6995
▁consume	-11.6997
▁intact	-11.6999
▁primitive	-11.7001
▁audit	-11.7002
▁ark	-11.7005
▁sexuality	-11.7006
▁monetary	-11.7007
▁inspire	-11.7007
▁maple	-11.7009
▁daddy	-11.7011
▁nam	-11.7013
▁hasta	-11.7013
▁eso	-11.7016
▁julie	-11.7017
nge	-11.7017
▁premiere	-11.7018
tem	-11.7019
shaw	-11.7019
▁sponsored	-11.7021
uka	-11.7024
ün	-11.7025
▁balloon	-11.7027
▁leverage	-11.703
▁bitch	-11.7031
ister	-11.7031
▁shocking	-11.7034
ores	-11.7035
▁hue	-11.7035
▁pursuing	-11.7038
▁jou	-11.7039
▁helm	-11.7039
▁qualify	-11.7041
bird	-11.7042
▁ceased	-11.7045
га	-11.7045
▁mushrooms	-11.7046
▁rendered	-11.7048
▁lgbt	-11.7051
▁punish	-11.7052
▁squeezed	-11.7052
turn	-11.7053
▁nazis	-11.7057
▁measuring	-11.7057
▁dismiss	-11.7058
▁confederate	-11.706
lant	-11.706
rog	-11.7061
▁cher	-11.7062
sort	-11.7063
▁governance	-11.7066
enta	-11.7066
▁competitors	-11.7066
▁durante	-11.7067
▁zombie	-11.7068
living	-11.7069
lü	-11.707
▁ble	-11.7071
▁sunny	-11.7071
▁nic	-11.7074
ド	-11.7075
▁severely	-11.7075
plo	-11.7076
▁alberta	-11.7077
▁remainder	-11.7078
▁exterior	-11.7078
ddle	-11.7079
eira	-11.7081
▁dies	-11.7083
▁codes	-11.7084
▁tended	-11.7088
isme	-11.7088
object	-11.7089
▁lately	-11.7091
▁realised	-11.7091
iques	-11.7091
▁associates	-11.7094
▁mcdonald	-11.7095
▁garbage	-11.7098
▁recordings	-11.7101
▁securities	-11.7103
▁repeal	-11.7103
β	-11.7104
▁servers	-11.7105
▁diana	-11.7105
▁elevation	-11.7108
▁conceptual	-11.7109
▁workshop	-11.7109
▁greens	-11.711
▁buttons	-11.711
▁hid	-11.7112
▁michelle	-11.7114
▁sav	-11.7116
▁elevated	-11.7117
bian	-11.7119
▁ned	-11.7119
же	-11.712
än	-11.7124
▁birmingham	-11.7124
▁facilitate	-11.7125
anda	-11.7127
ines	-11.7127
▁cache	-11.7132
▁transparency	-11.7135
▁suspects	-11.7136
host	-11.7137
ggi	-11.7138
▁inherited	-11.7141
▁pedro	-11.7142
augh	-11.7142
▁eighteenth	-11.7143
作	-11.7146
▁rien	-11.7146
▁achievements	-11.7146
▁pardon	-11.7146
▁differ	-11.7149
▁trademark	-11.7149
▁estaba	-11.7149
ote	-11.7153
▁shepherd	-11.7154
▁affects	-11.7154
▁diameter	-11.7157
▁dra	-11.716
▁desires	-11.716
▁behave	-11.7162
▁zijn	-11.7162
▁bak	-11.7163
▁mps	-11.7166
▁detection	-11.7167
▁liber	-11.7167
▁jeans	-11.717
▁kul	-11.7171
сто	-11.7173
odor	-11.7174
erna	-11.7176
▁prim	-11.7177
atic	-11.7177
▁clara	-11.7178
stream	-11.7181
▁insights	-11.7181
▁lent	-11.7183
nant	-11.7183
▁sanctuary	-11.7183
shed	-11.7185
▁д	-11.7186
▁correspondent	-11.7187
▁revised	-11.719
▁anche	-11.7193
▁dynamics	-11.7195
▁verdict	-11.7195
▁chau	-11.7196
cam	-11.7196
▁sausage	-11.7197
▁clarity	-11.72
▁aura	-11.7201
▁apologize	-11.7202
▁atomic	-11.7202
▁ost	-11.7203
▁schi	-11.7207
▁spill	-11.7213
▁lump	-11.7214
rot	-11.722
ics	-11.722
sec	-11.7222
▁wipe	-11.7223
▁businessman	-11.7224
▁receives	-11.7224
▁valve	-11.7224
▁economist	-11.7225
women	-11.7225
▁peers	-11.7227
▁govern	-11.7227
stadt	-11.7227
pdf	-11.7227
▁lily	-11.7228
▁notre	-11.7233
▁prayers	-11.7237
▁defining	-11.7238
▁compassion	-11.724
bes	-11.7242
▁preference	-11.7242
▁ко	-11.7242
isk	-11.7243
background	-11.7245
▁condo	-11.7245
▁occupy	-11.7246
▁timeline	-11.7246
▁distinguish	-11.7248
tul	-11.7248
▁hö	-11.725
▁madness	-11.725
▁cla	-11.7251
▁sally	-11.7251
▁stripped	-11.7252
lade	-11.7252
▁delighted	-11.7253
▁vic	-11.7256
▁gloves	-11.7256
ign	-11.7257
onia	-11.7259
ckle	-11.726
▁intern	-11.726
▁kg	-11.7261
▁corp	-11.7263
▁marginal	-11.7264
nice	-11.7266
trump	-11.7268
コ	-11.727
rado	-11.727
▁columbus	-11.727
▁steadily	-11.727
▁drafted	-11.7271
▁delivering	-11.7272
▁devastating	-11.7273
▁militar	-11.7276
▁obligation	-11.7278
▁shaft	-11.728
▁grants	-11.7282
▁это	-11.7283
rm	-11.7283
sir	-11.7284
▁tras	-11.7285
▁moth	-11.7285
▁ox	-11.7286
▁pé	-11.7289
▁hir	-11.729
▁ville	-11.7291
▁licensed	-11.7295
▁eller	-11.7296
▁smartphone	-11.7298
▁crush	-11.73
▁när	-11.73
▁roast	-11.7301
▁specify	-11.7303
makers	-11.7304
▁confess	-11.7305
▁rav	-11.7307
▁hungarian	-11.7308
qa	-11.731
▁sultan	-11.7311
▁doubled	-11.7312
▁pes	-11.7314
▁pronounced	-11.7319
ographic	-11.7321
▁motorcycle	-11.7322
ots	-11.7323
▁contacts	-11.7324
rom	-11.7328
▁tribunal	-11.7334
taking	-11.7334
▁bridges	-11.7334
▁births	-11.7336
▁inclusion	-11.7336
▁adjusted	-11.7337
▁tas	-11.7337
nga	-11.7337
este	-11.7338
▁ribbon	-11.7339
▁mou	-11.734
▁conceal	-11.7342
▁rt	-11.7344
▁hughes	-11.7344
▁mb	-11.7345
purpose	-11.7346
fla	-11.7351
▁unfair	-11.7352
▁blur	-11.7352
▁accusations	-11.7353
▁lev	-11.7353
ground	-11.7354
▁peeled	-11.7355
cou	-11.7357
▁infected	-11.7359
!!	-11.7359
▁assert	-11.736
("	-11.7361
▁moor	-11.7363
▁spectacle	-11.7366
dler	-11.7367
product	-11.7369
▁م	-11.737
▁toys	-11.7371
▁axe	-11.7374
▁romans	-11.7375
▁imported	-11.738
dou	-11.7382
▁dessert	-11.7383
iana	-11.7385
pla	-11.7386
▁variant	-11.7388
▁oval	-11.7389
race	-11.7389
aban	-11.7393
▁dub	-11.7394
▁maneuver	-11.7397
▁debates	-11.7397
▁prohibit	-11.7398
▁manuel	-11.7399
▁convincing	-11.7399
mart	-11.7402
▁insider	-11.7403
▁staple	-11.7406
\(	-11.7407
▁ammunition	-11.7408
▁psychologist	-11.7408
▁phillips	-11.7408
▁persistent	-11.7409
▁rigid	-11.7409
lea	-11.7409
jur	-11.7411
▁conclude	-11.7414
▁breakdown	-11.7417
▁pill	-11.7419
▁graves	-11.7419
▁marina	-11.7421
▁tbsp	-11.7422
ל	-11.7424
riel	-11.7426
▁relate	-11.7426
▁embarrassed	-11.743
tch	-11.7431
▁privately	-11.7431
▁roth	-11.7431
plane	-11.7431
▁swamp	-11.7435
▁aging	-11.7435
▁elephant	-11.7435
▁milli	-11.7437
▁plato	-11.7438
▁posed	-11.7439
▁agreements	-11.7441
▁answering	-11.7443
igt	-11.7444
▁tumor	-11.7444
▁destroying	-11.7445
▁cela	-11.7445
▁louise	-11.7446
▁travels	-11.7447
▁technically	-11.7449
▁rested	-11.7455
▁absorbed	-11.7456
corn	-11.7457
luc	-11.7457
▁ud	-11.7458
▁brooks	-11.7459
▁hus	-11.7459
rup	-11.7461
▁criminals	-11.7461
keeper	-11.7464
▁nj	-11.7465
▁governing	-11.7466
umi	-11.7467
▁beneficial	-11.7469
事	-11.7471
▁pest	-11.7471
▁sensor	-11.7472
▁decree	-11.7474
hoo	-11.7475
▁countryside	-11.7478
▁tapped	-11.748
▁majesty	-11.748
▁instructed	-11.748
▁jeg	-11.7481
▁skulle	-11.7481
▁silicon	-11.7483
▁instinct	-11.7483
inc	-11.7486
▁heated	-11.7487
▁ibn	-11.7487
▁hind	-11.7488
gang	-11.7488
▁invalid	-11.7489
▁obscure	-11.7489
▁mona	-11.7491
▁interpreted	-11.7492
▁nem	-11.7493
odo	-11.7496
▁ignorance	-11.7497
▁disabled	-11.7497
▁integral	-11.7497
▁з	-11.7498
omi	-11.7499
▁incorporate	-11.7499
▁athlete	-11.7499
▁violations	-11.75
▁curtain	-11.7501
▁stats	-11.7501
mg	-11.7501
▁enables	-11.7502
▁draws	-11.7502
▁sweeping	-11.7505
▁frei	-11.751
▁socialism	-11.7512
ché	-11.7512
▁jesse	-11.7514
▁preview	-11.7514
iron	-11.7514
amos	-11.7515
▁detected	-11.7515
▁σ	-11.7517
▁echoed	-11.7518
▁pseudo	-11.7519
▁boring	-11.752
park	-11.752
▁wizard	-11.7521
▁sophie	-11.7522
▁justified	-11.7523
▁chambers	-11.7523
▁perfection	-11.7524
▁digging	-11.7524
posed	-11.7528
times	-11.7529
▁terrified	-11.753
▁lau	-11.7537
▁offline	-11.7538
erson	-11.7538
vey	-11.7538
▁dairy	-11.754
▁reluctant	-11.7541
▁gratitude	-11.7541
▁nephew	-11.7541
▁ports	-11.7542
▁hungary	-11.7543
zed	-11.7545
tho	-11.7547
▁streams	-11.7547
bt	-11.7548
▁curry	-11.7549
▁norm	-11.7551
▁prejudice	-11.7553
mil	-11.7553
▁hp	-11.7553
−	-11.7555
▁ο	-11.7555
▁thorn	-11.7557
▁cali	-11.7558
▁martial	-11.7558
▁investigated	-11.7559
▁gdp	-11.7559
▁nim	-11.7561
▁sponsor	-11.7562
▁stove	-11.7564
▁rubbed	-11.7567
▁hispanic	-11.7568
lac	-11.7569
▁permanently	-11.7569
ło	-11.7569
uit	-11.757
north	-11.7571
▁investing	-11.7574
▁stew	-11.7574
▁mines	-11.7575
▁portrayed	-11.7575
▁investor	-11.7576
tering	-11.7578
▁sep	-11.7579
▁niet	-11.7579
▁thereafter	-11.7579
ete	-11.7583
▁provinces	-11.7584
▁krist	-11.7585
cost	-11.7585
▁ruined	-11.7588
process	-11.7588
▁longtime	-11.7589
▁fastest	-11.7589
▁mercury	-11.7595
▁irre	-11.7595
▁meg	-11.7595
▁=>	-11.7597
▁seventeen	-11.76
ibility	-11.7603
▁withdrew	-11.7603
▁exceptional	-11.7604
▁ellen	-11.7606
▁decay	-11.7607
▁scoop	-11.7608
▁stole	-11.7609
▁cod	-11.7612
▁poets	-11.7613
▁downstairs	-11.7614
▁goat	-11.7615
▁ernest	-11.7615
ğ	-11.7616
lab	-11.7616
▁flee	-11.7619
▁mam	-11.7621
▁blown	-11.7623
central	-11.7623
▁mach	-11.7625
▁lyon	-11.7628
nya	-11.7628
▁productivity	-11.7629
▁dwarf	-11.7632
▁iconic	-11.7632
▁dominate	-11.7632
▁vend	-11.7635
ち	-11.7635
▁insects	-11.7637
▁cellar	-11.7637
▁analyze	-11.7638
died	-11.764
▁undoubtedly	-11.764
▁poetic	-11.7641
political	-11.7641
▁utter	-11.7642
▁mao	-11.7644
▁suo	-11.7646
▁senses	-11.7647
▁undermine	-11.7647
▁earnings	-11.7648
▁matched	-11.7651
working	-11.7653
▁influences	-11.7656
▁eighty	-11.766
▁bust	-11.766
▁jerk	-11.7661
▁plat	-11.7661
▁negotiate	-11.7664
▁rude	-11.7664
tun	-11.7664
kla	-11.7665
▁monastery	-11.7665
▁pyramid	-11.7665
▁decides	-11.7665
▁saga	-11.7666
▁amanda	-11.767
faced	-11.7671
▁dylan	-11.7675
▁persuade	-11.7675
ان	-11.7675
▁sed	-11.7676
▁soda	-11.7676
ля	-11.7679
▁conducting	-11.768
▁grammar	-11.768
lent	-11.7681
▁delegates	-11.7682
▁musk	-11.7682
▁jul	-11.7682
▁workplace	-11.7683
▁ally	-11.7684
▁fits	-11.7684
му	-11.7685
thus	-11.7686
▁flock	-11.7688
gam	-11.7689
▁lied	-11.769
iendo	-11.769
nl	-11.7691
öl	-11.7691
▁leisure	-11.7691
▁rapport	-11.7692
curr	-11.7694
full	-11.7696
dur	-11.7697
▁powered	-11.7701
ulating	-11.7702
▁credited	-11.7704
▁feather	-11.7704
▁absorb	-11.7705
▁mccain	-11.7706
▁assertion	-11.7709
▁interfere	-11.7711
▁scam	-11.7714
▁peanut	-11.7714
▁spear	-11.7722
▁advisory	-11.7723
▁fatigue	-11.7725
▁tenth	-11.7725
▁greeted	-11.7726
stal	-11.7726
▁confronted	-11.7727
▁bangladesh	-11.7731
▁depicted	-11.7731
▁eg	-11.7732
▁castro	-11.7732
area	-11.7733
rü	-11.7733
▁gauge	-11.7734
▁beaches	-11.7735
▁jed	-11.7737
▁griffin	-11.7738
▁plo	-11.7739
▁murderer	-11.774
▁erik	-11.774
ike	-11.7742
rain	-11.7742
▁shanghai	-11.7742
▁baked	-11.7743
nard	-11.7744
fair	-11.7746
▁glorious	-11.7747
px	-11.7748
gus	-11.7749
▁labels	-11.7749
чи	-11.7752
▁upright	-11.7753
oriented	-11.7753
▁jokes	-11.7753
▁shrine	-11.7753
▁caroline	-11.7754
▁tigers	-11.7754
natural	-11.7755
▁п	-11.7756
▁marshal	-11.7758
proof	-11.7759
▁resign	-11.776
▁arrives	-11.776
▁nail	-11.7762
deep	-11.7763
▁joshua	-11.7763
▁berry	-11.7769
lite	-11.7769
▁sofa	-11.7774
▁fois	-11.7776
▁hannah	-11.7776
▁raven	-11.7777
eller	-11.7781
▁hade	-11.7782
auto	-11.7782
pul	-11.7783
generation	-11.7783
▁inclined	-11.7786
▁defenders	-11.7786
iling	-11.7788
▁sf	-11.7789
rang	-11.7789
hab	-11.7791
▁mound	-11.7797
▁pursued	-11.7797
▁safer	-11.7797
▁marathon	-11.7797
bos	-11.7797
シ	-11.7802
▁closet	-11.7802
nam	-11.7803
▁cute	-11.7804
▁kane	-11.7805
▁europa	-11.7805
▁latino	-11.7806
▁curl	-11.7807
▁reconstruction	-11.7807
▁walt	-11.7808
▁kap	-11.7808
clar	-11.7809
▁flags	-11.7812
▁lt	-11.7812
▁donated	-11.7814
▁imper	-11.7815
▁</	-11.7818
▁appreciation	-11.782
fle	-11.7821
▁evaluate	-11.7822
▁cré	-11.7822
▁abs	-11.7822
▁barriers	-11.7824
▁environments	-11.7824
lou	-11.7825
▁lag	-11.7825
written	-11.7826
glass	-11.7826
▁url	-11.7829
▁descended	-11.7829
▁hosting	-11.783
▁transcript	-11.783
▁corpse	-11.7831
▁belgian	-11.7832
▁tart	-11.7833
▁subscription	-11.7835
arte	-11.7835
lina	-11.7838
▁tweets	-11.7838
article	-11.784
▁implant	-11.7841
▁sizes	-11.7842
▁departed	-11.7843
▁б	-11.7844
▁lanka	-11.7844
▁washing	-11.7844
▁settlements	-11.7845
▁conform	-11.7845
▁drawer	-11.7847
elles	-11.7848
▁paw	-11.785
odi	-11.785
eff	-11.7856
▁gregory	-11.7857
without	-11.7857
▁directory	-11.7857
lk	-11.786
▁mentally	-11.786
wave	-11.786
▁incumbent	-11.786
▁authorized	-11.7864
▁ainsi	-11.7867
▁accurately	-11.7867
▁simpson	-11.7872
fur	-11.7875
mount	-11.7877
▁embraced	-11.7877
▁nod	-11.7877
▁generic	-11.7881
▁tau	-11.7881
▁suited	-11.7882
▁implies	-11.7884
▁preheat	-11.7885
▁specialized	-11.7886
▁rounded	-11.7886
▁humanitarian	-11.7886
▁celtic	-11.7889
▁pip	-11.7889
▁ihre	-11.789
▁pentru	-11.789
▁oversee	-11.7891
▁remark	-11.7896
ώ	-11.7896
works	-11.7899
▁beth	-11.7901
▁assign	-11.7904
▁tokens	-11.7904
▁proceeded	-11.7905
sometimes	-11.7905
▁spinning	-11.7905
nder	-11.7906
▁batman	-11.7906
▁lungs	-11.7908
▁cosa	-11.7908
mill	-11.7908
ר	-11.791
▁viral	-11.7911
▁wedge	-11.7912
▁torch	-11.7912
▁boiling	-11.7912
▁completing	-11.7913
▁speeches	-11.7914
▁consist	-11.7914
content	-11.7914
▁hag	-11.7915
family	-11.7916
▁troll	-11.7916
▁tribune	-11.792
▁orlando	-11.7922
′′	-11.7924
▁recession	-11.7925
▁laying	-11.7925
keep	-11.7926
▁limb	-11.7927
▁sovereignty	-11.7928
pole	-11.7929
▁initiated	-11.7932
▁separately	-11.7932
▁joel	-11.7932
stig	-11.7932
dev	-11.7933
▁diagram	-11.7933
phor	-11.7935
▁airplane	-11.7935
▁sebastian	-11.7936
▁limbs	-11.7936
▁curb	-11.7937
▁straightforward	-11.7939
▁batteries	-11.794
▁nada	-11.7942
ounce	-11.7943
▁edwards	-11.7944
▁mia	-11.7945
▁palestinians	-11.7946
vier	-11.7947
▁tricks	-11.7947
cru	-11.7949
▁loudly	-11.795
▁highlighted	-11.795
tting	-11.7951
▁hydrogen	-11.7952
▁alternatives	-11.7952
▁supporter	-11.7953
▁plague	-11.7953
▁tara	-11.7953
οι	-11.7954
coming	-11.7954
modern	-11.7956
▁suppress	-11.7957
▁rand	-11.7959
▁slaughter	-11.7962
▁stealing	-11.7962
▁powell	-11.7962
▁grocery	-11.7962
ident	-11.7963
serving	-11.7963
▁settlers	-11.7965
▁cycling	-11.7965
▁pris	-11.7967
▁sequel	-11.7972
▁holidays	-11.7975
tered	-11.7976
▁garrison	-11.7977
▁risen	-11.7977
lings	-11.7979
▁ambition	-11.7979
▁coordinator	-11.798
▁mainland	-11.7981
plex	-11.7982
enti	-11.7982
▁blond	-11.7983
▁malcolm	-11.7983
▁appealing	-11.7983
▁chang	-11.7984
▁circulation	-11.7986
▁helpless	-11.7986
ying	-11.7987
▁magnet	-11.7988
lah	-11.799
kat	-11.7991
▁crest	-11.7991
rz	-11.7992
▁merchants	-11.7995
方	-11.7997
▁cement	-11.7997
borough	-11.7998
▁reid	-11.7999
liga	-11.7999
▁capability	-11.8002
▁heal	-11.8003
chte	-11.8004
▁const	-11.8004
wheel	-11.8006
▁footsteps	-11.8006
▁astro	-11.8008
▁comparing	-11.8009
▁shells	-11.8012
▁cpu	-11.8014
▁telegraph	-11.8015
mina	-11.8016
▁showcase	-11.8016
tl	-11.8018
▁rejection	-11.8018
▁complement	-11.802
▁modes	-11.8021
▁tun	-11.8023
▁lacked	-11.8023
▁shifts	-11.8026
lines	-11.8027
going	-11.8027
▁flexibility	-11.803
ý	-11.8033
mass	-11.8033
propria	-11.8033
▁finland	-11.8035
▁enlightenment	-11.8036
▁baptist	-11.8036
▁uh	-11.8038
メ	-11.8039
▁nä	-11.804
▁jessica	-11.8042
▁functioning	-11.8042
▁pleaded	-11.8043
▁trop	-11.8043
▁[...]	-11.8044
oth	-11.8045
▁fusion	-11.8046
dian	-11.805
pis	-11.805
▁blowing	-11.8052
▁excel	-11.8052
®	-11.8053
lene	-11.8054
▁jacques	-11.8056
▁stumbled	-11.8056
れ	-11.8062
roman	-11.8062
▁unaware	-11.8064
▁vintage	-11.8068
▁recruit	-11.8069
▁sleeve	-11.807
▁scrutiny	-11.8072
▁blinked	-11.8072
▁fights	-11.8074
crib	-11.8074
▁caps	-11.8074
▁henri	-11.8074
この	-11.8077
vie	-11.8077
▁cet	-11.8078
▁καὶ	-11.808
▁patriots	-11.808
▁liz	-11.8084
▁wad	-11.8086
▁kissing	-11.8087
▁optional	-11.8087
▁singular	-11.8088
▁holder	-11.8088
▁compilation	-11.8089
▁dictionary	-11.8089
▁wholly	-11.809
?**	-11.809
▁handy	-11.8091
czy	-11.8092
▁sip	-11.8094
▁disadvantage	-11.8095
▁entries	-11.8096
ät	-11.8096
▁nasty	-11.8098
▁seu	-11.8099
icia	-11.8099
▁compiled	-11.81
▁priorities	-11.81
▁advise	-11.8101
▁fragments	-11.8102
▁exotic	-11.8102
▁ct	-11.8103
▁trent	-11.8103
▁nc	-11.8104
▁guessed	-11.8105
▁refrigerator	-11.8106
▁ἀ	-11.8107
▁dodge	-11.8108
▁sw	-11.8109
~	-11.811
gress	-11.8113
▁protagonist	-11.8115
▁assumptions	-11.8117
▁quotes	-11.8118
▁vacuum	-11.8118
▁downward	-11.8119
▁dow	-11.8119
▁pricing	-11.8119
yle	-11.8125
▁vicious	-11.8125
▁compliance	-11.8127
▁independently	-11.8128
▁sera	-11.8128
▁bach	-11.8129
▁qa	-11.8129
▁pam	-11.8131
▁eyebrows	-11.8131
▁reactor	-11.8133
▁cuisine	-11.8133
▁sailing	-11.8136
▁triggered	-11.8138
colored	-11.814
▁merged	-11.814
▁greenhouse	-11.8141
▁sierra	-11.8147
▁gentlemen	-11.8147
▁eff	-11.8147
▁parti	-11.8149
▁associations	-11.8149
serve	-11.815
▁mack	-11.8152
▁lease	-11.8152
rium	-11.8155
▁bella	-11.8155
▁automobile	-11.8157
μα	-11.8158
▁towel	-11.8159
▁mira	-11.8159
ات	-11.8159
▁realizing	-11.816
▁grind	-11.8161
▁headache	-11.8162
baum	-11.8163
▁rebecca	-11.8163
▁gua	-11.8164
▁moins	-11.8165
fil	-11.8167
▁locate	-11.8169
▁amsterdam	-11.8169
agon	-11.817
▁hugo	-11.8176
their	-11.8176
▁fran	-11.8177
▁solidarity	-11.8178
everything	-11.8178
▁extends	-11.8179
shoot	-11.8179
profile	-11.8179
▁cox	-11.8181
▁squash	-11.8181
filled	-11.8182
gil	-11.8182
▁initiatives	-11.8182
▁mare	-11.8183
dha	-11.8184
▁editions	-11.8185
cn	-11.8185
▁salvation	-11.8187
▁oversight	-11.8187
euse	-11.819
▁boxing	-11.8192
ッ	-11.8194
ables	-11.8195
▁otra	-11.8196
▁clarke	-11.8197
▁exploded	-11.8199
▁tir	-11.8199
▁consistency	-11.8199
▁revision	-11.8199
▁peri	-11.82
▁cork	-11.8201
fp	-11.8202
wei	-11.8202
▁advances	-11.8202
▁vista	-11.8202
▁briefing	-11.8207
▁startled	-11.8207
▁rises	-11.8208
uci	-11.8209
▁aids	-11.821
▁achieving	-11.8211
▁bowed	-11.8212
▁chen	-11.8212
▁cobb	-11.8212
▁subway	-11.8213
▁constituency	-11.8214
▁refusal	-11.8214
▁expressing	-11.8216
▁ripped	-11.8217
▁precision	-11.822
▁sober	-11.8222
▁και	-11.8223
cis	-11.8224
▁ske	-11.8224
▁georg	-11.8225
▁wh	-11.8226
ault	-11.8226
▁flavour	-11.8233
▁ribs	-11.8234
uu	-11.8234
▁rainbow	-11.8235
·	-11.8236
▁zip	-11.8237
▁forbidden	-11.8238
▁certified	-11.8239
▁trainer	-11.824
▁statute	-11.824
▁electron	-11.8243
▁ensemble	-11.8245
cycl	-11.8245
▁organisations	-11.8246
▁aero	-11.8246
tung	-11.8247
▁collision	-11.8247
▁bradley	-11.8249
▁spat	-11.8249
▁chrome	-11.825
issue	-11.825
▁travelled	-11.8251
phi	-11.8251
kra	-11.8251
▁attribute	-11.8252
▁sliding	-11.8252
gem	-11.8253
▁veil	-11.8253
asa	-11.8254
aunt	-11.8255
▁ek	-11.8255
▁lauren	-11.8255
pri	-11.8258
▁robots	-11.8261
ously	-11.8261
▁país	-11.8262
▁montgomery	-11.8262
▁exceptions	-11.8262
▁batch	-11.8263
им	-11.8263
enter	-11.8263
index	-11.8266
äng	-11.8266
▁brasil	-11.8267
▁gerald	-11.8268
iki	-11.8269
▁disclosure	-11.8272
▁bored	-11.8272
▁mcg	-11.8273
▁fern	-11.8274
sight	-11.8277
pres	-11.8278
ager	-11.8279
▁prescription	-11.8281
esta	-11.8282
▁vermont	-11.8286
▁buyers	-11.8288
▁satisfy	-11.8288
▁filmed	-11.8289
▁certainty	-11.829
▁outrage	-11.8291
▁plantation	-11.8295
▁gram	-11.8296
cun	-11.8297
▁brandon	-11.8298
▁verge	-11.8299
▁stro	-11.8299
philosoph	-11.83
▁companions	-11.8302
▁miserable	-11.8304
ных	-11.8305
▁exceed	-11.8306
▁contend	-11.8306
▁slowed	-11.8307
▁innings	-11.8307
▁eden	-11.8308
▁haul	-11.8311
▁administrator	-11.8311
▁functionality	-11.8314
▁yeast	-11.8314
▁territorial	-11.8314
▁hazard	-11.8316
bble	-11.8316
▁broker	-11.8317
▁debris	-11.832
▁scary	-11.832
▁thrive	-11.8323
▁sufficiently	-11.8327
▁blu	-11.8328
▁continually	-11.8328
vari	-11.8329
▁diesel	-11.833
▁reasonably	-11.8333
▁lounge	-11.8333
▁tiene	-11.8335
▁troy	-11.8335
ligt	-11.8336
pick	-11.8336
▁kilometers	-11.834
▁upside	-11.8341
▁caucus	-11.8344
▁filmmaker	-11.8346
pv	-11.8346
▁donc	-11.8347
flow	-11.8348
▁blair	-11.8349
▁boulevard	-11.835
▁roasted	-11.8355
▁pun	-11.8356
tina	-11.8356
▁sailed	-11.8357
▁sz	-11.8358
▁objectives	-11.8358
▁hatte	-11.8358
mind	-11.8359
▁locker	-11.836
▁medication	-11.8361
▁splash	-11.8362
▁ret	-11.8362
▁clash	-11.8363
▁seth	-11.8364
には	-11.8367
▁sak	-11.8368
▁qualifying	-11.8371
▁supermarket	-11.8372
▁calculate	-11.8374
ме	-11.8375
▁kidney	-11.8376
▁unwilling	-11.8377
cop	-11.8377
powered	-11.8378
▁secretly	-11.8379
▁taliban	-11.838
▁meter	-11.8381
aq	-11.8382
haired	-11.8383
▁blossom	-11.8383
▁informal	-11.8383
▁gandhi	-11.8386
cade	-11.8388
▁meyer	-11.8389
isen	-11.8389
▁momento	-11.8389
▁rug	-11.8391
▁foto	-11.8392
äl	-11.8392
▁sensible	-11.8393
▁edgar	-11.8394
▁rama	-11.8394
controlled	-11.8395
▁lebanon	-11.8395
ink	-11.8395
pia	-11.8398
▁contempt	-11.8398
▁reef	-11.8399
▁potter	-11.84
▁epa	-11.84
histoire	-11.8402
▁drought	-11.8402
▁vad	-11.8404
bug	-11.8404
▁factories	-11.8405
▁filming	-11.8406
utter	-11.8406
▁wandering	-11.8407
▁html	-11.8407
jet	-11.8409
▁hopeful	-11.841
▁stretching	-11.841
▁dale	-11.8413
▁queue	-11.8414
▁bullets	-11.8416
▁knot	-11.8417
tă	-11.8418
▁glacier	-11.842
▁descend	-11.842
▁bloc	-11.8422
▁boulder	-11.8423
alt	-11.8423
bbing	-11.8425
▁tolerance	-11.8426
▁kicking	-11.8428
こと	-11.843
pon	-11.8433
▁mandatory	-11.8435
▁nickname	-11.8436
inus	-11.8437
▁inscription	-11.8438
▁assists	-11.8438
won	-11.8439
▁neighborhoods	-11.844
▁varying	-11.844
heit	-11.8441
kä	-11.8441
▁colours	-11.8445
▁hora	-11.8446
▁mineral	-11.8446
▁leurs	-11.8446
ő	-11.8447
▁examining	-11.8447
▁navigate	-11.8447
▁stunned	-11.8447
▁kitt	-11.8447
organ	-11.8448
▁slam	-11.8449
▁probable	-11.845
▁queens	-11.8452
▁rendering	-11.8452
▁palmer	-11.8452
▁bury	-11.8453
▁prompt	-11.8453
▁derivative	-11.8453
▁aggression	-11.8454
▁mundo	-11.8454
▁roar	-11.8455
▁borough	-11.8456
pus	-11.8456
▁servi	-11.8456
▁preservation	-11.8457
▁urging	-11.8458
yon	-11.8458
▁announcing	-11.846
▁inappropriate	-11.846
▁pedestrian	-11.8463
▁euros	-11.8463
▁genuinely	-11.8464
▁marketplace	-11.8466
gold	-11.8467
▁comparable	-11.847
▁bristol	-11.8472
ump	-11.8473
▁measurement	-11.8473
song	-11.8473
▁logan	-11.8475
▁drained	-11.8475
▁immer	-11.8476
▁petit	-11.8476
▁bothered	-11.8476
▁shrimp	-11.8478
▁productions	-11.8479
eria	-11.848
comb	-11.8481
hurst	-11.8484
▁reside	-11.8484
▁molly	-11.8484
amo	-11.8485
▁prosperity	-11.8485
▁apr	-11.8485
▁där	-11.8486
子	-11.8487
vision	-11.8487
▁lava	-11.8488
▁trait	-11.849
▁eventual	-11.8491
▁organised	-11.8491
tax	-11.8491
▁otto	-11.8491
▁impacts	-11.8491
▁modify	-11.8493
▁tram	-11.8493
▁ellis	-11.8497
▁noah	-11.8499
née	-11.8502
witt	-11.8504
▁(“	-11.8505
schen	-11.8505
ções	-11.8505
▁autor	-11.8506
▁ui	-11.8509
stad	-11.8509
▁mitt	-11.851
▁lasting	-11.8511
▁glenn	-11.8512
▁cincinnati	-11.8512
▁armstrong	-11.8513
▁rover	-11.8513
▁coral	-11.8514
▁theology	-11.8515
income	-11.8515
▁recognised	-11.8517
▁deliberate	-11.8519
動	-11.8521
▁pitt	-11.8522
▁bros	-11.8524
hren	-11.8528
horse	-11.8529
▁slo	-11.8529
stay	-11.853
▁breeding	-11.853
sche	-11.8531
▁temples	-11.8532
▁sticking	-11.8534
}}	-11.8535
▁outward	-11.8535
▁как	-11.8537
owski	-11.8538
▁sodium	-11.8538
uti	-11.8539
fuck	-11.854
▁effectiveness	-11.8541
avan	-11.8541
▁nodes	-11.8542
ieren	-11.8542
mobile	-11.8543
▁atop	-11.8543
sexual	-11.8545
▁shattered	-11.8546
▁phenomena	-11.8546
▁frankly	-11.8546
▁dread	-11.8546
▁altitude	-11.8546
▁carb	-11.855
cken	-11.8553
xx	-11.8555
hawk	-11.8556
▁feat	-11.8557
▁де	-11.8558
▁determining	-11.8558
blo	-11.856
mol	-11.8561
allow	-11.8563
▁suis	-11.8566
▁traders	-11.8567
▁perceive	-11.8568
wu	-11.8568
▁š	-11.8569
▁playstation	-11.857
オ	-11.8571
▁hopkins	-11.8571
izz	-11.8571
▁earnest	-11.8572
rach	-11.8573
▁dangers	-11.8573
▁instructor	-11.8573
▁doubts	-11.8573
▁ditch	-11.8575
▁jour	-11.8575
▁portions	-11.8576
▁liquor	-11.8577
▁evolutionary	-11.8579
▁doom	-11.858
▁cooperative	-11.858
aye	-11.858
mari	-11.858
▁swords	-11.8583
▁broth	-11.8583
▁kro	-11.8584
▁ipad	-11.8586
▁proteins	-11.8586
▁violet	-11.8586
▁cares	-11.8587
▁submission	-11.8587
▁smoked	-11.8588
タ	-11.8588
▁gorgeous	-11.8589
▁arguably	-11.8589
▁amber	-11.8592
move	-11.8592
▁facial	-11.8593
分	-11.8596
elected	-11.8598
▁archbishop	-11.8599
▁deserves	-11.8599
ît	-11.86
▁mora	-11.86
▁libya	-11.8602
▁supper	-11.8603
▁monta	-11.8603
している	-11.8603
scribe	-11.8607
▁cui	-11.8609
nim	-11.8609
▁gravel	-11.8611
kg	-11.8613
avo	-11.8613
▁vaccine	-11.8615
▁recommendation	-11.8616
état	-11.8616
▁bee	-11.8618
▁qi	-11.8618
▁persona	-11.8619
▁ب	-11.862
▁relay	-11.8621
▁crawl	-11.8623
▁enters	-11.8624
bay	-11.8624
▁rab	-11.8625
▁epidemic	-11.8627
score	-11.8627
china	-11.8628
▁cin	-11.8628
▁workout	-11.8635
heat	-11.8635
▁hacer	-11.8639
ん	-11.864
hap	-11.8641
▁distraction	-11.8643
▁gegen	-11.8644
▁sends	-11.8644
▁neighbourhood	-11.8646
into	-11.8646
ester	-11.865
▁champagne	-11.8652
▁deserved	-11.8652
▁anime	-11.8653
▁eisenhower	-11.8655
▁generator	-11.8657
sworth	-11.8657
▁billions	-11.8657
▁daylight	-11.8657
▁homer	-11.8659
▁obey	-11.866
...'	-11.866
fm	-11.8662
utta	-11.8662
▁practiced	-11.8664
▁regulate	-11.8665
▁cert	-11.8665
▁efter	-11.8666
later	-11.8666
ста	-11.8666
▁suburban	-11.8667
▁lengthy	-11.8667
rise	-11.8667
▁hierarchy	-11.8668
▁sympathetic	-11.8668
▁confined	-11.8668
▁chez	-11.8668
rne	-11.8668
▁justification	-11.8668
▁harmful	-11.867
lom	-11.867
▁år	-11.8672
▁affecting	-11.8672
▁passer	-11.8673
時	-11.8674
crit	-11.8675
ше	-11.8676
rey	-11.8678
evo	-11.868
except	-11.868
▁passages	-11.8681
course	-11.8681
▁strap	-11.8682
▁crap	-11.8682
cies	-11.8683
▁gibb	-11.8686
▁rai	-11.8687
▁petro	-11.8688
▁appreciated	-11.8688
▁defect	-11.8688
▁scare	-11.8689
▁solved	-11.869
▁assisted	-11.869
nat	-11.8691
▁「	-11.8692
▁kurt	-11.8692
▁cigarettes	-11.8693
▁guides	-11.8693
▁detained	-11.8693
ân	-11.8695
▁inferior	-11.8696
▁potent	-11.8697
τε	-11.8699
▁disse	-11.8701
?)	-11.8703
▁manga	-11.8703
▁pakistani	-11.8703
▁wade	-11.8707
▁brewing	-11.8707
▁faut	-11.8708
▁mustard	-11.8708
▁appetite	-11.8708
▁archaeological	-11.8708
▁gameplay	-11.8711
▁gown	-11.8714
fy	-11.8715
前	-11.8715
▁hail	-11.8715
oj	-11.8716
▁nsa	-11.8716
▁zwei	-11.8717
など	-11.8718
▁makers	-11.8718
▁gir	-11.8719
temp	-11.8719
amba	-11.872
▁brushed	-11.872
▁devotion	-11.8722
▁caring	-11.8723
▁ankle	-11.8724
▁hostage	-11.8726
▁schwe	-11.8726
▁apartments	-11.8727
▁foundations	-11.8727
fact	-11.8727
▁henne	-11.8728
ningen	-11.8731
▁discern	-11.8732
▁designers	-11.8732
▁gossip	-11.8734
wire	-11.8736
▁comply	-11.8736
▁tee	-11.8738
▁crane	-11.874
▁electronics	-11.874
nea	-11.8744
▁viable	-11.8745
▁reflecting	-11.8746
mato	-11.8746
▁aggregate	-11.8746
▁topped	-11.8747
etic	-11.8752
▁montana	-11.8753
vocation	-11.8753
▁exclaimed	-11.8753
▁screens	-11.8754
▁victories	-11.8754
▁dragons	-11.8754
▁notification	-11.8756
▁accordance	-11.8757
▁demons	-11.8759
▁bara	-11.8759
▁firearms	-11.876
speaking	-11.876
▁sights	-11.8761
▁wat	-11.8763
ndi	-11.8763
▁correlation	-11.8765
▁stakes	-11.8766
▁spouse	-11.8766
dores	-11.8767
prec	-11.8767
kim	-11.8768
sided	-11.8769
▁zeit	-11.877
onder	-11.8771
▁depart	-11.8773
▁teaspoons	-11.8773
▁bulb	-11.8773
▁outlook	-11.8774
▁evidently	-11.8776
ră	-11.8776
▁darker	-11.8778
▁conceived	-11.8778
▁illustration	-11.8778
▁flynn	-11.8779
usta	-11.8781
aver	-11.8781
▁heath	-11.8782
▁donors	-11.8783
▁resumed	-11.8784
▁notorious	-11.8785
▁consulting	-11.8786
▁starter	-11.8788
▁gris	-11.8791
video	-11.8794
▁advocacy	-11.8794
▁mast	-11.8795
▁kri	-11.8798
▁uc	-11.88
▁interval	-11.8801
▁frames	-11.8803
▁kindness	-11.8804
▁willingness	-11.8804
▁novelist	-11.8804
▁obligations	-11.8804
▁dart	-11.8804
▁iz	-11.8805
rij	-11.8805
▁smallest	-11.8806
yama	-11.8807
▁pagan	-11.8807
地	-11.881
▁exchanged	-11.8811
▁placement	-11.8812
extrem	-11.8812
▁manufactured	-11.8812
wear	-11.8812
その	-11.8816
▁optimistic	-11.8817
▁occurring	-11.8818
▁aristotle	-11.8819
▁jung	-11.8821
▁bod	-11.8822
▁delegation	-11.8823
▁kernel	-11.8823
▁summoned	-11.8823
▁bugs	-11.8824
▁colombia	-11.8825
▁nad	-11.8826
▁ethereum	-11.8826
erman	-11.883
▁cooling	-11.883
ques	-11.8831
▁legends	-11.8832
▁toujours	-11.8832
▁afp	-11.8832
report	-11.8836
ún	-11.8836
▁rey	-11.8837
▁presidente	-11.8838
本	-11.8838
ril	-11.8839
ού	-11.884
▁quad	-11.884
▁holly	-11.884
▁opp	-11.8841
yet	-11.8843
▁easter	-11.8844
▁ponder	-11.8844
▁fel	-11.8844
ctu	-11.8846
!!!	-11.8849
▁behaviors	-11.8851
▁plains	-11.8852
▁arose	-11.8854
▁commanding	-11.8856
▁strips	-11.8857
rez	-11.8857
beck	-11.8857
▁skeleton	-11.8858
▁russ	-11.8859
government	-11.8859
▁reel	-11.8859
rice	-11.886
▁floors	-11.886
aires	-11.8862
ifer	-11.8863
▁constitute	-11.8864
isha	-11.8866
▁butcher	-11.8868
▁precedent	-11.8869
▁dwell	-11.887
▁slack	-11.887
▁dubbed	-11.8871
kai	-11.8871
▁athletics	-11.8872
reuters	-11.8872
手	-11.8873
oa	-11.8874
bile	-11.8875
▁vine	-11.8876
▁herman	-11.8879
rrell	-11.8879
▁poco	-11.888
▁tamil	-11.8882
▁luther	-11.8883
country	-11.8887
▁bryan	-11.8887
▁puede	-11.889
▁leaked	-11.8892
▁rats	-11.8892
abad	-11.8893
remo	-11.8894
▁envi	-11.8895
▁colleges	-11.8896
▁beetle	-11.8897
▁mormon	-11.8898
▁explored	-11.8902
zin	-11.8902
▁cookie	-11.8904
▁portray	-11.8904
▁bjp	-11.8905
▁problematic	-11.8905
▁backpack	-11.8906
prim	-11.8906
▁quart	-11.8908
tele	-11.8909
league	-11.8909
▁departments	-11.8909
ees	-11.891
▁ambulance	-11.8912
▁verify	-11.8914
nny	-11.8918
▁françois	-11.8919
▁wreck	-11.892
▁lynn	-11.8921
▁buddy	-11.8923
▁organs	-11.8925
▁barber	-11.8925
▁hog	-11.8925
▁intermediate	-11.8925
▁stevens	-11.8925
today	-11.8927
▁ripple	-11.8929
▁"[	-11.8929
▁smelled	-11.893
▁foe	-11.893
kers	-11.8931
▁fade	-11.8931
▁rash	-11.8934
▁vari	-11.8935
hua	-11.8937
▁interrupt	-11.8938
▁valued	-11.8938
▁adolescent	-11.8938
hoe	-11.8939
▁το	-11.8939
▁ea	-11.8939
voice	-11.894
▁poles	-11.8941
▁spokeswoman	-11.8941
▁violated	-11.8944
▁jeffrey	-11.8945
ня	-11.8945
▁greeting	-11.8945
▁captive	-11.8946
▁tablet	-11.895
▁wig	-11.895
▁vow	-11.8951
▁morale	-11.8951
sville	-11.8952
▁aloud	-11.8953
▁chiefs	-11.8955
info	-11.8956
▁dispatch	-11.8957
▁nonsense	-11.8958
iq	-11.896
▁champ	-11.8961
death	-11.8962
▁offset	-11.8962
moto	-11.8963
自	-11.8963
▁bargain	-11.8964
▁salon	-11.8965
▁goodbye	-11.8965
▁rogue	-11.8966
▁coarse	-11.8966
▁excellence	-11.8967
▁ф	-11.8968
▁forma	-11.8968
venir	-11.8968
iate	-11.897
▁unpleasant	-11.897
▁hank	-11.8971
▁manufacture	-11.8971
▁autre	-11.8972
▁parsley	-11.8976
▁stubborn	-11.8977
▁skillet	-11.8979
▁bracket	-11.8979
▁dared	-11.8979
▁traces	-11.8979
▁nigeria	-11.898
elect	-11.898
े	-11.898
ops	-11.8981
ologists	-11.8981
mah	-11.8982
▁över	-11.8985
▁fragile	-11.8986
▁inherent	-11.8988
▁ante	-11.8989
mund	-11.899
▁polling	-11.899
▁preferences	-11.8991
ù	-11.8992
▁covenant	-11.8993
▁teammates	-11.8993
▁slogan	-11.8993
▁disrupt	-11.8996
▁hick	-11.8997
▁aide	-11.8998
▁nav	-11.8999
▁rosen	-11.9
▁silva	-11.9
▁г	-11.9
▁strand	-11.9001
bund	-11.9002
moral	-11.9003
▁herb	-11.9004
ndre	-11.9005
▁nepal	-11.9007
▁expectation	-11.9007
▁holocaust	-11.9009
xo	-11.9012
▁squat	-11.9013
ブ	-11.9013
▁obliged	-11.9015
ων	-11.9015
nf	-11.9017
pho	-11.9018
▁nurses	-11.9018
ija	-11.9018
▁goodness	-11.9019
▁evangelical	-11.9019
▁manning	-11.9022
▁sd	-11.9024
▁scarcely	-11.9025
▁worrying	-11.9025
cock	-11.9026
▁apology	-11.9027
iente	-11.9028
elia	-11.9029
idas	-11.9031
▁elliott	-11.9031
▁foil	-11.9032
▁irony	-11.9032
▁religions	-11.9032
shan	-11.9035
▁slower	-11.9036
▁generating	-11.9036
▁chili	-11.9036
▁flashed	-11.9037
▁bron	-11.9038
▁deaf	-11.9039
enne	-11.904
erne	-11.9041
▁nobel	-11.9043
▁apples	-11.9043
oku	-11.9045
▁seam	-11.9046
▁merger	-11.9047
▁scales	-11.9047
ος	-11.9048
zza	-11.9051
▁depuis	-11.9051
▁recalls	-11.9051
▁cries	-11.9053
▁posture	-11.9054
▁ferguson	-11.9055
leave	-11.9057
ott	-11.9058
▁hiking	-11.9062
vez	-11.9063
▁symphony	-11.9064
rem	-11.9065
kn	-11.9069
си	-11.9069
xe	-11.9071
▁lets	-11.9071
nee	-11.9075
▁injection	-11.9075
▁chal	-11.9075
▁maggie	-11.9075
▁mobility	-11.9076
▁presenting	-11.908
▁overwhelmed	-11.9082
▁lil	-11.9083
▁shiny	-11.9083
fast	-11.9084
▁marines	-11.9084
driven	-11.9084
▁sido	-11.9085
▁marcel	-11.9085
▁mistaken	-11.9086
around	-11.9087
▁glasgow	-11.9087
▁honours	-11.9088
▁velvet	-11.9089
▁lb	-11.909
▁flooding	-11.909
lag	-11.909
▁uncovered	-11.9093
▁accidentally	-11.9095
dag	-11.9096
▁waving	-11.9098
▁sullivan	-11.9099
▁steering	-11.91
▁recipient	-11.9101
spec	-11.9103
▁attain	-11.9104
▁pav	-11.9104
▁ashamed	-11.9105
▁inventory	-11.9105
▁badge	-11.9109
▁regards	-11.9109
▁wines	-11.9109
▁talents	-11.911
ē	-11.911
▁tid	-11.9111
rim	-11.9112
▁convenience	-11.9113
▁bailey	-11.9116
▁guru	-11.912
▁bonne	-11.9123
german	-11.9124
lane	-11.9126
▁vietnamese	-11.9127
uw	-11.9128
▁processed	-11.9128
▁moist	-11.9129
▁assurance	-11.9133
▁machinery	-11.9133
▁gul	-11.9134
▁swap	-11.9134
eter	-11.9135
▁tyr	-11.9135
▁reci	-11.9138
▁rated	-11.9139
▁economies	-11.914
▁whites	-11.9144
ían	-11.9145
hong	-11.9145
▁drake	-11.9146
▁spar	-11.9146
damn	-11.9147
backed	-11.9149
ב	-11.915
▁circus	-11.915
▁marque	-11.915
▁molecular	-11.9151
boro	-11.9152
gee	-11.9153
▁omar	-11.9155
▁tanto	-11.9157
▁sensitivity	-11.9158
▁nik	-11.9159
garde	-11.9159
▁dana	-11.9159
▁pirates	-11.9161
▁constraints	-11.9161
▁######	-11.9163
▁murders	-11.9164
▁glowing	-11.9165
▁cancelled	-11.9167
▁translate	-11.9171
▁enabling	-11.9173
▁telescope	-11.9173
ット	-11.9176
▁smiles	-11.9176
▁♦	-11.9177
▁curriculum	-11.9179
▁phd	-11.918
▁teens	-11.918
▁yan	-11.918
▁fru	-11.9182
▁diving	-11.9182
▁labeled	-11.9182
ще	-11.9183
▁algo	-11.9185
▁monkey	-11.9185
western	-11.9186
vm	-11.9188
▁identities	-11.9189
▁telegram	-11.919
▁blunt	-11.9192
▁runners	-11.9193
▁binary	-11.9195
▁threaten	-11.9195
atta	-11.9196
▁tract	-11.9196
▁sunshine	-11.9199
▁endure	-11.92
tid	-11.92
constitu	-11.9201
▁misery	-11.9205
▁inability	-11.9206
▁dorm	-11.9206
▁neglect	-11.921
business	-11.9212
frac	-11.9212
▁bert	-11.9216
▁strait	-11.9216
▁munich	-11.9216
▁injustice	-11.9217
▁fringe	-11.9221
▁diagnosed	-11.9222
▁vac	-11.9224
▁grit	-11.9224
▁dissent	-11.9224
▁flex	-11.9224
▁wildly	-11.9226
▁dist	-11.9227
▁exploitation	-11.9229
チ	-11.9229
conf	-11.9229
▁scal	-11.9233
▁miners	-11.9234
mul	-11.9236
▁advancing	-11.9236
▁manifestation	-11.9236
▁quando	-11.9237
teil	-11.9237
▁geographical	-11.9237
▁sedan	-11.9241
▁gambling	-11.9242
▁tous	-11.9244
▁patricia	-11.9245
▁tiempo	-11.9246
▁zoom	-11.9247
▁swiftly	-11.9247
ся	-11.9247
▁amp	-11.9252
▁judiciary	-11.9252
▁rak	-11.9254
doc	-11.9256
▁flush	-11.9257
▁disturbed	-11.9258
▁———.	-11.9259
▁petty	-11.9259
▁chick	-11.9263
▁swa	-11.9265
sell	-11.9266
insky	-11.9268
▁evenly	-11.9268
▁heroic	-11.9269
▁motive	-11.9269
▁damaging	-11.9273
jou	-11.9274
ometer	-11.9275
▁tb	-11.9275
▁violate	-11.9276
▁seize	-11.9279
▁stoke	-11.9282
security	-11.9282
▁imagery	-11.9282
▁treatments	-11.9282
新	-11.9282
▁vivid	-11.9283
record	-11.9286
[...]
