<pad>	0
<unk>	0
</s>	0
s	-3.06073
▁	-3.51424
,	-3.58384
▁the	-3.61556
.	-3.65937
▁a	-4.26439
▁to	-4.38573
▁of	-4.39558
t	-4.40081
▁and	-4.42229
▁in	-4.48547
ed	-4.49996
d	-4.66899
ing	-4.78305
e	-4.93763
y	-4.96249
n	-4.98158
1	-5.02346
'	-5.02682
a	-5.14028
0	-5.20921
r	-5.20966
er	-5.21074
-	-5.25235
i	-5.32068
▁that	-5.35374
2	-5.43626
re	-5.43812
▁for	-5.44321
ly	-5.45276
c	-5.45892
▁i	-5.47348
▁he	-5.50928
▁was	-5.51489
▁is	-5.51947
▁it	-5.5242
m	-5.53129
o	-5.59261
al	-5.59518
g	-5.60428
▁on	-5.64867
u	-5.65372
▁"	-5.6757
or	-5.68135
▁re	-5.72149
▁be	-5.72566
▁with	-5.74623
l	-5.77293
in	-5.77752
▁as	-5.79746
▁de	-5.80037
9	-5.80558
p	-5.81104
le	-5.84781
▁(	-5.89675
b	-5.89713
th	-5.91581
w	-5.96007
f	-5.97597
es	-5.97964
▁you	-5.98581
ri	-5.99611
ch	-6.01403
ar	-6.02639
:	-6.0299
ll	-6.03456
▁his	-6.03859
▁at	-6.05788
h	-6.08105
3	-6.0996
5	-6.15293
it	-6.17919
)	-6.17984
en	-6.19095
▁by	-6.19174
▁an	-6.20319
’	-6.20401
k	-6.21657
4	-6.21671
▁from	-6.21793
ck	-6.22585
▁f	-6.2407
▁me	-6.24151
▁this	-6.25158
8	-6.25265
▁not	-6.25452
▁we	-6.27187
an	-6.27294
▁so	-6.29783
▁but	-6.30584
il	-6.30701
li	-6.31571
6	-6.34368
ur	-6.34461
▁con	-6.35326
▁had	-6.37035
▁are	-6.37127
ne	-6.37749
7	-6.38396
▁have	-6.38642
▁she	-6.38995
te	-6.39655
▁her	-6.39747
ic	-6.41053
▁or	-6.42082
ra	-6.42084
on	-6.42819
ce	-6.43677
st	-6.47655
▁e	-6.48763
ation	-6.48767
se	-6.49062
ve	-6.49138
_	-6.49346
et	-6.49489
ro	-6.49869
ment	-6.49885
ate	-6.54064
la	-6.56763
el	-6.57315
▁they	-6.5868
lo	-6.59222
▁la	-6.62982
▁c	-6.63306
▁k	-6.63325
ion	-6.64345
de	-6.64696
▁can	-6.64895
▁do	-6.65145
▁no	-6.65679
at	-6.65813
▁b	-6.66087
me	-6.66218
x	-6.66342
ent	-6.66362
▁all	-6.66549
is	-6.67439
ma	-6.67502
."	-6.67902
v	-6.68491
▁un	-6.70064
▁were	-6.7082
▁who	-6.70846
z	-6.71419
▁one	-6.71943
us	-6.72867
▁up	-6.73063
▁_	-6.73933
ir	-6.74773
ter	-6.7856
▁st	-6.79208
"	-6.79217
▁out	-6.79513
▁ma	-6.79514
▁said	-6.79921
▁ra	-6.80334
▁p	-6.80475
▁co	-6.81396
;	-6.81556
ke	-6.81614
ta	-6.81913
sh	-6.82338
▁their	-6.82484
ry	-6.83933
tion	-6.84162
ers	-6.84602
ive	-6.84638
▁has	-6.84949
vi	-6.85348
na	-6.85582
ge	-6.85832
▁po	-6.87788
▁my	-6.87801
to	-6.87873
no	-6.89208
▁se	-6.89488
▁su	-6.90308
▁ba	-6.91243
▁would	-6.92294
▁more	-6.93701
▁which	-6.94578
▁will	-6.95303
▁when	-6.95511
▁o	-6.96051
?	-6.96603
▁mi	-6.97826
▁bo	-6.98855
é	-6.99263
▁about	-6.99287
▁new	-6.99548
▁if	-6.99644
▁ho	-6.99698
▁what	-6.99714
▁“	-7.00621
ity	-7.00632
ver	-7.01198
ist	-7.01857
▁time	-7.02317
▁ro	-7.02382
▁sa	-7.02542
ci	-7.0282
▁there	-7.03165
ol	-7.04047
▁been	-7.04067
▁pro	-7.04178
▁like	-7.05457
▁lo	-7.06741
ca	-7.06918
ad	-7.07546
co	-7.07953
▁him	-7.08445
ia	-7.08802
▁ca	-7.08855
ance	-7.09505
the	-7.09982
id	-7.10085
un	-7.1053
▁pa	-7.10573
▁di	-7.10604
▁other	-7.10616
ant	-7.1114
▁over	-7.11809
ff	-7.1185
ph	-7.12419
▁mo	-7.13444
▁ch	-7.13505
able	-7.13588
age	-7.14681
as	-7.15517
▁your	-7.15573
ated	-7.15622
▁g	-7.16359
mo	-7.16906
▁fa	-7.17152
▁into	-7.1731
ul	-7.17349
▁ex	-7.1832
/	-7.18848
▁vi	-7.20129
▁en	-7.21471
▁ha	-7.21514
▁go	-7.21822
am	-7.21996
,"	-7.22598
▁some	-7.22796
ard	-7.23089
▁pre	-7.24744
—	-7.24809
um	-7.25602
▁sp	-7.26038
ted	-7.26057
▁le	-7.26184
▁li	-7.26522
ty	-7.27204
di	-7.27467
▁also	-7.27655
mp	-7.28432
▁man	-7.28464
min	-7.28526
ian	-7.28654
▁than	-7.28701
▁work	-7.28716
▁si	-7.28994
im	-7.29057
▁could	-7.29134
▁just	-7.29499
ti	-7.29998
▁after	-7.30323
end	-7.3041
bo	-7.31773
om	-7.32758
#	-7.32805
▁d	-7.33616
pe	-7.34192
he	-7.34302
▁per	-7.35426
one	-7.35463
ish	-7.3609
▁them	-7.36238
▁first	-7.36421
mb	-7.37627
ha	-7.37953
ies	-7.38309
po	-7.38424
▁t	-7.39159
est	-7.39267
ting	-7.3932
ba	-7.39538
▁back	-7.39587
ho	-7.3974
▁w	-7.4017
▁–	-7.40179
ence	-7.40478
▁car	-7.41714
▁m	-7.42226
und	-7.42739
and	-7.4279
ine	-7.43419
ect	-7.43627
be	-7.43656
▁two	-7.44194
▁people	-7.44914
▁al	-7.45764
man	-7.4599
ot	-7.46157
▁'	-7.46164
▁com	-7.48506
▁da	-7.48821
▁any	-7.48899
pp	-7.49711
▁gu	-7.4988
▁only	-7.50418
tic	-7.5058
▁dis	-7.51388
▁mar	-7.51572
go	-7.52055
▁our	-7.52307
▁ta	-7.52477
▁tra	-7.52838
▁see	-7.53035
ng	-7.5309
▁us	-7.53251
os	-7.53813
mi	-7.54203
ni	-7.5461
▁sta	-7.54696
ie	-7.54784
▁fi	-7.55855
op	-7.55982
ven	-7.56909
ow	-7.57315
▁now	-7.57319
▁na	-7.57356
do	-7.57438
▁pri	-7.57462
▁h	-7.57583
▁may	-7.57826
we	-7.58114
▁even	-7.58282
nd	-7.58475
–	-7.58642
son	-7.58716
▁bu	-7.59382
j	-7.59794
▁ga	-7.60378
▁comp	-7.6058
▁how	-7.60657
ut	-7.6085
ary	-7.61084
ous	-7.61229
nt	-7.61323
da	-7.62174
▁ar	-7.62841
▁most	-7.63184
▁make	-7.63226
▁l	-7.63276
▁its	-7.63633
▁get	-7.63699
▁way	-7.63738
tor	-7.63775
que	-7.64025
▁fe	-7.64148
▁du	-7.642
▁part	-7.64953
о	-7.65038
▁ne	-7.65052
q	-7.66465
▁know	-7.66519
▁|	-7.66744
ber	-7.67379
▁down	-7.67395
▁el	-7.67508
▁ju	-7.67512
▁col	-7.67682
),	-7.67766
pa	-7.68219
▁don	-7.68473
les	-7.69459
▁through	-7.69504
▁day	-7.7
▁ja	-7.70416
▁take	-7.70482
▁where	-7.70862
ach	-7.71196
▁va	-7.71942
va	-7.72109
**	-7.72124
ual	-7.72219
ton	-7.72537
lu	-7.727
!	-7.7274
▁v	-7.72991
ten	-7.73345
▁then	-7.73442
▁gra	-7.73612
▁war	-7.73677
▁mon	-7.74216
?"	-7.74905
nk	-7.74982
).	-7.75158
ft	-7.7546
com	-7.76317
ical	-7.76973
▁sc	-7.775
▁y	-7.77526
▁ri	-7.7765
per	-7.7771
ster	-7.77877
od	-7.7812
fe	-7.78297
▁ad	-7.78461
▁before	-7.78824
wa	-7.79133
▁hi	-7.79356
▁long	-7.79612
ition	-7.79703
▁these	-7.7992
ru	-7.80024
ative	-7.80285
▁n	-7.80337
▁pe	-7.80885
▁pu	-7.80954
ner	-7.81013
▁hand	-7.81095
tro	-7.81219
lic	-7.8145
▁u	-7.81533
▁cha	-7.81566
▁cre	-7.81812
▁because	-7.82258
”	-7.82283
▁hu	-7.82403
▁sha	-7.82556
▁under	-7.83003
▁jo	-7.83043
▁te	-7.83182
▁high	-7.83306
▁**	-7.83687
▁right	-7.83704
bi	-7.83748
▁well	-7.8432
che	-7.84656
▁state	-7.84724
tain	-7.84906
▁world	-7.84917
▁wi	-7.85056
▁need	-7.85146
cent	-7.85265
red	-7.85612
▁own	-7.86166
nc	-7.86336
land	-7.86619
iv	-7.86872
our	-7.87257
ure	-7.87307
▁think	-7.87354
▁app	-7.8777
▁je	-7.87945
mm	-7.88168
▁did	-7.88212
▁many	-7.88725
▁r	-7.88904
▁made	-7.89074
form	-7.89191
cu	-7.89396
ations	-7.89485
em	-7.89874
ger	-7.89906
▁years	-7.90509
sion	-7.90615
▁inter	-7.9072
▁act	-7.90872
а	-7.91019
▁should	-7.91318
▁while	-7.91353
ness	-7.91362
ful	-7.91414
ial	-7.91877
▁pi	-7.91957
ture	-7.91968
▁off	-7.92195
rt	-7.92639
tal	-7.93119
hi	-7.93408
tri	-7.93684
led	-7.94052
▁use	-7.94098
▁exp	-7.94618
▁que	-7.94851
▁much	-7.95049
▁tri	-7.95249
gra	-7.95363
▁good	-7.96177
▁ti	-7.96218
е	-7.96269
▁play	-7.96343
▁show	-7.96578
ok	-7.96633
ze	-7.96685
gi	-7.96719
▁such	-7.96788
ient	-7.97095
▁sho	-7.97136
wi	-7.97599
▁come	-7.97755
up	-7.97764
ex	-7.97813
ice	-7.97888
tra	-7.98581
ling	-7.98645
▁very	-7.98782
ran	-7.98796
▁—	-7.98809
ward	-7.98858
и	-7.98873
▁add	-7.99024
▁say	-7.99211
ak	-7.99221
ab	-7.99224
▁those	-7.99867
act	-8.00084
den	-8.00211
▁place	-8.00306
▁j	-8.00614
▁end	-8.00621
▁here	-8.00707
ä	-8.00972
▁still	-8.00973
▁being	-8.00977
...	-8.00998
▁life	-8.01374
▁mu	-8.01814
ap	-8.0231
▁dr	-8.02763
igh	-8.02776
▁imp	-8.02812
day	-8.02838
▁plan	-8.02892
io	-8.02969
mon	-8.0318
ig	-8.03318
▁want	-8.03378
king	-8.03729
gg	-8.03738
if	-8.03831
ities	-8.04178
ating	-8.04202
▁qu	-8.04327
ron	-8.04434
ga	-8.04865
▁wo	-8.05013
▁men	-8.05418
▁found	-8.05659
for	-8.06212
▁op	-8.07146
der	-8.07269
▁between	-8.0731
▁last	-8.07345
ill	-8.07569
row	-8.07608
ship	-8.07695
gu	-8.07761
▁year	-8.07965
▁head	-8.08005
ki	-8.08052
▁trans	-8.08506
▁mean	-8.08732
▁ce	-8.09173
port	-8.09183
▁around	-8.09232
con	-8.09311
ring	-8.09489
▁sw	-8.09748
▁tre	-8.09861
▁start	-8.1108
fi	-8.11096
serv	-8.1129
val	-8.11417
ther	-8.11523
ise	-8.11526
dic	-8.11593
fa	-8.11681
▁stu	-8.11695
н	-8.11796
▁bi	-8.1239
▁three	-8.12431
▁great	-8.12564
ud	-8.12606
dy	-8.1298
ag	-8.13157
ism	-8.13354
ning	-8.13393
▁ni	-8.13924
▁win	-8.13993
▁both	-8.14391
ite	-8.14492
ka	-8.14508
▁em	-8.14674
▁ru	-8.15071
▁z	-8.15096
vo	-8.15374
ions	-8.15521
▁game	-8.15866
ally	-8.15887
▁house	-8.16069
ving	-8.16224
▁fo	-8.16293
nn	-8.16418
т	-8.16604
▁name	-8.1694
▁against	-8.16974
▁sur	-8.17166
▁home	-8.17285
▁point	-8.17306
]	-8.17497
qui	-8.17686
▁fra	-8.17783
ident	-8.18185
▁set	-8.18226
▁help	-8.18273
▁open	-8.18659
▁cor	-8.19118
▁going	-8.1927
lin	-8.19787
▁bar	-8.19883
▁same	-8.19908
▁lu	-8.19983
.”	-8.20144
mit	-8.20163
au	-8.2055
ious	-8.20616
▁par	-8.21082
▁never	-8.21162
gen	-8.21179
▁bra	-8.21266
duc	-8.21371
▁another	-8.2146
▁read	-8.21527
=	-8.22303
all	-8.22315
▁flo	-8.22377
▁during	-8.22765
▁every	-8.22795
▁sub	-8.23345
ries	-8.23435
▁real	-8.23543
tter	-8.24285
vol	-8.243
▁far	-8.24439
▁rep	-8.24863
▁move	-8.2493
▁face	-8.25863
▁-	-8.2591
line	-8.2593
less	-8.26098
side	-8.26236
▁count	-8.26519
▁report	-8.26605
▁look	-8.26856
▁came	-8.26866
▁gen	-8.26978
ang	-8.27002
▁direct	-8.27077
bl	-8.27464
ip	-8.27752
▁each	-8.27911
▁little	-8.27947
▁arm	-8.28009
▁pass	-8.28055
bb	-8.2829
▁too	-8.28559
▁form	-8.28849
▁$	-8.29126
ult	-8.29262
▁har	-8.2931
pi	-8.29311
▁find	-8.29652
▁wa	-8.30029
ough	-8.30719
fin	-8.30729
but	-8.3074
▁cap	-8.31197
▁since	-8.31293
▁change	-8.31448
▁team	-8.31882
▁second	-8.31975
ator	-8.31999
▁ab	-8.32102
▁vo	-8.32104
с	-8.32368
▁used	-8.32601
%	-8.32671
▁ste	-8.33179
▁school	-8.33299
ep	-8.3349
▁didn	-8.33727
▁che	-8.33949
▁again	-8.34044
▁old	-8.34246
old	-8.34395
▁something	-8.34511
▁power	-8.34574
way	-8.34633
use	-8.34651
spect	-8.34657
,”	-8.34676
▁cl	-8.3476
▁group	-8.34832
ign	-8.3501
▁law	-8.35297
gar	-8.35341
tern	-8.35357
▁large	-8.3537
▁am	-8.35385
▁week	-8.35573
▁live	-8.35577
ide	-8.35757
▁los	-8.35822
р	-8.36013
▁des	-8.36464
▁put	-8.36645
▁thought	-8.36672
▁might	-8.36772
▁care	-8.37051
▁book	-8.37481
▁art	-8.37639
rs	-8.37643
▁leg	-8.37665
ding	-8.38076
▁few	-8.38181
▁city	-8.38287
▁american	-8.38549
▁left	-8.38867
▁seem	-8.38996
▁fu	-8.39051
▁public	-8.39169
▁sen	-8.39497
▁got	-8.3952
▁tu	-8.39693
▁number	-8.40055
▁feel	-8.40331
bu	-8.40397
pr	-8.40482
ped	-8.41198
▁close	-8.41294
▁[	-8.4136
▁ge	-8.41525
▁system	-8.41592
▁air	-8.41737
▁fact	-8.42033
ó	-8.42153
▁ka	-8.42305
tu	-8.42396
▁government	-8.42551
by	-8.42805
▁until	-8.42971
▁ob	-8.43015
▁dan	-8.43112
press	-8.43362
tur	-8.43381
you	-8.43383
ible	-8.43384
▁told	-8.44349
▁free	-8.44542
▁cri	-8.44663
han	-8.4475
▁four	-8.44788
▁pat	-8.44835
▁pla	-8.4495
▁away	-8.44952
▁support	-8.45025
▁love	-8.45173
▁small	-8.45389
▁acc	-8.45524
so	-8.456
ju	-8.45842
▁office	-8.45911
▁water	-8.45931
▁line	-8.45931
▁without	-8.46295
▁president	-8.4631
▁best	-8.46334
ny	-8.46377
▁gi	-8.46553
▁south	-8.46671
▁case	-8.46711
▁au	-8.46784
ific	-8.46981
í	-8.47057
▁side	-8.47377
▁later	-8.47411
ized	-8.47483
á	-8.47737
в	-8.48075
ple	-8.48199
▁bri	-8.48265
ev	-8.48337
▁north	-8.48407
ko	-8.48418
▁must	-8.48979
▁im	-8.49084
▁next	-8.49411
cul	-8.49525
▁est	-8.49557
▁stand	-8.49592
out	-8.50072
lar	-8.50539
▁sl	-8.50713
▁call	-8.50826
▁let	-8.50901
▁sign	-8.51027
cc	-8.51053
▁ten	-8.51109
▁national	-8.51458
▁word	-8.52048
▁fla	-8.52183
cept	-8.52532
ration	-8.5282
ken	-8.52912
cle	-8.53082
str	-8.53103
▁big	-8.53149
▁hard	-8.53232
light	-8.53654
▁nu	-8.53738
▁near	-8.53894
ue	-8.54024
▁list	-8.54087
za	-8.54386
▁different	-8.54441
▁*	-8.54587
▁order	-8.54602
▁however	-8.54766
▁main	-8.54943
▁san	-8.55046
ja	-8.55469
▁tell	-8.55592
ley	-8.5564
▁called	-8.55759
▁et	-8.56003
(	-8.56433
emp	-8.56472
▁things	-8.56759
▁prop	-8.56804
▁really	-8.56886
▁took	-8.57088
wn	-8.57154
tru	-8.57288
▁die	-8.57423
▁night	-8.57488
▁though	-8.57489
▁why	-8.57608
tin	-8.57652
lan	-8.5781
ler	-8.57815
ize	-8.58211
▁white	-8.58259
▁try	-8.58304
▁black	-8.58455
▁final	-8.58639
▁qui	-8.5879
whi	-8.59007
▁member	-8.59583
▁keep	-8.59603
▁service	-8.59914
ists	-8.60173
▁family	-8.60184
▁light	-8.6041
▁ear	-8.60587
ute	-8.6073
▁john	-8.60752
▁human	-8.60843
ö	-8.61128
▁post	-8.61377
▁general	-8.61403
▁appear	-8.61468
xi	-8.6157
gue	-8.62071
▁talk	-8.62188
▁once	-8.62194
▁cra	-8.62646
▁class	-8.63
▁question	-8.63063
▁always	-8.63072
▁give	-8.63211
▁shi	-8.63274
▁went	-8.63338
position	-8.63576
▁force	-8.63627
▁return	-8.63846
men	-8.64333
struct	-8.64382
▁turn	-8.64403
▁ver	-8.6463
▁sea	-8.65097
▁press	-8.65187
л	-8.6526
▁room	-8.65283
▁run	-8.65806
▁women	-8.66114
▁include	-8.66187
▁sal	-8.66367
▁asked	-8.66519
▁record	-8.66636
mission	-8.66715
▁star	-8.67597
ier	-8.678
ps	-8.67834
mor	-8.67904
oc	-8.67981
▁season	-8.68148
mark	-8.68254
▁does	-8.68262
▁young	-8.68342
par	-8.68666
▁says	-8.68714
van	-8.69194
field	-8.693
▁land	-8.6956
▁dra	-8.69652
▁result	-8.69828
tract	-8.69848
▁become	-8.69878
vel	-8.70037
▁idea	-8.70053
▁char	-8.70163
tan	-8.7044
pro	-8.70639
▁happen	-8.7092
▁sco	-8.71113
▁trump	-8.71858
▁film	-8.7187
nder	-8.71936
▁base	-8.72145
▁better	-8.72223
▁university	-8.7223
▁believe	-8.72764
▁product	-8.72802
▁provide	-8.73024
▁along	-8.73042
▁person	-8.7309
ned	-8.73228
▁allow	-8.73545
▁consider	-8.73678
▁thing	-8.73822
▁mil	-8.74016
ically	-8.74218
▁clear	-8.74417
к	-8.74521
▁sch	-8.74689
▁gre	-8.74793
▁enough	-8.74969
▁including	-8.7502
▁bur	-8.75201
▁states	-8.75243
▁follow	-8.75255
▁company	-8.75365
▁interest	-8.75737
rk	-8.75748
▁ever	-8.7584
å	-8.75928
▁area	-8.76041
▁york	-8.76048
▁remain	-8.76145
▁country	-8.76156
▁problem	-8.76301
▁god	-8.76479
ency	-8.76553
▁bill	-8.76559
▁early	-8.76698
▁clo	-8.76728
▁social	-8.76774
▁continue	-8.76807
▁united	-8.76882
▁grow	-8.77186
▁less	-8.77299
gro	-8.77309
▁eyes	-8.7767
▁business	-8.7788
▁past	-8.78043
▁rest	-8.78057
right	-8.78278
▁walk	-8.78284
▁court	-8.78326
▁kind	-8.78353
▁kill	-8.78538
▁test	-8.79044
▁top	-8.79187
▁step	-8.79319
▁issue	-8.79521
ü	-8.79716
▁&	-8.79809
elle	-8.79846
▁short	-8.80561
▁himself	-8.80638
▁stop	-8.80827
of	-8.80888
▁process	-8.80926
▁history	-8.81095
▁lot	-8.81307
▁yet	-8.81583
▁bre	-8.81679
>	-8.81716
▁control	-8.82038
▁||	-8.82188
▁design	-8.82394
▁para	-8.82424
ham	-8.82569
▁moment	-8.82936
▁offer	-8.82945
▁watch	-8.83141
▁mr	-8.8315
cre	-8.83151
▁music	-8.83156
▁author	-8.83196
▁fire	-8.83238
ung	-8.83354
▁mind	-8.83377
▁full	-8.83381
▁view	-8.83491
▁children	-8.83602
▁reason	-8.83681
▁release	-8.83716
▁effect	-8.83733
▁cur	-8.83816
▁program	-8.83844
▁data	-8.84042
▁looked	-8.84138
zi	-8.84209
ker	-8.84346
▁already	-8.84519
▁course	-8.84596
▁son	-8.84645
▁major	-8.84692
▁several	-8.84891
▁known	-8.84895
ek	-8.85117
▁death	-8.85325
▁thr	-8.85487
▁lead	-8.85679
▁non	-8.85739
▁term	-8.85817
▁door	-8.86077
è	-8.86185
▁million	-8.86514
▁according	-8.86641
▁using	-8.86716
▁sure	-8.87026
▁bit	-8.87096
▁police	-8.87154
clu	-8.87475
▁often	-8.87574
what	-8.87745
▁hold	-8.87984
▁pay	-8.88082
▁gla	-8.88091
▁father	-8.88211
▁nothing	-8.88275
▁port	-8.88414
▁important	-8.88521
▁del	-8.88584
▁tea	-8.88604
▁cu	-8.8874
▁won	-8.89119
▁cover	-8.89141
▁pen	-8.8917
▁player	-8.89298
▁health	-8.89321
▁across	-8.8933
fo	-8.89347
▁project	-8.89593
▁story	-8.89673
▁body	-8.89751
▁stra	-8.89825
▁example	-8.90033
▁mor	-8.90144
▁local	-8.90146
▁information	-8.90558
gri	-8.90576
м	-8.90611
gan	-8.91061
▁having	-8.91072
▁market	-8.91126
▁among	-8.91319
▁half	-8.91426
▁es	-8.91472
д	-8.9157
▁saw	-8.91583
▁present	-8.91586
▁serve	-8.91587
▁together	-8.91728
ban	-8.91795
▁learn	-8.91823
▁six	-8.92086
▁exc	-8.92254
▁least	-8.92257
▁attack	-8.92329
▁experience	-8.92378
vin	-8.92486
ability	-8.92486
▁street	-8.92767
▁making	-8.92773
▁cla	-8.92778
▁late	-8.92781
▁mother	-8.92881
▁knew	-8.93005
ado	-8.93154
▁research	-8.93414
▁certain	-8.93454
▁pain	-8.93454
▁party	-8.93495
▁level	-8.93731
ified	-8.93832
▁following	-8.93915
▁political	-8.94094
▁toward	-8.9415
▁front	-8.94617
▁behind	-8.95084
ttle	-8.95113
time	-8.9515
▁five	-8.95268
▁money	-8.95298
▁seen	-8.95863
п	-8.95913
▁began	-8.9603
don	-8.96035
▁within	-8.96259
bit	-8.96309
part	-8.96364
▁became	-8.96381
▁almost	-8.96418
▁table	-8.96848
▁complete	-8.97153
▁fight	-8.97177
▁event	-8.97566
▁given	-8.97586
col	-8.97821
▁bla	-8.98068
▁sound	-8.98256
▁woman	-8.9832
▁begin	-8.98623
ral	-8.98647
▁sent	-8.98707
▁understand	-8.99038
▁wall	-8.99201
▁leave	-8.9923
▁expect	-8.99315
▁pra	-8.99321
▁park	-8.99422
▁town	-8.99922
▁train	-9.00017
の	-9.00019
▁west	-9.00047
▁image	-9.00243
▁character	-9.00265
▁super	-9.00286
lea	-9.0029
▁leader	-9.0036
▁fall	-9.00588
▁wanted	-9.00854
lf	-9.00898
▁building	-9.00993
▁enter	-9.0126
je	-9.013
▁girl	-9.0156
▁food	-9.01957
▁current	-9.02038
▁official	-9.02051
▁done	-9.02218
▁former	-9.02301
▁felt	-9.02328
▁success	-9.02328
▁east	-9.02447
▁anything	-9.02476
fully	-9.02841
▁invest	-9.03366
▁join	-9.03448
▁german	-9.03596
▁à	-9.03646
▁europe	-9.0378
▁turned	-9.03919
▁space	-9.03925
▁require	-9.04005
▁job	-9.04139
▁cut	-9.04184
▁photo	-9.0447
▁develop	-9.04584
zz	-9.04711
!"	-9.04749
α	-9.04932
▁hope	-9.05301
▁matter	-9.05347
istic	-9.05665
jo	-9.05806
▁claim	-9.05925
▁red	-9.06026
▁percent	-9.06139
▁speak	-9.06359
acy	-9.06392
▁today	-9.06836
▁drive	-9.06875
у	-9.06876
where	-9.06972
▁write	-9.07248
▁single	-9.07248
▁pan	-9.07372
▁road	-9.07483
▁represent	-9.07575
▁cost	-9.0764
▁media	-9.07655
▁den	-9.07701
▁wait	-9.07778
▁heart	-9.07968
▁voice	-9.0799
▁nor	-9.08187
▁visit	-9.08583
▁break	-9.08663
▁cru	-9.08796
▁bring	-9.09033
▁der	-9.09188
▁series	-9.0935
lk	-9.09513
▁action	-9.09941
▁rather	-9.10132
▁looking	-9.10242
▁spec	-9.10247
▁special	-9.10285
▁disc	-9.10312
ium	-9.106
▁dark	-9.10769
▁produce	-9.10866
▁march	-9.11025
▁anti	-9.11056
▁mc	-9.11123
▁ground	-9.11154
▁center	-9.11191
▁boy	-9.11202
connect	-9.11511
▁cause	-9.11646
well	-9.11737
▁share	-9.11916
▁particular	-9.12021
▁international	-9.12023
▁protect	-9.12364
▁held	-9.12397
script	-9.12421
▁deep	-9.12535
▁agree	-9.12575
▁possible	-9.12597
▁figure	-9.12768
▁cup	-9.12979
▁strong	-9.13063
▁green	-9.13497
▁child	-9.13522
▁type	-9.13792
▁whether	-9.1381
▁value	-9.13946
▁else	-9.14973
▁common	-9.15075
▁minutes	-9.15309
put	-9.15445
ology	-9.15732
▁feature	-9.15865
‘	-9.16147
τ	-9.16322
▁everything	-9.16412
▁mass	-9.16482
▁although	-9.16499
▁exist	-9.16589
▁blo	-9.1661
▁church	-9.16627
▁russia	-9.16784
▁someone	-9.16796
▁personal	-9.17209
▁sense	-9.17973
head	-9.17983
ridge	-9.18358
▁key	-9.18488
▁grand	-9.18614
▁doesn	-9.1863
▁self	-9.1882
▁secret	-9.18822
▁rule	-9.19068
▁bank	-9.19193
▁critic	-9.19355
▁safe	-9.19807
▁suggest	-9.19889
|	-9.2006
▁community	-9.20155
▁pick	-9.20304
▁video	-9.2045
ense	-9.20538
▁spa	-9.20631
▁further	-9.20751
ο	-9.20823
▁original	-9.20823
▁answer	-9.2095
▁vote	-9.21335
▁instead	-9.21381
▁future	-9.21675
ç	-9.21689
▁organ	-9.22002
gon	-9.22686
▁development	-9.22851
▁either	-9.22958
▁increase	-9.22979
▁fan	-9.23372
ux	-9.23399
▁outside	-9.23626
、	-9.23733
▁gave	-9.23954
▁source	-9.2428
▁rock	-9.24288
▁getting	-9.24391
▁actually	-9.24391
▁account	-9.24564
▁remember	-9.24592
▁camp	-9.24852
ν	-9.24979
▁individual	-9.25576
bru	-9.25756
▁club	-9.26026
▁third	-9.26416
`	-9.26736
▁region	-9.26873
place	-9.26968
▁cross	-9.27252
year	-9.27322
+	-9.27348
▁song	-9.27395
point	-9.27414
▁campaign	-9.27822
▁model	-9.2828
▁concern	-9.2841
▁pull	-9.28607
▁river	-9.28695
▁gold	-9.28812
▁study	-9.28868
▁above	-9.29216
▁wide	-9.29262
▁taking	-9.29367
▁chapter	-9.29407
commun	-9.29646
▁site	-9.29951
▁true	-9.30086
▁similar	-9.30307
\	-9.34167
@	-9.34467
い	-9.34472
»	-9.36539
ا	-9.36547
•	-9.38658
ε	-9.39179
я	-9.39828
«	-9.4248
ă	-9.42598
ã	-9.44603
。	-9.44698
<	-9.45311
に	-9.4566
ι	-9.4582
}	-9.47777
{	-9.49951
ê	-9.50569
з	-9.51134
と	-9.53331
г	-9.53833
ы	-9.53927
る	-9.54916
­	-9.55322
б	-9.56958
た	-9.57333
ь	-9.58111
し	-9.59007
で	-9.62455
て	-9.6337
は	-9.65044
$	-9.66424
を	-9.70567
が	-9.7149
な	-9.73037
ч	-9.73846
⁄	-9.73912
[	-9.75096
ー	-9.75383
ل	-9.80556
à	-9.82389
ρ	-9.82658
й	-9.83052
σ	-9.83172
ñ	-9.83538
ς	-9.85616
π	-9.88527
ú	-9.91225
κ	-9.91303
μ	-9.97764
ı	-9.98305
î	-10.0273
â	-10.0342
す	-10.0492
ā	-10.0805
ø	-10.1185
х	-10.1259
λ	-10.1369
ン	-10.1403
か	-10.176
η	-10.1822
ж	-10.1925
م	-10.2163
υ	-10.2208
れ	-10.2211
&	-10.2269
*	-10.2401
っ	-10.2518
ま	-10.262
і	-10.2677
ي	-10.3057
ł	-10.3109
う	-10.3401
も	-10.3428
£	-10.3457
ş	-10.3736
ر	-10.3902
ن	-10.41
ら	-10.4109
و	-10.4186
ت	-10.4325
こ	-10.4332
ю	-10.4433
ц	-10.4616
δ	-10.4773
€	-10.5069
ô	-10.5252
り	-10.5262
ί	-10.5309
ш	-10.5336
ス	-10.5427
ß	-10.558
「	-10.5708
」	-10.5713
š	-10.5957
æ	-10.5996
ć	-10.6018
“	-10.6259
ト	-10.6453
°	-10.6541
イ	-10.6566
γ	-10.6919
ό	-10.705
č	-10.7171
さ	-10.7318
ά	-10.7539
έ	-10.7607
ب	-10.7969
ω	-10.8029
だ	-10.8041
ō	-10.8069
د	-10.8074
く	-10.8269
ル	-10.8454
ù	-10.8699
ん	-10.8912
あ	-10.9131
き	-10.9154
ع	-10.942
ț	-10.9589
ه	-10.9666
ș	-10.9713
的	-10.9846
ッ	-11.0025
ラ	-11.0153
リ	-11.016
θ	-11.0305
ę	-11.0383
よ	-11.0431
ア	-11.0482
ф	-11.0641
щ	-11.0652
„	-11.0712
ž	-11.0822
ī	-11.0951
人	-11.0966
ą	-11.1156
χ	-11.1172
ク	-11.1231
э	-11.1232
そ	-11.1289
ţ	-11.1368
け	-11.1558
ف	-11.1626
~	-11.1665
õ	-11.1693
đ	-11.1718
′	-11.1786
ة	-11.1889
ś	-11.1913
ż	-11.2034
日	-11.2145
س	-11.2159
©	-11.2217
×	-11.2675
ك	-11.2717
ή	-11.2735
−	-11.2788
φ	-11.2876
ی	-11.342
・	-11.3457
ど	-11.3511
¿	-11.3584
タ	-11.3592
ύ	-11.36
ò	-11.3646
大	-11.3648
·	-11.3811
え	-11.3821
め	-11.4032
ド	-11.4087
や	-11.4091
ğ	-11.4121
ū	-11.4131
β	-11.414
一	-11.4222
年	-11.4245
ा	-11.4295
プ	-11.4484
シ	-11.4723
つ	-11.4823
ë	-11.5085
י	-11.5425
œ	-11.556
ロ	-11.5619
û	-11.5656
お	-11.5819
レ	-11.582
わ	-11.5892
^	-11.5986
フ	-11.6058
ï	-11.6128
ו	-11.6139
†	-11.6202
ش	-11.6249
ì	-11.6259
ق	-11.6323
中	-11.6355
上	-11.6442
ち	-11.6612
ح	-11.6705
ジ	-11.6714
国	-11.6977
‐	-11.7118
ξ	-11.7312
ώ	-11.7316
テ	-11.7511
カ	-11.7527
本	-11.7535
メ	-11.755
र	-11.7648
出	-11.7663
क	-11.7673
ム	-11.7713
コ	-11.7723
マ	-11.7754
ἐ	-11.7988
े	-11.8028
せ	-11.8074
み	-11.8141
者	-11.8153
月	-11.8268
ὶ	-11.8298
ج	-11.8454
ě	-11.8635
ה	-11.8658
デ	-11.8669
時	-11.9159
会	-11.9188
أ	-11.9204
バ	-11.9308
グ	-11.9351
サ	-11.9383
発	-11.9385
生	-11.9411
ư	-11.9459
行	-11.9522
خ	-11.9566
事	-11.9606
分	-11.9764
ἀ	-11.9847
ィ	-11.9866
不	-12.0027
自	-12.0044
用	-12.0051
ń	-12.0145
性	-12.035
間	-12.0411
ز	-12.0487
キ	-12.051
ば	-12.0546
見	-12.0587
→	-12.0649
ص	-12.066
█	-12.0791
作	-12.1002
チ	-12.1023
ブ	-12.1031
¡	-12.1031
§	-12.1064
ל	-12.128
ї	-12.1305
ウ	-12.1305
─	-12.1349
じ	-12.1386
ろ	-12.1504
子	-12.1525
場	-12.1533
ャ	-12.1575
ى	-12.1598
ר	-12.1765
方	-12.1853
ý	-12.1888
在	-12.1895
®	-12.1909
ी	-12.1912
合	-12.193
्	-12.1936
ニ	-12.1944
同	-12.1951
オ	-12.2051
ュ	-12.2064
ビ	-12.2072
स	-12.2124
定	-12.2136
入	-12.2142
ő	-12.2303
न	-12.2309
♦	-12.2325
ř	-12.2331
動	-12.2377
ῖ	-12.2427
ह	-12.2464
前	-12.2571
地	-12.2666
手	-12.273
パ	-12.2878
ῶ	-12.2888
新	-12.2914
ē	-12.2966
ב	-12.3005
ὸ	-12.3048
ת	-12.3098
ं	-12.3121
開	-12.3141
ὰ	-12.3198
מ	-12.3208
能	-12.3296
対	-12.3453
א	-12.347
言	-12.3494
学	-12.3516
是	-12.3517
高	-12.3526
最	-12.355
今	-12.3561
ạ	-12.3571
त	-12.368
ि	-12.368
以	-12.3723
ط	-12.374
ナ	-12.3747
有	-12.3747
実	-12.375
म	-12.3786
下	-12.3868
ض	-12.3987
思	-12.3994
―	-12.3998
部	-12.4042
要	-12.4057
エ	-12.4156
後	-12.4204
ש	-12.4222
ệ	-12.4245
回	-12.4286
ὐ	-12.4342
体	-12.457
業	-12.4656
社	-12.4714
ế	-12.4729
表	-12.4757
他	-12.4758
明	-12.4785
セ	-12.4796
多	-12.4891
内	-12.4903
ミ	-12.4951
ả	-12.4967
ダ	-12.5007
了	-12.5016
当	-12.5052
ず	-12.51
現	-12.512
全	-12.5149
،	-12.5186
気	-12.5235
ῦ	-12.5268
ḥ	-12.5293
べ	-12.5305
理	-12.5334
『	-12.5338
』	-12.5347
ک	-12.538
使	-12.5401
通	-12.5413
法	-12.5422
モ	-12.5447
関	-12.5455
目	-12.5514
̇	-12.5536
ζ	-12.5553
可	-12.557
ョ	-12.5582
女	-12.5621
力	-12.5681
画	-12.5707
ェ	-12.5772
ズ	-12.578
化	-12.5837
ð	-12.5938
数	-12.5969
意	-12.604
代	-12.604
成	-12.6063
ल	-12.6085
ो	-12.6089
金	-12.6129
ὲ	-12.6161
ほ	-12.6179
感	-12.6261
氏	-12.6307
M	-12.6371
報	-12.6375
物	-12.6417
T	-12.6459
ね	-12.6464
来	-12.6469
我	-12.6474
є	-12.6501
長	-12.66
ツ	-12.6613
取	-12.6613
公	-12.6642
家	-12.668
이	-12.6737
ṣ	-12.6742
	-12.6756
ấ	-12.6775
ὴ	-12.6857
ネ	-12.6862
機	-12.6906
記	-12.7048
■	-12.7053
ث	-12.7072
ご	-12.7167
다	-12.7182
度	-12.7187
品	-12.7282
נ	-12.7297
外	-12.7333
話	-12.741
प	-12.7486
主	-12.7491
ῆ	-12.7533
ベ	-12.7564
⋆	-12.771
小	-12.7737
世	-12.7843
民	-12.788
य	-12.7881
げ	-12.7918
知	-12.7924
立	-12.7934
利	-12.7966
ם	-12.7967
加	-12.801
ъ	-12.8021
文	-12.8027
ポ	-12.8091
ガ	-12.8163
政	-12.8174
名	-12.8213
ע	-12.8257
ộ	-12.828
道	-12.8286
所	-12.8409
ố	-12.8437
安	-12.8592
問	-12.8597
面	-12.8598
情	-12.8598
売	-12.862
特	-12.8643
ṇ	-12.8725
心	-12.8743
ケ	-12.8818
持	-12.8818
ớ	-12.8842
ἰ	-12.8842
へ	-12.8848
́	-12.8873
円	-12.8877
ハ	-12.8949
市	-12.9021
ソ	-12.9032
द	-12.9045
ذ	-12.9111
界	-12.9124
̓	-12.917
ゲ	-12.9233
期	-12.9245
ボ	-12.9252
員	-12.9313
得	-12.9314
ṭ	-12.9326
±	-12.9375
ワ	-12.9388
連	-12.9394
正	-12.94
ʿ	-12.9444
ợ	-12.9482
व	-12.9507
受	-12.9551
¥	-12.9564
変	-12.9614
題	-12.9666
解	-12.9672
書	-12.9691
果	-12.9802
米	-12.9854
相	-12.988
ゃ	-12.9919
ょ	-12.9985
ơ	-12.9998
ד	-12.9998
向	-13.0005
ể	-13.0031
続	-13.0064
ज	-13.0085
ח	-13.0138
ザ	-13.0145
和	-13.0219
ァ	-13.0226
ペ	-13.0246
考	-13.0328
無	-13.0335
ψ	-13.0349
万	-13.0369
活	-13.0397
ề	-13.0411
び	-13.0564
語	-13.0698
ị	-13.0712
ब	-13.0748
少	-13.0776
信	-13.0783
何	-13.0855
約	-13.0855
選	-13.087
ờ	-13.0884
起	-13.0906
ʾ	-13.0935
ピ	-13.0942
身	-13.0964
إ	-13.0971
集	-13.0978
原	-13.0986
食	-13.1001
ἔ	-13.1023
私	-13.1074
ů	-13.1106
כ	-13.1156
制	-13.117
調	-13.1185
戦	-13.12
先	-13.1215
都	-13.1216
ノ	-13.1238
教	-13.1238
結	-13.126
初	-13.1305
ѕ	-13.1321
東	-13.1321
々	-13.1358
強	-13.1374
真	-13.1397
★	-13.1435
水	-13.1442
む	-13.1519
点	-13.1535
好	-13.155
店	-13.1605
付	-13.1635
指	-13.1674
ظ	-13.1675
重	-13.1699
到	-13.1708
経	-13.1722
近	-13.1761
ё	-13.1777
ु	-13.1809
田	-13.1817
認	-13.1833
必	-13.1841
味	-13.1864
غ	-13.188
電	-13.1881
決	-13.192
保	-13.1969
応	-13.1993
山	-13.2002
ग	-13.2009
料	-13.2009
ホ	-13.2026
組	-13.2156
ὺ	-13.2156
議	-13.2164
想	-13.2174
示	-13.2198
着	-13.2265
過	-13.2306
天	-13.2331
格	-13.2355
ئ	-13.2389
予	-13.2397
ầ	-13.2397
第	-13.2423
ק	-13.244
ậ	-13.2448
는	-13.2456
ै	-13.249
告	-13.2507
海	-13.2533
ὑ	-13.2559
然	-13.2594
就	-13.2612
設	-13.2619
込	-13.2731
男	-13.2749
進	-13.2792
際	-13.281
像	-13.2819
状	-13.2916
	-13.2916
פ	-13.2969
ụ	-13.2996
様	-13.3005
에	-13.3077
容	-13.3104
次	-13.3122
位	-13.3122
●	-13.314
元	-13.3168
研	-13.3177
ủ	-13.3185
ź	-13.3185
確	-13.324
这	-13.3243
価	-13.3258
َ	-13.3277
究	-13.3287
口	-13.3296
始	-13.3332
式	-13.3333
ォ	-13.336
常	-13.3369
別	-13.3462
ء	-13.3491
ṃ	-13.35
【	-13.351
】	-13.3529
野	-13.3538
하	-13.3547
	-13.3585
再	-13.3719
楽	-13.3728
提	-13.3757
引	-13.3825
～	-13.3845
也	-13.3856
査	-13.3903
平	-13.3942
你	-13.3943
個	-13.4022
切	-13.4081
説	-13.4101
判	-13.416
지	-13.4161
影	-13.4161
反	-13.4171
車	-13.4221
直	-13.4231
ữ	-13.4272
去	-13.4274
務	-13.4282
ס	-13.4303
送	-13.4313
의	-13.4323
	-13.4343
放	-13.4353
件	-13.4375
限	-13.4405
広	-13.4436
을	-13.4498
投	-13.456
	-13.4581
由	-13.4602
配	-13.4624
計	-13.4676
京	-13.4741
▲	-13.4751
参	-13.4772
運	-13.4953
声	-13.4955
支	-13.4965
共	-13.4998
ギ	-13.501
仕	-13.5075
三	-13.5098
映	-13.5098
≤	-13.5109
音	-13.5164
।	-13.5175
美	-13.5219
更	-13.5242
گ	-13.5242
ぶ	-13.5264
番	-13.5287
彼	-13.5287
가	-13.5321
ἄ	-13.5332
空	-13.5377
止	-13.5377
ự	-13.5445
流	-13.5503
産	-13.5642
注	-13.5665
置	-13.5676
存	-13.5677
台	-13.5677
之	-13.5689
論	-13.5712
ユ	-13.5724
増	-13.5735
神	-13.5747
ג	-13.5759
資	-13.577
ọ	-13.577
þ	-13.5794
ὁ	-13.5794
ゴ	-13.5806
ぐ	-13.5806
演	-13.5818
♣	-13.5853
治	-13.5864
版	-13.5877
聞	-13.5901
ひ	-13.5937
量	-13.5985
型	-13.5985
権	-13.5997
害	-13.6009
院	-13.6009
ヤ	-13.6009
験	-13.6021
白	-13.6022
違	-13.6058
工	-13.607
️	-13.6082
象	-13.6094
与	-13.6155
ə	-13.618
交	-13.6192
供	-13.6204
党	-13.6217
載	-13.6229
∞	-13.6229
▀	-13.6229
種	-13.6266
西	-13.6267
質	-13.6303
警	-13.6354
北	-13.6366
个	-13.6393
里	-13.6393
終	-13.6429
ぎ	-13.6429
頭	-13.6441
態	-13.6467
▄	-13.6467
고	-13.6492
⇒	-13.6505
企	-13.6505
ヒ	-13.6518
로	-13.653
那	-13.6532
한	-13.6543
首	-13.6556
半	-13.6556
府	-13.6569
ἱ	-13.662
登	-13.6633
צ	-13.6671
基	-13.6736
ן	-13.6736
ἡ	-13.6762
色	-13.6775
製	-13.6801
収	-13.6801
追	-13.6801
被	-13.6801
非	-13.6828
技	-13.684
伝	-13.6854
検	-13.6866
死	-13.6867
二	-13.688
難	-13.688
※	-13.6893
士	-13.6919
形	-13.692
≥	-13.6933
張	-13.6933
ざ	-13.6986
校	-13.6999
州	-13.7013
住	-13.7027
比	-13.7027
们	-13.7042
村	-13.7096
ứ	-13.712
良	-13.7133
術	-13.7161
十	-13.7202
撃	-13.7228
ʻ	-13.7229
係	-13.727
ט	-13.727
統	-13.727
›	-13.7283
効	-13.7297
改	-13.7297
局	-13.7298
า	-13.7311
∈	-13.7311
光	-13.7449
ắ	-13.745
求	-13.7463
写	-13.7478
視	-13.7519
기	-13.752
¢	-13.7576
说	-13.762
च	-13.7647
ट	-13.7704
श	-13.7733
ồ	-13.7747
為	-13.7747
素	-13.7819
各	-13.7849
規	-13.7863
等	-13.7878
例	-13.7892
転	-13.792
任	-13.7936
施	-13.7966
接	-13.7966
ǎ	-13.7994
ὅ	-13.8009
사	-13.8039
商	-13.8039
川	-13.8069
ए	-13.8083
她	-13.8084
王	-13.8143
¶	-13.8173
太	-13.8188
号	-13.8218
朝	-13.8219
材	-13.8248
آ	-13.8279
ड	-13.8279
率	-13.8325
看	-13.8325
	-13.8355
ṛ	-13.837
ở	-13.837
木	-13.8401
待	-13.8401
路	-13.8462
県	-13.8509
서	-13.8524
ặ	-13.854
足	-13.8555
因	-13.8556
装	-13.8571
呼	-13.8571
消	-13.8571
展	-13.8571
悪	-13.8586
返	-13.8618
線	-13.8633
愛	-13.8633
断	-13.8665
区	-13.8681
‹	-13.8697
客	-13.8745
अ	-13.8792
니	-13.8792
達	-13.8824
ử	-13.884
为	-13.8858
어	-13.8872
打	-13.8873
島	-13.8904
段	-13.8953
備	-13.9002
疑	-13.9018
値	-13.9034
超	-13.9034
石	-13.9035
移	-13.905
आ	-13.9051
介	-13.9067
役	-13.9083
低	-13.9083
職	-13.9084
پ	-13.91
歳	-13.9116
策	-13.9118
ू	-13.9149
़	-13.9182
科	-13.9183
門	-13.9183
義	-13.9215
∼	-13.9216
를	-13.9216
아	-13.9216
은	-13.9249
系	-13.9249
風	-13.9265
勝	-13.9266
ű	-13.9266
働	-13.9266
南	-13.9283
笑	-13.93
軍	-13.93
ė	-13.9316
ῷ	-13.9316
証	-13.9316
完	-13.9367
भ	-13.9384
字	-13.9384
建	-13.9418
及	-13.9469
器	-13.9503
費	-13.9537
星	-13.9571
単	-13.9571
念	-13.9607
観	-13.9624
	-13.9624
命	-13.9641
録	-13.9641
育	-13.9693
落	-13.9729
英	-13.9763
ḍ	-13.9781
̋	-13.9791
優	-13.9799
這	-13.98
ũ	-13.9816
时	-13.9818
総	-13.9869
販	-13.9887
族	-13.9888
速	-13.9905
減	-13.9905
│	-13.9923
̄	-13.9935
読	-13.9941
∗	-13.9959
類	-13.9977
ז	-13.9977
周	-13.9977
買	-13.9994
스	-13.9995
割	-14.0012
税	-14.0013
異	-14.0049
構	-14.0049
‡	-14.0049
除	-14.0049
親	-14.0067
案	-14.0067
官	-14.0103
護	-14.0139
►	-14.014
요	-14.014
察	-14.0158
走	-14.0158
해	-14.0176
ἑ	-14.0176
識	-14.0177
述	-14.0213
試	-14.0213
古	-14.0213
営	-14.0232
而	-14.0234
葉	-14.025
団	-14.025
造	-14.0269
土	-14.0306
答	-14.0361
屋	-14.0362
含	-14.038
程	-14.038
早	-14.04
น	-14.0436
未	-14.0455
条	-14.0474
側	-14.0493
防	-14.0511
ṅ	-14.0531
残	-14.0531
編	-14.055
시	-14.0588
倍	-14.0607
領	-14.0608
響	-14.0684
ّ	-14.0723
老	-14.0763
細	-14.0781
済	-14.0781
ổ	-14.08
ừ	-14.082
望	-14.082
ぜ	-14.084
《	-14.084
》	-14.086
▪	-14.0879
担	-14.0879
ẽ	-14.0918
管	-14.0938
攻	-14.1037
대	-14.1057
深	-14.1098
ヴ	-14.1117
急	-14.1138
火	-14.1158
週	-14.1178
撮	-14.1199
境	-14.1199
ĩ	-14.1203
史	-14.1219
थ	-14.126
差	-14.1321
失	-14.1322
乗	-14.1341
리	-14.1342
ゆ	-14.1362
普	-14.1362
導	-14.1363
病	-14.1383
ῳ	-14.1445
飲	-14.1464
算	-14.1466
省	-14.1486
づ	-14.1507
ُ	-14.1508
武	-14.1508
域	-14.1529
¬	-14.155
도	-14.1571
ẩ	-14.1613
友	-14.1634
況	-14.1655
자	-14.1655
‚	-14.1677
◆	-14.1677
🙂	-14.1677
便	-14.1679
ʼ	-14.1698
末	-14.1741
夜	-14.1741
著	-14.1742
医	-14.1784
覚	-14.1848
花	-14.1871
ᾶ	-14.1914
協	-14.1914
ゼ	-14.1914
催	-14.1979
罪	-14.2001
飛	-14.2024
ِ	-14.2068
ῥ	-14.2112
曲	-14.2134
準	-14.2135
離	-14.2156
ร	-14.2157
इ	-14.2157
ख	-14.2201
	-14.2201
街	-14.2202
⁠	-14.2224
模	-14.2224
라	-14.2269
修	-14.2291
ǐ	-14.2292
億	-14.2292
額	-14.2315
両	-14.2337
수	-14.236
인	-14.236
球	-14.2382
助	-14.2384
ա	-14.2406
極	-14.2406
独	-14.2428
ふ	-14.2428
派	-14.2428
ὡ	-14.2474
専	-14.2497
労	-14.2498
香	-14.2521
ῇ	-14.2544
突	-14.2566
夫	-14.2591
ぼ	-14.2614
司	-14.2614
争	-14.2661
过	-14.2661
精	-14.2684
四	-14.2684
后	-14.2709
適	-14.2731
其	-14.2732
ً	-14.2755
裁	-14.2778
很	-14.278
있	-14.2803
購	-14.2803
說	-14.2804
如	-14.2805
═	-14.2851
整	-14.2852
属	-14.2898
ヘ	-14.2898
勢	-14.2947
₹	-14.2971
推	-14.2972
ぞ	-14.2995
誰	-14.302
挙	-14.3044
ἴ	-14.3068
紹	-14.3069
掲	-14.3069
換	-14.3092
อ	-14.3093
그	-14.3118
具	-14.3119
環	-14.3142
게	-14.3142
景	-14.3142
千	-14.3143
負	-14.3167
于	-14.3168
̶	-14.3222
染	-14.3241
∑	-14.3241
根	-14.3242
若	-14.3292
降	-14.3316
ễ	-14.3341
拡	-14.3341
端	-14.3342
監	-14.3342
城	-14.337
เ	-14.3417
정	-14.3417
ヨ	-14.3443
評	-14.3443
把	-14.3444
昨	-14.3468
没	-14.347
林	-14.3494
五	-14.3519
來	-14.3521
酒	-14.3545
給	-14.3545
□	-14.357
港	-14.3596
☆	-14.3596
对	-14.3599
園	-14.3622
守	-14.3648
○	-14.3648
般	-14.37
服	-14.3725
症	-14.3752
補	-14.3779
ň	-14.3805
激	-14.3805
歌	-14.3831
่	-14.3831
들	-14.3858
ὀ	-14.3858
←	-14.3858
室	-14.3858
故	-14.3884
休	-14.3911
谷	-14.3965
危	-14.3965
͡	-14.3969
処	-14.3991
나	-14.3991
보	-14.3991
么	-14.3992
ง	-14.4018
座	-14.4046
委	-14.4072
描	-14.4072
清	-14.4073
ม	-14.4099
復	-14.4126
典	-14.4127
申	-14.4153
援	-14.4153
顔	-14.418
ध	-14.4181
া	-14.4181
館	-14.4181
師	-14.4208
右	-14.4208
井	-14.4208
満	-14.4208
破	-14.4236
〜	-14.4236
障	-14.4262
毎	-14.4263
稿	-14.4263
उ	-14.4263
ỏ	-14.4263
衛	-14.429
傷	-14.429
絶	-14.4291
候	-14.4319
殺	-14.4319
温	-14.4319
으	-14.4374
振	-14.4402
ก	-14.4402
健	-14.4402
但	-14.4403
魔	-14.4458
紙	-14.4458
母	-14.4458
↑	-14.4486
熱	-14.4486
摘	-14.4486
♥	-14.4515
开	-14.4545
肉	-14.4571
興	-14.46
授	-14.46
ǔ	-14.4628
測	-14.4657
僕	-14.4658
只	-14.4659
図	-14.4715
還	-14.4715
일	-14.4743
詳	-14.4744
现	-14.4748
ỉ	-14.4772
習	-14.4802
藤	-14.4802
÷	-14.4831
隊	-14.486
姿	-14.4889
抜	-14.4948
又	-14.4949
複	-14.4978
≈	-14.5037
毛	-14.5037
訴	-14.5067
尔	-14.507
博	-14.5127
春	-14.5128
ἦ	-14.5157
密	-14.5157
採	-14.5187
賞	-14.5187
福	-14.5187
銀	-14.5188
標	-14.5188
沒	-14.5188
談	-14.5218
്	-14.5248
韓	-14.5248
些	-14.5279
株	-14.5279
제	-14.534
্	-14.534
寄	-14.537
✔	-14.5371
트	-14.5371
午	-14.5371
已	-14.5373
退	-14.5401
歩	-14.5401
倒	-14.5432
将	-14.5434
至	-14.5434
快	-14.5463
ť	-14.5463
전	-14.5463
療	-14.5464
发	-14.5465
松	-14.5494
چ	-14.5495
黒	-14.5526
江	-14.5558
青	-14.5589
☛	-14.562
📱	-14.562
帯	-14.5621
己	-14.5624
許	-14.5651
波	-14.5651
N	-14.5652
র	-14.5652
越	-14.5653
左	-14.5683
批	-14.5684
板	-14.5714
布	-14.5716
探	-14.5747
镇	-14.5747
印	-14.5748
益	-14.5748
會	-14.578
暴	-14.5811
階	-14.5811
상	-14.5812
间	-14.5844
善	-14.5844
片	-14.5876
犯	-14.5876
皆	-14.5909
角	-14.5909
ỗ	-14.5909
源	-14.5909
ἶ	-14.5941
⋅	-14.5941
囲	-14.5974
ŏ	-14.5982
苦	-14.6006
夏	-14.6007
ْ	-14.6073
易	-14.6073
婚	-14.6073
才	-14.6074
弱	-14.6105
้	-14.6106
似	-14.6106
歴	-14.6172
百	-14.6206
捕	-14.6239
背	-14.6274
还	-14.6275
ŭ	-14.6307
부	-14.6307
否	-14.6307
希	-14.6307
渡	-14.634
फ	-14.6341
样	-14.6344
ั	-14.6409
幅	-14.6409
ई	-14.6409
乡	-14.6409
願	-14.6443
兵	-14.6443
禁	-14.6477
宅	-14.6478
従	-14.6512
▓	-14.6512
居	-14.6513
¦	-14.6546
薬	-14.6546
康	-14.6547
功	-14.6547
積	-14.6547
恐	-14.6581
陽	-14.6581
學	-14.6581
払	-14.6616
遊	-14.6616
督	-14.6616
经	-14.6617
舞	-14.6651
ẹ	-14.6651
父	-14.6721
國	-14.6723
ぱ	-14.6756
비	-14.6757
亡	-14.6757
什	-14.6791
此	-14.6795
融	-14.6826
険	-14.6827
ष	-14.6863
冷	-14.6864
短	-14.6934
帰	-14.6935
聴	-14.6935
ῃ	-14.6935
並	-14.6935
息	-14.6935
≠	-14.6971
級	-14.6971
馬	-14.6971
만	-14.7007
替	-14.7008
横	-14.7044
惑	-14.7044
避	-14.7045
抗	-14.708
簡	-14.7081
押	-14.7117
ך	-14.7117
ằ	-14.7117
▼	-14.7117
枚	-14.7154
課	-14.7191
├	-14.7191
주	-14.7191
頼	-14.7227
원	-14.7228
鮮	-14.7228
∫	-14.7228
照	-14.7228
斯	-14.7231
索	-14.7264
ὼ	-14.7265
財	-14.7266
刻	-14.7266
ὔ	-14.7302
敵	-14.7302
宇	-14.7339
盛	-14.7339
阪	-14.734
依	-14.734
ว	-14.7377
票	-14.7377
从	-14.7378
們	-14.7415
宮	-14.7415
略	-14.7415
👑	-14.7491
列	-14.7491
称	-14.7492
織	-14.7529
或	-14.7529
軽	-14.7529
郎	-14.7568
眼	-14.7569
圧	-14.7605
动	-14.7607
话	-14.7608
ә	-14.7644
房	-14.7648
頃	-14.7682
患	-14.7683
戻	-14.7683
喜	-14.7684
血	-14.7722
令	-14.7722
旅	-14.7722
幸	-14.7761
↓	-14.7761
富	-14.7761
ϊ	-14.78
筆	-14.78
緊	-14.7802
齢	-14.7834
携	-14.7841
门	-14.7842
搭	-14.7879
여	-14.7879
└	-14.7879
討	-14.788
河	-14.7881
射	-14.7919
創	-14.7919
📣	-14.7959
析	-14.7959
志	-14.7959
承	-14.796
吉	-14.796
과	-14.7999
堂	-14.8
遺	-14.8039
奇	-14.8039
ƒ	-14.8039
드	-14.8039
欲	-14.8119
头	-14.8119
致	-14.812
底	-14.812
ย	-14.812
ี	-14.812
ᄏ	-14.812
充	-14.816
〉	-14.816
洋	-14.816
憲	-14.8201
ẻ	-14.8201
장	-14.8201
赤	-14.8201
秋	-14.8202
謝	-14.8242
請	-14.8242
했	-14.8242
站	-14.8243
衣	-14.828
森	-14.8283
仮	-14.8283
ण	-14.8283
闘	-14.8283
遠	-14.8284
̊	-14.8307
律	-14.8324
弁	-14.8324
町	-14.8325
操	-14.8325
久	-14.8326
池	-14.8366
✓	-14.8366
驚	-14.8408
雑	-14.8408
ն	-14.8408
韩	-14.8409
ἕ	-14.845
児	-14.845
散	-14.8491
席	-14.8491
😉	-14.8492
麻	-14.8492
触	-14.8534
眠	-14.8577
迎	-14.8577
暗	-14.8577
ÿ	-14.8619
伊	-14.862
우	-14.8662
⁨	-14.8662
소	-14.8662
்	-14.8704
면	-14.8704
夢	-14.8705
草	-14.8705
오	-14.8748
昇	-14.8748
困	-14.8749
貨	-14.8791
성	-14.8791
脳	-14.8791
陸	-14.8791
徴	-14.8791
秘	-14.8791
种	-14.8792
欧	-14.8792
麼	-14.8793
章	-14.8834
刊	-14.8878
ẫ	-14.8878
ล	-14.8878
層	-14.8922
逆	-14.8966
◦	-14.8966
掛	-14.901
混	-14.901
択	-14.901
經	-14.9011
痛	-14.9055
미	-14.9055
厳	-14.9055
岡	-14.9055
宿	-14.9055
ゾ	-14.9099
√	-14.9099
동	-14.9099
拠	-14.9099
◊	-14.9144
국	-14.9144
爆	-14.9189
緒	-14.9189
繰	-14.9189
关	-14.9189
停	-14.919
駅	-14.919
ὖ	-14.9234
마	-14.9234
宣	-14.9235
佐	-14.9235
裡	-14.9237
継	-14.9279
克	-14.9279
경	-14.928
誌	-14.928
敗	-14.928
群	-14.9282
訪	-14.9325
八	-14.9325
ἅ	-14.9325
包	-14.9326
脱	-14.9326
届	-14.9371
↵	-14.9371
	-14.9371
革	-14.9372
節	-14.9372
哈	-14.9417
玉	-14.9417
📺	-14.9418
余	-14.9418
船	-14.9464
九	-14.9464
ิ	-14.9464
적	-14.9464
场	-14.9464
乱	-14.9465
責	-14.951
弾	-14.951
露	-14.951
구	-14.951
것	-14.951
途	-14.9511
概	-14.9511
劇	-14.9511
崎	-14.9556
油	-14.9556
습	-14.9557
芸	-14.9557
順	-14.9603
	-14.9604
ে	-14.9604
橋	-14.9604
漫	-14.9606
削	-14.9651
巨	-14.9651
均	-14.9652
皮	-14.9652
逃	-14.9652
留	-14.9698
德	-14.9699
宙	-14.9745
鉄	-14.9746
进	-14.9747
모	-14.9842
延	-14.9842
辺	-14.9842
ด	-14.989
ĝ	-14.989
酸	-14.9891
ـ	-14.9939
ؤ	-14.9988
거	-14.9988
신	-14.9988
對	-14.9988
长	-14.9989
抱	-14.9989
迷	-15.0037
伸	-15.0037
壊	-15.0037
͜	-15.0054
訳	-15.0135
회	-15.0135
迫	-15.0137
秒	-15.0185
講	-15.0185
覧	-15.0185
君	-15.0185
ὕ	-15.0185
电	-15.019
ὄ	-15.0235
ᾳ	-15.0235
舗	-15.0235
扱	-15.0236
♪	-15.0285
⌘	-15.0285
募	-15.0285
ท	-15.0285
ἁ	-15.0285
	-15.0285
❤	-15.0286
巴	-15.0294
刑	-15.0336
ր	-15.0336
ა	-15.0336
恩	-15.0337
威	-15.0386
徒	-15.0386
ʖ	-15.0387
∂	-15.0387
李	-15.0387
絡	-15.0387
即	-15.0388
築	-15.0438
巻	-15.0438
ส	-15.0438
戸	-15.0438
災	-15.0438
两	-15.044
永	-15.0488
皇	-15.0489
排	-15.0489
ḩ	-15.0489
छ	-15.0489
공	-15.0489
데	-15.0489
되	-15.0489
ħ	-15.0541
寺	-15.0542
ぬ	-15.0592
용	-15.0592
내	-15.0592
浮	-15.0593
睡	-15.0597
ո	-15.0645
競	-15.0645
机	-15.0646
̃	-15.0694
獲	-15.0697
ў	-15.0697
需	-15.0697
恋	-15.0698
逮	-15.0749
ĉ	-15.0749
안	-15.0749
할	-15.0749
厚	-15.075
实	-15.075
吧	-15.0751
边	-15.0751
菜	-15.0802
華	-15.0802
💲	-15.0803
隠	-15.0803
无	-15.0807
ห	-15.0856
輸	-15.0856
締	-15.0909
項	-15.0909
ẓ	-15.0909
연	-15.0909
ন	-15.0909
維	-15.0909
純	-15.0909
航	-15.091
ľ	-15.0963
它	-15.0964
裏	-15.1016
雄	-15.1017
怒	-15.1017
尾	-15.1017
仲	-15.107
筋	-15.1071
焼	-15.1071
副	-15.1073
勤	-15.1125
衆	-15.1126
▶	-15.1126
ּ	-15.1126
━	-15.113
御	-15.118
怪	-15.1182
震	-15.1236
骨	-15.1236
既	-15.1237
央	-15.1237
见	-15.1291
誤	-15.1291
審	-15.1292
輪	-15.1292
欠	-15.1348
懸	-15.1348
犬	-15.1348
紀	-15.1404
則	-15.1404
阿	-15.1405
洗	-15.1405
折	-15.1459
생	-15.146
農	-15.1461
當	-15.1461
静	-15.1461
庭	-15.1516
娘	-15.1571
ต	-15.1574
ἵ	-15.1574
음	-15.1574
화	-15.1574
幹	-15.1575
救	-15.1631
ņ	-15.1632
ָ	-15.1632
	-15.1632
丸	-15.1632
捜	-15.1632
터	-15.1689
간	-15.1689
雇	-15.1689
固	-15.169
艦	-15.169
ἷ	-15.1748
衝	-15.1805
宗	-15.1806
ġ	-15.1806
东	-15.1865
무	-15.1865
와	-15.1865
沢	-15.1866
液	-15.1924
계	-15.1924
매	-15.1924
세	-15.1924
岩	-15.1924
问	-15.1925
占	-15.1983
ե	-15.1984
豊	-15.1984
秀	-15.1984
發	-15.1984
脚	-15.2044
̣	-15.206
ぽ	-15.2103
ি	-15.2104
ক	-15.2104
ი	-15.2104
让	-15.2107
與	-15.2164
😂	-15.2164
∀	-15.2164
湾	-15.2164
互	-15.2165
遅	-15.2165
荷	-15.2165
幕	-15.2165
微	-15.2165
魅	-15.2224
較	-15.2225
寒	-15.2225
束	-15.2287
聖	-15.2287
踏	-15.2287
牛	-15.2348
兩	-15.2348
진	-15.2348
吸	-15.2348
傾	-15.241
ヌ	-15.241
範	-15.2411
啊	-15.2411
做	-15.2411
却	-15.2412
損	-15.2472
ะ	-15.2473
‒	-15.2473
握	-15.2473
核	-15.2534
壁	-15.2536
甘	-15.2536
嫌	-15.2536
絵	-15.2536
耳	-15.2536
悲	-15.2536
抑	-15.2536
유	-15.2599
縮	-15.2599
暮	-15.2599
點	-15.26
刺	-15.2663
炎	-15.2663
躍	-15.2663
招	-15.2663
曜	-15.2663
车	-15.2665
선	-15.2727
조	-15.2727
閉	-15.2727
邦	-15.2727
駆	-15.2728
養	-15.2728
ἠ	-15.2791
위	-15.2791
며	-15.2791
尽	-15.2793
ค	-15.2856
ौ	-15.2856
∕	-15.2856
래	-15.2856
ക	-15.2856
券	-15.2857
練	-15.2857
跡	-15.2921
􏰮	-15.2922
ി	-15.2922
侵	-15.2922
拉	-15.2922
忘	-15.2923
别	-15.2987
署	-15.2987
방	-15.2987
중	-15.2987
步	-15.2988
庫	-15.2988
季	-15.2988
洞	-15.2989
植	-15.2989
茶	-15.3054
沖	-15.3054
顧	-15.3054
妻	-15.3054
龍	-15.3054
叫	-15.3057
ゥ	-15.312
庁	-15.312
ի	-15.312
挑	-15.3121
針	-15.3121
債	-15.3121
给	-15.3123
干	-15.3185
納	-15.3187
ǒ	-15.3187
俺	-15.3187
憶	-15.3188
奈	-15.3255
祭	-15.3255
伴	-15.3323
貴	-15.3323
ব	-15.3323
♘	-15.3323
誘	-15.339
執	-15.3391
พ	-15.3391
작	-15.3392
旧	-15.3392
努	-15.3392
寝	-15.3393
怎	-15.3396
免	-15.3459
ত	-15.3461
六	-15.3461
气	-15.3462
儿	-15.3462
应	-15.3463
奥	-15.3529
〈	-15.353
縄	-15.353
บ	-15.353
∧	-15.353
♕	-15.353
頂	-15.36
ہ	-15.36
🔶	-15.36
达	-15.3601
跟	-15.3604
蔵	-15.367
湯	-15.367
ˆ	-15.367
ј	-15.367
ỳ	-15.367
⌂	-15.367
旬	-15.3671
盤	-15.3671
從	-15.3672
雨	-15.3741
예	-15.3741
婦	-15.3742
猫	-15.3811
契	-15.3812
⭐	-15.3813
胸	-15.3813
语	-15.3814
乐	-15.3815
控	-15.3885
실	-15.3885
∆	-15.3885
관	-15.3885
었	-15.3885
입	-15.3885
재	-15.3885
雪	-15.3886
马	-15.3886
每	-15.3956
慣	-15.3956
七	-15.3957
廃	-15.3957
透	-15.3957
ď	-15.3957
년	-15.3957
ְ	-15.3957
樹	-15.3957
宝	-15.3958
床	-15.3958
黑	-15.403
ỹ	-15.403
ἤ	-15.403
러	-15.403
裕	-15.4104
氣	-15.4104
‰	-15.4104
개	-15.4104
치	-15.4104
ാ	-15.4104
盗	-15.4104
乎	-15.4104
詰	-15.4105
袋	-15.4105
几	-15.4106
并	-15.4108
분	-15.4178
黄	-15.4178
礼	-15.4252
ὥ	-15.4252
籍	-15.4252
乳	-15.4252
鳥	-15.4253
处	-15.4254
往	-15.4254
য	-15.4328
卒	-15.4328
滅	-15.4328
粉	-15.4328
网	-15.4403
怖	-15.4403
؟	-15.4403
문	-15.4403
ւ	-15.4403
誕	-15.4403
薄	-15.4404
狙	-15.4479
말	-15.448
該	-15.448
樣	-15.4481
箱	-15.4556
距	-15.4556
घ	-15.4557
张	-15.4557
발	-15.4557
゚	-15.4557
恵	-15.4633
야	-15.4634
영	-15.4634
孩	-15.4635
彩	-15.4635
坐	-15.4636
虫	-15.4712
於	-15.4712
陰	-15.4712
豪	-15.4712
ὧ	-15.4712
당	-15.4791
➊	-15.4791
프	-15.4791
實	-15.4791
紅	-15.4791
關	-15.4792
ゅ	-15.487
昭	-15.487
ป	-15.487
ไ	-15.487
จ	-15.487
♀	-15.487
등	-15.487
바	-15.487
🇺	-15.487
魚	-15.487
许	-15.4871
双	-15.495
飯	-15.495
童	-15.495
ठ	-15.495
더	-15.495
冒	-15.5031
聲	-15.5031
ര	-15.5031
閣	-15.5031
泉	-15.5032
晴	-15.5112
☐	-15.5112
저	-15.5112
賃	-15.5112
昔	-15.5112
樂	-15.5193
脅	-15.5194
♠	-15.5194
단	-15.5194
명	-15.5194
栄	-15.5194
丁	-15.5194
慈	-15.5195
騒	-15.5195
胞	-15.5195
找	-15.5199
兆	-15.5276
黃	-15.5277
▷	-15.5277
같	-15.5277
臨	-15.5277
趣	-15.5277
园	-15.5278
风	-15.5278
罗	-15.5278
冬	-15.5278
听	-15.5282
觉	-15.5283
封	-15.5359
慮	-15.536
剤	-15.536
燃	-15.536
≡	-15.536
각	-15.536
🇸	-15.536
་	-15.536
爱	-15.5362
华	-15.5362
义	-15.5441
措	-15.5444
瞬	-15.5444
∘	-15.5444
✳	-15.5444
➋	-15.5444
將	-15.5445
馆	-15.5445
吃	-15.5447
辛	-15.5527
雲	-15.5528
辞	-15.5528
呢	-15.5529
緩	-15.5529
坂	-15.5529
ף	-15.5529
ὃ	-15.5529
금	-15.5529
🔥	-15.5529
渉	-15.5529
业	-15.553
产	-15.553
妙	-15.5614
ų	-15.5614
된	-15.5614
반	-15.5614
巡	-15.5615
塔	-15.5615
准	-15.5615
查	-15.5616
柄	-15.57
羽	-15.57
ے	-15.5701
포	-15.5701
호	-15.5701
ത	-15.5701
C	-15.5701
祖	-15.5701
糖	-15.5701
沙	-15.5702
̧	-15.5748
汚	-15.5787
״	-15.5788
까	-15.5788
观	-15.5789
献	-15.5874
砂	-15.5875
려	-15.5875
타	-15.5875
✅	-15.5875
운	-15.5875
ম	-15.5875
합	-15.5875
網	-15.5875
償	-15.5876
祝	-15.5876
̈	-15.5877
肌	-15.5963
徹	-15.5964
績	-15.5964
拍	-15.5964
陣	-15.5964
內	-15.5964
♂	-15.5964
ぁ	-15.5964
稼	-15.5964
銃	-15.5964
幾	-15.5965
耐	-15.5965
记	-15.605
診	-15.6053
毒	-15.6053
鬼	-15.6053
襲	-15.6053
倉	-15.6053
甚	-15.6055
腕	-15.6143
ژ	-15.6143
প	-15.6143
讓	-15.6143
员	-15.6143
慢	-15.6144
歯	-15.6233
謀	-15.6234
妳	-15.6234
线	-15.6234
স	-15.6234
盟	-15.6234
珍	-15.6235
曾	-15.6236
臣	-15.6325
諸	-15.6326
且	-15.6326
津	-15.6326
賛	-15.6326
题	-15.6327
體	-15.6327
̀	-15.6402
脆	-15.6417
臭	-15.6418
丈	-15.6418
謎	-15.6418
แ	-15.6418
♗	-15.6418
◇	-15.6418
杯	-15.6419
岸	-15.6419
传	-15.6419
帝	-15.642
飼	-15.642
单	-15.6421
剛	-15.6512
塩	-15.6512
随	-15.6512
汗	-15.6512
智	-15.6512
隔	-15.6513
徐	-15.6513
̤	-15.6528
拿	-15.66
熟	-15.6604
식	-15.6606
ἥ	-15.6606
디	-15.6606
ぷ	-15.6607
筑	-15.6607
句	-15.67
晚	-15.6701
ข	-15.6701
➌	-15.6701
레	-15.6701
ִ	-15.6701
弟	-15.6702
偏	-15.6702
寿	-15.6795
胡	-15.6796
鳴	-15.6797
借	-15.6797
带	-15.6797
¤	-15.6798
ẵ	-15.6798
务	-15.6798
唱	-15.6798
游	-15.6799
ὗ	-15.6895
민	-15.6895
속	-15.6895
현	-15.6895
殊	-15.6895
悩	-15.6895
腹	-15.6895
賀	-15.6895
报	-15.6896
术	-15.6897
结	-15.6897
偽	-15.6992
ใ	-15.6993
물	-15.6993
통	-15.6993
浜	-15.6993
雷	-15.6993
收	-15.6993
奪	-15.6993
括	-15.6993
輩	-15.6993
醒	-15.6994
汉	-15.6995
书	-15.7091
抽	-15.7092
차	-15.7092
히	-15.7092
▒	-15.7092
难	-15.7096
濃	-15.7191
哲	-15.7191
亚	-15.7192
ἃ	-15.7192
∪	-15.7192
임	-15.7192
札	-15.7192
勧	-15.7291
ॉ	-15.7293
르	-15.7293
많	-15.7293
없	-15.7293
ŝ	-15.7293
ỡ	-15.7293
姊	-15.7293
虐	-15.7293
須	-15.7293
遇	-15.7294
设	-15.7295
抵	-15.7393
藏	-15.7394
慎	-15.7395
ു	-15.7395
撤	-15.7395
浴	-15.7395
佛	-15.7395
炭	-15.7395
豆	-15.7497
敏	-15.7498
ุ	-15.7498
않	-15.7498
ന	-15.7498
യ	-15.7498
್	-15.7498
掉	-15.7498
升	-15.7498
頑	-15.7498
悟	-15.7499
湖	-15.7499
论	-15.7502
奴	-15.7503
促	-15.7601
繁	-15.7601
添	-15.7601
拒	-15.7602
็	-15.7602
க	-15.7602
ļ	-15.7602
결	-15.7602
크	-15.7602
ढ	-15.7602
翻	-15.7603
餐	-15.7603
幼	-15.7707
鈴	-15.7707
郡	-15.7707
후	-15.7707
♖	-15.7707
행	-15.7707
费	-15.7708
矢	-15.7708
械	-15.7708
柔	-15.7708
邊	-15.771
剣	-15.7812
红	-15.7813
烈	-15.7813
▽	-15.7814
던	-15.7814
ַ	-15.7814
逸	-15.7814
唐	-15.7814
洲	-15.7814
崩	-15.7815
旗	-15.7815
嬉	-15.7815
唯	-15.7918
揮	-15.792
楼	-15.792
輝	-15.7921
层	-15.7921
戒	-15.7921
瀬	-15.7921
झ	-15.7921
ḷ	-15.7921
ṁ	-15.7921
班	-15.7921
铁	-15.7922
勇	-15.7922
穿	-15.8027
选	-15.803
▹	-15.803
雅	-15.803
變	-15.8031
勉	-15.8139
掘	-15.814
塗	-15.814
陳	-15.814
甲	-15.814
吗	-15.814
ἣ	-15.814
품	-15.814
狂	-15.8141
卡	-15.8143
͂	-15.8177
澤	-15.825
ँ	-15.8251
յ	-15.8251
浦	-15.8251
某	-15.8253
认	-15.8254
誠	-15.8363
ল	-15.8363
본	-15.8363
☔	-15.8363
视	-15.8363
柱	-15.8364
潮	-15.8364
埋	-15.8365
师	-15.8366
艺	-15.8367
吹	-15.8476
麺	-15.8477
熊	-15.8477
랑	-15.8477
ĕ	-15.8477
때	-15.8477
氷	-15.8477
组	-15.8477
嗎	-15.8477
潜	-15.8478
徳	-15.859
霊	-15.8592
남	-15.8592
른	-15.8592
մ	-15.8592
髪	-15.8592
滞	-15.8592
玩	-15.8593
统	-15.8593
卵	-15.8708
ி	-15.8708
R	-15.8708
দ	-15.8708
়	-15.8708
버	-15.8708
티	-15.8708
圏	-15.8708
翌	-15.8708
荒	-15.8708
远	-15.8708
渋	-15.8709
漢	-15.8709
飞	-15.871
仁	-15.871
节	-15.8711
穴	-15.8824
兼	-15.8825
隣	-15.8825
敬	-15.8825
두	-15.8826
카	-15.8826
ں	-15.8826
ս	-15.8826
░	-15.8826
连	-15.8829
ヶ	-15.8942
儀	-15.8944
倫	-15.8944
昼	-15.8944
詞	-15.8945
달	-15.8945
알	-15.8945
⇓	-15.8945
战	-15.8945
💗	-15.8945
仏	-15.8945
邪	-15.8946
朗	-15.9065
遭	-15.9065
乾	-15.9065
俗	-15.9065
芝	-15.9065
ृ	-15.9065
월	-15.9065
준	-15.9065
梅	-15.9065
추	-15.9065
표	-15.9065
凡	-15.9065
罰	-15.9065
弘	-15.9066
孫	-15.9066
遣	-15.9066
沿	-15.9067
尚	-15.9067
约	-15.9067
另	-15.9067
则	-15.9068
羊	-15.9068
转	-15.9186
ǫ	-15.9187
獣	-15.9187
த	-15.9187
∇	-15.9187
⚡	-15.9187
梁	-15.9187
배	-15.9187
奮	-15.9188
幻	-15.9188
⊂	-15.9189
据	-15.931
塚	-15.931
ɛ	-15.9311
∎	-15.9311
➢	-15.9311
강	-15.9311
점	-15.9311
ე	-15.9311
披	-15.9311
菌	-15.9311
粋	-15.9311
捨	-15.9311
滑	-15.9311
竹	-15.9311
凍	-15.9311
斗	-15.9311
泰	-15.9311
猛	-15.9312
忍	-15.9312
复	-15.9314
♡	-15.9316
培	-15.9435
ு	-15.9436
紫	-15.9436
➤	-15.9436
김	-15.9436
파	-15.9436
좋	-15.9436
肢	-15.9436
緯	-15.9436
貧	-15.9437
离	-15.9437
應	-15.9437
窓	-15.9437
广	-15.9562
尊	-15.9562
联	-15.9562
노	-15.9562
կ	-15.9562
ല	-15.9562
감	-15.9562
열	-15.9562
പ	-15.9562
覆	-15.9562
吐	-15.9563
哪	-15.9689
飾	-15.969
肩	-15.969
ช	-15.969
僚	-15.969
▐	-15.9691
竜	-15.9691
偉	-15.9691
鎖	-15.9691
假	-15.9691
浪	-15.9691
桥	-15.9694
鑑	-15.9818
磁	-15.982
출	-15.982
울	-15.982
ɪ	-15.982
播	-15.982
羅	-15.9821
ぇ	-15.9821
闇	-15.9821
兰	-15.9821
掃	-15.9821
觀	-15.9821
变	-15.9821
总	-15.9821
̆	-15.9857
亮	-15.9951
ŋ	-15.9952
ம	-15.9952
체	-15.9952
ṉ	-15.9952
ὦ	-15.9952
약	-15.9952
양	-15.9952
학	-15.9952
활	-15.9952
誉	-15.9953
處	-15.9954
跳	-15.9954
满	-15.9954
运	-16.0083
釈	-16.0084
條	-16.0084
兄	-16.0085
桜	-16.0085
证	-16.0085
ા	-16.0085
➍	-16.0085
력	-16.0085
︎	-16.0085
ರ	-16.0085
匹	-16.0085
訓	-16.0085
揚	-16.0085
┘	-16.0085
泣	-16.0086
您	-16.0086
价	-16.0086
附	-16.0086
脂	-16.0086
履	-16.022
역	-16.022
ओ	-16.022
ู	-16.022
∅	-16.022
▌	-16.022
처	-16.022
초	-16.022
최	-16.022
媒	-16.022
誇	-16.0221
傳	-16.0221
摩	-16.0222
该	-16.0225
ぴ	-16.0356
简	-16.0357
ํ	-16.0357
↔	-16.0357
또	-16.0357
번	-16.0357
심	-16.0357
업	-16.0357
천	-16.0357
😀	-16.0357
∩	-16.0359
丽	-16.0359
遂	-16.036
佳	-16.0496
ื	-16.0496
너	-16.0496
ץ	-16.0496
ী	-16.0496
寧	-16.0496
溶	-16.0497
慶	-16.0497
确	-16.0497
麗	-16.0497
办	-16.0499
殿	-16.05
欺	-16.0636
酬	-16.0636
调	-16.0637
忙	-16.0637
夕	-16.0637
貼	-16.0637
訟	-16.0637
์	-16.0637
ா	-16.0637
♔	-16.0637
난	-16.0637
법	-16.0637
피	-16.0637
ლ	-16.0637
雰	-16.0637
伏	-16.0638
序	-16.0638
亲	-16.0638
标	-16.0638
识	-16.0638
磨	-16.064
刀	-16.0779
奨	-16.078
资	-16.078
偶	-16.078
霞	-16.078
ᅲ	-16.078
ം	-16.078
坊	-16.078
规	-16.0781
刷	-16.0781
导	-16.0782
仙	-16.0782
阻	-16.0785
纳	-16.0791
硬	-16.0924
翼	-16.0925
ʹ	-16.0925
받	-16.0925
산	-16.0925
송	-16.0925
았	-16.0925
║	-16.0925
呂	-16.0925
տ	-16.0925
奏	-16.0925
預	-16.0925
駄	-16.0925
乃	-16.0925
託	-16.0926
默	-16.0926
级	-16.0926
暖	-16.0928
错	-16.0928
卻	-16.0929
喚	-16.107
ὠ	-16.1072
ֹ	-16.1072
ப	-16.1072
네	-16.1072
份	-16.1072
膨	-16.1072
駐	-16.1072
聽	-16.1073
鏡	-16.1073
疲	-16.1073
覺	-16.1074
̥	-16.1143
妹	-16.122
繋	-16.122
賢	-16.1221
鐘	-16.1221
➎	-16.1221
교	-16.1221
건	-16.1221
직	-16.1221
რ	-16.1221
图	-16.1221
慰	-16.1221
棄	-16.1221
隆	-16.1221
艾	-16.1222
鹿	-16.1223
晶	-16.1223
显	-16.1223
际	-16.1224
计	-16.1225
劉	-16.1227
灯	-16.1373
漏	-16.1373
貫	-16.1373
ர	-16.1373
∃	-16.1373
⊆	-16.1373
晋	-16.1373
든	-16.1373
집	-16.1373
환	-16.1373
岳	-16.1373
貿	-16.1373
按	-16.1373
殖	-16.1373
恥	-16.1374
莉	-16.1374
泊	-16.1374
跑	-16.1375
弗	-16.1375
桃	-16.1376
ু	-16.1527
권	-16.1527
증	-16.1527
청	-16.1527
편	-16.1527
ผ	-16.1527
ು	-16.1527
滿	-16.1528
兴	-16.153
祥	-16.1531
ʃ	-16.1683
ˈ	-16.1683
∨	-16.1683
ἢ	-16.1835
ἂ	-16.1836
̅	-16.1837
औ	-16.1837
