<pad>	0
<unk>	0
</s>	0
s	-3.23206
,	-3.36744
▁the	-3.41431
.	-3.44588
▁	-3.77477
▁a	-4.17421
▁of	-4.17902
▁to	-4.20089
▁and	-4.2055
▁in	-4.39095
1	-4.80565
'	-4.82732
ed	-4.93287
t	-4.97182
0	-4.9914
-	-5.09329
d	-5.11469
ing	-5.12654
▁that	-5.13643
2	-5.21845
▁for	-5.27313
▁it	-5.31867
▁was	-5.32192
▁is	-5.33097
▁i	-5.35452
▁he	-5.42148
▁"	-5.45421
▁on	-5.46361
▁with	-5.53568
9	-5.58777
e	-5.6024
▁as	-5.64828
▁(	-5.68843
i	-5.69475
▁be	-5.72577
a	-5.77603
▁you	-5.78908
ly	-5.80585
er	-5.82549
▁his	-5.83442
▁at	-5.85999
y	-5.86989
:	-5.87827
3	-5.88178
5	-5.93512
▁by	-5.96846
’	-5.9862
4	-5.9989
▁from	-6.00042
n	-6.02209
)	-6.03012
8	-6.03484
▁this	-6.03508
m	-6.06106
r	-6.0862
▁an	-6.09758
▁not	-6.1123
▁but	-6.11256
6	-6.12587
▁are	-6.15633
re	-6.16252
7	-6.16615
▁had	-6.17172
▁de	-6.18299
▁have	-6.18717
▁her	-6.19414
▁or	-6.21818
▁she	-6.22123
▁we	-6.25555
al	-6.28902
▁they	-6.29894
o	-6.30885
c	-6.31982
_	-6.36526
es	-6.41169
in	-6.41503
▁so	-6.45888
▁all	-6.46074
."	-6.47455
▁one	-6.4784
▁were	-6.48751
▁_	-6.5129
▁me	-6.55383
▁said	-6.58081
g	-6.58725
▁can	-6.58787
▁their	-6.58843
l	-6.5925
▁re	-6.60759
▁has	-6.60771
▁no	-6.61403
▁out	-6.61979
b	-6.65466
▁up	-6.66747
p	-6.66863
▁my	-6.68195
▁who	-6.69648
▁do	-6.69741
;	-6.69764
▁more	-6.71639
it	-6.72312
▁which	-6.72871
en	-6.73369
▁will	-6.73503
▁when	-6.73815
▁there	-6.75238
▁if	-6.76524
▁would	-6.76689
▁about	-6.77542
▁“	-6.78824
"	-6.80634
th	-6.8089
or	-6.81271
▁been	-6.81855
k	-6.83142
▁what	-6.83209
?	-6.86255
▁him	-6.86458
ve	-6.88972
▁la	-6.90994
f	-6.92292
▁your	-6.92757
le	-6.92815
▁like	-6.9368
an	-6.94313
▁into	-6.95202
▁new	-6.95434
▁time	-6.9685
▁over	-6.9688
h	-6.99042
ation	-6.99566
,"	-7.0074
on	-7.03155
▁also	-7.05849
ll	-7.05849
u	-7.05896
/	-7.06159
w	-7.06645
▁other	-7.07105
▁them	-7.08128
—	-7.0915
▁un	-7.09545
de	-7.10007
ar	-7.12619
▁after	-7.13205
▁some	-7.13326
▁first	-7.14692
▁just	-7.15993
the	-7.1738
▁'	-7.17606
▁–	-7.17856
to	-7.18652
▁than	-7.18658
▁e	-7.19688
▁could	-7.19989
te	-7.21287
na	-7.2201
▁two	-7.22496
la	-7.22972
▁people	-7.23199
ers	-7.23316
▁back	-7.23472
ch	-7.26115
▁con	-7.27428
▁only	-7.27683
is	-7.27931
ra	-7.28584
li	-7.2862
ity	-7.29141
us	-7.29189
ro	-7.29192
▁then	-7.30953
il	-7.32452
▁our	-7.32839
ion	-7.33328
▁c	-7.33361
ma	-7.33749
▁its	-7.34512
▁now	-7.35147
ne	-7.35298
▁man	-7.3596
z	-7.37414
–	-7.37518
▁how	-7.37623
▁en	-7.38669
▁us	-7.40891
▁get	-7.41561
▁se	-7.42652
▁go	-7.43851
▁even	-7.45007
▁know	-7.45158
▁d	-7.45632
ry	-7.4581
ck	-7.4666
▁see	-7.47003
▁p	-7.4745
▁most	-7.48107
▁where	-7.48515
able	-7.48573
),	-7.4918
ic	-7.49723
man	-7.50169
no	-7.50188
co	-7.50664
!	-7.50954
▁way	-7.51095
el	-7.51246
▁le	-7.51258
ta	-7.51336
▁these	-7.5147
▁any	-7.51996
▁|	-7.52322
▁don	-7.52803
?"	-7.53094
▁down	-7.53926
▁co	-7.53933
▁l	-7.54072
x	-7.54872
se	-7.55268
v	-7.55751
▁di	-7.55835
as	-7.56168
).	-7.56584
▁may	-7.56744
▁before	-7.57041
me	-7.57113
ur	-7.57493
▁o	-7.57793
▁make	-7.59781
▁through	-7.60123
ent	-7.60303
▁because	-7.60569
▁**	-7.6084
▁well	-7.61566
ment	-7.62588
ia	-7.62805
be	-7.63126
**	-7.63411
ke	-7.63505
lo	-7.64618
▁did	-7.65546
▁work	-7.65682
”	-7.65784
▁many	-7.66003
▁g	-7.66037
▁world	-7.66597
ge	-7.66913
▁made	-7.67054
at	-7.67058
▁years	-7.6804
▁k	-7.68341
et	-7.68528
ist	-7.69505
▁while	-7.69568
▁under	-7.70027
▁m	-7.70194
▁b	-7.7039
am	-7.71549
we	-7.71603
▁off	-7.71607
▁car	-7.72117
▁f	-7.72428
ce	-7.72453
j	-7.72579
▁much	-7.73074
do	-7.73383
▁ma	-7.73996
ian	-7.74242
▁such	-7.74376
▁here	-7.74383
▁good	-7.74478
▁—	-7.75649
▁being	-7.75697
▁part	-7.75849
▁very	-7.76711
é	-7.77625
▁those	-7.78086
ate	-7.78328
ter	-7.78414
▁own	-7.78464
▁right	-7.7851
▁long	-7.78661
id	-7.79093
▁still	-7.79096
▁dis	-7.79562
▁per	-7.79718
▁life	-7.79735
he	-7.79943
and	-7.79944
ive	-7.80103
est	-7.80365
ty	-7.8054
▁al	-7.81282
▁po	-7.81735
▁day	-7.82218
st	-7.82737
▁think	-7.83363
▁state	-7.8373
▁war	-7.83901
▁should	-7.83934
ci	-7.83984
▁use	-7.8465
▁last	-7.84978
▁n	-7.8517
age	-7.85464
▁between	-7.85529
tic	-7.85964
▁que	-7.85993
▁na	-7.86426
▁year	-7.86814
ted	-7.87109
ir	-7.8714
▁around	-7.87557
▁st	-7.87715
▁take	-7.878
ated	-7.87859
▁end	-7.88139
▁pre	-7.8872
ul	-7.89246
va	-7.89496
ant	-7.89588
ol	-7.89604
▁head	-7.89659
▁pro	-7.89955
ine	-7.9019
ca	-7.90656
▁three	-7.90746
▁both	-7.91225
un	-7.91349
ie	-7.91372
um	-7.91409
da	-7.91877
▁want	-7.92586
up	-7.92905
▁vi	-7.94146
▁come	-7.94178
go	-7.94189
▁against	-7.95084
▁home	-7.9513
ton	-7.95432
]	-7.95716
pe	-7.95777
ary	-7.96218
▁going	-7.96277
▁u	-7.96332
ri	-7.96446
▁found	-7.97342
▁li	-7.97416
sh	-7.97544
▁v	-7.97668
▁same	-7.97902
▁hand	-7.97995
ha	-7.9813
▁too	-7.98744
.”	-7.98889
▁el	-7.99361
▁another	-7.99696
▁mo	-7.99863
▁ro	-8.00354
▁during	-8.01028
▁men	-8.011
ni	-8.01446
▁need	-8.01861
ba	-8.02083
▁da	-8.02319
...	-8.02469
ism	-8.02723
▁su	-8.03058
ut	-8.03438
▁place	-8.03925
son	-8.04042
▁house	-8.04113
ga	-8.04262
▁sa	-8.0456
▁never	-8.04589
▁say	-8.04837
ies	-8.05296
po	-8.0544
▁each	-8.05879
▁little	-8.06134
ber	-8.06427
mi	-8.06973
com	-8.0709
▁mar	-8.07095
mo	-8.07693
ti	-8.0796
os	-8.07995
▁du	-8.08654
▁used	-8.08941
▁ra	-8.09225
▁$	-8.09341
▁since	-8.09538
▁second	-8.10288
▁w	-8.10723
%	-8.1089
▁didn	-8.11267
ling	-8.11384
▁j	-8.11515
▁help	-8.1197
ness	-8.12067
con	-8.12182
▁again	-8.12388
ten	-8.12494
▁something	-8.12725
ting	-8.12799
ka	-8.13012
▁pe	-8.13184
,”	-8.13647
▁ha	-8.14049
im	-8.1413
▁thought	-8.1447
ence	-8.14721
▁might	-8.14989
▁great	-8.15227
▁every	-8.15333
▁bar	-8.15621
land	-8.15639
ance	-8.15717
▁high	-8.15873
▁few	-8.15893
▁set	-8.15996
▁city	-8.16137
min	-8.16509
▁h	-8.16874
▁left	-8.17114
▁t	-8.17748
▁ne	-8.17793
tion	-8.17935
mb	-8.18364
▁am	-8.1882
ver	-8.18993
▁[	-8.19401
▁-	-8.20346
▁government	-8.2077
pa	-8.20914
▁lo	-8.21065
▁came	-8.21172
▁until	-8.2119
vi	-8.21218
▁ba	-8.21467
der	-8.22048
▁got	-8.22195
▁best	-8.22294
▁told	-8.22363
▁side	-8.22506
▁face	-8.22696
▁away	-8.22735
you	-8.22993
▁r	-8.23034
mp	-8.23443
▁fa	-8.23957
▁put	-8.24088
▁look	-8.24211
▁water	-8.2431
▁without	-8.24445
▁later	-8.2478
led	-8.25099
▁far	-8.25233
ating	-8.25374
▁let	-8.25587
▁find	-8.25634
▁team	-8.25886
▁school	-8.26039
▁old	-8.26935
▁must	-8.26962
▁next	-8.27625
▁ja	-8.28752
less	-8.28813
▁game	-8.29015
▁public	-8.29446
▁national	-8.29937
▁et	-8.29946
▁play	-8.30462
▁comp	-8.30648
ful	-8.30788
▁y	-8.31837
▁support	-8.31946
▁power	-8.31957
▁ka	-8.32242
▁different	-8.32659
▁*	-8.32734
▁however	-8.3302
▁point	-8.33256
▁called	-8.33521
▁took	-8.33651
▁american	-8.33968
▁things	-8.3429
▁really	-8.34328
em	-8.34702
ner	-8.35108
ish	-8.3541
di	-8.35944
▁name	-8.36178
▁why	-8.36259
▁show	-8.36313
▁though	-8.36457
ak	-8.36691
▁light	-8.367
▁black	-8.36713
▁white	-8.36745
▁ex	-8.37021
▁post	-8.37025
so	-8.37583
▁love	-8.37684
▁number	-8.37934
▁small	-8.38083
per	-8.38108
▁once	-8.38139
▁family	-8.38402
one	-8.38587
▁president	-8.38661
▁group	-8.38906
▁human	-8.39024
▁four	-8.39216
bo	-8.39404
▁night	-8.39698
▁hu	-8.39759
ad	-8.40052
▁ca	-8.40133
▁went	-8.40721
▁system	-8.40877
om	-8.41212
▁always	-8.41288
▁hard	-8.41296
▁real	-8.41331
▁open	-8.41573
▁line	-8.4174
ac	-8.41967
red	-8.42035
▁ri	-8.42239
▁air	-8.4235
▁run	-8.42414
nd	-8.42653
▁says	-8.43625
▁room	-8.43726
que	-8.44008
ster	-8.44032
rs	-8.4415
▁star	-8.44161
▁women	-8.44301
ron	-8.44692
den	-8.45044
▁asked	-8.45205
▁free	-8.45449
ous	-8.45563
▁does	-8.45731
ff	-8.45899
▁em	-8.45975
▁ver	-8.4622
▁season	-8.46578
▁bo	-8.46813
che	-8.46836
▁si	-8.46881
▁order	-8.47151
if	-8.47305
(	-8.47509
ho	-8.47827
▁north	-8.47919
▁je	-8.48071
tro	-8.48143
▁become	-8.48152
▁sp	-8.48241
gen	-8.48546
▁ju	-8.48785
bi	-8.48838
▁ho	-8.49456
▁states	-8.499
▁better	-8.50029
▁trump	-8.50076
▁read	-8.50117
▁film	-8.50156
▁case	-8.50274
▁book	-8.50317
▁university	-8.50448
ex	-8.50613
ard	-8.50805
▁ge	-8.50881
ler	-8.50974
▁son	-8.51019
▁tu	-8.5109
vo	-8.51403
▁fact	-8.51724
▁god	-8.51907
▁tell	-8.52047
hi	-8.52103
way	-8.52187
▁bi	-8.52195
our	-8.52252
▁lot	-8.52442
▁sub	-8.52527
▁thing	-8.52544
line	-8.52849
▁ta	-8.52859
▁enough	-8.53087
▁including	-8.53407
▁company	-8.5358
▁gu	-8.53601
wa	-8.53774
▁sta	-8.53952
▁country	-8.54213
▁york	-8.54266
les	-8.54405
lin	-8.54414
▁early	-8.54496
▁art	-8.54802
▁social	-8.55028
▁keep	-8.5511
▁south	-8.55261
▁ever	-8.55301
▁united	-8.55377
ä	-8.55382
▁inter	-8.55562
▁land	-8.55574
▁form	-8.55584
▁ar	-8.55811
▁eyes	-8.55886
▁start	-8.55902
á	-8.56069
ley	-8.56239
au	-8.56491
▁court	-8.56497
ng	-8.56582
▁kind	-8.56585
▁past	-8.56714
▁john	-8.57019
op	-8.57183
ja	-8.57425
▁ten	-8.57429
▁pa	-8.57452
▁big	-8.57615
men	-8.57618
▁top	-8.57753
▁&	-8.5787
▁law	-8.57898
▁die	-8.57954
▁hi	-8.58529
▁feel	-8.58542
▁fire	-8.58608
▁short	-8.58662
nk	-8.58732
lic	-8.58809
▁himself	-8.58857
▁process	-8.59143
▁history	-8.59308
▁yet	-8.59427
fa	-8.59525
ized	-8.59578
▁ti	-8.59607
▁par	-8.59691
ap	-8.60144
▁week	-8.60161
▁moment	-8.60471
▁||	-8.60638
▁red	-8.60666
▁young	-8.60852
lu	-8.60881
▁tra	-8.60884
▁give	-8.61009
▁har	-8.61255
▁looked	-8.61433
ite	-8.6144
▁mind	-8.61469
ator	-8.61505
pro	-8.6159
▁general	-8.61655
▁children	-8.61826
▁ce	-8.61901
▁known	-8.62006
▁sure	-8.62084
▁door	-8.62099
ger	-8.62155
▁lu	-8.62227
▁view	-8.62233
ung	-8.62361
ot	-8.62525
▁already	-8.62738
▁close	-8.62833
▁person	-8.62844
▁rest	-8.62903
ring	-8.62928
▁report	-8.62973
▁pi	-8.63046
▁turn	-8.63064
▁course	-8.63092
▁several	-8.63108
za	-8.63109
by	-8.63147
▁using	-8.63499
▁act	-8.63518
▁death	-8.63605
▁change	-8.63746
▁often	-8.63996
gu	-8.64028
▁des	-8.6429
▁along	-8.64392
ig	-8.64743
▁million	-8.64775
▁days	-8.64911
▁according	-8.64914
▁won	-8.64945
ag	-8.64996
▁imp	-8.65124
▁del	-8.65257
▁police	-8.65382
▁para	-8.6543
▁sha	-8.65439
und	-8.65449
ah	-8.65458
ations	-8.65606
▁large	-8.6567
mon	-8.66058
▁father	-8.66276
▁cu	-8.66315
▁full	-8.66318
▁san	-8.66393
▁nothing	-8.66459
ial	-8.66639
▁important	-8.66751
▁list	-8.67217
pp	-8.67326
▁gra	-8.67517
▁across	-8.67549
▁fe	-8.67748
▁project	-8.67822
▁call	-8.67894
ally	-8.67911
▁story	-8.67912
▁press	-8.68041
ny	-8.68207
▁body	-8.68219
▁example	-8.68252
▁saw	-8.68314
▁less	-8.68341
▁local	-8.68355
for	-8.68378
▁x	-8.6842
▁information	-8.68801
▁che	-8.69087
▁having	-8.69159
dy	-8.69231
▁times	-8.6931
▁market	-8.69368
▁among	-8.69534
▁den	-8.69554
qui	-8.69641
▁half	-8.69653
▁six	-8.69827
▁party	-8.6991
▁together	-8.69944
ó	-8.70246
ze	-8.70258
▁business	-8.70271
fe	-8.70338
▁least	-8.70449
▁attack	-8.70546
▁experience	-8.70597
▁mother	-8.70934
▁within	-8.70953
▁street	-8.70981
▁making	-8.7103
▁seen	-8.71095
▁control	-8.71171
▁knew	-8.71249
▁five	-8.71483
▁add	-8.71503
▁live	-8.71535
▁following	-8.7157
▁non	-8.717
dic	-8.71938
ise	-8.72023
ud	-8.72194
tra	-8.72234
▁political	-8.72314
í	-8.72332
ko	-8.72646
▁dr	-8.72664
ning	-8.72977
▁front	-8.73124
▁behind	-8.73303
▁money	-8.73524
▁data	-8.73568
old	-8.73628
ier	-8.73685
ped	-8.73764
▁fo	-8.74003
▁began	-8.74124
▁main	-8.74131
but	-8.74255
▁bra	-8.74267
▁fi	-8.74345
▁became	-8.74598
▁almost	-8.74646
time	-8.74712
nt	-8.74892
▁jo	-8.74914
▁given	-8.75083
tor	-8.75247
io	-8.75788
▁sound	-8.75796
out	-8.76081
fi	-8.76086
▁ni	-8.76091
ical	-8.76243
my	-8.76306
▁music	-8.76327
▁woman	-8.76416
▁park	-8.7652
▁wa	-8.76566
▁town	-8.76886
▁der	-8.76962
▁est	-8.77158
▁done	-8.77563
gi	-8.77767
▁wanted	-8.77811
▁app	-8.77911
bb	-8.78103
▁arm	-8.78211
▁cha	-8.78229
の	-8.7824
▁wall	-8.78249
▁believe	-8.78415
▁office	-8.78482
▁return	-8.78854
tu	-8.78965
▁building	-8.79085
ö	-8.79429
ep	-8.79532
▁deal	-8.79594
lan	-8.7962
▁qu	-8.79771
ding	-8.79778
let	-8.79924
▁former	-8.80031
▁food	-8.80083
ki	-8.80187
▁question	-8.80218
▁class	-8.80378
▁felt	-8.80512
ven	-8.80671
▁anything	-8.80686
▁hope	-8.80973
▁area	-8.81224
ile	-8.81265
▁turned	-8.81355
▁pay	-8.81448
▁job	-8.81497
ities	-8.81504
▁à	-8.81567
ient	-8.81763
iv	-8.81866
what	-8.81942
▁ga	-8.82144
ever	-8.82302
▁space	-8.8233
ach	-8.82355
▁mr	-8.82362
▁les	-8.82436
▁clear	-8.82678
▁today	-8.82718
!"	-8.82985
▁west	-8.83216
▁matter	-8.83502
▁sch	-8.83691
▁va	-8.83716
▁working	-8.83729
▁trans	-8.83972
▁provide	-8.83995
▁#	-8.84217
▁service	-8.84244
cent	-8.84265
▁cost	-8.84453
king	-8.84558
е	-8.84621
▁health	-8.84723
nn	-8.84787
ward	-8.84982
▁road	-8.85078
▁hit	-8.85299
ang	-8.85431
▁single	-8.85435
len	-8.85604
▁care	-8.85666
tri	-8.85749
▁sea	-8.85975
▁able	-8.86071
▁voice	-8.86137
q	-8.86177
▁pen	-8.86346
▁bit	-8.86413
ship	-8.86453
▁test	-8.86607
▁reason	-8.86609
▁ru	-8.86615
▁media	-8.86817
pi	-8.87113
hu	-8.87295
▁nu	-8.87355
▁series	-8.87392
ving	-8.87479
▁looking	-8.87669
je	-8.87787
▁heart	-8.87886
ado	-8.87905
▁king	-8.87973
▁rather	-8.88061
▁march	-8.88358
▁com	-8.88411
▁special	-8.88472
▁move	-8.88472
▁nor	-8.88518
end	-8.88653
▁sur	-8.88686
▁program	-8.88893
▁started	-8.88967
▁sun	-8.89144
▁sh	-8.89157
▁cor	-8.89225
rt	-8.89351
oc	-8.89419
▁center	-8.89523
▁result	-8.89757
▁near	-8.89907
▁ground	-8.90038
ow	-8.90123
▁ab	-8.90221
▁international	-8.90244
ham	-8.903
▁held	-8.90534
▁tri	-8.90611
▁ob	-8.90613
▁cup	-8.90617
▁mon	-8.90812
▁possible	-8.90815
▁position	-8.90836
▁doing	-8.91232
ious	-8.91262
▁strong	-8.91277
▁figure	-8.91334
her	-8.91355
▁present	-8.91405
▁green	-8.91439
▁mi	-8.9157
▁bill	-8.91648
▁win	-8.91804
▁sign	-8.91861
▁whether	-8.92028
▁final	-8.92037
▁ch	-8.92071
▁idea	-8.92105
ions	-8.92128
▁bad	-8.92248
▁whole	-8.92256
▁cla	-8.92378
▁cur	-8.92418
sion	-8.9247
▁anti	-8.92675
▁research	-8.9268
▁mark	-8.92696
▁design	-8.92994
kin	-8.93153
car	-8.93219
▁fall	-8.93261
well	-8.93372
▁others	-8.93429
▁major	-8.93593
gan	-8.93761
▁wasn	-8.93879
▁low	-8.94075
▁pain	-8.94184
ide	-8.94195
с	-8.94427
▁news	-8.94515
▁mu	-8.94564
▁everything	-8.94627
▁although	-8.94726
▁someone	-8.9474
▁taken	-8.94741
▁minutes	-8.9481
▁personal	-8.94835
▁church	-8.94842
gue	-8.95067
ren	-8.95103
wi	-8.95195
▁il	-8.95218
▁consider	-8.95304
▁sense	-8.95355
▁table	-8.95458
▁field	-8.95705
▁sc	-8.95835
▁age	-8.95866
▁qui	-8.95875
ure	-8.95963
ya	-8.96025
▁problem	-8.96094
▁pu	-8.96094
▁talk	-8.96117
▁doesn	-8.96142
van	-8.96569
▁late	-8.96902
▁self	-8.96938
sta	-8.96949
å	-8.97007
▁words	-8.972
▁bank	-8.9741
▁key	-8.97479
bu	-8.97573
у	-8.97593
=	-8.97705
▁cut	-8.97715
ey	-8.97742
▁es	-8.97742
▁soon	-8.97825
ative	-8.98004
▁super	-8.9819
▁mean	-8.98222
mar	-8.98235
▁percent	-8.98275
▁community	-8.98372
▁stop	-8.98521
▁stay	-8.98634
▁video	-8.98721
▁dead	-8.98743
jo	-8.9886
▁pan	-8.98881
mit	-8.9896
▁pass	-8.98963
▁further	-8.98973
▁answer	-8.99166
▁mis	-8.99234
▁common	-8.99405
▁por	-8.99598
▁future	-8.99808
▁instead	-8.99829
▁ko	-8.99851
tal	-9.00267
ip	-9.00392
ü	-9.00519
that	-9.00527
▁plan	-9.00652
▁rock	-9.00865
▁development	-9.00942
▁either	-9.01175
▁gave	-9.01286
all	-9.01292
▁=	-9.01354
hr	-9.01492
▁inside	-9.01494
ft	-9.01582
▁outside	-9.0165
▁bre	-9.01653
▁members	-9.01767
▁‘	-9.018
▁visit	-9.01824
▁los	-9.01825
、	-9.01955
▁trying	-9.02058
▁means	-9.02067
▁wi	-9.02291
▁getting	-9.02413
è	-9.0245
▁word	-9.02627
▁z	-9.02674
▁actually	-9.02709
cu	-9.02738
▁account	-9.02784
▁sw	-9.02808
▁remember	-9.02826
▁follow	-9.02921
val	-9.03015
ral	-9.03021
а	-9.03176
ν	-9.03198
act	-9.03267
▁mc	-9.03387
▁sal	-9.03413
▁hands	-9.03574
han	-9.03741
mer	-9.04
▁im	-9.04121
▁level	-9.04126
ill	-9.04145
▁met	-9.04213
▁club	-9.04235
don	-9.04477
ue	-9.04494
▁song	-9.04505
▁te	-9.04576
▁third	-9.04636
zi	-9.04687
ru	-9.04701
ub	-9.0489
ef	-9.04908
▁break	-9.05103
▁months	-9.05114
ize	-9.05271
of	-9.05335
tan	-9.05447
▁cap	-9.05557
▁cross	-9.05603
▁lead	-9.05789
use	-9.06025
ified	-9.06032
▁campaign	-9.06041
▁upon	-9.0605
year	-9.06086
cing	-9.06105
light	-9.06183
▁based	-9.06229
▁lost	-9.06393
▁river	-9.06523
▁gi	-9.0663
port	-9.06907
▁model	-9.06951
ik	-9.06968
▁study	-9.06971
▁role	-9.07037
▁friend	-9.07204
▁child	-9.07248
α	-9.07288
▁force	-9.0733
▁taking	-9.07396
▁above	-9.07421
▁continue	-9.07532
▁site	-9.07712
▁station	-9.07741
▁chapter	-9.07935
>	-9.07953
▁true	-9.08242
▁east	-9.08263
ble	-9.08298
▁hold	-9.08346
▁leave	-9.08382
lar	-9.08508
ice	-9.08516
▁check	-9.08517
▁similar	-9.08525
▁heard	-9.08534
ology	-9.08564
are	-9.08648
▁bring	-9.08706
▁dark	-9.08894
ok	-9.08928
▁try	-9.08967
▁else	-9.08994
▁total	-9.09305
▁seemed	-9.09514
▁gar	-9.09621
pt	-9.09742
▁interest	-9.0979
▁deep	-9.09791
▁coming	-9.0991
н	-9.09963
▁und	-9.10442
▁itself	-9.10488
▁america	-9.10838
▁sl	-9.10857
ica	-9.1093
ez	-9.111
▁round	-9.11357
▁sin	-9.11483
ab	-9.11578
▁é	-9.116
▁hours	-9.11728
ay	-9.11841
ture	-9.11867
▁election	-9.11972
▁sent	-9.12048
su	-9.12053
▁blood	-9.12127
▁col	-9.12259
▁paper	-9.12455
▁decision	-9.12458
▁allow	-9.12502
▁due	-9.12548
▁access	-9.12602
▁function	-9.12653
▁stand	-9.12667
▁period	-9.12739
▁security	-9.12825
▁ran	-9.12863
▁mid	-9.12957
▁league	-9.13012
▁member	-9.13031
▁probably	-9.13079
▁sat	-9.131
▁morning	-9.13105
▁ad	-9.13213
mm	-9.13222
back	-9.13222
tru	-9.13323
▁british	-9.13329
▁understand	-9.13353
tes	-9.13396
▁ste	-9.1347
▁page	-9.13498
▁military	-9.13665
ps	-9.13855
nder	-9.14276
▁category	-9.14292
▁seven	-9.1438
▁ball	-9.14458
ries	-9.14459
▁ask	-9.14497
▁price	-9.14522
▁gun	-9.1455
lt	-9.14697
ina	-9.14732
▁brother	-9.14875
tter	-9.14965
▁van	-9.15007
du	-9.15034
▁ban	-9.15042
▁cover	-9.15042
off	-9.15138
can	-9.15204
ging	-9.15273
▁bri	-9.15312
▁certain	-9.15325
▁op	-9.15449
▁available	-9.15578
▁tax	-9.15671
▁boy	-9.15761
▁living	-9.15965
▁games	-9.16008
ug	-9.16094
▁perhaps	-9.1615
▁college	-9.16268
▁vote	-9.16349
▁travel	-9.16368
▁author	-9.16482
▁department	-9.16535
▁toward	-9.16543
qu	-9.167
▁june	-9.16742
▁themselves	-9.16773
row	-9.16788
▁cru	-9.16813
▁stra	-9.16853
▁director	-9.16918
▁wrote	-9.16973
not	-9.17004
▁comment	-9.17077
▁cook	-9.17096
ization	-9.17148
▁added	-9.1718
▁contain	-9.1718
od	-9.17213
▁quite	-9.17295
▁create	-9.17306
ai	-9.17368
ε	-9.17398
▁language	-9.17475
▁text	-9.17534
▁share	-9.17635
▁august	-9.17686
▁trade	-9.17686
ell	-9.17759
cre	-9.17848
▁ship	-9.17893
gar	-9.18014
т	-9.18207
▁played	-9.18254
▁girl	-9.18257
ible	-9.18506
▁attempt	-9.18671
right	-9.18702
▁blue	-9.18761
▁bu	-9.18774
▁version	-9.18891
mark	-9.18911
▁approach	-9.18923
▁grand	-9.18949
ign	-9.1897
▁district	-9.19236
▁action	-9.19255
▁image	-9.19475
ping	-9.19602
▁track	-9.19617
▁london	-9.19674
ev	-9.1969
▁month	-9.19728
▁career	-9.19742
▁likely	-9.19872
ute	-9.19924
vers	-9.19974
▁natural	-9.20011
fo	-9.20101
uch	-9.20176
▁gen	-9.20442
▁couldn	-9.20453
▁ago	-9.20463
▁island	-9.20543
▁everyone	-9.20661
fer	-9.20767
ă	-9.20817
▁fu	-9.20888
▁fl	-9.21061
ned	-9.21093
gra	-9.21142
ou	-9.21176
▁saying	-9.21241
ther	-9.21359
ual	-9.21459
▁county	-9.21475
spect	-9.21549
▁fra	-9.21585
▁science	-9.2161
▁ser	-9.21699
▁fear	-9.21827
▁battle	-9.21833
ker	-9.21863
▁finally	-9.22037
▁•	-9.22041
day	-9.22067
▁chi	-9.22079
▁award	-9.22223
▁band	-9.22351
▁july	-9.22433
▁tro	-9.22609
▁pla	-9.22624
▁vo	-9.22657
▁minister	-9.22734
▁april	-9.22747
▁cl	-9.22772
。	-9.22922
▁education	-9.23041
▁economic	-9.23069
▁makes	-9.2309
struct	-9.23117
▁au	-9.23127
▁army	-9.23137
▁step	-9.23174
▁english	-9.23188
ana	-9.23198
▁rep	-9.23312
▁led	-9.23343
▁board	-9.23363
▁forward	-9.23548
▁fre	-9.2355
▁record	-9.23725
▁brought	-9.23808
▁released	-9.23839
▁middle	-9.23854
に	-9.23881
▁hall	-9.2389
▁difficult	-9.23914
zz	-9.23963
▁practice	-9.24048
har	-9.24058
?'	-9.2416
ney	-9.24317
new	-9.2438
▁plant	-9.24477
▁friends	-9.24499
tain	-9.24547
▁century	-9.246
▁cell	-9.24613
bl	-9.24677
▁include	-9.2476
bra	-9.24787
▁value	-9.24795
chi	-9.24816
cor	-9.24862
▁french	-9.24864
▁pat	-9.24905
▁han	-9.24928
▁oil	-9.2494
nce	-9.25026
▁store	-9.25217
lf	-9.25225
▁september	-9.2529
▁type	-9.25321
▁longer	-9.25356
▁match	-9.25487
▁camp	-9.2551
▁society	-9.25564
▁sometimes	-9.25577
▁ke	-9.25592
▁race	-9.25655
▁especially	-9.25677
▁german	-9.25794
▁shi	-9.25816
serv	-9.25856
side	-9.25859
▁fair	-9.25893
▁chance	-9.25973
ec	-9.26021
▁needed	-9.26194
ban	-9.26216
ade	-9.26298
▁modern	-9.26361
▁reported	-9.26394
iz	-9.26395
▁pour	-9.26523
nie	-9.26553
▁er	-9.26564
▁students	-9.26672
▁simply	-9.26707
ken	-9.26742
fin	-9.26749
ably	-9.26757
set	-9.26817
и	-9.2683
ists	-9.2684
ek	-9.26855
bar	-9.26998
▁central	-9.27011
▁cause	-9.27067
▁tried	-9.27072
▁develop	-9.27095
▁cre	-9.2711
▁movement	-9.27184
▁moved	-9.27262
▁subject	-9.27299
▁network	-9.27307
▁ya	-9.27523
▁october	-9.2802
▁walk	-9.28068
lea	-9.28156
▁watch	-9.28268
▁january	-9.28286
▁drive	-9.28305
▁rate	-9.28343
▁happen	-9.28356
ada	-9.28473
pu	-9.28479
▁port	-9.28508
▁una	-9.28595
▁william	-9.28646
▁feeling	-9.28719
▁population	-9.28833
cy	-9.28847
▁mal	-9.28868
▁current	-9.28919
▁feet	-9.28962
▁protect	-9.28963
▁host	-9.28969
ult	-9.29006
ability	-9.29039
over	-9.29056
▁meeting	-9.29064
this	-9.29073
▁private	-9.29161
▁shot	-9.29308
▁cro	-9.29377
▁risk	-9.29423
des	-9.29443
fu	-9.29452
▁hear	-9.29515
▁china	-9.29573
▁paul	-9.2991
mor	-9.30125
▁wife	-9.30314
▁energy	-9.30339
cul	-9.30378
▁touch	-9.3038
▁min	-9.30388
▁david	-9.30441
▁character	-9.30474
▁maybe	-9.30598
▁vol	-9.30612
ι	-9.30648
▁title	-9.30661
rk	-9.30731
▁player	-9.30786
▁running	-9.30815
▁hair	-9.30843
▁built	-9.30905
ph	-9.31101
av	-9.31103
▁base	-9.31222
▁file	-9.31234
ran	-9.31296
▁pick	-9.31382
▁spi	-9.314
pre	-9.31471
▁content	-9.31549
▁comes	-9.31567
▁official	-9.31571
mic	-9.31627
▁glo	-9.31634
▁respect	-9.3166
▁anyone	-9.3173
п	-9.3175
▁review	-9.31818
▁photo	-9.31924
▁nature	-9.3197
▁buy	-9.32039
▁reach	-9.32106
▁mac	-9.3213
http	-9.32203
▁picture	-9.32229
▁code	-9.32244
▁policy	-9.32263
▁november	-9.32289
uff	-9.32297
▁flow	-9.32305
▁gone	-9.32313
▁below	-9.32354
_.	-9.3244
▁phone	-9.32565
nu	-9.32647
▁published	-9.32682
▁link	-9.32754
▁cra	-9.32934
▁received	-9.32936
▁block	-9.32954
▁issue	-9.32967
▁require	-9.32993
▁clo	-9.33028
▁union	-9.33054
br	-9.33068
▁object	-9.33119
▁popular	-9.33141
ris	-9.33174
▁success	-9.33237
▁original	-9.33435
▁federal	-9.33461
▁organization	-9.3353
­	-9.33541
▁earlier	-9.33611
▁wait	-9.33625
▁statement	-9.33628
▁fine	-9.33629
▁event	-9.33642
ium	-9.33649
ect	-9.33792
▁hundred	-9.33926
▁bur	-9.33955
she	-9.34041
▁document	-9.34223
▁sort	-9.34272
▁situation	-9.34351
▁expect	-9.34537
▁wo	-9.34621
▁suggest	-9.34637
ple	-9.34644
▁whose	-9.34692
▁wrong	-9.34703
▁village	-9.34889
▁color	-9.34913
▁train	-9.34976
tin	-9.35
▁cri	-9.3502
▁roman	-9.35085
▁simple	-9.35093
▁capital	-9.35107
▁worked	-9.35259
▁spoke	-9.35437
▁ben	-9.35512
▁fer	-9.35531
nch	-9.35559
ency	-9.35561
▁cat	-9.35592
▁players	-9.35618
nic	-9.35621
▁map	-9.35691
▁method	-9.35787
▁ven	-9.35816
▁material	-9.35873
▁album	-9.36111
▁demand	-9.36191
rie	-9.36207
▁fight	-9.36248
ments	-9.36263
▁couple	-9.36304
▁standard	-9.36494
bre	-9.36516
▁summer	-9.36548
ix	-9.36582
▁range	-9.36636
berg	-9.36643
▁region	-9.36713
▁works	-9.36739
art	-9.36753
▁relationship	-9.36755
▁earth	-9.36793
lor	-9.36861
▁guard	-9.36879
▁tre	-9.3688
▁chief	-9.36884
▁cannot	-9.36897
▁count	-9.36936
▁happened	-9.36962
ea	-9.37076
▁seems	-9.3709
▁card	-9.37154
par	-9.37296
▁article	-9.373
▁cal	-9.37427
я	-9.37432
ties	-9.37456
▁brown	-9.37499
▁stage	-9.37596
▁services	-9.37713
▁myself	-9.37724
ough	-9.37741
▁december	-9.37779
▁despite	-9.37809
▁exp	-9.37856
see	-9.37857
sen	-9.38077
▁address	-9.38267
▁mad	-9.3838
▁begin	-9.38468
▁died	-9.38488
▁production	-9.38526
cha	-9.38539
▁dar	-9.38696
ric	-9.38944
▁roll	-9.38946
ji	-9.39
▁box	-9.39007
▁football	-9.39047
net	-9.39048
▁washington	-9.39088
▁dan	-9.39156
ura	-9.39176
▁lower	-9.39177
▁wild	-9.39199
ked	-9.3921
▁release	-9.39223
ía	-9.39285
ded	-9.39394
born	-9.39695
▁sco	-9.39731
▁writing	-9.39778
there	-9.39796
▁books	-9.39804
lon	-9.39816
vis	-9.39882
▁bla	-9.39952
▁gro	-9.39976
sp	-9.39999
▁measure	-9.40023
://	-9.40054
tar	-9.40067
nes	-9.40237
teen	-9.4024
▁james	-9.4025
▁potential	-9.40344
▁recent	-9.40504
▁hill	-9.40531
▁various	-9.40557
▁evidence	-9.40626
で	-9.40676
tract	-9.4068
м	-9.40715
▁«	-9.40733
gg	-9.40776
▁quickly	-9.40783
▁unit	-9.4087
▁alone	-9.41013
ration	-9.41037
▁eight	-9.41038
tive	-9.41068
▁floor	-9.41075
▁miss	-9.41116
▁char	-9.41155
ged	-9.41302
▁wonder	-9.41338
▁/	-9.41354
ich	-9.41395
▁eye	-9.41403
▁fat	-9.4154
▁easy	-9.41588
▁wood	-9.41635
▁fish	-9.41692
ack	-9.41744
▁farm	-9.41797
▁mag	-9.41834
▁sen	-9.41978
ov	-9.4203
str	-9.42202
▁search	-9.42204
▁bas	-9.42217
elle	-9.42217
▁born	-9.42289
▁culture	-9.42389
iff	-9.42449
vent	-9.42457
▁charge	-9.42459
▁breath	-9.42473
▁pri	-9.42479
▁council	-9.42577
ato	-9.42608
▁concern	-9.42702
▁interview	-9.42707
▁performance	-9.42767
▁legal	-9.42768
▁indian	-9.42784
▁staff	-9.42831
gh	-9.42875
▁pas	-9.42924
▁george	-9.43191
は	-9.43265
▁continued	-9.43308
▁written	-9.43328
field	-9.43386
▁response	-9.43456
how	-9.43549
▁dog	-9.43562
▁source	-9.43644
▁sam	-9.43648
к	-9.43803
▁isn	-9.43904
▁wind	-9.43932
▁pra	-9.43948
▁command	-9.43963
▁gold	-9.44004
▁foot	-9.44035
▁focus	-9.44072
▁wide	-9.44084
▁republican	-9.44095
▁individual	-9.44123
▁zu	-9.44168
istic	-9.44199
part	-9.44208
▁decided	-9.4432
▁robert	-9.44356
▁stone	-9.44412
▁coll	-9.44533
▁artist	-9.44553
press	-9.44557
ces	-9.44625
▁created	-9.44765
like	-9.44769
▁plus	-9.44788
ο	-9.44825
vol	-9.44899
);	-9.44917
ا	-9.44921
▁mil	-9.45031
▁secret	-9.4507
ition	-9.45098
get	-9.45218
ification	-9.45248
ches	-9.45365
▁rose	-9.45376
▁fit	-9.45411
▁note	-9.455
▁foreign	-9.45516
▁attention	-9.45524
▁challenge	-9.45554
▁dream	-9.45565
▁killed	-9.45567
▁leg	-9.45615
▁rights	-9.45622
▁scene	-9.45651
cher	-9.45696
▁build	-9.45697
▁write	-9.45755
▁kill	-9.4576
rd	-9.45765
▁rule	-9.45855
▁named	-9.45946
▁represent	-9.4602
▁date	-9.46049
▁sto	-9.46056
ath	-9.46153
▁thus	-9.46175
shi	-9.46213
▁amount	-9.46218
▁global	-9.46224
▁meet	-9.46401
ux	-9.46405
▁france	-9.46426
▁cast	-9.46493
▁target	-9.46563
lia	-9.46669
▁february	-9.46679
▁section	-9.46753
sti	-9.46766
▁points	-9.46773
▁sleep	-9.46896
▁nearly	-9.46977
▁safe	-9.47145
▁size	-9.47218
▁cold	-9.47249
▁master	-9.47313
int	-9.47317
▁beyond	-9.47363
▁increase	-9.47467
▁thinking	-9.47528
▁##	-9.47572
▁--	-9.47573
▁hot	-9.47629
▁send	-9.47721
ement	-9.47735
▁treat	-9.47738
ns	-9.47754
▁kept	-9.47764
▁une	-9.47787
▁heat	-9.47826
▁particular	-9.47832
▁herself	-9.47934
app	-9.4798
med	-9.47993
▁playing	-9.47998
▁serve	-9.48016
▁hat	-9.4806
win	-9.48079
▁fast	-9.48083
▁stood	-9.48098
rate	-9.4811
hal	-9.48254
▁opened	-9.4839
▁style	-9.48395
put	-9.48412
▁pur	-9.48494
▁message	-9.48495
▁listen	-9.48523
▁reached	-9.48535
▁fund	-9.48547
▁lord	-9.48562
▁dé	-9.48565
some	-9.48579
▁significant	-9.48738
を	-9.48788
▁wish	-9.48794
cle	-9.48806
▁speak	-9.48808
▁followed	-9.48817
▁effect	-9.48832
▁path	-9.48854
pping	-9.48864
о	-9.48983
▁enjoy	-9.49009
▁christian	-9.49043
▁civil	-9.49055
▁fla	-9.49074
▁spot	-9.49104
ose	-9.49174
▁bon	-9.4919
ming	-9.49225
▁entire	-9.49249
▁daughter	-9.49315
▁letter	-9.49331
▁qua	-9.49342
ku	-9.49358
▁seat	-9.49511
tel	-9.49553
▁choice	-9.49562
▁please	-9.49621
が	-9.49712
mu	-9.49748
ett	-9.49792
р	-9.49806
ants	-9.49825
▁burn	-9.5004
▁enter	-9.50042
▁european	-9.50176
▁term	-9.50256
pen	-9.50272
▁dia	-9.503
ville	-9.50317
▁hospital	-9.50358
arch	-9.50525
pl	-9.50723
▁truth	-9.5073
▁companies	-9.50763
▁tr	-9.50799
uc	-9.50861
▁factor	-9.50896
▁drink	-9.50913
ella	-9.51095
▁pretty	-9.51096
▁seem	-9.51121
▁india	-9.51143
▁worth	-9.51183
gon	-9.51338
▁drug	-9.51387
ju	-9.51412
rang	-9.51472
▁technology	-9.51508
▁pot	-9.51574
ê	-9.51676
ford	-9.5188
tz	-9.51895
▁mass	-9.52003
die	-9.5201
▁weeks	-9.52095
⁄	-9.52131
▁countries	-9.52135
oh	-9.52262
té	-9.52343
▁cas	-9.52357
▁included	-9.5236
▁wouldn	-9.52411
▁europe	-9.52483
sure	-9.52592
▁industry	-9.52646
xi	-9.52714
▁cho	-9.52756
▁contract	-9.52765
▁usually	-9.52776
▁bed	-9.52793
▁pet	-9.52798
▁sex	-9.52851
τ	-9.52876
▁deliver	-9.53044
▁hor	-9.53083
ee	-9.53154
ino	-9.53235
▁ap	-9.53248
igh	-9.53298
▁higher	-9.53323
board	-9.53366
▁events	-9.53461
▁learn	-9.53501
▁bro	-9.53531
▁protest	-9.53601
ー	-9.53603
vin	-9.53703
▁pop	-9.53717
▁clean	-9.53743
▁fun	-9.53792
▁trust	-9.53821
cept	-9.53933
[	-9.53974
з	-9.53978
▁division	-9.54023
▁parents	-9.54082
▁mer	-9.54131
▁poor	-9.542
▁auto	-9.54334
▁questions	-9.54414
▁eu	-9.54433
▁attend	-9.54447
▁lives	-9.54447
▁sir	-9.54517
▁beginning	-9.54594
eur	-9.54614
▁tend	-9.54689
ory	-9.54846
top	-9.54926
▁ref	-9.54967
▁tour	-9.55029
▁doctor	-9.55039
|	-9.55062
▁commission	-9.55181
▁terms	-9.5521
▁difference	-9.55223
▁issues	-9.55224
▁ready	-9.55291
lie	-9.55293
▁firm	-9.55379
▁mountain	-9.55395
▁gas	-9.55395
▁depend	-9.55441
ire	-9.55454
▁results	-9.55553
▁russian	-9.55584
mmer	-9.55627
▁sit	-9.55669
▁fresh	-9.55762
head	-9.558
work	-9.55895
war	-9.55961
▁exist	-9.55963
lig	-9.56071
▁###	-9.56076
▁nation	-9.5608
▁structure	-9.56095
▁considered	-9.56242
▁sell	-9.56292
▁coach	-9.56342
▁>	-9.56346
cal	-9.56353
they	-9.56442
ée	-9.56445
▁benefit	-9.56574
▁suit	-9.56607
▁prison	-9.56612
▁gene	-9.56646
▁os	-9.56724
fl	-9.56762
▁financial	-9.56781
▁rich	-9.56828
house	-9.56881
▁ter	-9.56992
в	-9.57033
lock	-9.57034
▁involved	-9.57042
▁peter	-9.57044
▁leader	-9.57104
▁england	-9.57142
ati	-9.57173
▁western	-9.57186
▁screen	-9.57202
▁affect	-9.57294
ern	-9.57391
▁committee	-9.57447
pm	-9.57543
rio	-9.57591
ane	-9.57666
▁medical	-9.57684
▁average	-9.57796
ological	-9.57882
az	-9.57987
▁q	-9.57989
▁accept	-9.58061
ky	-9.58095
▁product	-9.58107
▁movie	-9.5812
▁machine	-9.58126
▁horse	-9.58267
pr	-9.58313
mate	-9.58431
▁spent	-9.58489
▁announced	-9.58518
dis	-9.58593
▁score	-9.58618
+	-9.5869
▁training	-9.58733
▁judge	-9.58751
▁appeared	-9.58756
▁temp	-9.5879
▁mill	-9.58837
▁regular	-9.58929
▁professional	-9.58984
ily	-9.58986
col	-9.58988
▁online	-9.59044
chen	-9.5905
izing	-9.59075
▁<	-9.59118
▁sk	-9.59178
low	-9.59229
▁ci	-9.59239
form	-9.59246
▁disc	-9.59285
▁lack	-9.59313
▁explain	-9.59331
ste	-9.59333
▁crime	-9.59401
д	-9.59487
▁passed	-9.59488
▁beat	-9.59554
ised	-9.5957
▁gain	-9.59624
▁warm	-9.5966
nc	-9.5969
atory	-9.59715
▁via	-9.59865
▁returned	-9.59926
▁michael	-9.59979
▁served	-9.60064
▁talking	-9.6007
zo	-9.60196
▁normal	-9.60422
gre	-9.60494
▁expected	-9.6051
ically	-9.60601
sis	-9.60634
ria	-9.60711
sive	-9.60715
▁prevent	-9.60734
▁california	-9.60749
▁prop	-9.60754
▁era	-9.60759
▁described	-9.60798
ρ	-9.60877
▁peace	-9.60942
▁groups	-9.6101
▁justice	-9.61012
▁avoid	-9.6104
▁meaning	-9.61081
▁acc	-9.61109
verse	-9.6123
▁organ	-9.61265
à	-9.61267
й	-9.61271
▁prove	-9.61331
σ	-9.61391
▁twenty	-9.61402
▁shall	-9.61426
▁arms	-9.61469
▁yes	-9.6147
yes	-9.61523
▁trip	-9.61566
▁mouth	-9.61633
down	-9.61664
▁straight	-9.61752
rus	-9.61804
▁forces	-9.61873
▁с	-9.61942
▁credit	-9.61948
▁hol	-9.62089
▁glass	-9.62105
▁reg	-9.62114
▁shows	-9.6214
burg	-9.62276
nne	-9.62288
fr	-9.62358
▁bus	-9.62373
▁join	-9.62384
".	-9.62405
▁problems	-9.62436
▁contact	-9.62494
▁mit	-9.62508
▁murder	-9.6253
▁specific	-9.62539
▁physical	-9.62547
▁tv	-9.62644
▁:	-9.62819
▁prime	-9.62831
い	-9.62907
▁offer	-9.62937
▁bear	-9.62942
▁throughout	-9.63005
▁hour	-9.63034
▁concept	-9.63043
▁impact	-9.63082
▁goal	-9.63093
bel	-9.63173
▁dans	-9.63263
arian	-9.63314
▁congress	-9.63383
▁frank	-9.63468
▁influence	-9.6353
▁purpose	-9.63547
▁complete	-9.63559
▁spring	-9.63659
vel	-9.63705
▁extra	-9.63783
▁respond	-9.63801
ς	-9.63835
▁flo	-9.6389
▁dress	-9.6393
▁refer	-9.63989
▁stu	-9.64018
▁needs	-9.64033
af	-9.64101
▁val	-9.6418
night	-9.64257
bor	-9.64296
▁save	-9.64313
▁throw	-9.64315
▁lake	-9.64335
uv	-9.64362
▁reading	-9.64509
▁skill	-9.64601
▁prince	-9.64625
▁eat	-9.64683
▁radio	-9.64694
▁immediately	-9.64731
▁ear	-9.64807
▁gr	-9.64829
▁prior	-9.6492
▁writer	-9.65049
ari	-9.65088
▁sister	-9.65099
▁application	-9.65118
▁det	-9.65156
cc	-9.65184
▁»	-9.65252
cus	-9.65334
▁edge	-9.65357
emp	-9.6536
と	-9.65372
`	-9.65374
▁addition	-9.65519
▁allowed	-9.65549
▁association	-9.65553
qua	-9.65585
▁direct	-9.65676
ox	-9.65704
▁goes	-9.65744
▁...	-9.658
▁chinese	-9.65806
kh	-9.65822
▁sim	-9.65854
cer	-9.6589
▁ice	-9.65929
▁sexual	-9.66078
▁claim	-9.66133
▁brand	-9.66186
▁discuss	-9.66196
tom	-9.6621
▁changes	-9.66219
▁speed	-9.66388
ida	-9.66548
):	-9.66564
▁knowledge	-9.66602
▁complex	-9.66619
▁lay	-9.6663
▁limit	-9.66669
",	-9.66673
π	-9.66745
▁rec	-9.66769
▁changed	-9.66778
▁stock	-9.66856
▁в	-9.66891
uk	-9.66896
▁cool	-9.66928
▁window	-9.6699
▁administration	-9.67002
▁previous	-9.6702
▁daily	-9.67139
▁defend	-9.67156
▁direction	-9.67165
bert	-9.67175
sch	-9.67224
cia	-9.67261
▁closed	-9.67272
▁reference	-9.67324
▁strange	-9.67327
▁hotel	-9.6735
▁skin	-9.67387
ius	-9.67418
▁spec	-9.67484
▁drop	-9.67537
▁loss	-9.67548
▁officer	-9.67573
▁multi	-9.67632
▁paris	-9.67683
▁happy	-9.67691
▁var	-9.67745
▁promise	-9.67817
▁novel	-9.6787
▁border	-9.67901
hel	-9.68038
▁scar	-9.68039
▁soft	-9.68096
▁quarter	-9.68171
ens	-9.68217
▁recently	-9.68237
▁stories	-9.68242
ong	-9.68292
▁owner	-9.68293
vit	-9.68316
▁equal	-9.68359
:**	-9.68409
lk	-9.68427
cur	-9.68445
ians	-9.68476
▁mine	-9.68485
▁species	-9.68488
▁moving	-9.68534
▁yourself	-9.6855
fully	-9.68656
▁appear	-9.68689
ched	-9.68762
▁slow	-9.68863
▁reflect	-9.68879
ord	-9.68882
dri	-9.68928
▁brain	-9.6901
▁double	-9.69023
rid	-9.69029
är	-9.69194
▁fan	-9.69327
▁workers	-9.69351
▁bell	-9.69515
▁gre	-9.6953
▁device	-9.69565
sign	-9.69615
▁heavy	-9.69615
▁mor	-9.69679
▁features	-9.69725
▁wave	-9.69795
▁successful	-9.69814
▁separate	-9.69873
▁fell	-9.69959
▁royal	-9.69981
но	-9.69997
▁guy	-9.70003
▁sky	-9.70249
mal	-9.70254
▁towards	-9.70322
▁whom	-9.70327
▁billion	-9.70396
▁female	-9.7041
ita	-9.7043
▁shoulder	-9.70452
▁labor	-9.70461
ify	-9.7055
▁ein	-9.70571
▁doubt	-9.70647
▁effective	-9.70668
tta	-9.70672
book	-9.70678
▁za	-9.70749
▁computer	-9.70814
▁pin	-9.70828
▁miles	-9.70938
cra	-9.70952
▁sav	-9.70953
ole	-9.70989
ра	-9.70992
▁huge	-9.71008
gun	-9.71013
▁counter	-9.71023
air	-9.71035
▁update	-9.71041
▁meant	-9.711
ks	-9.71138
▁perfect	-9.71167
▁cop	-9.71178
▁areas	-9.71191
mos	-9.71223
org	-9.71235
▁push	-9.71254
▁canada	-9.71319
▁mod	-9.71377
▁pack	-9.7139
▁eventually	-9.71461
▁receive	-9.715
▁husband	-9.71501
▁request	-9.71519
▁spread	-9.7153
▁officials	-9.71572
▁flu	-9.71595
▁lock	-9.71647
▁google	-9.71649
mission	-9.71657
▁piece	-9.71713
▁damage	-9.7176
▁pull	-9.71803
▁whatever	-9.71822
pha	-9.71889
▁trail	-9.71918
▁remain	-9.71926
▁mary	-9.7199
▁giving	-9.72054
▁bay	-9.72058
illa	-9.72193
based	-9.72197
▁wr	-9.72224
▁location	-9.72231
bul	-9.72327
▁bomb	-9.72329
▁bal	-9.72413
▁standing	-9.72471
▁additional	-9.72564
▁garden	-9.72585
▁candidate	-9.72593
▁coast	-9.72761
▁leading	-9.72821
▁particularly	-9.72838
hen	-9.72884
▁cases	-9.72891
gy	-9.72904
▁mission	-9.72971
▁mur	-9.73038
▁bag	-9.73137
▁conduct	-9.73232
ense	-9.7326
▁crowd	-9.73466
▁strength	-9.73485
ни	-9.73487
▁website	-9.73493
▁male	-9.73503
▁kar	-9.73534
▁corner	-9.73646
▁completely	-9.73743
fect	-9.73783
▁russia	-9.738
uring	-9.73844
▁broad	-9.73861
mat	-9.7393
ér	-9.73957
▁located	-9.73978
▁exactly	-9.73995
▁earn	-9.74167
graph	-9.74201
▁conference	-9.74209
л	-9.74215
pan	-9.74238
▁required	-9.74278
▁print	-9.7429
mes	-9.74388
▁therefore	-9.74398
▁traditional	-9.74414
▁defense	-9.74563
ski	-9.74579
ulation	-9.74607
▁rank	-9.74614
poli	-9.7462
▁lie	-9.74745
▁rain	-9.74824
▁grant	-9.74847
▁obama	-9.74873
▁chair	-9.74934
▁maintain	-9.74986
▁surface	-9.75012
▁route	-9.7508
▁rise	-9.75089
ates	-9.75184
pon	-9.75331
▁ways	-9.7535
▁studies	-9.75402
▁leaving	-9.75422
gel	-9.75456
rick	-9.75468
▁centre	-9.75525
bal	-9.7553
▁stopped	-9.75549
▁pun	-9.75573
▁manager	-9.75581
な	-9.75582
stre	-9.75587
▁certainly	-9.756
▁currently	-9.7563
shed	-9.75673
▁cy	-9.75842
μ	-9.75983
▁salt	-9.7602
now	-9.76032
▁agent	-9.76174
▁grow	-9.76179
▁invest	-9.76392
▁effort	-9.76415
hn	-9.76455
eg	-9.76481
ı	-9.76523
ú	-9.76527
▁onto	-9.76627
▁ku	-9.76645
▁nine	-9.76671
▁hung	-9.76697
ко	-9.76697
name	-9.76715
met	-9.76738
▁spa	-9.76739
pho	-9.76774
▁email	-9.76778
▁partner	-9.76798
▁democratic	-9.76811
▁raised	-9.76878
hy	-9.76896
▁journal	-9.77033
ography	-9.77051
wo	-9.77076
▁pr	-9.77111
▁bru	-9.7715
▁photograph	-9.77161
▁investigation	-9.77269
dra	-9.77281
\	-9.77293
ré	-9.77316
with	-9.77367
lum	-9.77376
wing	-9.77402
▁beautiful	-9.77406
▁walked	-9.77422
▁indeed	-9.77627
bc	-9.77667
▁display	-9.77681
ien	-9.77751
▁degree	-9.77824
▁bol	-9.77901
une	-9.77959
vid	-9.77968
▁fri	-9.78018
ously	-9.78039
▁sym	-9.78128
▁das	-9.78166
▁takes	-9.78184
▁disease	-9.78198
▁pl	-9.78199
ы	-9.782
▁spirit	-9.78222
point	-9.78278
▁baby	-9.78383
▁web	-9.78402
▁ahead	-9.78427
▁queen	-9.78533
urg	-9.78572
▁quiet	-9.78625
▁bridge	-9.78627
▁square	-9.78628
▁pulled	-9.78687
▁necessary	-9.78707
▁wal	-9.7877
▁provided	-9.78851
▁revolution	-9.78906
▁ability	-9.78947
▁uk	-9.79063
▁cent	-9.79104
▁collection	-9.79134
ben	-9.79172
▁jack	-9.79188
▁tar	-9.79214
▁ram	-9.79251
▁task	-9.79264
▁syn	-9.79334
▁fin	-9.79349
lies	-9.79468
ened	-9.79476
▁facebook	-9.79589
hood	-9.79778
▁museum	-9.79797
cycl	-9.79877
▁desire	-9.79921
aries	-9.79942
▁ham	-9.80121
▁brief	-9.80147
▁student	-9.80153
ici	-9.80209
▁serious	-9.80377
▁poli	-9.80475
rous	-9.80492
▁conversation	-9.80507
bit	-9.80534
▁independent	-9.80618
rri	-9.80659
▁bowl	-9.80687
▁weight	-9.8069
▁tur	-9.80705
▁perform	-9.8072
ique	-9.80795
▁correct	-9.80811
▁yo	-9.80871
▁richard	-9.80915
▁thomas	-9.80916
els	-9.80955
▁trouble	-9.80998
▁critic	-9.81065
▁shut	-9.81074
ore	-9.81095
▁exchange	-9.81127
▁bat	-9.81134
▁championship	-9.81215
▁hell	-9.8127
cho	-9.81283
▁stuff	-9.81325
▁prefer	-9.8134
▁resident	-9.81366
▁pressure	-9.8137
▁twitter	-9.8142
cker	-9.81472
▁growth	-9.81477
▁collect	-9.81505
▁victim	-9.8153
▁management	-9.81548
▁speech	-9.81631
â	-9.81637
▁shift	-9.81763
phy	-9.81786
▁laugh	-9.81849
ob	-9.81895
▁television	-9.81958
▁directly	-9.82034
▁moral	-9.8204
▁threat	-9.82044
▁vehicle	-9.82051
ific	-9.82232
bri	-9.82317
▁ki	-9.82388
ette	-9.82436
▁ze	-9.82514
▁suddenly	-9.82533
ib	-9.82553
▁property	-9.82584
$	-9.82627
spir	-9.82642
än	-9.82651
▁environment	-9.82742
▁transport	-9.82743
tail	-9.82779
▁comme	-9.82868
▁draw	-9.82887
▁sie	-9.82891
sha	-9.83103
▁religious	-9.83105
▁waiting	-9.83167
▁professor	-9.83202
▁holding	-9.83304
▁growing	-9.83321
▁related	-9.83338
ges	-9.83359
▁southern	-9.83455
▁episode	-9.83533
▁ur	-9.83578
lle	-9.83663
▁bun	-9.83671
▁um	-9.83698
▁established	-9.83705
▁solution	-9.83752
▁mont	-9.83758
▁christ	-9.8386
▁ski	-9.83868
▁pal	-9.83869
▁theory	-9.83914
▁improve	-9.84023
▁`	-9.84036
look	-9.84043
▁produced	-9.84058
▁smile	-9.84082
▁nice	-9.84083
▁sweet	-9.84174
る	-9.84183
sel	-9.84186
▁charles	-9.84193
▁smith	-9.84263
▁hum	-9.84306
="	-9.84322
zy	-9.84342
▁caught	-9.84347
ando	-9.8437
▁quality	-9.84568
▁constant	-9.846
▁paid	-9.84639
▁senior	-9.84685
roll	-9.84725
▁quick	-9.84728
▁sand	-9.84748
▁married	-9.84802
▁argument	-9.84818
oo	-9.84824
▁bird	-9.84915
▁ré	-9.84944
ular	-9.85001
▁executive	-9.85029
▁starting	-9.85062
▁platform	-9.85163
▁germany	-9.85171
▁shape	-9.85172
▁beside	-9.85222
pri	-9.85261
cap	-9.8527
hl	-9.85349
clu	-9.85375
▁shop	-9.85482
▁sil	-9.8549
▁forest	-9.85516
▁lived	-9.85592
▁editor	-9.85625
bil	-9.85744
▁tim	-9.85778
wood	-9.85793
▁operation	-9.85847
▁developed	-9.85868
▁treatment	-9.8588
star	-9.85891
yn	-9.85921
▁transfer	-9.85931
▁dy	-9.85938
▁med	-9.86115
▁{	-9.86173
▁poll	-9.86223
▁internet	-9.8623
ā	-9.86266
aire	-9.86272
▁israel	-9.86272
▁showed	-9.86298
vor	-9.86306
▁systems	-9.86328
▁slo	-9.86374
▁ii	-9.86427
ero	-9.86528
cast	-9.86545
▁active	-9.8655
}	-9.86604
▁looks	-9.86634
▁australia	-9.86708
more	-9.86731
▁rules	-9.86782
▁engage	-9.86829
ano	-9.86952
▁ent	-9.87021
▁images	-9.87026
pet	-9.87073
▁tree	-9.8709
▁om	-9.87107
▁setting	-9.87128
▁teacher	-9.87234
▁electric	-9.8724
ст	-9.87308
gram	-9.87309
▁gather	-9.87331
hand	-9.87361
▁arch	-9.874
▁reality	-9.87446
▁freedom	-9.87455
▁clearly	-9.8747
▁www	-9.87558
▁rub	-9.87699
▁jump	-9.87736
▁northern	-9.8775
▁politics	-9.87878
▁length	-9.87883
▁fill	-9.87891
▁adult	-9.87899
▁inform	-9.87904
ware	-9.87938
▁kid	-9.87978
era	-9.88085
tur	-9.88101
▁easily	-9.88124
▁och	-9.88214
ima	-9.88237
▁strike	-9.88252
▁zo	-9.88292
yard	-9.88334
▁wine	-9.88351
▁behavior	-9.88361
▁lady	-9.88369
▁magic	-9.88399
sol	-9.88404
gged	-9.88408
▁records	-9.88443
▁produce	-9.88454
tte	-9.88456
▁expert	-9.88462
▁conditions	-9.88473
▁driver	-9.88489
leg	-9.88533
rant	-9.88549
meter	-9.88572
▁sunday	-9.88605
▁joined	-9.88621
▁kids	-9.88633
▁;	-9.88679
▁weak	-9.88798
▁families	-9.88899
att	-9.88904
▁powerful	-9.88908
▁economy	-9.88921
▁finding	-9.88961
▁minor	-9.88964
play	-9.88997
▁expression	-9.89169
▁offered	-9.8918
▁designed	-9.89195
▁thank	-9.89262
▁gla	-9.89301
duc	-9.8939
▁apple	-9.89398
▁plans	-9.894
▁honor	-9.89507
▁hy	-9.8952
cial	-9.89521
▁remained	-9.89564
▁opportunity	-9.8961
▁forced	-9.89649
▁places	-9.89692
▁appearance	-9.89716
▁arrived	-9.89724
▁lines	-9.898
▁barr	-9.89801
▁restaurant	-9.89806
stein	-9.89828
▁friday	-9.89829
del	-9.89858
▁captain	-9.89963
▁zi	-9.90068
ø	-9.9007
▁von	-9.90159
ola	-9.90226
ridge	-9.90318
▁iron	-9.90352
▁louis	-9.90375
ara	-9.90381
▁basic	-9.90427
▁beach	-9.90436
▁bright	-9.90443
▁connection	-9.90529
▁defeat	-9.90552
▁numbers	-9.90594
▁pattern	-9.90597
ava	-9.90616
▁details	-9.90683
▁memory	-9.9069
▁sitting	-9.90745
▁catch	-9.90775
cl	-9.90796
х	-9.90804
▁av	-9.90814
▁lift	-9.9082
▁helped	-9.90841
▁essential	-9.90842
▁mini	-9.90873
▁fur	-9.90885
▁institution	-9.90887
amp	-9.90911
▁multiple	-9.90939
▁snow	-9.90948
www	-9.90973
yl	-9.91104
▁except	-9.91299
▁none	-9.913
▁las	-9.91308
▁som	-9.91328
ido	-9.91353
▁leaders	-9.91363
▁greater	-9.91378
tern	-9.91397
▁discover	-9.91467
stra	-9.91551
activ	-9.91563
room	-9.91578
ese	-9.91657
▁dev	-9.91698
▁finished	-9.91701
▁martin	-9.91775
▁positive	-9.91809
▁flat	-9.91813
λ	-9.91906
▁limited	-9.91946
▁sold	-9.92026
▁distance	-9.92045
▁learned	-9.92173
κ	-9.92217
▁opinion	-9.92225
ン	-9.92251
▁pair	-9.92259
▁remains	-9.92276
▁sum	-9.92282
char	-9.92358
▁faith	-9.92375
▁guide	-9.92436
▁analysis	-9.92449
▁row	-9.92498
▁detail	-9.92554
▁mix	-9.92571
▁foundation	-9.92582
▁opening	-9.92617
grad	-9.92705
▁ph	-9.92741
hop	-9.92744
▁tea	-9.92823
rich	-9.92851
uck	-9.9293
▁winter	-9.9295
zar	-9.92992
▁intelligence	-9.93036
▁tip	-9.93105
▁scr	-9.93147
▁shown	-9.93158
▁tight	-9.93224
▁trial	-9.93245
bling	-9.93301
▁condition	-9.93307
▁generation	-9.93307
▁fellow	-9.93338
▁agreement	-9.9336
▁rare	-9.93361
rin	-9.93364
pic	-9.93398
▁log	-9.93407
▁products	-9.93408
▁secretary	-9.9343
▁struggle	-9.93469
gro	-9.93499
▁officers	-9.93512
▁evening	-9.93555
▁agency	-9.93563
б	-9.93578
phi	-9.93594
craft	-9.93594
place	-9.93631
aba	-9.93654
▁soul	-9.93659
ante	-9.93661
ata	-9.93665
▁hal	-9.9367
non	-9.9369
▁safety	-9.93696
gle	-9.93704
▁believed	-9.93745
▁cit	-9.93785
▁violence	-9.93804
▁girls	-9.93869
ax	-9.93939
lev	-9.93959
▁sugar	-9.93965
▁ken	-9.94012
own	-9.94117
mus	-9.94139
▁bottom	-9.94148
▁+	-9.94214
▁egg	-9.94287
▁ble	-9.9432
▁experiment	-9.94369
▁climate	-9.94373
▁hadn	-9.94426
▁camera	-9.94603
▁supposed	-9.94661
who	-9.94748
▁и	-9.94885
▁dem	-9.94952
▁historical	-9.94971
yo	-9.94988
▁flight	-9.95041
nish	-9.95104
▁bou	-9.95118
elect	-9.95143
▁failed	-9.95183
mail	-9.95249
list	-9.95306
hor	-9.9538
▁imagine	-9.9543
▁feed	-9.95452
▁users	-9.95515
▁choose	-9.95516
▁recommend	-9.95531
cht	-9.95631
то	-9.95728
▁reports	-9.95728
▁stick	-9.95775
▁kan	-9.95801
▁marriage	-9.95822
▁interesting	-9.95827
▁critical	-9.9588
▁sy	-9.95885
▁proper	-9.95908
▁institute	-9.96002
▁majority	-9.96028
▁dance	-9.96029
г	-9.96087
▁dry	-9.96254
nny	-9.96333
wn	-9.96386
greg	-9.96508
▁monday	-9.96603
▁library	-9.96623
▁occur	-9.96675
▁understanding	-9.96699
▁luc	-9.96706
▁boat	-9.96717
gene	-9.96719
▁rap	-9.9673
▁associated	-9.96743
▁aim	-9.96744
▁sports	-9.9678
▁hurt	-9.9682
▁iran	-9.9684
▁micro	-9.96843
▁ye	-9.9685
ison	-9.96904
▁install	-9.9693
▁birth	-9.96933
▁notice	-9.97066
▁bound	-9.97103
just	-9.97109
▁thr	-9.97147
▁load	-9.97157
—"	-9.97229
▁smart	-9.9725
▁epi	-9.97257
bus	-9.97276
var	-9.97276
sky	-9.97278
▁notes	-9.97355
olog	-9.97409
▁reform	-9.97431
ini	-9.97433
▁sad	-9.97456
cut	-9.97487
▁studio	-9.97509
▁magazine	-9.97644
▁bor	-9.97733
▁progress	-9.97739
▁chart	-9.97824
▁seeing	-9.97863
ttle	-9.979
ille	-9.98032
▁debate	-9.9809
cular	-9.98114
▁click	-9.98123
▁communication	-9.98166
zer	-9.98183
dan	-9.98186
▁ring	-9.9822
▁carried	-9.98241
▁ride	-9.98269
▁tele	-9.98292
vic	-9.9834
▁till	-9.98415
read	-9.98437
east	-9.98481
▁incident	-9.98535
rated	-9.98549
▁regard	-9.98636
ject	-9.98645
phone	-9.98649
▁purchase	-9.98719
▁cultural	-9.98802
ery	-9.98837
▁def	-9.98914
▁exc	-9.98914
gger	-9.98937
▁dur	-9.98943
▁slowly	-9.98952
▁japan	-9.98954
▁placed	-9.98972
▁max	-9.99015
▁ancient	-9.99079
wan	-9.99236
▁includes	-9.99264
▁launch	-9.99282
▁older	-9.99317
▁implement	-9.99332
▁mat	-9.99369
inter	-9.99372
▁kick	-9.99529
▁agreed	-9.99565
▁classic	-9.9964
▁adopt	-9.99655
log	-9.99664
▁teams	-9.99672
▁conflict	-9.99732
▁metal	-9.99782
م	-9.99847
▁spo	-9.99862
▁primary	-9.9995
▁larger	-10.0001
▁hang	-10.0001
▁ec	-10.0005
▁complain	-10.0006
▁henry	-10.0016
▁japanese	-10.0023
▁audience	-10.0023
▁channel	-10.0029
dio	-10.0032
▁unlike	-10.0038
▁sharp	-10.0038
▁origin	-10.004
▁construction	-10.0043
▁learning	-10.0046
▁finish	-10.0046
▁increased	-10.0051
nia	-10.0055
▁watching	-10.0055
▁sight	-10.0059
▁stream	-10.006
table	-10.006
west	-10.0065
▁hero	-10.007
where	-10.007
▁clinton	-10.0075
▁tan	-10.0078
▁status	-10.0081
▁rev	-10.0082
▁jim	-10.009
▁lean	-10.0092
stone	-10.0094
▁famous	-10.0098
▁criminal	-10.01
▁mental	-10.0105
▁joe	-10.0132
▁african	-10.0137
▁instance	-10.0137
▁discussion	-10.0138
▁worse	-10.0141
bro	-10.0147
▁fighting	-10.0149
▁arab	-10.0151
▁estimate	-10.0153
&	-10.0157
mann	-10.0158
cro	-10.0163
▁generally	-10.0165
ро	-10.0165
▁merc	-10.0166
た	-10.0167
bin	-10.0176
▁levels	-10.0178
dia	-10.0179
▁digital	-10.0179
▁appears	-10.018
ama	-10.018
ре	-10.0184
▁thick	-10.019
▁largest	-10.0192
ador	-10.0194
gli	-10.0197
maker	-10.0198
не	-10.0201
▁americans	-10.0202
▁wing	-10.022
▁resources	-10.0222
▁conservative	-10.0223
▁ideas	-10.0224
cum	-10.0237
▁parts	-10.0239
whi	-10.0241
▁escape	-10.0247
▁feature	-10.0255
▁client	-10.026
*	-10.0261
▁affair	-10.0267
▁rat	-10.027
▁texas	-10.0273
ddle	-10.0275
▁shadow	-10.0276
tig	-10.0277
▁signed	-10.0286
#	-10.0289
▁vision	-10.0293
ulated	-10.0297
▁suspect	-10.03
ace	-10.0319
▁windows	-10.0321
▁presence	-10.0326
▁effects	-10.0327
▁spend	-10.0327
rup	-10.0338
mond	-10.0338
▁user	-10.0341
▁indicate	-10.0342
▁taste	-10.0342
▁coin	-10.0344
▁lose	-10.0344
▁root	-10.0346
▁mode	-10.0347
▁cer	-10.0358
integr	-10.0362
when	-10.0367
cen	-10.0367
▁gate	-10.0367
lich	-10.0368
why	-10.0368
▁achieve	-10.037
▁transform	-10.037
▁senate	-10.0373
▁ren	-10.0374
acy	-10.0377
▁guess	-10.038
▁caption	-10.038
▁blo	-10.0386
▁covered	-10.0387
▁annual	-10.0387
▁employ	-10.0388
▁luck	-10.0394
▁principle	-10.0398
▁engine	-10.0398
▁bin	-10.04
▁silver	-10.0406
▁activity	-10.0408
▁valley	-10.0411
▁mount	-10.0419
▁thanks	-10.0424
ulate	-10.0428
phe	-10.0428
▁donald	-10.0433
▁syria	-10.0436
▁@	-10.0445
▁express	-10.0446
▁harm	-10.0446
path	-10.0452
▁|-	-10.0455
▁по	-10.0455
▁о	-10.0456
▁hunt	-10.0457
▁esp	-10.0457
corporate	-10.0476
▁og	-10.0478
▁animal	-10.0481
commun	-10.0483
▁}	-10.0485
▁caused	-10.0486
▁mol	-10.049
▁protection	-10.049
▁sol	-10.0492
і	-10.0499
▁imagin	-10.0501
▁broke	-10.0506
▁på	-10.0507
▁recover	-10.051
▁investment	-10.0511
run	-10.0512
▁unique	-10.0514
▁rob	-10.0514
▁moon	-10.0518
matic	-10.0519
▁cloud	-10.0529
▁tuesday	-10.0534
▁watched	-10.0541
tho	-10.0543
angle	-10.0543
tti	-10.0546
▁actor	-10.055
▁religion	-10.055
▁signal	-10.0564
▁efforts	-10.0566
pper	-10.0567
▁capture	-10.0571
▁bull	-10.0578
gate	-10.0582
▁climb	-10.0584
▁expand	-10.0586
▁fully	-10.0587
mination	-10.0592
▁minute	-10.0598
▁liberal	-10.0599
▁ended	-10.0607
▁africa	-10.0615
dar	-10.062
▁italian	-10.0633
tors	-10.0637
▁overall	-10.0637
▁tear	-10.0637
▁activities	-10.0641
▁tie	-10.0653
▁wound	-10.0658
▁governor	-10.067
come	-10.0672
▁lee	-10.0684
▁conce	-10.0685
▁kitchen	-10.069
го	-10.0694
long	-10.0694
▁rush	-10.0697
▁competition	-10.0701
▁fans	-10.0705
▁income	-10.0705
nel	-10.0706
tric	-10.0711
▁cities	-10.0714
▁reserve	-10.0716
▁soldiers	-10.0717
▁favor	-10.0721
itude	-10.0723
»	-10.0728
▁previously	-10.0729
▁predict	-10.0732
▁schedule	-10.0735
▁balance	-10.0742
▁assume	-10.0742
▁highly	-10.0759
▁commercial	-10.0781
▁advantage	-10.0786
▁managed	-10.079
▁fruit	-10.0792
▁appeal	-10.0795
▁broken	-10.08
▁speaking	-10.0803
nz	-10.0808
▁thousands	-10.081
▁slightly	-10.0811
▁distinct	-10.0811
▁trees	-10.0813
▁shock	-10.0813
▁tall	-10.0815
▁neither	-10.0815
law	-10.0821
▁chest	-10.0826
ologist	-10.0828
▁background	-10.083
▁latest	-10.0835
augh	-10.0836
án	-10.0837
view	-10.0839
lam	-10.0841
cio	-10.0843
via	-10.0848
▁parliament	-10.085
▁becoming	-10.085
▁blu	-10.0852
til	-10.0854
▁thursday	-10.0854
▁native	-10.086
▁slave	-10.0863
▁bio	-10.0864
voc	-10.0867
▁thor	-10.0877
ي	-10.0879
▁tradition	-10.0885
▁saturday	-10.0888
▁solid	-10.0894
elli	-10.0901
▁mort	-10.0908
ли	-10.0911
▁dad	-10.0914
▁habit	-10.0914
mod	-10.0915
utter	-10.0917
▁sales	-10.092
ł	-10.0931
▁operations	-10.0931
▁dra	-10.0931
▁fourth	-10.0939
▁thousand	-10.094
▁agree	-10.0944
▁steps	-10.0947
migrant	-10.0949
▁canadian	-10.0951
▁nodded	-10.0958
▁traffic	-10.0966
▁authority	-10.0967
ident	-10.0976
▁handle	-10.0981
▁oh	-10.0981
▁leaves	-10.0982
equ	-10.0988
▁mus	-10.099
▁core	-10.0993
▁remind	-10.0999
▁belong	-10.1
▁saint	-10.1001
▁option	-10.1004
▁scientist	-10.1005
▁eastern	-10.1012
▁ensure	-10.1013
ité	-10.1019
▁explained	-10.1024
{	-10.1024
▁neck	-10.1026
▁circle	-10.1028
▁muslim	-10.1028
▁alternative	-10.103
govern	-10.1048
life	-10.1048
ل	-10.1057
し	-10.1064
▁adam	-10.1073
▁emerge	-10.1074
cies	-10.1075
▁wants	-10.1079
count	-10.1081
▁calling	-10.109
▁shared	-10.1101
▁constitution	-10.1104
▁names	-10.1112
uri	-10.1117
▁crisis	-10.1131
▁plate	-10.1138
▁bob	-10.1138
▁guest	-10.1139
ва	-10.1139
▁festival	-10.114
zen	-10.1145
▁describe	-10.1146
▁carry	-10.115
▁pitch	-10.1154
▁gal	-10.1157
▁newspaper	-10.1165
▁mari	-10.1167
▁claims	-10.1168
▁haven	-10.1172
▁scale	-10.1174
▁dropped	-10.1179
▁wednesday	-10.118
lay	-10.1185
key	-10.1186
▁mrs	-10.1189
▁filled	-10.119
ancy	-10.119
▁telling	-10.1203
ira	-10.1207
real	-10.1209
▁storm	-10.1211
▁draft	-10.1224
▁exercise	-10.1225
▁vari	-10.123
▁schools	-10.1231
▁blow	-10.1237
▁coffee	-10.1241
▁fail	-10.1242
▁mostly	-10.1243
▁mess	-10.1244
vil	-10.1245
termin	-10.1245
▁edition	-10.1246
も	-10.125
style	-10.1255
▁hon	-10.1259
ock	-10.1262
▁vin	-10.1263
▁stat	-10.1272
▁jam	-10.1275
which	-10.1275
▁occasion	-10.1278
▁volume	-10.1281
ncia	-10.1282
▁sources	-10.1283
▁britain	-10.1285
then	-10.1287
▁actual	-10.1292
▁gift	-10.1292
print	-10.1293
▁register	-10.1294
▁sentence	-10.1299
▁butter	-10.1302
lect	-10.1304
▁claimed	-10.1305
▁angel	-10.1318
fil	-10.1321
▁gives	-10.1324
▁dig	-10.1327
▁walking	-10.133
plan	-10.1336
▁favorite	-10.1342
▁calls	-10.1344
▁animals	-10.1346
mili	-10.1347
▁survey	-10.1352
▁crew	-10.1354
did	-10.1356
▁context	-10.136
arm	-10.1365
▁attorney	-10.1365
▁discovered	-10.1367
▁software	-10.1369
▁tower	-10.1375
▁bow	-10.1375
▁reasons	-10.1376
▁witness	-10.1376
▁spin	-10.1378
▁cab	-10.1385
▁jean	-10.1389
▁creating	-10.1389
▁convention	-10.139
▁branch	-10.1397
ito	-10.1403
▁element	-10.1406
▁aren	-10.1408
▁stretch	-10.1408
▁individuals	-10.141
▁rapid	-10.141
▁motor	-10.1416
▁chicago	-10.1417
▁enemy	-10.1418
▁ou	-10.1426
▁greek	-10.1431
▁mistake	-10.1437
▁mais	-10.1441
▁insist	-10.1443
▁champion	-10.1444
▁fil	-10.1459
▁grew	-10.1461
▁sm	-10.1463
ground	-10.1482
▁characters	-10.1484
▁compared	-10.1488
▁threaten	-10.1501
ör	-10.1503
▁remove	-10.1508
▁####	-10.1509
▁thin	-10.1515
▁technique	-10.1518
tique	-10.1518
▁obtain	-10.1519
▁advance	-10.152
ч	-10.1523
▁chain	-10.1542
▁involve	-10.1552
▁eine	-10.1557
ş	-10.1558
▁australian	-10.1563
▁encourage	-10.1564
▁reduce	-10.1567
▁fly	-10.1572
▁symbol	-10.1573
▁familiar	-10.1576
▁wheel	-10.1584
▁boys	-10.1595
▁silence	-10.1598
▁meat	-10.16
▁lawyer	-10.1602
▁laws	-10.1604
▁planet	-10.1604
hou	-10.161
gie	-10.1611
idad	-10.1612
▁boot	-10.1617
▁divide	-10.1619
▁pp	-10.162
▁knee	-10.1627
▁edit	-10.1645
▁temple	-10.1651
▁suggested	-10.1652
gui	-10.1654
duction	-10.1654
▁secure	-10.1656
▁ger	-10.1663
▁alter	-10.1663
▁sho	-10.1664
▁glance	-10.1664
▁turning	-10.1675
▁loved	-10.1676
▁hearing	-10.1677
▁promote	-10.1682
▁wealth	-10.1688
▁representative	-10.1693
even	-10.1694
▁premier	-10.1701
▁serving	-10.1703
▁kingdom	-10.1709
▁crack	-10.1712
▁mention	-10.1712
▁session	-10.1713
▁stir	-10.1717
▁aware	-10.1717
bol	-10.1721
ر	-10.1723
▁otherwise	-10.1725
▁province	-10.1732
ball	-10.1741
▁ut	-10.1743
▁lit	-10.1751
▁kiss	-10.1758
▁custom	-10.1758
né	-10.1782
та	-10.1788
▁actions	-10.1797
▁reveal	-10.1798
▁dangerous	-10.1801
▁dinner	-10.1803
▁basis	-10.1804
▁switch	-10.1809
ente	-10.1813
ão	-10.1816
▁initial	-10.1816
▁cash	-10.1818
▁sar	-10.182
state	-10.1821
▁victory	-10.1822
▁aid	-10.1822
▁asking	-10.1832
▁belief	-10.1837
ington	-10.1838
▁smoke	-10.184
▁surprise	-10.1841
▁bud	-10.1843
fra	-10.1844
▁seek	-10.1846
vie	-10.1857
▁giant	-10.1869
type	-10.1869
▁stress	-10.1879
▁closer	-10.188
▁entirely	-10.1881
▁tha	-10.1882
▁finger	-10.1883
▁parties	-10.1885
▁afternoon	-10.1888
▁responsible	-10.1889
temp	-10.1891
▁johnson	-10.1909
▁operate	-10.1911
ن	-10.1922
▁raise	-10.1923
gging	-10.1924
▁gru	-10.1929
▁flash	-10.1933
▁realized	-10.1942
body	-10.1944
▁politician	-10.1945
▁odd	-10.1945
▁budget	-10.1947
take	-10.1949
gri	-10.1949
▁biggest	-10.1949
▁apart	-10.1952
▁troops	-10.1954
gur	-10.1963
aunt	-10.1964
▁narrow	-10.1964
▁strip	-10.1964
bble	-10.1965
▁cancer	-10.1978
во	-10.1979
▁highest	-10.1981
▁temperature	-10.1992
▁failure	-10.1992
▁jewish	-10.1994
▁plain	-10.1995
▁repeated	-10.1998
▁recall	-10.1999
و	-10.2008
friend	-10.2009
▁empty	-10.2009
▁contra	-10.201
stand	-10.201
ending	-10.2011
vy	-10.2011
▁values	-10.2015
psych	-10.2017
▁pieces	-10.2019
▁mai	-10.202
▁goals	-10.2031
▁types	-10.2033
▁fingers	-10.2051
▁jesus	-10.2052
found	-10.2057
▁vice	-10.2058
▁entered	-10.2058
class	-10.2063
ache	-10.2069
uel	-10.207
▁connect	-10.2077
▁folk	-10.2082
▁introduced	-10.2084
ibility	-10.2088
▁swa	-10.2098
▁survive	-10.2105
post	-10.2108
eller	-10.2111
▁shook	-10.2112
pher	-10.2113
▁yellow	-10.212
▁pepper	-10.212
▁replace	-10.2128
ffe	-10.2132
▁youth	-10.2136
duct	-10.2138
▁yu	-10.2143
ula	-10.2144
▁dun	-10.2144
▁nuclear	-10.2144
ت	-10.2147
▁interested	-10.2147
▁variety	-10.2148
▁fox	-10.2153
▁impossible	-10.2156
▁weapons	-10.2162
▁pod	-10.2162
hur	-10.2168
▁tam	-10.2174
pass	-10.2175
▁milk	-10.2178
posit	-10.2178
yeah	-10.218
▁label	-10.2183
box	-10.2184
▁gil	-10.2186
▁keeping	-10.2186
▁motion	-10.2188
▁weather	-10.2191
▁smiled	-10.2191
▁democrats	-10.2197
ка	-10.2197
▁profit	-10.22
▁til	-10.22
▁fix	-10.2205
▁recorded	-10.2213
▁decline	-10.2218
▁formed	-10.2218
▁adding	-10.222
▁dozen	-10.222
▁empire	-10.2223
▁worry	-10.2227
▁disappear	-10.2228
▁sig	-10.2232
▁jan	-10.2232
▁frame	-10.2236
▁на	-10.2242
ump	-10.2243
▁sport	-10.2245
▁tech	-10.2249
wick	-10.2252
▁como	-10.2253
ю	-10.2255
ographic	-10.2262
▁shooting	-10.2264
lé	-10.2268
▁fuel	-10.227
▁originally	-10.2273
▁euro	-10.2287
▁cam	-10.2289
▁dam	-10.2289
▁mike	-10.2291
▁prepared	-10.2294
▁decide	-10.2295
▁align	-10.23
▁elements	-10.2303
lusion	-10.2316
▁planning	-10.2317
vert	-10.2321
▁golden	-10.2329
▁select	-10.2331
▁mentioned	-10.2332
▁medium	-10.2334
▁strategy	-10.234
▁string	-10.2343
▁apply	-10.2354
▁guys	-10.2366
town	-10.2369
▁nick	-10.2376
term	-10.2376
▁decades	-10.238
plo	-10.2381
▁mayor	-10.2399
▁smaller	-10.2403
▁patients	-10.2406
▁shout	-10.2409
▁för	-10.2409
▁reject	-10.2416
▁picked	-10.2417
ación	-10.2423
▁ny	-10.2429
▁leadership	-10.2432
▁sorry	-10.2436
▁soviet	-10.2442
▁matt	-10.2444
hol	-10.2445
▁supply	-10.2453
▁batter	-10.2464
zu	-10.2471
lov	-10.2473
▁airport	-10.2477
ivity	-10.248
▁bush	-10.2485
▁bottle	-10.2488
▁reaction	-10.2497
▁thirty	-10.2504
▁weekend	-10.2504
▁abuse	-10.2505
▁authorities	-10.2505
▁iraq	-10.2509
dig	-10.2522
sight	-10.2523
")	-10.2523
▁net	-10.2524
dom	-10.2527
▁nations	-10.2527
▁talent	-10.253
▁remaining	-10.2533
▁revealed	-10.2538
nate	-10.254
▁cir	-10.2555
▁dish	-10.2563
nan	-10.2563
▁cry	-10.2563
▁manner	-10.2564
▁letters	-10.2564
▁journey	-10.2566
uit	-10.2569
▁wear	-10.2571
comp	-10.2571
▁semi	-10.2572
▁identity	-10.2582
▁ocean	-10.2585
scribe	-10.2586
load	-10.2587
▁pointed	-10.2587
▁consumer	-10.2589
▁km	-10.259
▁offers	-10.2592
▁accident	-10.2593
δ	-10.2595
▁concerned	-10.2609
▁cream	-10.2609
▁removed	-10.2623
▁subsequent	-10.2634
▁sauce	-10.2643
▁internal	-10.2654
tell	-10.2659
▁silent	-10.2668
▁zone	-10.2673
▁edward	-10.2675
▁putting	-10.2682
▁flag	-10.2685
▁catholic	-10.2687
▁fold	-10.2688
▁forget	-10.2696
▁slid	-10.2702
▁buck	-10.2706
▁lips	-10.2709
▁twice	-10.2711
▁egypt	-10.2713
bot	-10.2715
▁presidential	-10.2716
▁massive	-10.2717
▁auf	-10.2719
▁negative	-10.2719
▁useful	-10.2726
▁terror	-10.2727
under	-10.273
▁pool	-10.2739
▁false	-10.275
▁ray	-10.2757
▁height	-10.2767
▁steel	-10.2768
▁chicken	-10.2769
▁opposition	-10.2773
▁olive	-10.2775
▁unless	-10.2783
▁squad	-10.2791
ounce	-10.2793
▁killing	-10.2793
▁adapt	-10.2797
tant	-10.2799
▁cooper	-10.2804
power	-10.2812
▁lui	-10.2816
▁alleged	-10.2817
▁sick	-10.2818
position	-10.2818
▁joy	-10.2819
▁pure	-10.2823
▁supreme	-10.2826
▁grave	-10.2826
▁peak	-10.2828
▁customers	-10.2832
▁upper	-10.2846
conscious	-10.2847
▁apparently	-10.2851
▁hole	-10.2854
▁desk	-10.2857
gin	-10.2858
▁plane	-10.2861
▁painting	-10.2865
▁options	-10.2868
▁florida	-10.287
▁£	-10.2871
▁citizens	-10.2877
▁communities	-10.2881
€	-10.2891
▁error	-10.2894
▁bond	-10.2894
▁journalist	-10.2897
▁truly	-10.29
▁abandon	-10.29
▁mig	-10.2902
▁wearing	-10.2907
▁mexico	-10.2916
▁utili	-10.2917
▁uncle	-10.2918
▁showing	-10.2921
▁tank	-10.2924
▁missing	-10.2925
▁rh	-10.2932
▁replied	-10.294
▁smell	-10.2942
か	-10.2942
▁scientific	-10.2945
▁bodies	-10.2946
▁virginia	-10.2948
▁sail	-10.2949
▁angeles	-10.2957
ello	-10.2961
onic	-10.2961
▁planned	-10.2962
fla	-10.2963
▁fuck	-10.2973
▁producer	-10.2981
esse	-10.2991
▁fro	-10.2994
▁smooth	-10.2999
▁technical	-10.3
▁anyway	-10.3001
▁relations	-10.3005
▁pocket	-10.3005
▁loud	-10.3011
▁patient	-10.3015
▁danger	-10.3015
▁broadcast	-10.3024
▁legs	-10.3025
▁explore	-10.3037
▁elected	-10.3044
kan	-10.3044
prov	-10.3045
▁pic	-10.3047
▁mom	-10.3051
most	-10.3053
nova	-10.3054
free	-10.3056
▁spanish	-10.3059
▁commander	-10.3062
water	-10.3063
▁hate	-10.3067
▁poet	-10.3072
ô	-10.3074
▁republic	-10.3077
▁welcome	-10.308
り	-10.3085
▁labour	-10.3089
▁completed	-10.31
clar	-10.311
▁mun	-10.3112
ctu	-10.3118
ί	-10.3131
▁instant	-10.3142
ш	-10.3158
▁driving	-10.3166
▁jones	-10.3167
▁(@	-10.3171
▁component	-10.3172
▁etc	-10.3172
▁bli	-10.3175
▁ideal	-10.3185
▁winner	-10.3191
▁alive	-10.3194
▁rot	-10.3194
▁knock	-10.3195
▁joseph	-10.3195
▁pushed	-10.3195
▁whisper	-10.3197
▁description	-10.3197
れ	-10.3205
▁din	-10.3216
▁snap	-10.322
▁grin	-10.3224
rig	-10.3225
ño	-10.3229
▁cheese	-10.3231
word	-10.3236
shore	-10.3244
▁launched	-10.3245
iness	-10.3245
ス	-10.3249
те	-10.3257
▁tiny	-10.3258
claim	-10.3263
▁shoot	-10.3269
▁drew	-10.327
▁daniel	-10.3273
▁winning	-10.3284
▁environmental	-10.3284
▁senator	-10.3291
▁exception	-10.3295
▁occ	-10.3296
▁layer	-10.3306
▁correspond	-10.3307
▁joint	-10.3309
▁crash	-10.3313
▁ordered	-10.3318
▁plot	-10.333
american	-10.3331
▁offering	-10.3339
bon	-10.3364
▁restrict	-10.3368
▁gay	-10.3377
▁intended	-10.3377
▁monitor	-10.3382
▁apartment	-10.3384
▁easier	-10.3388
worth	-10.3389
mobil	-10.3394
▁corn	-10.3398
continu	-10.3398
ß	-10.3401
▁kit	-10.341
▁proceed	-10.3412
▁corps	-10.3419
▁vast	-10.3422
▁split	-10.3422
▁rum	-10.3423
▁proposed	-10.3425
will	-10.3425
▁script	-10.3428
▁worst	-10.3429
hm	-10.343
@	-10.343
▁instrument	-10.3433
▁panel	-10.3439
▁palm	-10.3451
▁scott	-10.3455
▁aside	-10.3455
mont	-10.3457
▁mobile	-10.3459
▁visual	-10.346
▁tap	-10.346
▁consult	-10.3469
▁understood	-10.3472
▁compete	-10.3479
▁rent	-10.3481
▁presented	-10.3482
▁obvious	-10.3484
▁directed	-10.3485
▁publication	-10.3491
▁afraid	-10.3495
ule	-10.3496
▁entre	-10.3502
▁gray	-10.3503
lp	-10.3508
fall	-10.351
▁contribute	-10.3512
▁household	-10.3513
▁ignore	-10.3516
▁employees	-10.3518
η	-10.3527
▁grass	-10.3529
「	-10.353
▁pale	-10.3531
▁voters	-10.3534
」	-10.3535
▁identify	-10.3535
▁quote	-10.3539
▁debut	-10.3539
▁package	-10.3551
▁chris	-10.357
▁regional	-10.3581
fc	-10.3582
▁passage	-10.3587
▁gaze	-10.3592
▁pit	-10.3596
▁dollars	-10.3598
▁virtual	-10.3609
hin	-10.3609
kar	-10.3617
▁debt	-10.3618
▁urban	-10.3626
▁truck	-10.3626
▁passion	-10.3628
▁column	-10.3628
▁destroy	-10.3632
▁confirmed	-10.3635
chin	-10.3643
▁afford	-10.3646
▁bread	-10.3648
face	-10.3649
▁fiction	-10.3652
shire	-10.3655
де	-10.3657
▁spending	-10.3674
ça	-10.3684
▁consequence	-10.3686
▁tweet	-10.3689
▁sample	-10.369
▁determined	-10.3693
▁performed	-10.3698
▁assault	-10.37
▁drawing	-10.371
▁ticket	-10.3711
▁sustain	-10.3716
rise	-10.3721
▁gall	-10.3724
quest	-10.3725
▁intention	-10.3729
▁gli	-10.3733
▁extremely	-10.3743
ego	-10.3744
▁existence	-10.3747
▁creature	-10.3747
▁permit	-10.3752
▁creation	-10.3754
▁pilot	-10.376
▁hay	-10.3767
▁equipment	-10.377
š	-10.3779
▁pie	-10.3779
▁researchers	-10.3781
▁opposite	-10.3784
▁contest	-10.3784
▁bitcoin	-10.379
▁bought	-10.3792
mma	-10.3793
▁estate	-10.3796
▁scream	-10.3796
▁contrast	-10.3802
▁beneath	-10.3808
▁illegal	-10.3813
▁combat	-10.3815
æ	-10.3818
▁engineer	-10.3821
▁encounter	-10.3822
▁nearby	-10.3822
aux	-10.3831
abil	-10.3836
▁evil	-10.3838
ć	-10.384
person	-10.3844
▁aircraft	-10.3847
lement	-10.3852
▁items	-10.3856
▁solo	-10.3862
▁noticed	-10.3868
▁possibly	-10.3871
▁generate	-10.3878
▁italy	-10.3887
▁mut	-10.389
▁sul	-10.3891
▁convince	-10.3898
▁wil	-10.3905
▁vac	-10.3907
ude	-10.3912
▁refused	-10.3917
▁elle	-10.3918
▁perspective	-10.3919
▁greatest	-10.3926
▁formal	-10.3932
▁jun	-10.3941
▁server	-10.3948
have	-10.3951
▁wire	-10.3952
▁ker	-10.3958
▁priest	-10.3961
optim	-10.3962
▁decade	-10.3962
ista	-10.3967
ль	-10.3971
▁sword	-10.3974
from	-10.3976
▁clothes	-10.3976
▁nar	-10.3978
▁domestic	-10.3979
▁medicine	-10.3984
jan	-10.3986
▁honest	-10.3989
▁trick	-10.3989
▁somewhere	-10.399
▁fashion	-10.3995
▁payment	-10.3996
▁latin	-10.3997
▁button	-10.3999
▁enable	-10.4009
▁relative	-10.401
▁alex	-10.4021
▁warning	-10.4027
▁poem	-10.4027
ón	-10.4029
▁import	-10.403
▁thi	-10.4031
▁assistant	-10.4032
▁philosophy	-10.4036
▁chamber	-10.4037
nell	-10.404
▁parent	-10.4055
▁prize	-10.4055
▁sector	-10.4057
▁shell	-10.4057
▁appropriate	-10.4069
▁calm	-10.4073
▁phil	-10.4075
▁mir	-10.408
▁sale	-10.4084
う	-10.4086
▁latter	-10.4088
▁convert	-10.4092
▁surprised	-10.4099
▁capacity	-10.4102
на	-10.4105
▁railway	-10.4122
wen	-10.4124
bia	-10.4127
▁sheet	-10.4128
▁obviously	-10.4141
cip	-10.4141
▁tough	-10.4145
▁pad	-10.4146
▁rome	-10.4146
“	-10.4147
ж	-10.4149
▁policies	-10.4154
century	-10.4155
▁stepped	-10.4159
▁manage	-10.4161
▁meanwhile	-10.4162
▁diet	-10.4165
▁navy	-10.4167
▁teaching	-10.4167
▁hip	-10.417
▁replaced	-10.4192
▁arrested	-10.4193
▁argue	-10.4198
▁industrial	-10.4203
eau	-10.4204
▁hide	-10.4204
source	-10.4214
ле	-10.4234
▁ultimately	-10.4237
good	-10.4238
▁tournament	-10.4239
break	-10.4244
▁andrew	-10.4245
▁radi	-10.4248
▁conclusion	-10.4255
▁practical	-10.4257
▁academy	-10.426
ential	-10.4263
?”	-10.4268
ト	-10.4275
▁regulation	-10.428
▁comic	-10.4281
▁grace	-10.4283
▁spell	-10.4285
kel	-10.4288
▁changing	-10.4289
ま	-10.4297
▁numerous	-10.43
▁housing	-10.4303
▁recording	-10.4308
ти	-10.4326
▁gang	-10.4331
▁eating	-10.4335
lash	-10.4338
▁roof	-10.4339
▁sec	-10.4347
▁opponent	-10.4352
▁existing	-10.4354
▁identified	-10.436
▁infant	-10.4362
°	-10.4363
▁kri	-10.4366
▁legend	-10.437
▁scholar	-10.4375
▁teaspoon	-10.4376
▁clinic	-10.4377
イ	-10.4388
ifying	-10.4388
▁realize	-10.4389
▁focused	-10.4393
▁younger	-10.4395
▁blog	-10.4399
chan	-10.4399
valu	-10.4403
▁gentle	-10.4408
<	-10.4411
▁graduate	-10.4412
▁francisco	-10.4415
ère	-10.4416
▁largely	-10.4418
▁emotion	-10.4422
mir	-10.4431
▁adjust	-10.4434
▁passing	-10.4435
▁confirm	-10.4437
circ	-10.4447
▁conclude	-10.4454
▁proposal	-10.4457
ть	-10.4458
▁phase	-10.4459
▁meta	-10.4463
▁dust	-10.4469
▁determine	-10.4473
..."	-10.4484
▁guitar	-10.4489
▁fee	-10.449
▁carefully	-10.4491
▁kha	-10.45
▁marine	-10.4502
▁emotional	-10.4505
▁literature	-10.4506
▁accepted	-10.4509
▁rising	-10.451
▁radical	-10.4527
▁tablespoon	-10.4528
▁christmas	-10.4529
▁usual	-10.4538
▁copy	-10.456
▁corporation	-10.4561
▁assembly	-10.457
▁fundamental	-10.457
▁castle	-10.4571
vision	-10.4572
▁boston	-10.4573
▁unable	-10.4577
▁providing	-10.4582
▁issued	-10.4588
▁dirt	-10.4596
▁possibility	-10.4597
▁tale	-10.4599
▁ireland	-10.4605
high	-10.461
▁academic	-10.4611
▁loan	-10.4611
▁korea	-10.4612
▁detect	-10.4613
▁unfortunate	-10.462
▁funding	-10.4628
▁distribution	-10.4631
▁succeed	-10.465
▁în	-10.4664
curr	-10.4667
▁chan	-10.4671
▁responsibility	-10.4673
gio	-10.4675
▁flour	-10.4684
▁accused	-10.4685
▁pause	-10.4686
▁okay	-10.4688
▁chap	-10.469
▁orange	-10.4693
▁demonstrate	-10.47
▁nose	-10.47
▁favour	-10.4705
▁establish	-10.4706
▁demon	-10.4708
▁severe	-10.471
▁mirror	-10.4715
▁talked	-10.4723
▁merely	-10.4735
exp	-10.4735
γ	-10.4741
▁blind	-10.4744
▁heaven	-10.4754
▁refuge	-10.4759
▁jackson	-10.4766
▁advise	-10.4776
▁carl	-10.4781
▁pipe	-10.4782
▁declared	-10.4797
▁advanced	-10.4804
да	-10.481
▁surrounding	-10.4824
▁cow	-10.4826
after	-10.4832
kov	-10.4834
▁fal	-10.4836
▁trend	-10.4838
▁committed	-10.4841
▁relatively	-10.4841
▁loose	-10.4842
▁manufacture	-10.4848
▁delay	-10.485
▁harry	-10.4853
▁lunch	-10.4854
▁historic	-10.4855
▁somehow	-10.4857
lä	-10.4859
▁assist	-10.4859
▁passenger	-10.486
voir	-10.4863
▁universe	-10.4864
▁importance	-10.4865
hold	-10.4866
()	-10.4867
▁fixed	-10.487
ό	-10.4872
sufficient	-10.488
▁struck	-10.4882
▁logic	-10.4886
て	-10.4886
▁blame	-10.4886
▁highlight	-10.49
▁testing	-10.4904
▁pleasure	-10.4905
▁chose	-10.4923
▁coat	-10.4925
▁irre	-10.4926
▁acquire	-10.4927
▁wake	-10.493
▁medal	-10.4935
▁ال	-10.4935
ción	-10.4944
▁bringing	-10.4947
▁topic	-10.4947
▁muscle	-10.495
▁losing	-10.4964
hawk	-10.4965
▁municipal	-10.4966
pul	-10.4967
ны	-10.497
▁olympic	-10.4971
▁elizabeth	-10.4978
▁iii	-10.4983
▁jar	-10.4988
č	-10.4992
▁applied	-10.5002
▁gender	-10.5002
▁rice	-10.5003
▁permanent	-10.5004
▁ourselves	-10.5007
▁chu	-10.5011
▁nobody	-10.5012
▁mono	-10.5013
▁occurred	-10.5018
▁advice	-10.503
▁allowing	-10.5044
▁colour	-10.5044
▁increasing	-10.5046
▁fool	-10.5056
case	-10.506
▁glad	-10.5066
fire	-10.5067
▁sich	-10.5069
▁israeli	-10.5079
▁weapon	-10.5082
▁comfort	-10.5083
bury	-10.5084
▁laid	-10.5086
▁connected	-10.5087
▁anger	-10.5094
▁drawn	-10.5095
▁extend	-10.5095
▁noise	-10.5096
▁download	-10.5096
▁combined	-10.51
▁irish	-10.5105
▁steam	-10.5109
▁cult	-10.5109
quel	-10.511
round	-10.511
▁nicht	-10.5111
▁theatre	-10.5116
▁admit	-10.512
▁plastic	-10.5124
▁vocal	-10.5124
▁increasingly	-10.5127
▁drum	-10.5137
▁selected	-10.5138
▁appointed	-10.5138
▁combination	-10.5139
▁nut	-10.5149
▁examine	-10.5151
ambi	-10.5153
▁jews	-10.5155
▁flood	-10.5157
▁grown	-10.5157
ла	-10.5158
cott	-10.5172
▁attribu	-10.5172
▁shin	-10.5172
force	-10.5176
▁arrest	-10.518
▁pill	-10.5186
▁react	-10.5188
▁instruction	-10.5189
▁fifth	-10.5189
▁happening	-10.5193
▁cycle	-10.5194
▁bid	-10.5195
other	-10.5195
▁charged	-10.5197
▁healthy	-10.5198
ister	-10.5204
▁bureau	-10.5206
eux	-10.5208
▁slice	-10.5209
itz	-10.521
▁principal	-10.5213
media	-10.5214
▁protein	-10.5222
▁confi	-10.5229
▁violent	-10.523
▁fighter	-10.5231
▁prospect	-10.5234
constitu	-10.5243
▁initially	-10.5244
▁wolf	-10.5253
turn	-10.5255
▁hind	-10.5258
▁neighborhood	-10.5259
▁plenty	-10.5263
viv	-10.5268
link	-10.527
▁angry	-10.528
cade	-10.5281
▁pakistan	-10.5283
▁participate	-10.5299
▁yards	-10.5305
▁narrative	-10.5308
▁desert	-10.5308
▁finance	-10.5313
▁cheap	-10.5313
▁recipe	-10.5314
▁universal	-10.5325
para	-10.5326
▁emergency	-10.5328
▁highway	-10.533
▁copyright	-10.5334
▁activist	-10.5338
▁consistent	-10.5338
▁extended	-10.5341
▁mé	-10.5341
▁kim	-10.5347
▁relief	-10.5347
▁vegetable	-10.5351
ά	-10.5361
ière	-10.5362
▁creative	-10.5364
berry	-10.5367
▁attitude	-10.5367
amente	-10.5369
wait	-10.5375
▁proud	-10.5388
▁teeth	-10.5392
î	-10.5402
▁license	-10.541
▁gap	-10.5413
▁holy	-10.5418
▁chemical	-10.5426
έ	-10.5429
▁dragon	-10.5433
▁simon	-10.5438
▁speaker	-10.5443
▁duty	-10.5445
▁carrying	-10.5449
▁reward	-10.5456
▁jane	-10.5459
uous	-10.5462
foot	-10.5465
▁acknowledge	-10.5466
▁hardly	-10.5467
▁carolina	-10.5468
▁settlement	-10.5471
▁hack	-10.5474
action	-10.5476
▁beauty	-10.5482
▁reduced	-10.5486
ь	-10.5489
mag	-10.549
▁random	-10.5491
▁flying	-10.5495
▁cave	-10.5502
▁facing	-10.5511
▁stephen	-10.5515
▁singer	-10.5522
▁laughed	-10.5523
▁excellent	-10.5525
▁programme	-10.5526
▁format	-10.553
▁trace	-10.553
▁twist	-10.5531
▁rival	-10.554
▁operating	-10.5546
▁chairman	-10.5554
▁gran	-10.5557
▁typically	-10.5563
\\	-10.5563
hab	-10.5563
asse	-10.5565
▁represented	-10.5573
▁sought	-10.5581
▁wage	-10.5582
▁taught	-10.5585
▁definitely	-10.5586
▁sau	-10.5598
▁insurance	-10.5598
▁amazing	-10.5599
▁wir	-10.56
▁recognize	-10.5601
▁territory	-10.5613
▁hidden	-10.5615
▁absolutely	-10.5616
▁spar	-10.5618
two	-10.5624
▁recognized	-10.5634
▁jen	-10.5641
▁demo	-10.5647
▁scan	-10.565
▁ministry	-10.5655
▁slip	-10.5658
▁classes	-10.566
▁electronic	-10.5679
▁regime	-10.5694
▁precise	-10.5697
▁spiritual	-10.5703
▁drama	-10.5714
▁portion	-10.5715
▁avec	-10.5732
▁kur	-10.5736
▁wie	-10.5738
▁steve	-10.5739
▁islam	-10.5742
▁rip	-10.5744
▁musical	-10.5745
▁rail	-10.5748
▁más	-10.5757
motiv	-10.5761
brook	-10.5768
▁suffered	-10.5776
▁palace	-10.578
▁observe	-10.5789
ب	-10.5791
▁expressed	-10.5792
▁drag	-10.5793
▁pré	-10.5795
▁kon	-10.5806
▁unknown	-10.5807
▁throat	-10.5807
▁neighbor	-10.581
▁extreme	-10.5812
▁circumstances	-10.5814
▁jeff	-10.582
▁resistance	-10.5821
▁admitted	-10.5826
▁knight	-10.5827
▁mixed	-10.584
▁chosen	-10.5841
▁breast	-10.5844
▁regarding	-10.5846
▁businesses	-10.585
ω	-10.5851
▁barely	-10.5853
▁plea	-10.586
だ	-10.5863
ве	-10.5864
▁lying	-10.5867
▁bishop	-10.587
▁fbi	-10.5872
▁specifically	-10.5873
▁featured	-10.5878
▁contribution	-10.5878
▁twin	-10.5881
fri	-10.5884
▁liquid	-10.5888
ō	-10.589
▁entry	-10.5891
د	-10.5896
ür	-10.5898
▁referred	-10.5899
▁lesson	-10.5901
▁definition	-10.5903
▁introduction	-10.5909
gress	-10.5921
▁transition	-10.5925
▁frequently	-10.5928
▁harris	-10.593
ibly	-10.5932
▁pap	-10.594
▁damn	-10.5945
▁joke	-10.5951
▁contemporary	-10.5953
▁avenue	-10.5957
▁lang	-10.5958
isation	-10.5959
▁alexander	-10.5966
▁raw	-10.5973
▁bien	-10.5982
mill	-10.5985
▁albert	-10.5989
▁citizen	-10.599
▁celebrate	-10.5991
▁defined	-10.5997
▁selection	-10.601
år	-10.601
▁boss	-10.6011
▁studied	-10.6017
▁arrive	-10.6019
▁valid	-10.602
▁seeking	-10.6028
▁victoria	-10.6032
▁boil	-10.6032
▁suppose	-10.6034
▁terra	-10.6035
▁wonderful	-10.6037
▁surprising	-10.6037
▁pace	-10.6042
▁veteran	-10.6048
▁turkey	-10.6055
▁brazil	-10.6056
▁crown	-10.606
▁spain	-10.606
▁profile	-10.6061
▁suffering	-10.6063
▁adventure	-10.6064
▁terrible	-10.608
▁mile	-10.6087
く	-10.6091
▁capable	-10.6102
▁voi	-10.6104
erie	-10.6112
▁fought	-10.6113
▁grade	-10.6114
▁revenue	-10.6119
▁chip	-10.6121
▁index	-10.6121
▁seriously	-10.6126
▁destroyed	-10.613
▁criticism	-10.6131
▁darkness	-10.6138
ки	-10.614
dale	-10.6142
▁juice	-10.616
▁worried	-10.616
▁formula	-10.6162
▁zero	-10.6167
▁injury	-10.6188
jun	-10.6193
▁dramatic	-10.6198
script	-10.6213
▁baseball	-10.6223
vul	-10.6228
▁concert	-10.6231
▁confront	-10.6231
▁jon	-10.6234
▁deeply	-10.6236
efficient	-10.6239
▁repeat	-10.6246
▁variable	-10.626
▁busy	-10.6261
▁bigger	-10.6264
▁scheme	-10.6271
ル	-10.6276
▁argued	-10.6278
▁duke	-10.6278
lick	-10.6281
▁oak	-10.6282
▁georgia	-10.6284
jor	-10.6287
ло	-10.6287
▁procedure	-10.629
▁kra	-10.6291
▁campus	-10.6291
▁santa	-10.6293
though	-10.6295
▁widely	-10.6303
▁resist	-10.6311
▁opera	-10.6312
▁everybody	-10.6316
▁corrupt	-10.6317
▁deploy	-10.632
▁fleet	-10.6323
▁confidence	-10.6327
▁prof	-10.6341
▁expensive	-10.6343
▁tomorrow	-10.6349
▁kir	-10.6351
▁alongside	-10.6352
▁tag	-10.6356
▁uniform	-10.6364
▁collapse	-10.6367
▁stadium	-10.6374
▁jail	-10.6378
▁alcohol	-10.638
▁external	-10.6382
▁approximately	-10.6384
▁somewhat	-10.6386
note	-10.6398
▁mul	-10.6399
ме	-10.6402
▁spark	-10.6404
▁prompt	-10.6404
direct	-10.6407
ら	-10.6409
▁crazy	-10.6415
▁drove	-10.6417
▁intellectual	-10.6421
▁pacific	-10.6435
▁possess	-10.6438
issa	-10.6442
▁accomplish	-10.6444
▁shake	-10.6448
▁landscape	-10.6451
▁lind	-10.6456
scription	-10.6463
▁immigration	-10.6467
▁kom	-10.647
▁ruin	-10.6477
▁philip	-10.6479
far	-10.6483
▁alien	-10.6489
▁explanation	-10.6491
text	-10.6492
world	-10.6495
▁sweat	-10.6495
▁interior	-10.6497
▁margin	-10.6503
▁solar	-10.6505
▁architect	-10.6507
ù	-10.6521
▁maria	-10.6521
▁nurse	-10.6521
το	-10.6524
▁cake	-10.6524
oph	-10.6534
▁rescue	-10.6537
▁für	-10.6538
related	-10.6542
した	-10.6542
▁teach	-10.6544
▁engineering	-10.6553
▁transaction	-10.6578
▁settled	-10.6581
▁publisher	-10.6582
aria	-10.6584
rais	-10.6585
▁cheek	-10.6588
▁terrorist	-10.6591
▁jersey	-10.6592
▁raid	-10.6604
▁unusual	-10.6605
▁echo	-10.6606
▁translation	-10.6612
▁legislation	-10.662
▁oxford	-10.663
▁zealand	-10.6631
▁oct	-10.6632
▁mechanic	-10.6639
▁elder	-10.6648
▁outcome	-10.6651
▁permission	-10.6656
▁ryan	-10.6663
▁anywhere	-10.6666
▁alliance	-10.6671
▁observed	-10.6684
▁amazon	-10.6689
season	-10.6691
▁recruit	-10.6694
▁descend	-10.6695
▁mask	-10.6695
▁berlin	-10.6698
▁interpret	-10.6699
▁educa	-10.6699
▁ghost	-10.6702
▁entrance	-10.6707
bru	-10.6711
▁holiday	-10.6711
▁wilson	-10.6733
ん	-10.6734
υ	-10.6739
▁victor	-10.6743
▁faster	-10.6748
▁brush	-10.675
▁democracy	-10.6753
▁mixture	-10.6757
▁acid	-10.6759
▁neu	-10.6762
▁trigger	-10.6764
▁offensive	-10.6768
▁hook	-10.6768
▁heavily	-10.6771
▁guarantee	-10.6772
▁villa	-10.6773
▁rural	-10.6774
▁immediate	-10.6778
▁volunteer	-10.6788
▁twelve	-10.6791
▁exclusive	-10.6796
▁fifty	-10.6796
align	-10.6798
▁islamic	-10.6799
▁theater	-10.6806
▁counsel	-10.6807
▁grip	-10.6831
▁characteristic	-10.6841
corr	-10.6844
▁solve	-10.6846
burn	-10.6859
▁imperial	-10.6863
▁dynamic	-10.6865
▁communist	-10.6871
▁proof	-10.6874
▁quo	-10.6878
▁clark	-10.6882
▁improvement	-10.6887
▁breakfast	-10.6888
äl	-10.689
▁loop	-10.6904
▁toronto	-10.6906
▁withdraw	-10.6906
▁taylor	-10.6907
▁confident	-10.6913
▁comfortable	-10.6917
▁advocate	-10.692
▁prayer	-10.6925
▁superior	-10.6939
▁entertainment	-10.6944
called	-10.6951
▁carbon	-10.6951
あ	-10.6954
stead	-10.6958
▁opportunities	-10.6966
continent	-10.6968
ggle	-10.697
ри	-10.6974
▁bath	-10.6975
▁knife	-10.6976
き	-10.6976
▁bike	-10.6977
nico	-10.6981
▁defence	-10.6982
▁grey	-10.6984
▁neuro	-10.6984
html	-10.6986
▁manifest	-10.6988
ña	-10.699
▁lion	-10.6993
до	-10.6997
▁rebel	-10.7004
▁perfectly	-10.7013
▁depth	-10.7013
▁prominent	-10.7019
▁ibid	-10.7034
▁relax	-10.7036
medic	-10.7043
▁remote	-10.7045
▁phrase	-10.7057
holder	-10.7065
▁deserve	-10.7081
▁chocolate	-10.7083
▁distinguish	-10.7085
▁formation	-10.7088
▁commitment	-10.7089
▁warrior	-10.7112
bound	-10.7114
▁cambridge	-10.7122
▁storage	-10.7133
▁eric	-10.7144
open	-10.7145
▁threw	-10.7152
▁properties	-10.7157
ми	-10.7172
▁supporters	-10.7173
▁gear	-10.718
▁flame	-10.718
▁tactic	-10.7181
▁defensive	-10.7182
ου	-10.7188
game	-10.7188
flow	-10.7191
boo	-10.7193
▁desperate	-10.7195
▁emperor	-10.7198
▁gau	-10.7202
▁mum	-10.7205
▁casual	-10.721
▁customer	-10.7217
▁disorder	-10.7218
▁retain	-10.7226
▁accurate	-10.7232
▁roger	-10.7232
▁stuck	-10.7233
▁initiative	-10.7235
▁praise	-10.7237
▁mcca	-10.7239
ع	-10.7242
▁visible	-10.7249
▁flavor	-10.7255
▁privacy	-10.7258
▁fallen	-10.726
▁opposed	-10.7269
▁tape	-10.7279
▁coverage	-10.7284
course	-10.7285
▁preserve	-10.7286
▁objective	-10.7288
▁bitter	-10.7292
ви	-10.7295
▁advertisement	-10.73
▁vietnam	-10.73
▁architecture	-10.7308
▁thread	-10.7313
▁polish	-10.7318
▁dedicated	-10.732
▁gallery	-10.7323
▁assert	-10.7325
▁extent	-10.7337
▁poetry	-10.7344
▁careful	-10.7345
▁soldier	-10.7349
▁tired	-10.7351
trans	-10.7365
▁organized	-10.7372
slav	-10.7375
ação	-10.7376
▁loyal	-10.7377
shot	-10.7378
▁enforcement	-10.7379
priv	-10.738
▁resolution	-10.7387
▁pink	-10.7393
▁vessel	-10.7396
▁cutting	-10.7401
▁sequence	-10.7407
ț	-10.7411
▁prepare	-10.7415
▁fifteen	-10.7423
▁junior	-10.7424
thank	-10.7425
astic	-10.7427
franc	-10.7435
▁exploit	-10.7438
▁hoping	-10.7442
▁trading	-10.7443
▁settle	-10.7444
▁ohio	-10.7457
▁independence	-10.7457
▁inspired	-10.7465
▁bullet	-10.7466
▁guilty	-10.7474
▁excited	-10.7475
▁stake	-10.7477
▁civilian	-10.7477
▁steal	-10.7478
▁tension	-10.7479
▁horror	-10.7481
immun	-10.7482
▁grim	-10.7485
ه	-10.7488
▁nazi	-10.7491
▁monster	-10.7494
▁hunter	-10.7497
че	-10.75
▁michigan	-10.7509
▁retail	-10.7511
▁extract	-10.7524
▁stri	-10.7534
heim	-10.7534
ș	-10.7535
す	-10.7537
▁drain	-10.7541
▁expansion	-10.7543
▁horizon	-10.7556
▁tongue	-10.7566
▁mood	-10.7567
close	-10.7569
▁wore	-10.7594
▁vous	-10.7606
▁suicide	-10.7606
▁centuries	-10.7613
▁sudden	-10.7614
▁literary	-10.762
▁servant	-10.7622
▁reputation	-10.7629
left	-10.7642
▁essay	-10.7652
▁automat	-10.766
▁wooden	-10.7663
▁dutch	-10.7668
hara	-10.7668
的	-10.7669
▁scotland	-10.7673
▁somebody	-10.7675
▁extensive	-10.7675
publish	-10.7677
▁relation	-10.7678
▁appreciate	-10.7705
▁robot	-10.7712
▁observation	-10.7714
build	-10.7717
▁fault	-10.772
▁lemon	-10.7723
▁yesterday	-10.7724
metric	-10.7734
▁extension	-10.7735
▁cancel	-10.7738
people	-10.7744
▁sanders	-10.7754
▁minimum	-10.7768
level	-10.7773
▁davis	-10.778
▁const	-10.7787
мо	-10.7792
▁brian	-10.7793
front	-10.7795
▁everywhere	-10.7804
▁facilities	-10.7805
▁tourist	-10.7808
こ	-10.7817
▁tribe	-10.7817
▁personnel	-10.7821
ц	-10.7822
about	-10.7825
guard	-10.7832
▁excess	-10.7832
▁hint	-10.7832
▁provision	-10.7843
ッ	-10.7847
▁blend	-10.7859
▁flesh	-10.7864
qualifi	-10.7888
して	-10.7889
▁creek	-10.7894
space	-10.7896
▁thu	-10.7898
▁rough	-10.7898
fasci	-10.7898
quin	-10.79
▁mechanism	-10.7906
▁resolve	-10.7911
▁stupid	-10.7911
▁alarm	-10.7915
▁pig	-10.7916
▁intense	-10.7923
▁bug	-10.7929
▁primarily	-10.7931
▁infrastructure	-10.7944
▁warned	-10.7951
▁deputy	-10.7957
▁honour	-10.7964
figure	-10.7964
ラ	-10.7975
▁basketball	-10.7978
▁comparison	-10.7981
リ	-10.7982
qué	-10.7986
▁lieutenant	-10.7987
▁disturb	-10.7994
▁associate	-10.7995
▁progressive	-10.7996
▁collective	-10.8
▁chill	-10.8005
▁cabinet	-10.8012
▁stomach	-10.8014
weight	-10.8021
▁interaction	-10.804
▁sponsor	-10.8048
▁define	-10.8048
▁impression	-10.805
▁powder	-10.8056
▁bbc	-10.8064
▁nervous	-10.8066
ço	-10.807
▁promotion	-10.8072
▁receiving	-10.8077
▁wedding	-10.8078
▁elsewhere	-10.8084
▁nfl	-10.8089
▁burst	-10.8096
▁export	-10.8098
▁honey	-10.8098
making	-10.8109
▁roughly	-10.8117
▁strict	-10.8124
θ	-10.8127
▁establishment	-10.8131
▁facility	-10.8133
▁approved	-10.8135
lop	-10.8135
crit	-10.8137
▁retired	-10.8138
because	-10.8139
▁pursue	-10.814
quality	-10.8143
▁exact	-10.8147
▁elite	-10.8148
▁за	-10.8156
liter	-10.8159
▁historian	-10.8161
▁genetic	-10.8166
▁arthur	-10.8168
▁ease	-10.8168
walk	-10.8171
▁vital	-10.8174
▁publishing	-10.8175
▁enormous	-10.8177
▁shield	-10.8178
▁buried	-10.8189
▁enhance	-10.8197
▁arrival	-10.8201
ę	-10.8205
▁korean	-10.8205
▁yield	-10.8206
▁uncertain	-10.8214
▁mexican	-10.822
▁pump	-10.8225
▁database	-10.8226
▁repair	-10.8231
▁sarah	-10.8241
▁companion	-10.825
▁jordan	-10.8253
よ	-10.8253
▁gently	-10.8258
▁kun	-10.8266
▁boost	-10.8281
▁injured	-10.829
▁amendment	-10.8291
▁operator	-10.8294
▁shelter	-10.8296
▁possession	-10.8304
ア	-10.8304
▁recognition	-10.8313
▁denied	-10.8314
▁anymore	-10.8317
color	-10.8327
▁domain	-10.833
▁visitors	-10.833
▁lewis	-10.833
▁depict	-10.8337
▁alert	-10.834
▁pennsylvania	-10.8342
▁sharing	-10.8351
▁shoes	-10.8356
▁gotten	-10.8361
▁blade	-10.8365
▁routine	-10.8367
▁pretend	-10.8377
ulating	-10.8378
▁exposed	-10.838
▁rifle	-10.8383
▁distribute	-10.8384
▁combine	-10.8392
▁pride	-10.8393
▁cousin	-10.8394
▁steven	-10.8409
▁fond	-10.8411
▁agencies	-10.8423
▁oven	-10.8424
▁exhaust	-10.8427
▁clip	-10.8431
national	-10.8443
▁investigate	-10.8444
▁bible	-10.8452
ма	-10.8459
ф	-10.8463
▁scrap	-10.8463
▁chopped	-10.8464
щ	-10.8474
white	-10.848
▁whit	-10.8483
watch	-10.8486
▁dispute	-10.8515
▁moscow	-10.8525
▁ordinary	-10.8526
▁youtube	-10.8529
„	-10.8534
▁regiment	-10.8534
▁necessarily	-10.8541
▁disaster	-10.8542
▁arrangement	-10.855
▁patch	-10.8558
▁shame	-10.8559
▁partnership	-10.8567
histori	-10.8569
▁skull	-10.8569
▁census	-10.857
▁psycho	-10.8572
▁michel	-10.8575
▁dawn	-10.86
▁ruling	-10.8603
▁judgment	-10.8605
▁rabbi	-10.8607
▁tyr	-10.8607
▁maximum	-10.8609
▁embrace	-10.8615
▁gesture	-10.8618
▁fabric	-10.8626
▁hollywood	-10.8635
▁hyper	-10.8636
▁rational	-10.8636
known	-10.8638
ž	-10.8644
▁blockchain	-10.8664
▁voting	-10.8673
ç	-10.8681
▁organisation	-10.8685
child	-10.8689
▁francis	-10.869
▁cette	-10.8701
▁percentage	-10.8704
▁jacob	-10.8712
▁robb	-10.8713
▁lecture	-10.8729
▁não	-10.873
▁garlic	-10.8731
▁wander	-10.8741
être	-10.8747
▁pub	-10.8758
▁palestinian	-10.876
▁resort	-10.8764
▁coalition	-10.8768
ī	-10.8773
▁salad	-10.8787
人	-10.8789
▁categori	-10.8791
▁kong	-10.8793
▁childhood	-10.8794
τα	-10.8806
▁missile	-10.8815
▁relevant	-10.8818
illustr	-10.8824
▁causing	-10.8826
▁assistance	-10.8831
▁parallel	-10.884
▁wrap	-10.884
▁attached	-10.8844
▁poverty	-10.8845
▁strategic	-10.8849
▁participants	-10.8849
се	-10.8854
▁bedroom	-10.8854
▁archive	-10.8871
▁execute	-10.8884
▁circuit	-10.8887
▁confess	-10.89
▁kelly	-10.8905
▁crush	-10.8919
▁cinema	-10.8921
▁drunk	-10.8928
▁controlled	-10.8929
▁funny	-10.894
▁tunnel	-10.8945
▁columbia	-10.8965
first	-10.8965
reuters	-10.8969
▁enemies	-10.8975
▁depression	-10.8975
ą	-10.8978
▁punch	-10.898
▁commit	-10.898
▁assets	-10.8983
▁awake	-10.8987
autre	-10.8988
phon	-10.8989
▁valuable	-10.8991
する	-10.8993
χ	-10.8994
impl	-10.9
▁graphic	-10.9008
▁racing	-10.902
▁leaf	-10.9037
▁substantial	-10.9046
▁atmosphere	-10.9049
ク	-10.9053
▁literally	-10.9057
present	-10.906
▁interpretation	-10.9061
▁absence	-10.9065
vu	-10.907
▁headquarters	-10.9085
▁memorial	-10.909
▁eliminate	-10.9091
▁intent	-10.9101
▁exhibit	-10.911
▁destruction	-10.9111
そ	-10.9112
▁curious	-10.9114
▁saudi	-10.9117
▁consciousness	-10.9119
▁poison	-10.9119
った	-10.9123
▁microsoft	-10.9128
«	-10.9133
▁racial	-10.9138
▁bgcolor	-10.9138
▁lincoln	-10.9141
▁heritage	-10.9157
▁crucial	-10.916
▁kennedy	-10.9161
ся	-10.9165
▁announcement	-10.9165
▁array	-10.9169
▁hydro	-10.9173
▁matthew	-10.9176
▁sacrifice	-10.9184
ţ	-10.919
▁investors	-10.9194
▁philadelphia	-10.9202
▁expense	-10.9212
gov	-10.9214
▁surrounded	-10.9214
▁filter	-10.9214
▁fantasy	-10.9215
▁memories	-10.9218
control	-10.9225
vä	-10.9229
▁enterprise	-10.9232
▁variation	-10.9241
crypt	-10.9242
▁equivalent	-10.9247
▁forgotten	-10.9247
▁tang	-10.9248
▁bloom	-10.925
об	-10.9259
particip	-10.9273
▁#####	-10.9281
▁occasionally	-10.9288
▁audio	-10.9297
▁substance	-10.9306
▁ongoing	-10.9313
▁assessment	-10.9316
ää	-10.9333
▁venture	-10.9346
▁plum	-10.9353
▁ritual	-10.9358
▁scenario	-10.936
▁hockey	-10.938
け	-10.938
était	-10.9386
▁genuine	-10.9399
▁neighbour	-10.941
▁basically	-10.9418
▁statistics	-10.9419
▁default	-10.9421
▁concrete	-10.9429
▁approval	-10.9439
▁peu	-10.9445
▁persist	-10.9446
ف	-10.9447
▁registr	-10.9448
▁grabbed	-10.9458
▁athletic	-10.9466
▁fortune	-10.9474
▁achievement	-10.948
▁morris	-10.9482
▁beast	-10.9486
~	-10.9487
▁nevertheless	-10.9494
▁downtown	-10.9494
▁aggressive	-10.9523
ciones	-10.9525
▁prohibit	-10.9528
▁marijuana	-10.9535
đ	-10.954
▁framework	-10.9542
▁impressive	-10.9543
▁blast	-10.9544
=#	-10.9546
▁pav	-10.9556
▁kevin	-10.956
change	-10.9564
▁crystal	-10.9567
▁illness	-10.9578
▁reception	-10.958
▁assigned	-10.9583
▁privilege	-10.9589
▁electro	-10.959
▁negotiation	-10.959
▁hypo	-10.9591
▁flip	-10.9599
▁stairs	-10.9606
′	-10.9608
▁evident	-10.9617
▁preparation	-10.962
▁interrupt	-10.9624
▁anthony	-10.963
▁discipline	-10.9648
▁virus	-10.9661
▁shopping	-10.9665
▁piano	-10.9666
▁divine	-10.9666
▁apparent	-10.9675
univers	-10.9678
▁hillary	-10.9689
▁continuing	-10.9697
▁impose	-10.9699
▁condemn	-10.9705
▁ultimate	-10.971
ة	-10.971
▁lobby	-10.9714
▁actress	-10.9719
▁ought	-10.9735
ś	-10.9735
▁technologies	-10.9741
▁composition	-10.975
▁closing	-10.9753
▁audit	-10.9753
morph	-10.976
▁absolute	-10.9762
▁innovation	-10.9767
▁charlie	-10.977
▁lawsuit	-10.9772
▁moore	-10.9779
▁employment	-10.9781
▁swift	-10.9781
▁chuck	-10.9785
▁prosecutor	-10.9812
scale	-10.9812
▁---|---	-10.9817
▁retreat	-10.9839
▁proportion	-10.9841
▁exposure	-10.9848
▁pru	-10.9851
ている	-10.9855
ż	-10.9856
▁illustrate	-10.9858
▁distant	-10.9861
twitter	-10.9865
▁eager	-10.9871
anthrop	-10.9887
mount	-10.9891
▁composed	-10.9917
▁swallow	-10.9921
▁ambassador	-10.9923
ру	-10.9924
▁wisdom	-10.9924
▁colonel	-10.9925
▁raising	-10.9926
eight	-10.993
▁leather	-10.9931
▁eagle	-10.9932
▁detective	-10.9933
▁cease	-10.9936
▁assassin	-10.9939
▁austria	-10.9944
▁competitive	-10.9944
▁cigarette	-10.9957
日	-10.9967
▁walter	-10.9968
▁atlantic	-10.9972
ди	-10.9973
▁regret	-10.9975
▁suburb	-10.9977
س	-10.998
▁segment	-10.9987
stock	-10.9997
writer	-11.0005
▁intervention	-11.0008
toxic	-11.001
▁colonial	-11.0011
mouth	-11.0013
▁whisk	-11.0014
onym	-11.0018
▁ethnic	-11.0019
▁eleven	-11.0033
©	-11.0039
▁injuries	-11.0039
▁statue	-11.0045
▁weird	-11.0046
▁monument	-11.0046
▁colorado	-11.0063
▁marvel	-11.0063
▁compound	-11.0072
же	-11.0072
▁innocent	-11.0076
▁portrait	-11.0083
▁baking	-11.01
▁regardless	-11.0106
▁patrol	-11.0126
▁cricket	-11.0126
▁fraud	-11.0126
▁summit	-11.0129
▁courage	-11.0134
▁bathroom	-11.014
▁scottish	-11.0147
▁exhibition	-11.0155
▁cliff	-11.0163
си	-11.0171
▁interface	-11.018
▁über	-11.0187
▁arizona	-11.0198
▁ukraine	-11.0201
▁brilliant	-11.0216
▁morgan	-11.0223
▁supplies	-11.0241
▁birthday	-11.0243
▁programming	-11.0245
▁jacket	-11.0248
▁borrow	-11.0251
▁complicated	-11.0257
▁involving	-11.0257
▁brun	-11.0262
▁anxiety	-11.0263
▁satellite	-11.0265
▁awareness	-11.0269
▁про	-11.0276
▁sydney	-11.0283
▁eighteen	-11.0286
▁barrier	-11.0292
▁afghanistan	-11.0309
▁torture	-11.0315
▁invasion	-11.0334
▁sanction	-11.0335
▁explicit	-11.0348
▁whip	-11.0349
▁sentiment	-11.0351
▁dimension	-11.0358
▁liberty	-11.0364
▁protocol	-11.0365
▁patrick	-11.0374
▁disagree	-11.0382
▁mystery	-11.0388
▁execution	-11.0389
▁worship	-11.0389
▁tackle	-11.039
▁houston	-11.0393
▁orchestra	-11.0402
▁refuse	-11.0422
って	-11.0437
▁flick	-11.0444
ない	-11.0456
▁massachusetts	-11.0457
▁accord	-11.0457
▁worldwide	-11.0458
▁agenda	-11.046
▁abortion	-11.0464
▁neutral	-11.0486
▁concentration	-11.049
×	-11.0497
▁decrease	-11.0499
▁destination	-11.0502
▁currency	-11.0515
▁drift	-11.0516
▁telephone	-11.0526
crimin	-11.0527
▁psychological	-11.0533
▁frown	-11.0537
ك	-11.0539
こと	-11.054
black	-11.0542
▁excuse	-11.0548
▁patriot	-11.0552
▁occupation	-11.0555
ή	-11.0556
three	-11.0572
▁diese	-11.0588
▁abstract	-11.0596
▁cluster	-11.0603
▁analyst	-11.0604
▁authentic	-11.0606
−	-11.061
▁scandal	-11.0644
▁merchant	-11.0644
▁unexpected	-11.0646
▁anderson	-11.065
▁jewel	-11.0658
▁featuring	-11.0663
▁anchor	-11.0677
▁advertising	-11.0679
proxim	-11.068
▁dispos	-11.0689
▁advisor	-11.069
shaw	-11.0691
φ	-11.0698
$$	-11.0702
▁legacy	-11.0702
▁treasure	-11.071
▁disrupt	-11.0713
▁spokesman	-11.0713
▁sensor	-11.0717
▁organize	-11.0723
▁gonna	-11.0724
▁perception	-11.0724
▁thunder	-11.0746
▁stroke	-11.0749
fight	-11.0758
▁concentrate	-11.0778
▁witch	-11.0801
piece	-11.0802
▁wrapped	-11.0806
▁behaviour	-11.0812
▁assess	-11.0815
▁appointment	-11.0822
さ	-11.1173
ی	-11.1242
・	-11.1279
ど	-11.1333
¿	-11.1406
タ	-11.1414
ύ	-11.1421
ò	-11.1468
大	-11.147
·	-11.1633
え	-11.1643
め	-11.1854
ド	-11.1909
や	-11.1913
ğ	-11.1943
ū	-11.1953
β	-11.1961
一	-11.2045
年	-11.2067
ा	-11.2117
プ	-11.2307
シ	-11.2545
つ	-11.2645
ë	-11.2907
י	-11.3247
œ	-11.3382
ロ	-11.3442
û	-11.3478
レ	-11.3642
お	-11.3642
わ	-11.3714
^	-11.3808
フ	-11.388
ï	-11.395
ו	-11.3961
†	-11.4024
ش	-11.4071
ñ	-11.408
ì	-11.4081
ق	-11.4145
中	-11.4178
上	-11.4265
ち	-11.4435
ح	-11.4527
ジ	-11.4536
国	-11.4799
‐	-11.494
ξ	-11.5134
ώ	-11.5138
テ	-11.5333
カ	-11.5349
本	-11.5357
メ	-11.5372
र	-11.5469
っ	-11.5476
出	-11.5485
क	-11.5494
ム	-11.5535
コ	-11.5545
マ	-11.5576
‘	-11.5796
ἐ	-11.581
े	-11.585
せ	-11.5897
み	-11.5963
者	-11.5975
月	-11.6089
э	-11.6147
ج	-11.6276
ě	-11.6457
ה	-11.648
デ	-11.6491
時	-11.6981
会	-11.701
أ	-11.7026
バ	-11.713
グ	-11.7173
õ	-11.7182
サ	-11.7205
発	-11.7207
生	-11.7233
ư	-11.7281
行	-11.7343
خ	-11.7388
事	-11.7428
分	-11.7586
ἀ	-11.7669
ィ	-11.7688
不	-11.7851
自	-11.7866
用	-11.7873
ń	-11.7967
性	-11.8172
間	-11.8232
ز	-11.8309
キ	-11.8332
ば	-11.8368
見	-11.8409
→	-11.8471
ص	-11.8482
█	-11.8613
作	-11.8824
チ	-11.8845
¡	-11.8853
ブ	-11.8853
§	-11.8886
ל	-11.9102
ї	-11.9127
ウ	-11.9127
─	-11.9171
じ	-11.9208
ろ	-11.9327
子	-11.9347
場	-11.9355
ャ	-11.9397
ى	-11.942
ר	-11.9587
方	-11.9675
ý	-11.971
在	-11.9719
®	-11.9731
ी	-11.9734
合	-11.9752
्	-11.9757
ニ	-11.9766
同	-11.9773
オ	-11.9874
ュ	-11.9885
ビ	-11.9894
स	-11.9946
定	-11.9958
入	-11.9964
ő	-12.0125
न	-12.0131
♦	-12.0147
ř	-12.0153
動	-12.0199
ῖ	-12.0249
ह	-12.0286
前	-12.0393
£	-12.0445
地	-12.0489
手	-12.0552
パ	-12.07
ῶ	-12.071
新	-12.0736
ē	-12.0788
ב	-12.0827
ὸ	-12.087
ת	-12.092
ं	-12.0943
開	-12.0963
ὰ	-12.102
מ	-12.103
能	-12.1119
対	-12.1275
א	-12.1292
言	-12.1317
学	-12.1337
是	-12.1342
高	-12.1348
最	-12.1372
今	-12.1383
ạ	-12.1393
ि	-12.1501
त	-12.1501
以	-12.1544
ط	-12.1561
ナ	-12.1569
有	-12.1571
実	-12.1572
•	-12.1581
म	-12.1608
ã	-12.1669
下	-12.169
ض	-12.1809
思	-12.1817
―	-12.182
部	-12.1864
要	-12.1879
エ	-12.1978
後	-12.2026
ש	-12.2044
ệ	-12.2066
回	-12.2108
ὐ	-12.2164
体	-12.2392
業	-12.2477
社	-12.2536
ế	-12.2551
表	-12.2579
他	-12.2583
明	-12.2607
セ	-12.2618
多	-12.2714
内	-12.2725
ミ	-12.2773
ả	-12.2789
ダ	-12.2829
了	-12.2841
当	-12.2874
ず	-12.2922
現	-12.2942
全	-12.2971
،	-12.3007
気	-12.3057
ῦ	-12.309
ḥ	-12.3115
べ	-12.3127
理	-12.3156
『	-12.316
』	-12.3169
ک	-12.3202
使	-12.3223
通	-12.3236
法	-12.3244
モ	-12.3269
関	-12.3277
目	-12.3336
̇	-12.3358
ζ	-12.3374
可	-12.3393
ョ	-12.3404
女	-12.3443
力	-12.3503
画	-12.3529
ェ	-12.3594
ズ	-12.3602
化	-12.3659
ð	-12.376
数	-12.3791
代	-12.3862
意	-12.3863
成	-12.3885
ल	-12.3906
ो	-12.3911
金	-12.3952
ὲ	-12.3983
ほ	-12.4001
感	-12.4083
氏	-12.4129
M	-12.4193
報	-12.4197
物	-12.4239
T	-12.4281
ね	-12.4286
来	-12.4292
我	-12.4298
є	-12.4323
長	-12.4421
ツ	-12.4435
取	-12.4435
公	-12.4464
家	-12.4502
이	-12.4559
ṣ	-12.4564
	-12.4578
ấ	-12.4597
ὴ	-12.4679
ネ	-12.4684
機	-12.4728
記	-12.487
■	-12.4875
ث	-12.4894
ご	-12.4989
다	-12.5004
度	-12.5009
品	-12.5104
נ	-12.5119
外	-12.5155
話	-12.5232
प	-12.5308
主	-12.5314
ῆ	-12.5355
ベ	-12.5386
⋆	-12.5532
小	-12.5559
世	-12.5665
य	-12.5702
民	-12.5703
げ	-12.574
知	-12.5746
立	-12.5756
ם	-12.5789
利	-12.5789
加	-12.5832
ъ	-12.5843
文	-12.5849
ポ	-12.5914
ガ	-12.5985
政	-12.5996
名	-12.6035
ע	-12.6079
ộ	-12.6102
道	-12.6108
所	-12.6231
ố	-12.6259
安	-12.6413
問	-12.6419
情	-12.642
面	-12.642
売	-12.6442
特	-12.6465
ṇ	-12.6546
心	-12.6565
ケ	-12.664
持	-12.6641
ἰ	-12.6664
ớ	-12.6664
へ	-12.667
́	-12.6693
円	-12.6699
ハ	-12.6771
市	-12.6843
ソ	-12.6855
द	-12.6867
ذ	-12.6933
界	-12.6945
̓	-12.6991
ゲ	-12.7055
期	-12.7068
ボ	-12.7074
員	-12.7135
得	-12.7137
ṭ	-12.7147
±	-12.7197
ワ	-12.721
連	-12.7216
正	-12.7223
ʿ	-12.7266
ợ	-12.7304
व	-12.7329
受	-12.7374
¥	-12.7386
変	-12.7436
題	-12.7488
解	-12.7494
書	-12.7513
果	-12.7624
米	-12.7676
相	-12.7702
ゃ	-12.7742
ょ	-12.7807
ơ	-12.782
ד	-12.782
向	-12.7827
ể	-12.7853
続	-12.7887
ज	-12.7906
ח	-12.796
ザ	-12.7967
ὶ	-12.8
和	-12.8042
ァ	-12.8048
ペ	-12.8068
考	-12.815
無	-12.8157
ψ	-12.817
万	-12.8191
活	-12.8219
ề	-12.8232
び	-12.8385
語	-12.852
ị	-12.8534
ब	-12.8569
少	-12.8599
信	-12.8606
約	-12.8677
何	-12.8678
選	-12.8692
ờ	-12.8706
起	-12.873
ʾ	-12.8757
ピ	-12.8764
身	-12.8787
إ	-12.8793
集	-12.8801
原	-12.8808
食	-12.8823
ἔ	-12.8844
私	-12.8896
ů	-12.8928
כ	-12.8977
制	-12.8993
調	-12.9007
戦	-12.9023
先	-12.9038
都	-12.9039
ノ	-12.906
教	-12.906
結	-12.9082
初	-12.9128
ѕ	-12.9142
東	-12.9143
々	-12.9181
強	-12.9196
真	-12.9219
★	-12.9257
水	-12.9264
む	-12.9341
点	-12.9358
好	-12.9374
店	-12.9427
付	-12.9457
ظ	-12.9496
指	-12.9497
重	-12.9521
到	-12.9531
経	-12.9543
近	-12.9583
ё	-12.9599
ु	-12.9631
田	-12.9639
認	-12.9655
必	-12.9663
味	-12.9686
غ	-12.9702
電	-12.9703
決	-12.9743
保	-12.9791
応	-12.9815
山	-12.9823
ग	-12.9831
料	-12.9832
ホ	-12.9848
ὺ	-12.9978
組	-12.9978
議	-12.9986
想	-12.9997
示	-13.0019
着	-13.0088
過	-13.0127
天	-13.0154
格	-13.0177
ئ	-13.0211
ầ	-13.0219
予	-13.0219
第	-13.0245
ק	-13.0261
ậ	-13.027
는	-13.0278
ै	-13.0312
告	-13.0329
海	-13.0355
ὑ	-13.038
然	-13.0417
就	-13.0434
設	-13.0441
込	-13.0553
男	-13.0571
進	-13.0615
際	-13.0632
像	-13.0642
状	-13.0738
	-13.0738
פ	-13.0791
ụ	-13.0818
様	-13.0827
에	-13.0899
容	-13.0926
次	-13.0944
位	-13.0945
●	-13.0962
元	-13.0989
研	-13.0998
ủ	-13.1007
ź	-13.1007
確	-13.1062
这	-13.1071
価	-13.108
َ	-13.1099
究	-13.1109
口	-13.1117
始	-13.1155
式	-13.1155
ォ	-13.1182
常	-13.1192
別	-13.1284
ء	-13.1313
ṃ	-13.1322
【	-13.1332
】	-13.135
野	-13.136
하	-13.1369
	-13.1407
再	-13.1542
楽	-13.155
提	-13.158
引	-13.1647
～	-13.1667
也	-13.168
査	-13.1725
平	-13.1765
你	-13.177
個	-13.1843
切	-13.1903
説	-13.1923
지	-13.1983
影	-13.1983
判	-13.1984
反	-13.1993
車	-13.2043
直	-13.2054
ữ	-13.2094
去	-13.2096
務	-13.2104
ס	-13.2124
送	-13.2134
의	-13.2145
	-13.2165
放	-13.2176
件	-13.2197
限	-13.2227
広	-13.2258
을	-13.232
投	-13.2382
	-13.2403
由	-13.2425
配	-13.2446
計	-13.2498
京	-13.2562
▲	-13.2572
参	-13.2594
運	-13.2777
声	-13.2778
支	-13.2788
共	-13.2821
ギ	-13.2831
仕	-13.2897
三	-13.292
映	-13.292
≤	-13.293
音	-13.2986
।	-13.2997
美	-13.3042
گ	-13.3064
更	-13.3065
ぶ	-13.3086
彼	-13.3109
番	-13.3109
가	-13.3142
ἄ	-13.3154
止	-13.3199
空	-13.32
ự	-13.3267
流	-13.3325
産	-13.3463
注	-13.3487
存	-13.3499
置	-13.3499
台	-13.3499
之	-13.3511
論	-13.3534
ユ	-13.3545
増	-13.3557
神	-13.3569
ג	-13.3581
資	-13.3592
ọ	-13.3592
þ	-13.3616
ὁ	-13.3616
ゴ	-13.3628
ぐ	-13.3628
演	-13.364
♣	-13.3675
治	-13.3687
版	-13.3699
聞	-13.3723
ひ	-13.3759
型	-13.3807
量	-13.3807
権	-13.3819
ヤ	-13.3831
院	-13.3831
害	-13.3831
白	-13.3844
験	-13.3844
違	-13.388
工	-13.3893
️	-13.3904
象	-13.3917
与	-13.3978
ə	-13.4002
交	-13.4014
供	-13.4026
党	-13.4039
∞	-13.4051
▀	-13.4051
載	-13.4051
種	-13.4088
西	-13.4089
質	-13.4126
警	-13.4176
北	-13.4188
里	-13.4218
个	-13.4219
終	-13.4251
ぎ	-13.4251
頭	-13.4263
態	-13.4288
▄	-13.4289
고	-13.4314
企	-13.4327
⇒	-13.4327
ヒ	-13.4339
로	-13.4352
那	-13.4358
한	-13.4365
半	-13.4378
首	-13.4378
府	-13.4391
ἱ	-13.4442
登	-13.4454
צ	-13.4493
ן	-13.4558
基	-13.4558
ἡ	-13.4584
色	-13.4597
収	-13.4623
追	-13.4623
製	-13.4623
被	-13.4624
非	-13.465
技	-13.4662
伝	-13.4676
死	-13.4688
検	-13.4689
二	-13.4702
難	-13.4702
※	-13.4715
士	-13.4741
形	-13.4742
≥	-13.4755
張	-13.4755
ざ	-13.4809
校	-13.4822
州	-13.4835
比	-13.4849
住	-13.4849
们	-13.4866
村	-13.4915
ứ	-13.4942
良	-13.4956
術	-13.4983
十	-13.5024
ʻ	-13.5051
撃	-13.5051
統	-13.5092
ט	-13.5092
係	-13.5092
›	-13.5105
効	-13.5119
局	-13.5119
改	-13.512
∈	-13.5133
า	-13.5133
ắ	-13.5271
光	-13.5272
求	-13.5286
写	-13.53
기	-13.5342
視	-13.5342
¢	-13.5398
说	-13.5449
च	-13.5469
ट	-13.5526
श	-13.5555
ồ	-13.5569
為	-13.557
素	-13.5641
各	-13.567
規	-13.5685
等	-13.5701
例	-13.5714
転	-13.5743
任	-13.5758
施	-13.5788
接	-13.5788
ǎ	-13.5816
ὅ	-13.5831
商	-13.5861
사	-13.5861
川	-13.589
ए	-13.5905
她	-13.591
王	-13.5965
¶	-13.5995
太	-13.6011
号	-13.604
朝	-13.604
材	-13.607
آ	-13.61
ड	-13.61
率	-13.6146
看	-13.615
	-13.6177
ṛ	-13.6192
ở	-13.6192
木	-13.6223
待	-13.6224
路	-13.6284
県	-13.6331
서	-13.6346
ặ	-13.6362
足	-13.6378
因	-13.6378
消	-13.6393
展	-13.6393
呼	-13.6393
装	-13.6394
悪	-13.6409
返	-13.644
線	-13.6456
愛	-13.6456
断	-13.6488
区	-13.6503
‹	-13.6518
客	-13.6567
니	-13.6614
अ	-13.6614
達	-13.6646
ử	-13.6662
为	-13.6681
어	-13.6694
打	-13.6696
島	-13.6726
段	-13.6774
備	-13.6824
疑	-13.684
値	-13.6856
石	-13.6856
超	-13.6856
आ	-13.6872
移	-13.6873
介	-13.689
低	-13.6905
職	-13.6905
役	-13.6905
پ	-13.6922
歳	-13.6939
策	-13.6939
ू	-13.6971
़	-13.7004
科	-13.7005
門	-13.7005
아	-13.7038
∼	-13.7038
를	-13.7038
義	-13.7038
은	-13.7071
系	-13.7072
ű	-13.7088
風	-13.7088
働	-13.7088
勝	-13.7088
南	-13.7105
軍	-13.7122
笑	-13.7123
証	-13.7138
ė	-13.7138
ῷ	-13.7138
完	-13.719
भ	-13.7206
字	-13.7206
建	-13.724
及	-13.7291
器	-13.7326
費	-13.7359
単	-13.7393
星	-13.7394
念	-13.7429
	-13.7446
観	-13.7446
録	-13.7463
命	-13.7464
育	-13.7515
落	-13.7551
英	-13.7586
ḍ	-13.7603
̋	-13.7611
優	-13.762
這	-13.7622
ũ	-13.7638
时	-13.7645
総	-13.7692
族	-13.7709
販	-13.771
減	-13.7727
速	-13.7728
│	-13.7745
̄	-13.7753
読	-13.7763
∗	-13.7781
ז	-13.7799
類	-13.7799
周	-13.7799
買	-13.7817
스	-13.7817
税	-13.7834
割	-13.7835
異	-13.7871
‡	-13.7871
除	-13.7871
構	-13.7871
親	-13.7889
案	-13.789
官	-13.7926
►	-13.7962
요	-13.7962
護	-13.7962
察	-13.798
走	-13.7983
해	-13.7998
ἑ	-13.7998
識	-13.7998
試	-13.8035
述	-13.8035
古	-13.8036
営	-13.8053
而	-13.8056
葉	-13.8072
団	-13.8072
造	-13.8091
土	-13.8129
答	-13.8183
屋	-13.8184
含	-13.8202
程	-13.8202
早	-13.8221
น	-13.8258
未	-13.8278
条	-13.8298
側	-13.8315
防	-13.8334
ṅ	-13.8353
残	-13.8353
編	-13.8372
시	-13.841
倍	-13.8429
領	-13.8429
響	-13.8506
ّ	-13.8545
老	-13.8592
済	-13.8603
細	-13.8603
ổ	-13.8622
ừ	-13.8642
望	-13.8643
ぜ	-13.8661
《	-13.8662
》	-13.8682
▪	-13.8701
担	-13.8701
ẽ	-13.874
管	-13.8761
攻	-13.886
대	-13.8879
深	-13.892
ヴ	-13.894
急	-13.896
火	-13.898
週	-13.9
撮	-13.9021
境	-13.9021
ĩ	-13.9024
史	-13.9041
थ	-13.9081
失	-13.9143
差	-13.9143
乗	-13.9163
리	-13.9163
導	-13.9184
普	-13.9184
ゆ	-13.9184
病	-13.9205
ῳ	-13.9267
飲	-13.9288
算	-13.9289
省	-13.9309
ُ	-13.933
づ	-13.933
武	-13.933
域	-13.9351
¬	-13.9372
도	-13.9393
ẩ	-13.9435
友	-13.9456
況	-13.9477
자	-13.9477
◆	-13.9499
🙂	-13.9499
‚	-13.9499
便	-13.9501
ʼ	-13.952
著	-13.9563
末	-13.9563
夜	-13.9564
医	-13.9607
覚	-13.9671
花	-13.9693
ᾶ	-13.9736
ゼ	-13.9736
協	-13.9737
催	-13.9801
罪	-13.9823
飛	-13.9846
ِ	-13.989
ῥ	-13.9934
曲	-13.9956
準	-13.9956
इ	-13.9979
ร	-13.9979
離	-13.9979
	-14.0023
ख	-14.0023
街	-14.0025
⁠	-14.0046
模	-14.0047
라	-14.0091
ǐ	-14.0113
修	-14.0114
億	-14.0114
額	-14.0137
両	-14.0159
수	-14.0182
인	-14.0182
助	-14.0205
球	-14.0205
ա	-14.0227
極	-14.0228
ふ	-14.0251
独	-14.0251
派	-14.0251
ὡ	-14.0296
労	-14.032
専	-14.032
香	-14.0343
ῇ	-14.0366
突	-14.039
夫	-14.0413
ぼ	-14.0436
司	-14.0436
争	-14.0483
过	-14.0489
精	-14.0507
四	-14.0507
后	-14.0535
適	-14.0554
其	-14.0555
ً	-14.0577
裁	-14.0601
很	-14.0605
있	-14.0625
購	-14.0625
說	-14.0625
如	-14.0628
整	-14.0672
═	-14.0673
ヘ	-14.072
属	-14.0721
勢	-14.0769
₹	-14.0793
推	-14.0793
ぞ	-14.0817
誰	-14.0842
挙	-14.0866
ἴ	-14.089
掲	-14.089
紹	-14.0891
อ	-14.0915
換	-14.0915
그	-14.0939
具	-14.0941
게	-14.0964
千	-14.0964
環	-14.0964
景	-14.0964
負	-14.0989
于	-14.0992
̶	-14.1042
∑	-14.1063
染	-14.1063
根	-14.1064
若	-14.1113
降	-14.1138
ễ	-14.1163
端	-14.1163
拡	-14.1164
監	-14.1164
城	-14.1192
정	-14.1239
เ	-14.1239
評	-14.1265
ヨ	-14.1265
把	-14.1266
昨	-14.1293
没	-14.1298
林	-14.1316
五	-14.1341
來	-14.1342
給	-14.1367
酒	-14.1368
□	-14.1392
港	-14.1418
☆	-14.1418
对	-14.1424
園	-14.1444
○	-14.147
守	-14.1471
般	-14.1523
服	-14.1553
症	-14.1573
補	-14.1601
ň	-14.1627
激	-14.1627
่	-14.1653
歌	-14.1654
←	-14.168
ὀ	-14.168
들	-14.168
室	-14.168
故	-14.1707
休	-14.1734
谷	-14.1786
危	-14.1786
͡	-14.1787
나	-14.1813
보	-14.1813
処	-14.1813
么	-14.1825
ง	-14.184
座	-14.1867
清	-14.1894
委	-14.1894
描	-14.1895
ม	-14.1921
復	-14.1948
典	-14.1948
援	-14.1975
申	-14.1975
館	-14.2002
া	-14.2003
ध	-14.2003
顔	-14.2003
満	-14.203
師	-14.203
右	-14.203
井	-14.203
〜	-14.2057
破	-14.2058
稿	-14.2085
उ	-14.2085
ỏ	-14.2085
毎	-14.2085
障	-14.2085
傷	-14.2112
絶	-14.2113
衛	-14.2116
殺	-14.214
温	-14.2141
候	-14.2141
으	-14.2196
振	-14.2224
ก	-14.2224
健	-14.2224
但	-14.2227
魔	-14.228
紙	-14.228
母	-14.2281
↑	-14.2308
摘	-14.2308
熱	-14.2309
♥	-14.2336
开	-14.2368
肉	-14.2393
興	-14.2421
授	-14.2422
ǔ	-14.245
測	-14.2479
僕	-14.248
只	-14.2482
図	-14.2536
還	-14.2537
일	-14.2565
詳	-14.2566
现	-14.2571
ỉ	-14.2594
藤	-14.2624
習	-14.2624
÷	-14.2653
隊	-14.2683
姿	-14.2711
抜	-14.277
又	-14.2777
複	-14.28
≈	-14.2859
毛	-14.286
訴	-14.2889
尔	-14.2892
博	-14.2949
春	-14.2949
ἦ	-14.2979
密	-14.298
採	-14.3009
銀	-14.3009
標	-14.3009
福	-14.3009
賞	-14.301
沒	-14.301
談	-14.304
്	-14.307
韓	-14.307
株	-14.31
些	-14.3105
্	-14.3162
제	-14.3162
寄	-14.3192
午	-14.3192
✔	-14.3192
트	-14.3192
已	-14.3196
退	-14.3223
歩	-14.3224
倒	-14.3255
将	-14.3256
至	-14.3257
ť	-14.3285
전	-14.3285
療	-14.3286
快	-14.3286
发	-14.329
چ	-14.3316
松	-14.3317
黒	-14.3348
江	-14.338
青	-14.3411
☛	-14.3442
📱	-14.3442
帯	-14.3442
己	-14.3444
র	-14.3474
N	-14.3474
波	-14.3474
許	-14.3474
越	-14.3475
左	-14.3506
批	-14.3506
布	-14.3539
板	-14.3548
益	-14.3569
镇	-14.3569
探	-14.357
印	-14.3571
會	-14.3601
暴	-14.3633
階	-14.3633
상	-14.3633
善	-14.3666
间	-14.3668
犯	-14.3698
片	-14.3699
ỗ	-14.3731
角	-14.3731
源	-14.3731
皆	-14.3733
ἶ	-14.3763
⋅	-14.3763
囲	-14.3796
ŏ	-14.3803
夏	-14.3829
苦	-14.3829
婚	-14.3894
ْ	-14.3894
易	-14.3895
才	-14.3896
้	-14.3928
弱	-14.3928
似	-14.3929
歴	-14.3995
百	-14.4028
捕	-14.4061
背	-14.4095
还	-14.4102
부	-14.4129
ŭ	-14.4129
希	-14.4129
否	-14.413
फ	-14.4162
渡	-14.4163
样	-14.4171
乡	-14.4231
ई	-14.4231
ั	-14.4231
幅	-14.4231
兵	-14.4265
願	-14.4265
宅	-14.4299
禁	-14.43
▓	-14.4334
従	-14.4334
居	-14.4336
¦	-14.4368
康	-14.4369
功	-14.4369
積	-14.4369
薬	-14.4371
陽	-14.4403
學	-14.4403
恐	-14.4403
遊	-14.4438
払	-14.4438
督	-14.4438
经	-14.4442
舞	-14.4473
ẹ	-14.4473
國	-14.4544
父	-14.4545
비	-14.4578
ぱ	-14.4579
亡	-14.4579
此	-14.4617
什	-14.4624
融	-14.4649
険	-14.465
ष	-14.4685
冷	-14.4685
帰	-14.4757
ῃ	-14.4757
聴	-14.4757
短	-14.4757
並	-14.4758
息	-14.4758
級	-14.4793
馬	-14.4793
≠	-14.4793
만	-14.4829
替	-14.483
避	-14.4866
惑	-14.4867
横	-14.4867
抗	-14.4902
簡	-14.4903
ך	-14.4939
ằ	-14.4939
▼	-14.4939
押	-14.4939
枚	-14.4976
課	-14.5012
├	-14.5012
주	-14.5013
∫	-14.5049
원	-14.505
鮮	-14.505
照	-14.505
頼	-14.5051
斯	-14.5055
ὼ	-14.5087
財	-14.5087
索	-14.5088
刻	-14.5088
敵	-14.5124
ὔ	-14.5124
盛	-14.5162
阪	-14.5162
宇	-14.5162
依	-14.5162
ว	-14.5199
票	-14.52
从	-14.5206
們	-14.5237
宮	-14.5237
略	-14.5237
👑	-14.5313
列	-14.5313
称	-14.5314
軽	-14.535
織	-14.5351
或	-14.5354
郎	-14.5389
眼	-14.5392
圧	-14.5428
动	-14.5431
话	-14.544
ә	-14.5466
房	-14.547
戻	-14.5505
頃	-14.5505
患	-14.5505
喜	-14.5506
血	-14.5543
旅	-14.5544
令	-14.5544
↓	-14.5583
富	-14.5583
幸	-14.5584
筆	-14.5622
ϊ	-14.5622
緊	-14.5623
齢	-14.5661
携	-14.5662
门	-14.5665
여	-14.5701
└	-14.5701
搭	-14.5702
河	-14.5702
討	-14.5702
創	-14.5741
射	-14.5741
📣	-14.5781
吉	-14.5781
志	-14.5781
析	-14.5782
承	-14.5782
과	-14.5821
堂	-14.5822
ƒ	-14.5861
드	-14.5861
遺	-14.5861
奇	-14.5862
ᄏ	-14.5942
ี	-14.5942
ย	-14.5942
欲	-14.5943
致	-14.5944
底	-14.5944
头	-14.5947
〉	-14.5982
洋	-14.5982
充	-14.5983
赤	-14.6023
ẻ	-14.6023
장	-14.6023
秋	-14.6023
憲	-14.6024
謝	-14.6064
했	-14.6064
請	-14.6064
站	-14.6065
仮	-14.6105
森	-14.6105
ण	-14.6105
遠	-14.6106
闘	-14.6106
衣	-14.6118
̊	-14.6126
律	-14.6146
町	-14.6147
弁	-14.6147
操	-14.6147
久	-14.6148
✓	-14.6188
池	-14.6188
雑	-14.6229
ն	-14.623
驚	-14.623
韩	-14.6232
ἕ	-14.6272
児	-14.6272
席	-14.6313
😉	-14.6314
散	-14.6314
麻	-14.6314
触	-14.6356
暗	-14.6398
眠	-14.6399
迎	-14.6399
ÿ	-14.6441
伊	-14.6441
⁨	-14.6483
소	-14.6483
우	-14.6483
면	-14.6526
்	-14.6526
夢	-14.6527
草	-14.6527
昇	-14.6569
오	-14.6569
困	-14.6571
貨	-14.6612
脳	-14.6613
성	-14.6613
徴	-14.6613
欧	-14.6613
陸	-14.6613
秘	-14.6613
麼	-14.6614
种	-14.6619
章	-14.6656
ẫ	-14.67
ล	-14.67
刊	-14.67
層	-14.6744
◦	-14.6788
逆	-14.6788
掛	-14.6832
混	-14.6832
經	-14.6833
択	-14.6834
厳	-14.6876
痛	-14.6876
미	-14.6876
岡	-14.6877
宿	-14.6877
√	-14.6921
동	-14.6921
ゾ	-14.6921
拠	-14.6922
◊	-14.6966
국	-14.6966
緒	-14.7011
駅	-14.7011
爆	-14.7011
停	-14.7011
繰	-14.7011
关	-14.7014
佐	-14.7056
ὖ	-14.7056
마	-14.7056
宣	-14.7057
裡	-14.7057
群	-14.71
継	-14.7101
克	-14.7101
誌	-14.7102
경	-14.7102
敗	-14.7102
ἅ	-14.7147
訪	-14.7148
脱	-14.7148
八	-14.7148
包	-14.7149
届	-14.7193
↵	-14.7193
	-14.7193
革	-14.7194
節	-14.7194
哈	-14.7239
📺	-14.7239
玉	-14.7239
余	-14.724
九	-14.7285
ิ	-14.7286
적	-14.7286
船	-14.7286
乱	-14.7286
场	-14.7287
途	-14.7332
劇	-14.7332
責	-14.7332
것	-14.7332
구	-14.7332
弾	-14.7332
概	-14.7334
露	-14.7334
습	-14.7379
芸	-14.7379
油	-14.7379
崎	-14.7379
橋	-14.7426
	-14.7426
ে	-14.7426
順	-14.7426
漫	-14.7427
均	-14.7473
削	-14.7473
巨	-14.7473
逃	-14.7473
皮	-14.7474
德	-14.7522
留	-14.7522
鉄	-14.7568
宙	-14.7569
进	-14.7571
모	-14.7664
延	-14.7664
辺	-14.7664
酸	-14.7712
ĝ	-14.7712
ด	-14.7712
ـ	-14.7761
ؤ	-14.781
거	-14.781
신	-14.781
對	-14.781
抱	-14.781
长	-14.7813
壊	-14.7859
迷	-14.7859
伸	-14.7859
͜	-14.7869
회	-14.7957
訳	-14.7958
迫	-14.7959
秒	-14.8007
覧	-14.8007
講	-14.8007
ὕ	-14.8007
君	-14.8007
电	-14.8012
扱	-14.8057
舗	-14.8057
ὄ	-14.8057
ᾳ	-14.8057
⌘	-14.8107
	-14.8107
ἁ	-14.8107
募	-14.8107
❤	-14.8107
ท	-14.8107
♪	-14.8108
巴	-14.8122
刑	-14.8157
ր	-14.8158
ა	-14.8158
恩	-14.8158
ʖ	-14.8209
∂	-14.8209
李	-14.8209
徒	-14.8209
威	-14.8209
絡	-14.8209
即	-14.8212
災	-14.8259
ส	-14.826
築	-14.826
戸	-14.826
巻	-14.826
两	-14.8266
永	-14.8311
ḩ	-14.8311
छ	-14.8311
데	-14.8311
되	-14.8311
공	-14.8311
皇	-14.8312
排	-14.8312
ħ	-14.8362
寺	-14.8364
浮	-14.8414
ぬ	-14.8414
내	-14.8414
용	-14.8414
睡	-14.8418
ո	-14.8466
競	-14.8467
机	-14.8468
̃	-14.8508
獲	-14.8519
ў	-14.8519
需	-14.8519
恋	-14.8519
ĉ	-14.8571
안	-14.8571
할	-14.8571
逮	-14.8572
厚	-14.8572
吧	-14.8575
边	-14.8575
实	-14.8577
隠	-14.8624
💲	-14.8624
華	-14.8624
菜	-14.8626
无	-14.863
輸	-14.8677
ห	-14.8678
維	-14.8731
純	-14.8731
項	-14.8731
締	-14.8731
ন	-14.8731
연	-14.8731
ẓ	-14.8731
航	-14.8732
它	-14.8785
ľ	-14.8785
雄	-14.8839
裏	-14.8839
尾	-14.8839
怒	-14.8839
筋	-14.8893
焼	-14.8893
仲	-14.8893
副	-14.8895
━	-14.8947
▶	-14.8948
ּ	-14.8948
勤	-14.8949
衆	-14.895
御	-14.9003
怪	-14.9004
骨	-14.9058
震	-14.9058
央	-14.9058
既	-14.9059
誤	-14.9113
輪	-14.9113
審	-14.9113
见	-14.912
欠	-14.917
犬	-14.917
懸	-14.917
紀	-14.9225
洗	-14.9226
則	-14.9226
阿	-14.9226
생	-14.9282
折	-14.9282
當	-14.9283
静	-14.9283
農	-14.9283
庭	-14.934
幹	-14.9396
ἵ	-14.9396
음	-14.9396
화	-14.9396
ต	-14.9396
娘	-14.9412
丸	-14.9453
ņ	-14.9453
	-14.9453
ָ	-14.9453
捜	-14.9454
救	-14.9454
간	-14.9511
터	-14.9511
艦	-14.9511
雇	-14.9512
固	-14.9512
ἷ	-14.9569
衝	-14.9628
ġ	-14.9628
宗	-14.963
무	-14.9687
와	-14.9687
沢	-14.9687
东	-14.9688
液	-14.9745
매	-14.9746
계	-14.9746
세	-14.9746
岩	-14.9747
问	-14.9752
占	-14.9805
秀	-14.9805
豊	-14.9805
ե	-14.9805
發	-14.9806
脚	-14.9866
̣	-14.987
ক	-14.9926
ি	-14.9926
ი	-14.9926
ぽ	-14.9926
让	-14.993
遅	-14.9986
荷	-14.9986
😂	-14.9986
與	-14.9986
湾	-14.9986
∀	-14.9986
互	-14.9986
幕	-14.9987
微	-14.9988
較	-15.0046
寒	-15.0047
魅	-15.0048
聖	-15.0108
踏	-15.0109
束	-15.0109
兩	-15.017
진	-15.017
牛	-15.0171
吸	-15.0171
傾	-15.0232
ヌ	-15.0232
範	-15.0232
啊	-15.0233
却	-15.0235
做	-15.0236
損	-15.0295
‒	-15.0295
ะ	-15.0295
握	-15.0295
絵	-15.0357
抑	-15.0357
壁	-15.0358
嫌	-15.0358
甘	-15.0358
悲	-15.0358
耳	-15.0359
核	-15.036
縮	-15.0421
點	-15.0421
유	-15.0421
暮	-15.0421
炎	-15.0484
曜	-15.0485
刺	-15.0485
躍	-15.0486
车	-15.0486
招	-15.0486
邦	-15.0548
閉	-15.0549
선	-15.0549
조	-15.0549
養	-15.0549
駆	-15.0549
ἠ	-15.0613
며	-15.0613
위	-15.0613
尽	-15.0615
ക	-15.0678
래	-15.0678
∕	-15.0678
ौ	-15.0678
ค	-15.0678
券	-15.0678
練	-15.068
ി	-15.0744
􏰮	-15.0744
侵	-15.0744
忘	-15.0744
跡	-15.0744
拉	-15.0745
庫	-15.0809
植	-15.0809
방	-15.0809
중	-15.0809
季	-15.081
署	-15.081
步	-15.0811
洞	-15.0811
别	-15.0816
妻	-15.0876
顧	-15.0876
龍	-15.0876
沖	-15.0876
茶	-15.0877
叫	-15.0882
挑	-15.0942
ゥ	-15.0942
ի	-15.0942
債	-15.0942
針	-15.0943
庁	-15.0943
给	-15.0946
納	-15.1009
俺	-15.1009
ǒ	-15.1009
憶	-15.101
干	-15.1014
奈	-15.1077
祭	-15.1077
伴	-15.1145
ব	-15.1145
♘	-15.1145
貴	-15.1145
誘	-15.1212
執	-15.1213
작	-15.1213
พ	-15.1214
旧	-15.1214
寝	-15.1214
努	-15.1214
怎	-15.1216
六	-15.1282
ত	-15.1282
免	-15.1283
应	-15.1287
气	-15.1289
儿	-15.1289
奥	-15.1351
〈	-15.1351
∧	-15.1352
♕	-15.1352
บ	-15.1352
縄	-15.1353
頂	-15.1422
ہ	-15.1422
🔶	-15.1422
跟	-15.1424
达	-15.1427
蔵	-15.1492
旬	-15.1492
ˆ	-15.1492
ј	-15.1492
ỳ	-15.1492
⌂	-15.1492
從	-15.1492
盤	-15.1492
湯	-15.1493
예	-15.1563
婦	-15.1564
雨	-15.1565
猫	-15.1634
⭐	-15.1635
契	-15.1635
乐	-15.1636
胸	-15.1637
语	-15.1637
관	-15.1707
입	-15.1707
∆	-15.1707
실	-15.1707
었	-15.1707
재	-15.1707
控	-15.1707
雪	-15.1707
马	-15.1707
七	-15.1779
慣	-15.1779
ď	-15.1779
년	-15.1779
ְ	-15.1779
廃	-15.1779
樹	-15.1779
宝	-15.1779
透	-15.178
床	-15.178
每	-15.1783
러	-15.1852
ỹ	-15.1852
ἤ	-15.1852
黑	-15.1853
裕	-15.1925
氣	-15.1925
盗	-15.1925
ാ	-15.1926
‰	-15.1926
개	-15.1926
치	-15.1926
詰	-15.1926
袋	-15.1926
几	-15.1932
乎	-15.1932
并	-15.1933
분	-15.2
黄	-15.2002
鳥	-15.2074
乳	-15.2074
ὥ	-15.2074
礼	-15.2074
籍	-15.2075
往	-15.2077
处	-15.208
য	-15.2149
卒	-15.215
滅	-15.215
粉	-15.2151
誕	-15.2225
؟	-15.2225
문	-15.2225
ւ	-15.2225
怖	-15.2226
薄	-15.2226
网	-15.2226
말	-15.2302
該	-15.2302
狙	-15.2302
樣	-15.2303
距	-15.2378
घ	-15.2378
발	-15.2378
゚	-15.2379
箱	-15.2379
张	-15.238
彩	-15.2456
恵	-15.2456
야	-15.2456
영	-15.2456
坐	-15.2458
孩	-15.2459
豪	-15.2534
ὧ	-15.2534
陰	-15.2534
於	-15.2534
虫	-15.2534
紅	-15.2612
實	-15.2613
프	-15.2613
➊	-15.2613
당	-15.2613
關	-15.2614
魚	-15.2692
ゅ	-15.2692
바	-15.2692
등	-15.2692
♀	-15.2692
🇺	-15.2692
ไ	-15.2692
昭	-15.2692
ป	-15.2692
จ	-15.2692
许	-15.2699
더	-15.2772
ठ	-15.2772
童	-15.2772
飯	-15.2773
双	-15.2774
冒	-15.2852
ര	-15.2853
泉	-15.2853
閣	-15.2853
聲	-15.2853
☐	-15.2934
저	-15.2934
賃	-15.2934
昔	-15.2935
晴	-15.2935
胞	-15.3016
栄	-15.3016
단	-15.3016
명	-15.3016
♠	-15.3016
脅	-15.3016
騒	-15.3016
丁	-15.3017
慈	-15.3017
樂	-15.3018
找	-15.302
臨	-15.3098
园	-15.3099
▷	-15.3099
같	-15.3099
冬	-15.3099
黃	-15.3099
趣	-15.31
兆	-15.31
罗	-15.31
风	-15.3101
听	-15.3107
觉	-15.3108
慮	-15.3181
🇸	-15.3182
각	-15.3182
≡	-15.3182
燃	-15.3182
་	-15.3182
华	-15.3183
封	-15.3183
爱	-15.3183
剤	-15.3184
措	-15.3266
∘	-15.3266
✳	-15.3266
➋	-15.3266
馆	-15.3266
瞬	-15.3267
吃	-15.3267
將	-15.3267
义	-15.327
雲	-15.335
緩	-15.3351
금	-15.3351
ף	-15.3351
ὃ	-15.3351
🔥	-15.3351
渉	-15.3351
坂	-15.3351
辛	-15.3352
辞	-15.3352
业	-15.3352
产	-15.3353
呢	-15.3359
ų	-15.3436
된	-15.3436
반	-15.3436
巡	-15.3436
塔	-15.3437
妙	-15.3437
准	-15.3438
查	-15.3439
祖	-15.3522
糖	-15.3522
ത	-15.3522
ے	-15.3523
포	-15.3523
호	-15.3523
羽	-15.3523
柄	-15.3523
C	-15.3523
沙	-15.3524
̧	-15.3563
״	-15.3609
까	-15.3609
汚	-15.361
观	-15.3611
̈	-15.3671
砂	-15.3697
償	-15.3697
網	-15.3697
합	-15.3697
ম	-15.3697
려	-15.3697
운	-15.3697
타	-15.3697
✅	-15.3697
祝	-15.3697
献	-15.3698
肌	-15.3785
陣	-15.3786
稼	-15.3786
績	-15.3786
♂	-15.3786
內	-15.3786
銃	-15.3786
幾	-15.3786
徹	-15.3786
ぁ	-15.3786
耐	-15.3786
拍	-15.3788
毒	-15.3875
診	-15.3875
襲	-15.3875
倉	-15.3875
鬼	-15.3875
甚	-15.3876
记	-15.3884
প	-15.3965
ژ	-15.3965
讓	-15.3965
腕	-15.3966
员	-15.3967
慢	-15.3968
线	-15.4056
謀	-15.4056
妳	-15.4056
স	-15.4056
歯	-15.4056
珍	-15.4058
曾	-15.4059
盟	-15.4059
津	-15.4147
諸	-15.4147
臣	-15.4148
賛	-15.4148
體	-15.4149
题	-15.4152
且	-15.4153
̀	-15.42
謎	-15.424
丈	-15.424
♗	-15.424
◇	-15.424
แ	-15.424
岸	-15.424
杯	-15.4241
脆	-15.4241
单	-15.4241
臭	-15.4242
飼	-15.4242
帝	-15.4242
传	-15.4245
塩	-15.4333
剛	-15.4334
汗	-15.4334
̤	-15.4334
智	-15.4335
隔	-15.4335
徐	-15.4335
随	-15.4336
ぷ	-15.4427
熟	-15.4427
ἥ	-15.4428
디	-15.4428
식	-15.4428
拿	-15.4429
筑	-15.4432
弟	-15.4523
➌	-15.4523
레	-15.4523
ִ	-15.4523
ข	-15.4523
偏	-15.4524
晚	-15.4528
句	-15.4531
鳴	-15.4619
¤	-15.4619
ẵ	-15.462
唱	-15.462
借	-15.462
务	-15.4621
寿	-15.4621
游	-15.4622
带	-15.4625
胡	-15.4628
ὗ	-15.4717
속	-15.4717
민	-15.4717
현	-15.4717
腹	-15.4717
悩	-15.4717
殊	-15.4717
賀	-15.4718
术	-15.4718
报	-15.4719
结	-15.472
雷	-15.4814
ใ	-15.4815
물	-15.4815
통	-15.4815
偽	-15.4815
浜	-15.4815
輩	-15.4815
奪	-15.4815
收	-15.4816
括	-15.4816
汉	-15.4817
醒	-15.4818
차	-15.4914
히	-15.4914
▒	-15.4914
抽	-15.4914
书	-15.4914
难	-15.4921
哲	-15.5014
ἃ	-15.5014
∪	-15.5014
임	-15.5014
札	-15.5014
濃	-15.5014
亚	-15.5015
勧	-15.5113
ŝ	-15.5115
르	-15.5115
많	-15.5115
없	-15.5115
ॉ	-15.5115
ỡ	-15.5115
虐	-15.5115
姊	-15.5115
遇	-15.5115
須	-15.5116
设	-15.5116
浴	-15.5216
ു	-15.5217
抵	-15.5217
撤	-15.5217
炭	-15.5217
慎	-15.5218
佛	-15.522
藏	-15.5222
敏	-15.5319
掉	-15.5319
യ	-15.532
ന	-15.532
않	-15.532
್	-15.532
湖	-15.532
ุ	-15.532
升	-15.532
悟	-15.5321
豆	-15.5321
頑	-15.5321
奴	-15.5322
论	-15.5329
繁	-15.5424
결	-15.5424
크	-15.5424
ļ	-15.5424
ढ	-15.5424
க	-15.5424
็	-15.5424
促	-15.5424
餐	-15.5425
翻	-15.5425
拒	-15.5425
添	-15.5427
柔	-15.5528
费	-15.5529
矢	-15.5529
郡	-15.5529
鈴	-15.5529
행	-15.5529
후	-15.5529
♖	-15.5529
幼	-15.5529
械	-15.553
邊	-15.553
旗	-15.5636
던	-15.5636
ַ	-15.5636
逸	-15.5636
▽	-15.5636
唐	-15.5636
嬉	-15.5636
剣	-15.5636
洲	-15.5636
崩	-15.5637
烈	-15.5637
红	-15.5638
勇	-15.5742
铁	-15.5743
瀬	-15.5743
戒	-15.5743
ḷ	-15.5743
ṁ	-15.5743
झ	-15.5743
揮	-15.5743
輝	-15.5744
层	-15.5744
班	-15.5744
楼	-15.5744
唯	-15.5745
选	-15.5852
▹	-15.5852
變	-15.5852
雅	-15.5852
穿	-15.5867
塗	-15.5962
陳	-15.5962
甲	-15.5962
ἣ	-15.5962
품	-15.5962
掘	-15.5962
勉	-15.5962
狂	-15.5963
卡	-15.5967
吗	-15.597
͂	-15.5981
浦	-15.6073
յ	-15.6073
ँ	-15.6073
澤	-15.6073
认	-15.6075
某	-15.6076
潮	-15.6184
ল	-15.6185
본	-15.6185
☔	-15.6185
埋	-15.6185
誠	-15.6185
师	-15.6187
柱	-15.6187
视	-15.6187
艺	-15.6189
吹	-15.6298
麺	-15.6298
氷	-15.6299
랑	-15.6299
때	-15.6299
ĕ	-15.6299
嗎	-15.6299
熊	-15.6299
组	-15.6299
潜	-15.63
滞	-15.6413
남	-15.6414
른	-15.6414
մ	-15.6414
霊	-15.6414
徳	-15.6414
髪	-15.6415
玩	-15.6415
统	-15.642
渋	-15.653
卵	-15.653
়	-15.653
버	-15.653
R	-15.653
দ	-15.653
티	-15.653
ி	-15.653
翌	-15.653
漢	-15.653
荒	-15.6531
圏	-15.6531
仁	-15.6531
远	-15.6532
飞	-15.6532
节	-15.6534
穴	-15.6647
카	-15.6648
ں	-15.6648
두	-15.6648
ս	-15.6648
░	-15.6648
隣	-15.6648
兼	-15.6649
敬	-15.6649
连	-15.6653
儀	-15.6767
仏	-15.6767
💗	-15.6767
달	-15.6767
⇓	-15.6767
昼	-15.6767
알	-15.6767
倫	-15.6767
詞	-15.6767
ヶ	-15.6767
邪	-15.6768
战	-15.6769
朗	-15.6887
芝	-15.6887
梅	-15.6887
乾	-15.6887
遣	-15.6887
ृ	-15.6887
월	-15.6887
준	-15.6887
추	-15.6887
표	-15.6887
遭	-15.6887
弘	-15.6887
孫	-15.6887
罰	-15.6888
约	-15.6888
凡	-15.6888
则	-15.6888
羊	-15.6889
尚	-15.6889
沿	-15.6889
俗	-15.689
另	-15.6892
獣	-15.7008
⊂	-15.7009
ǫ	-15.7009
幻	-15.7009
배	-15.7009
∇	-15.7009
⚡	-15.7009
த	-15.7009
奮	-15.7009
梁	-15.7011
转	-15.7014
♡	-15.7132
塚	-15.7132
竹	-15.7132
猛	-15.7132
泰	-15.7132
粋	-15.7132
捨	-15.7132
凍	-15.7133
ɛ	-15.7133
∎	-15.7133
➢	-15.7133
강	-15.7133
점	-15.7133
ე	-15.7133
菌	-15.7133
披	-15.7133
忍	-15.7133
斗	-15.7134
滑	-15.7134
据	-15.7135
复	-15.7138
紫	-15.7257
緯	-15.7257
培	-15.7258
➤	-15.7258
김	-15.7258
좋	-15.7258
파	-15.7258
ு	-15.7258
窓	-15.7258
貧	-15.7258
肢	-15.7258
應	-15.7259
离	-15.7262
覆	-15.7384
կ	-15.7384
പ	-15.7384
ല	-15.7384
吐	-15.7384
감	-15.7384
열	-15.7384
노	-15.7384
尊	-15.7385
联	-15.7386
广	-15.7386
桥	-15.7512
鎖	-15.7512
僚	-15.7512
飾	-15.7512
竜	-15.7512
▐	-15.7512
ช	-15.7512
浪	-15.7513
假	-15.7513
偉	-15.7514
肩	-15.7514
哪	-15.7522
羅	-15.7641
磁	-15.7642
闇	-15.7642
ぇ	-15.7642
울	-15.7642
출	-15.7642
ɪ	-15.7642
鑑	-15.7642
觀	-15.7643
掃	-15.7643
播	-15.7643
兰	-15.7643
变	-15.7645
总	-15.7652
̆	-15.7659
약	-15.7774
체	-15.7774
ŋ	-15.7774
ம	-15.7774
ὦ	-15.7774
양	-15.7774
활	-15.7774
학	-15.7774
ṉ	-15.7774
誉	-15.7774
處	-15.7775
跳	-15.7776
满	-15.7777
亮	-15.7782
揚	-15.7907
력	-15.7907
︎	-15.7907
➍	-15.7907
ರ	-15.7907
ા	-15.7907
泣	-15.7907
兄	-15.7907
┘	-15.7907
脂	-15.7907
桜	-15.7907
釈	-15.7908
匹	-15.7908
訓	-15.7908
附	-15.7908
條	-15.7908
价	-15.7909
运	-15.791
您	-15.7911
证	-15.7914
誇	-15.8042
처	-15.8042
초	-15.8042
ओ	-15.8042
∅	-15.8042
▌	-15.8042
역	-15.8042
최	-15.8042
傳	-15.8042
ู	-15.8042
媒	-15.8043
摩	-15.8043
履	-15.8043
该	-15.8048
遂	-15.8179
∩	-15.8179
심	-15.8179
업	-15.8179
천	-15.8179
😀	-15.8179
↔	-15.8179
또	-15.8179
번	-15.8179
ํ	-15.818
ぴ	-15.818
简	-15.8181
丽	-15.8189
ץ	-15.8318
ী	-15.8318
너	-15.8318
慶	-15.8318
ื	-15.8318
寧	-15.8319
麗	-15.8319
溶	-15.8319
佳	-15.8319
殿	-15.8321
办	-15.8321
确	-15.8325
夕	-15.8458
貼	-15.8459
피	-15.8459
♔	-15.8459
난	-15.8459
법	-15.8459
訟	-15.8459
ா	-15.8459
ლ	-15.8459
์	-15.8459
雰	-15.8459
忙	-15.8459
伏	-15.846
酬	-15.846
欺	-15.846
序	-15.846
磨	-15.8461
标	-15.8461
调	-15.8461
识	-15.8463
亲	-15.8467
霞	-15.8602
ം	-15.8602
ᅲ	-15.8602
奨	-15.8602
刀	-15.8602
偶	-15.8602
坊	-15.8603
仙	-15.8603
导	-15.8603
刷	-15.8603
规	-15.8603
资	-15.8603
阻	-15.8604
纳	-15.8622
託	-15.8746
呂	-15.8746
暖	-15.8746
乃	-15.8746
奏	-15.8747
║	-15.8747
받	-15.8747
산	-15.8747
았	-15.8747
ʹ	-15.8747
송	-15.8747
տ	-15.8747
翼	-15.8747
預	-15.8747
駄	-15.8747
级	-15.8747
默	-15.8748
硬	-15.8749
卻	-15.875
错	-15.8753
네	-15.8894
ὠ	-15.8894
ֹ	-15.8894
ப	-15.8894
喚	-15.8894
聽	-15.8895
膨	-15.8895
覺	-15.8895
鏡	-15.8896
份	-15.8897
駐	-15.8897
疲	-15.8901
̥	-15.8934
晶	-15.9043
际	-15.9043
艾	-15.9043
직	-15.9043
➎	-15.9043
图	-15.9043
건	-15.9043
교	-15.9043
რ	-15.9043
棄	-15.9043
隆	-15.9043
鐘	-15.9044
繋	-15.9044
賢	-15.9044
鹿	-15.9044
妹	-15.9044
慰	-15.9045
计	-15.9046
劉	-15.9048
显	-15.9049
莉	-15.9193
貿	-15.9194
漏	-15.9195
晋	-15.9195
∃	-15.9195
⊆	-15.9195
든	-15.9195
집	-15.9195
환	-15.9195
ர	-15.9195
桃	-15.9195
貫	-15.9195
岳	-15.9195
恥	-15.9195
按	-15.9195
泊	-15.9196
跑	-15.9197
灯	-15.9197
殖	-15.9198
弗	-15.9207
ು	-15.9348
청	-15.9348
권	-15.9349
편	-15.9349
ু	-15.9349
증	-15.9349
ผ	-15.9349
滿	-15.9349
祥	-15.9351
兴	-15.9353
ˈ	-15.9505
ʃ	-15.9505
∨	-15.9505
ἢ	-15.9642
ἂ	-15.9643
̅	-15.9644
औ	-15.9644
