<pad>	0
<unk>	0
</s>	0
<sha_tkn1>	0
<sha_tkn2>	0
<sha_tkn3>	0
<sha_tkn4>	0
<sha_tkn5>	0
▁	-3.17241
.	-3.3717
,	-3.42407
▁the	-3.53145
s	-3.98236
▁of	-4.10098
▁and	-4.25464
▁to	-4.30672
▁a	-4.43951
▁in	-4.57492
-	-4.6813
▁is	-5.05403
_	-5.08134
'	-5.16613
▁that	-5.17641
)	-5.23324
▁for	-5.26555
:	-5.30161
▁(	-5.32788
▁with	-5.50735
▁I	-5.59137
t	-5.60929
▁on	-5.66327
(	-5.66451
▁was	-5.67082
▁The	-5.68282
▁it	-5.77807
▁be	-5.78289
▁as	-5.79297
▁"	-5.79586
d	-5.85546
▁by	-5.89739
/	-5.94322
▁are	-5.9761
;	-5.98002
▁=	-6.02221
▁\	-6.02797
▁at	-6.04634
▁from	-6.05821
▁this	-6.10684
▁you	-6.12201
▁or	-6.1352
n	-6.13992
▁not	-6.1479
{	-6.15094
a	-6.15155
▁an	-6.21551
’	-6.21752
▁have	-6.21984
▁$	-6.22027
ing	-6.27252
\	-6.2887
ed	-6.33166
i	-6.34763
>	-6.36848
"	-6.37384
e	-6.38651
m	-6.42981
▁*	-6.43268
*	-6.45768
▁were	-6.46467
▁we	-6.47671
}	-6.48395
▁he	-6.48752
x	-6.48913
▁-	-6.49633
▁can	-6.54944
▁his	-6.55416
▁A	-6.55603
?	-6.57044
$	-6.57374
▁which	-6.57774
▁<	-6.59157
r	-6.6197
▁but	-6.64094
▁In	-6.69267
S	-6.69643
B	-6.7075
▁has	-6.71107
y	-6.72708
p	-6.72821
▁+	-6.73592
▁all	-6.73889
▁if	-6.74783
▁had	-6.75198
b	-6.75761
c	-6.75996
▁one	-6.77592
2	-6.79125
="	-6.80477
k	-6.81242
▁will	-6.81619
▁{	-6.82865
in	-6.84183
▁they	-6.86882
A	-6.87743
C	-6.88973
1	-6.89206
▁their	-6.89964
f	-6.93584
g	-6.94327
▁more	-6.94567
o	-6.95636
ly	-6.96909
▁her	-6.97903
▁been	-7.00161
▁1	-7.01432
er	-7.01506
▁}	-7.02635
▁so	-7.03537
▁would	-7.06882
▁your	-7.07947
▁out	-7.08146
▁$\	-7.08509
▁also	-7.08592
▁my	-7.09079
▁when	-7.09407
▁“	-7.09555
▁time	-7.10096
▁no	-7.12115
▁about	-7.12151
).	-7.13002
I	-7.14311
▁there	-7.14659
▁It	-7.14875
▁other	-7.15014
▁do	-7.15605
▁up	-7.17468
re	-7.17922
▁0	-7.18444
h	-7.19272
▁who	-7.19361
▁This	-7.20785
l	-7.21549
▁into	-7.21747
▁de	-7.22124
▁S	-7.22235
▁than	-7.2326
_{	-7.24725
u	-7.25263
D	-7.25748
T	-7.28237
."	-7.28697
▁said	-7.29595
▁We	-7.30373
]	-7.30395
);	-7.30428
▁me	-7.31762
▁[	-7.3212
3	-7.32167
▁two	-7.32631
▁only	-7.327
▁like	-7.32836
v	-7.32962
F	-7.33603
▁&	-7.33857
----------------	-7.34102
R	-7.34386
▁she	-7.34402
▁2	-7.3449
P	-7.34553
▁C	-7.35088
▁what	-7.36127
E	-7.37081
▁its	-7.37451
▁some	-7.38017
),	-7.38381
▁He	-7.38523
▁our	-7.38627
j	-7.40267
▁first	-7.40695
▁over	-7.40827
▁'	-7.41472
▁any	-7.41828
▁may	-7.43516
▁such	-7.44104
ref	-7.44117
z	-7.44851
▁new	-7.45908
M	-7.46391
▁these	-7.48525
type	-7.48622
▁them	-7.48827
L	-7.48975
H	-7.50847
es	-7.5085
▁could	-7.51842
{\	-7.52141
4	-7.52801
N	-7.53006
▁between	-7.53824
▁after	-7.54257
▁use	-7.54574
al	-7.54703
▁him	-7.55782
!	-7.5673
▁just	-7.56845
▁where	-7.57552
▁get	-7.58123
▁v	-7.59062
▁then	-7.59086
▁3	-7.59246
▁#	-7.59301
▁Let	-7.6163
▁used	-7.61737
0	-7.62695
or	-7.6348
[	-7.64053
▁T	-7.64709
▁[@	-7.65608
▁data	-7.65658
=	-7.66013
▁//	-7.67295
▁P	-7.6732
▁p	-7.67765
▁using	-7.68508
▁F	-7.688
w	-7.69012
▁i	-7.69384
▁people	-7.69497
to	-7.69661
G	-7.70167
▁B	-7.70187
▁well	-7.73934
▁because	-7.74557
th	-7.75585
▁most	-7.76268
▁M	-7.76465
▁how	-7.76783
▁should	-7.79154
^	-7.79258
▁each	-7.79906
K	-7.80068
▁through	-7.80717
X	-7.81592
▁case	-7.81883
▁D	-7.82667
▁For	-7.83724
▁work	-7.83825
▁way	-7.84459
▁see	-7.85082
▁under	-7.85697
ve	-7.86065
▁make	-7.86335
▁R	-7.86441
▁U	-7.86467
▁return	-7.8747
▁If	-7.87471
▁What	-7.87578
▁E	-7.87819
▁even	-7.87896
▁L	-7.879
▁_	-7.87941
▁back	-7.88241
▁now	-7.88486
q	-7.88769
▁same	-7.88796
▁4	-7.89716
▁before	-7.90716
▁did	-7.90762
,"	-7.91325
▁very	-7.91353
**	-7.92305
▁both	-7.9266
en	-7.92721
▁years	-7.92843
}\	-7.92904
▁know	-7.92919
▁|	-7.93039
frac	-7.9376
▁But	-7.93813
▁those	-7.94311
▁@	-7.94422
▁set	-7.9455
",	-7.94797
▁5	-7.95176
▁m	-7.96305
▁many	-7.97153
▁number	-7.97356
▁being	-7.97369
”	-7.98309
right	-7.98407
▁made	-7.98803
▁different	-7.9963
W	-7.9963
▁As	-7.99643
▁need	-8.00035
▁class	-8.00123
▁G	-8.00316
▁H	-8.00661
->	-8.01206
on	-8.01268
▁un	-8.01725
ll	-8.02199
id	-8.02663
▁N	-8.03112
V	-8.03602
fig	-8.03903
▁found	-8.04058
▁while	-8.04416
5	-8.04586
com	-8.04978
▁much	-8.05104
▁10	-8.05243
▁here	-8.05253
</	-8.05322
}$	-8.05677
▁And	-8.05715
▁c	-8.06292
▁right	-8.06667
▁us	-8.06808
left	-8.07332
▁**	-8.07951
▁don	-8.08208
▁\[[@	-8.08587
▁system	-8.08607
▁\[	-8.08898
▁high	-8.091
▁re	-8.09414
▁three	-8.09935
...	-8.09949
▁You	-8.10307
6	-8.10518
▁down	-8.10714
end	-8.10832
▁K	-8.10943
▁good	-8.11143
J	-8.11678
▁f	-8.11969
▁J	-8.12702
▁without	-8.13008
▁function	-8.13532
▁study	-8.13641
()	-8.13814
9	-8.13965
▁value	-8.14109
_{\	-8.14169
▁long	-8.14925
▁during	-8.15283
▁part	-8.15624
▁want	-8.15815
▁To	-8.16529
<	-8.16735
8	-8.16844
▁e	-8.17339
▁She	-8.18017
▁public	-8.18844
▁state	-8.19286
▁cells	-8.19308
▁order	-8.19357
▁patients	-8.20003
le	-8.20093
▁non	-8.2012
▁still	-8.20273
▁d	-8.20413
+	-8.20681
▁think	-8.20682
▁court	-8.20705
able	-8.20792
://	-8.21397
▁No	-8.21595
▁group	-8.2224
▁go	-8.22241
▁does	-8.23324
▁There	-8.23345
▁end	-8.24373
▁must	-8.25455
▁take	-8.25942
(\	-8.25997
▁la	-8.26032
▁Category	-8.26348
▁against	-8.2668
O	-8.26745
7	-8.27024
">	-8.2732
▁name	-8.27455
is	-8.27481
▁So	-8.27838
▁year	-8.27988
ers	-8.2802
▁day	-8.28613
▁last	-8.30398
.”	-8.30713
▁second	-8.30741
▁n	-8.30983
▁own	-8.31055
▁al	-8.31363
the	-8.31727
The	-8.32619
Y	-8.32736
▁They	-8.32895
▁information	-8.33254
U	-8.33501
▁6	-8.34469
|	-8.34518
▁find	-8.35005
▁around	-8.35007
▁life	-8.35322
▁off	-8.35736
ic	-8.35857
▁et	-8.36913
▁type	-8.37378
and	-8.37478
▁O	-8.37629
▁another	-8.37781
an	-8.38098
**2	-8.38287
▁l	-8.38535
▁results	-8.38721
▁might	-8.38885
▁following	-8.38898
mu	-8.39685
▁V	-8.39861
::	-8.39975
CR	-8.40216
▁going	-8.40387
▁However	-8.40665
▁h	-8.41091
man	-8.41129
▁per	-8.41182
▁b	-8.41205
▁within	-8.41692
▁point	-8.4218
mathcal	-8.42383
▁</	-8.42504
▁g	-8.4276
alpha	-8.42785
▁since	-8.4284
ar	-8.43544
▁man	-8.4368
▁control	-8.44106
▁model	-8.44284
("	-8.44585
ation	-8.44788
▁When	-8.44963
int	-8.45077
▁New	-8.45387
▁too	-8.45916
▁world	-8.46251
▁x	-8.46335
":	-8.46349
▁example	-8.46399
▁every	-8.46832
▁show	-8.47175
)$	-8.47558
?"	-8.47615
▁line	-8.47836
get	-8.47958
▁cell	-8.4848
▁present	-8.48485
&	-8.48807
▁r	-8.48892
▁say	-8.49304
it	-8.49543
pi	-8.49809
up	-8.49994
▁help	-8.50615
▁given	-8.50764
▁$$\	-8.50852
us	-8.5101
▁small	-8.51352
▁en	-8.5151
ity	-8.51581
▁including	-8.51806
▁process	-8.52057
▁{#	-8.52195
▁something	-8.5235
▁*/	-8.52443
▁On	-8.5265
▁result	-8.53427
▁never	-8.53755
▁little	-8.53909
▁best	-8.55262
▁7	-8.55356
▁really	-8.55447
▁place	-8.55926
▁few	-8.56128
▁k	-8.56167
▁home	-8.56186
▁W	-8.56236
▁next	-8.56374
▁test	-8.56598
▁support	-8.56734
▁come	-8.56743
\]	-8.5676
▁8	-8.56838
▁form	-8.56964
▁left	-8.57668
▁change	-8.57682
li	-8.57697
--	-8.58083
▁based	-8.58443
▁large	-8.58497
%	-8.58623
▁am	-8.58957
▁analysis	-8.59114
▁water	-8.59123
▁power	-8.59476
▁That	-8.5978
▁y	-8.60162
▁method	-8.60228
rm	-8.61421
▁file	-8.61801
name	-8.61889
▁again	-8.61936
▁great	-8.62338
}}	-8.62964
▁better	-8.63128
▁above	-8.63314
▁important	-8.63788
▁fact	-8.63856
▁All	-8.64463
▁12	-8.64476
▁level	-8.65122
▁These	-8.65652
▁X	-8.66002
▁whether	-8.66031
▁At	-8.66108
,”	-8.6641
▁look	-8.6644
▁evidence	-8.66535
et	-8.66753
table	-8.66822
▁20	-8.67263
▁less	-8.67268
as	-8.67275
text	-8.67755
▁least	-8.67774
▁self	-8.67872
▁having	-8.68151
label	-8.68225
▁hand	-8.68347
▁possible	-8.6843
▁problem	-8.68479
▁things	-8.68632
▁United	-8.68961
▁que	-8.6915
▁due	-8.69639
();	-8.69817
▁low	-8.69911
▁single	-8.69952
"}	-8.69969
▁days	-8.70116
▁until	-8.70253
▁treatment	-8.70668
▁always	-8.70908
▁side	-8.71128
▁effect	-8.71404
.2	-8.71438
▁known	-8.71827
▁give	-8.72018
no	-8.72222
set	-8.72311
▁called	-8.72517
-1	-8.72523
▁pre	-8.72685
▁got	-8.7342
▁t	-8.73451
pone	-8.73972
▁{\	-8.74171
▁light	-8.74384
▁four	-8.74738
10	-8.74796
de	-8.75024
mathbb	-8.75107
begin	-8.75268
^{	-8.75832
▁shown	-8.75843
▁let	-8.7605
▁didn	-8.76169
▁field	-8.76663
▁free	-8.76852
ness	-8.76963
at	-8.76973
▁further	-8.77054
aligned	-8.7708
▁put	-8.77445
](#	-8.77551
▁common	-8.77637
▁current	-8.77704
▁family	-8.77832
▁w	-8.78017
▁provide	-8.78104
▁true	-8.78384
data	-8.78631
▁expression	-8.78721
▁size	-8.78734
▁Court	-8.79273
▁away	-8.79291
▁code	-8.79334
▁/*	-8.79335
▁several	-8.79377
▁either	-8.79583
▁post	-8.79714
▁men	-8.79767
▁One	-8.79787
▁o	-8.79799
▁human	-8.7998
el	-8.80259
▁head	-8.80369
▁open	-8.8078
▁mean	-8.80901
▁else	-8.811
▁States	-8.81209
ion	-8.81263
)\	-8.81635
usepackage	-8.81705
▁Re	-8.81984
▁local	-8.82064
▁11	-8.82228
▁law	-8.82339
}$$	-8.82558
▁available	-8.82751
▁After	-8.82838
$,	-8.83053
▁full	-8.83393
un	-8.83471
$.	-8.83489
ul	-8.83564
▁children	-8.8377
▁game	-8.84052
▁real	-8.84104
▁int	-8.84322
▁j	-8.84327
▁body	-8.84532
▁error	-8.84645
▁sub	-8.84686
▁though	-8.85419
▁9	-8.85488
▁An	-8.85489
▁old	-8.85528
▁means	-8.85627
▁studies	-8.85682
▁later	-8.85754
▁higher	-8.85799
▁18	-8.85842
sec	-8.85878
ant	-8.85888
▁far	-8.86015
lambda	-8.86065
▁See	-8.86568
▁already	-8.86747
▁thought	-8.86903
bar	-8.87256
▁significant	-8.87319
▁total	-8.87439
▁action	-8.87813
▁came	-8.88356
}(	-8.88512
▁government	-8.88586
▁space	-8.88664
▁run	-8.88811
▁often	-8.88839
▁area	-8.88904
▁upon	-8.8909
Fig	-8.89097
ch	-8.89277
ist	-8.89405
▁question	-8.89481
div	-8.89514
▁similar	-8.89656
▁15	-8.89675
▁why	-8.8969
▁values	-8.89711
▁--	-8.89847
▁u	-8.89866
▁rate	-8.90033
▁trial	-8.90265
▁team	-8.903
os	-8.90347
▁care	-8.90395
▁told	-8.90648
line	-8.90681
▁start	-8.9069
▁enough	-8.90719
▁co	-8.90917
ment	-8.91033
▁able	-8.9111
co	-8.91354
out	-8.91469
▁read	-8.91469
▁general	-8.91488
▁done	-8.91616
▁along	-8.91717
st	-8.91738
▁however	-8.91801
▁person	-8.92064
▁health	-8.92187
▁women	-8.92363
▁thing	-8.92364
▁among	-8.92493
sum	-8.92593
am	-8.92785
▁se	-8.93476
▁course	-8.9354
▁Co	-8.93553
▁lot	-8.93848
▁associated	-8.93874
▁cases	-8.93899
▁My	-8.93922
▁30	-8.94307
}{	-8.9432
te	-8.94521
▁call	-8.94921
▁var	-8.94992
▁State	-8.95103
▁position	-8.95122
▁response	-8.95445
**3	-8.95623
▁levels	-8.95699
▁image	-8.95918
▁sure	-8.95984
▁energy	-8.96066
▁${\	-8.96077
▁says	-8.96338
ian	-8.96666
▁times	-8.96774
▁seen	-8.96906
me	-8.9717
▁took	-8.97236
ie	-8.97615
▁Suppose	-8.97659
est	-8.97923
▁top	-8.98105
▁together	-8.98124
▁list	-8.98153
ne	-8.98499
▁American	-8.98588
org	-8.9859
ge	-8.98658
▁face	-8.98946
▁compared	-8.98981
▁age	-8.99219
▁Then	-8.99276
▁final	-8.99535
beta	-8.99584
▁How	-8.99596
▁z	-8.99606
▁early	-8.9964
▁==	-8.99652
Name	-8.99753
ir	-8.99788
00	-8.99883
▁potential	-9.00055
▁%	-9.00128
▁required	-9.0014
▁specific	-9.00167
▁once	-9.00262
mathbf	-9.0032
▁range	-9.00691
▁making	-9.00733
32	-9.00737
▁across	-9.00746
▁([@	-9.00917
▁lower	-9.01122
▁issue	-9.01221
▁business	-9.01262
▁main	-9.01307
ine	-9.01448
▁activity	-9.01465
▁key	-9.01571
ton	-9.01595
ism	-9.01605
))	-9.01677
▁terms	-9.01788
('	-9.01793
▁working	-9.01918
▁include	-9.01941
Type	-9.0226
▁groups	-9.02376
▁reported	-9.0257
▁play	-9.02724
▁went	-9.02799
▁become	-9.02919
▁By	-9.03002
_\	-9.03145
^{\	-9.03158
▁void	-9.03412
▁risk	-9.03484
▁University	-9.0365
▁keep	-9.03819
sigma	-9.03918
▁surface	-9.04466
▁addition	-9.04747
▁described	-9.04903
▁service	-9.0497
▁2*	-9.05199
▁conditions	-9.05432
▁love	-9.0544
ell	-9.05492
▁role	-9.05737
▁di	-9.05793
▁provided	-9.05802
▁research	-9.05827
▁development	-9.05832
▁short	-9.05849
▁hard	-9.05988
▁With	-9.06276
▁particular	-9.06326
time	-9.06395
one	-9.06503
▁16	-9.06524
▁([	-9.06782
ia	-9.0682
▁anti	-9.06827
▁increase	-9.06951
▁observed	-9.07193
▁source	-9.07234
}_{	-9.07527
age	-9.07662
▁import	-9.077
@	-9.07778
span	-9.07892
phi	-9.07972
▁doesn	-9.08109
▁company	-9.0811
▁section	-9.08112
▁increased	-9.0823
▁cannot	-9.08375
▁asked	-9.08387
rs	-9.08398
▁months	-9.08419
um	-9.08529
▁school	-9.08536
ra	-9.08599
▁ever	-9.08628
▁try	-9.08767
gamma	-9.08787
▁structure	-9.08815
▁protein	-9.08855
sqrt	-9.08913
▁multiple	-9.09137
of	-9.09188
▁room	-9.09379
"}).	-9.0948
▁1,	-9.09483
▁effects	-9.09511
▁changes	-9.09641
▁rather	-9.09863
▁add	-9.09937
▁third	-9.09956
string	-9.10221
bib	-9.10448
▁yet	-9.10458
▁factors	-9.10748
nu	-9.10906
▁site	-9.11027
▁matter	-9.11222
▁disease	-9.11402
▁Y	-9.11638
▁book	-9.11657
▁Mr	-9.11682
pt	-9.11868
▁period	-9.12162
ling	-9.12363
▁five	-9.12445
▁const	-9.12457
▁version	-9.12465
▁...	-9.12525
In	-9.12671
▁content	-9.12709
▁country	-9.12792
▁performed	-9.12847
▁clear	-9.12908
▁program	-9.12923
▁week	-9.12942
▁close	-9.13032
▁whole	-9.13462
].	-9.13538
▁13	-9.13685
1,	-9.1371
▁14	-9.13742
▁kind	-9.13801
▁taken	-9.13844
em	-9.13864
▁user	-9.1387
▁past	-9.13884
▁1.	-9.14001
▁object	-9.14042
▁night	-9.14163
▁doing	-9.14167
▁standard	-9.14418
▁various	-9.14498
12	-9.14566
▁below	-9.14592
▁showed	-9.14655
ry	-9.14672
▁according	-9.14717
http	-9.14739
01	-9.14799
pm	-9.14821
▁view	-9.14941
min	-9.15005
▁feel	-9.15037
▁His	-9.15132
▁car	-9.15227
son	-9.15282
▁money	-9.15298
▁100	-9.15316
mathrm	-9.15318
ate	-9.15911
▁positive	-9.16303
▁De	-9.16348
▁actually	-9.16402
▁social	-9.16537
ized	-9.16653
▁base	-9.16674
▁device	-9.17128
▁create	-9.17166
www	-9.17172
▁amount	-9.17261
▁term	-9.17304
80	-9.17385
▁24	-9.17424
▁bit	-9.17448
▁almost	-9.17489
this	-9.17573
▁experience	-9.17645
io	-9.17679
ally	-9.17879
if	-9.18112
▁factor	-9.18697
▁obtained	-9.18701
▁considered	-9.1874
▁big	-9.18781
▁St	-9.18858
log	-9.18872
▁La	-9.18902
We	-9.18941
eq	-9.19073
▁shows	-9.19156
Figure	-9.1922
ad	-9.19243
▁blood	-9.19244
▁application	-9.19298
ID	-9.19392
▁interest	-9.19441
▁likely	-9.19488
▁air	-9.19539
▁cause	-9.19596
▁||	-9.19679
▁Here	-9.19709
▁private	-9.19849
▁future	-9.20039
tau	-9.20145
rho	-9.20196
▁black	-9.20302
▁project	-9.2035
16	-9.20366
ma	-9.20448
▁half	-9.20636
▁material	-9.20866
▁con	-9.2093
▁York	-9.20995
▁systems	-9.21013
]{}	-9.21033
▁nothing	-9.2133
▁reason	-9.21392
▁solution	-9.21418
_1	-9.21442
▁property	-9.21593
▁added	-9.21963
▁death	-9.22026
▁report	-9.22312
▁Do	-9.22452
▁anything	-9.22457
▁others	-9.22479
▁tell	-9.22507
ary	-9.22611
▁THE	-9.22837
delta	-9.22957
▁won	-9.2298
▁trying	-9.23169
▁believe	-9.23342
It	-9.23363
▁points	-9.23514
▁house	-9.23521
na	-9.23639
▁certain	-9.23665
^2	-9.23865
less	-9.23921
▁region	-9.23925
▁individual	-9.23978
chi	-9.24128
▁included	-9.24154
▁access	-9.24284
▁related	-9.24312
#	-9.24355
11	-9.24384
▁approach	-9.24466
▁looking	-9.24478
ization	-9.24587
▁held	-9.24635
You	-9.24654
value	-9.24709
omega	-9.24732
hat	-9.24763
ive	-9.24768
html	-9.24923
▁God	-9.24982
▁defined	-9.25016
▁(*	-9.25104
▁city	-9.25372
▁string	-9.25451
================	-9.25493
▁history	-9.25511
▁minutes	-9.25729
▁mind	-9.26079
ating	-9.26127
▁series	-9.26308
▁performance	-9.26376
▁white	-9.26681
▁film	-9.26877
▁record	-9.27033
code	-9.27119
▁paper	-9.27162
▁major	-9.27171
▁simple	-9.27221
▁cancer	-9.27222
▁John	-9.27333
▁child	-9.27342
▁While	-9.27383
▁Now	-9.27521
▁respectively	-9.27588
▁le	-9.27749
il	-9.2781
▁event	-9.27814
▁idea	-9.27844
▁50	-9.2785
by	-9.27876
▁decision	-9.27926
▁received	-9.27965
▁members	-9.27991
▁million	-9.2823
▁food	-9.28627
▁static	-9.28669
key	-9.28967
-2	-9.28973
▁via	-9.29139
▁difference	-9.2937
▁himself	-9.29474
▁review	-9.29487
▁eyes	-9.295
▁war	-9.29587
▁thus	-9.29755
times	-9.29823
▁normal	-9.29936
▁May	-9.3005
▁makes	-9.30054
▁population	-9.30201
▁3*	-9.30201
▁significantly	-9.3025
▁consider	-9.30534
▁story	-9.30556
,\	-9.3056
▁2.	-9.30594
xi	-9.30663
▁Our	-9.30668
theta	-9.30701
ting	-9.30831
▁additional	-9.30862
")	-9.30927
cal	-9.31123
ies	-9.31286
▁live	-9.315
▁q	-9.31584
▁hours	-9.3179
▁getting	-9.31791
▁25	-9.31802
▁heart	-9.31987
▁network	-9.32035
▁US	-9.32041
for	-9.32121
▁Thus	-9.32139
ous	-9.32142
▁\\	-9.32164
▁mass	-9.32166
▁young	-9.32184
▁design	-9.32217
partial	-9.32307
▁=>	-9.32372
▁season	-9.32423
ten	-9.32547
do	-9.32651
▁understand	-9.32663
▁needed	-9.32899
▁patient	-9.33059
define	-9.33107
based	-9.33141
la	-9.3326
▁started	-9.33343
ce	-9.33407
list	-9.33466
▁sense	-9.33467
go	-9.33519
▁motion	-9.33631
see	-9.33665
▁therefore	-9.33678
▁17	-9.33717
▁turn	-9.33813
Table	-9.33848
ted	-9.33892
▁saw	-9.33899
▁text	-9.33939
▁claim	-9.34009
ol	-9.3415
ter	-9.34167
");	-9.34216
▁signal	-9.34307
▁community	-9.34307
▁previous	-9.34409
▁$$	-9.34492
▁prior	-9.34607
ro	-9.34721
▁front	-9.34787
▁cost	-9.348
year	-9.34907
▁table	-9.34914
▁defendant	-9.35117
test	-9.3518
▁National	-9.352
▁words	-9.3524
▁near	-9.35312
ty	-9.3536
ner	-9.355
],	-9.35509
▁growth	-9.35686
▁party	-9.35698
▁Dr	-9.35876
▁Since	-9.35878
▁false	-9.35908
▁product	-9.35994
▁instead	-9.36145
▁$(	-9.36234
▁step	-9.36343
he	-9.3635
▁methods	-9.36507
\_	-9.36516
▁itself	-9.36563
▁seems	-9.36618
▁probably	-9.36775
size	-9.36795
▁page	-9.36795
▁original	-9.36824
▁production	-9.36832
▁today	-9.37
▁states	-9.37088
▁check	-9.37144
▁(1	-9.37499
▁0,	-9.37528
▁special	-9.37578
▁wanted	-9.37626
▁complex	-9.37793
▁someone	-9.37818
be	-9.37827
▁move	-9.3803
><	-9.38045
▁distribution	-9.38088
▁ground	-9.38146
64	-9.38344
per	-9.3838
▁rest	-9.38447
▁looked	-9.38477
▁involved	-9.38534
ent	-9.3855
▁target	-9.38593
▁expected	-9.38662
▁pro	-9.38858
over	-9.39187
▁lead	-9.39197
To	-9.39281
▁account	-9.39327
Delta	-9.39373
leq	-9.39375
▁temperature	-9.39431
▁taking	-9.39567
▁(\[	-9.39769
land	-9.39782
▁weight	-9.39792
^\	-9.39838
▁gene	-9.39943
▁behind	-9.40001
▁pressure	-9.40084
▁Al	-9.40096
infty	-9.40103
▁moment	-9.4034
▁length	-9.40527
▁pay	-9.40695
▁quite	-9.40705
];	-9.40758
▁Some	-9.40763
▁sequence	-9.4083
▁lines	-9.40875
▁necessary	-9.4097
▁average	-9.40996
▁inside	-9.41047
lo	-9.41059
▁services	-9.41179
▁strong	-9.41239
▁job	-9.41327
String	-9.41361
▁http	-9.41429
ac	-9.41889
ial	-9.41903
im	-9.41983
▁color	-9.41996
▁quality	-9.42035
ley	-9.42053
▁market	-9.42085
▁plan	-9.42143
▁condition	-9.42172
den	-9.42225
tr	-9.4226
▁City	-9.42272
all	-9.42307
}_	-9.42321
▁outside	-9.42447
▁six	-9.42462
▁presence	-9.4249
▁el	-9.42571
▁problems	-9.42574
net	-9.42805
▁From	-9.42852
eta	-9.4289
▁phase	-9.43227
▁red	-9.43316
▁recent	-9.43333
▁word	-9.43442
Id	-9.43775
▁complete	-9.43784
▁multi	-9.43814
▁knew	-9.43846
▁especially	-9.43852
▁subject	-9.43897
▁respect	-9.439
old	-9.43954
▁video	-9.43993
▁media	-9.44095
▁dis	-9.44338
▁sample	-9.44445
▁models	-9.44474
▁simply	-9.44486
▁follow	-9.44523
▁die	-9.44612
▁shall	-9.4469
Data	-9.44806
▁determined	-9.45052
▁everything	-9.45172
▁Although	-9.45257
▁loss	-9.4532
▁break	-9.45462
20	-9.45513
></	-9.45534
):	-9.45637
td	-9.45738
▁percent	-9.45752
day	-9.45754
▁allow	-9.45791
▁id	-9.45846
▁became	-9.45886
▁issues	-9.4591
▁Not	-9.45927
▁clinical	-9.45996
▁longer	-9.46416
▁features	-9.46525
ur	-9.46871
▁comes	-9.46921
▁began	-9.46931
▁district	-9.46956
▁First	-9.4725
▁needs	-9.47351
▁4*	-9.47472
▁events	-9.47489
▁species	-9.47589
my	-9.47844
▁date	-9.48008
▁language	-9.48374
▁2,	-9.48503
mm	-9.48768
▁police	-9.48784
▁des	-9.49237
off	-9.49341
include	-9.49422
▁element	-9.49477
▁address	-9.49482
▁member	-9.49518
▁min	-9.49562
15	-9.4963
▁Is	-9.49727
▁provides	-9.49813
No	-9.49869
men	-9.49884
▁force	-9.49888
▁input	-9.49969
▁OF	-9.50046
▁mother	-9.50092
▁running	-9.50133
▁door	-9.50303
-3	-9.50416
▁memory	-9.50614
▁cross	-9.50863
▁0;	-9.50924
▁turned	-9.50957
▁father	-9.50994
▁write	-9.51086
▁woman	-9.51109
▁>	-9.51147
ated	-9.51165
▁felt	-9.51461
▁students	-9.51631
var	-9.5164
▁personal	-9.51643
▁policy	-9.51649
▁works	-9.5178
▁presented	-9.5179
!"	-9.51849
▁40	-9.51868
▁art	-9.51976
▁determine	-9.52109
▁created	-9.5217
▁easy	-9.52178
.3	-9.52211
1){	-9.52274
▁written	-9.52312
▁output	-9.52415
▁!=	-9.52497
▁Or	-9.52713
▁political	-9.5273
ber	-9.52733
13	-9.52797
▁invention	-9.53002
▁bar	-9.53003
▁![	-9.53056
▁search	-9.53058
▁physical	-9.53077
ish	-9.53109
▁Therefore	-9.53154
▁judgment	-9.53224
▁tried	-9.5327
▁19	-9.53496
▁primary	-9.53506
▁effective	-9.53545
▁gave	-9.5363
▁followed	-9.53649
▁stop	-9.53651
▁parameters	-9.53721
▁&&	-9.53745
da	-9.5382
▁directly	-9.5388
▁forward	-9.54133
▁properties	-9.54148
gen	-9.5418
▁path	-9.54209
tilde	-9.54212
ED	-9.54267
_2	-9.5427
led	-9.54308
▁-1	-9.54397
▁Trump	-9.54443
▁late	-9.54562
▁World	-9.54589
▁bad	-9.54639
▁building	-9.54659
▁layer	-9.54698
▁samples	-9.54901
▁software	-9.5495
▁flow	-9.54982
▁weeks	-9.54991
▁former	-9.55019
▁build	-9.55071
not	-9.55071
▁natural	-9.55122
like	-9.55278
}{\	-9.55328
▁release	-9.55361
▁identified	-9.55367
▁questions	-9.55408
ca	-9.556
▁products	-9.5565
▁medical	-9.55675
▁elements	-9.55752
▁difficult	-9.55776
new	-9.55837
▁knowledge	-9.55952
▁acid	-9.56001
ak	-9.5608
ful	-9.56093
1-	-9.56136
14	-9.56176
▁II	-9.56312
▁South	-9.56347
▁21	-9.56402
1)	-9.56414
▁contact	-9.56435
▁initial	-9.56443
ance	-9.56534
▁greater	-9.56594
▁functions	-9.56608
18	-9.56614
▁Le	-9.56647
path	-9.56718
▁relationship	-9.5684
▁follows	-9.56847
▁ago	-9.56894
▁answer	-9.56981
}}\	-9.56985
▁whose	-9.57007
2,	-9.57047
▁title	-9.57059
field	-9.57152
px	-9.5718
})	-9.57215
▁applied	-9.57319
add	-9.57331
▁March	-9.57386
ence	-9.57419
▁themselves	-9.57512
▁training	-9.57785
▁map	-9.5779
▁require	-9.57826
▁limited	-9.57847
▁types	-9.57958
▁leave	-9.58017
▁status	-9.58027
▁Act	-9.58085
file	-9.58102
Re	-9.58221
▁basis	-9.58255
▁developed	-9.58296
▁rights	-9.58536
▁Calculate	-9.58612
psi	-9.58641
▁null	-9.58658
▁CD	-9.58676
▁index	-9.58776
▁mice	-9.58876
▁although	-9.59016
rangle	-9.59333
▁gas	-9.5935
}^{	-9.59503
cdot	-9.59507
▁reference	-9.59548
▁Be	-9.59563
▁cut	-9.59644
lin	-9.59693
array	-9.59724
▁context	-9.59731
▁coming	-9.59911
▁direct	-9.6
▁unit	-9.60018
▁reduced	-9.60084
▁stage	-9.60126
▁28	-9.60183
▁previously	-9.60226
▁areas	-9.60285
▁particularly	-9.60316
02	-9.60454
▁array	-9.60477
▁generally	-9.60596
app	-9.6073
▁genes	-9.60851
▁22	-9.60886
▁Her	-9.60888
▁lost	-9.61015
class	-9.61017
▁nature	-9.61135
▁Inc	-9.612
17	-9.61341
▁5*	-9.61607
state	-9.6163
nd	-9.61647
▁pain	-9.61664
▁players	-9.61768
▁Cir	-9.61794
50	-9.62003
▁hold	-9.62062
ta	-9.62132
\\	-9.62162
▁wrong	-9.62212
ast	-9.62225
List	-9.62246
▁County	-9.62353
▁background	-9.62448
▁fire	-9.62479
▁inter	-9.62507
▁double	-9.62554
ci	-9.62594
▁theory	-9.62604
▁June	-9.62682
▁usually	-9.6277
▁month	-9.62807
$-	-9.6288
se	-9.62881
▁North	-9.62936
val	-9.63012
▁War	-9.6306
▁app	-9.63067
len	-9.63068
▁DNA	-9.6311
▁published	-9.63136
▁entire	-9.63157
▁anyone	-9.63226
▁statement	-9.63247
▁[*	-9.63283
▁includes	-9.63331
▁independent	-9.63349
self	-9.63426
Value	-9.6343
bf	-9.63472
▁continue	-9.63585
▁heard	-9.63617
▁article	-9.63669
▁super	-9.63737
▁sent	-9.6375
▁ability	-9.63765
▁soon	-9.63768
▁America	-9.63864
▁message	-9.63915
▁impact	-9.63974
▁micro	-9.63999
param	-9.64148
▁House	-9.64169
▁3.	-9.6422
▁obtain	-9.6434
▁err	-9.645
▁direction	-9.64524
▁:=	-9.64553
▁fine	-9.64579
▁music	-9.646
▁request	-9.6471
ability	-9.64765
▁writing	-9.64771
_0	-9.64876
▁living	-9.65072
▁deal	-9.65204
▁practice	-9.65229
▁struct	-9.65233
{{\	-9.65243
▁oil	-9.65344
▁style	-9.65377
30	-9.65435
ning	-9.65459
▁Pro	-9.65461
[@	-9.65559
](	-9.65606
br	-9.65666
▁claims	-9.65696
▁office	-9.65759
▁drug	-9.6579
di	-9.65811
▁online	-9.65883
";	-9.65947
▁differences	-9.66287
▁negative	-9.66318
▁hands	-9.66484
▁corresponding	-9.66649
▁\<	-9.66653
▁act	-9.66768
▁land	-9.66824
($	-9.6683
▁etc	-9.66845
▁density	-9.67116
▁hope	-9.67165
back	-9.67498
▁active	-9.67548
op	-9.67612
▁alone	-9.67661
▁note	-9.6773
▁purpose	-9.67803
19	-9.67941
▁ten	-9.67991
so	-9.68019
▁da	-9.68031
40	-9.6805
▁brain	-9.68066
▁El	-9.68164
▁Of	-9.68179
▁23	-9.68211
▁President	-9.68276
=\	-9.68328
ide	-9.68493
▁son	-9.68682
▁sound	-9.68709
▁relative	-9.68805
▁display	-9.68914
}}$	-9.69078
▁talk	-9.69096
▁images	-9.69152
▁friends	-9.69197
ium	-9.69204
top	-9.69215
▁default	-9.69232
yl	-9.69312
▁wasn	-9.69348
▁General	-9.69433
▁bring	-9.69571
▁proposed	-9.69594
▁href	-9.6962
▁security	-9.6966
▁pass	-9.69856
▁rule	-9.69962
▁national	-9.7025
▁/**	-9.70285
▁Na	-9.70328
▁brought	-9.70445
ab	-9.70461
▁charge	-9.70484
▁Man	-9.70509
▁July	-9.70539
red	-9.70672
https	-9.70681
▁measured	-9.70713
▁character	-9.70768
▁April	-9.70806
▁Me	-9.70885
▁situation	-9.70893
▁share	-9.7095
▁26	-9.70955
Omega	-9.71018
▁recently	-9.71228
▁Fig	-9.71318
▁pretty	-9.7136
▁larger	-9.7141
▁China	-9.7145
}(\	-9.71606
▁attention	-9.71676
max	-9.71712
▁distance	-9.71732
lib	-9.7174
25	-9.71802
▁voice	-9.71834
▁center	-9.71872
width	-9.71996
▁More	-9.7201
▁global	-9.72031
▁ask	-9.72245
▁argument	-9.72321
▁60	-9.72324
▁games	-9.72373
▁(2	-9.72403
▁mode	-9.72414
▁August	-9.72487
▁offer	-9.7249
▁du	-9.7252
ha	-9.72634
epsilon	-9.72669
View	-9.72751
▁toward	-9.72758
mo	-9.72787
▁seem	-9.72851
we	-9.72909
▁San	-9.72912
ex	-9.72937
link	-9.72968
▁January	-9.72994
sim	-9.73087
▁morning	-9.73094
▁Even	-9.73149
res	-9.73179
document	-9.73406
▁heat	-9.73575
▁price	-9.736
▁saying	-9.73658
▁limit	-9.73681
▁allowed	-9.73739
▁highly	-9.73843
▁degree	-9.73936
map	-9.74024
▁devices	-9.74039
ng	-9.74076
2-	-9.74132
▁designed	-9.7415
▁block	-9.74188
▁speed	-9.74275
▁###	-9.74464
▁environment	-9.74481
▁numbers	-9.74518
▁location	-9.74569
▁treated	-9.74579
Gamma	-9.74615
▁Because	-9.74905
▁met	-9.74924
base	-9.75016
▁Also	-9.7504
▁constant	-9.75055
▁fixed	-9.75102
▁operation	-9.75115
▁der	-9.75164
▁failed	-9.75194
▁prime	-9.75196
▁frequency	-9.75302
ip	-9.75517
▁everyone	-9.75676
▁wrote	-9.75695
▁central	-9.75707
▁reading	-9.75708
▁tax	-9.75801
▁0.5	-9.75941
way	-9.75947
▁produced	-9.75964
▁com	-9.76056
2)	-9.76119
What	-9.76311
▁selected	-9.76321
▁takes	-9.76324
side	-9.76401
▁learn	-9.76427
▁led	-9.76437
▁legal	-9.76451
1.	-9.76515
▁ratio	-9.76551
▁District	-9.76613
ler	-9.76615
▁hit	-9.76748
▁management	-9.76841
▁established	-9.76845
▁divided	-9.76975
▁para	-9.77013
dev	-9.7707
▁English	-9.77119
▁agreement	-9.77241
fn	-9.77335
▁September	-9.77352
ka	-9.77499
▁West	-9.77508
▁rates	-9.77609
He	-9.77804
▁focus	-9.77814
▁pattern	-9.7783
▁October	-9.77834
▁caused	-9.77868
));	-9.77874
▁isn	-9.78052
▁notice	-9.78065
▁derivative	-9.7807
▁dark	-9.781
▁leading	-9.78106
Object	-9.78225
▁band	-9.7828
▁},	-9.78306
term	-9.78422
▁technology	-9.78527
▁[**	-9.78531
▁instance	-9.7856
▁failure	-9.7861
▁components	-9.7868
\])	-9.78681
▁computer	-9.78703
▁users	-9.78705
▁behavior	-9.78751
ung	-9.78754
bb	-9.78775
▁website	-9.78783
▁wide	-9.78987
py	-9.78992
▁earlier	-9.79228
▁findings	-9.79239
▁built	-9.79302
▁completely	-9.79414
con	-9.79459
▁federal	-9.79631
04	-9.79642
▁stay	-9.79816
▁scale	-9.79818
▁worked	-9.79901
▁easily	-9.79918
▁countries	-9.80045
tic	-9.80128
ities	-9.80134
▁details	-9.8019
▁def	-9.80259
ite	-9.8035
▁currently	-9.80363
▁appeal	-9.80386
▁3,	-9.80431
str	-9.80484
)}	-9.80569
▁useful	-9.80769
izing	-9.80774
▁expect	-9.80839
+\	-9.80967
▁choice	-9.81055
▁Department	-9.81082
ard	-9.81202
▁Two	-9.81229
▁lack	-9.81254
▁link	-9.81282
ee	-9.81332
▁__	-9.81337
▁plaintiff	-9.81341
▁matrix	-9.8137
▁myself	-9.81373
▁tissue	-9.81381
▁component	-9.81397
▁companies	-9.81446
▁equal	-9.81545
▁released	-9.81549
22	-9.81577
▁except	-9.81701
▁contract	-9.81745
▁individuals	-9.8179
▁par	-9.8186
▁increasing	-9.8187
▁phone	-9.81877
▁proteins	-9.81895
▁suggest	-9.81927
▁fast	-9.81944
▁culture	-9.82098
▁moved	-9.8211
▁Data	-9.82177
row	-9.822
▁Un	-9.8222
▁seemed	-9.8224
24	-9.82351
▁si	-9.82357
ray	-9.82376
▁gives	-9.82563
▁extra	-9.82599
▁December	-9.82655
▁Note	-9.82672
▁decided	-9.82686
▁Can	-9.827
ham	-9.8271
▁unique	-9.82714
▁correct	-9.82835
▁connection	-9.82888
varepsilon	-9.8289
▁friend	-9.82919
▁November	-9.82928
▁volume	-9.83058
▁appropriate	-9.83097
▁Solve	-9.83107
▁located	-9.83147
▁changed	-9.83185
▁win	-9.8331
▁formation	-9.83315
big	-9.83343
▁window	-9.83512
▁industry	-9.83611
▁beyond	-9.83671
▁expressed	-9.83714
▁According	-9.83753
▁Mar	-9.83766
▁contains	-9.83849
▁deep	-9.83898
▁appear	-9.83911
▁requires	-9.83949
▁finding	-9.83993
▁Go	-9.8401
▁board	-9.84076
▁supported	-9.841
▁formed	-9.8416
▁Which	-9.84304
▁transfer	-9.84312
▁hearing	-9.84322
▁drive	-9.84338
MS	-9.84373
▁contrast	-9.84404
▁author	-9.84433
vert	-9.84583
▁box	-9.84589
▁clearly	-9.84642
▁hear	-9.84645
▁containing	-9.84719
▁sites	-9.84765
▁measure	-9.84785
▁ex	-9.84847
let	-9.84868
▁played	-9.84894
▁String	-9.85014
▁wall	-9.85058
▁Con	-9.85119
▁29	-9.8519
▁couple	-9.8523
▁sign	-9.85334
▁copy	-9.85336
read	-9.85353
▁command	-9.85473
▁quickly	-9.85496
sub	-9.85522
▁web	-9.85523
▁Figure	-9.85611
23	-9.85651
▁fall	-9.85689
▁meet	-9.85725
▁feature	-9.8588
mp	-9.85983
▁authors	-9.86057
operatorname	-9.86088
03	-9.86106
▁parts	-9.86117
▁poor	-9.86142
▁generated	-9.86149
ier	-9.86196
▁highest	-9.86218
▁smaller	-9.86252
▁news	-9.86294
dy	-9.863
▁remember	-9.86304
▁towards	-9.86398
▁hair	-9.86522
▁sa	-9.86536
▁Your	-9.86624
▁print	-9.8668
▁match	-9.86711
pre	-9.86732
ana	-9.86775
▁server	-9.86786
varphi	-9.86793
form	-9.86835
▁4.	-9.8686
▁License	-9.86901
▁sometimes	-9.86994
▁blue	-9.87022
▁overall	-9.87059
▁separate	-9.87155
▁------	-9.87181
▁Ca	-9.87235
▁president	-9.87263
▁};	-9.87276
▁actual	-9.87295
▁store	-9.87302
ri	-9.87313
▁System	-9.87318
with	-9.8734
21	-9.87343
script	-9.87347
▁stress	-9.87401
Get	-9.87451
▁School	-9.87473
▁skin	-9.87571
▁nor	-9.87581
▁cover	-9.8759
27	-9.87661
▁del	-9.8767
▁host	-9.87725
ize	-9.87764
ING	-9.87778
▁option	-9.87799
And	-9.8782
▁allows	-9.87826
▁ways	-9.87877
free	-9.87912
nt	-9.87919
view	-9.87958
▁package	-9.87962
dot	-9.88007
▁options	-9.88098
05	-9.88134
▁town	-9.88178
use	-9.88309
▁na	-9.88384
▁auto	-9.88393
▁///	-9.884
▁Most	-9.88432
ti	-9.88503
▁medium	-9.88566
▁showing	-9.88613
▁critical	-9.88675
▁sex	-9.88716
▁relevant	-9.8874
▁apply	-9.88942
▁sort	-9.88978
▁appears	-9.89043
▁parameter	-9.89168
▁produce	-9.89234
▁exactly	-9.89242
ron	-9.89327
▁32	-9.89345
▁remains	-9.89377
▁variable	-9.89525
▁experiments	-9.89526
ger	-9.89526
▁node	-9.89535
45	-9.89584
▁parties	-9.89615
28	-9.89681
▁filed	-9.89686
ible	-9.89731
08	-9.89777
▁opinion	-9.89811
▁education	-9.89833
▁receive	-9.89869
▁road	-9.89934
▁concentration	-9.89974
File	-9.89991
port	-9.90027
▁understanding	-9.90048
▁Moreover	-9.90062
▁les	-9.90116
▁reduce	-9.90217
▁figure	-9.90224
▁closed	-9.90259
▁round	-9.90385
ring	-9.90396
▁British	-9.90398
|\	-9.90468
▁goes	-9.90586
▁learning	-9.90637
▁count	-9.9065
▁setting	-9.90711
▁visit	-9.90754
▁improve	-9.90789
▁activities	-9.90816
ho	-9.90817
This	-9.9082
ker	-9.90851
ui	-9.90914
▁staff	-9.90919
▁OR	-9.90948
▁Don	-9.90969
▁military	-9.90996
▁damage	-9.91001
▁player	-9.91172
▁avoid	-9.91187
▁task	-9.91199
▁mg	-9.91218
▁27	-9.91251
▁immediately	-9.91295
box	-9.91419
▁influence	-9.9144
ij	-9.91491
ver	-9.91564
▁wife	-9.91592
▁fun	-9.91622
CD	-9.9166
▁finally	-9.91738
Sec	-9.91746
▁files	-9.91799
ical	-9.91815
▁Just	-9.91825
ke	-9.91836
▁tumor	-9.91852
▁Pat	-9.9188
▁reduction	-9.91895
▁score	-9.91923
▁ne	-9.91977
▁binding	-9.92075
▁Section	-9.92114
▁economic	-9.92128
item	-9.92199
▁success	-9.92203
▁goal	-9.92209
▁exist	-9.92292
▁zero	-9.92312
▁connected	-9.92316
▁reaction	-9.92344
der	-9.92476
ang	-9.92491
▁feet	-9.92567
▁London	-9.92576
▁resulting	-9.92635
▁-2	-9.9267
▁/>	-9.92702
▁internal	-9.92707
but	-9.9272
▁reasons	-9.92725
▁basic	-9.9273
▁please	-9.92744
▁interesting	-9.92754
▁collection	-9.92767
head	-9.9278
▁char	-9.92785
**4	-9.92837
▁parents	-9.92851
▁financial	-9.92942
▁looks	-9.93013
▁movement	-9.93071
quad	-9.93077
▁height	-9.93109
▁proof	-9.93111
▁-3	-9.93122
Error	-9.93213
rd	-9.93313
▁couldn	-9.93354
▁List	-9.93364
▁fully	-9.93392
▁carried	-9.9342
▁chance	-9.93461
ase	-9.93496
ina	-9.9353
bo	-9.93598
▁throughout	-9.93645
▁California	-9.93656
31	-9.93671
▁nearly	-9.93723
user	-9.93822
▁meeting	-9.9384
▁define	-9.93883
langle	-9.93911
▁continued	-9.9395
▁screen	-9.93964
▁processes	-9.94013
▁photo	-9.94034
▁manner	-9.94078
ice	-9.94151
▁Why	-9.94153
▁revealed	-9.94214
▁eye	-9.94228
▁stand	-9.94282
▁letter	-9.94309
▁middle	-9.94402
▁indicated	-9.94428
▁van	-9.94487
overline	-9.94533
100	-9.94659
▁stated	-9.94688
▁channel	-9.94803
▁vector	-9.94842
▁materials	-9.94842
▁maximum	-9.94854
▁White	-9.94881
index	-9.94907
▁Phys	-9.94955
▁AND	-9.94975
▁vehicle	-9.94977
▁prevent	-9.94985
ise	-9.95026
▁construction	-9.95101
▁machine	-9.95119
▁4,	-9.9513
}$,	-9.95162
▁35	-9.95206
▁solid	-9.95212
▁passed	-9.95263
▁floor	-9.95296
▁fit	-9.95382
ator	-9.95423
▁participants	-9.95436
▁During	-9.955
▁rules	-9.95509
3,	-9.95526
▁References	-9.95564
▁linear	-9.95643
▁Washington	-9.95689
▁hot	-9.95695
▁random	-9.95742
▁links	-9.95778
▁David	-9.9584
▁ready	-9.95887
▁returned	-9.95913
ba	-9.95914
▁domain	-9.95914
▁thinking	-9.9601
ology	-9.96051
▁(2)	-9.96075
▁App	-9.96086
▁regions	-9.96167
▁campaign	-9.96172
cap	-9.96227
▁edge	-9.96243
0,	-9.96253
▁regarding	-9.96266
▁green	-9.96278
▁happened	-9.96284
▁items	-9.96311
▁choose	-9.96317
▁metal	-9.96353
node	-9.96363
▁placed	-9.96404
▁onto	-9.96408
▁Europe	-9.96426
▁Paul	-9.96447
▁jury	-9.96456
▁career	-9.96499
▁reached	-9.96515
group	-9.96516
▁bottom	-9.96566
▁core	-9.96607
▁relatively	-9.96622
▁Center	-9.96639
▁variables	-9.96714
▁reach	-9.96768
▁portion	-9.96789
▁remove	-9.96793
▁dead	-9.96802
ni	-9.96846
▁combination	-9.96876
▁beginning	-9.96928
Key	-9.9693
▁attack	-9.96973
ero	-9.97035
▁therapy	-9.97043
▁February	-9.97074
ii	-9.97099
▁letters	-9.9713
▁width	-9.97174
▁android	-9.97229
cm	-9.9724
▁costs	-9.97241
▁perhaps	-9.97264
▁interaction	-9.97321
▁moving	-9.97324
lan	-9.97351
▁1)	-9.97434
▁En	-9.97496
▁Table	-9.97539
▁Health	-9.97605
js	-9.97629
2){	-9.97647
▁31	-9.97719
1*	-9.97771
▁gone	-9.97849
ah	-9.97857
fa	-9.97904
▁majority	-9.97922
▁named	-9.97922
For	-9.97966
ja	-9.98121
▁modern	-9.98166
▁European	-9.98182
▁den	-9.98271
ga	-9.98327
}_{\	-9.98419
▁Mo	-9.98452
▁Furthermore	-9.98475
sh	-9.98544
▁---	-9.9862
▁exists	-9.98705
▁race	-9.98708
▁applications	-9.98728
▁func	-9.98831
▁upper	-9.98843
▁playing	-9.98894
length	-9.98894
Set	-9.98937
▁male	-9.98943
▁kept	-9.99023
▁injury	-9.99033
60	-9.99089
▁USA	-9.99124
▁otherwise	-9.99217
▁starting	-9.99388
▁French	-9.99399
▁mechanism	-9.99439
▁resistance	-9.99562
▁Finally	-9.99588
^[@	-9.9961
SD	-9.99631
▁Other	-9.99666
▁picked	-9.99712
▁procedure	-9.99713
▁send	-9.99728
App	-9.99769
-\	-9.99816
▁infection	-9.99877
▁######	-9.9997
26	-10.0008
▁column	-10.0013
▁hour	-10.0023
▁giving	-10.003
java	-10.0041
▁save	-10.0044
▁fields	-10.0049
rightarrow	-10.0061
ny	-10.0062
▁trade	-10.0067
Item	-10.0074
▁True	-10.0076
-1}	-10.0079
▁root	-10.0081
function	-10.0082
\].	-10.0094
$\	-10.0104
ative	-10.0104
▁calculated	-10.0106
OR	-10.0115
▁equation	-10.0127
▁becomes	-10.014
▁animals	-10.0146
▁lives	-10.015
▁shape	-10.0162
){	-10.0166
▁develop	-10.0166
▁(**	-10.0166
▁Another	-10.0169
▁Pa	-10.017
▁star	-10.0171
▁ensure	-10.0175
ster	-10.0179
▁indicate	-10.0179
vec	-10.018
ue	-10.0181
▁tree	-10.0183
color	-10.0183
▁removed	-10.0187
AP	-10.0198
▁represent	-10.0204
▁su	-10.0209
▁functional	-10.0211
▁sources	-10.0213
▁died	-10.0215
29	-10.0216
▁mid	-10.0222
▁document	-10.0223
ado	-10.0225
po	-10.0227
▁popular	-10.0228
34	-10.0232
▁plus	-10.0233
}$.	-10.0233
▁opportunity	-10.0233
ut	-10.0235
▁seven	-10.0237
sp	-10.0237
▁client	-10.0243
▁suggested	-10.0244
info	-10.026
ov	-10.0261
38	-10.0263
▁units	-10.0268
▁benefit	-10.0269
▁email	-10.0271
▁James	-10.0276
▁identify	-10.0277
▁trans	-10.0278
3-	-10.0281
php	-10.0282
▁demonstrated	-10.0285
▁Ho	-10.0289
▁administration	-10.029
▁sea	-10.0291
53	-10.0291
▁paid	-10.0292
▁bio	-10.0293
kin	-10.0293
33	-10.0293
▁regular	-10.0295
▁exposure	-10.0305
^*	-10.0305
▁steps	-10.0307
3)	-10.0311
New	-10.0311
**)	-10.0313
07	-10.0324
▁processing	-10.0326
▁Each	-10.0331
▁remain	-10.0332
▁perfect	-10.0346
body	-10.0352
▁frame	-10.0352
▁replacement	-10.0357
▁agree	-10.0359
▁noted	-10.0365
▁strength	-10.0366
cc	-10.0368
▁Google	-10.0375
▁safety	-10.0377
▁variety	-10.0389
▁detected	-10.039
▁circuit	-10.0391
▁eight	-10.0394
▁Get	-10.0401
▁track	-10.0401
▁reports	-10.0406
sen	-10.0409
ik	-10.0422
▁picture	-10.0425
▁wait	-10.0425
▁consistent	-10.0433
90	-10.0435
▁conducted	-10.044
▁reasonable	-10.0443
▁providing	-10.0443
▁international	-10.0447
▁Cal	-10.0448
▁hospital	-10.045
▁<<	-10.0455
▁0.3	-10.0464
▁Green	-10.0471
[]	-10.0475
▁prove	-10.0483
▁station	-10.0484
▁whom	-10.0486
▁-2*	-10.0492
▁radio	-10.0494
▁magnetic	-10.0495
▁Research	-10.0498
▁2016	-10.0501
▁Park	-10.0502
▁0.2	-10.0503
▁testing	-10.0506
▁sp	-10.0509
SI	-10.052
▁mis	-10.052
▁Car	-10.0521
▁yourself	-10.0523
▁fight	-10.0523
Test	-10.053
▁card	-10.0531
▁selection	-10.0532
ile	-10.0535
▁novel	-10.0547
▁happen	-10.0548
}^	-10.0549
200	-10.0554
▁panel	-10.0558
▁defense	-10.0564
her	-10.0564
▁girl	-10.0565
▁comparison	-10.0569
35	-10.0574
▁Well	-10.0575
*)	-10.0582
▁maybe	-10.0584
▁37	-10.0585
▁books	-10.0589
▁est	-10.059
▁buy	-10.0593
▁forms	-10.0597
▁Pre	-10.0598
tt	-10.0617
▁45	-10.0628
}}}	-10.0635
▁st	-10.0639
▁PM	-10.0646
▁Many	-10.0649
*]{}	-10.0658
▁counsel	-10.0663
AS	-10.0667
▁plant	-10.0667
▁effort	-10.067
ists	-10.0671
▁pair	-10.0674
');	-10.0674
▁sufficient	-10.068
▁perform	-10.0682
▁vs	-10.0687
start	-10.069
▁Black	-10.0691
IP	-10.0692
▁serious	-10.0693
▁spent	-10.0693
▁wild	-10.07
▁(3	-10.0701
▁liquid	-10.0718
▁resources	-10.0723
vo	-10.0724
▁objects	-10.0728
▁cold	-10.0728
If	-10.0729
ph	-10.0729
▁nearest	-10.074
▁female	-10.0749
▁select	-10.0749
▁sum	-10.075
Text	-10.0752
▁safe	-10.0757
▁watch	-10.0763
▁India	-10.0765
struct	-10.077
ens	-10.0771
error	-10.0775
-8	-10.0777
Path	-10.0784
▁2013	-10.0785
-4	-10.0786
▁characteristics	-10.0787
▁comment	-10.0788
▁5,	-10.079
▁2014	-10.0792
ey	-10.0802
▁poly	-10.0804
▁daily	-10.0809
\'	-10.081
▁https	-10.0817
les	-10.0818
▁High	-10.0827
▁piece	-10.0836
▁bi	-10.084
▁places	-10.0842
ship	-10.0845
▁Art	-10.0852
---	-10.086
ag	-10.0863
▁nil	-10.0864
geq	-10.0866
▁spin	-10.0869
▁Group	-10.087
ze	-10.0871
▁##	-10.0873
▁doubt	-10.0875
related	-10.0876
▁Li	-10.0879
▁capacity	-10.0883
▁existing	-10.0884
mi	-10.0887
▁em	-10.0896
low	-10.0897
hr	-10.0906
▁tool	-10.0913
▁appeared	-10.0929
▁meaning	-10.0934
Ct	-10.0935
ap	-10.0938
▁studied	-10.0941
▁});	-10.0943
Size	-10.0944
▁clean	-10.0946
▁database	-10.0949
▁typically	-10.0953
▁Both	-10.0954
99	-10.0954
2*	-10.0954
▁benefits	-10.0956
70	-10.096
pa	-10.0962
▁uses	-10.0965
▁arm	-10.0965
▁Vi	-10.0967
specific	-10.0968
▁und	-10.0969
▁walk	-10.0979
▁structures	-10.0984
▁worth	-10.0989
▁raised	-10.0991
▁professional	-10.0991
▁item	-10.0998
])	-10.0999
well	-10.1005
▁talking	-10.1008
PA	-10.1008
Info	-10.1012
bit	-10.1015
▁sleep	-10.1015
▁assume	-10.1022
uk	-10.1024
▁0)	-10.1025
▁International	-10.1025
IN	-10.1027
Phi	-10.103
page	-10.1031
▁stuff	-10.1032
57	-10.1037
▁actions	-10.1038
▁happy	-10.1049
▁definition	-10.105
pr	-10.1053
▁border	-10.1065
▁Bar	-10.1067
▁2015	-10.1072
▁discussed	-10.1073
que	-10.1077
pe	-10.1079
▁($	-10.1081
▁optical	-10.1089
▁detection	-10.109
▁proper	-10.1091
Context	-10.1093
▁transition	-10.1102
▁travel	-10.1115
▁official	-10.1125
▁48	-10.1125
ino	-10.1135
▁huge	-10.1136
▁mentioned	-10.1137
▁science	-10.114
mathfrak	-10.1141
▁nice	-10.1144
CC	-10.1152
our	-10.1152
ko	-10.1153
▁update	-10.1156
▁challenge	-10.1172
ud	-10.1175
06	-10.1177
are	-10.1182
94	-10.1184
char	-10.1185
CH	-10.1187
▁shot	-10.119
const	-10.119
▁bound	-10.1194
36	-10.1198
gar	-10.1201
▁Using	-10.1209
▁approximately	-10.1209
▁communication	-10.1214
om	-10.1216
▁(19	-10.1218
▁century	-10.1224
▁rise	-10.1237
▁prepared	-10.1237
▁wouldn	-10.124
▁Se	-10.1243
"/>	-10.1244
▁King	-10.1245
down	-10.1246
▁opened	-10.1247
)=	-10.1263
)$.	-10.1267
▁German	-10.1269
▁fear	-10.1272
▁protect	-10.1275
▁explain	-10.128
▁operator	-10.128
▁2017	-10.128
-5	-10.1281
▁Rev	-10.1287
ft	-10.1291
▁tests	-10.1298
ldots	-10.1299
▁Street	-10.1299
='	-10.13
▁Red	-10.13
['	-10.1301
▁responsible	-10.1315
▁(1)	-10.1326
circ	-10.1331
ev	-10.1342
▁interface	-10.1344
▁load	-10.1345
▁feeling	-10.1348
_3	-10.1353
1}	-10.1365
▁Am	-10.1365
▁NULL	-10.1366
▁opening	-10.1367
lic	-10.1367
({\	-10.137
▁increases	-10.1375
▁George	-10.1376
ably	-10.1379
▁row	-10.1385
▁attempt	-10.1395
▁press	-10.1397
input	-10.1397
ensuremath	-10.1398
▁improved	-10.1398
▁IN	-10.1399
"},	-10.1401
▁successful	-10.1404
▁explained	-10.1405
ade	-10.1413
-6	-10.1414
▁Bo	-10.1416
▁sat	-10.1423
ure	-10.1428
}^{\	-10.1431
▁Under	-10.1435
▁description	-10.1438
bm	-10.1439
title	-10.1444
▁slow	-10.1448
ris	-10.1451
point	-10.1455
wa	-10.1457
▁wave	-10.1459
true	-10.147
▁heavy	-10.1474
▁truth	-10.1474
space	-10.1475
image	-10.148
▁Yes	-10.1482
Lambda	-10.149
tor	-10.149
▁pr	-10.15
▁Id	-10.1502
▁-4	-10.1504
▁ver	-10.1506
au	-10.1507
▁RNA	-10.1515
▁5.	-10.1517
err	-10.1518
▁introduced	-10.1519
▁False	-10.1524
▁stock	-10.1524
boldsymbol	-10.1528
ep	-10.1532
▁relation	-10.1537
hu	-10.1537
▁summer	-10.154
09	-10.1541
▁2012	-10.1545
▁pick	-10.1545
▁Sa	-10.1546
▁0.1	-10.1546
▁digital	-10.1547
▁Such	-10.1552
▁Congress	-10.1554
▁measures	-10.1555
prime	-10.1557
▁op	-10.1563
light	-10.1564
car	-10.1565
▁wish	-10.1566
▁served	-10.1569
▁(5	-10.1576
▁contain	-10.158
▁activation	-10.1589
which	-10.1593
▁36	-10.1599
▁solutions	-10.1599
▁Post	-10.1601
Time	-10.1601
▁protection	-10.1604
▁chain	-10.1614
▁200	-10.1616
▁exercise	-10.1617
37	-10.1625
▁serve	-10.1627
▁cycle	-10.1629
ons	-10.1631
▁France	-10.1638
▁essential	-10.1642
42	-10.1644
▁exchange	-10.1645
▁resolution	-10.1645
▁sun	-10.1648
▁holding	-10.1648
▁log	-10.165
▁ha	-10.1651
▁occur	-10.1655
va	-10.1657
Exception	-10.1675
▁los	-10.1683
▁Once	-10.1683
Sigma	-10.1696
▁Michael	-10.1698
55	-10.1706
▁UK	-10.1708
▁combined	-10.1711
▁je	-10.172
▁IL	-10.1722
iv	-10.1725
ada	-10.1725
▁TV	-10.173
44	-10.1731
▁techniques	-10.1734
▁conduct	-10.1734
▁unless	-10.1743
▁33	-10.175
▁certainly	-10.1753
▁external	-10.1754
▁specifically	-10.1755
was	-10.1757
▁older	-10.1759
▁42	-10.1761
▁technique	-10.1763
▁whereas	-10.1772
4-	-10.1772
▁qui	-10.1778
content	-10.1783
SE	-10.1783
())	-10.1787
48	-10.1788
▁experimental	-10.1789
▁growing	-10.1789
▁income	-10.179
▁storage	-10.1791
▁Chinese	-10.1792
▁buffer	-10.1797
level	-10.1798
style	-10.1801
col	-10.1805
▁agent	-10.1807
4,	-10.1811
▁comments	-10.1814
scale	-10.182
▁denied	-10.1823
▁facts	-10.1824
▁association	-10.183
▁Ar	-10.1834
▁Per	-10.184
▁Board	-10.1841
from	-10.1841
open	-10.1847
▁alternative	-10.1847
dir	-10.1851
▁strategy	-10.1859
▁investigation	-10.186
▁tools	-10.1862
▁conventional	-10.1864
65	-10.1867
▁collected	-10.1871
▁despite	-10.1871
▁killed	-10.1877
lt	-10.1879
▁remaining	-10.1879
▁molecular	-10.1881
▁noise	-10.1887
ER	-10.189
▁criminal	-10.1893
▁absence	-10.1895
▁affect	-10.191
▁confirmed	-10.1916
=1	-10.1922
86	-10.1925
▁slightly	-10.193
RE	-10.1931
▁England	-10.1933
▁una	-10.1934
version	-10.1943
▁none	-10.1944
▁accept	-10.1944
ml	-10.1953
▁distributed	-10.1957
mar	-10.1959
▁module	-10.1968
tre	-10.1968
.](	-10.1969
Code	-10.1972
▁programs	-10.1973
▁Ko	-10.1987
▁IS	-10.1988
▁achieve	-10.199
▁husband	-10.1994
db	-10.1999
▁People	-10.2001
▁East	-10.2002
▁occurred	-10.2018
▁TO	-10.2019
▁enter	-10.2019
▁surgery	-10.202
SP	-10.2023
That	-10.2028
▁operations	-10.2033
pro	-10.2039
▁algorithm	-10.2039
amp	-10.2041
▁Press	-10.2041
▁correlation	-10.2041
▁generation	-10.2046
▁judge	-10.2047
▁survival	-10.205
▁workers	-10.2054
▁agreed	-10.2062
▁tested	-10.2062
▁!	-10.2064
▁analyzed	-10.2064
ru	-10.2064
cr	-10.2064
bin	-10.2067
▁equivalent	-10.2069
▁animal	-10.2071
75	-10.2078
▁hyper	-10.2078
▁PC	-10.2082
▁offered	-10.2091
rate	-10.2093
▁born	-10.2102
kappa	-10.2102
▁bill	-10.2104
▁families	-10.2105
500	-10.2107
4)	-10.211
State	-10.2113
+1}	-10.2114
▁Code	-10.2115
▁speak	-10.2116
▁affected	-10.2118
▁probability	-10.2119
count	-10.2121
▁qu	-10.2121
king	-10.2127
ita	-10.2129
▁80	-10.2129
IT	-10.214
95	-10.214
▁circumstances	-10.2144
▁healthy	-10.2145
tra	-10.2149
▁Please	-10.215
mon	-10.2154
▁counter	-10.2156
▁gets	-10.2167
▁recorded	-10.2175
▁Over	-10.218
With	-10.2184
▁Public	-10.2184
▁port	-10.2185
▁officer	-10.2188
mer	-10.2189
▁bone	-10.2189
▁student	-10.219
▁forces	-10.2191
ward	-10.2197
-10	-10.2198
());	-10.2209
▁society	-10.2219
some	-10.222
Class	-10.2226
43	-10.2228
▁CA	-10.2231
▁90	-10.2234
▁leads	-10.2239
▁lo	-10.2239
▁entered	-10.224
▁missing	-10.2243
▁ball	-10.2243
ig	-10.2244
▁ideas	-10.2249
cos	-10.2253
can	-10.2254
(1)	-10.2258
▁34	-10.2258
▁herself	-10.2261
url	-10.2268
Index	-10.2269
▁prob	-10.2272
▁symptoms	-10.2278
3){	-10.2278
▁discussion	-10.2279
source	-10.228
)$,	-10.228
▁minimum	-10.2283
▁Ha	-10.2284
▁entry	-10.2286
▁$1	-10.2287
My	-10.2291
range	-10.2292
▁organization	-10.2292
lock	-10.2296
[1]	-10.2297
tion	-10.2305
▁sets	-10.2305
▁traditional	-10.2306
"><	-10.2312
▁subjects	-10.2315
▁bed	-10.2316
==============	-10.2317
▁records	-10.2328
▁progress	-10.2329
block	-10.2336
▁straight	-10.2343
▁2010	-10.2348
▁begin	-10.2349
▁il	-10.2355
▁intended	-10.2368
▁Texas	-10.2374
▁handle	-10.2376
▁por	-10.2378
▁blog	-10.238
num	-10.2383
▁experiment	-10.2403
▁-3*	-10.2404
}=	-10.2406
▁characters	-10.2406
otimes	-10.2408
▁testimony	-10.241
▁extent	-10.2415
▁motor	-10.2417
▁loop	-10.2419
▁im	-10.2422
lim	-10.2422
▁Robert	-10.2422
▁sexual	-10.2424
5,	-10.2424
▁gun	-10.2428
ual	-10.2428
▁summary	-10.243
▁format	-10.2434
▁Ver	-10.2435
▁election	-10.2437
▁foreign	-10.2442
▁sentence	-10.2449
▁classes	-10.245
▁che	-10.2458
▁(3)	-10.246
▁biggest	-10.2464
ren	-10.2464
▁driver	-10.2469
ky	-10.2473
▁glass	-10.2475
▁switch	-10.2488
▁Supreme	-10.2493
post	-10.2494
▁Ben	-10.2503
▁capital	-10.2506
▁names	-10.2509
▁template	-10.251
▁6.	-10.2521
▁mobile	-10.2523
material	-10.2529
▁drugs	-10.2532
▁scene	-10.2537
star	-10.2539
▁kids	-10.2545
▁transport	-10.2547
▁2018	-10.2548
▁uint	-10.2549
▁estimated	-10.2551
▁induced	-10.2555
pl	-10.2556
sch	-10.2557
().	-10.2557
▁efforts	-10.2558
induced	-10.2561
▁plans	-10.2566
▁master	-10.2568
▁whatever	-10.2569
ified	-10.2569
▁genetic	-10.2572
▁announced	-10.2573
▁Ma	-10.2574
▁profile	-10.2576
SC	-10.2578
▁join	-10.258
▁shared	-10.2582
▁fat	-10.2592
af	-10.2595
▁CO	-10.2596
▁str	-10.2604
▁bank	-10.2604
ret	-10.2605
xe	-10.2606
▁interview	-10.2608
▁trust	-10.261
PS	-10.2611
▁controls	-10.2611
▁electronic	-10.2612
{1}{	-10.2613
NS	-10.2617
cl	-10.2618
▁derived	-10.2619
▁std	-10.2621
(2)	-10.2629
▁mm	-10.2629
▁diagnosis	-10.263
api	-10.2637
▁beautiful	-10.2641
board	-10.2642
}}(	-10.2645
▁Institute	-10.2648
59	-10.2652
▁echo	-10.2658
▁latter	-10.266
▁Canada	-10.266
▁credit	-10.2661
▁2008	-10.2663
main	-10.2663
0)	-10.2669
▁suggests	-10.267
56	-10.2676
▁smooth	-10.268
▁dose	-10.268
▁parent	-10.2685
\],	-10.2687
▁2011	-10.2688
\[	-10.2692
▁creating	-10.2694
▁employees	-10.2698
▁platform	-10.2699
▁covered	-10.27
▁III	-10.2701
▁(4	-10.2701
▁describe	-10.2702
Event	-10.271
▁ring	-10.2714
▁flat	-10.2715
▁Bank	-10.2715
▁requirements	-10.2715
▁Sp	-10.2718
ki	-10.2722
▁hundred	-10.2724
Node	-10.2727
▁library	-10.2728
mid	-10.2741
54	-10.2742
▁decreased	-10.2744
eg	-10.2745
▁Like	-10.2752
core	-10.2754
long	-10.2758
▁formula	-10.2759
▁Di	-10.2759
000	-10.2759
nie	-10.2763
▁severe	-10.2767
47	-10.2767
▁fresh	-10.277
ong	-10.2772
All	-10.2774
▁drop	-10.2779
▁Council	-10.2779
▁Smith	-10.2782
ai	-10.2785
▁college	-10.2791
▁70	-10.2793
▁tri	-10.28
house	-10.2804
put	-10.2804
46	-10.2811
▁shift	-10.2812
object	-10.2814
▁Western	-10.2814
▁Germany	-10.2817
mod	-10.282
0000	-10.2822
▁Before	-10.2824
order	-10.2826
mbox	-10.2827
▁ran	-10.2828
▁Union	-10.2831
cell	-10.2833
position	-10.2834
▁Any	-10.2836
▁Time	-10.2836
PP	-10.2837
▁stood	-10.284
▁custom	-10.2845
▁vote	-10.2852
ised	-10.2854
▁transmission	-10.2858
▁Day	-10.2861
▁vi	-10.2871
▁CI	-10.2872
41	-10.2878
▁billion	-10.288
But	-10.288
iz	-10.2885
▁salt	-10.2886
ek	-10.289
▁nuclear	-10.2891
ble	-10.2892
▁Further	-10.2892
▁fish	-10.2895
exp	-10.2898
ification	-10.2898
▁properly	-10.2899
▁causes	-10.2901
▁decrease	-10.2903
▁contained	-10.2908
▁calls	-10.2909
.[@	-10.2909
▁supply	-10.2912
▁represents	-10.2915
▁0.01	-10.2917
AL	-10.2922
▁largest	-10.2926
ious	-10.2926
▁catch	-10.2931
▁Friday	-10.2932
▁boy	-10.2934
ville	-10.2937
▁importance	-10.2942
85	-10.295
▁val	-10.2952
001	-10.2952
▁daughter	-10.2955
▁leaving	-10.2957
▁literature	-10.2959
that	-10.2961
88	-10.2963
ella	-10.2967
▁bool	-10.2967
▁install	-10.2969
qui	-10.2972
68	-10.2973
▁Part	-10.2975
49	-10.2976
ou	-10.2976
▁-5	-10.2981
▁Facebook	-10.2981
▁Eq	-10.2982
▁stories	-10.2993
▁patterns	-10.2999
▁interested	-10.3001
▁mouth	-10.3005
▁advantage	-10.3008
fe	-10.3009
▁adding	-10.3012
▁peak	-10.3012
▁digit	-10.3014
▁ja	-10.3015
ries	-10.3016
ney	-10.3018
▁2019	-10.3022
hi	-10.3025
▁completed	-10.3026
▁latest	-10.3026
II	-10.3029
▁standing	-10.3035
▁empty	-10.3041
▁commercial	-10.3049
Ed	-10.3049
▁AM	-10.3058
▁sales	-10.3059
▁Law	-10.306
▁voltage	-10.3061
▁soft	-10.3065
▁meant	-10.3069
▁indeed	-10.307
CA	-10.307
▁Lo	-10.3071
▁Use	-10.3073
▁agents	-10.3075
▁church	-10.3078
(&	-10.3084
▁fluid	-10.3086
▁authority	-10.309
▁remained	-10.309
Color	-10.309
▁director	-10.3092
dimensional	-10.3094
nes	-10.3095
▁Ex	-10.3096
US	-10.3097
▁referred	-10.3099
▁membrane	-10.3113
ju	-10.3114
▁balance	-10.3117
▁outcome	-10.312
date	-10.312
dis	-10.3124
▁guy	-10.3127
▁driving	-10.3129
▁gain	-10.313
ec	-10.3134
▁existence	-10.3134
003	-10.3136
ette	-10.3141
▁offers	-10.3147
bi	-10.3153
[\	-10.3155
▁song	-10.316
▁officers	-10.3162
▁Sunday	-10.3163
▁statute	-10.3165
▁detail	-10.3167
▁Mark	-10.3169
▁Free	-10.3171
tab	-10.3172
▁Open	-10.3178
▁remainder	-10.3179
▁River	-10.3181
▁mechanisms	-10.3186
lu	-10.3188
▁greatest	-10.3189
▁brief	-10.319
Of	-10.319
▁plate	-10.3192
supplementary	-10.3193
▁brother	-10.3199
:**	-10.3201
▁analyses	-10.3206
▁demand	-10.3207
▁pour	-10.3213
▁conclusion	-10.3226
▁powerful	-10.3228
▁mental	-10.3229
part	-10.323
▁possibility	-10.3231
▁percentage	-10.3235
▁NO	-10.3235
non	-10.3239
za	-10.3241
init	-10.3241
▁grow	-10.3247
++	-10.3249
fer	-10.325
▁concentrations	-10.3253
ini	-10.3254
▁responses	-10.3256
▁breast	-10.3261
ji	-10.3262
▁spread	-10.3269
nonumber	-10.3281
▁rich	-10.3285
▁semi	-10.3297
▁button	-10.3297
ot	-10.3297
▁customers	-10.3298
▁learned	-10.3301
▁arms	-10.3304
▁implementation	-10.3306
▁plasma	-10.3311
ck	-10.3313
▁measurements	-10.332
ose	-10.3321
▁stopped	-10.3322
action	-10.3322
▁carry	-10.3326
▁cool	-10.333
**]{}	-10.3333
Do	-10.3335
▁protected	-10.3335
▁stable	-10.3346
▁chemical	-10.335
▁Mac	-10.3351
lang	-10.3355
def	-10.3356
void	-10.3362
ene	-10.3362
97	-10.3363
▁Commission	-10.3364
ping	-10.3365
reg	-10.3367
})$	-10.3367
▁signals	-10.3368
51	-10.3369
▁evaluation	-10.3369
▁enjoy	-10.3372
▁ma	-10.3374
▁stars	-10.3376
0.5	-10.3377
ever	-10.338
▁Lord	-10.3381
ran	-10.3382
▁maintain	-10.3384
▁movie	-10.3385
▁0.4	-10.3385
▁receptor	-10.3392
era	-10.3392
▁equipment	-10.3394
▁plants	-10.3395
CO	-10.3398
▁operating	-10.3403
▁purposes	-10.3403
▁Company	-10.3404
CT	-10.3407
▁inner	-10.3409
▁apparatus	-10.341
▁Brown	-10.3413
▁William	-10.3414
▁camera	-10.3419
▁waiting	-10.3419
_1$	-10.3424
▁38	-10.3425
wood	-10.3426
pos	-10.3433
▁Ab	-10.3435
},\	-10.3446
▁quantum	-10.3448
52	-10.345
▁birth	-10.345
▁Lu	-10.3452
ura	-10.3454
▁Air	-10.3456
▁favor	-10.3458
▁quick	-10.3459
▁foot	-10.3459
▁controlled	-10.346
▁Thanks	-10.346
(0)	-10.3461
▁dog	-10.3463
ST	-10.3464
▁north	-10.3464
▁Judge	-10.3466
▁concept	-10.3467
▁substrate	-10.3468
▁engine	-10.3473
run	-10.3473
Le	-10.3478
▁extended	-10.348
)**	-10.348
▁identity	-10.3481
▁particles	-10.3482
▁PA	-10.3483
ix	-10.3486
▁Set	-10.3487
wi	-10.3492
=0	-10.3494
▁Russian	-10.3495
write	-10.3503
▁Second	-10.3504
▁chronic	-10.3507
NO	-10.3512
▁interests	-10.3513
IR	-10.3513
IL	-10.3513
98	-10.3516
▁insurance	-10.3519
ological	-10.3521
▁2000	-10.3522
▁Great	-10.3524
▁officials	-10.3529
▁0.05	-10.3531
work	-10.3532
▁continuous	-10.3538
▁configuration	-10.3539
▁click	-10.3539
On	-10.3545
▁Tom	-10.3546
▁street	-10.3553
▁Obama	-10.3555
▁square	-10.3555
▁thank	-10.3568
$$	-10.3569
▁cup	-10.3569
ay	-10.3571
96	-10.3573
▁sell	-10.3573
▁kill	-10.3575
ok	-10.358
▁finite	-10.3588
▁Japanese	-10.359
▁muscle	-10.3595
▁Good	-10.3596
▁net	-10.3596
berg	-10.3602
▁-4*	-10.3602
▁=======	-10.3604
▁Ga	-10.3606
▁College	-10.3609
▁environmental	-10.3612
▁fell	-10.3616
ub	-10.3618
▁yes	-10.3618
ach	-10.3618
sin	-10.3624
IS	-10.3624
▁interactions	-10.3625
▁generate	-10.3628
▁Only	-10.3628
▁sequences	-10.3636
▁Theorem	-10.365
▁Foundation	-10.3654
ane	-10.3655
▁fuel	-10.3655
▁rock	-10.3656
nabla	-10.3656
▁liver	-10.3657
▁errors	-10.366
▁club	-10.3664
zo	-10.3666
EN	-10.3667
▁Will	-10.3667
gg	-10.367
58	-10.3674
▁eventually	-10.3679
▁crime	-10.3679
So	-10.3684
▁valid	-10.3688
▁Ro	-10.3689
del	-10.369
▁Service	-10.3692
▁plane	-10.3693
▁virus	-10.3693
▁Add	-10.3717
▁firm	-10.3718
book	-10.3718
▁wind	-10.3722
▁spend	-10.3728
▁evolution	-10.3731
▁relief	-10.3735
▁Japan	-10.3737
▁Star	-10.3738
▁Ta	-10.3739
ff	-10.3742
▁abuse	-10.3744
?'	-10.3747
endif	-10.3749
par	-10.3751
▁determination	-10.3753
▁pan	-10.3754
▁compare	-10.3759
▁lose	-10.3764
▁suit	-10.3766
De	-10.3769
▁mouse	-10.3769
▁ship	-10.3772
rt	-10.3775
ments	-10.3779
▁Thomas	-10.3787
▁thanks	-10.3791
▁secondary	-10.3791
[0]	-10.3791
▁Circuit	-10.3791
▁believed	-10.3793
▁touch	-10.3794
Is	-10.3795
▁speech	-10.3804
Image	-10.3808
▁mostly	-10.3809
dependent	-10.3812
▁worse	-10.3817
▁1.0	-10.3818
tag	-10.3819
▁estimate	-10.3824
▁filter	-10.3826
Service	-10.3827
RA	-10.3828
▁spring	-10.3828
▁exact	-10.3828
IO	-10.3832
▁represented	-10.3832
▁indicates	-10.3836
ste	-10.3838
▁adult	-10.384
▁helped	-10.3841
OS	-10.3842
util	-10.3844
There	-10.3852
▁developing	-10.3855
▁attorney	-10.3856
▁cm	-10.3863
▁efficiency	-10.3865
6,	-10.3865
▁spectrum	-10.3869
▁projects	-10.3875
▁gold	-10.3876
▁representation	-10.3884
▁fair	-10.3884
tu	-10.3885
▁Monday	-10.389
▁occurs	-10.3892
▁session	-10.3895
▁7.	-10.3908
▁examined	-10.391
PC	-10.391
▁guess	-10.3911
LE	-10.3912
ano	-10.3912
63	-10.392
IF	-10.3923
▁cast	-10.3927
▁strain	-10.3928
jo	-10.3934
▁trouble	-10.3936
tri	-10.3944
Big	-10.3945
▁thin	-10.3946
▁NOT	-10.3948
▁Their	-10.3962
▁sold	-10.3966
▁evaluated	-10.3968
▁serum	-10.3974
▁assessment	-10.3983
▁extension	-10.3983
▁RE	-10.3986
▁org	-10.3998
▁civil	-10.4002
illa	-10.4009
▁te	-10.4014
▁aware	-10.4016
2}	-10.4022
▁League	-10.4025
je	-10.4026
7,	-10.4029
▁Instead	-10.4035
▁south	-10.4038
dd	-10.4039
isation	-10.404
5-	-10.4043
▁Science	-10.4047
▁sit	-10.4047
oc	-10.405
▁delivery	-10.4051
▁signed	-10.4052
elle	-10.4057
don	-10.406
▁seeing	-10.4063
▁MS	-10.4067
}}_	-10.4071
▁holds	-10.4072
Array	-10.4075
▁spot	-10.4075
▁wants	-10.4077
▁charged	-10.4077
▁leader	-10.4081
▁extremely	-10.4081
DC	-10.4084
Field	-10.4084
▁desired	-10.4085
▁ahead	-10.4085
▁agency	-10.4087
▁miles	-10.4092
▁laws	-10.4094
▁leaves	-10.4095
▁Australia	-10.411
▁Du	-10.4114
▁visual	-10.4114
ight	-10.4115
media	-10.4115
▁Peter	-10.4126
vi	-10.4129
uck	-10.4131
▁scheme	-10.4134
▁stream	-10.4136
DE	-10.4137
▁twenty	-10.4146
model	-10.415
▁cent	-10.4152
▁treat	-10.4152
.$$	-10.4157
▁eat	-10.4158
mb	-10.4159
▁2005	-10.4165
▁subsequent	-10.4166
▁pull	-10.4167
▁films	-10.4168
widetilde	-10.4168
github	-10.4171
▁curve	-10.4177
▁train	-10.4189
cast	-10.4192
config	-10.4194
▁reality	-10.4194
▁0*	-10.4198
▁exception	-10.4201
_{{\	-10.4201
▁allowing	-10.4203
▁Committee	-10.4211
▁measurement	-10.4214
▁substantial	-10.422
▁Three	-10.4223
▁achieved	-10.4225
▁Sch	-10.4228
▁Israel	-10.4229
▁Life	-10.4229
▁Fe	-10.4235
▁dry	-10.4242
▁chosen	-10.4243
▁happens	-10.4243
ick	-10.4245
▁float	-10.4246
Request	-10.4251
▁Government	-10.4251
▁carbon	-10.4252
▁parallel	-10.4253
▁finished	-10.426
▁Mc	-10.4261
▁sur	-10.4263
▁Association	-10.4263
cy	-10.4267
▁Pe	-10.4268
▁ID	-10.4271
vin	-10.4273
69	-10.4274
ari	-10.4275
art	-10.4275
▁appellant	-10.4275
▁(!	-10.4276
▁det	-10.4277
RT	-10.4283
▁establish	-10.4285
^{-	-10.4289
▁po	-10.4291
▁throw	-10.4293
frame	-10.4293
▁diseases	-10.4296
▁changing	-10.4297
▁assert	-10.4301
▁survey	-10.4303
3}	-10.4304
▁2)	-10.4304
▁assay	-10.4308
▁neither	-10.432
▁64	-10.4323
▁jurisdiction	-10.4325
▁Sub	-10.4331
66	-10.4339
0.00	-10.4341
law	-10.4351
ket	-10.4351
▁football	-10.4353
ford	-10.4353
▁discuss	-10.4354
sion	-10.4357
▁earth	-10.4357
ES	-10.4357
▁narrow	-10.4358
▁Indian	-10.4361
▁FOR	-10.4364
▁Church	-10.4368
▁forced	-10.4375
▁underlying	-10.4376
▁nation	-10.4377
▁Po	-10.4385
-1)	-10.4387
ped	-10.4389
▁burden	-10.4389
5)	-10.439
tan	-10.439
▁battle	-10.4396
▁traffic	-10.4402
▁39	-10.4403
▁alleged	-10.4406
▁thousands	-10.4407
ya	-10.4408
gy	-10.4412
▁issued	-10.4414
▁receiving	-10.4416
▁Mrs	-10.4417
▁2009	-10.4417
▁respond	-10.4419
▁easier	-10.4419
▁favorite	-10.4423
▁imaging	-10.4426
dots	-10.4428
▁NS	-10.4429
▁typical	-10.4443
du	-10.4445
cha	-10.445
mail	-10.4451
▁angle	-10.4454
87	-10.4455
▁employed	-10.4462
▁fix	-10.4474
▁directed	-10.4474
▁0.0	-10.4475
▁chief	-10.4475
▁News	-10.4478
▁mixed	-10.448
▁obvious	-10.448
▁album	-10.4482
stream	-10.449
check	-10.449
"></	-10.4491
▁Ad	-10.4492
fold	-10.4497
▁ideal	-10.45
▁-5*	-10.45
▁teams	-10.4504
▁iron	-10.4504
67	-10.4504
▁express	-10.4506
▁Test	-10.4517
▁investigated	-10.4519
▁src	-10.452
▁camp	-10.452
▁manager	-10.4521
▁expansion	-10.4522
▁44	-10.4522
▁criteria	-10.4527
▁[]	-10.4537
▁coverage	-10.4537
▁possibly	-10.4538
▁-->	-10.4539
▁discovered	-10.454
▁broad	-10.4541
▁End	-10.4546
▁incident	-10.4546
tel	-10.455
CL	-10.4554
▁depends	-10.4554
▁ice	-10.4557
▁Bill	-10.4557
cor	-10.4557
Map	-10.4563
▁filled	-10.4565
ata	-10.4574
pp	-10.4576
89	-10.4576
▁regard	-10.4578
▁seat	-10.458
▁lived	-10.4585
▁ones	-10.4595
arg	-10.4602
▁depth	-10.4603
▁relates	-10.4605
mat	-10.4605
han	-10.4608
IC	-10.461
▁Windows	-10.4611
oo	-10.4612
▁${{\	-10.4615
ani	-10.4616
▁0.7	-10.4616
▁freedom	-10.4618
▁skills	-10.4619
GL	-10.4619
▁->	-10.462
▁calling	-10.4624
▁intervention	-10.4624
84	-10.4625
▁secret	-10.4625
▁diet	-10.4626
▁Men	-10.4626
▁fill	-10.463
▁raise	-10.4635
▁versus	-10.4636
▁schools	-10.4637
77	-10.4645
)/	-10.4654
▁composition	-10.4654
▁Ni	-10.4655
ants	-10.4658
▁threshold	-10.4658
▁variation	-10.4661
ric	-10.4661
▁00	-10.4663
▁43	-10.4663
SA	-10.4665
▁pathway	-10.4668
▁Hall	-10.467
▁trip	-10.4675
uri	-10.4679
▁distinct	-10.4683
▁twice	-10.4684
8,	-10.469
▁Find	-10.4696
Message	-10.4701
▁isolated	-10.4703
"})	-10.4706
▁economy	-10.4708
▁virtual	-10.4711
▁faith	-10.4712
_0$	-10.4713
▁weak	-10.4722
▁appearance	-10.4723
▁Hi	-10.4726
▁2006	-10.4728
▁till	-10.4728
ae	-10.4731
▁meta	-10.4732
▁fourth	-10.4734
ned	-10.4735
▁strongly	-10.4736
▁complaint	-10.4737
▁guys	-10.4738
av	-10.4739
▁ordered	-10.4741
4){	-10.4741
▁biological	-10.4742
▁entirely	-10.4743
▁graph	-10.4745
rich	-10.4745
▁mine	-10.4748
▁query	-10.4752
▁religious	-10.4757
▁electric	-10.4758
▁Party	-10.4759
▁6*	-10.4763
▁intensity	-10.4766
Yes	-10.4767
▁DO	-10.4771
1/	-10.4772
▁granted	-10.4773
▁Saturday	-10.4776
▁evening	-10.4779
▁0.6	-10.4783
▁ret	-10.4783
ius	-10.4785
▁ce	-10.4788
▁outcomes	-10.4796
▁draw	-10.4796
▁65	-10.4799
▁refer	-10.4803
▁guide	-10.4804
▁compounds	-10.4805
ven	-10.4806
▁repair	-10.4806
78	-10.4807
▁investigate	-10.4808
▁concern	-10.4808
▁framework	-10.481
ken	-10.481
▁+=	-10.4812
▁approved	-10.4814
▁murder	-10.4819
▁detailed	-10.4825
▁41	-10.4826
▁listed	-10.4826
ido	-10.4827
▁&\	-10.4829
mann	-10.4831
)=\	-10.4831
section	-10.4831
▁500	-10.4838
72	-10.4838
▁sale	-10.4839
▁feed	-10.4839
▁Har	-10.484
▁evaluate	-10.4845
▁duration	-10.4846
▁mention	-10.4847
ptr	-10.4849
▁sitting	-10.485
▁corner	-10.4853
/2	-10.4868
mit	-10.4871
39	-10.4873
▁java	-10.4873
▁immune	-10.4875
result	-10.4875
▁6,	-10.4875
▁runs	-10.4876
▁mono	-10.4878
▁Home	-10.4885
▁integer	-10.4887
▁focused	-10.4888
▁Internet	-10.4892
▁Office	-10.4895
▁excellent	-10.49
▁leaders	-10.4904
▁Sun	-10.4904
▁cluster	-10.4904
▁capable	-10.4905
▁Does	-10.4905
▁brand	-10.4906
_{1}	-10.4907
zi	-10.4909
NA	-10.4911
▁tend	-10.4912
▁pool	-10.4916
▁accuracy	-10.4917
▁television	-10.492
▁girls	-10.4921
ubuntu	-10.4924
src	-10.4926
▁regulation	-10.4927
▁category	-10.4934
▁ch	-10.4934
gt	-10.4937
▁Su	-10.4941
83	-10.4943
▁confidence	-10.4943
▁Ra	-10.4944
▁som	-10.4945
76	-10.4949
ea	-10.4949
▁lay	-10.4951
▁rare	-10.4953
004	-10.4954
▁route	-10.4954
▁frequently	-10.4957
parent	-10.4959
▁Paris	-10.4963
▁Twitter	-10.4964
Con	-10.4964
▁pulled	-10.4967
▁Christian	-10.4968
▁recovery	-10.4969
ld	-10.4969
▁opposite	-10.4983
▁Ne	-10.4983
▁managed	-10.4986
ement	-10.499
▁conflict	-10.4993
AD	-10.4994
▁fan	-10.4998
mark	-10.4998
▁interpretation	-10.5003
zeta	-10.5013
IM	-10.5013
rio	-10.5024
▁baby	-10.5025
^{(	-10.5031
_2$	-10.5033
▁==========	-10.5034
▁advanced	-10.504
tro	-10.5044
▁AD	-10.5045
ato	-10.5046
▁broken	-10.505
▁conference	-10.505
▁delay	-10.5056
print	-10.5057
▁networks	-10.5062
▁pop	-10.5067
Element	-10.5069
▁understood	-10.5074
▁considering	-10.5081
▁Tuesday	-10.5082
▁married	-10.509
▁sc	-10.509
aci	-10.509
▁purchase	-10.5091
▁limitations	-10.5093
▁disk	-10.5093
▁asking	-10.5098
bound	-10.5106
▁stored	-10.5108
▁Field	-10.5108
▁Who	-10.5108
▁Results	-10.511
▁positions	-10.5113
Count	-10.5114
▁violence	-10.5116
▁depending	-10.512
▁Despite	-10.5124
rick	-10.5125
▁download	-10.5128
62	-10.5131
che	-10.5131
▁mainly	-10.5133
▁solve	-10.5135
▁protocol	-10.5137
bre	-10.514
)*	-10.5142
▁push	-10.5142
ola	-10.5148
▁Christ	-10.5148
▁usual	-10.5159
▁Are	-10.516
▁arrived	-10.5161
oon	-10.5165
▁arguments	-10.5166
▁Apple	-10.5167
▁margin	-10.5175
▁Rule	-10.5176
As	-10.5177
uring	-10.5179
vis	-10.5181
User	-10.5183
▁minor	-10.5184
▁Bi	-10.5186
").	-10.5189
▁Copyright	-10.5191
▁reflect	-10.5193
▁Review	-10.5197
▁duty	-10.5199
▁Sam	-10.5201
▁unknown	-10.5203
▁pas	-10.5203
▁max	-10.5205
lem	-10.5206
Group	-10.5211
▁views	-10.5213
▁native	-10.5214
▁approaches	-10.5216
▁examination	-10.5219
▁HIV	-10.522
Button	-10.5227
▁boundary	-10.5228
▁pp	-10.5229
har	-10.5231
▁defendants	-10.5231
uff	-10.5233
▁planning	-10.5234
▁os	-10.5239
▁Russia	-10.5243
(),	-10.5247
▁SD	-10.5247
▁DC	-10.5247
ions	-10.5248
▁era	-10.5248
istic	-10.5249
▁Dis	-10.5252
▁8.	-10.5254
▁recognized	-10.5256
▁origin	-10.5256
▁observations	-10.5261
▁Federal	-10.5263
DA	-10.5265
ram	-10.5267
AM	-10.5267
▁candidate	-10.5269
▁sensitivity	-10.5269
']	-10.527
target	-10.527
▁documents	-10.5274
▁velocity	-10.5275
▁intra	-10.5279
▁debate	-10.5285
▁competition	-10.5286
▁ge	-10.5289
▁Hence	-10.529
▁AS	-10.529
uery	-10.5292
ball	-10.5297
▁conclude	-10.5297
▁tr	-10.5299
▁entitled	-10.53
▁script	-10.53
▁decisions	-10.53
▁marriage	-10.53
▁wear	-10.5303
79	-10.5304
▁warm	-10.5306
▁1](#	-10.5309
▁Bay	-10.531
card	-10.5313
▁joined	-10.5313
▁minute	-10.5319
▁examples	-10.5323
▁acts	-10.5323
▁electron	-10.5325
_1,	-10.5326
▁Where	-10.5329
▁Richard	-10.5329
▁Give	-10.5329
▁procedures	-10.5331
EC	-10.5336
▁pa	-10.5339
▁lung	-10.534
▁nine	-10.535
▁Da	-10.5354
TS	-10.5359
▁petition	-10.5359
Not	-10.5361
▁alcohol	-10.5362
▁numerous	-10.5362
92	-10.5372
▁External	-10.5372
▁wonder	-10.5373
▁demonstrate	-10.5374
":"	-10.5375
ijms	-10.5376
74	-10.5378
▁Africa	-10.538
▁Super	-10.5382
-7	-10.5385
▁owner	-10.5386
FA	-10.5386
▁Los	-10.5389
▁trees	-10.5391
400	-10.5394
▁intent	-10.5403
▁sections	-10.5405
▁About	-10.5405
ulation	-10.5406
▁Indeed	-10.5409
▁assessed	-10.541
1],	-10.5411
▁dream	-10.5413
▁sin	-10.5414
▁Plaintiff	-10.5416
ow	-10.5417
itis	-10.5424
▁modified	-10.5425
****************	-10.5426
▁sweet	-10.5429
▁Ge	-10.5432
▁resulted	-10.5435
cur	-10.5438
▁Dan	-10.5443
▁label	-10.5443
]{	-10.5448
ett	-10.5449
▁Defendant	-10.545
▁Thursday	-10.5452
73	-10.5453
center	-10.5461
▁assess	-10.5463
▁Martin	-10.5465
ill	-10.5466
61	-10.5468
▁statements	-10.5468
6-	-10.5472
▁Ka	-10.5479
▁advice	-10.5484
▁joint	-10.5485
▁--------	-10.5486
▁spoke	-10.5491
▁fa	-10.5494
▁walked	-10.5495
▁consent	-10.5495
▁taste	-10.5496
return	-10.5497
▁scores	-10.5498
▁Mor	-10.5498
▁contribution	-10.5502
▁Web	-10.5503
▁assuming	-10.5509
▁concerns	-10.5511
▁register	-10.5511
▁exposed	-10.5513
born	-10.5515
▁Earth	-10.5515
▁concerned	-10.5518
▁supposed	-10.5526
▁Si	-10.5528
▁experienced	-10.553
Int	-10.5541
kg	-10.5542
amine	-10.5543
▁Americans	-10.5543
air	-10.5546
mic	-10.5547
match	-10.5548
local	-10.5551
▁FIG	-10.5551
▁1.5	-10.5553
▁caught	-10.5554
▁55	-10.5554
▁statistical	-10.5556
▁charges	-10.5559
▁pages	-10.556
▁objective	-10.5564
▁Appellant	-10.5564
▁Wednesday	-10.5564
▁interval	-10.5565
▁-------	-10.5565
▁Project	-10.5571
▁thread	-10.5573
▁cap	-10.5575
gi	-10.5575
▁suitable	-10.5583
▁thick	-10.5585
▁neuro	-10.559
/5	-10.5591
▁impossible	-10.5592
▁African	-10.5597
▁replace	-10.5597
▁split	-10.5598
▁widely	-10.56
▁ho	-10.5601
tz	-10.5603
▁customer	-10.5608
button	-10.5609
▁Johnson	-10.5612
lon	-10.5612
▁Hu	-10.5615
▁accepted	-10.5616
SS	-10.5617
▁Ja	-10.5625
▁decide	-10.5626
▁acute	-10.5626
▁breath	-10.5629
lar	-10.5631
▁leg	-10.5633
▁partner	-10.5633
▁Ser	-10.5634
300	-10.5642
▁goals	-10.5647
▁becoming	-10.5649
mode	-10.5651
-19	-10.5655
▁efficient	-10.5656
▁49	-10.5657
une	-10.5659
▁pieces	-10.566
▁massive	-10.5667
▁claimed	-10.5669
▁grant	-10.567
▁thereby	-10.5672
▁forth	-10.5677
▁unable	-10.5677
▁Florida	-10.5678
▁recording	-10.568
▁doctor	-10.5683
▁(6	-10.5688
*-	-10.5692
▁conversation	-10.5692
By	-10.5694
▁applicable	-10.5699
▁None	-10.5703
ef	-10.5705
UI	-10.5706
▁manage	-10.5707
▁Chapter	-10.571
▁haven	-10.5715
▁composite	-10.5717
FS	-10.572
▁signaling	-10.5721
▁climate	-10.5721
▁EU	-10.5722
▁attached	-10.5725
▁laser	-10.5725
CS	-10.5727
cher	-10.5729
▁Next	-10.5731
▁Che	-10.5732
▁dynamic	-10.5738
Un	-10.5741
▁improvement	-10.5744
▁explanation	-10.5745
8)	-10.5746
TP	-10.5746
tal	-10.5747
▁Human	-10.5748
▁hence	-10.5749
▁fundamental	-10.5751
▁coupling	-10.5752
▁specified	-10.5754
▁res	-10.5763
ps	-10.5764
height	-10.5764
prop	-10.5767
SM	-10.5769
▁principal	-10.577
▁hole	-10.5772
▁fans	-10.5779
▁injection	-10.5779
▁Mary	-10.5782
▁technical	-10.5784
▁plays	-10.5786
ding	-10.5793
▁Name	-10.5795
first	-10.5796
▁budget	-10.5797
0.0	-10.5801
▁Yet	-10.5802
)*(	-10.5806
**5	-10.5807
▁chapter	-10.5809
▁testified	-10.5812
AN	-10.5819
)/(	-10.5821
▁75	-10.5822
nbsp	-10.5823
▁watching	-10.5826
▁peace	-10.5826
▁policies	-10.583
▁Lee	-10.583
▁slowly	-10.5831
▁History	-10.5833
▁union	-10.5839
▁Roman	-10.5839
▁assembly	-10.584
Model	-10.5842
▁rats	-10.5845
gr	-10.5847
▁notes	-10.5847
ski	-10.5847
▁mixture	-10.585
ara	-10.5852
▁vision	-10.5854
▁knows	-10.5855
▁involving	-10.5858
▁Type	-10.5859
▁AT	-10.5859
▁bus	-10.586
▁keeping	-10.5867
▁Long	-10.5868
▁payment	-10.5868
▁suggesting	-10.5874
▁----	-10.5875
1]	-10.5879
▁Out	-10.588
▁enable	-10.5885
active	-10.5886
▁Cor	-10.5886
Date	-10.5898
▁om	-10.59
▁ended	-10.59
▁secure	-10.5907
▁explore	-10.5907
eb	-10.5908
They	-10.5915
win	-10.5915
ez	-10.5916
▁settings	-10.5917
3*	-10.5919
last	-10.592
▁tag	-10.5921
From	-10.5922
1].	-10.5923
▁village	-10.5926
▁installed	-10.5928
▁46	-10.593
▁committed	-10.5931
wing	-10.5933
xml	-10.5936
▁sought	-10.5943
room	-10.5943
▁fi	-10.5945
▁1990	-10.5949
gel	-10.595
▁equations	-10.595
ena	-10.5951
How	-10.5955
71	-10.5955
ON	-10.5955
0.8	-10.5958
▁47	-10.5963
93	-10.5964
format	-10.5967
▁Simplify	-10.597
▁cash	-10.597
▁crowd	-10.597
▁award	-10.5973
▁gap	-10.598
layout	-10.5981
▁0.8	-10.5985
▁absolute	-10.5986
▁Blue	-10.5988
-12	-10.5988
▁commonly	-10.599
2.5	-10.599
▁Maybe	-10.5991
▁stability	-10.5996
▁Central	-10.5998
▁och	-10.5999
▁soil	-10.5999
cent	-10.6003
▁victim	-10.6004
▁detect	-10.6006
▁dans	-10.6006
▁potentially	-10.6009
▁Math	-10.6011
▁seek	-10.6012
7)	-10.6014
IA	-10.6017
▁resource	-10.602
▁Sea	-10.6021
▁------------	-10.6024
▁sugar	-10.6024
med	-10.6033
▁necessarily	-10.6036
▁sight	-10.6038
▁Justice	-10.6039
▁sides	-10.6039
▁scope	-10.6039
▁jobs	-10.604
▁aren	-10.6042
EL	-10.6042
▁Check	-10.6042
inter	-10.6043
▁MP	-10.6045
▁adults	-10.6045
▁Make	-10.6045
▁Given	-10.6047
▁communities	-10.6047
▁300	-10.6049
Add	-10.605
TH	-10.6055
load	-10.6056
▁Ch	-10.6062
call	-10.6062
▁department	-10.6065
Manager	-10.6065
▁Charles	-10.6067
]$	-10.6069
▁bright	-10.6072
▁housing	-10.6076
▁structural	-10.6077
American	-10.6082
raw	-10.6082
AC	-10.6084
▁gr	-10.6084
SO	-10.6084
act	-10.6086
img	-10.6086
▁mark	-10.6086
▁---------	-10.6091
▁labor	-10.6092
▁52	-10.6092
og	-10.6093
▁Power	-10.6094
default	-10.6095
▁smile	-10.6102
1;	-10.6106
▁Gar	-10.6107
▁annual	-10.6109
▁principle	-10.6109
▁une	-10.611
▁estate	-10.6111
?”	-10.6111
▁debt	-10.6114
ula	-10.6114
▁senior	-10.6117
▁arrest	-10.6122
▁typename	-10.6124
▁license	-10.6126
▁Chi	-10.613
▁Jan	-10.6133
▁Those	-10.6134
▁mM	-10.6135
}}_{	-10.6137
▁fraction	-10.614
▁prison	-10.6141
ich	-10.6143
Filter	-10.6145
▁vitro	-10.6145
create	-10.6149
▁advance	-10.615
▁Every	-10.6154
▁radiation	-10.6156
▁2007	-10.6158
▁Read	-10.6159
▁$2	-10.616
^{-1}	-10.6165
▁{{\	-10.6168
▁standards	-10.6169
rie	-10.6171
you	-10.6174
▁surrounding	-10.6174
more	-10.6175
▁plot	-10.6175
▁investment	-10.6177
91	-10.6177
event	-10.6177
▁ST	-10.6178
▁Lake	-10.6183
▁assigned	-10.6185
▁Tu	-10.6185
fi	-10.6186
message	-10.6187
▁Jesus	-10.6187
▁manuscript	-10.619
▁Com	-10.6191
▁returns	-10.6191
▁accurate	-10.6191
oma	-10.6192
Bar	-10.6194
▁concluded	-10.6196
zy	-10.6198
▁Chicago	-10.62
▁Gen	-10.6204
▁72	-10.6205
▁neck	-10.6207
cer	-10.6211
2016	-10.6212
▁reverse	-10.6212
png	-10.6217
▁oxygen	-10.622
▁hurt	-10.6224
font	-10.6224
TM	-10.6225
ans	-10.6226
▁-----------	-10.6227
▁particle	-10.6236
▁rapid	-10.6239
▁identification	-10.6239
▁Cu	-10.6242
CP	-10.6242
▁sister	-10.6245
005	-10.6247
▁disc	-10.625
MP	-10.6255
gra	-10.6255
option	-10.6257
▁indicating	-10.6262
▁(\	-10.6265
▁nodes	-10.6265
▁aspects	-10.627
TE	-10.627
▁bag	-10.6278
▁zone	-10.628
PE	-10.6281
▁((	-10.6282
Oh	-10.6289
▁Information	-10.629
▁nm	-10.6291
NAME	-10.6293
war	-10.6295
}=\	-10.6295
ami	-10.6295
ln	-10.6296
","	-10.63
▁compound	-10.6301
Me	-10.6303
▁faster	-10.6305
▁loved	-10.6308
▁fl	-10.6308
cat	-10.6309
/(	-10.6309
▁CT	-10.6312
▁Minister	-10.6312
ack	-10.6313
▁challenges	-10.6315
▁thousand	-10.6315
▁populations	-10.6317
▁beam	-10.6317
Co	-10.6319
▁-------------	-10.6322
ook	-10.6329
▁cellular	-10.6329
▁recommend	-10.633
show	-10.6333
▁Jack	-10.6339
ware	-10.6339
eh	-10.6342
▁mortality	-10.6342
\|	-10.6342
▁aspect	-10.6342
▁smallest	-10.6343
▁OS	-10.6344
▁aim	-10.6344
ute	-10.6349
▁weekend	-10.6357
▁replaced	-10.6359
▁truly	-10.6362
▁cr	-10.6363
ations	-10.6366
current	-10.6366
8%	-10.6369
cho	-10.6372
▁fail	-10.6372
▁mask	-10.6373
ties	-10.6373
▁contribute	-10.6376
3%	-10.6377
2015	-10.6379
▁characterized	-10.6381
▁relationships	-10.6382
▁bo	-10.6384
▁Er	-10.6386
MC	-10.639
▁120	-10.6393
▁axis	-10.6396
▁Jones	-10.6396
▁baseline	-10.6396
▁articles	-10.6397
▁familiar	-10.6398
▁requirement	-10.6408
002	-10.6411
ency	-10.6412
6)	-10.6413
▁implies	-10.6416
▁effectively	-10.6416
▁Gu	-10.6419
▁degrees	-10.642
4*	-10.642
▁7,	-10.6429
LO	-10.6431
▁2.0	-10.6432
ob	-10.6434
▁justice	-10.6435
align	-10.644
vel	-10.6443
number	-10.6446
PD	-10.6446
AR	-10.6446
▁flash	-10.6447
▁2004	-10.645
▁instructions	-10.6451
▁merely	-10.6452
▁Times	-10.6454
▁strange	-10.6455
▁relations	-10.6456
5){	-10.6457
▁----------	-10.6458
▁walking	-10.6458
82	-10.6463
▁File	-10.6464
▁pure	-10.6466
false	-10.6469
Al	-10.6471
▁Te	-10.6471
▁beat	-10.6471
▁supporting	-10.6474
2017	-10.6476
ened	-10.6484
▁repeated	-10.6489
Mo	-10.649
ient	-10.6492
▁terminal	-10.6493
▁extract	-10.6498
▁employee	-10.6499
▁consideration	-10.6501
▁dynamics	-10.6502
▁linked	-10.6506
ras	-10.6509
▁milk	-10.6513
ash	-10.6515
▁channels	-10.6517
^3	-10.6518
La	-10.6521
AT	-10.6522
▁Mi	-10.6522
▁Though	-10.6522
128	-10.6522
ama	-10.6527
▁MA	-10.6527
ging	-10.6531
UN	-10.6533
▁Bio	-10.6537
▁NA	-10.6537
▁antibody	-10.6538
▁med	-10.6539
▁branch	-10.6544
▁fees	-10.6545
▁decades	-10.6546
css	-10.6551
▁nano	-10.6557
TO	-10.6557
▁(7	-10.6558
1.1	-10.6562
minimal	-10.6571
▁definitely	-10.6573
▁tu	-10.6577
Content	-10.6579
▁wine	-10.6581
▁cat	-10.6584
ros	-10.6585
CI	-10.6586
▁ob	-10.6587
▁transform	-10.6589
▁offering	-10.6593
▁assumed	-10.6594
▁lib	-10.6594
BS	-10.6597
▁gender	-10.6599
▁guilty	-10.66
▁aid	-10.6601
0\	-10.6602
▁prop	-10.661
has	-10.6614
';	-10.6617
81	-10.6618
cdots	-10.662
▁${	-10.662
▁passing	-10.6623
\{	-10.6625
fully	-10.6633
▁len	-10.6634
TYPE	-10.6636
[12	-10.664
-20	-10.6641
4}	-10.6642
▁proved	-10.6642
▁sensitive	-10.6643
▁>>	-10.6644
Method	-10.6649
▁funds	-10.6652
hand	-10.6656
▁scientific	-10.6659
▁pointed	-10.6661
▁admitted	-10.6664
sky	-10.6667
▁exit	-10.6667
▁Society	-10.6672
7-	-10.6679
▁realized	-10.6682
▁Bur	-10.6684
▁famous	-10.6689
▁strategies	-10.6696
▁menu	-10.6696
▁signs	-10.67
▁Mon	-10.6701
▁largely	-10.6701
▁molecules	-10.6706
▁thermal	-10.6711
▁predicted	-10.6715
▁disorder	-10.672
▁continues	-10.6721
zen	-10.6722
▁dependent	-10.6722
▁visible	-10.6725
▁Last	-10.6728
▁recognize	-10.6728
ace	-10.6731
▁informed	-10.6734
EE	-10.6736
▁supra	-10.6741
▁limits	-10.6743
▁Model	-10.6744
▁56	-10.6744
LA	-10.6746
▁closer	-10.6747
Box	-10.6748
icon	-10.6749
▁mRNA	-10.675
▁automatically	-10.6754
▁offense	-10.6755
▁9.	-10.6755
bu	-10.6757
▁funding	-10.676
▁yield	-10.6761
▁optimal	-10.6762
▁violation	-10.6763
▁employment	-10.6765
DI	-10.6765
▁provision	-10.6765
▁Van	-10.6767
tain	-10.6767
▁Click	-10.6769
▁API	-10.6773
▁mi	-10.6782
ets	-10.6784
1.0	-10.6789
(0,	-10.6794
▁putting	-10.6799
▁observation	-10.6799
FF	-10.68
RS	-10.6803
▁closely	-10.6804
▁humans	-10.6804
+1	-10.6805
▁seeking	-10.6806
pdf	-10.6807
apache	-10.6809
"}.	-10.6812
subset	-10.6815
▁river	-10.6815
▁vivo	-10.6816
▁dangerous	-10.6819
▁trials	-10.6822
where	-10.6823
▁Lemma	-10.6826
▁fashion	-10.6829
▁rat	-10.6832
PR	-10.6833
dal	-10.6836
▁capture	-10.6839
▁prices	-10.6839
▁sounds	-10.6841
band	-10.6844
▁marked	-10.6845
▁PD	-10.6847
▁translation	-10.6849
sha	-10.6849
▁font	-10.6852
▁argues	-10.6854
byte	-10.6856
Number	-10.6859
▁tissues	-10.6859
▁vol	-10.6859
++)	-10.6862
▁Additionally	-10.6863
▁regime	-10.687
▁successfully	-10.6873
ify	-10.6875
sensors	-10.6876
nn	-10.6876
▁consumption	-10.6879
▁fr	-10.6881
ug	-10.6885
control	-10.6889
▁expensive	-10.689
▁representative	-10.6891
▁assistance	-10.6892
gl	-10.6897
uc	-10.6899
▁weather	-10.69
▁tight	-10.6903
▁har	-10.6904
▁attacks	-10.6906
▁Among	-10.6907
▁rain	-10.6907
▁53	-10.691
Line	-10.6913
▁persons	-10.6913
▁committee	-10.6915
▁outer	-10.6916
ular	-10.6917
▁deliver	-10.6927
MO	-10.6928
osis	-10.6936
▁unsigned	-10.6937
▁stick	-10.6937
split	-10.6938
▁Anti	-10.694
▁uniform	-10.6943
System	-10.6943
▁Big	-10.6948
BP	-10.6949
DS	-10.6952
▁expert	-10.6953
▁Sal	-10.6954
▁quarter	-10.6956
▁51	-10.6957
▁tube	-10.6957
▁Land	-10.6959
MA	-10.6962
-9	-10.6965
▁layers	-10.6972
▁fellow	-10.6973
▁audience	-10.6974
Well	-10.6975
▁Up	-10.698
▁("	-10.6981
tree	-10.6982
▁desire	-10.6982
hal	-10.6986
▁sector	-10.6987
rin	-10.6989
2000	-10.6989
▁Min	-10.6989
▁bodies	-10.6989
▁console	-10.699
ear	-10.6992
▁col	-10.6992
▁cl	-10.6992
She	-10.6999
▁plastic	-10.7
"]	-10.7
▁-----	-10.7001
dia	-10.7005
stone	-10.7006
▁Th	-10.7007
▁Island	-10.7008
▁brown	-10.7009
▁Best	-10.7009
OL	-10.7013
▁namespace	-10.7017
▁escape	-10.7018
▁windows	-10.7018
▁responsibility	-10.7018
NP	-10.702
▁sensor	-10.7023
graph	-10.7026
▁54	-10.7027
▁organic	-10.7027
▁sky	-10.7029
0.6	-10.7029
BA	-10.703
▁SO	-10.703
ala	-10.7031
doc	-10.7032
▁telling	-10.7033
▁og	-10.7036
ax	-10.7038
buf	-10.704
▁writer	-10.7041
▁coach	-10.7041
▁vast	-10.7042
▁dropped	-10.7044
▁turns	-10.7046
▁drawn	-10.7047
▁Water	-10.7052
6%	-10.7053
▁--------------	-10.7054
▁emission	-10.7055
▁es	-10.7058
▁Control	-10.7059
▁gl	-10.7065
client	-10.7069
▁causing	-10.7069
ora	-10.707
▁Hospital	-10.7072
▁diameter	-10.7075
▁waste	-10.7075
/7	-10.7077
2012	-10.7078
▁mission	-10.708
▁oral	-10.7084
▁creation	-10.7085
▁integrated	-10.7085
▁offset	-10.7086
ria	-10.7087
▁1;	-10.7088
▁drink	-10.709
NC	-10.7091
▁imp	-10.7091
dr	-10.7092
site	-10.7093
▁Hill	-10.7093
▁bias	-10.7098
▁wood	-10.7099
▁king	-10.7102
▁significance	-10.7111
sta	-10.7112
▁2-	-10.7114
▁Canadian	-10.7114
(3)	-10.7115
rk	-10.7117
▁lie	-10.7119
DM	-10.712
▁threat	-10.7125
▁150	-10.7129
json	-10.713
\,\	-10.7133
oz	-10.7134
▁diabetes	-10.7134
▁grand	-10.7135
lam	-10.7136
server	-10.7138
800	-10.7138
▁controller	-10.7139
web	-10.7139
▁finish	-10.7143
At	-10.7143
▁dimension	-10.7145
▁Cha	-10.7146
▁sheet	-10.7155
▁Medical	-10.7159
real	-10.716
▁internet	-10.7163
▁teaching	-10.7166
▁messages	-10.7168
▁recommended	-10.7172
▁stack	-10.7172
▁hotel	-10.7173
▁noticed	-10.7175
▁moral	-10.7176
▁removal	-10.7178
▁hundreds	-10.7178
▁cities	-10.7178
▁realize	-10.7179
▁religion	-10.7181
▁grown	-10.7182
OP	-10.7183
▁convert	-10.7186
Buffer	-10.7186
▁seconds	-10.7187
▁apart	-10.7191
▁info	-10.7194
▁PCR	-10.7196
▁Senate	-10.7198
▁reducing	-10.7199
▁Republican	-10.7199
other	-10.7201
Base	-10.7202
▁suddenly	-10.7202
▁crystal	-10.7203
▁consists	-10.7205
▁IV	-10.7205
600	-10.7207
▁dr	-10.7209
▁SP	-10.721
▁characteristic	-10.7211
lor	-10.7214
▁Ti	-10.7216
Be	-10.7222
▁RT	-10.7222
▁Frank	-10.7223
ele	-10.7231
▁2003	-10.7234
▁0.02	-10.7238
▁Police	-10.724
Psi	-10.7241
▁2001	-10.7241
▁apparent	-10.7242
▁plaintiffs	-10.7243
MM	-10.7245
▁compact	-10.7247
▁connect	-10.7248
}}{	-10.7249
▁kitchen	-10.7262
lip	-10.7268
▁electrical	-10.727
▁walls	-10.727
▁Report	-10.7271
ese	-10.7275
widehat	-10.7276
▁95%	-10.7277
▁(10	-10.7278
▁mechanical	-10.7279
▁Love	-10.7279
▁flag	-10.7281
▁Army	-10.7281
▁bridge	-10.7281
▁spirit	-10.7282
▁[[	-10.7282
kt	-10.7283
status	-10.7284
▁amazing	-10.7284
▁initially	-10.7284
▁identical	-10.7288
▁1:	-10.7288
▁promote	-10.7291
Action	-10.7293
▁ok	-10.7294
▁draft	-10.7295
▁blocks	-10.7299
▁sh	-10.7303
vol	-10.7303
▁Accordingly	-10.7314
▁las	-10.7315
ire	-10.7317
▁pH	-10.7318
_{2}	-10.7319
Cl	-10.7321
rum	-10.7324
▁plain	-10.7326
ib	-10.7329
▁integral	-10.7331
step	-10.7332
▁pictures	-10.7334
▁Dec	-10.7335
▁snow	-10.7335
▁ni	-10.7337
gan	-10.7339
▁Road	-10.7344
▁somewhat	-10.7345
▁estimates	-10.735
▁Oh	-10.7352
▁researchers	-10.7352
▁pen	-10.7356
▁syndrome	-10.7357
▁Vol	-10.7358
▁cultural	-10.7359
dom	-10.736
next	-10.7361
ysym	-10.7362
]]	-10.7364
▁schedule	-10.7364
2018	-10.7364
▁antibodies	-10.7365
▁classification	-10.7371
▁browser	-10.7372
root	-10.7372
▁gate	-10.7373
▁imagine	-10.7382
loc	-10.7383
▁sports	-10.7385
ais	-10.7389
▁---------------	-10.7394
▁speaking	-10.7396
▁tour	-10.7396
bus	-10.7398
▁lock	-10.7398
ery	-10.7404
▁presentation	-10.7404
dt	-10.7404
An	-10.7407
▁maps	-10.741
▁winter	-10.741
DB	-10.7411
1/2	-10.7412
tes	-10.7413
water	-10.7415
ito	-10.7416
▁examine	-10.7418
▁neurons	-10.7419
_{0}	-10.7421
▁surgical	-10.7421
▁Sir	-10.7423
▁dance	-10.7425
▁patent	-10.7427
nic	-10.7427
▁concerning	-10.7428
▁clock	-10.7428
5}	-10.7432
▁feedback	-10.7432
rb	-10.7433
ail	-10.7435
och	-10.7436
▁von	-10.7436
▁Henry	-10.7437
small	-10.7438
▁remote	-10.7439
▁apparently	-10.7442
▁Introduction	-10.7446
▁cloud	-10.7448
▁Order	-10.745
▁rose	-10.745
ew	-10.7453
null	-10.7453
Point	-10.7456
▁proportion	-10.7458
▁delivered	-10.7459
eps	-10.746
9)	-10.7461
▁therapeutic	-10.7462
▁perspective	-10.7462
documentclass	-10.7463
summary	-10.7464
▁turning	-10.7465
entry	-10.7466
greek	-10.7472
sup	-10.7473
▁primarily	-10.7473
▁DE	-10.7478
▁figures	-10.7479
▁journey	-10.7483
Config	-10.7483
setlength	-10.7483
)).	-10.7486
aka	-10.7493
▁(8	-10.7494
ration	-10.7494
▁Williams	-10.7499
face	-10.7504
even	-10.7504
▁thoughts	-10.7506
ava	-10.7508
▁SC	-10.7515
▁:)	-10.7517
▁partial	-10.7518
▁container	-10.7518
▁park	-10.7519
CIT	-10.7519
▁centre	-10.7519
0.3	-10.7521
Pa	-10.7523
▁pairs	-10.7524
equiv	-10.7524
▁Security	-10.7529
▁Virginia	-10.7536
▁radical	-10.7537
▁Wood	-10.7539
uint	-10.7542
2_	-10.7544
cut	-10.7545
▁practical	-10.7548
▁Old	-10.7549
▁anyway	-10.7551
▁decay	-10.7551
▁maintained	-10.7552
▁ka	-10.7552
▁army	-10.7552
▁witness	-10.7554
▁behaviour	-10.7556
▁chair	-10.7564
ied	-10.7565
▁stem	-10.7566
ural	-10.7569
case	-10.757
1%	-10.7577
▁adopted	-10.758
cup	-10.7583
▁differential	-10.7586
▁orders	-10.7588
ku	-10.7589
▁Gi	-10.7592
▁Director	-10.7596
^{2}	-10.7599
▁fruit	-10.7599
▁cards	-10.7601
addr	-10.7601
BC	-10.7604
any	-10.7605
▁willing	-10.7607
hen	-10.7608
▁amino	-10.7611
▁practices	-10.7614
▁acting	-10.7621
▁helps	-10.7627
ante	-10.7629
▁median	-10.763
▁smart	-10.7632
▁glucose	-10.7632
▁Social	-10.7633
▁regression	-10.7635
▁Today	-10.7636
Format	-10.7637
▁inhibition	-10.7638
▁cur	-10.764
▁binary	-10.7642
az	-10.7642
▁describes	-10.7646
▁medicine	-10.765
Client	-10.7652
▁displayed	-10.7653
UE	-10.7657
▁starts	-10.7662
Ch	-10.7663
▁amounts	-10.7664
▁&=	-10.7666
▁circle	-10.7667
▁synthesis	-10.7669
▁conversion	-10.7672
▁depend	-10.7673
amssymb	-10.7673
▁Joe	-10.7673
▁meat	-10.7674
Source	-10.7678
▁ser	-10.7678
▁Ru	-10.7679
▁mix	-10.768
▁rotation	-10.7682
▁predict	-10.7684
ien	-10.7686
oddsidemargin	-10.7686
▁coffee	-10.7687
▁surprise	-10.7689
mathrsfs	-10.769
▁clients	-10.7691
▁emotional	-10.7692
▁Software	-10.7693
▁harm	-10.7694
▁division	-10.7695
ender	-10.7696
context	-10.7696
▁(9	-10.7697
▁Line	-10.7703
GE	-10.7706
▁involves	-10.7706
ole	-10.7708
▁Cup	-10.7708
ere	-10.7708
▁organ	-10.7714
▁trend	-10.7716
▁3-	-10.7722
▁picking	-10.7726
ei	-10.7727
Version	-10.7728
▁bigger	-10.7728
▁extends	-10.7733
006	-10.7737
▁export	-10.7742
ica	-10.7744
▁1000	-10.7752
▁spatial	-10.7752
▁extend	-10.7753
amsfonts	-10.7753
header	-10.7754
▁recall	-10.7755
▁constructed	-10.7755
TA	-10.7757
▁monitoring	-10.7757
▁Chief	-10.7758
Pi	-10.7758
▁assist	-10.776
▁audio	-10.7764
▁flight	-10.777
▁league	-10.7774
▁enhanced	-10.7775
▁Based	-10.7777
play	-10.7777
▁classical	-10.7782
▁Four	-10.7783
▁lowest	-10.7784
▁mo	-10.7785
▁fighting	-10.7786
▁immediate	-10.7788
spec	-10.7791
}{-6	-10.7793
▁horse	-10.7793
▁minimal	-10.7795
▁formal	-10.7795
▁PS	-10.7796
fd	-10.7796
FT	-10.7797
▁Corp	-10.7798
▁guard	-10.7799
▁sharp	-10.7799
▁grew	-10.7799
7%	-10.78
▁recognition	-10.78
van	-10.78
See	-10.7802
▁Col	-10.7803
▁pot	-10.7803
amsmath	-10.7803
▁tab	-10.7806
▁hypothesis	-10.7807
▁magnitude	-10.7815
0.7	-10.7818
▁wire	-10.782
▁Inter	-10.7821
0.9	-10.7824
ians	-10.7827
▁danger	-10.7828
▁matters	-10.7829
▁closest	-10.7831
▁discovery	-10.7833
Frame	-10.7834
ct	-10.7841
▁boys	-10.7842
▁stroke	-10.7842
▁Mexico	-10.7843
▁damages	-10.7845
0.4	-10.7848
▁Education	-10.7849
math	-10.7849
UL	-10.7849
▁yellow	-10.7852
▁residents	-10.7854
mes	-10.7855
▁===	-10.7858
▁preferred	-10.7859
search	-10.7859
▁dev	-10.7859
1.5	-10.786
▁carrying	-10.7861
▁mutations	-10.7862
▁shoulder	-10.7862
module	-10.7862
▁chest	-10.7872
/\	-10.7875
/3	-10.7875
ida	-10.7876
qua	-10.7882
^+	-10.7887
▁Thank	-10.7888
lie	-10.789
▁shock	-10.7892
007	-10.7895
element	-10.7902
▁citizens	-10.7903
▁stone	-10.7903
▁politics	-10.7904
1_	-10.7904
nav	-10.7905
▁Dar	-10.7905
▁episode	-10.7907
▁declared	-10.7908
▁possession	-10.7908
cu	-10.791
iter	-10.7911
request	-10.7911
▁argue	-10.7913
amsbs	-10.7915
▁Par	-10.7917
aria	-10.7917
-15	-10.7918
▁determining	-10.7919
▁Ri	-10.792
▁Show	-10.7924
▁Division	-10.7925
▁bought	-10.7926
▁2002	-10.793
property	-10.794
▁Page	-10.7943
▁watched	-10.7944
}}{\	-10.7944
▁preparation	-10.7954
phy	-10.7961
▁Non	-10.7963
attr	-10.7964
iso	-10.7964
▁\>	-10.7964
trans	-10.7967
under	-10.7967
▁odd	-10.7968
DD	-10.797
▁shop	-10.7971
▁dollars	-10.7972
Result	-10.7978
opt	-10.7983
▁1980	-10.7984
rel	-10.7987
▁Italian	-10.7989
▁absolutely	-10.799
▁stages	-10.7992
▁Program	-10.7993
▁serving	-10.7994
approx	-10.7997
▁incidence	-10.8003
▁kernel	-10.8004
▁Microsoft	-10.8007
-11-	-10.8009
▁accounts	-10.8012
▁(4)	-10.8015
home	-10.8017
▁vertical	-10.8017
▁accordance	-10.8024
unit	-10.8025
▁instant	-10.8025
▁crisis	-10.8027
▁driven	-10.8029
▁extreme	-10.8029
▁Nor	-10.8032
▁ends	-10.8032
▁Scott	-10.8032
^2\	-10.8033
DR	-10.8034
eth	-10.8035
tte	-10.8036
▁BE	-10.8038
▁rapidly	-10.8038
bl	-10.8042
▁att	-10.8048
[2]	-10.8049
When	-10.805
▁submitted	-10.805
▁www	-10.805
^2}	-10.8055
avi	-10.8056
▁shut	-10.8061
▁afternoon	-10.8064
▁neutral	-10.8067
▁[1](#	-10.8069
▁transformation	-10.807
▁cu	-10.8073
▁separated	-10.8075
▁Book	-10.8079
▁hidden	-10.808
▁Journal	-10.8082
▁originally	-10.8082
▁cars	-10.8082
▁IP	-10.809
((	-10.809
SH	-10.8094
oli	-10.8095
▁locations	-10.8097
▁wrt	-10.8099
▁discretion	-10.81
bot	-10.8102
atory	-10.8105
\]).	-10.8106
tive	-10.8106
▁monitor	-10.8106
_1}	-10.8107
▁marketing	-10.811
▁categories	-10.811
qu	-10.811
▁opportunities	-10.8111
/4	-10.8111
2013	-10.8111
▁screening	-10.8112
weight	-10.8113
rc	-10.8114
mathsf	-10.8116
▁dinner	-10.8117
ENT	-10.8117
uch	-10.8117
ography	-10.8119
▁essentially	-10.812
HR	-10.8121
▁Sec	-10.8123
▁Je	-10.8126
▁prevalence	-10.8127
two	-10.8128
▁genome	-10.8128
▁Young	-10.813
▁shooting	-10.813
ye	-10.8132
▁smoke	-10.8136
▁quiet	-10.8143
▁ON	-10.8147
ima	-10.8148
TR	-10.8148
▁100%	-10.8149
▁um	-10.8152
▁implemented	-10.8154
anti	-10.8156
Handler	-10.8156
AA	-10.8158
▁strains	-10.816
▁organizations	-10.816
▁partition	-10.8166
▁Miss	-10.8168
▁hate	-10.817
▁respective	-10.817
▁Auto	-10.8171
▁sorry	-10.8172
md	-10.8173
RP	-10.8175
aa	-10.8177
▁correctly	-10.818
▁Top	-10.8181
▁Still	-10.8181
▁courts	-10.8188
32_	-10.8188
kan	-10.8188
:30	-10.8188
▁publication	-10.8189
called	-10.819
▁strike	-10.8191
▁assault	-10.8192
▁8,	-10.8192
▁denote	-10.8197
▁Mal	-10.8197
▁excited	-10.8197
▁rear	-10.82
▁Grand	-10.82
ici	-10.8202
^+^	-10.8202
▁Similarly	-10.8203
▁emergency	-10.8206
pc	-10.8208
1000	-10.821
▁wonderful	-10.8215
▁posted	-10.822
▁experiences	-10.822
▁chamber	-10.8221
▁mit	-10.8224
▁Call	-10.8229
Property	-10.8232
txt	-10.8233
▁reader	-10.8233
▁mirror	-10.8234
▁contributions	-10.824
▁tasks	-10.8241
▁-6	-10.8244
android	-10.8244
▁targets	-10.8254
ral	-10.8255
▁ANY	-10.8256
00,	-10.8257
{{	-10.8258
▁abstract	-10.8264
▁Following	-10.8265
▁argued	-10.8267
▁boost	-10.8267
LY	-10.8268
each	-10.8269
▁Description	-10.827
▁dust	-10.8272
Tool	-10.8275
▁UI	-10.8277
▁permit	-10.8279
cf	-10.8284
ale	-10.8285
▁58	-10.8285
tar	-10.8287
oid	-10.8289
▁tea	-10.8289
▁Did	-10.8289
▁####	-10.8292
▁suspect	-10.8292
▁permission	-10.8293
=1$	-10.8296
eller	-10.8299
▁worst	-10.83
bol	-10.8301
▁ng	-10.8302
▁executive	-10.8308
▁domestic	-10.8311
▁forget	-10.8313
▁jump	-10.8319
▁ancient	-10.8326
▁refused	-10.8328
▁soul	-10.8329
AB	-10.833
▁Round	-10.8331
Start	-10.8334
▁Age	-10.8334
▁ride	-10.8334
2011	-10.8336
▁maintenance	-10.8337
system	-10.8344
▁Real	-10.8344
▁5-	-10.8345
▁forming	-10.8345
▁facilities	-10.8348
▁Pan	-10.835
Ro	-10.835
▁implement	-10.8353
▁Club	-10.8355
▁ultimately	-10.8355
Page	-10.8357
▁Bel	-10.8357
▁Image	-10.836
▁Clinton	-10.8361
▁decline	-10.8363
▁Wi	-10.8364
▁Han	-10.8365
=2	-10.8366
▁============	-10.8367
▁Australian	-10.8368
▁bear	-10.8369
▁km	-10.8369
120	-10.8369
▁bug	-10.837
▁spectra	-10.8373
▁fiber	-10.8376
Column	-10.8376
▁pump	-10.8378
mal	-10.8378
▁deaths	-10.8379
place	-10.8381
▁businesses	-10.8382
[]{	-10.8383
▁Master	-10.8383
▁honor	-10.8383
▁west	-10.8384
▁2](#	-10.8385
fl	-10.8387
▁lies	-10.8389
▁gift	-10.8391
▁Class	-10.8393
RNA	-10.8393
▁apartment	-10.8406
▁cable	-10.841
ath	-10.8411
▁Ten	-10.8411
▁Development	-10.8413
NET	-10.8417
▁crucial	-10.8418
▁spending	-10.8418
▁Women	-10.8418
▁57	-10.842
▁authorities	-10.8424
df	-10.8424
▁obviously	-10.8425
▁(0	-10.8426
und	-10.8428
GS	-10.843
▁helpful	-10.8432
ising	-10.8435
▁consequences	-10.8437
▁1994	-10.8438
_{2	-10.8439
▁Take	-10.8439
Override	-10.8441
(2	-10.8445
high	-10.8446
▁Jo	-10.8447
^2$	-10.8448
▁accident	-10.8452
▁east	-10.8459
xc	-10.8463
▁Attorney	-10.8464
▁prefer	-10.8466
9%	-10.8469
select	-10.8469
▁valve	-10.847
▁grade	-10.8471
^2^	-10.8474
▁url	-10.8475
▁Ba	-10.8476
ike	-10.8477
▁kit	-10.8478
host	-10.8478
▁island	-10.8479
▁conviction	-10.8479
▁bowl	-10.848
▁approval	-10.8483
_1\	-10.8483
Log	-10.8486
▁Royal	-10.8488
▁listen	-10.8489
▁integration	-10.8489
▁400	-10.8491
▁Put	-10.8492
PM	-10.8493
▁depression	-10.8496
▁Sh	-10.8496
▁intelligence	-10.8498
\*	-10.8502
▁copyright	-10.8504
▁chose	-10.8505
▁operators	-10.8507
2010	-10.8508
▁younger	-10.8509
▁exp	-10.851
▁fly	-10.8512
▁59	-10.8513
▁knowing	-10.8515
eng	-10.8521
las	-10.8522
▁2020	-10.8523
▁Mike	-10.8524
▁directory	-10.8527
St	-10.853
▁mon	-10.8532
▁96	-10.8535
▁battery	-10.8536
=1}^	-10.8539
▁10.	-10.8539
▁Several	-10.854
▁<!--	-10.8541
▁observe	-10.8542
▁95	-10.8544
▁pilot	-10.8547
IV	-10.8548
▁neighborhood	-10.855
ando	-10.855
}}^	-10.8556
▁theorem	-10.8556
▁acquired	-10.8557
▁topic	-10.8559
▁roll	-10.8561
▁carefully	-10.8563
cia	-10.8565
▁updated	-10.8566
filter	-10.8574
vers	-10.8575
▁7*	-10.858
obj	-10.858
▁miss	-10.8582
▁confirm	-10.8582
▁assumption	-10.8585
▁silver	-10.8587
▁helping	-10.8587
▁[1	-10.8591
▁transferred	-10.8591
CF	-10.8591
▁electro	-10.8592
ista	-10.8595
▁Tri	-10.8598
▁Boston	-10.8603
AF	-10.8603
only	-10.8609
neq	-10.8609
PI	-10.861
▁applying	-10.8615
▁raw	-10.8615
2014	-10.8616
▁macro	-10.8617
▁planned	-10.8617
ska	-10.8618
▁introduce	-10.8619
lay	-10.8619
LP	-10.8619
▁Iran	-10.8622
1^	-10.8622
▁separation	-10.8623
▁grid	-10.8624
▁Key	-10.8624
unk	-10.8624
▁county	-10.8624
▁Tra	-10.8625
▁Back	-10.8628
▁encoding	-10.863
▁Pi	-10.8632
▁Daniel	-10.8633
▁farm	-10.8633
▁Middle	-10.8637
-12-	-10.8638
▁discharge	-10.8641
▁rank	-10.8642
▁Catholic	-10.8642
▁Team	-10.8643
▁principles	-10.8644
▁ruling	-10.8645
▁enemy	-10.8649
▁instruction	-10.865
▁sqrt	-10.8651
▁edges	-10.8652
▁align	-10.8652
▁99	-10.8653
▁bars	-10.8654
ATION	-10.8656
▁Right	-10.8656
▁Mel	-10.8657
▁View	-10.8659
▁expand	-10.8667
▁UN	-10.8669
▁launch	-10.8669
▁Create	-10.8669
▁disorders	-10.8671
▁tumors	-10.8673
EA	-10.8674
▁segment	-10.8676
fs	-10.8679
(1	-10.8679
▁Application	-10.8682
▁architecture	-10.8682
▁12.	-10.8683
▁candidates	-10.8687
▁totally	-10.8689
▁Fire	-10.869
pass	-10.869
ika	-10.8694
▁requested	-10.8695
▁burn	-10.8695
▁extensive	-10.8697
output	-10.8698
)]	-10.8701
Pro	-10.8701
vy	-10.8703
rit	-10.8704
▁constitutional	-10.871
Response	-10.871
▁tail	-10.8711
▁historical	-10.8712
elli	-10.8714
▁superior	-10.8717
▁blind	-10.8717
▁thickness	-10.8717
Controller	-10.8718
▁Special	-10.8718
Form	-10.8718
▁Network	-10.8718
2%	-10.8719
vid	-10.8721
▁BY	-10.8722
▁tells	-10.8722
des	-10.8736
▁worry	-10.8737
▁illegal	-10.8737
2/	-10.874
itch	-10.8745
▁Perhaps	-10.8745
▁setup	-10.8746
▁3)	-10.8747
▁guidelines	-10.8752
▁eating	-10.8753
DF	-10.8754
END	-10.876
▁pet	-10.8762
▁pipe	-10.8764
DP	-10.8766
▁bond	-10.8767
▁Trans	-10.8767
positive	-10.8768
HS	-10.8769
]).	-10.877
▁promise	-10.877
▁Work	-10.8771
▁logic	-10.8771
▁injuries	-10.8772
2.1	-10.8772
▁crew	-10.8777
▁hadn	-10.878
▁enzyme	-10.8784
▁Services	-10.8789
▁Ref	-10.8791
▁bacteria	-10.8793
▁Total	-10.8793
▁Christmas	-10.8793
▁settlement	-10.8793
▁Spanish	-10.8795
▁Sha	-10.8795
ueen	-10.8801
▁FROM	-10.8801
0.1	-10.8806
▁engaged	-10.8807
else	-10.8807
▁como	-10.8808
"),	-10.8808
▁1993	-10.8813
Or	-10.8813
▁participate	-10.8815
▁songs	-10.8817
/10	-10.8818
▁fund	-10.8819
▁diagnostic	-10.882
▁num	-10.882
method	-10.8823
One	-10.8824
qquad	-10.8825
▁63	-10.8825
▁Jewish	-10.8829
▁Vo	-10.8829
▁Secretary	-10.8831
ME	-10.8832
150	-10.8834
▁symbol	-10.8836
▁Joseph	-10.8839
▁weapons	-10.8841
▁reporting	-10.8842
▁Tr	-10.8843
▁sand	-10.8844
▁Britain	-10.8845
▁answered	-10.8846
▁61	-10.8847
▁pathways	-10.8851
▁curves	-10.8857
LC	-10.8857
▁Donald	-10.8857
▁fairly	-10.8859
mL	-10.8859
Options	-10.886
+2	-10.8861
ust	-10.8861
▁Number	-10.8863
▁cohort	-10.8864
▁admission	-10.8864
▁spaces	-10.8864
▁1992	-10.8867
▁garden	-10.8872
NI	-10.8874
▁colour	-10.8874
ture	-10.8876
▁ME	-10.8879
:19	-10.888
▁lu	-10.8881
Row	-10.8884
▁aside	-10.8887
TT	-10.8889
aries	-10.889
molecules	-10.8896
▁artist	-10.8897
OT	-10.8898
▁normally	-10.8899
▁tough	-10.8901
rus	-10.8903
▁Ag	-10.8903
CE	-10.8904
▁(18	-10.8904
HA	-10.8905
▁spectral	-10.8908
life	-10.8909
▁Ke	-10.8919
▁mod	-10.892
sis	-10.8923
LI	-10.8923
▁calculate	-10.8924
”.	-10.8925
rest	-10.8925
▁Gra	-10.8932
▁shell	-10.8934
▁Standard	-10.8938
End	-10.8944
press	-10.8946
▁suffer	-10.8946
▁suppose	-10.895
}})	-10.895
vent	-10.8952
▁performing	-10.8957
▁moderate	-10.896
pin	-10.8964
▁Game	-10.8965
ET	-10.8966
▁temperatures	-10.8968
▁pl	-10.8968
▁Case	-10.8972
▁lots	-10.8974
▁leadership	-10.8975
▁proliferation	-10.898
8-	-10.8981
month	-10.8982
ION	-10.8983
▁PR	-10.899
▁liability	-10.8991
ati	-10.8994
PO	-10.8995
ening	-10.8998
▁Analysis	-10.9
▁solar	-10.9
Tab	-10.9
▁Music	-10.9
Status	-10.9
▁GL	-10.9001
▁Carolina	-10.9001
fill	-10.9005
▁complicated	-10.9006
▁======	-10.9018
▁supports	-10.9018
▁correlated	-10.9019
▁Ed	-10.902
mel	-10.902
aut	-10.9022
▁happening	-10.9023
SU	-10.9025
▁declare	-10.9029
▁Collect	-10.9032
Header	-10.9033
prod	-10.9034
static	-10.9034
▁dogs	-10.9035
▁Have	-10.904
sel	-10.9041
▁cutting	-10.9042
________________	-10.9042
word	-10.9043
▁dual	-10.9046
▁CH	-10.9046
0.2	-10.9048
▁password	-10.9048
CM	-10.9049
project	-10.9049
▁reform	-10.9049
▁transcription	-10.905
zer	-10.9052
▁valuable	-10.9054
▁editor	-10.9055
▁legs	-10.9055
try	-10.9061
▁Ku	-10.9063
die	-10.9063
▁attempts	-10.9063
▁killing	-10.9064
▁Democratic	-10.9066
▁photos	-10.9068
▁producing	-10.9073
mol	-10.9074
hold	-10.9074
▁broke	-10.9074
▁pulse	-10.9078
FC	-10.9078
find	-10.9082
▁render	-10.9083
.**	-10.9085
▁facility	-10.9086
||	-10.9088
▁pe	-10.909
▁FA	-10.909
▁decade	-10.9094
>0$	-10.9096
▁cook	-10.9097
▁conservative	-10.9098
SL	-10.9101
▁Cat	-10.9101
▁prepare	-10.9104
▁wearing	-10.911
▁equally	-10.9114
▁counts	-10.912
▁purchased	-10.9122
update	-10.9127
▁Shi	-10.9127
Length	-10.9133
▁1/2	-10.9134
▁Photo	-10.9135
▁simulation	-10.9135
▁subsequently	-10.9135
▁semiconductor	-10.9136
▁substantially	-10.9141
▁answers	-10.9146
,$$	-10.9147
tech	-10.9149
ates	-10.915
▁viral	-10.9153
pot	-10.9161
▁industrial	-10.9165
yn	-10.9167
▁perfectly	-10.9169
▁Far	-10.9171
▁differentiation	-10.9171
▁ourselves	-10.9174
mas	-10.9178
▁construct	-10.9182
▁boat	-10.9183
tile	-10.9184
Mode	-10.9185
Read	-10.9189
▁2.5	-10.9189
▁Val	-10.9193
gate	-10.9195
▁regional	-10.9197
rig	-10.92
eur	-10.9202
▁tip	-10.9203
▁insulin	-10.9204
▁gel	-10.9212
▁routine	-10.9212
▁66	-10.9214
miss	-10.9214
▁11.	-10.9215
▁folder	-10.9219
▁Bas	-10.9221
▁increasingly	-10.9222
▁documentation	-10.9224
({	-10.9225
▁notion	-10.9229
▁sharing	-10.9229
▁Louis	-10.9232
▁adjacent	-10.9237
..."	-10.9239
▁vehicles	-10.9239
▁consequence	-10.924
▁Mu	-10.9241
▁Civil	-10.9242
RR	-10.9244
▁planet	-10.9248
▁reviewed	-10.925
▁dependence	-10.9251
▁cognitive	-10.9253
▁warning	-10.9254
Sub	-10.9257
▁steel	-10.9257
▁electrode	-10.9258
▁suffered	-10.9259
▁Appeals	-10.926
▁intermediate	-10.9261
flow	-10.9262
▁somewhere	-10.9263
▁mapping	-10.9264
+1)	-10.9266
}}}$	-10.9267
▁10,	-10.9272
OD	-10.9273
▁forest	-10.9273
▁CS	-10.9274
note	-10.9276
'$	-10.9278
▁divide	-10.9278
second	-10.9285
▁Bal	-10.9287
▁alter	-10.9288
▁sick	-10.9289
most	-10.9292
▁Ohio	-10.9305
▁reliable	-10.9306
▁modify	-10.9308
MD	-10.931
▁markers	-10.9311
▁Amendment	-10.9315
rr	-10.9318
▁passage	-10.9319
ense	-10.932
▁Korea	-10.9324
▁registered	-10.9327
aire	-10.9327
linear	-10.9327
ois	-10.9332
▁lens	-10.9333
layer	-10.9336
▁HD	-10.9337
\"	-10.9339
▁arrested	-10.9339
Web	-10.934
▁permanent	-10.9342
process	-10.9343
/6	-10.9344
fall	-10.9346
001){	-10.9348
▁hell	-10.9348
▁bringing	-10.9352
query	-10.9352
ls	-10.9352
2019	-10.9353
▁buildings	-10.9353
▁infected	-10.9354
▁adverse	-10.9355
^1	-10.9358
ern	-10.9363
▁0.03	-10.9363
▁10%	-10.9363
▁progression	-10.9364
click	-10.9365
▁Italy	-10.9366
bio	-10.937
▁warrant	-10.9372
▁soldiers	-10.9376
▁Unfortunately	-10.9376
▁fault	-10.9378
▁winning	-10.9382
▁addressed	-10.9382
fire	-10.9384
▁fee	-10.9385
▁rel	-10.9386
▁enhance	-10.9388
▁Date	-10.9389
▁finger	-10.9389
▁Rock	-10.9391
▁Cross	-10.9392
▁Android	-10.9392
▁lipid	-10.9392
▁Fi	-10.9392
device	-10.9394
▁9,	-10.9396
▁Local	-10.9396
▁minister	-10.9396
ake	-10.9399
)}\	-10.9402
Why	-10.9402
▁suffering	-10.9406
EM	-10.9407
▁Wall	-10.9407
▁Business	-10.9408
▁CC	-10.9408
cept	-10.9408
sys	-10.9409
▁0$	-10.9411
5*	-10.9411
2;	-10.9412
1:	-10.9412
Label	-10.9414
▁Chris	-10.9414
▁copies	-10.9419
▁owned	-10.9422
▁laboratory	-10.9423
member	-10.9429
▁Ju	-10.9432
dan	-10.9432
▁bulk	-10.9432
▁attempted	-10.9433
bc	-10.9433
▁Es	-10.9437
▁truck	-10.9438
▁Light	-10.9439
▁immuno	-10.9441
lum	-10.9442
EX	-10.9444
power	-10.9446
▁Wa	-10.9447
▁50%	-10.9448
▁excess	-10.9449
eo	-10.945
▁ban	-10.9454
▁resolve	-10.9455
▁scan	-10.9457
▁hydrogen	-10.9458
▁acids	-10.9465
▁Angeles	-10.9465
▁msgid	-10.9468
wedge	-10.9468
▁youth	-10.9469
▁$(\	-10.9469
▁dealing	-10.947
-001	-10.9476
▁begins	-10.9476
256	-10.9478
TC	-10.948
make	-10.948
BI	-10.948
▁tape	-10.9485
▁probe	-10.9487
▁transaction	-10.9487
cri	-10.9489
▁jo	-10.9489
arrow	-10.9493
▁approximation	-10.9495
▁Bre	-10.9498
▁miR	-10.9499
▁arch	-10.95
▁flux	-10.9501
▁petitioner	-10.9503
▁scenario	-10.9503
▁collect	-10.951
▁11,	-10.9512
arch	-10.9512
▁ear	-10.9512
}+	-10.9515
build	-10.9518
▁""	-10.9518
▁Main	-10.952
▁repeat	-10.9523
▁academic	-10.9523
.^[@	-10.9523
(0	-10.9524
▁replied	-10.9536
▁roof	-10.9543
ory	-10.9543
▁cache	-10.9543
EST	-10.9546
▁silence	-10.9546
▁classic	-10.9549
▁IT	-10.9549
▁storm	-10.9551
▁62	-10.9552
▁ordinary	-10.9553
▁Design	-10.9553
▁rec	-10.9554
▁ta	-10.9559
▁simulations	-10.9565
]\	-10.9568
▁proceedings	-10.9569
Stream	-10.9571
MT	-10.9572
▁Pr	-10.9574
Create	-10.9576
append	-10.9578
*(	-10.9579
▁institutions	-10.9579
▁evil	-10.9581
▁mutation	-10.9583
ali	-10.9587
mate	-10.9587
hang	-10.9587
▁dedicated	-10.9589
gram	-10.9595
▁Cy	-10.9595
▁surprised	-10.9597
)))	-10.96
-11	-10.9602
▁stands	-10.9604
▁zu	-10.9604
▁1991	-10.9605
▁usage	-10.9607
▁contributed	-10.9607
▁pushed	-10.9607
bra	-10.9608
wise	-10.9609
Configuration	-10.9613
▁bundle	-10.9613
▁representing	-10.9614
▁owners	-10.9617
▁ill	-10.962
▁teacher	-10.9621
▁receiver	-10.9623
▁statistics	-10.9624
▁mail	-10.9627
ira	-10.9627
▁induction	-10.9627
▁tall	-10.9631
master	-10.9632
aba	-10.9633
URL	-10.9633
▁protest	-10.9634
century	-10.9634
▁ju	-10.9634
▁typedef	-10.9635
▁coupled	-10.9636
▁gradient	-10.9637
^0	-10.9639
meta	-10.9639
args	-10.964
▁alive	-10.9643
▁columns	-10.9645
▁Jim	-10.9647
▁SA	-10.9647
1\]	-10.9647
▁coefficients	-10.965
▁moments	-10.9654
▁edition	-10.9655
ben	-10.9655
▁MD	-10.9657
▁afraid	-10.9658
....	-10.9659
▁operate	-10.9659
▁Mass	-10.966
▁190	-10.966
▁modes	-10.9661
▁welcome	-10.9663
hor	-10.9664
▁Year	-10.9666
▁aircraft	-10.9666
▁instrument	-10.9667
\}$	-10.9669
▁Jackson	-10.9669
she	-10.9669
▁introduction	-10.9669
▁university	-10.9669
▁Va	-10.9669
▁AC	-10.967
mente	-10.967
▁110	-10.9672
▁Hol	-10.9673
▁situations	-10.9673
▁drawing	-10.9676
▁provisions	-10.9679
limits	-10.9679
▁plenty	-10.9681
▁blow	-10.9681
ony	-10.9682
▁newly	-10.9685
su	-10.9686
([	-10.9687
▁trail	-10.9689
▁Object	-10.9692
▁teeth	-10.9694
▁Play	-10.9696
known	-10.9697
Str	-10.9697
▁mini	-10.9698
▁proposal	-10.9698
/11	-10.9699
▁papers	-10.9699
4\	-10.9701
}+\	-10.9708
▁cardiac	-10.9709
▁nearby	-10.971
▁rounded	-10.9711
town	-10.9713
_1,\	-10.9713
ock	-10.9714
▁inform	-10.9714
▁hardware	-10.9715
late	-10.9716
"}),	-10.9718
▁foundation	-10.9718
▁thereof	-10.9719
▁interact	-10.9721
ivity	-10.9722
]{},	-10.9727
▁statistically	-10.9727
})\	-10.9728
010	-10.9733
▁substance	-10.9733
arm	-10.9736
▁Factor	-10.9741
▁launched	-10.9746
▁experts	-10.9747
▁>=	-10.9754
▁lattice	-10.9755
PT	-10.9756
▁manufacturing	-10.9764
treated	-10.9766
▁fingers	-10.9766
ked	-10.9768
▁Fox	-10.977
lig	-10.977
▁migration	-10.977
now	-10.9774
▁comfortable	-10.9776
▁requests	-10.9779
▁MI	-10.9779
▁regardless	-10.9779
ille	-10.9779
▁contents	-10.9781
▁Win	-10.9782
TV	-10.9784
eat	-10.9785
▁giant	-10.9786
▁hide	-10.9789
▁composed	-10.979
auto	-10.9791
Ref	-10.9794
Don	-10.9794
1\	-10.9794
▁faces	-10.9795
eck	-10.9795
location	-10.9796
▁Plan	-10.9806
▁powder	-10.9806
1.2	-10.9807
change	-10.981
hole	-10.9811
▁stimulation	-10.9811
▁Del	-10.9812
▁chicken	-10.9812
BD	-10.9813
009	-10.9814
▁recover	-10.9817
▁momentum	-10.9818
nan	-10.9819
▁Determine	-10.982
▁User	-10.9824
Out	-10.9824
▁matches	-10.9826
▁prediction	-10.9828
▁1970	-10.983
▁difficulty	-10.9831
▁orientation	-10.9832
▁anywhere	-10.9832
▁Greek	-10.9832
▁opposed	-10.9833
▁Jersey	-10.9833
▁dimensions	-10.9836
“	-10.9836
▁hypo	-10.9837
-13	-10.9837
tim	-10.9837
example	-10.984
RI	-10.984
author	-10.9843
met	-10.9844
"}](	-10.9844
["	-10.9845
▁Southern	-10.9846
▁regulations	-10.9846
▁feels	-10.9846
EF	-10.9847
kar	-10.9848
▁sampling	-10.9851
▁^	-10.9852
▁belief	-10.9852
▁contrary	-10.9853
▁victory	-10.9854
▁universe	-10.9855
▁Asia	-10.9858
uit	-10.9858
child	-10.9859
▁rows	-10.9861
▁gear	-10.9861
inc	-10.9863
4%	-10.9864
▁hall	-10.9872
]{}]{}	-10.9873
MR	-10.9873
nar	-10.9873
▁LA	-10.9874
stat	-10.9875
▁compliance	-10.9876
▁urban	-10.9877
▁14.	-10.9878
via	-10.9878
▁kinase	-10.988
▁Bob	-10.9882
buffer	-10.9883
▁alert	-10.9884
▁clusters	-10.9885
▁computed	-10.9889
UT	-10.989
aw	-10.989
▁induce	-10.9891
▁abundance	-10.9891
▁calculation	-10.9893
▁Yu	-10.9895
▁laid	-10.9897
▁execution	-10.99
utter	-10.9901
▁hip	-10.9902
cit	-10.9902
▁satisfied	-10.9903
▁stronger	-10.9903
▁corresponds	-10.9904
▁pursuan	-10.9905
cin	-10.9905
2.0	-10.9905
Window	-10.9906
yo	-10.9906
DATA	-10.9906
▁68	-10.9908
2\	-10.9911
▁kinds	-10.9915
▁greatly	-10.9917
▁0.9	-10.9918
▁Amazon	-10.992
▁efficacy	-10.9922
▁paying	-10.9922
▁reactions	-10.9933
▁commission	-10.9935
MB	-10.9935
▁coast	-10.9936
▁professor	-10.994
▁sufficiently	-10.9942
\_[	-10.9943
▁staining	-10.9944
aki	-10.9944
▁1999	-10.9946
▁encourage	-10.9948
▁Br	-10.995
Default	-10.9951
▁Log	-10.9951
float	-10.9955
▁msgstr	-10.9955
isi	-10.9959
▁THIS	-10.9959
▁radius	-10.9963
▁magic	-10.9965
ique	-10.9966
▁SI	-10.9968
(4)	-10.997
rem	-10.9972
▁involvement	-10.9978
▁inhibitor	-10.998
▁header	-10.9983
▁facing	-10.9983
REG	-10.9983
GA	-10.9988
▁interior	-10.9996
▁Was	-10.9996
▁mild	-11.0001
▁variance	-11.0001
od	-11.0001
▁glad	-11.0002
▁Ol	-11.0003
▁grounds	-11.0003
▁atmosphere	-11.0004
zz	-11.001
game	-11.0025
').	-11.0027
/9	-11.003
▁av	-11.003
▁inflammatory	-11.0031
▁Source	-11.0032
MI	-11.0032
-1,	-11.0032
)?	-11.0034
}^2	-11.0035
Factory	-11.0042
izer	-11.0042
▁67	-11.0043
▁universal	-11.0046
▁versions	-11.0047
▁Micro	-11.0047
▁missed	-11.0047
▁coefficient	-11.0048
Input	-11.0048
EP	-11.0055
▁enforcement	-11.0055
▁trace	-11.0056
▁AP	-11.0059
▁technologies	-11.0059
underline	-11.006
std	-11.0062
▁accused	-11.0062
atic	-11.0064
▁pal	-11.0065
▁Ki	-11.0065
▁calculations	-11.0069
▁surfaces	-11.007
▁exhibit	-11.0071
Control	-11.0073
▁pack	-11.0074
close	-11.0076
dl	-11.008
FP	-11.0081
Layout	-11.0084
▁Ya	-11.0087
eff	-11.0087
▁tiny	-11.0093
▁Media	-11.0094
▁13.	-11.0096
▁applies	-11.0096
store	-11.0097
▁til	-11.01
▁ca	-11.0101
bert	-11.0101
white	-11.0101
▁arbitrary	-11.0102
▁Mad	-11.0105
normal	-11.0105
hol	-11.0105
vector	-11.0107
▁diagram	-11.0109
▁Cell	-11.011
▁10^	-11.011
gon	-11.0113
▁corporate	-11.0114
▁mutant	-11.0117
}{2}	-11.0118
lich	-11.012
][	-11.012
▁measuring	-11.0124
rant	-11.0124
▁Run	-11.0125
▁reveal	-11.0125
▁diversity	-11.0126
ua	-11.013
▁clothes	-11.013
_2}	-11.0131
ico	-11.0132
▁opposition	-11.0134
▁cream	-11.0136
▁selling	-11.0136
▁fails	-11.0138
▁basically	-11.0139
▁implied	-11.0139
Tr	-11.0141
scope	-11.0142
▁carrier	-11.0144
00,000	-11.0146
▁lesions	-11.0149
▁URL	-11.015
▁Democrats	-11.015
oy	-11.0152
▁engage	-11.0152
▁administrative	-11.0153
▁creative	-11.0156
such	-11.0159
aging	-11.0162
▁Discussion	-11.0163
▁profiles	-11.0166
5%	-11.0167
Attribute	-11.0167
▁proud	-11.0171
▁satisfy	-11.0176
▁western	-11.0176
▁requiring	-11.0177
Vert	-11.018
▁config	-11.018
▁frequent	-11.0181
▁BC	-11.0182
▁consumer	-11.0182
RF	-11.0182
▁restaurant	-11.0186
)^	-11.0191
Token	-11.0194
▁-7	-11.0195
▁Force	-11.0195
▁complications	-11.0196
how	-11.0197
▁metric	-11.02
▁boot	-11.0202
▁considerable	-11.0202
▁inflammation	-11.0205
▁180	-11.0207
Option	-11.0207
dim	-11.0208
service	-11.0208
▁bacterial	-11.021
▁thirty	-11.0211
▁trained	-11.0212
▁Sen	-11.0214
impl	-11.022
-17	-11.0221
▁smell	-11.0221
▁Care	-11.0226
cp	-11.0229
template	-11.0232
matic	-11.0236
▁wherein	-11.0239
▁elected	-11.024
iva	-11.0243
▁programming	-11.0244
▁Technology	-11.0247
▁Version	-11.0249
▁Port	-11.0252
▁rent	-11.0253
▁[2](#	-11.0255
ifier	-11.0255
▁commit	-11.0258
▁Methods	-11.0259
▁inclusion	-11.0259
OH	-11.026
▁compensation	-11.0261
▁excluded	-11.0267
▁Andrew	-11.0267
▁peripheral	-11.0267
hard	-11.0274
▁disclosed	-11.0274
2009	-11.0275
pet	-11.0275
▁losing	-11.0277
▁Try	-11.0278
▁telephone	-11.0279
▁Ste	-11.028
Link	-11.0281
RD	-11.0282
▁correction	-11.0284
uv	-11.0284
▁Whether	-11.0287
bro	-11.0288
▁studio	-11.0288
8*	-11.0289
PL	-11.0291
▁apoptosis	-11.0291
▁amplitude	-11.0292
▁wheel	-11.0293
▁breaking	-11.0294
▁au	-11.0297
front	-11.03
gal	-11.03
3.1	-11.0302
Connection	-11.0305
▁commitment	-11.0305
inal	-11.0306
▁phrase	-11.0306
▁CP	-11.0306
[3]	-11.0308
-01	-11.0309
options	-11.0309
▁$|	-11.0309
Check	-11.0311
▁adequate	-11.0311
nom	-11.0311
▁85	-11.0312
▁bra	-11.0313
aving	-11.0313
▁talked	-11.0316
cb	-11.0318
▁intake	-11.0318
▁sending	-11.0321
▁Ly	-11.0321
Block	-11.0325
Go	-11.0326
att	-11.0326
Style	-11.0328
▁stores	-11.033
▁complexity	-11.033
▁quantity	-11.0333
▁Major	-11.0333
thm	-11.0335
ming	-11.0337
▁quantitative	-11.0338
defined	-11.0338
▁rational	-11.034
▁Tim	-11.034
▁12,	-11.0344
▁saved	-11.0345
ces	-11.0345
▁das	-11.0346
▁Gold	-11.0348
▁loan	-11.0349
▁"[	-11.035
▁Again	-11.0352
para	-11.0356
▁colors	-11.0357
cycle	-11.0361
▁regulatory	-11.0361
▁Wilson	-11.0368
▁careful	-11.0368
▁precisely	-11.0368
ean	-11.0371
▁involve	-11.0371
Man	-11.0372
sql	-11.0375
▁Ph	-11.0375
▁ko	-11.0378
▁1.2	-11.0379
een	-11.0381
▁Due	-11.0383
▁MO	-11.0383
$$\	-11.0383
menu	-11.0383
mean	-11.0384
Cell	-11.0387
▁somehow	-11.0388
▁taxes	-11.0388
etic	-11.0391
▁comfort	-11.0391
▁millions	-11.0394
▁taught	-11.0397
lier	-11.0398
▁Francisco	-11.0401
▁incubated	-11.0401
▁Matt	-11.0402
1.4	-11.0402
▁Ann	-11.0404
▁chi	-11.0404
▁gauge	-11.0404
▁pitch	-11.041
▁anxiety	-11.041
▁victims	-11.0411
▁2:	-11.0411
▁receptors	-11.0412
▁Bu	-11.0414
▁dataset	-11.0415
▁calm	-11.0415
▁classified	-11.0417
TI	-11.0419
▁numerical	-11.0419
-14	-11.042
▁delete	-11.0421
▁pregnancy	-11.0423
Builder	-11.0423
ider	-11.0423
▁checked	-11.0425
▁differ	-11.0429
▁elevated	-11.043
draw	-11.043
fr	-11.0431
wan	-11.0432
▁covering	-11.044
week	-11.0441
IE	-11.0442
▁symmetry	-11.0442
▁roles	-11.0443
▁attend	-11.0446
}}^{	-11.0447
)^2	-11.0448
chen	-11.0448
▁Republic	-11.0449
▁Valley	-11.0452
▁tele	-11.0455
▁ignore	-11.0456
ban	-11.0456
6}	-11.0457
▁Patent	-11.0458
OK	-11.0458
▁seriously	-11.0466
▁comp	-11.0466
▁assets	-11.0469
}|	-11.0475
▁15,	-11.0478
▁Count	-11.048
google	-11.048
▁seed	-11.0484
TL	-11.0485
▁partners	-11.0487
-10-	-11.0488
▁partially	-11.0488
▁78	-11.0489
▁simultaneously	-11.0489
rat	-11.049
▁powers	-11.0492
▁busy	-11.0492
▁SE	-11.0494
▁extracted	-11.0498
BL	-11.0499
▁insert	-11.05
▁101	-11.05
▁smoking	-11.0502
9]\].	-11.0503
API	-11.0503
Fe	-11.0504
RO	-11.0505
description	-11.0508
▁chip	-11.051
▁entity	-11.051
ox	-11.0511
▁MC	-11.0512
▁DA	-11.0514
▁Fa	-11.0514
▁Error	-11.0515
ough	-11.0515
grad	-11.0517
','	-11.0518
GB	-11.0518
▁moves	-11.0523
dc	-11.0523
Component	-11.0524
▁mountain	-11.0524
▁Comp	-11.0524
Module	-11.0525
TD	-11.0526
▁liberal	-11.0526
ther	-11.0528
▁targeted	-11.0528
▁Em	-11.0532
ches	-11.0533
▁finds	-11.0536
aff	-11.0539
▁comprehensive	-11.0539
▁variations	-11.0545
ome	-11.0546
▁galaxies	-11.0548
▁propose	-11.0549
▁Bon	-11.055
▁97	-11.0551
▁0.04	-11.0551
!!	-11.0554
▁comparable	-11.0556
▁Kim	-11.0557
▁tension	-11.0558
▁connections	-11.056
▁loading	-11.0561
common	-11.0563
▁streets	-11.0564
▁Point	-11.0566
▁Study	-11.0567
▁li	-11.0567
▁readers	-11.0569
dict	-11.057
▁loaded	-11.0571
▁Low	-11.0572
{1}{2}	-11.0576
▁Step	-11.0576
▁mal	-11.0579
▁activated	-11.0579
▁Ber	-11.0581
mos	-11.059
▁-\	-11.0591
ites	-11.0593
▁flavor	-11.0593
offset	-11.0596
DO	-11.0599
ona	-11.0602
5]\].	-11.0603
ello	-11.0604
000000	-11.0604
olo	-11.0605
▁carcinoma	-11.0605
posed	-11.0607
▁reserved	-11.061
▁Java	-11.0614
▁infections	-11.0615
▁bread	-11.0615
copy	-11.0616
▁mounted	-11.0619
eal	-11.0619
iti	-11.0624
column	-11.0626
SR	-11.0627
▁va	-11.063
▁Op	-11.063
▁modification	-11.0632
iation	-11.0633
mathscr	-11.0635
bottom	-11.0635
▁77	-11.0637
▁shoot	-11.0637
▁16,	-11.064
>(	-11.064
▁reads	-11.0644
▁Taylor	-11.0644
▁metabolic	-11.0647
msg	-11.0648
dagger	-11.0649
-21	-11.065
=(	-11.065
▁Max	-11.065
matrix	-11.0651
▁Gr	-11.0655
▁promoter	-11.0657
▁handling	-11.0658
▁Cl	-11.066
ERROR	-11.0663
▁71	-11.0663
5,000	-11.0664
pur	-11.0664
func	-11.0665
▁nerve	-11.0667
▁Jr	-11.0668
▁beauty	-11.0668
▁reg	-11.0669
cil	-11.0669
▁wound	-11.0669
^{2	-11.067
NN	-11.067
dx	-11.0671
▁Having	-11.0676
▁marker	-11.0678
▁appointed	-11.0679
▁vary	-11.0679
tig	-11.0679
leg	-11.0683
▁facilitate	-11.0683
▁Miller	-11.0685
▁combat	-11.0686
▁Davis	-11.0686
6){	-11.0688
TER	-11.0689
▁homes	-11.0689
lee	-11.0691
▁agencies	-11.0693
▁periods	-11.0693
Open	-11.0694
▁mess	-11.0696
▁houses	-11.0697
▁tone	-11.0698
▁naturally	-11.0698
▁pin	-11.0699
▁bin	-11.07
▁comparing	-11.0702
***	-11.0705
▁craft	-11.0709
(1,	-11.0709
dar	-11.071
including	-11.0711
▁250	-11.0712
▁drivers	-11.0712
▁Global	-11.0713
GF	-11.0714
\]),	-11.0714
▁PE	-11.0717
▁theoretical	-11.0719
response	-11.0719
▁dress	-11.072
▁(“	-11.072
▁epi	-11.0723
metric	-11.0725
▁Little	-11.0725
▁falling	-11.0726
▁signature	-11.0729
rog	-11.073
▁Food	-11.073
▁Michigan	-11.0731
▁Fed	-11.0731
▁Ireland	-11.0731
Resource	-11.0732
▁Third	-11.0732
NT	-11.0734
▁legislation	-11.0735
ched	-11.0737
▁crack	-11.0741
▁namely	-11.0742
▁waves	-11.0744
▁destination	-11.0751
GO	-11.0752
▁diverse	-11.0752
▁cheese	-11.0752
▁token	-11.0752
▁rely	-11.0754
▁controlling	-11.0757
▁joy	-11.0757
▁Without	-11.076
▁74	-11.076
3\	-11.0762
▁afford	-11.0763
▁McC	-11.0766
▁correspond	-11.0767
▁omitted	-11.0772
▁trigger	-11.0772
▁vital	-11.0773
▁0.001	-11.0774
cd	-11.0776
▁skill	-11.0776
=0$	-11.078
una	-11.0781
▁retain	-11.0783
[^	-11.0788
unt	-11.0788
▁ongoing	-11.0788
▁posts	-11.0789
▁rising	-11.0793
▁reviews	-11.0793
9-	-11.0796
who	-11.0796
push	-11.0798
▁oxide	-11.0799
Per	-11.0799
world	-11.0799
▁renal	-11.08
sia	-11.0802
▁drinking	-11.0802
Supplementary	-11.0804
▁13,	-11.0804
ically	-11.0805
▁fraud	-11.0806
▁heads	-11.0809
▁Bro	-11.081
▁metabolism	-11.0811
▁Corporation	-11.0813
▁RA	-11.0815
▁pointer	-11.0817
▁Bra	-11.0817
-16	-11.0818
▁sizes	-11.0819
▁WT	-11.0819
▁Patients	-11.0823
▁reaching	-11.0824
▁-10	-11.0827
▁Georgia	-11.0833
▁breach	-11.0835
▁profit	-11.0837
oth	-11.0838
tis	-11.0839
▁decreasing	-11.0841
▁pos	-11.0841
▁vessel	-11.0841
▁troops	-11.0844
▁attribute	-11.0844
▁weapon	-11.085
cache	-11.0853
▁strict	-11.0854
▁pu	-11.0858
▁hardly	-11.0859
foo	-11.0859
RM	-11.0861
▁DM	-11.0864
blue	-11.0864
▁Family	-11.0864
phone	-11.0865
▁nervous	-11.0868
▁mistake	-11.087
▁BOOST	-11.0874
▁ou	-11.0874
▁discover	-11.0874
▁69	-11.0875
▁ease	-11.0875
▁broadcast	-11.0876
oe	-11.0878
ibility	-11.0882
conf	-11.0883
roll	-11.0888
citation	-11.0888
▁discrimination	-11.0888
Char	-11.0891
▁births	-11.0892
▁kidney	-11.0896
screen	-11.0897
▁plates	-11.0902
▁divisor	-11.0902
_4	-11.0903
▁pleasure	-11.0905
▁marks	-11.0907
ign	-11.0907
▁1998	-11.0907
tant	-11.0909
pid	-11.0909
▁plea	-11.0912
bel	-11.0913
▁paint	-11.0914
INT	-11.0914
▁statutory	-11.0918
▁yields	-11.0918
▁Ana	-11.092
making	-11.092
▁"\	-11.0921
▁Museum	-11.0922
▁Tor	-11.0924
bed	-11.0925
▁HTML	-11.0926
▁91	-11.0927
▁hat	-11.093
▁struck	-11.0935
▁adopt	-11.0936
▁15.	-11.0937
ctx	-11.0937
inch	-11.0938
ext	-11.0938
▁females	-11.094
▁infrastructure	-11.0945
ECT	-11.0947
▁sir	-11.0949
▁shouldn	-11.0949
channel	-11.095
▁Father	-11.095
▁Sort	-11.095
▁arranged	-11.095
▁males	-11.0951
▁fifth	-11.0953
NG	-11.0954
edit	-11.0959
▁responded	-11.096
Equal	-11.096
▁76	-11.0961
access	-11.0965
axis	-11.097
▁Bush	-11.0972
▁aged	-11.0972
▁organized	-11.0972
People	-11.0982
▁dominant	-11.0983
▁machines	-11.0984
▁Constitution	-11.0984
=1}^{	-11.0985
▁Meanwhile	-11.0988
▁uintptr	-11.0989
gov	-11.0989
▁73	-11.0991
▁overcome	-11.0994
2008	-11.0996
▁payments	-11.0998
▁captured	-11.0999
▁bomb	-11.1001
Width	-11.1001
▁artists	-11.1003
▁competitive	-11.1003
▁bands	-11.1007
uz	-11.1007
▁absorption	-11.101
Supp	-11.1011
▁append	-11.1012
▁choices	-11.1012
ass	-11.1014
foot	-11.1016
▁domains	-11.1017
iii	-11.102
▁independently	-11.102
▁matching	-11.1021
▁Management	-11.1021
▁nu	-11.1022
▁consisting	-11.1022
▁struggle	-11.1023
▁hang	-11.1027
▁SM	-11.1031
▁Award	-11.1034
pan	-11.1034
▁references	-11.1035
oke	-11.1037
▁rejected	-11.1037
▁talent	-11.1039
▁privacy	-11.1042
UP	-11.1044
▁loose	-11.1044
▁Spain	-11.1048
Tex	-11.1049
▁fed	-11.1049
▁hybrid	-11.105
Position	-11.1053
▁Officer	-11.1056
methyl	-11.1057
▁whenever	-11.1059
▁resonance	-11.106
Ex	-11.106
rid	-11.1061
▁84	-11.1062
▁injured	-11.1064
▁brings	-11.1065
**2.	-11.1066
▁adjusted	-11.1067
Pointer	-11.1067
▁deviation	-11.107
▁icon	-11.1071
comp	-11.1071
▁videos	-11.1074
▁markets	-11.1076
▁chart	-11.1076
GC	-11.1077
).$$	-11.1077
sur	-11.1079
green	-11.1079
▁patch	-11.108
hour	-11.1082
ind	-11.1083
▁Saint	-11.1086
▁filing	-11.1088
▁southern	-11.1088
▁improving	-11.109
▁Pu	-11.1092
▁kick	-11.1092
▁invasion	-11.1092
cul	-11.1094
▁precise	-11.1096
▁Sur	-11.1097
▁installation	-11.1097
▁employer	-11.1097
▁cited	-11.1098
▁treatments	-11.1098
:0	-11.1098
/8	-11.1105
:\	-11.1106
▁temp	-11.1107
Command	-11.1108
▁Consider	-11.1109
▁bath	-11.1112
▁knee	-11.1117
▁defeat	-11.1117
▁rooms	-11.1121
lit	-11.1122
DL	-11.1129
*]{},	-11.113
lab	-11.113
▁lunch	-11.1132
▁tank	-11.1134
▁Asian	-11.1136
▁Pass	-11.1139
▁destroy	-11.1139
sample	-11.114
▁1989	-11.1141
▁8*	-11.1146
mpl	-11.1146
Ca	-11.1147
(5)	-11.1151
▁Den	-11.1153
▁{}	-11.1156
▁![](	-11.1157
HD	-11.1157
▁fabric	-11.1158
ode	-11.116
▁compute	-11.116
ema	-11.1161
250	-11.1162
▁14,	-11.1164
▁rev	-11.1167
▁vertex	-11.1167
▁constraints	-11.1169
▁spiritual	-11.1169
▁returning	-11.1169
\}	-11.117
▁Place	-11.1171
▁sad	-11.1175
▁explicitly	-11.1176
▁algebra	-11.118
▁teachers	-11.1182
▁Nevertheless	-11.1182
▁behalf	-11.1183
▁engineering	-11.1188
▁household	-11.119
▁restricted	-11.1191
▁stations	-11.1191
mediated	-11.1194
wrap	-11.1197
▁Energy	-11.1199
ert	-11.1202
itter	-11.1203
▁PI	-11.1204
kh	-11.1205
▁processor	-11.1207
▁bits	-11.1212
tus	-11.1214
zu	-11.1215
ple	-11.1217
▁GO	-11.1218
▁atoms	-11.1219
▁102	-11.1219
▁pseudo	-11.1222
▁explicit	-11.1223
▁OK	-11.1224
zero	-11.1227
▁Para	-11.1231
▁settled	-11.1232
domain	-11.1233
3.0	-11.1234
stein	-11.1236
▁laugh	-11.1238
▁stuck	-11.1238
▁barrier	-11.1241
▁1983	-11.1241
▁Os	-11.1242
ova	-11.1245
▁Bell	-11.1247
▁cheap	-11.1251
▁1997	-11.1252
▁1.1	-11.1253
▁elsewhere	-11.1253
▁occurrence	-11.1253
▁Northern	-11.1256
mont	-11.1257
onic	-11.1258
▁ion	-11.1258
public	-11.1259
▁pepper	-11.1259
-03	-11.126
▁resist	-11.126
110	-11.126
hood	-11.1263
▁1.4	-11.1264
▁acquisition	-11.1264
ison	-11.1264
▁scientists	-11.1269
▁norm	-11.127
parse	-11.127
Update	-11.1272
will	-11.1272
▁northern	-11.1273
8]\].	-11.1275
▁lawyer	-11.1276
▁voters	-11.1279
▁**(	-11.1282
▁illness	-11.1282
▁feelings	-11.1282
▁nodded	-11.1284
DIR	-11.1287
away	-11.1287
ington	-11.1287
▁Santa	-11.1289
CK	-11.1289
▁subset	-11.1293
▁lying	-11.1295
viv	-11.1296
▁violent	-11.1296
”,	-11.1297
▁Steve	-11.1299
▁Son	-11.13
Th	-11.13
▁burst	-11.1302
verse	-11.1303
▁kan	-11.1304
▁fer	-11.1305
▁pad	-11.1308
ident	-11.131
after	-11.1312
▁incorporated	-11.1313
▁104	-11.1314
▁polymer	-11.1321
▁prominent	-11.1321
▁shares	-11.1323
▁communications	-11.1325
▁challenging	-11.1326
gui	-11.1331
yan	-11.1332
▁peri	-11.1335
pen	-11.1339
▁allegations	-11.134
ops	-11.1342
▁kid	-11.1344
2]	-11.1345
Function	-11.1346
mil	-11.1347
▁Iraq	-11.1348
final	-11.1352
Op	-11.1354
▁fewer	-11.1356
Debug	-11.1358
hy	-11.1359
▁Die	-11.1361
▁Additional	-11.1365
▁anymore	-11.1365
)|	-11.137
002){	-11.1376
▁imposed	-11.1377
▁obj	-11.1377
▁wealth	-11.1377
▁vascular	-11.1383
▁directions	-11.1384
▁edit	-11.1386
▁Library	-11.1387
▁nose	-11.1389
▁manufacturer	-11.139
▁smiled	-11.1391
▁Pennsylvania	-11.1392
rule	-11.1395
det	-11.1396
▁lady	-11.1397
▁debut	-11.1402
▁Ac	-11.1404
rv	-11.1404
▁plurality	-11.1404
$)	-11.1406
▁Live	-11.141
before	-11.1411
▁Sometimes	-11.1412
▁contest	-11.1413
wide	-11.1413
▁bearing	-11.1414
RY	-11.1415
▁proven	-11.1416
▁landscape	-11.1418
▁caption	-11.1419
ess	-11.1424
MENT	-11.1425
▁4-	-11.1426
▁1.3	-11.1429
acy	-11.1429
▁heavily	-11.1431
▁creates	-11.1432
▁dismissed	-11.1432
nel	-11.1433
kel	-11.1435
▁bottle	-11.1435
DH	-11.1437
6*	-11.1439
▁keys	-11.1439
ather	-11.144
▁destroyed	-11.144
▁Soviet	-11.1441
▁Stephen	-11.1443
Http	-11.1449
▁okay	-11.1449
▁Grant	-11.1451
▁Look	-11.1452
fit	-11.1453
▁Related	-11.1455
▁buying	-11.1455
▁Kingdom	-11.1457
its	-11.146
▁steam	-11.1465
▁sta	-11.1466
▁roughly	-11.1467
▁refers	-11.1469
▁wake	-11.1469
▁arrangement	-11.1472
▁MT	-11.1472
rad	-11.1475
▁Studies	-11.1476
▁Action	-11.1479
connect	-11.1479
▁survive	-11.1484
▁alignment	-11.1484
gu	-11.1484
180	-11.1487
▁poll	-11.1488
▁magazine	-11.1488
▁educational	-11.149
ige	-11.1491
▁een	-11.1491
7]\].	-11.1491
▁bytes	-11.1492
▁Series	-11.1492
▁loud	-11.1494
oh	-11.1496
▁updates	-11.1496
▁pocket	-11.1496
▁1988	-11.1497
itz	-11.1498
▁Gene	-11.1498
{{{\	-11.15
eno	-11.1501
▁appreciate	-11.1505
▁"""	-11.1505
CG	-11.1505
_1(	-11.1509
3]	-11.151
▁operated	-11.151
125	-11.1511
ition	-11.1512
▁risks	-11.1512
▁peptide	-11.1514
▁Harry	-11.1514
BR	-11.1518
▁failing	-11.1519
▁diagnosed	-11.1519
strong	-11.152
▁Space	-11.1521
▁lips	-11.1521
▁banks	-11.1522
▁converted	-11.1524
osa	-11.1524
{2	-11.1524
LS	-11.1527
Script	-11.1528
III	-11.1529
▁105	-11.153
▁desirable	-11.1533
▁Des	-11.1534
!”	-11.1537
▁aimed	-11.1537
▁gray	-11.1539
▁Cr	-11.154
1.3	-11.154
▁fe	-11.154
aud	-11.1541
)$$	-11.1544
▁liked	-11.1546
▁sk	-11.1547
▁98	-11.1549
▁Rep	-11.155
▁yesterday	-11.1551
▁temporal	-11.1552
▁94	-11.1553
▁Head	-11.1553
mask	-11.1554
▁generating	-11.1555
amente	-11.1556
▁<=	-11.1558
▁Academy	-11.1558
din	-11.1559
eri	-11.156
▁fluorescence	-11.1561
▁spec	-11.1561
▁88	-11.1562
ord	-11.1562
▁serves	-11.1563
▁timing	-11.1564
remove	-11.1565
▁neural	-11.1566
▁Uni	-11.1566
123	-11.1567
▁Alex	-11.1567
uni	-11.1568
▁scattering	-11.1569
▁rail	-11.1571
▁sn	-11.1573
▁closing	-11.1578
▁analyze	-11.1579
▁generic	-11.158
▁bike	-11.158
▁gay	-11.1583
▁Rob	-11.1583
otic	-11.1585
▁3](#	-11.1586
aj	-11.1587
ander	-11.1588
▁81	-11.1589
▁finance	-11.1592
▁cord	-11.1592
▁instances	-11.1593
▁personnel	-11.1594
uro	-11.1594
▁Fund	-11.1599
}\\	-11.1601
▁sport	-11.1602
▁frequencies	-11.1606
▁distributions	-11.1607
▁Prime	-11.1609
▁Char	-11.161
▁provider	-11.161
mem	-11.1615
▁covers	-11.1615
▁mere	-11.1616
-18	-11.1626
take	-11.1629
▁reflected	-11.1633
rib	-11.1633
▁interference	-11.1634
LD	-11.1635
▁Republicans	-11.1637
edge	-11.1638
130	-11.1638
▁council	-11.1638
▁Defendants	-11.1639
▁Pacific	-11.1642
ht	-11.1643
als	-11.1644
▁admit	-11.1645
CN	-11.1646
ijerph	-11.1647
▁enjoyed	-11.1648
▁temporary	-11.1649
plane	-11.165
night	-11.1652
LR	-11.1652
▁uncertainty	-11.1655
▁intense	-11.1655
▁Cap	-11.1656
▁enabled	-11.1657
▁grass	-11.1657
doi	-11.1661
chan	-11.1662
_0}	-11.1669
▁lift	-11.167
yes	-11.167
▁comprising	-11.167
eva	-11.1674
▁mais	-11.1675
reference	-11.1679
phase	-11.168
UR	-11.1683
▁EC	-11.1683
handle	-11.1683
structure	-11.1684
▁Illinois	-11.1684
▁Plaintiffs	-11.1686
dra	-11.1687
lysis	-11.1688
los	-11.1688
▁Centre	-11.169
▁permitted	-11.1691
imp	-11.1695
▁dear	-11.1697
NE	-11.1698
temp	-11.1699
til	-11.17
rand	-11.17
▁listening	-11.1701
wave	-11.1708
Parent	-11.1712
▁executed	-11.1714
eau	-11.1715
▁rural	-11.1716
▁Eric	-11.1724
using	-11.1724
)}$	-11.1724
rac	-11.1726
▁arg	-11.1727
▁rep	-11.1727
▁deck	-11.173
▁tra	-11.1731
▁unlikely	-11.1732
)+	-11.1733
OC	-11.1734
▁Article	-11.1734
▁Express	-11.1734
▁herein	-11.1735
_>	-11.1737
▁mar	-11.1739
▁minimize	-11.174
▁vectors	-11.1743
BE	-11.1745
▁moon	-11.175
▁Had	-11.1752
▁pod	-11.1753
pha	-11.1755
Car	-11.176
▁submit	-11.1761
▁vice	-11.1765
GET	-11.1766
▁Israeli	-11.1767
▁phenomenon	-11.1768
▁Gal	-11.177
hw	-11.177
▁ocean	-11.1773
▁accumulation	-11.1775
-30	-11.1781
▁fired	-11.1783
^{-\	-11.1784
▁mat	-11.1785
▁cultures	-11.1786
materials	-11.1788
▁certificate	-11.1788
MAX	-11.179
▁dec	-11.179
hash	-11.1793
>&	-11.1793
itude	-11.1795
▁horizontal	-11.1795
stru	-11.1797
▁1996	-11.1798
▁rice	-11.1799
▁Proposition	-11.1802
▁participation	-11.1803
shift	-11.1805
▁Irish	-11.1806
▁parking	-11.181
sal	-11.181
▁Au	-11.1813
▁reasonably	-11.1813
inger	-11.1814
▁viewed	-11.1815
eration	-11.1817
▁Hy	-11.1821
▁wireless	-11.1822
▁inequality	-11.1822
▁apps	-11.1822
▁(%)	-11.1827
nce	-11.1827
▁advantages	-11.1831
▁unusual	-11.1831
LL	-11.1834
▁holes	-11.1834
▁Il	-11.1835
]);	-11.184
}-\	-11.1841
rent	-11.1841
▁Radio	-11.1842
▁Phil	-11.1844
sent	-11.1845
▁leaf	-11.1846
sure	-11.1846
▁impression	-11.1846
bal	-11.1848
▁hi	-11.1849
Tag	-11.1852
▁wedding	-11.1856
uid	-11.1856
▁Rose	-11.1858
▁crazy	-11.1862
▁($\	-11.1862
▁silent	-11.1862
rain	-11.1863
ave	-11.1865
▁NY	-11.1866
▁tower	-11.1867
▁scored	-11.1869
▁consumers	-11.1871
▁Community	-11.1874
▁founded	-11.1878
▁faced	-11.1882
usr	-11.1883
▁arise	-11.1885
▁respiratory	-11.1885
{1}{\	-11.1885
window	-11.1887
▁reply	-11.189
Server	-11.1892
El	-11.1893
▁thy	-11.1894
▁Has	-11.1896
▁+/-	-11.1896
▁fusion	-11.1899
▁revenue	-11.1899
▁continuing	-11.1899
▁HR	-11.1901
▁CEO	-11.1903
internal	-11.1904
linux	-11.1905
rous	-11.1906
Mar	-11.1908
▁visited	-11.1908
cus	-11.1909
▁printed	-11.1915
▁attended	-11.1917
▁Luc	-11.1918
▁Watch	-11.192
xx	-11.1922
javascript	-11.1923
▁honest	-11.1923
▁tro	-11.1926
▁tracks	-11.1926
▁strip	-11.1927
2\]	-11.1928
▁Professor	-11.193
▁tables	-11.1931
ancy	-11.1932
▁GNU	-11.1932
▁algorithms	-11.1932
▁friendly	-11.1932
Max	-11.1932
▁17,	-11.1933
▁preserve	-11.1933
▁verify	-11.1933
00000	-11.1935
▁employ	-11.1935
▁83	-11.1935
▁manual	-11.1936
Entry	-11.1937
what	-11.1938
▁&=&	-11.1941
▁rarely	-11.1942
yr	-11.1942
▁dismiss	-11.1943
disp	-11.1947
Pre	-11.1948
olar	-11.1948
lis	-11.1949
|^2	-11.1949
▁-12	-11.1951
▁92	-11.1951
▁awarded	-11.1953
ges	-11.1953
genic	-11.1954
than	-11.1954
illo	-11.1955
<\	-11.1956
Range	-11.1958
▁#:	-11.1959
▁beta	-11.1963
iel	-11.1964
▁maintaining	-11.1965
▁crash	-11.1967
▁belt	-11.1969
▁alarm	-11.197
▁meal	-11.1971
^4	-11.1973
ily	-11.1975
▁shook	-11.1976
▁coordinates	-11.1978
▁-8	-11.1978
▁dat	-11.198
▁Early	-11.1981
▁affirm	-11.1981
nis	-11.1981
▁angular	-11.1982
▁Jews	-11.1983
▁Prior	-11.1983
mis	-11.1987
1.6	-11.1991
▁16.	-11.1992
▁ubuntu	-11.1992
▁dispute	-11.1992
emia	-11.1993
▁proceed	-11.1994
▁clause	-11.1994
▁sal	-11.1994
▁childhood	-11.1998
▁constantly	-11.1998
CV	-11.1999
▁fragment	-11.2001
▁completion	-11.2001
▁god	-11.2002
020	-11.2004
▁newspaper	-11.2004
▁occasion	-11.2005
▁separately	-11.2006
GP	-11.2006
Na	-11.2007
xa	-11.2007
▁healthcare	-11.2007
▁spell	-11.2009
▁partnership	-11.2009
▁79	-11.201
▁movies	-11.2011
ending	-11.2015
amo	-11.2017
▁degradation	-11.2018
▁losses	-11.2018
▁lateral	-11.2019
ore	-11.2021
▁concrete	-11.2025
▁106	-11.2025
UM	-11.2026
Min	-11.2027
hl	-11.2027
Ad	-11.2028
PER	-11.203
▁1960	-11.2032
▁everywhere	-11.2036
▁exclusive	-11.2036
}}}}	-11.2037
▁doctrine	-11.2037
▁colleagues	-11.2038
AV	-11.2039
]{.	-11.2041
▁bounded	-11.2043
▁Eastern	-11.2044
token	-11.2045
▁verdict	-11.2045
▁Ray	-11.2045
▁worldwide	-11.2047
:10	-11.2048
▁fo	-11.2048
quot	-11.2055
ela	-11.2057
▁teach	-11.2057
▁butter	-11.2057
▁masses	-11.2061
▁priority	-11.2066
▁robust	-11.2067
▁absent	-11.2067
▁aggressive	-11.2068
duct	-11.2069
loop	-11.2069
Template	-11.207
▁resolved	-11.2071
jpg	-11.2073
▁precision	-11.2074
▁beer	-11.2074
tica	-11.2076
▁Town	-11.2076
ealand	-11.2078
cro	-11.2078
▁82	-11.2078
}_\	-11.208
Entity	-11.2082
▁rough	-11.2086
task	-11.2087
▁scheduled	-11.2088
Height	-11.2088
ulator	-11.2091
▁ir	-11.2091
▁accompanied	-11.2093
▁Oct	-11.2093
round	-11.2094
▁assistant	-11.2094
black	-11.2096
▁gut	-11.2098
cum	-11.2098
FD	-11.2099
▁appointment	-11.2099
105	-11.2101
▁Mean	-11.2101
rank	-11.2104
OM	-11.2104
▁movements	-11.2104
teen	-11.2107
pat	-11.2107
▁utility	-11.2107
fo	-11.2108
▁variants	-11.2108
▁reduces	-11.2109
▁pace	-11.211
▁luck	-11.2112
▁writers	-11.2113
▁1987	-11.2113
Interface	-11.2114
SET	-11.2114
▁removing	-11.2116
▁Later	-11.2116
Project	-11.2117
▁entering	-11.2119
▁Ram	-11.2119
▁Captain	-11.2119
mg	-11.2121
▁***	-11.2124
▁layout	-11.2125
▁za	-11.2126
▁sudden	-11.2126
▁consecutive	-11.2128
▁intervals	-11.2129
First	-11.213
▁birds	-11.2132
▁hoping	-11.2133
dp	-11.2137
fish	-11.2139
▁dar	-11.2141
lac	-11.2142
2]\].	-11.2145
+01	-11.2146
▁expanded	-11.2146
▁ml	-11.2151
▁availability	-11.2152
lle	-11.2153
▁89	-11.2157
▁severity	-11.2158
▁extraction	-11.2159
195	-11.2159
▁judicial	-11.216
▁prosecutor	-11.2165
▁slope	-11.2165
stage	-11.2166
env	-11.217
▁prejudice	-11.217
ados	-11.217
▁steady	-11.217
{}	-11.2171
▁Nov	-11.2171
ect	-11.2173
rated	-11.2175
display	-11.2176
▁mom	-11.2177
full	-11.218
care	-11.2183
▁musical	-11.2184
▁Len	-11.2185
▁Link	-11.2186
▁deeply	-11.2188
ional	-11.2191
lines	-11.2191
▁competing	-11.2192
▁93	-11.2192
docs	-11.2193
ering	-11.2198
▁bunch	-11.22
FL	-11.2202
IG	-11.2202
▁Keep	-11.2202
omic	-11.2203
▁Register	-11.2205
▁Mother	-11.2207
cio	-11.2208
▁proceeding	-11.2209
▁varying	-11.221
oxy	-11.221
▁Jean	-11.2212
lies	-11.2213
pad	-11.2217
0%)	-11.2218
ectomy	-11.222
▁Night	-11.2221
▁inhibitors	-11.2221
▁portions	-11.2222
1]\].	-11.2225
HC	-11.2227
10]	-11.2228
lot	-11.223
▁1995	-11.2231
▁inspired	-11.2233
▁immunity	-11.2235
▁SS	-11.2236
ago	-11.2236
nutrients	-11.2237
gli	-11.2237
▁Ryan	-11.2238
▁roots	-11.2238
▁sodium	-11.2241
En	-11.2241
-05	-11.2241
▁jail	-11.2243
pack	-11.2243
008	-11.2245
total	-11.2245
▁Rome	-11.2247
▁systematic	-11.225
▁calcium	-11.225
MAN	-11.2253
▁Muslim	-11.2255
▁cycles	-11.2256
▁similarly	-11.2258
▁Form	-11.2259
VE	-11.2259
four	-11.226
▁Adam	-11.2261
▁limitation	-11.2261
present	-11.2263
ston	-11.2263
empty	-11.2264
}/	-11.2266
nal	-11.2267
▁dense	-11.2268
▁awareness	-11.2268
▁128	-11.2269
▁suspension	-11.227
lect	-11.227
▁insight	-11.2272
▁explains	-11.2274
▁alien	-11.2275
▁improvements	-11.2275
▁beach	-11.2276
itt	-11.2276
▁ER	-11.2281
▁Children	-11.2282
bat	-11.2283
)}{	-11.2284
NR	-11.2285
▁doctors	-11.2286
command	-11.2287
={	-11.2293
▁regularly	-11.2293
negative	-11.2294
▁screw	-11.2296
▁qualified	-11.2297
▁grave	-11.2298
▁produces	-11.2298
▁yards	-11.2301
▁opinions	-11.2303
▁chat	-11.2305
▁Simon	-11.2308
▁override	-11.2311
▁altered	-11.2312
▁terrible	-11.2314
▁psychological	-11.2316
Dir	-11.2316
▁het	-11.2316
}.$$	-11.2317
7){	-11.2319
▁arc	-11.232
▁Med	-11.2321
▁personally	-11.2327
▁lake	-11.2331
ister	-11.2332
arian	-11.2335
▁entries	-11.2338
▁trading	-11.2339
▁87	-11.2339
▁Its	-11.2344
rian	-11.2345
▁pixel	-11.2345
ude	-11.2346
▁lists	-11.2346
▁processed	-11.2351
Target	-11.2356
▁flexible	-11.2356
Net	-11.2357
▁administered	-11.2358
▁NF	-11.2361
lent	-11.2361
factor	-11.2361
gh	-11.2362
ili	-11.2367
▁1986	-11.2367
▁theories	-11.2368
▁printing	-11.2369
▁beneath	-11.2371
tbl	-11.2372
▁tar	-11.2374
▁onset	-11.2375
333	-11.2377
▁coal	-11.2378
2007	-11.2378
▁Cook	-11.2379
rep	-11.238
▁likelihood	-11.238
▁tradition	-11.2381
▁han	-11.2382
}^{(	-11.2385
Task	-11.2387
▁Start	-11.2387
▁desk	-11.2387
▁stayed	-11.2387
▁execute	-11.2389
101	-11.239
▁Rad	-11.239
Ma	-11.239
ifying	-11.2392
▁antigen	-11.2395
▁Mer	-11.2395
▁artificial	-11.24
▁eggs	-11.2401
▁opt	-11.2401
iro	-11.2404
▁Reg	-11.2405
phenyl	-11.241
acc	-11.2411
▁shorter	-11.2412
mac	-11.2412
▁passion	-11.2415
▁Cur	-11.2415
▁$\{	-11.2418
wiki	-11.2419
▁washed	-11.242
\|_{	-11.2421
▁Prince	-11.2422
▁Mountain	-11.2424
▁Mill	-11.2424
▁Conference	-11.2425
LU	-11.2429
---------------	-11.243
product	-11.2431
nch	-11.2432
▁Nu	-11.2434
nut	-11.2434
160	-11.2442
▁gained	-11.2442
2006	-11.2444
cip	-11.2445
▁advertising	-11.2445
▁theme	-11.2448
(*	-11.245
="#	-11.2451
▁Map	-11.2451
ila	-11.2452
▁108	-11.2454
3.5	-11.2454
TIME	-11.2455
ELL	-11.2455
▁cor	-11.2456
▁beside	-11.2459
just	-11.2462
▁guest	-11.2466
Instance	-11.2467
▁supplied	-11.247
▁ending	-11.2471
Access	-11.2471
▁comprises	-11.2471
▁adapt	-11.2471
▁Ren	-11.2473
▁perceived	-11.2473
▁providers	-11.2474
▁searching	-11.2475
▁invariant	-11.2475
subseteq	-11.2477
▁86	-11.2478
1.8	-11.2478
▁peer	-11.248
five	-11.2481
▁boolean	-11.2481
iff	-11.2483
ime	-11.2483
▁conclusions	-11.249
▁drove	-11.249
▁Expand	-11.2494
/15	-11.2494
Location	-11.2494
prec	-11.2495
▁scar	-11.2495
attribute	-11.2496
Offset	-11.2498
▁egg	-11.2499
▁protective	-11.2499
▁penalty	-11.25
Application	-11.2502
▁reputation	-11.2503
▁arrival	-11.2503
dec	-11.2504
&\	-11.2504
▁lifetime	-11.2507
▁locally	-11.2507
▁Edit	-11.2508
▁20,	-11.2509
▁excessive	-11.2511
▁103	-11.2512
▁Lett	-11.2513
▁residence	-11.2521
▁falls	-11.2522
}}}\	-11.2523
Up	-11.2525
▁acceptable	-11.2525
▁angry	-11.2526
ios	-11.2526
▁eliminate	-11.2527
▁witnesses	-11.2527
▁contends	-11.2528
▁evident	-11.2529
▁stepped	-11.253
▁Ltd	-11.253
ographic	-11.2532
ente	-11.2532
▁automatic	-11.2534
bri	-11.2536
▁Multi	-11.2537
lus	-11.2538
uous	-11.2542
iya	-11.2545
▁(5)	-11.2546
Col	-11.2551
▁intention	-11.2551
▁YOU	-11.2553
▁ultra	-11.2556
▁colon	-11.2558
▁inverse	-11.2559
▁doors	-11.2562
▁guarantee	-11.2563
Unit	-11.2565
▁Value	-11.2566
▁Pen	-11.2568
bury	-11.2568
help	-11.257
▁Text	-11.2571
▁resin	-11.2572
▁dia	-11.2572
▁pit	-11.2572
lov	-11.2573
ull	-11.2574
FILE	-11.2575
burg	-11.2575
▁demands	-11.2575
[1	-11.2576
▁sole	-11.2577
▁125	-11.2578
3/	-11.2579
▁Policy	-11.258
▁Cho	-11.2581
▁cooking	-11.2582
Val	-11.2582
▁Kar	-11.2584
▁prevention	-11.2585
▁Korean	-11.2586
pel	-11.2587
▁attitude	-11.2587
PCR	-11.2588
▁br	-11.2589
values	-11.259
aught	-11.2592
▁dem	-11.2592
▁residual	-11.2593
▁disability	-11.2595
WS	-11.2595
▁Overall	-11.2599
▁joke	-11.2599
ides	-11.26
binding	-11.2602
▁serial	-11.2602
▁Edward	-11.2605
ori	-11.2606
▁Nick	-11.2609
▁byte	-11.2611
▁affects	-11.2612
▁\|	-11.2612
▁coating	-11.2612
▁scales	-11.2612
2^	-11.2613
sort	-11.2615
▁CL	-11.2616
▁Trust	-11.2616
▁bind	-11.2617
sey	-11.262
▁actor	-11.2624
▁reward	-11.2625
▁|-	-11.2625
▁Come	-11.2626
▁AF	-11.2627
stra	-11.2628
▁ships	-11.2629
Num	-11.2632
▁Natural	-11.2633
▁interventions	-11.2635
4.0	-11.2636
alt	-11.2637
▁1985	-11.2637
GR	-11.2637
}({\	-11.2638
▁vitamin	-11.2644
lg	-11.2645
▁Dor	-11.2647
idad	-11.2648
▁Sta	-11.2648
ters	-11.265
▁Hard	-11.2651
▁anchor	-11.2652
Now	-11.2657
inner	-11.2658
▁UV	-11.266
▁-1,	-11.2661
▁geometry	-11.2662
▁subjected	-11.2664
▁4)	-11.2666
abs	-11.2668
▁texture	-11.2668
▁expenses	-11.2674
Call	-11.2675
▁1984	-11.2676
when	-11.2678
fc	-11.2679
multi	-11.2679
track	-11.2679
_2)	-11.2682
▁projection	-11.2684
▁vaccine	-11.2685
FO	-11.2687
▁intellectual	-11.2688
Reference	-11.2688
comment	-11.2689
▁passes	-11.2693
ult	-11.2695
▁airport	-11.2697
▁Carl	-11.2697
▁exhibited	-11.2697
▁associate	-11.2699
▁30,	-11.27
MIN	-11.27
▁vacuum	-11.27
▁3:	-11.2701
cle	-11.2701
aga	-11.2702
▁physics	-11.2704
▁satisfies	-11.2705
▁Beach	-11.2706
0;	-11.2706
Theta	-11.2707
oni	-11.2707
▁deposition	-11.2708
▁tech	-11.2708
▁regarded	-11.2709
▁developers	-11.271
Reader	-11.271
▁19,	-11.2711
pair	-11.2712
▁TB	-11.2713
▁AR	-11.2714
▁''	-11.2715
▁fil	-11.2715
▁tract	-11.2716
/>	-11.2717
-06	-11.2717
▁cre	-11.2718
}^\	-11.2719
container	-11.272
▁cooling	-11.272
Ha	-11.2724
▁0.00	-11.2727
▁switching	-11.2727
▁adds	-11.273
stop	-11.2731
VC	-11.2731
▁hint	-11.2734
▁Mag	-11.2734
PAR	-11.2738
sol	-11.2739
▁hook	-11.2739
nen	-11.274
▁Stone	-11.274
dist	-11.2741
▁2.1	-11.2741
▁lip	-11.2742
equal	-11.2744
▁exciting	-11.2744
▁harder	-11.2745
▁Access	-11.2745
▁Update	-11.2746
▁sustained	-11.2747
isa	-11.2748
ines	-11.2748
▁promising	-11.2749
▁flying	-11.275
▁infinite	-11.2754
▁CF	-11.2755
dic	-11.2756
▁Elizabeth	-11.2757
RB	-11.2758
▁Farm	-11.2759
square	-11.276
▁denial	-11.276
did	-11.2762
LT	-11.2764
Provider	-11.2765
figure	-11.2768
▁ro	-11.2768
▁stupid	-11.2769
▁Ken	-11.2773
▁-0.1	-11.2774
▁influenced	-11.2775
▁Steven	-11.278
▁130	-11.278
mission	-11.2781
▁flags	-11.2783
▁react	-11.2784
▁seal	-11.2784
▁tomorrow	-11.2786
ving	-11.2787
▁restriction	-11.279
▁shadow	-11.2793
▁{{	-11.2794
▁cha	-11.2794
▁bull	-11.2795
▁Title	-11.2797
▁attractive	-11.2797
force	-11.2798
▁disclosure	-11.2798
▁attachment	-11.2799
▁disagree	-11.2799
lut	-11.2801
(-1)	-11.2802
▁constitute	-11.2806
5.0	-11.2806
▁Arm	-11.2808
pu	-11.2809
▁Statistical	-11.2811
255	-11.282
▁mL	-11.282
▁satellite	-11.2821
▁Jacob	-11.2823
ait	-11.2824
▁insufficient	-11.2824
LM	-11.2825
▁2.2	-11.283
0.01	-11.2831
▁adventure	-11.2832
1.7	-11.2832
▁denominator	-11.2834
▁NC	-11.2834
▁coat	-11.2834
(1-	-11.2834
ators	-11.2837
▁coding	-11.2838
2.2	-11.2839
ivo	-11.284
▁blend	-11.284
>::	-11.2842
▁companion	-11.2842
Change	-11.2844
196	-11.2847
hep	-11.2847
▁validation	-11.2849
escent	-11.2849
colon	-11.2849
▁Fair	-11.2849
▁CPU	-11.285
ales	-11.285
▁inline	-11.285
▁heating	-11.285
▁Share	-11.2852
▁sauce	-11.2856
▁forum	-11.2857
Container	-11.286
▁fold	-11.2861
▁physician	-11.2861
▁GC	-11.2861
LOG	-11.2863
▁Should	-11.2863
anger	-11.2864
▁gaze	-11.2865
▁Alexander	-11.2865
▁randomly	-11.2867
▁$[	-11.2868
mc	-11.287
▁clip	-11.2871
▁addresses	-11.2871
▁Cambridge	-11.2872
▁ranging	-11.2874
textrm	-11.2877
▁computing	-11.2878
▁Nothing	-11.2885
-002	-11.2888
auth	-11.2889
oper	-11.2889
STR	-11.289
▁overlap	-11.289
2001	-11.289
▁presidential	-11.2892
▁recovered	-11.2893
pool	-11.2893
Let	-11.2894
▁governor	-11.2894
▁medication	-11.2897
Click	-11.2897
▁Rights	-11.2897
BO	-11.2897
▁presents	-11.2897
▁defend	-11.2899
▁jet	-11.29
pod	-11.2902
▁Fu	-11.2902
▁diffusion	-11.2903
▁residues	-11.2904
)^{	-11.2906
VM	-11.2908
dent	-11.2911
▁drew	-11.2913
wick	-11.2913
uan	-11.2913
▁engagement	-11.2913
▁twin	-11.2917
▁enum	-11.2917
▁ein	-11.2917
▁Lady	-11.2919
rod	-11.2921
▁wondering	-11.2922
▁lights	-11.2924
lm	-11.2925
uda	-11.2925
lat	-11.2929
aver	-11.2929
Right	-11.293
▁sessions	-11.293
▁revolution	-11.2932
▁throws	-11.2932
▁trap	-11.2933
sive	-11.2934
got	-11.2936
▁Through	-11.2939
▁relating	-11.294
▁bedroom	-11.2942
ule	-11.2942
▁Within	-11.2943
sym	-11.2944
▁professionals	-11.2946
140	-11.2946
1>	-11.2948
tur	-11.2952
▁languages	-11.2952
▁Consequently	-11.2957
▁concert	-11.2957
▁campus	-11.2958
▁posterior	-11.2958
▁Search	-11.2958
sten	-11.296
▁scalar	-11.2962
▁5%	-11.2962
uma	-11.2963
▁mixing	-11.2963
far	-11.2967
▁enhancement	-11.2968
▁recommendations	-11.2969
▁assign	-11.2969
8_	-11.297
▁hash	-11.297
▁solvent	-11.2971
rey	-11.2976
▁Server	-11.2977
▁paragraph	-11.2979
▁Document	-11.298
▁tired	-11.2981
steroid	-11.2981
▁23,	-11.2981
desc	-11.2981
Ho	-11.2983
▁shake	-11.2984
cover	-11.2986
▁artery	-11.299
_2\	-11.2991
▁questionnaire	-11.2991
▁Ham	-11.2992
jar	-11.2993
0001	-11.2996
▁slight	-11.2996
▁accessible	-11.2997
shape	-11.2998
▁Film	-11.3
▁Syria	-11.3003
▁1.6	-11.3005
▁prospective	-11.3008
Left	-11.3009
POST	-11.301
▁feeding	-11.301
Address	-11.3011
▁laughed	-11.3012
▁entrance	-11.3012
▁forever	-11.3013
rai	-11.3014
▁attributes	-11.3018
▁filling	-11.3018
▁paths	-11.3018
ILL	-11.3019
▁Mat	-11.3023
▁Specifically	-11.3023
▁ingredients	-11.3023
▁ES	-11.3025
▁Wil	-11.3026
▁tap	-11.3026
hill	-11.3027
release	-11.3027
▁Anderson	-11.3029
▁earned	-11.3029
ND	-11.303
1---	-11.303
4.5	-11.3032
▁PL	-11.3034
▁computation	-11.3034
▁EP	-11.3037
▁strings	-11.3038
▁arrive	-11.3039
▁solely	-11.304
▁elections	-11.3042
▁packages	-11.3043
▁armed	-11.3044
rot	-11.3046
▁utilized	-11.3049
Li	-11.305
Ptr	-11.3052
▁Latin	-11.3052
▁dysfunction	-11.3053
Listener	-11.3054
Build	-11.3055
▁barely	-11.3055
▁assays	-11.3056
▁unlike	-11.3056
▁invited	-11.3057
article	-11.3059
▁sequencing	-11.3059
▁EDIT	-11.306
▁Five	-11.3065
▁normalized	-11.3068
mass	-11.3068
2.4	-11.3069
▁FBI	-11.3069
▁tracking	-11.3071
▁padding	-11.3071
▁shirt	-11.3072
▁bankruptcy	-11.3073
▁Down	-11.3073
ometric	-11.3077
▁Besides	-11.3078
▁horses	-11.308
▁defect	-11.308
▁Lie	-11.3083
▁quasi	-11.3084
▁Games	-11.3085
▁worried	-11.3086
▁Kit	-11.3088
▁discussions	-11.3091
ses	-11.3092
TG	-11.3094
▁Mil	-11.3097
▁22,	-11.3098
Handle	-11.31
▁cleaning	-11.3101
▁Python	-11.3103
▁defects	-11.3106
▁targeting	-11.3109
ved	-11.3111
vir	-11.3115
hspace	-11.3116
wall	-11.3118
▁tied	-11.3118
▁upgrade	-11.3118
▁difficulties	-11.3123
▁appeals	-11.3125
Br	-11.3127
▁distinguish	-11.3127
▁xe	-11.3128
▁tips	-11.313
▁preliminary	-11.3131
▁tensor	-11.3133
▁Video	-11.3136
support	-11.3137
▁embedded	-11.314
▁convention	-11.3141
els	-11.3142
▁-9	-11.3146
▁featured	-11.3147
▁189	-11.3147
Dis	-11.3147
▁modules	-11.3149
-04	-11.3151
▁mad	-11.3152
FI	-11.3152
^-	-11.3153
▁destruction	-11.3161
▁manifest	-11.3161
▁ty	-11.3161
▁tongue	-11.3162
oom	-11.3165
Pos	-11.3165
▁hydro	-11.3166
ounce	-11.3166
aux	-11.3173
▁Would	-11.3174
▁philosophy	-11.3174
▁narrative	-11.3174
▁varied	-11.3174
▁pol	-11.3177
▁molecule	-11.3178
had	-11.318
▁pale	-11.3181
-23	-11.3182
▁guidance	-11.3182
▁distant	-11.3183
▁pulmonary	-11.3184
▁Market	-11.3184
BIT	-11.3184
▁everybody	-11.3184
]),	-11.3185
▁Tour	-11.3185
▁SU	-11.3186
▁readily	-11.3187
▁folks	-11.3188
stand	-11.3191
▁Lewis	-11.3191
▁remembered	-11.3193
▁Word	-11.3195
▁effectiveness	-11.3196
▁deeper	-11.3197
▁decreases	-11.3198
▁checking	-11.3199
vision	-11.32
10,	-11.3201
!'	-11.3204
▁mood	-11.3205
kk	-11.3208
DNA	-11.3209
ux	-11.321
▁vessels	-11.3211
▁boss	-11.3212
}$$\	-11.3213
Cache	-11.3214
▁centers	-11.3214
associated	-11.3216
▁SYS	-11.3217
▁collective	-11.3217
▁Fo	-11.3218
▁Ill	-11.3219
TX	-11.3221
4.1	-11.3221
▁21,	-11.3222
▁140	-11.3226
▁physiological	-11.3226
▁consistently	-11.3227
▁reporter	-11.3227
▁Columbia	-11.323
▁tears	-11.3233
▁stomach	-11.3233
▁Ubuntu	-11.3234
▁sphere	-11.3235
about	-11.3235
ope	-11.3236
arc	-11.3236
▁connecting	-11.3236
Url	-11.3236
▁needle	-11.3239
double	-11.3239
▁trick	-11.3244
▁9*	-11.3245
▁shopping	-11.3245
▁territory	-11.3249
▁branches	-11.325
▁breakfast	-11.325
▁ultimate	-11.3251
▁Ash	-11.3251
▁closure	-11.3251
}}(\	-11.3252
▁dys	-11.3254
▁assignment	-11.3259
UC	-11.3259
sign	-11.3259
▁Rather	-11.326
▁weren	-11.3261
▁Fr	-11.3262
▁Support	-11.3262
import	-11.3263
016	-11.3265
ANT	-11.3265
▁Arizona	-11.3266
ART	-11.3267
▁HA	-11.3267
▁institution	-11.3268
▁describing	-11.3269
▁funny	-11.3269
▁Jordan	-11.3269
PV	-11.327
▁heaven	-11.3271
setminus	-11.3274
▁treating	-11.3275
▁adjust	-11.3275
fra	-11.3279
meter	-11.3282
logy	-11.3284
tub	-11.3288
▁Summer	-11.3288
▁ratios	-11.3288
▁ignored	-11.3288
▁communicate	-11.3289
tmp	-11.3289
▁MR	-11.3292
_1)	-11.3293
▁yeah	-11.3296
▁oh	-11.3296
.</	-11.3297
▁lawsuit	-11.3297
-24	-11.3299
6]\].	-11.33
▁1-	-11.3303
▁$3	-11.3304
Collection	-11.3306
▁enzymes	-11.3308
▁panels	-11.3309
▁maximal	-11.3309
▁identifying	-11.331
▁registration	-11.331
Parameter	-11.3311
family	-11.3312
▁Sign	-11.3313
▁Studio	-11.3315
IVE	-11.3315
▁expectations	-11.3315
kl	-11.3315
▁unclear	-11.3316
▁beneficial	-11.3317
gn	-11.3317
▁complement	-11.3319
▁suicide	-11.332
assert	-11.3324
mond	-11.3325
▁surveillance	-11.3326
▁formulation	-11.3326
▁packet	-11.3326
▁designs	-11.3327
mination	-11.3327
^*$	-11.3329
watch	-11.333
▁115	-11.333
asse	-11.3331
▁guns	-11.3333
rn	-11.3334
▁investors	-11.3336
▁24,	-11.3337
ault	-11.3338
ERS	-11.3339
▁anger	-11.3341
▁Full	-11.3342
3]\].	-11.3342
▁occurring	-11.3344
▁interpreted	-11.3349
▁progressive	-11.3349
▁crimes	-11.335
}[	-11.335
▁reflection	-11.335
▁NJ	-11.3351
chain	-11.3352
▁dad	-11.3353
▁Ms	-11.3354
▁Berlin	-11.3355
allow	-11.3356
Part	-11.3358
▁implications	-11.3362
AG	-11.3363
▁112	-11.3364
▁transmitted	-11.3365
▁17.	-11.3366
▁complexes	-11.3366
▁(@	-11.3367
burn	-11.3368
▁batch	-11.3368
▁lab	-11.3369
▁succeed	-11.3371
CODE	-11.3371
there	-11.3371
),\	-11.3372
▁Hz	-11.3373
▁sch	-11.3378
then	-11.3378
rine	-11.3379
▁nations	-11.3379
▁belong	-11.338
▁TR	-11.3381
ifies	-11.3382
▁ruled	-11.3383
▁offensive	-11.3386
▁matrices	-11.3386
bank	-11.3388
▁AL	-11.3388
▁believes	-11.3389
maker	-11.339
ogenic	-11.3391
▁Ve	-11.3391
flu	-11.3392
▁parse	-11.3392
0.05	-11.3395
▁promised	-11.3395
▁auf	-11.3396
▁gang	-11.3396
▁meetings	-11.3398
lia	-11.34
ulated	-11.34
▁VI	-11.3402
sect	-11.3406
▁Harris	-11.3408
4]\].	-11.3408
▁SN	-11.3408
▁Stra	-11.3409
▁seeds	-11.3411
▁ownership	-11.3411
person	-11.3416
CU	-11.3416
▁Cons	-11.342
▁Bridge	-11.342
textbf	-11.342
▁DR	-11.342
yard	-11.342
▁discipline	-11.3424
▁alongside	-11.3425
yer	-11.3426
▁prosecution	-11.3427
▁invalid	-11.3428
▁-11	-11.3428
▁optimization	-11.343
▁boxes	-11.3433
2>	-11.3434
dding	-11.3436
risk	-11.3438
Writer	-11.3439
▁tournament	-11.3441
▁18,	-11.3441
Any	-11.3441
▁Moore	-11.3442
▁slip	-11.3442
udi	-11.3444
▁Por	-11.3445
▁mitochondrial	-11.3447
▁Parliament	-11.3454
▁combine	-11.3455
▁clinic	-11.3457
lation	-11.3459
▁Final	-11.3459
alloc	-11.3461
▁[3](#	-11.3461
asi	-11.3462
▁crossing	-11.3464
▁Linux	-11.3465
hin	-11.3466
▁bid	-11.347
▁equilibrium	-11.3472
pic	-11.3474
▁captain	-11.3477
▁specify	-11.348
say	-11.3481
Pr	-11.3483
km	-11.3484
▁keeps	-11.3484
Post	-11.3486
▁polar	-11.3487
700	-11.3488
▁bare	-11.3488
▁graduate	-11.3491
▁entre	-11.3491
▁specificity	-11.3492
▁NP	-11.3494
limit	-11.3495
▁tear	-11.3496
▁Der	-11.3496
}})$	-11.3497
AE	-11.35
▁Way	-11.3505
▁cho	-11.3506
▁champion	-11.3507
▁contra	-11.3508
▁GR	-11.3509
ote	-11.351
▁shit	-11.3512
▁orange	-11.3512
lash	-11.3512
ific	-11.3513
▁throat	-11.3515
▁disaster	-11.3516
HL	-11.3516
▁aggregate	-11.3517
ario	-11.352
priv	-11.352
▁drama	-11.352
▁mature	-11.3521
▁anterior	-11.3521
▁gotten	-11.3522
ively	-11.3523
▁convicted	-11.3525
Bo	-11.3526
3.8	-11.3527
compress	-11.3529
ech	-11.3529
OUT	-11.3529
shire	-11.353
flags	-11.3531
xsl	-11.3532
shi	-11.3532
▁Colorado	-11.3532
7*	-11.3533
terminal	-11.3535
LINE	-11.3535
8.5	-11.3537
sty	-11.354
▁10-	-11.3541
nia	-11.3542
003){	-11.3548
▁worker	-11.3548
}^{2}	-11.3549
▁blast	-11.355
▁radial	-11.3551
▁Islamic	-11.3552
▁transportation	-11.3552
▁nobody	-11.3554
▁writes	-11.3556
▁flowers	-11.3556
fin	-11.3558
/1	-11.3558
▁studying	-11.3558
season	-11.3558
▁distinction	-11.356
lusion	-11.3561
Ar	-11.3562
▁Ford	-11.3562
rows	-11.3563
▁phenotype	-11.3563
▁promotion	-11.3564
▁repeatedly	-11.3565
▁Clinical	-11.3565
▁Arab	-11.3566
kind	-11.3566
AND	-11.3566
▁somebody	-11.3569
▁mock	-11.3569
▁emerged	-11.3571
rait	-11.3573
▁duties	-11.3575
▁Follow	-11.3578
/13	-11.358
▁systemic	-11.3581
Screen	-11.3581
▁Coast	-11.3584
▁literally	-11.3584
▁attributed	-11.3585
▁remarkable	-11.3586
▁ought	-11.3588
▁mas	-11.359
▁160	-11.359
▁phosphorylation	-11.359
▁acknowledge	-11.3592
▁Ban	-11.3592
\[[@	-11.3593
AI	-11.3594
▁logical	-11.3595
▁tie	-11.3597
▁shoes	-11.3597
▁**1	-11.3599
▁28,	-11.3599
▁2013,	-11.3599
made	-11.3604
▁sword	-11.3605
▁Pol	-11.3605
Spec	-11.3608
shed	-11.3609
FR	-11.361
▁discrete	-11.361
turn	-11.3614
kov	-11.3615
▁wing	-11.3615
Write	-11.3616
▁criticism	-11.3616
tron	-11.362
BB	-11.3621
ament	-11.3621
▁Ty	-11.3621
▁pounds	-11.3625
2.3	-11.3625
▁headed	-11.3625
derived	-11.3626
2(	-11.3628
ende	-11.3629
▁PO	-11.3631
▁mus	-11.3633
▁locked	-11.3633
▁Jon	-11.3638
Can	-11.3639
▁essay	-11.3639
▁Content	-11.3641
▁shield	-11.3642
eus	-11.3642
adi	-11.3643
▁illustrated	-11.3643
▁pregnant	-11.3644
▁collapse	-11.3645
lb	-11.3645
Menu	-11.3649
▁2012,	-11.365
▁preferably	-11.3653
▁Sim	-11.3653
scan	-11.3655
shaped	-11.3656
▁declined	-11.3661
▁uma	-11.3662
▁perception	-11.3662
vm	-11.3663
craft	-11.3664
2.7	-11.3665
3.3	-11.3666
▁personality	-11.3666
▁sweat	-11.3667
quality	-11.3668
PORT	-11.3668
Im	-11.367
▁juice	-11.367
▁thrown	-11.3671
▁estimation	-11.3671
▁cake	-11.3671
thread	-11.3671
hydroxy	-11.3673
▁earn	-11.3674
UD	-11.3677
▁awesome	-11.3678
▁immigration	-11.3678
▁nicht	-11.3678
▁lymph	-11.3678
▁],	-11.368
▁isolation	-11.368
grade	-11.3681
▁Exp	-11.3682
▁2014,	-11.3686
▁Ross	-11.3687
▁lease	-11.3687
nk	-11.3688
012	-11.3688
▁Tax	-11.3689
:20	-11.3689
▁Medicine	-11.3692
▁sizeof	-11.3696
Se	-11.3698
▁GP	-11.3698
anna	-11.3699
hm	-11.3699
join	-11.37
▁Upon	-11.3701
Thread	-11.3701
▁Les	-11.3702
Some	-11.3702
itu	-11.3705
▁interviews	-11.3706
▁vir	-11.3708
▁possess	-11.3708
Properties	-11.3709
▁Daily	-11.3709
▁expressing	-11.3709
cells	-11.3712
HU	-11.3714
▁[2	-11.3717
▁programme	-11.3717
True	-11.3718
7.5	-11.372
▁environments	-11.372
▁monthly	-11.372
▁burning	-11.3721
▁iPhone	-11.3722
▁Toronto	-11.3723
LIB	-11.3724
▁denotes	-11.3725
▁knife	-11.3726
organ	-11.3726
▁sym	-11.3728
▁kiss	-11.3729
▁Pakistan	-11.3731
▁fitting	-11.3731
[4]	-11.3731
▁collaboration	-11.3731
▁1981	-11.3732
▁scanning	-11.3732
▁Arch	-11.3734
anda	-11.3735
EV	-11.3736
Term	-11.3736
▁Wild	-11.3737
▁stretch	-11.3737
gun	-11.374
▁visitors	-11.3742
1.9	-11.3743
▁suppress	-11.3743
ost	-11.3744
▁toxic	-11.3745
▁underwent	-11.3745
▁PBS	-11.3746
▁Mont	-11.3749
▁Recently	-11.375
▁Small	-11.375
▁kon	-11.3751
▁holiday	-11.3752
▁confident	-11.3753
▁cardiovascular	-11.3754
"))	-11.3757
▁overnight	-11.3759
▁Administration	-11.376
▁punishment	-11.3761
tom	-11.3761
▁guitar	-11.3761
▁adapted	-11.3762
▁restrictions	-11.3767
Settings	-11.3767
▁Oxford	-11.3769
018	-11.3769
HI	-11.377
Prop	-11.3771
▁vertices	-11.3771
▁Sk	-11.3772
▁Jane	-11.3772
▁raising	-11.3775
▁contracts	-11.3777
mine	-11.3777
▁CM	-11.3777
install	-11.378
▁div	-11.378
▁args	-11.378
▁curious	-11.3781
Fi	-11.3781
▁displays	-11.3781
dh	-11.3783
analysis	-11.3784
iterator	-11.3787
▁psycho	-11.3789
▁compatible	-11.379
inf	-11.379
▁coli	-11.379
▁validity	-11.3791
▁Cam	-11.3792
wards	-11.3795
108	-11.3796
▁scrap	-11.3797
▁inserted	-11.3799
▁refuse	-11.3802
ars	-11.3803
▁guests	-11.3804
address	-11.3804
!)	-11.3805
▁Ministry	-11.3805
enne	-11.3805
▁governing	-11.3807
▁Scotland	-11.3808
▁marijuana	-11.3808
▁fu	-11.3808
▁coordinate	-11.3809
▁satisfaction	-11.3811
▁heading	-11.3813
▁march	-11.3814
▁topics	-11.3814
▁Hand	-11.3814
▁talks	-11.3815
HO	-11.3818
▁Wolf	-11.3819
cpp	-11.3819
▁3.5	-11.382
▁gravity	-11.3821
▁bird	-11.3821
hem	-11.3822
▁blame	-11.3822
▁translate	-11.3823
▁suspected	-11.3824
▁twelve	-11.3825
▁bat	-11.3828
▁1982	-11.3828
▁Price	-11.3829
▁designated	-11.3829
▁solo	-11.3831
▁impairment	-11.3833
lytic	-11.3835
mini	-11.3835
▁Include	-11.3838
▁utilize	-11.384
email	-11.3842
▁Nature	-11.3843
▁synthetic	-11.3848
▁Tal	-11.3854
nik	-11.3857
▁innovation	-11.3857
▁integrity	-11.3857
cra	-11.3862
▁concepts	-11.3866
▁computers	-11.3866
▁cert	-11.3867
▁Base	-11.3869
Var	-11.3871
▁Dam	-11.3873
▁healing	-11.3873
▁waited	-11.3873
stack	-11.3874
Ra	-11.3878
▁associations	-11.3878
save	-11.3879
Impl	-11.3879
▁festival	-11.3883
▁Jeff	-11.3883
▁109	-11.3884
▁Ball	-11.3885
▁tolerance	-11.3886
▁MB	-11.3887
▁decimal	-11.3888
▁attract	-11.3888
▁functionality	-11.3888
▁Six	-11.3889
50,000	-11.389
▁Interestingly	-11.3891
eman	-11.3892
cid	-11.3895
▁begun	-11.3897
▁Heart	-11.3898
session	-11.3899
▁instruments	-11.3899
▁weird	-11.3899
▁cuts	-11.3903
▁establishment	-11.3905
▁Ali	-11.3905
conv	-11.3905
▁threw	-11.3906
1],[@	-11.3906
ambi	-11.3906
▁Stat	-11.3906
iness	-11.3907
▁endo	-11.3909
▁ett	-11.3911
▁JSON	-11.3913
▁Brian	-11.3916
Local	-11.3916
▁variability	-11.3917
▁blocked	-11.3919
▁107	-11.392
▁sake	-11.3921
▁vein	-11.3923
////////////////	-11.3926
2005	-11.3927
▁briefly	-11.3927
▁genuine	-11.3928
▁Kan	-11.3928
human	-11.3928
▁Hotel	-11.3928
Exp	-11.3929
▁Ce	-11.393
used	-11.3932
enti	-11.3932
▁VA	-11.3933
▁approximate	-11.3934
▁delayed	-11.3934
▁Anna	-11.3936
oph	-11.3937
▁keyboard	-11.3938
▁mill	-11.3939
▁longitudinal	-11.394
▁Similar	-11.3943
HP	-11.3944
Ga	-11.3945
0}	-11.3945
▁manually	-11.3946
▁Sie	-11.3947
-1$	-11.3948
▁shaft	-11.3948
▁gradually	-11.3949
ried	-11.395
9.5	-11.3951
▁1950	-11.3953
▁detector	-11.3953
▁reliability	-11.3955
eval	-11.3956
▁slot	-11.3959
017	-11.396
ching	-11.3961
▁Gro	-11.3964
ao	-11.3965
▁corporation	-11.3966
▁brush	-11.3967
▁confused	-11.3971
▁existed	-11.3973
berry	-11.3977
plan	-11.3978
▁defensive	-11.3978
cv	-11.3978
▁Ger	-11.3978
▁demo	-11.3979
▁-13	-11.3979
▁Path	-11.398
ality	-11.398
▁Blood	-11.3981
ERR	-11.3982
▁Aug	-11.3983
conc	-11.3983
▁phases	-11.3983
▁supplies	-11.3987
="0"	-11.3987
▁20%	-11.3988
-25	-11.3989
▁cavity	-11.399
▁bold	-11.3991
mor	-11.3991
▁lit	-11.3992
▁Commissioner	-11.3992
▁sig	-11.3992
▁spray	-11.3992
Document	-11.3993
▁derive	-11.3994
rf	-11.3997
▁enterprise	-11.3998
Extension	-11.4002
▁2011,	-11.4003
Output	-11.4003
DT	-11.4004
▁variant	-11.4005
▁inches	-11.4008
None	-11.4009
▁labeled	-11.401
▁2010,	-11.4012
▁Agency	-11.4013
wind	-11.4017
▁disabled	-11.4017
amino	-11.4018
2004	-11.4021
▁convenient	-11.4021
▁Hal	-11.4021
▁++	-11.4023
▁motivation	-11.4025
ann	-11.4026
Sp	-11.4027
news	-11.4027
▁symmetric	-11.4029
▁Var	-11.403
▁voor	-11.403
pac	-11.4031
equ	-11.4032
▁2015,	-11.4032
aster	-11.4036
▁Week	-11.4036
▁recipe	-11.4037
▁visits	-11.4038
▁Bible	-11.4039
bind	-11.404
▁eligible	-11.4042
▁stellar	-11.4043
nov	-11.4044
▁Area	-11.4046
Where	-11.4048
▁Sin	-11.4049
▁dates	-11.4049
104	-11.4049
claim	-11.4051
▁contemporary	-11.4051
xf	-11.4054
▁confusion	-11.4055
PG	-11.4056
params	-11.4056
▁\#	-11.4058
language	-11.406
▁cholesterol	-11.406
▁goods	-11.4061
aan	-11.4061
debug	-11.4064
▁27,	-11.4065
▁Bad	-11.4065
▁reveals	-11.4065
▁scaling	-11.4066
condition	-11.4066
etc	-11.4066
bas	-11.4067
▁corn	-11.4071
▁votes	-11.4071
▁encounter	-11.4075
▁reconstruction	-11.4076
▁factual	-11.4078
▁tit	-11.4079
▁tender	-11.4079
▁Camp	-11.4081
▁proc	-11.4087
izz	-11.4087
▁voting	-11.4089
▁museum	-11.4092
pal	-11.4093
ego	-11.4095
2.6	-11.4095
iden	-11.4097
▁singer	-11.4098
[$	-11.4099
▁Spring	-11.4099
HT	-11.4101
eu	-11.4101
oplus	-11.4103
▁codes	-11.4104
▁Change	-11.4104
▁matched	-11.4106
▁Det	-11.4107
▁equipped	-11.4107
▁PP	-11.4107
▁Dark	-11.4109
pers	-11.411
nos	-11.4112
aze	-11.4112
▁gathered	-11.4112
▁holder	-11.4112
▁implant	-11.4115
▁AI	-11.4115
kins	-11.4115
transform	-11.4116
native	-11.4118
▁Agreement	-11.4119
\#	-11.4119
gri	-11.412
▁pushing	-11.4124
▁Example	-11.4125
▁fate	-11.4126
serv	-11.4128
▁dish	-11.4128
▁journal	-11.413
quin	-11.4132
▁Allen	-11.4133
▁Ob	-11.4134
Order	-11.4134
▁labels	-11.4136
hou	-11.4137
apped	-11.4138
jet	-11.4139
▁prima	-11.4141
▁doses	-11.4141
▁fin	-11.4141
▁deny	-11.4142
▁6-	-11.4143
▁grain	-11.4143
▁racial	-11.4144
▁striking	-11.4145
Layer	-11.4145
(6)	-11.4145
▁})	-11.4146
azi	-11.4146
▁Sky	-11.4147
▁db	-11.4148
▁proposition	-11.4148
▁drum	-11.4149
▁26,	-11.4149
▁proportional	-11.4149
ador	-11.4152
▁injected	-11.4152
▁violated	-11.4152
▁31,	-11.4152
variable	-11.4154
▁developer	-11.4156
▁transformed	-11.4157
Mu	-11.4157
▁fallen	-11.4157
gre	-11.4157
107	-11.4159
own	-11.416
▁physically	-11.416
▁intrinsic	-11.416
5%)	-11.4162
▁rating	-11.4164
9*	-11.4164
amide	-11.4166
3.9	-11.4166
IB	-11.4169
polar	-11.417
ega	-11.417
▁Brazil	-11.4172
▁foods	-11.4174
hur	-11.4175
▁Event	-11.4175
▁grateful	-11.4178
▁comme	-11.4178
register	-11.4178
▁Dutch	-11.418
Hash	-11.4183
imo	-11.4185
▁Death	-11.4186
▁memories	-11.4187
▁ticket	-11.4187
▁asks	-11.4187
etti	-11.4189
▁rendered	-11.4189
▁Images	-11.419
▁fur	-11.4192
▁mineral	-11.4192
queue	-11.4193
▁Marine	-11.4194
▁occupied	-11.4194
peak	-11.4196
▁gonna	-11.4197
NOT	-11.4198
▁1$	-11.42
▁pressed	-11.4201
▁Mas	-11.4201
▁enormous	-11.4201
32)	-11.4202
▁compression	-11.4202
▁ga	-11.4204
▁contacts	-11.4204
▁custody	-11.4204
▁fifty	-11.4204
▁25,	-11.4205
▁fibers	-11.4206
▁conspiracy	-11.421
▁desert	-11.4211
▁span	-11.4211
Work	-11.4212
▁rescue	-11.4212
▁teaspoon	-11.4213
▁Fisher	-11.4214
Device	-11.4215
CON	-11.4218
7}	-11.4219
▁shade	-11.4221
▁surely	-11.4222
iated	-11.4224
▁slide	-11.4224
Ne	-11.4226
posit	-11.4228
▁segments	-11.423
▁twist	-11.423
▁Core	-11.4231
*^	-11.4231
being	-11.4232
▁participated	-11.4232
▁plasmid	-11.4234
▁LC	-11.4235
good	-11.4235
protein	-11.4235
▁Massachusetts	-11.4237
bling	-11.4241
=>	-11.4241
omb	-11.4241
▁polarization	-11.4241
▁trauma	-11.4241
pf	-11.4242
▁intersection	-11.4243
▁abortion	-11.4243
replace	-11.4244
▁notation	-11.4245
plot	-11.4245
▁Ever	-11.4245
▁Unit	-11.4246
▁Navy	-11.4247
▁computational	-11.4248
oul	-11.4251
Variable	-11.4252
ogen	-11.4253
▁cultured	-11.4254
▁plug	-11.4254
▁seats	-11.4254
▁impose	-11.4254
sensitive	-11.4254
Tree	-11.4257
Platform	-11.4258
they	-11.4261
▁Function	-11.4261
▁quantities	-11.4262
spir	-11.4262
\*\*	-11.4263
▁attempting	-11.4263
014	-11.4264
▁accurately	-11.4267
▁pill	-11.4268
▁Guide	-11.4268
▁adaptation	-11.4269
▁excuse	-11.427
▁chains	-11.427
▁wise	-11.4271
ache	-11.4271
▁leak	-11.4273
uge	-11.4274
▁Card	-11.4275
▁PHP	-11.4276
0_	-11.4277
▁sentencing	-11.4279
▁tumour	-11.4279
▁microscopy	-11.4279
tie	-11.428
011	-11.4281
▁lifestyle	-11.4281
sci	-11.4283
BM	-11.4284
Si	-11.4284
▁winner	-11.4285
igen	-11.4285
ALL	-11.4285
3%)	-11.4285
▁DB	-11.4286
▁fought	-11.4287
▁Ang	-11.4288
tl	-11.4289
ICE	-11.4289
015	-11.4289
ald	-11.4289
▁drain	-11.429
▁Interest	-11.4291
▁Author	-11.4295
▁Arg	-11.4295
▁dist	-11.4295
▁catalyst	-11.4296
ulf	-11.4297
caps	-11.4297
▁opera	-11.4298
1"	-11.4298
▁Unlike	-11.4301
-2-	-11.4301
4/	-11.4302
_0\	-11.4302
▁approached	-11.4303
▁transparent	-11.4304
▁29,	-11.4304
application	-11.4305
▁favorable	-11.4308
gua	-11.4308
▁queue	-11.4309
▁correlations	-11.4312
edu	-11.4312
▁atom	-11.4313
▁111	-11.4315
▁crossed	-11.4315
cross	-11.4318
▁discount	-11.4318
▁manifold	-11.4319
city	-11.4319
Load	-11.4319
▁scroll	-11.4321
▁pointing	-11.4321
-100	-11.4325
lio	-11.4326
emp	-11.4326
▁Syn	-11.4327
▁oven	-11.4327
Level	-11.4328
eqn	-11.4329
sie	-11.4329
piece	-11.433
▁-14	-11.4332
▁nitrogen	-11.4333
▁Scale	-11.4335
gas	-11.4337
▁Trade	-11.4337
▁shortly	-11.4337
▁Index	-11.4338
▁potent	-11.4338
▁differently	-11.434
▁supplement	-11.4341
▁Philip	-11.4341
rim	-11.4342
_0)	-11.4342
▁occasionally	-11.4343
▁Empire	-11.4345
▁fatty	-11.4346
▁Kong	-11.4347
▁frozen	-11.4348
▁pic	-11.4352
▁hasn	-11.4354
▁transactions	-11.4354
▁activate	-11.4355
▁FILE	-11.4355
clear	-11.4355
jan	-11.4356
dem	-11.4356
▁defines	-11.4356
▁<?	-11.4357
▁Turn	-11.4357
▁transcript	-11.4357
▁announcement	-11.4357
▁politicians	-11.4358
sized	-11.4358
▁Cancer	-11.4359
▁expense	-11.4361
==	-11.4362
▁\{	-11.4365
▁focusing	-11.4365
▁Boy	-11.4366
encia	-11.4367
▁publicly	-11.4368
▁drift	-11.4369
▁debtor	-11.4371
Po	-11.4372
▁preventing	-11.4373
VI	-11.4374
cz	-11.4375
▁Ci	-11.4375
grid	-11.4376
▁ski	-11.4376
▁Turkey	-11.4376
▁listing	-11.4378
cong	-11.4378
▁0);	-11.4378
▁sys	-11.4379
▁Supplementary	-11.4379
▁pending	-11.438
git	-11.438
^2+	-11.4381
security	-11.4382
loss	-11.4382
profile	-11.4384
▁assumptions	-11.4385
▁Doctor	-11.4387
vit	-11.4389
▁NFL	-11.4391
▁alpha	-11.4391
het	-11.4391
twitter	-11.4394
▁pat	-11.4394
bibr	-11.4396
▁plugin	-11.4396
▁tunnel	-11.4396
▁callback	-11.4396
wait	-11.4397
({{\	-11.4399
-02	-11.4399
▁capabilities	-11.44
▁Plus	-11.4403
rating	-11.4404
cmd	-11.4405
▁shoulders	-11.4406
▁Pur	-11.4408
simeq	-11.4409
▁Houston	-11.4409
▁boundaries	-11.4412
ethyl	-11.4416
▁intend	-11.4417
▁atomic	-11.4417
10)	-11.4417
▁Hay	-11.4418
uality	-11.4419
▁WE	-11.4419
▁damaged	-11.4422
▁cry	-11.4422
tens	-11.4422
▁declaration	-11.4423
▁PT	-11.4423
Port	-11.4424
▁blank	-11.4424
bul	-11.4425
▁1979	-11.4425
▁emphasis	-11.4426
▁threatened	-11.4428
▁Tan	-11.4429
▁muscles	-11.443
stro	-11.4431
Title	-11.4431
▁publish	-11.4431
▁$5	-11.4432
MOESM	-11.4433
▁strategic	-11.4433
▁laptop	-11.4434
▁"$	-11.4435
▁Fort	-11.4436
▁2.3	-11.4438
OF	-11.4439
▁enables	-11.444
erg	-11.4442
etta	-11.4443
▁Hamiltonian	-11.4444
▁NE	-11.4445
package	-11.4447
▁gi	-11.4447
Vi	-11.4447
▁factory	-11.4448
▁trends	-11.4449
▁epithelial	-11.4449
6.1	-11.445
rist	-11.4451
▁galaxy	-11.4451
▁circular	-11.4451
▁trivial	-11.4453
194	-11.4454
▁TNF	-11.4454
ACT	-11.4454
103	-11.4455
erman	-11.4456
▁Return	-11.4457
▁graft	-11.4457
Inter	-11.4457
▁Governor	-11.4457
▁distress	-11.4458
▁Bor	-11.4458
▁18.	-11.4458
▁seasons	-11.4459
▁dating	-11.4459
▁secured	-11.446
▁affecting	-11.4462
▁fatal	-11.4462
▁surprising	-11.4463
xy	-11.4463
▁vulnerable	-11.4463
▁hospitals	-11.4464
MAP	-11.4465
▁painting	-11.4465
holder	-11.4465
▁predictions	-11.4466
▁Store	-11.4467
INFO	-11.4468
▁Hor	-11.4468
▁SELECT	-11.4469
fel	-11.4471
KEY	-11.4472
▁preparing	-11.4473
rade	-11.4474
▁rabbit	-11.4474
▁junction	-11.4475
▁Future	-11.4475
activity	-11.4477
▁impressive	-11.4477
▁rod	-11.4478
▁grey	-11.4478
lp	-11.448
222	-11.448
▁dozen	-11.448
live	-11.4481
GG	-11.4481
▁2016,	-11.4482
▁Motor	-11.4487
nick	-11.4488
111	-11.449
▁obesity	-11.4497
pop	-11.4497
▁intracellular	-11.45
imi	-11.4502
▁esta	-11.4502
▁specimens	-11.4503
▁gen	-11.4503
▁orbit	-11.4503
▁extending	-11.4504
▁cried	-11.4506
uel	-11.4506
▁bonds	-11.4506
▁libraries	-11.4506
▁wondered	-11.4507
hom	-11.4508
▁scenes	-11.4509
VO	-11.451
▁reversed	-11.451
▁founder	-11.4512
gle	-11.4513
▁1}	-11.4514
▁gross	-11.4514
NV	-11.4515
▁legislative	-11.4519
▁Pay	-11.4519
▁chemotherapy	-11.4525
},$$	-11.4531
▁uptake	-11.4532
▁discloses	-11.4533
▁wavelength	-11.4537
▁Sand	-11.4538
▁temple	-11.4539
Mon	-11.4539
▁restore	-11.454
▁600	-11.4543
▁Spirit	-11.4543
▁obtaining	-11.4543
mul	-11.4545
▁Jay	-11.4545
eil	-11.4545
▁114	-11.4546
▁apt	-11.4546
IST	-11.4547
erry	-11.4548
▁consensus	-11.4549
▁prompt	-11.455
▁GM	-11.455
▁meaningful	-11.455
▁genomic	-11.455
▁prize	-11.4552
FE	-11.4552
▁conservation	-11.4552
energy	-11.4552
▁coil	-11.4553
▁episodes	-11.4553
5],[@	-11.4554
▁*)	-11.4554
▁Apache	-11.4555
▁platforms	-11.4559
1),	-11.4561
**2*	-11.4561
▁Philadelphia	-11.4562
Are	-11.4562
lick	-11.4562
▁Tro	-11.4563
clock	-11.4565
▁amended	-11.4565
▁syn	-11.4567
Who	-11.4568
102	-11.4568
▁consisted	-11.4569
▁Egypt	-11.457
cis	-11.4578
neg	-11.4578
▁Convert	-11.458
wd	-11.458
▁Assembly	-11.4581
▁darkness	-11.4582
▁choosing	-11.4583
admin	-11.4583
Last	-11.4584
▁poverty	-11.4586
▁sl	-11.4586
,0)	-11.4587
ease	-11.4588
▁Station	-11.4589
cas	-11.459
▁SW	-11.459
3],[@	-11.4591
▁Hong	-11.4591
▁Very	-11.4591
▁selective	-11.4594
pol	-11.4595
▁regulated	-11.4597
▁affairs	-11.4597
▁commun	-11.4599
inder	-11.4601
8%)	-11.4602
▁acc	-11.4602
▁Gaussian	-11.4602
degree	-11.4604
▁energies	-11.4606
▁saving	-11.4606
atur	-11.4608
PATH	-11.4614
rec	-11.4615
▁tonight	-11.4615
▁periodic	-11.4616
4.7	-11.4617
▁bathroom	-11.4618
omer	-11.4619
vor	-11.4619
Delete	-11.4619
▁tre	-11.4624
▁golden	-11.4625
▁(11	-11.4625
EB	-11.4626
▁spoken	-11.4626
▁hopes	-11.4626
750	-11.4627
▁emerging	-11.463
▁legitimate	-11.4633
bp	-11.4634
essa	-11.4636
characterization	-11.4639
293	-11.4641
▁Mount	-11.4642
▁adjustment	-11.4643
▁indication	-11.4644
▁inquiry	-11.4645
ground	-11.4646
boy	-11.4647
▁blot	-11.4649
▁eu	-11.4649
▁Avenue	-11.465
elt	-11.465
▁assertion	-11.4651
▁dump	-11.4651
▁ages	-11.4651
"};	-11.4652
▁IFN	-11.4653
▁equality	-11.4653
▁defining	-11.4654
▁contention	-11.4655
▁TH	-11.4657
▁Palestinian	-11.4658
READ	-11.4659
▁Duke	-11.4661
▁Child	-11.4661
.*]{}	-11.4663
nate	-11.4666
▁polynomial	-11.4667
▁Could	-11.4667
GM	-11.467
▁hill	-11.4672
▁ba	-11.4673
▁Bla	-11.4674
4]	-11.4675
▁hits	-11.4675
▁mut	-11.4675
▁ears	-11.4675
lated	-11.4679
▁mortgage	-11.4679
▁[^1]	-11.468
idx	-11.4681
▁brothers	-11.4681
▁4](#	-11.4682
▁Sound	-11.4686
▁aims	-11.4687
▁lamp	-11.4688
▁peaks	-11.469
interface	-11.4691
▁chocolate	-11.4692
▁embodiment	-11.4693
▁3.0	-11.4693
mag	-11.4694
his	-11.4696
instance	-11.4697
▁Sports	-11.4699
▁drag	-11.4701
urs	-11.4702
bur	-11.4702
▁fake	-11.4702
report	-11.4703
▁surrounded	-11.4705
▁stereo	-11.4706
▁beliefs	-11.4706
▁voted	-11.4707
RC	-11.4707
▁reset	-11.4708
▁pipeline	-11.4709
Bound	-11.4712
rou	-11.4715
▁188	-11.4716
vc	-11.4719
▁Ron	-11.4719
cen	-11.4721
▁producer	-11.4722
▁Kal	-11.4726
Float	-11.4728
▁secretion	-11.4728
here	-11.4729
▁mount	-11.4729
alla	-11.4731
▁rival	-11.4732
charge	-11.4735
sti	-11.4737
▁dire	-11.4737
▁bullet	-11.4737
▁generator	-11.4738
2%)	-11.4738
▁3.1	-11.4738
issa	-11.474
▁letting	-11.474
▁strictly	-11.474
▁appreciated	-11.474
193	-11.4741
▁ter	-11.4741
▁weekly	-11.4743
▁Online	-11.4743
▁prevented	-11.4744
▁copper	-11.4744
▁suspended	-11.4746
dynamic	-11.4746
PH	-11.4746
2,000	-11.4747
▁satisfying	-11.4747
▁Background	-11.4747
▁replication	-11.4747
CB	-11.4748
ded	-11.4751
20]	-11.4752
▁116	-11.4752
DMA	-11.4755
▁wo	-11.4757
▁anybody	-11.4758
▁BA	-11.4758
^2)	-11.4759
▁quest	-11.476
▁visiting	-11.4762
209	-11.4766
▁punch	-11.4767
0.02	-11.4768
▁convinced	-11.4768
▁bu	-11.4769
quoting	-11.477
▁analog	-11.4771
TION	-11.4772
^2+^	-11.4774
▁indices	-11.4774
▁19.	-11.4777
cite	-11.4777
▁reflects	-11.4782
▁exclusively	-11.4783
▁insist	-11.4783
▁efficiently	-11.4784
pes	-11.4785
▁Sciences	-11.4785
raz	-11.4785
▁emotions	-11.4787
_{3}	-11.4787
▁2009,	-11.4788
▁acted	-11.479
▁mayor	-11.4791
▁authorized	-11.4793
owner	-11.4793
▁Method	-11.4794
modal	-11.4796
▁membership	-11.4796
tors	-11.4797
▁partly	-11.48
▁Unless	-11.4801
▁lovely	-11.4801
ncia	-11.4801
▁flu	-11.4802
variant	-11.4802
▁Kevin	-11.4802
▁situ	-11.4803
▁AN	-11.4805
Top	-11.4807
Run	-11.4807
▁apple	-11.4807
▁Battle	-11.481
ones	-11.481
▁belonging	-11.4811
}]	-11.4813
▁dried	-11.4813
▁Sw	-11.4816
uh	-11.4817
▁resort	-11.4818
▁Cre	-11.4819
▁horror	-11.4821
Eq	-11.4821
▁hanging	-11.4821
}"	-11.4825
▁elderly	-11.4826
▁2.4	-11.4826
▁electricity	-11.4826
▁tin	-11.4827
gene	-11.4828
3_	-11.4828
▁abandoned	-11.4829
▁flex	-11.4832
▁FT	-11.4832
▁tens	-11.4833
▁bubble	-11.4834
minute	-11.4835
▁Dia	-11.4838
lv	-11.4838
ester	-11.484
3.2	-11.4842
▁handler	-11.4843
▁suggestions	-11.4846
▁1.8	-11.4846
▁Product	-11.4847
▁Ter	-11.4847
▁Et	-11.4851
▁cylinder	-11.4851
rene	-11.4855
hot	-11.4855
esse	-11.4855
▁scratch	-11.4859
▁Holy	-11.486
▁regulate	-11.4861
▁Minnesota	-11.4862
▁YouTube	-11.4862
▁USB	-11.4863
▁eine	-11.4864
AX	-11.4866
fb	-11.4866
▁Matthew	-11.4868
▁maternal	-11.4868
▁cortex	-11.4868
186	-11.4868
bad	-11.4869
▁odds	-11.487
17]	-11.4871
▁dye	-11.4873
▁reject	-11.4874
▁pursue	-11.4875
ono	-11.4875
score	-11.4877
gin	-11.4878
▁lecture	-11.4878
▁analytical	-11.4879
▁0.06	-11.4879
▁pleased	-11.488
ination	-11.4882
odo	-11.4883
record	-11.4883
blog	-11.4884
▁quit	-11.4884
Dialog	-11.4885
regulated	-11.4885
▁py	-11.4888
bil	-11.489
2003	-11.4893
kon	-11.4897
▁1975	-11.4899
▁wh	-11.49
▁placement	-11.49
▁grab	-11.4901
▁wage	-11.4901
LV	-11.4902
▁Summary	-11.4903
▁divorce	-11.4903
-1-	-11.4903
▁documented	-11.4904
▁sw	-11.4904
▁similarity	-11.4904
lets	-11.4905
206	-11.4906
GFR	-11.4906
gro	-11.4906
▁solved	-11.4906
▁Monte	-11.4907
speed	-11.4907
▁encountered	-11.4909
”)	-11.491
▁justify	-11.4911
▁province	-11.4911
▁Array	-11.4912
▁Mexican	-11.4913
trop	-11.4913
▁shelter	-11.4913
▁lifted	-11.4915
▁excitation	-11.4917
▁proto	-11.4918
▁nurse	-11.4918
▁init	-11.4918
▁Atlantic	-11.4918
bigg	-11.4919
2.8	-11.492
▁Fla	-11.4922
▁erred	-11.4924
train	-11.4924
▁compete	-11.4926
▁highlight	-11.4928
amos	-11.4928
▁probable	-11.4929
zone	-11.493
topic	-11.4931
yne	-11.4932
bytes	-11.4932
▁quote	-11.4932
▁desktop	-11.4933
SV	-11.4933
▁gu	-11.4935
▁accomplished	-11.4936
▁Story	-11.4936
'),	-11.4937
uite	-11.4938
▁dont	-11.4941
▁deficiency	-11.4942
▁widespread	-11.4942
greg	-11.4943
▁rot	-11.4945
▁wider	-11.4945
▁centuries	-11.4945
VA	-11.4945
▁modeling	-11.4945
▁Sarah	-11.4945
▁derivatives	-11.4946
stead	-11.4949
▁fiction	-11.4949
▁hoped	-11.4949
▁kom	-11.4949
▁Francis	-11.495
▁bitter	-11.4951
lf	-11.4951
complete	-11.4951
▁(95%	-11.4952
▁dan	-11.4952
.\[[@	-11.4952
global	-11.4953
SF	-11.4954
▁stained	-11.4955
▁limiting	-11.4958
▁Think	-11.496
▁interpret	-11.4961
▁resident	-11.4962
arr	-11.4966
LF	-11.4966
eli	-11.4967
▁MRI	-11.4969
▁endothelial	-11.497
▁1978	-11.4973
Auto	-11.4973
▁photograph	-11.4974
▁habit	-11.4976
▁reaches	-11.4978
▁FC	-11.4979
▁independence	-11.498
tail	-11.4981
6%)	-11.4982
▁nest	-11.4983
direct	-11.4983
▁Subject	-11.4984
▁Common	-11.4987
▁CG	-11.4987
mates	-11.4988
▁Record	-11.4988
move	-11.499
▁clothing	-11.4992
lik	-11.4994
▁fifteen	-11.4996
▁123	-11.5
Book	-11.5002
▁Bitcoin	-11.5003
▁managing	-11.5006
▁Petitioner	-11.5008
Doc	-11.5008
▁mile	-11.5008
▁Mid	-11.5009
▁EM	-11.501
hall	-11.5011
▁preference	-11.5012
▁fever	-11.5012
▁1976	-11.5014
1%)	-11.5016
10.1	-11.5017
▁nucleotide	-11.5018
}}_{\	-11.5018
RG	-11.5019
awa	-11.5019
▁Gy	-11.5021
tone	-11.5021
boost	-11.5021
▁Festival	-11.5022
widget	-11.5023
▁curl	-11.5024
▁Being	-11.5025
SW	-11.5025
▁frames	-11.5026
tern	-11.5027
Json	-11.5027
▁venue	-11.5028
perp	-11.5029
▁Islam	-11.5029
▁sensors	-11.503
▁dramatic	-11.5031
Just	-11.5032
region	-11.5035
▁Angel	-11.5036
driver	-11.5036
▁Lang	-11.5037
▁Clark	-11.5038
▁rid	-11.5038
▁Mos	-11.5038
should	-11.5039
10^	-11.504
guard	-11.5042
ece	-11.5043
connection	-11.5044
▁fluctuations	-11.5045
grant	-11.5045
AU	-11.5047
Description	-11.505
Search	-11.505
▁outdoor	-11.505
Session	-11.5052
▁exclude	-11.5053
Record	-11.5055
operative	-11.5055
▁arising	-11.5056
GT	-11.5056
HE	-11.5059
▁bench	-11.5059
8]	-11.5061
tho	-11.5065
▁arrow	-11.5066
SSL	-11.5066
ube	-11.5067
bor	-11.5068
▁referring	-11.5069
▁Current	-11.507
013	-11.5071
▁RI	-11.5071
sus	-11.5073
▁virtually	-11.5074
▁TA	-11.5075
▁denying	-11.5075
▁participant	-11.508
▁expressions	-11.508
▁obligation	-11.508
images	-11.5084
}},	-11.5084
▁Rod	-11.5085
▁shower	-11.5085
▁traits	-11.5086
Items	-11.5086
Long	-11.5087
Vector	-11.5088
▁Economic	-11.509
▁retired	-11.509
▁termination	-11.5091
▁protocols	-11.5093
tat	-11.5093
RES	-11.5098
umble	-11.5099
▁Poly	-11.51
▁1.7	-11.5101
▁113	-11.5101
▁HE	-11.5105
}}$.	-11.5107
▁Notice	-11.5107
▁exec	-11.5109
▁inspection	-11.5111
bullet	-11.5113
▁handed	-11.5115
ske	-11.5117
▁tire	-11.5117
▁dispersion	-11.5117
norm	-11.5118
curr	-11.5118
▁deals	-11.5118
wy	-11.5119
1999	-11.512
iving	-11.5122
▁allegedly	-11.5124
CAP	-11.5125
▁2017,	-11.5125
▁relate	-11.5126
▁Nat	-11.5126
▁BP	-11.5126
agon	-11.5128
lower	-11.5128
▁panic	-11.5129
rp	-11.5131
▁aux	-11.5134
▁tries	-11.5136
▁fitted	-11.5137
{1}	-11.5138
▁await	-11.5138
fp	-11.514
▁encouraged	-11.5141
▁-15	-11.5143
zing	-11.5144
▁adhesion	-11.5145
▁coronary	-11.5146
▁cons	-11.5146
▁fragments	-11.5146
▁entertainment	-11.5146
▁hub	-11.5147
▁Res	-11.5148
900	-11.5148
rink	-11.5151
Util	-11.5151
▁===========	-11.5152
▁pulling	-11.5153
-09-0	-11.5154
▁math	-11.5156
cases	-11.5158
modules	-11.5158
random	-11.5158
▁joining	-11.5159
▁Rick	-11.516
▁warned	-11.516
decode	-11.5162
▁spots	-11.5163
SON	-11.5163
▁Tony	-11.5164
Ab	-11.5164
gue	-11.5164
1](#	-11.5165
3.6	-11.5166
▁DS	-11.5169
ML	-11.517
tics	-11.517
▁exclusion	-11.5171
=$	-11.5173
▁fond	-11.5178
▁Anne	-11.5179
:=	-11.5179
▁deemed	-11.5181
▁118	-11.5181
Parameters	-11.5183
▁dressed	-11.5186
▁Select	-11.5187
▁Pop	-11.5189
▁combinations	-11.519
▁Howard	-11.519
wal	-11.519
▁bow	-11.519
OO	-11.5191
WR	-11.5193
ieve	-11.5193
▁fantastic	-11.5194
mut	-11.5195
2:	-11.5196
ush	-11.5196
▁Garden	-11.5196
▁goto	-11.5197
Select	-11.5199
▁threats	-11.5202
▁$1$	-11.5203
▁exploit	-11.5204
▁touched	-11.5204
iser	-11.5205
shell	-11.5205
▁localization	-11.5205
AMP	-11.5208
190	-11.5209
▁trait	-11.521
▁establishing	-11.5211
olic	-11.5211
▁Cast	-11.5212
▁chill	-11.5212
▁CB	-11.5212
▁IC	-11.5212
▁rape	-11.5213
▁nucleus	-11.5214
-40	-11.5214
15]	-11.5215
cade	-11.5216
▁belongs	-11.5216
▁Need	-11.5217
crit	-11.5218
▁comparisons	-11.522
▁incredible	-11.5221
▁enemies	-11.5221
wire	-11.5223
▁Senator	-11.5224
▁hypertension	-11.5224
▁255	-11.5224
▁checks	-11.5225
]}	-11.5226
▁spinal	-11.5229
▁Alabama	-11.523
▁nous	-11.5231
▁analytic	-11.5232
▁Building	-11.5233
▁attacked	-11.5234
borne	-11.5234
-08-	-11.5235
itation	-11.5236
▁Feb	-11.5238
▁neo	-11.524
Phys	-11.5241
▁persistent	-11.5241
▁promoting	-11.5243
third	-11.5243
▁Beck	-11.5244
▁shore	-11.5245
short	-11.5246
tw	-11.5248
**************	-11.5248
▁toxicity	-11.5249
▁shame	-11.525
▁Defense	-11.525
Am	-11.525
!!!	-11.5251
▁disappear	-11.5252
▁editing	-11.5253
▁favour	-11.5254
nas	-11.5254
Current	-11.5254
4%)	-11.5255
▁secretary	-11.5256
idae	-11.5257
WA	-11.5257
▁Hollywood	-11.5258
▁subgroup	-11.5258
dale	-11.5259
/0	-11.5259
▁funded	-11.5263
▁viewing	-11.5264
▁Treatment	-11.5267
▁Championship	-11.5269
-3-	-11.5269
▁enforce	-11.527
▁Tar	-11.5272
▁birthday	-11.5273
▁Burn	-11.5276
▁lucky	-11.5277
▁historic	-11.5277
wen	-11.5278
stan	-11.5279
▁entities	-11.5281
▁Gas	-11.5284
▁landing	-11.5285
▁Ye	-11.5285
▁amendment	-11.5286
7]	-11.5287
▁animation	-11.5289
▁WITHOUT	-11.529
{0}	-11.5291
▁Kelly	-11.5292
Good	-11.5293
▁antenna	-11.5294
▁Indiana	-11.5296
ages	-11.5297
▁silicon	-11.5299
▁physicians	-11.5299
▁HO	-11.5301
▁demographic	-11.5308
▁kg	-11.5309
esi	-11.5311
Store	-11.5312
area	-11.5312
8}	-11.5313
nte	-11.5314
▁WITH	-11.5314
category	-11.5316
▁uni	-11.5317
alis	-11.5317
▁hired	-11.5317
super	-11.5318
▁symbols	-11.5319
}_1	-11.5322
cam	-11.5323
▁4:	-11.5323
iling	-11.5325
pmatrix	-11.5326
▁buried	-11.5327
:18	-11.5329
▁commands	-11.5335
▁mathematical	-11.5336
nit	-11.5336
▁mol	-11.5338
117	-11.534
▁Disease	-11.534
ej	-11.5341
0.000	-11.5341
enter	-11.5342
▁stating	-11.5342
▁Dev	-11.5343
▁affidavit	-11.5343
106	-11.5344
▁[...]	-11.5344
dig	-11.5345
▁behavioral	-11.5346
▁SF	-11.5346
▁python	-11.5348
Bean	-11.5348
▁Maria	-11.5349
▁envelope	-11.5349
▁radi	-11.5351
3.4	-11.5351
(__	-11.5351
eon	-11.5351
▁distances	-11.5355
▁Materials	-11.5355
▁hetero	-11.5356
clk	-11.5356
NF	-11.5357
="../	-11.5357
▁rolling	-11.5358
▁recurrence	-11.536
SYS	-11.5361
▁retained	-11.5361
▁ET	-11.5361
wp	-11.5362
▁shots	-11.5364
▁Site	-11.5366
▁11*	-11.5366
▁este	-11.5367
eria	-11.5369
▁settle	-11.537
Storage	-11.5371
none	-11.5371
idade	-11.5372
▁suppression	-11.5372
sar	-11.5374
rug	-11.5374
▁0}	-11.5376
ifi	-11.5377
▁wrap	-11.538
cons	-11.5382
▁RF	-11.5382
▁COURT	-11.5383
5.6	-11.5384
▁Invention	-11.5384
▁Band	-11.5386
▁rolled	-11.5386
▁flower	-11.5386
oso	-11.5386
▁WHERE	-11.5387
0$	-11.5388
▁scoring	-11.539
▁firing	-11.5391
▁investigations	-11.5392
▁poet	-11.5393
comm	-11.5394
ocytes	-11.5394
bla	-11.5395
files	-11.5396
};	-11.5396
▁actors	-11.5397
▁Single	-11.5398
▁circles	-11.5399
▁fits	-11.5399
rea	-11.54
▁postoperative	-11.5401
▁capability	-11.5402
▁roads	-11.5407
▁msg	-11.5407
▁nonlinear	-11.5409
▁Box	-11.5409
109	-11.541
abi	-11.5412
DEBUG	-11.5413
▁tendency	-11.5414
icht	-11.5414
▁MM	-11.5414
▁pri	-11.5416
▁weights	-11.5416
▁mold	-11.5417
▁Seven	-11.5422
4.8	-11.5422
▁archive	-11.5422
▁deletion	-11.5423
▁transient	-11.5425
rl	-11.5425
ith	-11.5425
▁respondent	-11.5427
school	-11.5428
▁incorporate	-11.5429
021	-11.5429
▁photon	-11.543
Living	-11.5431
▁Meta	-11.5431
▁tackle	-11.5431
PK	-11.5435
RN	-11.5437
tools	-11.5438
WORD	-11.5438
background	-11.5439
cond	-11.544
wer	-11.544
450	-11.5441
▁ABC	-11.5442
▁2008,	-11.5442
▁shifted	-11.5443
▁circuits	-11.5445
▁(6)	-11.5445
▁suggestion	-11.5446
rise	-11.5449
▁stimuli	-11.545
▁steep	-11.545
▁Patrick	-11.5452
Did	-11.5453
▁duplicate	-11.5454
5.5	-11.5454
Next	-11.5455
▁supporters	-11.5457
ival	-11.5457
▁Notes	-11.5457
aro	-11.5459
▁Property	-11.5462
▁XML	-11.5462
▁della	-11.5462
▁0.000	-11.5464
▁breaks	-11.5466
▁substitute	-11.5469
hap	-11.5471
▁constraint	-11.5473
das	-11.5474
▁displacement	-11.5474
▁10*	-11.5476
▁Forest	-11.5478
}}$,	-11.5479
▁CON	-11.548
▁comply	-11.548
▁abnormal	-11.5482
▁cart	-11.5483
▁Cro	-11.5484
morphic	-11.5485
▁sheets	-11.5485
uick	-11.5486
Bundle	-11.5487
▁>>>	-11.5487
▁+\	-11.549
TN	-11.5491
▁decomposition	-11.5491
▁basketball	-11.5491
▁blocking	-11.5493
019	-11.5493
TF	-11.5493
▁demonstrates	-11.5494
component	-11.5494
ACE	-11.5497
▁ti	-11.5498
agan	-11.5498
▁lesion	-11.55
▁tick	-11.55
▁challenged	-11.5501
2],[@	-11.5503
13]	-11.5503
wl	-11.5504
▁dying	-11.5504
▁acknowledged	-11.5505
▁continuously	-11.5505
▁800	-11.5506
▁Sar	-11.5506
▁BBC	-11.5507
▁{"	-11.5508
▁fuck	-11.5508
▁optional	-11.5508
fu	-11.5509
▁merit	-11.551
▁currency	-11.551
Thank	-11.551
▁convergence	-11.5511
Section	-11.5513
6.5	-11.5513
▁generalized	-11.5514
++;	-11.5514
▁Problem	-11.5515
have	-11.5518
[[	-11.5519
hbar	-11.552
▁Left	-11.5523
▁tweet	-11.5524
▁3.2	-11.5525
▁wore	-11.5526
▁Between	-11.5526
▁Short	-11.5527
AGE	-11.5528
▁Ros	-11.5528
▁speaker	-11.5528
▁mov	-11.5529
▁json	-11.5533
▁breathing	-11.5534
▁Kra	-11.5534
▁empirical	-11.5535
▁Tre	-11.5535
Def	-11.5536
rah	-11.5538
three	-11.5538
enberg	-11.5539
Pool	-11.5539
▁Nations	-11.5539
spin	-11.554
▁Mod	-11.5542
rom	-11.5544
▁Yo	-11.5545
▁prescription	-11.5546
▁Level	-11.5547
3;	-11.5548
/12	-11.5549
▁stake	-11.555
req	-11.5551
▁sam	-11.5552
▁Disney	-11.5553
uli	-11.5554
▁acquire	-11.5554
▁fishing	-11.5555
7%)	-11.5557
pine	-11.5558
▁pile	-11.5559
▁inhibited	-11.5562
plus	-11.5562
/20	-11.5567
eter	-11.5569
▁dim	-11.5569
12]	-11.5569
▁Moon	-11.5571
handler	-11.5571
▁palm	-11.5571
▁accomplish	-11.5572
crea	-11.5572
▁Currently	-11.5572
▁187	-11.5574
▁climb	-11.5575
plant	-11.5576
▁Digital	-11.5576
som	-11.558
elo	-11.5581
▁Player	-11.5581
▁Chen	-11.5583
▁Everything	-11.5583
▁Gor	-11.5583
▁transmit	-11.5584
DV	-11.5585
▁Motion	-11.5586
▁navigation	-11.5587
▁Systems	-11.5587
uto	-11.5587
▁sink	-11.5588
▁pink	-11.5588
▁golf	-11.5591
ogenesis	-11.5593
▁spark	-11.5593
7.1	-11.5596
ying	-11.5596
▁volumes	-11.5598
cycl	-11.5599
▁brilliant	-11.56
▁Cells	-11.5601
▁ya	-11.5601
Binding	-11.5601
nc	-11.5602
▁royal	-11.5603
▁venture	-11.5604
▁randomized	-11.5605
1]).	-11.5605
004){	-11.5606
pkg	-11.5606
▁retail	-11.5607
phys	-11.5608
▁oxidative	-11.561
▁$10	-11.5612
ulating	-11.5612
▁inspiration	-11.5612
0,0	-11.5613
▁wet	-11.5616
▁democracy	-11.5617
▁117	-11.5618
▁signing	-11.5619
▁conserved	-11.5619
insert	-11.562
▁Scientific	-11.562
▁lands	-11.5621
▁unexpected	-11.5623
▁departure	-11.5624
▁1%	-11.5625
iu	-11.5626
ress	-11.563
(1-\	-11.563
▁yeast	-11.563
▁innocent	-11.563
▁virtue	-11.563
▁invest	-11.5631
eral	-11.5632
▁Diego	-11.5632
▁swing	-11.5633
▁Color	-11.5633
▁fulfill	-11.5633
▁pub	-11.5634
▁tent	-11.5634
▁Student	-11.5635
▁resistant	-11.5635
▁viruses	-11.5636
▁behaviors	-11.5637
▁Pl	-11.5639
▁mandate	-11.5641
▁coll	-11.5644
▁litigation	-11.5644
east	-11.5644
done	-11.5647
uke	-11.5647
▁Modern	-11.5649
▁explored	-11.5651
inate	-11.5651
UTF	-11.5651
▁185	-11.5651
avor	-11.5654
▁gathering	-11.5655
▁Doc	-11.5659
uo	-11.566
▁-0.2	-11.5661
▁primer	-11.5661
▁Kansas	-11.5665
▁grip	-11.5668
▁Square	-11.5668
ONE	-11.5669
▁dreams	-11.567
▁premium	-11.5672
SK	-11.5672
14]	-11.5672
▁===============	-11.5673
5.4	-11.5674
▁baseball	-11.5675
▁retirement	-11.5676
5]).	-11.5679
▁np	-11.5679
▁stared	-11.568
▁advised	-11.5681
▁forgotten	-11.5683
▁Saudi	-11.5683
fat	-11.5685
▁homo	-11.5685
▁highway	-11.5686
exe	-11.569
▁0.001)	-11.5691
Core	-11.5691
*(-2	-11.5691
▁elastic	-11.5691
▁-16	-11.5693
▁NR	-11.5696
▁compartment	-11.5696
▁Self	-11.5698
nl	-11.57
Non	-11.57
very	-11.57
▁isolates	-11.5702
sse	-11.5702
▁1977	-11.5702
▁Spec	-11.5704
▁Remember	-11.5705
forall	-11.5705
icing	-11.5706
▁Job	-11.5708
▁Row	-11.5708
utf	-11.5711
Null	-11.5711
▁forty	-11.5714
also	-11.5715
▁sustain	-11.5716
quire	-11.5718
Ta	-11.5719
022	-11.572
▁worship	-11.572
rail	-11.5722
10-	-11.5727
▁skip	-11.5728
▁realistic	-11.5728
2002	-11.573
bon	-11.5733
▁Bear	-11.5734
▁ALL	-11.5734
▁claiming	-11.5735
▁Sil	-11.5735
▁induces	-11.574
▁controversial	-11.5741
){#	-11.5743
icular	-11.5743
▁tooth	-11.5744
▁entropy	-11.5744
▁cookies	-11.5745
126	-11.5745
▁upload	-11.5746
▁Collection	-11.5749
▁Organization	-11.5751
▁2\	-11.5752
▁consciousness	-11.5753
▁unnecessary	-11.5755
2+	-11.5755
▁Editor	-11.5756
▁Neither	-11.5756
▁Shar	-11.5757
▁modifications	-11.5759
▁objection	-11.576
tex	-11.5761
pgen	-11.5761
▁bonus	-11.5762
▁modulation	-11.5762
▁Condition	-11.5764
▁McG	-11.5764
heim	-11.5764
▁acceptance	-11.5765
▁hosts	-11.5766
▁Roll	-11.5766
augh	-11.5767
▁triple	-11.5768
radi	-11.5771
Activity	-11.5772
▁BMI	-11.5773
(1+	-11.5773
▁demon	-11.5774
▁Wal	-11.5775
▁canonical	-11.5775
▁Protein	-11.5775
skip	-11.5776
Your	-11.5779
▁hormone	-11.578
▁Sol	-11.578
tico	-11.578
▁spine	-11.5781
nor	-11.5782
lop	-11.5784
▁agenda	-11.5784
dio	-11.5784
▁faculty	-11.5786
▁pie	-11.5787
TY	-11.5787
lap	-11.5787
ologies	-11.5788
▁electrons	-11.5793
▁faint	-11.5793
▁simulated	-11.5793
▁dominated	-11.5796
aja	-11.5796
▁Off	-11.5796
▁Yeah	-11.5798
cel	-11.5798
\^[	-11.5798
▁Bru	-11.5799
▁expectation	-11.5799
▁gesture	-11.5799
▁notification	-11.5799
▁upward	-11.5801
▁Eli	-11.5801
println	-11.5802
igo	-11.5802
▁Wales	-11.5803
▁eastern	-11.5803
▁stamp	-11.5805
▁tends	-11.5807
;&	-11.5809
▁bleeding	-11.581
▁representations	-11.5811
▁flour	-11.5811
▁Block	-11.5812
dies	-11.5813
journal	-11.5814
▁Credit	-11.5814
▁inte	-11.5816
oxid	-11.5818
-29	-11.5818
9.0	-11.5819
▁Ok	-11.582
▁TE	-11.582
inflammatory	-11.5824
aws	-11.5825
▁triangle	-11.5825
cular	-11.5826
party	-11.5826
fect	-11.5826
▁bump	-11.5827
delete	-11.5828
▁fool	-11.583
thing	-11.583
unsigned	-11.5833
▁Fall	-11.5833
lea	-11.5833
▁Culture	-11.5835
▁Never	-11.5835
▁Golden	-11.5836
iate	-11.5839
▁definitions	-11.5839
astro	-11.584
exc	-11.5841
-22	-11.5842
▁preserved	-11.5843
BT	-11.5843
▁Lar	-11.5843
voir	-11.5845
▁Labor	-11.5845
tf	-11.5847
11]	-11.5848
▁purified	-11.5849
▁crown	-11.585
3/2	-11.585
▁mac	-11.585
▁terror	-11.585
▁Walker	-11.5852
motion	-11.5852
▁drives	-11.5852
aged	-11.5852
aya	-11.5853
▁Las	-11.5853
▁offices	-11.5857
SB	-11.5857
)(2)	-11.5857
▁2007,	-11.5857
▁Maryland	-11.5858
▁flesh	-11.586
▁interfere	-11.586
18]	-11.586
_0(	-11.586
▁Season	-11.5863
▁emissions	-11.5863
▁calendar	-11.5865
ingly	-11.5865
thio	-11.5865
▁pixels	-11.5865
▁ye	-11.5865
▁bell	-11.5865
PIN	-11.5866
MG	-11.5866
231	-11.5868
▁Iowa	-11.5871
gia	-11.5873
Make	-11.5877
cial	-11.5878
sley	-11.5878
▁behave	-11.5878
▁Nazi	-11.5878
▁GH	-11.588
▁Net	-11.5887
eek	-11.5889
▁diagonal	-11.5889
poli	-11.589
ota	-11.5891
▁alternate	-11.5891
IX	-11.5896
▁marginal	-11.5896
▁Wisconsin	-11.5898
ionic	-11.5899
hir	-11.59
▁graphs	-11.59
▁Custom	-11.59
▁chromosome	-11.5901
▁slice	-11.5902
zel	-11.5903
Sch	-11.5903
▁distinguished	-11.5904
▁****	-11.5904
Civ	-11.5905
▁vibration	-11.5905
dag	-11.5907
prefix	-11.5907
ipping	-11.5909
▁sentences	-11.591
OUR	-11.591
▁flood	-11.5911
16)	-11.5913
▁Morgan	-11.5915
▁configured	-11.5915
▁127	-11.5915
▁Oregon	-11.5916
▁Albert	-11.5916
▁Bow	-11.5917
dor	-11.5917
▁timely	-11.5918
▁backup	-11.5921
PN	-11.5921
▁LE	-11.5922
ede	-11.5924
▁dollar	-11.5925
▁officially	-11.5925
tx	-11.5925
ibly	-11.5926
▁decent	-11.5927
GH	-11.5927
▁Foreign	-11.5928
▁129	-11.5928
Note	-11.5928
Rect	-11.5929
▁insertion	-11.5933
▁WARRANTIES	-11.5933
CAT	-11.5936
▁consistency	-11.594
▁welfare	-11.594
▁collision	-11.5941
_2(	-11.5943
inject	-11.5943
▁fitness	-11.5945
▁IF	-11.5945
▁disappeared	-11.5949
▁painful	-11.5949
▁ruin	-11.5949
▁Cooper	-11.5951
▁nail	-11.5951
Dictionary	-11.5951
▁mountains	-11.5951
▁Eu	-11.5952
▁Dun	-11.5953
▁puts	-11.5956
_+	-11.5957
▁Football	-11.5957
=3	-11.5957
large	-11.5959
acetyl	-11.596
▁wooden	-11.596
▁Py	-11.5963
phor	-11.5964
▁Fourth	-11.5964
▁franchise	-11.5965
▁Neuro	-11.5966
Foo	-11.5968
por	-11.597
lc	-11.597
gathered	-11.5972
▁Tur	-11.5973
btn	-11.5974
▁governments	-11.5974
eclipse	-11.5976
480	-11.5976
▁Records	-11.5979
▁shipping	-11.5981
▁tags	-11.5981
▁socket	-11.5981
▁participating	-11.5983
▁Arthur	-11.5987
▁hung	-11.5987
▁packed	-11.5988
Callback	-11.5994
▁floating	-11.5995
▁endpoint	-11.5996
▁4.5	-11.5996
ifdef	-11.5997
ische	-11.5997
▁chunk	-11.5999
▁Survey	-11.6001
▁Pra	-11.6001
standing	-11.6001
▁regret	-11.6002
assertEqual	-11.6002
▁quoted	-11.6003
_5	-11.6004
▁substitution	-11.6004
▁traveling	-11.6005
ume	-11.6006
▁websites	-11.6006
▁quant	-11.6008
Edit	-11.6009
FB	-11.601
▁stimulus	-11.6015
7],[@	-11.6015
▁sudo	-11.6016
▁upcoming	-11.6016
▁Say	-11.6017
rup	-11.6017
rock	-11.6017
▁ethnic	-11.6018
VER	-11.6019
▁morphology	-11.6019
▁poorly	-11.6022
5$	-11.6025
▁routes	-11.6025
▁sm	-11.6027
logical	-11.6028
)^{\	-11.6028
▁incubation	-11.6028
▁Labour	-11.6029
▁hire	-11.603
▁Member	-11.603
▁electrodes	-11.6031
00000000	-11.6033
▁relied	-11.6033
rov	-11.6035
▁accommodate	-11.6036
▁celebrate	-11.6037
▁blade	-11.6038
trial	-11.6038
▁Everyone	-11.6039
▁riding	-11.6041
▁ext	-11.6042
ories	-11.6043
▁Bat	-11.6044
▁dietary	-11.6047
▁Him	-11.6048
14-	-11.6049
ridge	-11.6049
▁Something	-11.6052
▁CE	-11.6053
▁ranking	-11.6053
▁Release	-11.6057
After	-11.6057
▁Dave	-11.606
▁Tech	-11.606
▁promoted	-11.6062
▁peptides	-11.6062
▁sus	-11.6062
▁hab	-11.6064
unc	-11.6066
▁1974	-11.6066
fix	-11.6067
coming	-11.6068
enc	-11.6068
▁xmlns	-11.6069
▁mining	-11.6072
onder	-11.6072
▁sobre	-11.6072
CY	-11.6074
▁invasive	-11.6075
▁bla	-11.6075
drop	-11.6076
posing	-11.6079
▁dig	-11.608
lain	-11.608
9]	-11.6081
NK	-11.6081
DN	-11.6082
rude	-11.6084
rance	-11.6085
▁Hope	-11.6085
375	-11.6086
)}{\	-11.6089
▁conflicts	-11.609
password	-11.6091
▁ceiling	-11.6094
Mask	-11.6094
509	-11.6094
▁emerge	-11.6095
▁donor	-11.6095
▁conscious	-11.6096
▁HTTP	-11.6097
▁gently	-11.6098
▁119	-11.6099
$]{}	-11.6101
▁plots	-11.6102
8.1	-11.6104
386	-11.6106
lands	-11.6106
▁IgG	-11.6106
▁prostate	-11.6107
RX	-11.6108
▁straightforward	-11.6112
▁positively	-11.6113
▁Command	-11.6114
apa	-11.6115
▁genotype	-11.6115
pub	-11.6116
▁Fred	-11.6116
▁sing	-11.6117
▁ions	-11.6119
▁hero	-11.6119
▁Kat	-11.6119
nz	-11.6119
iller	-11.612
▁occupation	-11.612
▁asthma	-11.6124
san	-11.6125
▁ke	-11.6125
_2,	-11.6126
▁coin	-11.6126
fused	-11.6126
displaystyle	-11.6127
RL	-11.6128
▁avec	-11.613
CHAR	-11.6131
Ka	-11.6132
9],[@	-11.6135
▁actively	-11.6135
arity	-11.6136
▁Missouri	-11.6137
Our	-11.6138
▁indicator	-11.6138
▁constructor	-11.6139
▁protecting	-11.614
▁syntax	-11.6141
199	-11.6142
typename	-11.6142
TOR	-11.6143
▁fleet	-11.6143
▁prescribed	-11.6144
12,	-11.6145
ssa	-11.6145
IAL	-11.6146
mix	-11.6146
▁Met	-11.6147
▁Sanders	-11.6147
▁Print	-11.6148
170	-11.6149
TAG	-11.615
chu	-11.6151
▁bounds	-11.6152
erson	-11.6152
;">	-11.6154
▁Gil	-11.6158
▁EV	-11.616
ector	-11.616
ologists	-11.616
Argument	-11.6161
*/	-11.6161
▁everyday	-11.6162
▁relaxation	-11.6167
▁suck	-11.6168
glu	-11.6168
▁stat	-11.6168
▁Mix	-11.617
▁intact	-11.6171
▁OP	-11.6171
▁submission	-11.6171
▁Personal	-11.6172
▁restaurants	-11.6174
▁Mini	-11.6174
onia	-11.6174
poly	-11.6175
(){	-11.6175
▁gather	-11.6177
9%)	-11.6178
▁lid	-11.6182
:15	-11.6182
▁horizon	-11.6183
▁cancel	-11.6185
▁receives	-11.6185
▁spike	-11.6186
▁volunteer	-11.6186
▁Hot	-11.6188
printf	-11.6189
▁inhibit	-11.619
▁Gre	-11.619
expression	-11.6191
▁Walter	-11.6192
▁subtle	-11.6192
▁LLC	-11.6193
▁handled	-11.6194
▁GA	-11.6194
▁135	-11.6196
▁infant	-11.6197
mper	-11.6198
▁passive	-11.62
Parse	-11.62
enable	-11.6201
▁staying	-11.6201
containing	-11.6204
▁1973	-11.6205
▁reception	-11.6205
▁rings	-11.6205
▁disposed	-11.6205
▁Victoria	-11.6205
ller	-11.6208
▁intelligent	-11.6209
▁Guard	-11.6209
Use	-11.6209
fen	-11.6212
▁doc	-11.6217
kal	-11.6219
road	-11.6219
▁pride	-11.6221
▁mutual	-11.6222
▁“[	-11.6223
ered	-11.6223
▁complaints	-11.6224
▁placing	-11.6224
bd	-11.6225
6.7	-11.6225
▁privilege	-11.6227
iga	-11.6227
▁rap	-11.6227
▁wrapped	-11.6228
resource	-11.6229
cker	-11.623
▁Lin	-11.6231
▁Silver	-11.6232
utta	-11.6232
▁1/3	-11.6233
Com	-11.6233
▁placebo	-11.6234
4],[@	-11.6235
▁steal	-11.6236
omi	-11.6236
▁Executive	-11.6242
▁Lincoln	-11.6242
KA	-11.6242
azione	-11.6242
133	-11.6246
▁farmers	-11.6248
mapsto	-11.625
▁Hamilton	-11.6251
▁seeks	-11.6252
isse	-11.6252
kes	-11.6252
▁featuring	-11.6253
▁pros	-11.6253
▁Kennedy	-11.6253
▁exam	-11.6254
▁demonstration	-11.6254
▁[4](#	-11.6254
nine	-11.6254
zip	-11.6256
▁conform	-11.6257
▁CNN	-11.6257
▁detecting	-11.6258
Star	-11.6259
3>	-11.626
nder	-11.6261
Reg	-11.6261
mir	-11.6262
Solution	-11.6262
▁CSS	-11.6264
▁organize	-11.6265
▁ku	-11.6266
hover	-11.6267
6],[@	-11.6268
▁[3	-11.6269
▁raid	-11.6269
119	-11.6269
▁lacking	-11.627
lant	-11.6271
▁sich	-11.6272
▁Oil	-11.6273
bits	-11.6273
)(1)	-11.6274
▁engines	-11.6274
▁Senior	-11.6275
▁considerably	-11.6275
Selected	-11.6276
RU	-11.6276
▁iOS	-11.6277
▁investigating	-11.6279
▁Fer	-11.6281
▁commander	-11.6281
▁minority	-11.6281
▁reasoning	-11.6282
▁chemo	-11.6282
▁upset	-11.6283
▁cups	-11.6283
▁initiated	-11.6284
Member	-11.6285
▁Rich	-11.6285
▁predictive	-11.6285
▁wanting	-11.6287
Main	-11.6288
▁basal	-11.6288
▁explaining	-11.6289
ws	-11.6289
▁Remove	-11.6292
agg	-11.6293
ande	-11.6294
iza	-11.6297
▁noble	-11.6297
eren	-11.6299
deg	-11.63
bool	-11.6302
▁proton	-11.6302
=0,	-11.6302
fast	-11.6302
▁datasets	-11.6303
▁Greg	-11.6304
▁revision	-11.6305
▁distribute	-11.6305
▁valley	-11.6307
ject	-11.6307
▁applicant	-11.6308
▁labour	-11.6308
<<	-11.6309
▁debug	-11.631
115	-11.6314
▁pla	-11.6314
▁extraordinary	-11.6315
▁leap	-11.6315
dam	-11.6319
▁priest	-11.6322
▁guilt	-11.6322
▁bud	-11.6322
▁LED	-11.6323
▁Appendix	-11.6323
udge	-11.6324
▁expertise	-11.6324
aca	-11.6324
▁Drug	-11.6327
job	-11.6328
ody	-11.6331
Bytes	-11.6333
▁shapes	-11.6334
▁monster	-11.6335
design	-11.6336
tran	-11.6338
forming	-11.634
▁quark	-11.634
▁relies	-11.6341
ITY	-11.6341
▁corrected	-11.6341
cont	-11.6342
nam	-11.6342
▁Returns	-11.6342
▁$${\	-11.6343
come	-11.6344
Child	-11.6344
127	-11.6345
▁rush	-11.6345
▁replacing	-11.6348
▁possibilities	-11.6348
116	-11.635
135	-11.635
▁login	-11.6351
▁ethical	-11.6357
30]	-11.6357
▁downstream	-11.6358
half	-11.6359
▁phenomena	-11.6359
omo	-11.6359
▁Recent	-11.6362
▁myth	-11.6362
▁Much	-11.6363
nil	-11.6365
▁localized	-11.6366
echo	-11.6368
192	-11.6368
osh	-11.6368
▁merge	-11.6371
197	-11.6372
particle	-11.6373
lla	-11.6374
2.9	-11.6374
video	-11.6374
▁collagen	-11.6374
▁ms	-11.6374
▁tout	-11.6374
▁geo	-11.6375
selected	-11.6376
BF	-11.6378
▁translated	-11.6378
ologist	-11.6378
cop	-11.638
666	-11.638
▁glance	-11.638
),$$	-11.6382
TB	-11.6382
▁snap	-11.6385
▁printer	-11.6386
▁membranes	-11.6386
Di	-11.6388
▁operational	-11.6392
▁tobacco	-11.6393
▁initiative	-11.6394
agged	-11.6394
different	-11.6395
▁managers	-11.6396
▁manufacture	-11.6396
▁profound	-11.6398
▁chances	-11.6398
endo	-11.6398
lite	-11.6398
))/(	-11.6398
▁outbreak	-11.6399
diff	-11.6401
▁counting	-11.6401
Obj	-11.6401
▁vor	-11.6402
▁Barr	-11.6403
▁grasp	-11.6404
7.0	-11.6404
▁Appeal	-11.6406
too	-11.6406
▁1972	-11.6411
▁contributing	-11.6411
▁accordingly	-11.6413
phage	-11.6413
Param	-11.6413
▁representatives	-11.6415
▁dir	-11.6416
▁ranges	-11.6416
▁cameras	-11.6418
\|\	-11.642
▁Mis	-11.6421
▁Manager	-11.6423
Body	-11.6424
▁respondents	-11.6425
▁characterize	-11.6425
▁(20	-11.6426
▁dated	-11.6426
▁suppressed	-11.643
▁defence	-11.643
PF	-11.6432
ended	-11.6432
▁alt	-11.6432
1,2	-11.6432
▁cheer	-11.6433
tha	-11.6433
▁macrophages	-11.6433
▁engaging	-11.6433
▁Steel	-11.6435
▁ci	-11.6436
▁Account	-11.6437
▁impaired	-11.6437
▁bl	-11.6438
▁FL	-11.6439
▁sleeping	-11.6439
▁minds	-11.6439
alia	-11.644
Host	-11.6443
^2}{	-11.6443
MODE	-11.6444
chemical	-11.6445
▁retrospective	-11.6446
▁ghost	-11.6447
▁nuclei	-11.6449
155	-11.645
science	-11.6454
▁passenger	-11.6454
▁pleasant	-11.6456
ils	-11.6459
FU	-11.6461
▁Tag	-11.6461
16-	-11.6462
▁fracture	-11.6462
▁Brand	-11.6464
▁Visual	-11.6464
ensis	-11.6465
suppl	-11.6465
linked	-11.6466
▁modest	-11.6467
0.03	-11.6467
TEST	-11.6468
rill	-11.6468
Return	-11.6469
nde	-11.6472
kat	-11.6473
▁theater	-11.6473
border	-11.6474
▁spite	-11.6474
▁legend	-11.6476
shot	-11.6478
▁flows	-11.648
147	-11.6481
▁Sel	-11.6482
6.0	-11.6485
▁Commonwealth	-11.6485
▁mutants	-11.6485
;</	-11.6486
Invalid	-11.6487
32(	-11.6488
▁affinity	-11.6489
▁NEW	-11.6489
▁Official	-11.6489
▁smartphone	-11.649
translation	-11.649
▁permissions	-11.649
▁sensation	-11.649
▁filters	-11.6491
Space	-11.6491
▁pur	-11.6491
254	-11.6491
prov	-11.6493
0.04	-11.6496
▁singular	-11.6497
▁liable	-11.65
▁neighbors	-11.6504
▁12-	-11.6507
Func	-11.6508
▁struggling	-11.6508
▁nursing	-11.6508
▁carries	-11.6508
2]).	-11.6508
ulate	-11.6509
350	-11.651
▁figured	-11.6511
odot	-11.6512
▁SL	-11.6512
▁connector	-11.6513
▁spare	-11.6514
▁Sn	-11.6515
Ser	-11.6515
--------------	-11.6516
▁necessity	-11.6516
ott	-11.6518
▁halt	-11.6518
▁infants	-11.6518
▁Sy	-11.6519
▁Previous	-11.6521
BASE	-11.6522
PRO	-11.6522
▁env	-11.6525
Unknown	-11.6527
▁orbital	-11.6527
HH	-11.6528
1(	-11.6528
▁appearing	-11.6529
▁humor	-11.653
▁evaluating	-11.653
▁reserve	-11.653
Definition	-11.6531
iest	-11.6532
▁elite	-11.6533
WD	-11.6533
▁-0.3	-11.6533
dz	-11.6535
▁sentiment	-11.6535
Rule	-11.6537
OA	-11.6537
▁phones	-11.6537
▁Double	-11.6538
2],	-11.6539
▁clue	-11.654
▁citizen	-11.6542
▁flexibility	-11.6542
▁mesh	-11.6543
▁sixth	-11.6544
▁prayer	-11.6545
Identifier	-11.6545
5.7	-11.6546
Flags	-11.6546
▁sacrifice	-11.6547
19]	-11.6548
▁organs	-11.6549
Users	-11.6552
▁Publication	-11.6552
▁cooperation	-11.6554
▁dimensional	-11.6555
▁PRO	-11.6556
▁surgeon	-11.6556
))$	-11.6558
▁presenting	-11.6563
Adapter	-11.6563
▁genus	-11.6564
▁Procedure	-11.6564
culture	-11.6566
▁bones	-11.6566
python	-11.6567
▁demanded	-11.6567
▁scenarios	-11.6567
▁Equation	-11.6568
▁1);	-11.6569
lex	-11.6571
384	-11.6572
Feature	-11.6572
kle	-11.6572
▁124	-11.6573
▁vegetables	-11.6574
▁Dead	-11.6575
OB	-11.6575
▁workshop	-11.6575
▁magnet	-11.6576
▁slave	-11.6578
▁importantly	-11.6578
▁convenience	-11.6579
235	-11.658
550	-11.6584
MIC	-11.6586
trace	-11.6586
▁occasions	-11.6587
▁Tennessee	-11.6587
NULL	-11.6589
▁crop	-11.6589
▁logo	-11.659
avan	-11.6591
▁fetch	-11.6592
▁mediated	-11.6594
▁deposit	-11.6594
Sh	-11.6597
arily	-11.6598
▁bags	-11.6599
aine	-11.6599
▁delegate	-11.6599
▁Process	-11.6599
]:	-11.66
bie	-11.6605
▁jar	-11.6606
▁courage	-11.6606
▁Miami	-11.6606
▁cousin	-11.6607
▁grace	-11.6608
iger	-11.6608
▁halo	-11.6609
▁writ	-11.6609
▁Books	-11.661
Directory	-11.6612
▁Channel	-11.6614
vat	-11.6614
▁Message	-11.6616
▁automated	-11.6617
▁analysed	-11.6618
▁Kir	-11.6618
▁1.9	-11.6619
ebra	-11.6622
mie	-11.6623
Panel	-11.6623
▁LD	-11.6624
AST	-11.6625
eux	-11.6626
▁resemble	-11.6628
▁Bureau	-11.6629
▁abilities	-11.663
idine	-11.6631
▁JS	-11.6632
▁Est	-11.6632
▁motions	-11.6632
FM	-11.6636
▁abundant	-11.6636
................	-11.6637
|$	-11.664
▁inflation	-11.664
▁[1]	-11.6641
▁gland	-11.6641
ulp	-11.6642
lev	-11.6642
▁sentenced	-11.6643
3.7	-11.6643
8){	-11.6644
Integer	-11.6644
pens	-11.6647
▁vis	-11.6647
▁Douglas	-11.6647
▁Ry	-11.6649
▁charging	-11.6649
340	-11.6649
▁adoption	-11.6649
Day	-11.6649
▁sperm	-11.6649
▁controversy	-11.6651
▁bien	-11.6652
bach	-11.6653
▁explosion	-11.6655
Widget	-11.6655
itting	-11.6656
▁titles	-11.6659
▁122	-11.666
ously	-11.666
cot	-11.6661
▁exhaust	-11.6662
John	-11.6663
229	-11.6663
▁2014.	-11.6665
▁121	-11.6665
5]	-11.6666
▁Jason	-11.6666
▁90%	-11.6666
▁appellee	-11.6666
▁Awards	-11.6667
▁Insurance	-11.667
▁habitat	-11.6672
▁Arts	-11.6673
▁Anthony	-11.6674
▁indirect	-11.6678
algebra	-11.6681
▁emotion	-11.6681
Bit	-11.6684
▁0.25	-11.6687
▁transverse	-11.669
▁logistic	-11.669
▁neuronal	-11.6692
▁Tex	-11.6692
6.4	-11.6693
▁rifle	-11.6693
▁Seattle	-11.6693
11,	-11.6693
}_2	-11.6695
▁marry	-11.6695
▁prohibit	-11.6697
▁championship	-11.6697
▁platelet	-11.6698
iko	-11.6698
tam	-11.67
▁ligand	-11.67
▁prisoners	-11.6701
▁distal	-11.6703
▁journalist	-11.6704
▁Morris	-11.6706
Case	-11.6706
▁ordering	-11.6706
▁Cloud	-11.6707
-2.0	-11.6708
▁fri	-11.6708
▁SH	-11.6709
144	-11.671
JS	-11.671
▁cure	-11.671
▁olive	-11.6711
▁thinks	-11.6712
▁positioned	-11.6713
plugin	-11.6713
▁Kon	-11.6714
▁(15	-11.6716
▁generations	-11.6716
sheet	-11.6717
stock	-11.6717
▁affirmed	-11.6717
▁angles	-11.6718
ame	-11.672
rash	-11.672
4.4	-11.6721
GD	-11.6722
▁individually	-11.6723
▁ethanol	-11.6723
▁disadvantage	-11.6724
8.0	-11.6724
▁graphics	-11.6725
race	-11.6726
bridge	-11.6726
player	-11.6728
▁Ocean	-11.6731
obs	-11.6733
▁Singapore	-11.6735
jquery	-11.6736
▁imply	-11.6736
2020	-11.6737
▁JavaScript	-11.6738
Selection	-11.6739
▁Dallas	-11.6739
▁forecast	-11.6739
;\	-11.6742
▁vague	-11.6743
nne	-11.6745
regulation	-11.6745
▁Write	-11.6745
▁exc	-11.6746
▁2006,	-11.6746
▁amongst	-11.6747
▁0.07	-11.675
▁bp	-11.675
▁outline	-11.675
▁ram	-11.6751
SOC	-11.6751
angle	-11.6751
Ja	-11.6752
▁cam	-11.6752
Operation	-11.6753
FN	-11.6753
▁Mom	-11.6753
▁asset	-11.6753
buck	-11.6754
▁|\	-11.6755
▁exhibits	-11.6755
▁sens	-11.6756
▁arises	-11.6757
▁ROS	-11.676
uestion	-11.676
hara	-11.6761
16]	-11.6762
assa	-11.6762
Cr	-11.6763
uber	-11.6763
oct	-11.6765
▁purely	-11.6765
▁stopping	-11.6765
▁Respondent	-11.6766
▁precursor	-11.6766
177	-11.6767
empt	-11.6767
▁servers	-11.6772
▁wisdom	-11.6773
▁Afghanistan	-11.6773
▁INTO	-11.6775
32.	-11.6777
▁shifts	-11.678
▁gli	-11.678
ACC	-11.6781
▁bore	-11.6781
▁tickets	-11.6783
▁burned	-11.6783
▁courses	-11.6784
▁Adams	-11.6784
121	-11.6785
Ext	-11.6786
▁Knight	-11.6786
▁outstanding	-11.6786
lessly	-11.6787
hon	-11.6787
▁350	-11.6788
▁Language	-11.6788
cellular	-11.6789
mad	-11.679
▁AB	-11.6792
▁Berg	-11.6792
▁Bri	-11.6792
RAM	-11.6793
fields	-11.6793
FW	-11.6794
▁startup	-11.6795
iddle	-11.6797
tax	-11.6798
▁ATP	-11.6798
▁bills	-11.6798
▁ph	-11.6798
proc	-11.6799
▁euro	-11.68
})}	-11.68
▁safely	-11.6801
▁inhibitory	-11.6802
sequence	-11.6802
(7)	-11.6806
▁cyto	-11.6806
bg	-11.6807
▁gem	-11.6807
-1}\	-11.6808
▁Yan	-11.6808
ids	-11.681
1$	-11.681
duction	-11.6811
feature	-11.6812
▁RS	-11.6812
}}}(	-11.6812
▁counted	-11.6814
▁jag	-11.6814
▁inputs	-11.6815
▁Direct	-11.6817
145	-11.6817
heat	-11.6818
▁anonymous	-11.6819
Then	-11.6819
^{1/2}	-11.6819
▁photographs	-11.6819
▁Netherlands	-11.682
▁Email	-11.6823
8],[@	-11.6823
▁flip	-11.6824
▁drill	-11.6824
▁Mann	-11.6825
▁cytokines	-11.6825
UG	-11.6825
▁2017.	-11.6827
▁clubs	-11.6827
▁barrel	-11.6828
▁Hart	-11.6828
tum	-11.6829
▁["	-11.6832
247	-11.6832
▁Financial	-11.6835
▁lessons	-11.6836
▁Mars	-11.6837
iri	-11.6838
▁whilst	-11.6839
▁arguing	-11.6839
▁Secret	-11.6841
pho	-11.6841
▁searched	-11.6841
▁2016.	-11.6841
▁compensate	-11.6843
ways	-11.6845
▁dealer	-11.6845
▁Song	-11.6846
guide	-11.6847
▁causal	-11.6848
uka	-11.6851
▁accounting	-11.6853
▁30%	-11.6854
gor	-11.6854
▁appellate	-11.6854
▁pole	-11.686
uta	-11.6861
▁negligence	-11.6862
▁fluorescent	-11.6862
▁overwhelming	-11.6864
▁leather	-11.6864
mile	-11.6865
▁happiness	-11.6866
▁"<	-11.6866
▁varies	-11.6866
▁loans	-11.6868
▁reproduce	-11.6869
▁Bowl	-11.687
Close	-11.6871
▁honour	-11.6874
Err	-11.6875
▁Alice	-11.6876
▁1968	-11.6877
kra	-11.6877
igh	-11.6877
▁engineer	-11.6878
▁suspicion	-11.6878
rob	-11.6879
flag	-11.6879
▁microscope	-11.6879
pg	-11.6882
▁-6*	-11.6884
5.1	-11.6884
Gr	-11.6884
USE	-11.6885
▁(-1	-11.6886
sil	-11.6886
sson	-11.6887
apple	-11.6887
64_	-11.6889
▁22.	-11.6891
▁Cruz	-11.6892
▁consist	-11.6892
▁Country	-11.6893
▁Evaluate	-11.6893
)/((	-11.6895
▁80%	-11.6897
▁CV	-11.6897
jen	-11.6899
ovi	-11.6899
▁Euro	-11.69
▁therein	-11.69
2).	-11.6901
smallcaps	-11.6901
▁Plant	-11.6903
▁railway	-11.6903
▁broader	-11.6904
▁constants	-11.6905
▁compiler	-11.6908
▁encode	-11.6909
▁thoroughly	-11.6909
306	-11.691
PAGE	-11.6911
▁arts	-11.6913
▁Whit	-11.6913
holding	-11.6914
▁Graham	-11.6914
RED	-11.6915
Font	-11.6917
▁guaranteed	-11.6918
sburg	-11.6919
▁knees	-11.692
▁intensive	-11.692
toggle	-11.6921
reservation	-11.6923
▁$4	-11.6924
Cor	-11.6925
opping	-11.6925
iner	-11.6928
[0,	-11.6928
▁volunteers	-11.693
▁cave	-11.693
▁carriers	-11.6932
▁Theory	-11.6933
ution	-11.6933
▁Until	-11.6933
▁posting	-11.6934
(2,	-11.6934
Yeah	-11.6935
▁lighting	-11.6935
DG	-11.6936
▁Bol	-11.6937
chrom	-11.6939
LAN	-11.6941
▁SR	-11.6942
Free	-11.6942
▁honey	-11.6945
AY	-11.6946
▁highlighted	-11.6946
▁cloth	-11.6947
Changed	-11.6948
ahl	-11.6949
vascular	-11.6949
▁singing	-11.695
▁Winter	-11.6951
▁devoted	-11.6951
▁functioning	-11.6952
▁damn	-11.6952
Helper	-11.6952
▁126	-11.6953
ias	-11.6954
owned	-11.6954
▁McK	-11.6954
▁184	-11.6955
▁2.6	-11.6956
MEM	-11.6956
Product	-11.6957
▁generates	-11.6958
▁lawyers	-11.6959
rav	-11.696
▁painted	-11.696
▁allocation	-11.6966
MU	-11.6966
vic	-11.6968
chin	-11.6969
uest	-11.697
Te	-11.6971
▁freeze	-11.6971
Windows	-11.6971
▁dialogue	-11.6972
Experiment	-11.6973
NY	-11.6974
uer	-11.6974
▁rein	-11.6975
▁towns	-11.6975
▁HF	-11.6976
bell	-11.6979
activation	-11.6981
290	-11.6982
tier	-11.6986
held	-11.6987
Step	-11.6987
▁dismissal	-11.6988
safe	-11.6989
▁announce	-11.699
▁1969	-11.699
mming	-11.6991
▁hy	-11.6992
ndo	-11.6992
vier	-11.6992
▁prefix	-11.6995
▁Buck	-11.6995
▁Merc	-11.6995
▁adhere	-11.6997
▁remarks	-11.6997
▁determines	-11.6998
▁hum	-11.6998
▁curvature	-11.6999
124	-11.6999
▁Room	-11.7003
ksi	-11.7003
▁missile	-11.7004
------------	-11.7004
VP	-11.7004
▁Material	-11.7005
tru	-11.7006
191	-11.7008
▁permits	-11.7008
▁unfair	-11.7008
Cu	-11.7009
hex	-11.701
duce	-11.701
sync	-11.7012
▁Christians	-11.7012
think	-11.7012
False	-11.7012
▁dental	-11.7013
▁crypto	-11.7014
▁Rules	-11.7014
▁HP	-11.7015
CALL	-11.7016
▁susceptibility	-11.7019
▁substrates	-11.7019
▁densities	-11.7023
Har	-11.7023
immer	-11.7025
▁Austin	-11.7026
▁monitored	-11.7026
illi	-11.7027
corp	-11.7027
depth	-11.7028
4_	-11.7028
2---	-11.7029
▁Node	-11.703
▁antagonist	-11.703
▁throwing	-11.703
2);	-11.7031
3000	-11.7033
▁genre	-11.7033
Ver	-11.7033
^{{\	-11.7034
▁expanding	-11.7035
▁profits	-11.7036
▁stolen	-11.7036
▁hunting	-11.7037
▁agreements	-11.7038
▁Jun	-11.7039
▁attraction	-11.704
▁rack	-11.704
▁listener	-11.7043
▁Russell	-11.7043
▁Cas	-11.7043
▁verified	-11.7044
▁creature	-11.7044
▁lap	-11.7046
duc	-11.7046
▁cocaine	-11.7046
apping	-11.7049
ueue	-11.7049
▁grants	-11.7051
▁prolonged	-11.7053
gent	-11.7054
▁Help	-11.7054
▁encoded	-11.7054
▁21.	-11.7056
ature	-11.7057
▁Cut	-11.7057
^2(	-11.7057
hel	-11.7058
▁freely	-11.7058
▁Looking	-11.706
▁compromise	-11.7061
▁Trial	-11.7061
▁configurations	-11.7062
VERSION	-11.7066
Mr	-11.7066
citing	-11.7067
▁Franklin	-11.7068
▁lean	-11.7068
▁asserted	-11.707
▁Found	-11.707
▁edited	-11.7071
▁puzzle	-11.7072
standard	-11.7073
▁1/4	-11.7073
▁Alan	-11.7077
▁2015.	-11.7077
▁metastasis	-11.7078
sided	-11.7078
▁barriers	-11.7079
▁canvas	-11.708
▁fence	-11.708
▁Thompson	-11.7082
▁accord	-11.7082
▁AV	-11.7082
▁aging	-11.7083
▁tetra	-11.7083
physical	-11.7085
brand	-11.7085
▁Vietnam	-11.7085
▁stairs	-11.7086
▁strand	-11.7086
flat	-11.7089
720	-11.709
EVENT	-11.709
▁FM	-11.7091
▁mothers	-11.7092
▁Large	-11.7093
▁Pet	-11.7093
}}=	-11.7093
roy	-11.7095
items	-11.7095
▁Contact	-11.7095
▁parental	-11.7096
▁tort	-11.7097
▁residential	-11.7099
▁buf	-11.7099
gie	-11.71
▁1.00	-11.71
▁Moscow	-11.7102
▁Cover	-11.7102
6.6	-11.7103
▁Bull	-11.7103
▁torture	-11.7103
213	-11.7104
▁germ	-11.7104
fluoro	-11.7104
Life	-11.7104
217	-11.7104
▁Cost	-11.7108
NL	-11.7108
▁TOP	-11.7108
Ni	-11.7109
▁descending	-11.7109
Root	-11.7109
▁ED	-11.711
▁suite	-11.7111
)+\	-11.7113
general	-11.7115
hit	-11.7115
oku	-11.7116
UB	-11.7119
5.8	-11.712
DW	-11.7121
stick	-11.7121
▁defeated	-11.7122
▁solving	-11.7122
▁tan	-11.7122
cn	-11.7122
▁TM	-11.7124
▁methodology	-11.7124
▁pound	-11.7124
▁TF	-11.7125
▁races	-11.7125
▁extracellular	-11.7126
lute	-11.7128
▁Hell	-11.7129
▁bis	-11.7133
hop	-11.7133
▁lobby	-11.7135
▁hitting	-11.7135
▁brick	-11.7135
ades	-11.7136
viruses	-11.7136
▁drops	-11.7136
network	-11.7136
▁marine	-11.7139
cie	-11.714
▁extern	-11.714
▁quietly	-11.714
▁conducting	-11.7142
circle	-11.7144
11-	-11.7144
^{(1)}	-11.7145
▁Response	-11.7145
6]	-11.7145
▁Expression	-11.7145
▁additive	-11.7146
▁bent	-11.7147
▁prospect	-11.7148
▁2013.	-11.7149
▁Comparison	-11.715
▁Ontario	-11.7153
▁TS	-11.7154
\!\	-11.7155
break	-11.7156
▁Poland	-11.7156
▁Gram	-11.7157
▁pose	-11.7158
129	-11.716
▁132	-11.716
▁violations	-11.716
▁undefined	-11.7161
Async	-11.7161
▁hack	-11.7162
stin	-11.7162
writer	-11.7162
▁chairman	-11.7163
▁topological	-11.7163
275	-11.7165
▁Sep	-11.7165
▁rect	-11.7168
▁Dy	-11.7169
▁Conclusion	-11.7169
▁Capital	-11.717
▁Cer	-11.717
▁trailer	-11.717
▁passengers	-11.7171
▁od	-11.7171
▁Fan	-11.7171
▁lesser	-11.7173
▁LT	-11.7175
▁inconsistent	-11.7176
anta	-11.7176
gus	-11.7177
7]\]	-11.7181
▁withdraw	-11.7183
▁conversations	-11.7183
▁merits	-11.7183
▁survived	-11.7183
▁Vector	-11.7184
tric	-11.7184
1).	-11.7184
▁advocate	-11.7184
▁Fl	-11.7187
▁catheter	-11.7189
ipped	-11.719
112	-11.7191
ifer	-11.7191
▁urine	-11.7192
ANCE	-11.7192
▁Premier	-11.7193
settings	-11.7194
Driver	-11.7194
lumin	-11.7194
▁buttons	-11.7195
▁evolved	-11.7197
▁stops	-11.7198
▁Sto	-11.7198
▁Mobile	-11.7199
ound	-11.72
Back	-11.7203
▁spontaneous	-11.7204
Pattern	-11.7205
▁Rat	-11.7205
▁developmental	-11.7206
effect	-11.7207
▁Sho	-11.7209
▁incredibly	-11.7209
▁cab	-11.721
▁inherent	-11.7212
▁considerations	-11.7213
▁1971	-11.7214
▁opponent	-11.7214
▁cone	-11.7216
abc	-11.7217
vil	-11.7217
▁predetermined	-11.7218
▁lesson	-11.722
Flag	-11.7221
nova	-11.7222
through	-11.7222
cyan	-11.7225
private	-11.7225
thy	-11.7226
▁casual	-11.7226
▁Dog	-11.7227
simple	-11.7229
_{1	-11.7229
▁Pin	-11.7229
tiny	-11.723
pose	-11.7231
▁coincide	-11.7232
GI	-11.7233
scribe	-11.7233
▁administrator	-11.7234
azo	-11.7235
▁4.0	-11.7236
▁Vic	-11.7237
▁avoided	-11.7237
13-	-11.7238
▁homogeneous	-11.7239
exec	-11.724
▁Roy	-11.724
1\])	-11.7241
8]\]	-11.7241
▁Sweden	-11.7242
▁Gray	-11.7242
▁wins	-11.7242
▁Lock	-11.7242
▁tune	-11.7245
fluor	-11.7245
▁knock	-11.7245
IND	-11.7246
▁manufacturers	-11.7246
▁remind	-11.7249
▁pero	-11.725
▁substances	-11.7252
▁viable	-11.7253
▁Assistant	-11.7254
▁bay	-11.7254
dog	-11.7254
▁addressing	-11.7255
▁attending	-11.7255
dose	-11.7258
310	-11.7258
▁fatigue	-11.7258
finite	-11.7259
lift	-11.726
DEFAULT	-11.7262
▁govern	-11.7262
▁gentle	-11.7263
plain	-11.7263
▁reside	-11.7265
▁inference	-11.7265
▁sketch	-11.7266
▁rhythm	-11.7266
ules	-11.7266
▁Otherwise	-11.7267
▁insights	-11.7268
▁afterwards	-11.7269
▁besides	-11.727
actic	-11.7273
▁CHAPTER	-11.7275
Progress	-11.7276
▁END	-11.7277
>\	-11.7279
▁unity	-11.7279
azz	-11.7279
420	-11.728
▁dirty	-11.7282
Only	-11.7283
▁Task	-11.7283
288	-11.7285
quer	-11.7285
▁terrorist	-11.7285
OLD	-11.7286
[...]
