<pad>	0
<unk>	0
</s>	0
<sha_tkn1>	0
<sha_tkn2>	0
<sha_tkn3>	0
<sha_tkn4>	0
<sha_tkn5>	0
▁	-3.01334
s	-3.44536
.	-3.50471
,	-3.56161
▁the	-3.68545
▁of	-4.26069
▁and	-4.41603
▁to	-4.45027
▁a	-4.52588
▁in	-4.65774
-	-4.75413
_	-5.18732
▁is	-5.20559
d	-5.2152
ing	-5.27205
'	-5.28147
ed	-5.28266
)	-5.28651
t	-5.29283
▁that	-5.33671
▁for	-5.3838
:	-5.38654
▁(	-5.39725
▁I	-5.64283
(	-5.66414
▁with	-5.66593
n	-5.68625
e	-5.78274
a	-5.81481
▁was	-5.81505
▁on	-5.82138
▁The	-5.8309
▁be	-5.87145
▁it	-5.93087
▁"	-5.93158
/	-5.96197
i	-5.97247
er	-5.9739
▁as	-5.9782
ly	-5.98941
y	-6.01802
r	-6.03603
;	-6.04604
▁by	-6.05118
m	-6.07296
▁are	-6.13021
p	-6.14118
\	-6.14223
{	-6.15983
al	-6.16386
▁\	-6.16761
in	-6.17227
▁=	-6.18361
▁at	-6.20091
c	-6.21216
▁from	-6.2186
▁not	-6.26647
▁this	-6.26769
▁you	-6.27177
▁or	-6.28969
▁$	-6.30837
▁an	-6.31233
o	-6.32016
b	-6.32607
▁A	-6.3584
▁have	-6.36718
>	-6.36764
’	-6.37626
f	-6.37819
x	-6.38879
}	-6.39481
*	-6.40447
S	-6.41417
"	-6.42123
g	-6.42763
B	-6.43896
k	-6.44939
$	-6.46577
l	-6.48978
or	-6.49126
u	-6.50887
▁S	-6.51659
▁he	-6.5446
re	-6.55741
▁we	-6.57996
2	-6.58418
es	-6.59218
C	-6.5967
1	-6.60156
▁*	-6.60168
▁were	-6.61808
▁-	-6.64053
h	-6.64395
?	-6.65655
▁can	-6.68781
▁his	-6.70053
A	-6.70894
▁<	-6.73645
▁which	-6.73821
▁In	-6.74126
▁but	-6.78938
▁C	-6.80463
D	-6.84183
F	-6.84911
▁has	-6.85132
▁all	-6.8533
▁de	-6.88931
▁+	-6.89052
▁had	-6.89619
▁if	-6.91373
="	-6.92079
P	-6.92642
▁one	-6.92803
th	-6.93258
v	-6.94334
▁will	-6.95275
▁{	-6.95588
▁1	-6.95994
M	-6.9732
on	-6.97588
▁F	-6.97733
it	-6.97827
▁B	-6.99632
ation	-6.99706
T	-7.01343
en	-7.01791
).	-7.03075
▁re	-7.03622
w	-7.0501
▁so	-7.05085
▁they	-7.0634
▁their	-7.06813
3	-7.06971
H	-7.07413
]	-7.08329
le	-7.09655
I	-7.1028
▁more	-7.10334
▁P	-7.10605
L	-7.10714
▁her	-7.10896
E	-7.10897
R	-7.11337
▁out	-7.11534
G	-7.12346
N	-7.12922
z	-7.13435
▁no	-7.15113
▁M	-7.15381
▁been	-7.1639
▁T	-7.1661
0	-7.18628
4	-7.18666
▁me	-7.20022
▁my	-7.202
▁2	-7.20821
▁time	-7.21627
▁}	-7.21974
▁would	-7.22759
▁do	-7.22787
▁$\	-7.23254
▁up	-7.23456
▁when	-7.2359
▁your	-7.2396
▁also	-7.24573
▁“	-7.24617
ic	-7.252
ar	-7.25769
id	-7.25964
_{	-7.26297
j	-7.2667
▁G	-7.27365
▁[	-7.28107
▁about	-7.28115
▁there	-7.2891
▁other	-7.29887
▁It	-7.30129
ity	-7.31205
▁E	-7.31754
an	-7.32348
▁0	-7.32382
is	-7.33613
▁who	-7.3387
▁p	-7.3476
=	-7.34782
),	-7.35328
);	-7.36405
to	-7.36416
▁This	-7.3685
▁D	-7.36957
▁into	-7.3769
[	-7.38326
▁H	-7.38545
ur	-7.38978
▁He	-7.39203
▁than	-7.39353
V	-7.40036
▁N	-7.40792
^	-7.41286
W	-7.41628
▁We	-7.41914
▁R	-7.42004
▁3	-7.42526
."	-7.42773
able	-7.43229
▁v	-7.43541
ve	-7.43795
▁over	-7.44035
▁she	-7.45427
▁said	-7.45627
▁like	-7.46052
▁&	-7.47057
!	-7.47178
▁two	-7.48687
▁K	-7.48864
----------------	-7.49017
ers	-7.49128
ref	-7.49311
▁only	-7.49368
▁19	-7.50036
K	-7.50143
ive	-7.50528
el	-7.50764
▁what	-7.51376
ion	-7.51726
▁some	-7.51752
us	-7.52438
▁un	-7.52658
at	-7.53748
▁any	-7.53947
▁L	-7.54426
▁new	-7.55117
{\	-7.55286
▁our	-7.56212
type	-7.5672
▁first	-7.56752
▁may	-7.57792
▁'	-7.58393
▁such	-7.60033
X	-7.6006
▁its	-7.60588
ment	-7.6088
▁c	-7.60901
▁W	-7.61574
et	-7.61901
▁4	-7.62707
▁use	-7.62804
O	-7.63033
6	-7.6311
▁f	-7.64709
li	-7.65174
▁these	-7.658
5	-7.65818
ll	-7.66778
de	-7.67183
▁5	-7.67416
▁them	-7.67462
▁could	-7.67714
▁after	-7.67721
▁where	-7.67788
▁get	-7.6789
▁just	-7.68593
8	-7.6914
▁between	-7.69808
ent	-7.69828
9	-7.70514
▁him	-7.71822
▁#	-7.71992
▁b	-7.72234
as	-7.72362
ine	-7.73201
▁Let	-7.73581
ant	-7.73903
U	-7.74163
ate	-7.74649
▁10	-7.75984
ch	-7.7629
um	-7.76615
▁m	-7.76861
▁e	-7.77466
+	-7.77538
ter	-7.77854
**	-7.78104
▁used	-7.78243
▁U	-7.78488
ir	-7.79176
il	-7.80505
▁J	-7.80934
▁Re	-7.81792
▁//	-7.81894
▁data	-7.82159
▁then	-7.82239
com	-7.82407
▁[@	-7.8291
7	-7.82929
end	-7.83427
▁For	-7.83826
ist	-7.83835
ad	-7.84412
J	-7.84419
Y	-7.84535
ia	-7.84853
▁using	-7.85011
▁people	-7.85555
ra	-7.85623
▁i	-7.87445
and	-7.88166
q	-7.8893
▁under	-7.89253
▁work	-7.8935
ary	-7.89426
▁V	-7.89772
▁dis	-7.90125
▁well	-7.90463
▁because	-7.90591
}\	-7.90664
▁should	-7.90917
▁con	-7.91197
ul	-7.9151
▁O	-7.91519
▁most	-7.9239
ne	-7.93018
▁how	-7.93211
▁return	-7.93364
ated	-7.93465
▁back	-7.93727
up	-7.94473
man	-7.94636
age	-7.948
ol	-7.95347
▁through	-7.95896
▁know	-7.96242
ry	-7.96333
▁each	-7.96428
”	-7.9659
▁la	-7.96668
%	-7.96772
▁case	-7.96876
▁even	-7.96925
est	-7.97287
▁6	-7.97666
▁make	-7.98161
▁see	-7.99245
▁co	-7.99555
▁To	-7.99816
st	-8.00024
am	-8.00261
ge	-8.00344
▁way	-8.00869
▁w	-8.00895
▁As	-8.01539
ance	-8.01539
▁What	-8.0191
▁set	-8.01972
▁g	-8.02041
the	-8.02308
▁class	-8.02557
▁en	-8.03177
▁d	-8.03506
▁pre	-8.04188
▁now	-8.04297
▁If	-8.04462
",	-8.04465
▁same	-8.04772
▁|	-8.0501
lo	-8.05043
la	-8.05054
un	-8.05233
frac	-8.05258
ian	-8.05259
▁both	-8.05728
<	-8.05827
ut	-8.05985
▁before	-8.06147
ie	-8.06423
->	-8.06464
▁did	-8.06935
,"	-8.06987
▁very	-8.07325
right	-8.07394
▁h	-8.0751
▁But	-8.07706
}$	-8.07757
▁De	-8.07978
▁found	-8.08191
▁end	-8.08307
▁different	-8.08451
10	-8.09363
</	-8.09633
▁years	-8.09855
▁@	-8.10254
▁those	-8.10305
te	-8.10641
▁need	-8.10946
▁number	-8.11898
▁don	-8.12187
om	-8.12852
▁many	-8.13249
|	-8.13305
...	-8.1393
▁7	-8.14028
▁8	-8.14031
▁**	-8.14081
ell	-8.14187
ce	-8.14206
ial	-8.14344
▁here	-8.14589
per	-8.14624
▁made	-8.14712
()	-8.14975
fig	-8.14978
int	-8.15193
▁k	-8.15216
▁per	-8.15483
▁And	-8.16421
▁being	-8.16561
co	-8.1657
▁order	-8.16768
ta	-8.16863
00	-8.17428
▁down	-8.17607
▁want	-8.18736
im	-8.1875
▁No	-8.19035
▁system	-8.19636
▁go	-8.20217
▁while	-8.20567
pi	-8.20703
▁_	-8.20723
▁much	-8.21096
ri	-8.21164
▁good	-8.21216
▁right	-8.21358
ty	-8.21508
ies	-8.21708
left	-8.21734
▁high	-8.21899
one	-8.22199
ma	-8.22291
▁us	-8.22671
ous	-8.22885
▁part	-8.23073
ness	-8.23429
ating	-8.24121
ac	-8.24314
io	-8.24432
▁\[[@	-8.24881
no	-8.24989
▁You	-8.2499
▁\[	-8.25031
▁function	-8.25065
son	-8.25214
▁study	-8.25712
na	-8.25761
▁t	-8.25765
▁three	-8.25829
&	-8.25857
▁She	-8.2588
▁court	-8.26002
▁name	-8.26246
(\	-8.26614
▁long	-8.27493
▁So	-8.27611
▁value	-8.27679
ro	-8.27728
▁pro	-8.28105
mo	-8.28376
os	-8.28544
▁non	-8.28882
_{\	-8.29047
line	-8.29061
▁without	-8.29063
be	-8.29074
ton	-8.29308
mu	-8.29628
▁public	-8.29826
20	-8.30089
se	-8.30289
ill	-8.30533
me	-8.3125
▁during	-8.3132
▁control	-8.31336
▁9	-8.3135
he	-8.31996
▁12	-8.32032
12	-8.32751
▁l	-8.32934
▁think	-8.33178
](#	-8.33278
▁state	-8.33502
The	-8.34118
▁r	-8.34363
^{	-8.34499
▁di	-8.34595
▁18	-8.34676
--	-8.35116
▁group	-8.35524
▁still	-8.36207
▁cells	-8.3625
▁patients	-8.36474
11	-8.36555
">	-8.36903
▁sub	-8.37197
▁point	-8.37351
://	-8.37423
ap	-8.37866
▁second	-8.38284
em	-8.38544
ized	-8.38781
▁al	-8.38934
▁There	-8.39045
▁does	-8.39456
16	-8.39535
▁man	-8.39641
get	-8.39917
**2	-8.40002
▁life	-8.40298
▁must	-8.40432
out	-8.40806
min	-8.4115
▁own	-8.41159
ci	-8.41357
▁take	-8.41438
_1	-8.41502
ence	-8.41679
ex	-8.41752
▁New	-8.4222
▁Category	-8.42291
15	-8.42482
▁last	-8.42601
ide	-8.42662
▁against	-8.42725
▁year	-8.42895
▁day	-8.43058
▁find	-8.43068
ish	-8.44125
set	-8.44335
\]	-8.44389
32	-8.44489
▁11	-8.44576
▁se	-8.44668
▁help	-8.44929
ally	-8.44985
go	-8.45019
▁am	-8.45173
tic	-8.4561
}}	-8.45622
▁St	-8.45998
CR	-8.46062
▁sp	-8.46119
01	-8.46418
▁off	-8.46419
.”	-8.46459
▁support	-8.46502
ase	-8.46659
)$	-8.47765
tal	-8.47786
000	-8.48501
▁information	-8.49189
ep	-8.49328
▁Co	-8.49467
ha	-8.49754
ling	-8.49824
::	-8.50061
-1	-8.50063
con	-8.50153
▁20	-8.50185
▁example	-8.50575
("	-8.50602
▁They	-8.5076
ard	-8.50954
▁model	-8.51016
▁around	-8.51028
30	-8.51088
ag	-8.51307
ization	-8.51609
op	-8.51679
▁n	-8.51798
13	-8.52044
▁present	-8.52275
alpha	-8.52276
all	-8.52851
▁et	-8.52863
▁j	-8.52915
▁type	-8.53172
▁every	-8.5321
less	-8.53249
▁Ma	-8.53614
▁result	-8.53616
▁another	-8.53782
▁show	-8.53935
ted	-8.54115
▁15	-8.54412
name	-8.54429
14	-8.5443
ice	-8.54447
▁process	-8.54754
ke	-8.54773
▁might	-8.54931
▁following	-8.55055
our	-8.55154
▁results	-8.56229
▁post	-8.56282
▁home	-8.56307
19	-8.56571
▁However	-8.56656
▁going	-8.56843
tor	-8.56983
▁Con	-8.57004
▁line	-8.57522
17	-8.57597
▁hand	-8.57668
▁place	-8.57804
▁since	-8.57946
rm	-8.58037
text	-8.58109
▁head	-8.58382
mathcal	-8.58409
ip	-8.58555
▁When	-8.59111
ab	-8.59155
ator	-8.59239
▁form	-8.59261
land	-8.59399
▁within	-8.59637
▁Me	-8.59728
#	-8.59859
":	-8.60106
ite	-8.60214
ure	-8.60442
▁</	-8.60509
▁car	-8.60647
ism	-8.60761
▁Le	-8.60872
▁sh	-8.61054
do	-8.61093
64	-8.61311
form	-8.61371
if	-8.61751
tion	-8.61755
oc	-8.61803
ti	-8.61881
50	-8.62004
18	-8.62259
lic	-8.62307
▁world	-8.62331
▁cell	-8.62337
ative	-8.62351
-2	-8.62462
▁large	-8.62872
ot	-8.63003
?"	-8.63585
▁say	-8.63588
▁On	-8.63622
ical	-8.63853
▁La	-8.63935
▁test	-8.64345
"}	-8.6483
▁few	-8.64963
log	-8.65015
▁power	-8.65057
of	-8.65083
ver	-8.65935
▁never	-8.66141
gen	-8.66144
▁All	-8.66349
▁Al	-8.66366
▁too	-8.66484
▁$$\	-8.66592
▁given	-8.66814
ick	-8.66849
ow	-8.67135
▁o	-8.67267
▁small	-8.67271
▁ne	-8.67482
▁come	-8.67649
▁including	-8.67891
port	-8.67942
▁method	-8.68081
▁13	-8.68194
▁*/	-8.68208
▁something	-8.68275
▁{#	-8.68277
ner	-8.68287
ak	-8.68294
den	-8.68326
table	-8.68686
.2	-8.68723
▁Mo	-8.68742
red	-8.68877
▁great	-8.69111
▁fact	-8.69494
▁light	-8.69645
ler	-8.69705
▁X	-8.69742
▁little	-8.69873
ay	-8.70176
ting	-8.70487
▁16	-8.70613
ber	-8.70657
▁(19	-8.70812
▁best	-8.70843
tro	-8.70883
ful	-8.7105
mon	-8.71129
sh	-8.71225
pt	-8.71254
▁x	-8.71459
▁side	-8.71515
▁water	-8.71565
▁really	-8.71745
1,	-8.72418
▁next	-8.72489
▁14	-8.72661
bar	-8.72699
▁An	-8.72726
▁change	-8.72735
80	-8.72878
25	-8.72984
▁inter	-8.73084
^2	-8.73183
▁law	-8.73242
ten	-8.73243
▁At	-8.73263
ron	-8.73345
▁que	-8.73564
way	-8.73853
sum	-8.73938
40	-8.74092
ast	-8.74723
ho	-8.74755
▁analysis	-8.74883
▁important	-8.74911
▁based	-8.75044
▁left	-8.75047
▁less	-8.75099
▁human	-8.75242
bo	-8.75264
▁file	-8.75461
pe	-8.7547
▁local	-8.75598
▁That	-8.76017
▁bo	-8.76235
time	-8.76328
24	-8.7653
dy	-8.76847
▁run	-8.77123
mer	-8.77509
ities	-8.77673
▁again	-8.77805
$.	-8.77888
▁got	-8.78158
▁treatment	-8.7816
[@	-8.78272
▁real	-8.786
▁size	-8.78628
))	-8.78704
$,	-8.7888
▁free	-8.78893
▁better	-8.79089
▁Y	-8.79211
▁above	-8.79261
▁call	-8.79376
▁problem	-8.79402
▁look	-8.7941
data	-8.79565
▁gr	-8.79832
▁level	-8.80096
)\	-8.80143
label	-8.80145
di	-8.80601
eq	-8.80677
@	-8.81006
ang	-8.81013
mp	-8.81119
▁17	-8.81169
▁error	-8.81442
▁Ra	-8.81443
();	-8.81481
}{	-8.81703
▁whether	-8.8197
▁These	-8.82002
ER	-8.82121
ga	-8.82203
▁self	-8.82277
▁start	-8.82288
sec	-8.82387
▁st	-8.82421
da	-8.82503
▁evidence	-8.82522
amp	-8.82531
,”	-8.82559
div	-8.82982
▁effect	-8.83124
▁let	-8.83167
lu	-8.83347
▁ex	-8.83552
▁1.	-8.83557
der	-8.83559
In	-8.83628
▁view	-8.83801
▁least	-8.83822
cal	-8.83869
ID	-8.83879
21	-8.83881
ear	-8.84017
]{}	-8.84027
▁having	-8.84178
▁men	-8.84316
▁position	-8.8434
▁possible	-8.84386
vo	-8.84453
ier	-8.84828
▁United	-8.84885
▁put	-8.84989
AR	-8.84997
nu	-8.85052
▁term	-8.85157
pro	-8.85289
38	-8.85297
▁30	-8.85326
▁z	-8.85424
ning	-8.85672
▁things	-8.85774
22	-8.85778
])	-8.85794
▁single	-8.85806
▁due	-8.85947
▁until	-8.86236
IN	-8.863
▁thought	-8.86346
king	-8.86542
▁give	-8.86691
▁similar	-8.86746
fer	-8.86775
▁always	-8.86858
Name	-8.86864
▁team	-8.86882
act	-8.86918
39	-8.87005
rs	-8.87055
▁love	-8.87072
ger	-8.8721
▁four	-8.87294
▁fl	-8.8744
▁y	-8.87487
ium	-8.87606
les	-8.87748
▁Pro	-8.87899
▁Ro	-8.87921
ass	-8.88203
04	-8.88229
▁days	-8.88318
ig	-8.88379
▁Be	-8.88435
pone	-8.8845
▁called	-8.88456
▁open	-8.88586
▁expression	-8.88637
▁low	-8.8864
▁known	-8.88676
60	-8.88783
▁space	-8.88816
75	-8.88859
▁response	-8.88924
val	-8.89146
cent	-8.89267
▁code	-8.89502
],	-8.89706
▁mean	-8.90107
tra	-8.90154
▁play	-8.90223
▁short	-8.90476
let	-8.90497
begin	-8.90522
ni	-8.90574
▁Li	-8.90674
02	-8.90937
}$$	-8.90965
27	-8.91115
mathbb	-8.91133
ual	-8.91193
▁trial	-8.91414
▁further	-8.91473
Re	-8.91511
▁person	-8.91647
▁Do	-8.91868
use	-8.9192
23	-8.91947
}(	-8.91948
▁shown	-8.9208
▁provide	-8.92183
▁field	-8.92247
code	-8.92341
▁total	-8.92344
▁face	-8.92414
reg	-8.92485
▁didn	-8.92502
▁question	-8.92762
ka	-8.92822
▁general	-8.92948
ven	-8.92953
▁/*	-8.9315
aligned	-8.93211
▁el	-8.93261
35	-8.9333
org	-8.93604
ake	-8.9366
▁read	-8.93674
Type	-8.93738
▁common	-8.93745
pa	-8.93768
ified	-8.93793
▁family	-8.93916
for	-8.94134
tr	-8.94135
▁current	-8.94249
▁Court	-8.94251
45	-8.9431
phi	-8.94362
▁far	-8.94379
po	-8.94526
▁true	-8.94655
44	-8.94736
▁government	-8.94825
by	-8.94989
▁{\	-8.95118
old	-8.95168
ub	-8.95175
_2	-8.95278
ious	-8.95363
▁several	-8.95402
▁either	-8.95485
29	-8.95529
▁One	-8.9559
▁away	-8.9583
▁American	-8.95863
▁int	-8.95936
hat	-8.96019
▁game	-8.96053
▁hard	-8.96187
ology	-8.96328
ack	-8.9639
AL	-8.96394
led	-8.96452
03	-8.96556
26	-8.96691
47	-8.96708
ix	-8.96821
▁le	-8.96927
ach	-8.96931
we	-8.9701
que	-8.97093
▁list	-8.97183
")	-8.97189
▁lot	-8.97426
▁else	-8.97482
ED	-8.97515
bi	-8.97607
▁var	-8.9766
usepackage	-8.9773
ru	-8.98133
49	-8.98185
lin	-8.98272
ring	-8.98355
▁specific	-8.98574
▁After	-8.98606
▁States	-8.98612
ny	-8.98782
▁available	-8.98914
▁old	-8.98943
▁full	-8.98978
▁const	-8.98995
65	-8.99023
55	-8.99081
AT	-8.99259
bin	-8.99388
▁along	-8.99503
▁children	-8.99599
ade	-9.00006
▁key	-9.00046
70	-9.00237
▁business	-9.00246
▁later	-9.00329
ability	-9.00433
chi	-9.0058
ud	-9.00592
05	-9.00608
ise	-9.00675
33	-9.00757
tain	-9.00827
ile	-9.00856
36	-9.00924
**3	-9.00974
ations	-9.00983
▁project	-9.0107
ST	-9.01429
0.0	-9.01434
nd	-9.01467
▁du	-9.01511
mm	-9.01577
ible	-9.01598
ens	-9.01673
▁period	-9.01699
▁though	-9.01706
▁studies	-9.01707
28	-9.01754
▁school	-9.01803
lambda	-9.0209
▁higher	-9.02199
▁Bo	-9.02223
▁among	-9.02336
▁care	-9.02363
88	-9.02369
side	-9.02403
ue	-9.0244
ca	-9.02464
ock	-9.02499
yl	-9.02562
▁See	-9.02649
▁body	-9.02732
▁already	-9.0277
▁anti	-9.02787
43	-9.02843
ea	-9.02923
▁trans	-9.02952
ster	-9.02957
▁significant	-9.0299
▁bi	-9.03016
▁Pa	-9.03029
---	-9.03074
46	-9.03128
▁report	-9.03178
▁Mar	-9.03277
av	-9.03285
▁means	-9.03355
▁tell	-9.03465
gu	-9.03537
▁design	-9.03603
▁course	-9.03635
▁section	-9.03635
▁disease	-9.03656
gi	-9.03661
▁add	-9.03713
▁action	-9.03792
▁Sa	-9.03826
ions	-9.03975
nt	-9.03988
par	-9.0408
▁Ba	-9.04173
▁com	-9.04303
▁came	-9.04313
bl	-9.04335
hi	-9.04364
▁sc	-9.04417
ship	-9.04457
Fig	-9.04526
▁area	-9.04741
▁standard	-9.04761
▁turn	-9.04778
▁State	-9.04922
ever	-9.05022
▁My	-9.05026
ee	-9.05181
▁sure	-9.0526
▁upon	-9.05338
mb	-9.05367
86	-9.05414
▁Ho	-9.05444
beta	-9.05477
▁why	-9.05684
bit	-9.05718
net	-9.0576
▁review	-9.05818
▁health	-9.05831
▁often	-9.05832
▁Mr	-9.05855
▁Car	-9.05916
▁da	-9.06025
34	-9.06029
^{\	-9.06078
▁24	-9.06112
▁range	-9.06138
_0	-9.0618
▁rate	-9.06322
56	-9.0638
67	-9.06419
ert	-9.06425
key	-9.06606
▁enough	-9.06755
57	-9.06781
▁content	-9.0705
▁surface	-9.07135
▁told	-9.07178
▁interest	-9.07262
ave	-9.07305
66	-9.07335
77	-9.07335
fe	-9.07463
{{\	-9.07481
▁bit	-9.0753
span	-9.07553
▁access	-9.07652
▁lower	-9.07707
2)	-9.07711
▁risk	-9.07773
▁however	-9.07854
89	-9.07968
▁done	-9.08046
▁%	-9.08056
▁kind	-9.08057
ba	-9.08106
uck	-9.08142
▁check	-9.08216
res	-9.08282
▁women	-9.08312
ph	-9.08371
▁image	-9.08375
pre	-9.08403
68	-9.08439
▁values	-9.08457
ley	-9.08502
▁-1	-9.08612
▁role	-9.08796
ize	-9.08998
▁bar	-9.09056
}_{	-9.09168
90	-9.09239
sqrt	-9.09295
my	-9.09429
▁thing	-9.0944
▁target	-9.09547
▁main	-9.09654
▁act	-9.0966
▁keep	-9.09675
over	-9.09677
85	-9.09683
99	-9.09722
▁pr	-9.09803
48	-9.09864
ome	-9.09868
▁matter	-9.09929
▁associated	-9.09994
row	-9.10184
59	-9.1021
▁--	-9.10253
▁development	-9.10364
len	-9.10397
low	-9.1051
▁Dr	-9.10585
▁imp	-9.10606
ind	-9.10722
53	-9.10742
▁normal	-9.10855
▁How	-9.10986
bb	-9.11069
▁clear	-9.11322
men	-9.11416
95	-9.11492
▁top	-9.11601
54	-9.11631
▁pass	-9.11678
eg	-9.11906
qui	-9.11914
top	-9.11941
▁${\	-9.12089
▁energy	-9.12152
tu	-9.12292
06	-9.12295
('	-9.12374
▁With	-9.12397
▁Ha	-9.12484
ray	-9.12494
76	-9.12549
▁film	-9.1256
bib	-9.12605
▁reported	-9.12657
ze	-9.12666
We	-9.1267
ral	-9.12783
09	-9.12809
78	-9.12902
▁Ex	-9.1291
].	-9.13173
▁mo	-9.13205
▁cl	-9.13389
▁po	-9.13446
▁seen	-9.13537
▁levels	-9.13635
69	-9.1367
dic	-9.13674
▁Suppose	-9.13684
▁base	-9.13751
▁took	-9.13833
ward	-9.13864
▁cases	-9.13962
_\	-9.13963
inal	-9.14042
▁together	-9.14057
07	-9.141
▁room	-9.14192
31	-9.14254
mi	-9.14265
ull	-9.14284
79	-9.14335
back	-9.144
▁amount	-9.14597
▁says	-9.14618
41	-9.14695
87	-9.14763
▁account	-9.14781
▁version	-9.14813
37	-9.14848
▁signal	-9.14852
▁final	-9.14969
▁air	-9.14997
▁compared	-9.15065
▁age	-9.15175
ook	-9.15198
www	-9.15355
ung	-9.15364
▁micro	-9.15415
ification	-9.15472
▁ba	-9.15509
▁early	-9.15557
▁experience	-9.15621
▁potential	-9.15783
▁feel	-9.15835
1)	-9.15875
▁==	-9.15932
▁issue	-9.15946
,\	-9.15981
▁Na	-9.16034
▁object	-9.16035
▁required	-9.16124
▁(1	-9.16125
96	-9.16145
▁25	-9.16174
tri	-9.16207
▁making	-9.16255
va	-9.16318
58	-9.16321
mathbf	-9.16345
▁week	-9.16377
are	-9.16559
▁once	-9.1662
▁across	-9.16666
ash	-9.167
au	-9.16733
▁include	-9.16764
▁past	-9.16765
ail	-9.16824
▁network	-9.16844
▁app	-9.1698
▁By	-9.1713
▁activity	-9.17132
gg	-9.1719
xi	-9.17309
▁([@	-9.17364
vert	-9.17441
})	-9.17449
▁2.	-9.17507
▁become	-9.17558
▁research	-9.17699
uc	-9.17842
str	-9.17851
test	-9.17974
▁art	-9.18024
▁structure	-9.18135
▁Se	-9.18254
▁market	-9.18333
1-	-9.18455
▁super	-9.18502
▁Then	-9.18568
art	-9.18697
pp	-9.18703
▁decision	-9.18787
▁working	-9.1903
od	-9.19039
▁went	-9.1908
▁import	-9.19217
ik	-9.19245
▁His	-9.1928
1]	-9.19495
▁University	-9.19523
-3	-9.19574
ES	-9.19737
▁factor	-9.19777
ah	-9.19791
84	-9.19845
lan	-9.19849
▁void	-9.19864
sigma	-9.19911
▁service	-9.19917
▁death	-9.1993
72	-9.20158
▁addition	-9.20221
▁create	-9.20283
];	-9.20317
▁fe	-9.20558
fin	-9.2056
▁terms	-9.20685
▁ch	-9.20736
▁ma	-9.20792
▁media	-9.20848
63	-9.20868
ham	-9.20869
▁region	-9.20917
▁described	-9.20966
▁times	-9.20976
▁war	-9.20994
▁consider	-9.21006
AS	-9.21051
ker	-9.21082
▁increase	-9.21286
ture	-9.2134
define	-9.21365
▁groups	-9.21428
pm	-9.21503
her	-9.21637
▁house	-9.21648
cle	-9.21805
▁Po	-9.21863
ev	-9.22041
▁para	-9.22068
▁try	-9.22178
▁provided	-9.22179
▁particular	-9.2219
52	-9.22192
▁night	-9.22261
▁2*	-9.22273
▁break	-9.22395
ug	-9.22395
rit	-9.22549
▁population	-9.22663
▁([	-9.22667
▁according	-9.22793
▁conditions	-9.22891
▁young	-9.22913
▁block	-9.23032
83	-9.23144
ole	-9.23148
▁pay	-9.23208
string	-9.23251
▁observed	-9.23309
▁Ne	-9.23422
▁approach	-9.23476
wa	-9.23536
unt	-9.23536
value	-9.23581
▁program	-9.23595
▁count	-9.23672
▁source	-9.2368
▁rest	-9.23717
ck	-9.23829
▁address	-9.2387
ably	-9.23958
▁protein	-9.2398
▁sequence	-9.23997
▁company	-9.24005
read	-9.24007
▁paper	-9.24049
ko	-9.24064
▁defendant	-9.24064
▁positive	-9.24161
ight	-9.24189
▁Ca	-9.24274
SE	-9.24378
▁cannot	-9.24435
▁doesn	-9.24447
▁increased	-9.24523
▁book	-9.24567
▁Lo	-9.24687
▁able	-9.24698
▁asked	-9.24715
▁social	-9.24749
gamma	-9.24804
▁complex	-9.24888
74	-9.24918
42	-9.24937
94	-9.24986
partial	-9.25011
▁multiple	-9.25069
▁user	-9.25119
▁multi	-9.25131
ric	-9.25176
▁star	-9.25288
100	-9.25483
▁months	-9.25591
▁third	-9.25619
cl	-9.25692
▁answer	-9.25771
▁sl	-9.25816
"}).	-9.25833
lip	-9.25859
▁country	-9.25864
LE	-9.25902
▁rather	-9.25914
▁Ch	-9.25936
4)	-9.25998
▁mis	-9.26054
97	-9.26102
▁vi	-9.26152
▁Vi	-9.26216
▁Ar	-9.2652
not	-9.26534
▁yet	-9.26548
08	-9.26687
ft	-9.26771
▁color	-9.26844
▁page	-9.26853
▁mass	-9.26906
ren	-9.26949
mit	-9.26949
ana	-9.26957
De	-9.27012
▁whole	-9.27015
98	-9.27075
▁reason	-9.27098
part	-9.27211
2,	-9.27238
ple	-9.27272
▁string	-9.27337
▁text	-9.27339
▁site	-9.2734
▁u	-9.27356
▁hi	-9.27391
ov	-9.27404
▁believe	-9.2748
▁special	-9.27481
EN	-9.2752
br	-9.27579
▁effects	-9.27707
\])	-9.27915
CH	-9.27916
▁changes	-9.27994
▁path	-9.27996
▁million	-9.282
73	-9.28313
▁five	-9.28318
col	-9.28344
▁mind	-9.28403
rho	-9.2844
day	-9.28454
▁factors	-9.28522
ey	-9.28527
▁im	-9.2855
▁table	-9.28595
http	-9.28633
RE	-9.28644
kin	-9.28902
▁pa	-9.29027
▁0.0	-9.29063
▁performed	-9.2913
▁close	-9.29144
eta	-9.29208
▁Di	-9.29209
51	-9.29326
ost	-9.29359
▁21	-9.29377
▁...	-9.29404
own	-9.2945
▁ever	-9.29469
▁prior	-9.29474
▁blood	-9.29534
String	-9.29568
file	-9.29581
off	-9.29647
ose	-9.2972
ust	-9.29771
To	-9.29787
sol	-9.29873
▁individual	-9.29964
like	-9.29994
ition	-9.30073
lor	-9.30166
▁taken	-9.30175
▁job	-9.30339
View	-9.30351
ory	-9.30407
▁various	-9.3053
za	-9.30652
}^{	-9.30702
▁El	-9.30723
▁below	-9.30723
iv	-9.30724
PA	-9.3073
}_	-9.3099
▁su	-9.31052
▁flow	-9.31064
▁Com	-9.31065
▁money	-9.31233
▁comp	-9.31265
mathrm	-9.31351
▁showed	-9.31429
add	-9.31436
ste	-9.31545
▁THE	-9.31566
ec	-9.31766
▁Or	-9.31804
ong	-9.31859
▁simple	-9.31899
▁device	-9.31912
▁private	-9.31999
▁season	-9.32019
▁1,	-9.32074
-\	-9.32088
▁claim	-9.32187
▁na	-9.32197
▁request	-9.32215
▁limit	-9.32223
▁deal	-9.32245
▁half	-9.32335
▁strong	-9.3242
▁original	-9.32504
▁actually	-9.32505
▁cross	-9.32565
oo	-9.32612
rain	-9.32685
62	-9.32727
▁US	-9.32813
app	-9.32814
▁em	-9.32895
▁doing	-9.32982
ping	-9.33045
You	-9.33045
▁100	-9.33089
▁Un	-9.33106
OS	-9.33122
▁food	-9.33195
lib	-9.3327
tern	-9.33272
this	-9.3332
▁almost	-9.3339
▁application	-9.33516
▁22	-9.3353
load	-9.33554
ological	-9.33573
ef	-9.33648
▁ge	-9.33718
▁cause	-9.33795
▁(2	-9.33892
html	-9.33931
nch	-9.34147
cr	-9.34237
▁moment	-9.3426
ants	-9.34337
tau	-9.34383
▁York	-9.34501
Figure	-9.34506
▁certain	-9.34629
ran	-9.3463
▁John	-9.34651
▁personal	-9.34695
und	-9.34789
path	-9.34974
▁obtained	-9.34991
.3	-9.35002
▁cancer	-9.35039
▁performance	-9.35142
▁temperature	-9.35189
▁considered	-9.3519
▁subject	-9.35251
82	-9.35283
▁En	-9.35331
▁visit	-9.35352
so	-9.35566
ng	-9.35608
struct	-9.35636
▁cost	-9.35681
CC	-9.35699
ists	-9.35714
▁$(	-9.35737
▁black	-9.35773
0)	-9.3581
lt	-9.35877
▁||	-9.35897
▁search	-9.35917
▁future	-9.3597
ax	-9.3601
gar	-9.36052
body	-9.36082
▁Here	-9.36133
▁six	-9.36172
▁move	-9.3619
▁product	-9.36218
▁App	-9.36285
▁Some	-9.36317
ign	-9.36327
new	-9.36412
qu	-9.36503
arg	-9.36514
▁likely	-9.3659
▁solution	-9.36628
▁material	-9.36684
▁display	-9.37021
▁li	-9.37029
ute	-9.37045
81	-9.3705
▁difficult	-9.37141
Id	-9.37155
^\	-9.37167
pr	-9.37229
▁nothing	-9.37263
▁Har	-9.37295
▁pe	-9.37302
▁ground	-9.37332
list	-9.3738
ich	-9.37404
ect	-9.37512
▁leave	-9.37615
▁big	-9.37645
It	-9.37679
light	-9.37693
93	-9.37701
▁ha	-9.37742
▁property	-9.37784
▁fire	-9.37865
IT	-9.37945
▁heart	-9.37957
▁condition	-9.38075
▁hold	-9.3822
DE	-9.38291
▁May	-9.38334
▁Not	-9.38433
▁God	-9.38496
▁Per	-9.385
▁anything	-9.38517
▁added	-9.38537
cur	-9.38546
▁shows	-9.38564
▁weight	-9.38615
+\	-9.38642
▁par	-9.38668
CA	-9.38687
▁War	-9.38725
▁distribution	-9.38868
size	-9.38925
delta	-9.39008
ij	-9.39046
▁won	-9.39312
big	-9.39375
▁trying	-9.39585
AN	-9.39701
▁event	-9.39812
▁$$	-9.39861
▁motion	-9.39967
▁qu	-9.40024
61	-9.40055
ame	-9.40261
▁des	-9.40272
ris	-9.40392
▁held	-9.40396
omega	-9.40443
▁included	-9.40513
point	-9.4055
▁defined	-9.40554
▁record	-9.40592
▁video	-9.40646
▁gene	-9.40653
istic	-9.40686
ane	-9.40725
var	-9.40732
▁looking	-9.40778
sim	-9.40793
rid	-9.40814
▁hope	-9.40983
71	-9.41008
▁related	-9.41078
▁arm	-9.41091
times	-9.41108
ja	-9.41153
duc	-9.41208
▁city	-9.41334
theta	-9.41356
▁history	-9.41383
▁Bar	-9.41396
ino	-9.4143
hy	-9.41434
▁Now	-9.41546
92	-9.41604
▁ob	-9.41698
▁systems	-9.41737
▁(*	-9.41773
200	-9.41976
cc	-9.42019
state	-9.42037
▁series	-9.42104
▁sound	-9.42132
▁minutes	-9.42147
▁additional	-9.42232
0,	-9.42244
Sec	-9.42276
▁50	-9.42278
param	-9.42319
ister	-9.42355
▁photo	-9.42405
▁Jo	-9.42459
▁front	-9.42542
▁live	-9.42656
▁match	-9.4273
▁land	-9.42767
▁date	-9.42799
▁idea	-9.42817
▁white	-9.42848
▁major	-9.42945
▁sa	-9.43023
▁ten	-9.43067
▁min	-9.43095
▁den	-9.43176
=\	-9.4319
▁While	-9.43241
$\	-9.43247
▁bring	-9.4326
▁relationship	-9.43297
▁23	-9.43337
ding	-9.43391
OR	-9.43531
cm	-9.43615
▁respectively	-9.43646
▁difference	-9.43824
▁Ta	-9.43827
▁Th	-9.43876
ath	-9.43878
▁si	-9.43893
can	-9.43927
▁points	-9.43985
▁child	-9.44034
cdot	-9.44045
▁layer	-9.4406
▁lo	-9.44113
vi	-9.44122
001	-9.44154
▁exp	-9.44187
Value	-9.44193
phy	-9.44214
▁Man	-9.44262
▁received	-9.44282
▁-2	-9.44348
▁story	-9.44409
\].	-9.44442
▁length	-9.44449
File	-9.44778
tan	-9.44793
mar	-9.44894
CT	-9.45
▁sw	-9.4504
▁40	-9.45106
cer	-9.45111
▁understand	-9.45358
▁members	-9.45458
▁himself	-9.45493
▁static	-9.45497
▁phase	-9.45509
▁thus	-9.45541
▁statement	-9.45564
▁acid	-9.457
ace	-9.45704
▁fall	-9.45769
▁die	-9.45809
▁step	-9.45904
▁happen	-9.45957
▁plan	-9.46033
ff	-9.46063
▁loss	-9.46081
3,	-9.4609
▁door	-9.46156
ire	-9.46164
ki	-9.46173
▁map	-9.46195
pl	-9.46202
har	-9.46219
hu	-9.46283
ju	-9.46394
▁via	-9.46452
▁gas	-9.46468
▁significantly	-9.46517
▁eyes	-9.4653
sp	-9.46541
▁Our	-9.46557
cap	-9.46638
uff	-9.46712
az	-9.46713
see	-9.46761
SA	-9.4678
ore	-9.46949
▁attack	-9.47254
▁Ka	-9.47284
MS	-9.47321
rate	-9.47323
▁3*	-9.47373
but	-9.47493
▁talk	-9.47518
unc	-9.4752
work	-9.47559
):	-9.47564
================	-9.47566
▁fo	-9.47856
▁getting	-9.47898
▁=>	-9.47936
ments	-9.47938
che	-9.47976
iz	-9.47993
leq	-9.48013
▁score	-9.48075
izing	-9.48099
vis	-9.48152
▁cut	-9.48179
▁patient	-9.48179
▁Thus	-9.48223
▁average	-9.48253
uk	-9.48307
▁practice	-9.48315
▁Her	-9.4834
▁red	-9.48405
▁contract	-9.48434
No	-9.48461
▁building	-9.48461
▁hours	-9.48529
vers	-9.48538
▁prevent	-9.48545
▁stop	-9.48595
based	-9.48628
AD	-9.48641
▁fa	-9.48674
▁sign	-9.48733
▁ca	-9.48837
▁continue	-9.48839
ING	-9.4887
▁Pre	-9.48917
▁28	-9.49008
serv	-9.49034
/2	-9.49072
▁article	-9.49132
field	-9.49167
rap	-9.49262
ld	-9.49263
▁stage	-9.4927
▁language	-9.49357
▁music	-9.49414
ulation	-9.49454
ries	-9.49456
ct	-9.49482
pat	-9.49521
▁print	-9.49553
ration	-9.49607
ify	-9.4961
▁therefore	-9.49698
▁contact	-9.49723
");	-9.49764
Table	-9.49844
▁follow	-9.49854
▁saw	-9.49917
▁others	-9.50027
▁tri	-9.50079
▁started	-9.50131
▁previous	-9.5014
▁respect	-9.50148
▁community	-9.50153
Data	-9.50176
ces	-9.50181
▁charge	-9.50216
▁sense	-9.50224
mor	-9.50263
▁San	-9.50272
▁needed	-9.50291
▁q	-9.50306
RI	-9.50311
ound	-9.50407
LO	-9.50411
▁reference	-9.50426
▁document	-9.5047
▁Mon	-9.50556
year	-9.50604
}}}	-9.50632
cul	-9.5065
▁argument	-9.5073
▁tax	-9.50733
fect	-9.50834
▁message	-9.50852
3)	-9.50889
lock	-9.5091
bu	-9.50917
▁National	-9.50991
view	-9.51019
han	-9.51038
▁\\	-9.51045
▁equal	-9.51073
jo	-9.5112
fa	-9.51198
▁near	-9.51206
▁cap	-9.51311
▁def	-9.51368
▁growth	-9.51499
▁sample	-9.5155
sion	-9.51578
▁host	-9.51644
▁natural	-9.51655
▁attempt	-9.51656
2-	-9.51706
▁Since	-9.5174
raw	-9.51747
▁party	-9.51779
igh	-9.51809
▁member	-9.51842
▁tr	-9.51897
▁Sp	-9.51941
▁instead	-9.52048
cy	-9.52098
▁drive	-9.52123
▁false	-9.52143
ging	-9.52216
▁character	-9.52263
▁lead	-9.52294
▁shall	-9.52301
ai	-9.5234
IS	-9.52378
▁words	-9.52392
NO	-9.52393
▁makes	-9.52483
sta	-9.52498
ons	-9.52531
><	-9.52538
▁Du	-9.52544
▁itself	-9.52557
▁separate	-9.52576
▁Ga	-9.52577
▁clinical	-9.52639
ado	-9.52648
▁probably	-9.52686
▁production	-9.52687
ush	-9.52705
tre	-9.52767
\_	-9.5277
ving	-9.52796
▁sur	-9.52915
td	-9.52992
▁0.1	-9.53178
ON	-9.53232
▁today	-9.53319
▁cur	-9.53344
ement	-9.53345
ery	-9.53411
▁write	-9.53414
▁fi	-9.53463
ina	-9.53508
▁char	-9.53646
}{\	-9.53724
▁correct	-9.53743
▁auto	-9.53784
class	-9.53804
MA	-9.53861
▁seems	-9.53912
▁someone	-9.53965
▁district	-9.53972
UN	-9.53976
▁0,	-9.54101
▁Mi	-9.54118
ob	-9.54276
91	-9.54335
▁allow	-9.54342
psi	-9.54357
▁title	-9.54374
TH	-9.54412
IC	-9.5443
▁effective	-9.5447
rim	-9.5452
▁physical	-9.54565
ou	-9.54597
▁Act	-9.54646
▁involved	-9.54699
7)	-9.5475
hr	-9.54931
ek	-9.54938
mic	-9.54944
▁wanted	-9.55025
}}$	-9.55127
▁rel	-9.55205
ates	-9.55227
▁looked	-9.55227
▁element	-9.5523
ok	-9.55238
▁taking	-9.55255
og	-9.55323
Delta	-9.55406
▁word	-9.55412
▁degree	-9.55442
▁mother	-9.55461
▁bad	-9.55471
▁wall	-9.55632
▁(\[	-9.55834
MP	-9.55853
cha	-9.55871
▁expected	-9.55922
▁input	-9.55942
▁pressure	-9.55943
▁behind	-9.55966
▁Can	-9.55988
▁mode	-9.56027
▁methods	-9.56044
infty	-9.56128
▁complete	-9.56235
AC	-9.5633
▁stay	-9.56351
SP	-9.56355
SS	-9.56442
▁price	-9.56519
▁26	-9.56539
▁screen	-9.56577
ean	-9.56725
▁quite	-9.56744
▁necessary	-9.56939
▁3.	-9.56973
▁http	-9.57098
dia	-9.57113
▁determine	-9.57144
▁produce	-9.57283
spec	-9.57351
▁fit	-9.5739
▁share	-9.57395
rt	-9.57397
ene	-9.57435
sign	-9.5747
▁direction	-9.57478
▁deep	-9.57596
LI	-9.57683
script	-9.57751
bor	-9.57775
▁damage	-9.57875
▁states	-9.57895
▁percent	-9.57928
▁str	-9.5805
$-	-9.58118
▁inside	-9.58132
-4	-9.58227
▁quality	-9.5828
mark	-9.58287
▁figure	-9.58406
ency	-9.58406
▁![	-9.5847
▁presence	-9.58518
▁Go	-9.58528
▁outside	-9.58567
down	-9.58572
▁independent	-9.58699
LA	-9.58713
▁constant	-9.58779
sub	-9.58801
\\	-9.58822
gue	-9.58831
▁services	-9.58974
▁cover	-9.59048
▁fun	-9.59056
ele	-9.59074
▁rule	-9.59106
width	-9.59172
▁First	-9.59175
▁dr	-9.59258
▁City	-9.59265
▁From	-9.59272
US	-9.59372
▁recent	-9.59375
▁ho	-9.59541
▁especially	-9.596
ret	-9.59632
oy	-9.59772
oma	-9.59842
▁knew	-9.59894
▁leg	-9.59904
▁culture	-9.5994
▁Cl	-9.59985
lay	-9.59996
hal	-9.60035
▁month	-9.60156
▁bio	-9.60183
ient	-9.60196
▁late	-9.60228
nic	-9.60337
▁lines	-9.60428
▁simply	-9.60511
▁Sch	-9.60601
py	-9.6078
▁!=	-9.60829
ather	-9.60869
▁Gu	-9.6089
▁output	-9.6096
wi	-9.60961
▁band	-9.60983
▁cr	-9.61038
▁op	-9.61114
▁everything	-9.61125
source	-9.61166
▁Although	-9.61168
▁Of	-9.61173
></	-9.61178
▁center	-9.61208
▁determined	-9.61234
mission	-9.61312
▁27	-9.61356
aw	-9.61356
▁OF	-9.61364
ender	-9.61415
▁err	-9.61487
▁card	-9.61505
Object	-9.61507
▁unit	-9.61532
▁pair	-9.61541
▁pain	-9.61619
roll	-9.61651
▁4.	-9.6167
▁appeal	-9.6169
ney	-9.61756
ool	-9.61761
▁problems	-9.6178
}}\	-9.61873
He	-9.61873
SC	-9.61901
▁situation	-9.61906
▁became	-9.61911
▁location	-9.62041
▁release	-9.62041
ther	-9.62083
PS	-9.62085
▁political	-9.62174
▁tra	-9.62197
grad	-9.62337
ult	-9.62413
mail	-9.62461
▁tissue	-9.62477
lot	-9.62515
|\	-9.62517
fold	-9.62531
▁je	-9.62543
▁build	-9.62572
lie	-9.62685
▁fr	-9.62784
▁gl	-9.62897
▁&&	-9.62975
▁load	-9.63092
▁began	-9.63098
▁longer	-9.63101
▁girl	-9.63132
iff	-9.63146
▁note	-9.63151
▁receive	-9.63158
^*	-9.63195
▁initial	-9.63305
)}	-9.63325
ature	-9.63362
▁couple	-9.6342
▁species	-9.63427
▁che	-9.63428
RA	-9.6345
▁South	-9.63487
▁direct	-9.63516
▁plaintiff	-9.63563
▁author	-9.63567
▁works	-9.63647
ood	-9.63656
▁Pe	-9.63745
ya	-9.63789
▁enter	-9.63876
▁issues	-9.63917
▁features	-9.64008
List	-9.64064
▁impact	-9.64073
sen	-9.64075
gram	-9.64324
SI	-9.64331
tail	-9.64373
1){	-9.64466
▁Ju	-9.6454
ject	-9.64565
▁goal	-9.64566
▁friend	-9.64602
▁window	-9.64602
▁former	-9.64611
Pro	-9.64658
include	-9.6468
sha	-9.64711
▁models	-9.64789
▁4*	-9.648
term	-9.64804
▁police	-9.64809
▁obtain	-9.64876
8)	-9.64943
bf	-9.64946
▁focus	-9.65063
▁behavior	-9.65105
base	-9.65113
ble	-9.65127
▁events	-9.65139
▁setting	-9.65243
range	-9.65284
▁pen	-9.65457
▁lack	-9.6547
OP	-9.65487
trans	-9.65602
flu	-9.65688
▁poly	-9.65709
▁command	-9.65734
dis	-9.65748
5)	-9.65749
▁Col	-9.658
box	-9.6581
rig	-9.65815
)/(	-9.65867
ui	-9.65909
▁running	-9.65942
car	-9.65958
lat	-9.66042
TA	-9.66071
▁0;	-9.66182
▁Ja	-9.66224
▁memory	-9.66317
▁Su	-9.66359
▁log	-9.66475
▁prime	-9.66569
qua	-9.66582
cho	-9.66623
▁Hu	-9.66626
ale	-9.66704
SD	-9.66728
space	-9.66759
bal	-9.6678
4,	-9.6678
▁father	-9.66815
▁challenge	-9.66816
▁woman	-9.66883
ord	-9.66924
▁Inc	-9.66955
▁fight	-9.66979
▁comes	-9.67012
lation	-9.67013
▁force	-9.67082
EL	-9.67098
▁2,	-9.67129
▁node	-9.67197
▁update	-9.67356
▁policy	-9.67398
ivity	-9.674
▁track	-9.6744
▁felt	-9.67494
link	-9.67499
count	-9.67551
){	-9.6756
▁29	-9.67633
Text	-9.67678
▁turned	-9.67719
▁Sha	-9.67719
map	-9.67736
tract	-9.67769
!"	-9.67783
zo	-9.67822
En	-9.67822
cept	-9.67829
▁instance	-9.67832
▁maintain	-9.6788
▁office	-9.67925
▁easy	-9.67926
ica	-9.68027
position	-9.68173
▁array	-9.68179
▁null	-9.68228
▁round	-9.68247
▁North	-9.68258
▁bound	-9.68287
▁students	-9.68383
▁created	-9.68422
ised	-9.68459
ans	-9.68509
array	-9.6853
air	-9.68549
▁written	-9.68569
Key	-9.68649
ez	-9.68653
▁provides	-9.68733
IP	-9.68818
3-	-9.68882
▁presented	-9.68947
500	-9.69001
▁reach	-9.69004
▁judgment	-9.69113
▁met	-9.69128
▁increasing	-9.69144
▁Therefore	-9.69176
▁primary	-9.69225
radi	-9.69245
▁scale	-9.69246
af	-9.69332
▁fine	-9.69364
▁Tra	-9.69366
circ	-9.69486
thing	-9.69549
▁invention	-9.696
▁sk	-9.69608
▁procedure	-9.69613
1}	-9.69638
▁index	-9.69713
▁hit	-9.69716
▁gave	-9.69729
▁properties	-9.69792
1.	-9.69839
▁tried	-9.69899
▁id	-9.69938
Con	-9.70078
▁directly	-9.70093
▁followed	-9.701
▁Pat	-9.70104
▁random	-9.70106
0.1	-9.7015
▁forward	-9.70157
▁needs	-9.70161
▁World	-9.70206
oth	-9.70207
tilde	-9.70283
▁Trump	-9.70334
▁parameters	-9.70436
2\	-9.70487
BC	-9.70704
▁wrong	-9.70748
ski	-9.7075
▁channel	-9.708
▁ver	-9.70829
▁software	-9.70833
well	-9.70903
▁Mu	-9.70912
▁res	-9.70992
▁Da	-9.71043
▁stand	-9.71143
tt	-9.71257
▁mar	-9.71268
▁identified	-9.71271
yn	-9.71336
▁style	-9.71374
▁dark	-9.7139
num	-9.71404
exp	-9.71431
▁medical	-9.71624
▁tree	-9.71749
▁require	-9.71777
inter	-9.71816
oph	-9.71818
▁conduct	-9.71823
▁der	-9.71834
▁Dis	-9.71879
wer	-9.71894
px	-9.71968
▁negative	-9.71987
▁perform	-9.72035
▁pick	-9.72048
EC	-9.72063
matic	-9.72066
▁knowledge	-9.72105
▁context	-9.72132
}^	-9.72143
▁soon	-9.72324
▁distance	-9.72328
=0	-9.72353
ox	-9.72363
gent	-9.72371
▁CD	-9.72433
▁active	-9.72489
▁choice	-9.72491
vision	-9.72495
▁Cir	-9.72502
ib	-9.72504
lig	-9.72509
▁heat	-9.7252
je	-9.72546
ending	-9.72553
▁ago	-9.72617
style	-9.72647
▁environment	-9.72648
▁task	-9.72649
▁equation	-9.72693
▁connection	-9.72715
▁tumor	-9.72761
hop	-9.72765
▁samples	-9.72769
▁apply	-9.72807
lect	-9.72882
▁double	-9.72893
NS	-9.72941
vent	-9.72984
▁est	-9.72998
▁entire	-9.72998
▁ask	-9.73038
▁influence	-9.7304
sym	-9.73096
▁greater	-9.73105
▁affect	-9.73126
nn	-9.73146
▁national	-9.73172
quad	-9.73256
ential	-9.73302
▁whose	-9.73306
▁General	-9.73337
▁applied	-9.73344
▁March	-9.73346
med	-9.73457
Ex	-9.73477
word	-9.7352
▁themselves	-9.73536
▁elements	-9.73605
▁prop	-9.73674
";	-9.73678
MI	-9.73701
▁weeks	-9.73735
▁ratio	-9.73769
▁products	-9.73809
▁training	-9.73811
unk	-9.73886
▁ja	-9.73942
}(\	-9.73998
-6	-9.74009
press	-9.74033
metric	-9.74051
▁success	-9.74057
▁mod	-9.74134
▁II	-9.74169
▁limited	-9.742
CI	-9.74265
▁basis	-9.74281
▁status	-9.74322
▁developed	-9.7442
ties	-9.74436
▁Gra	-9.74443
▁President	-9.74471
tel	-9.74519
▁machine	-9.74547
▁Calculate	-9.74637
▁por	-9.74695
rie	-9.74717
▁although	-9.74721
rangle	-9.74751
▁follows	-9.74798
▁relative	-9.74802
acy	-9.74835
quot	-9.74872
▁questions	-9.74893
▁operation	-9.74988
▁extra	-9.74996
Error	-9.75029
etic	-9.75101
▁rep	-9.75141
▁avoid	-9.75177
](	-9.75193
1/	-9.75195
▁voice	-9.75268
▁mice	-9.75305
call	-9.75334
FF	-9.75345
▁va	-9.75392
5%	-9.75454
AA	-9.7553
lar	-9.7554
▁60	-9.75606
▁send	-9.75637
hen	-9.75694
▁seem	-9.75755
*]{}	-9.7576
ett	-9.75812
▁Bu	-9.75871
sch	-9.7588
▁les	-9.7595
van	-9.76033
dependent	-9.76041
▁travel	-9.76043
▁computer	-9.76092
mat	-9.76098
-5	-9.76289
▁spin	-9.76311
▁CO	-9.76336
▁store	-9.76353
));	-9.76379
▁coming	-9.76404
▁reduced	-9.7641
itch	-9.76446
▁previously	-9.76455
▁brain	-9.76468
▁sort	-9.76475
▁particularly	-9.76492
AP	-9.76508
▁refer	-9.76595
▁Ke	-9.76616
▁piece	-9.76622
▁buy	-9.76645
aging	-9.76656
ned	-9.76697
info	-9.76707
▁-------------	-9.76931
▁nature	-9.76953
▁Cal	-9.76966
til	-9.76989
▁5*	-9.77
▁generally	-9.77013
DA	-9.7703
ridge	-9.77044
vel	-9.77054
▁dec	-9.77062
▁background	-9.77146
verse	-9.7716
▁lost	-9.77167
▁\<	-9.77205
rk	-9.7731
ular	-9.77358
▁mi	-9.77366
long	-9.77371
▁genes	-9.77428
▁derivative	-9.77527
ada	-9.77669
▁accept	-9.77683
gra	-9.77696
tar	-9.77699
▁sent	-9.77908
ically	-9.77915
▁Comp	-9.77924
win	-9.78
▁link	-9.78006
▁Ad	-9.78133
▁pur	-9.78209
▁County	-9.78358
▁fast	-9.78422
▁Mc	-9.78426
▁ro	-9.78461
▁tend	-9.78492
▁June	-9.78495
ped	-9.78496
▁epi	-9.78511
self	-9.78554
▁perfect	-9.786
▁son	-9.78653
▁usually	-9.78657
▁feature	-9.78703
▁watch	-9.78719
CO	-9.78763
char	-9.78788
▁vehicle	-9.78866
head	-9.78867
▁station	-9.78899
▁global	-9.78904
los	-9.78913
[]	-9.78925
▁players	-9.78926
▁types	-9.78945
▁reaction	-9.79008
▁Fe	-9.79042
▁functions	-9.79055
▁published	-9.79085
Ch	-9.79204
▁prob	-9.79215
▁expect	-9.79256
att	-9.79311
▁[*	-9.79319
▁stress	-9.79366
▁picture	-9.79383
▁anyone	-9.79409
▁website	-9.79536
▁edge	-9.79546
▁America	-9.79553
▁:=	-9.79555
uch	-9.79595
▁wave	-9.79599
board	-9.7967
▁agreement	-9.79781
max	-9.79852
▁client	-9.79871
▁drug	-9.79917
pos	-9.79985
▁House	-9.80033
UT	-9.8007
▁DNA	-9.80075
bol	-9.80125
spir	-9.8013
▁heard	-9.80278
▁writing	-9.80303
PD	-9.80324
▁areas	-9.80348
▁wide	-9.80386
▁etc	-9.80396
002	-9.80541
▁education	-9.80544
▁speed	-9.80583
nce	-9.80635
▁oil	-9.80636
MO	-9.80668
▁sn	-9.80706
AM	-9.80737
▁Ber	-9.80763
▁assert	-9.80781
▁living	-9.80799
▁exc	-9.80831
▁exist	-9.80982
Image	-9.8104
▁br	-9.81044
▁poor	-9.81148
5,	-9.81185
▁remember	-9.81404
▁president	-9.81411
▁rights	-9.8147
▁legal	-9.81604
▁Bi	-9.81643
▁reduce	-9.8171
-8	-9.81727
▁Wi	-9.8174
pet	-9.81793
▁hospital	-9.81812
▁van	-9.81934
▁theory	-9.81985
▁option	-9.81994
▁includes	-9.82014
action	-9.8203
▁del	-9.82094
^{-1}	-9.82172
▁purpose	-9.82175
▁metal	-9.82201
▁__	-9.82217
with	-9.82224
▁Even	-9.82276
▁online	-9.82283
graph	-9.82331
▁opinion	-9.82339
-12	-9.82355
▁volume	-9.82369
▁appear	-9.82522
ident	-9.82573
▁Ni	-9.82613
zz	-9.82617
TR	-9.82631
▁package	-9.8264
▁density	-9.82722
RO	-9.82752
▁represent	-9.82758
▁Cr	-9.82777
▁corresponding	-9.82871
▁clean	-9.82923
-10	-9.83009
mod	-9.8305
mpl	-9.8312
ress	-9.83121
6,	-9.83149
take	-9.83152
gel	-9.83171
gr	-9.83192
^[@	-9.8322
▁Note	-9.83247
▁box	-9.83271
atter	-9.83324
▁Art	-9.83377
/3	-9.83406
▁Ste	-9.83463
^{-	-9.83496
▁regular	-9.83516
gan	-9.83556
dent	-9.83576
▁alone	-9.83579
dot	-9.83642
ection	-9.83678
▁hands	-9.83765
Big	-9.83814
▁relation	-9.83837
($	-9.83887
RT	-9.83965
▁save	-9.84009
▁Ru	-9.84071
▁explain	-9.84096
arch	-9.84109
ama	-9.84132
▁0.5	-9.84177
▁secret	-9.84199
▁column	-9.84253
atory	-9.8428
▁0.2	-9.8432
▁differences	-9.84326
ET	-9.8434
▁domain	-9.84442
hor	-9.84454
▁claims	-9.84496
▁[**	-9.84544
▁phone	-9.84597
▁valid	-9.84654
OL	-9.84691
▁movement	-9.84704
▁throw	-9.84718
▁root	-9.8472
ette	-9.84754
section	-9.84826
ero	-9.8485
util	-9.84893
user	-9.84956
▁protect	-9.84958
oid	-9.85016
**]{}	-9.85042
▁2016	-9.85072
gy	-9.85073
▁prove	-9.85073
▁unique	-9.85109
▁reflect	-9.85151
▁demand	-9.8522
CL	-9.85248
place	-9.85345
vin	-9.85353
▁boy	-9.85387
App	-9.85411
▁shape	-9.85418
bre	-9.85434
put	-9.85494
▁guy	-9.8552
▁/**	-9.85536
▁-3	-9.85541
▁vector	-9.85549
▁default	-9.85563
teen	-9.85568
▁switch	-9.85611
document	-9.85654
▁port	-9.85659
▁Phys	-9.85665
▁cor	-9.85699
▁proposed	-9.85702
▁2014	-9.85763
▁href	-9.85807
▁security	-9.85823
onic	-9.85874
▁outcome	-9.85936
ano	-9.85937
▁infection	-9.85961
dev	-9.85994
shed	-9.86039
▁2012	-9.8607
BA	-9.86074
▁31	-9.86119
▁$1	-9.86169
▁2013	-9.86186
▁failure	-9.86214
▁struct	-9.86215
▁extract	-9.86278
▁town	-9.86343
mate	-9.86398
▁brought	-9.86469
▁construct	-9.86477
▁ability	-9.86488
ories	-9.86509
HA	-9.86518
▁April	-9.86592
▁System	-9.86621
▁July	-9.86632
▁Other	-9.86646
Count	-9.86647
UI	-9.86653
some	-9.86688
▁install	-9.86722
▁Ge	-9.868
och	-9.86803
▁plate	-9.86808
tim	-9.86837
Field	-9.86888
▁measured	-9.86969
Omega	-9.87043
bert	-9.87072
TE	-9.87098
▁road	-9.8716
rac	-9.87164
CS	-9.87175
ense	-9.87226
pen	-9.87252
▁central	-9.87276
▁detect	-9.8728
▁China	-9.87316
▁ret	-9.8736
▁IN	-9.87377
▁pretty	-9.87383
▁strength	-9.87387
GA	-9.87396
▁disc	-9.87447
▁recently	-9.87461
nes	-9.87495
▁male	-9.87505
ml	-9.87524
▁organ	-9.8754
▁friends	-9.87547
▁images	-9.87591
▁},	-9.87602
▁dead	-9.87607
6*	-9.87615
▁speak	-9.8764
aff	-9.87672
cell	-9.87703
▁dynamic	-9.87707
IR	-9.87746
▁attention	-9.87753
▁organization	-9.87754
SO	-9.87777
▁larger	-9.87853
▁Data	-9.87872
▁portion	-9.87895
lit	-9.87922
▁win	-9.87953
uni	-9.87965
▁vote	-9.88073
{1}{	-9.88076
▁More	-9.8816
ators	-9.88164
▁meeting	-9.88195
4-	-9.88198
▁cu	-9.8825
SH	-9.88276
▁August	-9.88292
bra	-9.88321
ken	-9.88346
▁appropriate	-9.88369
https	-9.88374
▁Fig	-9.88461
▁fair	-9.88471
cor	-9.88495
▁gain	-9.88579
▁Pr	-9.88606
Time	-9.88619
▁2015	-9.88664
epsilon	-9.88691
▁server	-9.88695
▁notice	-9.88739
▁West	-9.88771
▁operator	-9.88782
ii	-9.88788
pho	-9.88856
▁January	-9.8886
▁Mil	-9.8894
▁sold	-9.88999
▁toward	-9.89053
zy	-9.89058
▁enjoy	-9.89063
7,	-9.89079
▁Lu	-9.89097
▁morning	-9.89119
ati	-9.89147
▁meet	-9.89171
▁sufficient	-9.89294
ific	-9.8934
▁Wal	-9.89499
vec	-9.89499
▁fat	-9.89671
2}	-9.89671
-7	-9.89696
group	-9.89696
core	-9.8971
▁chance	-9.89773
pha	-9.89782
▁offer	-9.89863
illa	-9.89875
▁please	-9.89901
▁trade	-9.89958
▁suggest	-9.90019
(1)	-9.90127
▁Cha	-9.90131
1*	-9.9018
▁board	-9.9025
▁allowed	-9.90256
▁safe	-9.90263
cycl	-9.90307
▁###	-9.90335
▁High	-9.90336
▁alter	-9.90346
▁shift	-9.90353
▁push	-9.90356
▁train	-9.9039
▁Je	-9.90468
▁mon	-9.90486
▁adult	-9.90488
▁kill	-9.90546
▁seven	-9.90569
PR	-9.90572
▁select	-9.90614
Gamma	-9.90634
night	-9.90681
▁proceed	-9.90712
▁highly	-9.90732
▁ball	-9.9084
▁saying	-9.90846
▁serious	-9.90882
ros	-9.9095
▁Also	-9.90966
▁fixed	-9.9097
▁Because	-9.91003
▁Time	-9.91012
du	-9.91024
▁Ri	-9.91057
▁sum	-9.9108
zi	-9.91103
▁designed	-9.91111
ets	-9.91125
rich	-9.9114
▁Cor	-9.91261
8,	-9.9128
▁transfer	-9.91327
▁License	-9.91338
▁bank	-9.91343
▁2010	-9.91344
tab	-9.91359
rel	-9.91401
▁useful	-9.91414
▁failed	-9.91417
▁frequency	-9.91422
▁2017	-9.91498
ella	-9.91512
▁learn	-9.91552
▁fan	-9.91577
ram	-9.9158
lim	-9.91628
fil	-9.91639
What	-9.91666
▁treated	-9.9167
▁wrote	-9.9172
▁Am	-9.91761
▁everyone	-9.91768
▁OR	-9.91798
------------	-9.91858
▁ce	-9.91916
▁pattern	-9.91916
▁games	-9.9192
▁functional	-9.91983
▁transport	-9.92078
9)	-9.9208
▁selected	-9.92109
0.5	-9.92206
And	-9.92287
▁produced	-9.92313
▁birth	-9.92405
6)	-9.9241
Item	-9.92424
▁comment	-9.92464
▁female	-9.92512
war	-9.92529
iction	-9.92542
▁devices	-9.92544
▁management	-9.9258
▁economic	-9.92588
iti	-9.92592
dom	-9.92596
▁wasn	-9.9262
▁District	-9.92643
item	-9.92647
▁eye	-9.92662
Al	-9.92699
▁drop	-9.927
▁reading	-9.9272
oke	-9.92772
An	-9.92773
▁leader	-9.92791
▁established	-9.92842
▁define	-9.92913
▁divided	-9.93123
▁September	-9.93178
ato	-9.93224
▁35	-9.93231
▁English	-9.93234
▁Bra	-9.93268
lf	-9.93313
▁frame	-9.9345
▁circuit	-9.93476
▁32	-9.93599
▁hundred	-9.93642
-1}	-9.93643
▁combination	-9.93654
▁October	-9.9366
Mo	-9.93763
each	-9.93769
▁built	-9.94034
url	-9.94068
ky	-9.94075
▁2011	-9.94114
▁Pri	-9.94139
▁press	-9.94168
book	-9.9422
mal	-9.94275
▁technology	-9.94317
▁Tri	-9.94342
▁leading	-9.94349
▁caused	-9.9437
arrow	-9.94388
▁acc	-9.94464
dd	-9.94468
Co	-9.94512
▁copy	-9.94536
rightarrow	-9.94556
variant	-9.94635
▁critical	-9.9464
}$,	-9.94658
scope	-9.94659
++	-9.9467
▁neuro	-9.94684
▁5.	-9.94735
▁Just	-9.94768
▁identify	-9.9477
▁mid	-9.94869
prop	-9.94884
ique	-9.94887
ope	-9.94887
wise	-9.94903
.$$	-9.94951
ME	-9.94994
fn	-9.95012
ians	-9.95054
▁fund	-9.95078
▁describe	-9.95093
subset	-9.95112
TO	-9.95204
▁earlier	-9.95252
VE	-9.95372
rd	-9.95413
▁cluster	-9.95422
CD	-9.95508
▁consistent	-9.95579
color	-9.9563
▁federal	-9.95655
▁completely	-9.95679
ew	-9.95681
▁components	-9.95696
▁Ver	-9.95757
EX	-9.95759
▁sal	-9.95889
▁lu	-9.95904
HO	-9.95914
meter	-9.95926
▁wait	-9.95933
▁easily	-9.95943
▁Fa	-9.96055
Get	-9.96074
▁countries	-9.96083
▁improve	-9.96097
NE	-9.96192
^{2}	-9.96198
ament	-9.96265
ography	-9.96309
▁eight	-9.96323
direct	-9.96339
math	-9.96342
▁observation	-9.96373
▁Mor	-9.9638
▁begin	-9.96413
▁panel	-9.96426
▁pu	-9.96451
query	-9.96507
▁fail	-9.96535
rr	-9.96536
print	-9.96554
▁connect	-9.96584
▁findings	-9.96605
▁component	-9.96617
▁touch	-9.96649
▁radio	-9.96665
▁details	-9.96719
▁Two	-9.96757
metry	-9.96797
room	-9.96823
▁currently	-9.96831
aci	-9.96848
▁weak	-9.96853
▁rates	-9.96859
▁except	-9.96873
▁Department	-9.96911
▁Trans	-9.97019
arm	-9.97048
RS	-9.97072
▁sta	-9.97077
▁implement	-9.97092
BS	-9.97119
Un	-9.9715
▁coll	-9.97174
elle	-9.97272
▁hear	-9.97278
tant	-9.97319
▁collection	-9.97334
▁myself	-9.97389
▁concern	-9.9741
ban	-9.97459
▁communication	-9.97461
▁companies	-9.9747
now	-9.97509
▁users	-9.97512
berg	-9.97621
▁sex	-9.97632
ami	-9.9771
==============	-9.97734
uit	-9.97737
-11	-9.97738
ches	-9.97827
last	-9.97848
▁spec	-9.97895
cu	-9.97903
▁Inter	-9.97969
▁released	-9.9798
oper	-9.97984
ural	-9.98039
▁owner	-9.98073
stream	-9.98088
▁bus	-9.98099
material	-9.981
EM	-9.98125
▁suffer	-9.98173
stone	-9.98182
rant	-9.9822
pic	-9.98234
def	-9.98347
osis	-9.98369
▁fear	-9.98435
▁December	-9.98484
▁meaning	-9.98618
▁rat	-9.98635
▁novel	-9.98638
agon	-9.98641
▁measure	-9.98643
▁moved	-9.98682
▁concept	-9.98724
config	-9.98741
▁seemed	-9.98742
▁worked	-9.98753
▁November	-9.98768
▁takes	-9.98775
▁plant	-9.98794
▁feeling	-9.98798
▁web	-9.98846
▁purchase	-9.98859
▁wish	-9.98881
▁decided	-9.98883
PL	-9.98888
varepsilon	-9.98915
▁located	-9.98933
other	-9.9896
▁Fr	-9.98967
▁William	-9.98974
▁numbers	-9.99011
TC	-9.99059
▁Sub	-9.99072
▁Solve	-9.99087
▁campaign	-9.99101
▁Che	-9.99158
▁curve	-9.99202
tens	-9.99206
Event	-9.99212
aries	-9.99259
▁matrix	-9.99271
▁professional	-9.99289
▁skin	-9.9932
▁sell	-9.99325
003	-9.99331
▁skill	-9.99336
east	-9.99372
ria	-9.99379
order	-9.99428
vid	-9.99439
▁According	-9.99507
▁formation	-9.99527
dict	-9.9958
▁beyond	-9.99605
active	-9.99611
hang	-9.99617
PO	-9.9963
▁industry	-9.99636
cast	-9.99641
}$.	-9.99714
fully	-9.99729
▁expressed	-9.99798
▁Don	-9.9981
▁suit	-9.99841
▁sentence	-9.99841
▁Park	-9.99951
▁finding	-10
User	-10.0001
cellular	-10.0001
vol	-10.0002
cular	-10.0007
▁song	-10.001
▁changed	-10.0013
▁Which	-10.0015
▁func	-10.0017
▁serve	-10.0019
▁carry	-10.0021
ili	-10.0023
▁develop	-10.0025
▁label	-10.0025
fl	-10.0026
ode	-10.003
▁contrast	-10.003
▁containing	-10.0035
run	-10.004
▁counter	-10.0046
IL	-10.0047
sky	-10.0056
▁extend	-10.0058
PE	-10.0066
tur	-10.0067
▁hearing	-10.0069
/(	-10.0069
err	-10.007
For	-10.0075
sup	-10.0078
▁comparison	-10.008
▁promote	-10.0082
▁individuals	-10.0083
▁proteins	-10.0083
function	-10.0084
ENT	-10.0088
EA	-10.0092
▁advantage	-10.0092
▁contains	-10.0096
2*	-10.0096
▁judge	-10.0097
cia	-10.0101
▁3,	-10.0102
▁clearly	-10.0109
}_{\	-10.011
▁estimate	-10.0113
ebra	-10.0114
▁cool	-10.0117
ket	-10.0117
▁Ko	-10.0119
don	-10.012
error	-10.012
▁interview	-10.0122
▁filter	-10.013
lum	-10.0133
face	-10.0133
ough	-10.0137
▁row	-10.014
▁cat	-10.0143
bel	-10.0145
▁financial	-10.0156
▁formed	-10.0157
5-	-10.0159
▁internal	-10.016
▁supported	-10.0162
▁quickly	-10.0163
attribute	-10.0171
ien	-10.0174
▁requires	-10.018
▁shot	-10.0181
▁generated	-10.0184
▁worth	-10.0186
▁credit	-10.0188
▁Gi	-10.0189
▁blue	-10.0192
tive	-10.0195
▁compound	-10.0197
=1	-10.0199
gn	-10.0201
▁hair	-10.0202
▁List	-10.0203
▁und	-10.0203
▁played	-10.0208
operatorname	-10.0211
ida	-10.0214
Exception	-10.0219
▁sun	-10.0224
▁};	-10.0226
IM	-10.0226
Method	-10.0227
▁email	-10.0235
▁race	-10.0238
▁highest	-10.0238
0.2	-10.0244
▁led	-10.0252
ended	-10.0255
▁profile	-10.0255
-19	-10.0255
FA	-10.0256
▁Your	-10.0259
▁actual	-10.026
▁Ab	-10.0262
_3	-10.0265
▁sometimes	-10.0268
-01	-10.0268
▁Te	-10.0273
dir	-10.0275
▁Bur	-10.0277
NC	-10.028
▁syn	-10.0281
varphi	-10.0283
**4	-10.0284
▁gives	-10.0285
▁Pi	-10.0287
▁Hi	-10.0288
▁express	-10.029
▁///	-10.0291
CE	-10.0292
▁smaller	-10.0292
▁green	-10.0293
mut	-10.0297
▁linear	-10.0301
▁popular	-10.0303
hand	-10.0304
FO	-10.0304
ura	-10.0307
aster	-10.0312
▁temp	-10.0312
▁Figure	-10.0314
▁overall	-10.0324
free	-10.0325
une	-10.0327
▁parameter	-10.0328
▁School	-10.0335
▁nor	-10.0343
Path	-10.0368
▁towards	-10.0373
DC	-10.0373
▁occur	-10.0377
▁sites	-10.0377
vention	-10.038
image	-10.0393
▁meta	-10.0399
▁cycle	-10.0402
ott	-10.0405
loc	-10.0412
▁los	-10.0415
Model	-10.0417
ford	-10.0424
index	-10.0431
pose	-10.0433
▁medium	-10.0433
▁variable	-10.0434
tes	-10.0435
▁strain	-10.0436
▁CA	-10.0438
▁Over	-10.044
▁Health	-10.0442
▁Reg	-10.0442
rist	-10.0443
▁Most	-10.0445
rack	-10.0446
itis	-10.0454
Point	-10.0456
▁concentration	-10.0457
▁algorithm	-10.0459
300	-10.046
▁respond	-10.0462
▁relevant	-10.0462
▁height	-10.0468
▁String	-10.0471
ened	-10.0472
▁fix	-10.0478
▁official	-10.0479
xe	-10.0482
▁2008	-10.0484
▁trust	-10.049
comp	-10.0499
▁driver	-10.05
▁scan	-10.0502
▁options	-10.0503
▁sin	-10.0509
bur	-10.0516
▁hyper	-10.0518
▁solid	-10.0519
-20	-10.0528
▁authors	-10.0533
▁exactly	-10.0536
late	-10.0538
CP	-10.0543
▁enable	-10.0546
+1}	-10.0551
eng	-10.0561
▁definition	-10.0562
ita	-10.0565
itu	-10.0566
IF	-10.0573
▁player	-10.0574
een	-10.0575
ku	-10.0576
fusion	-10.0576
▁parties	-10.0577
-9	-10.0579
2.0	-10.0579
On	-10.0581
write	-10.0589
▁handle	-10.0589
▁slow	-10.0589
▁wild	-10.0595
▁Sw	-10.0595
_{1}	-10.06
▁Any	-10.06
St	-10.0607
▁Moreover	-10.0609
how	-10.0611
This	-10.0611
▁British	-10.0612
▁spoke	-10.0617
▁showing	-10.0618
CON	-10.0619
▁Paul	-10.0623
▁0.3	-10.0625
▁dog	-10.0626
const	-10.0627
▁allows	-10.0628
▁Service	-10.0637
(2)	-10.0638
▁closed	-10.0644
▁sleep	-10.0647
▁-4	-10.0649
▁aim	-10.065
▁David	-10.0651
▁chain	-10.0652
DR	-10.0653
rib	-10.0655
▁experiments	-10.0656
rot	-10.0659
▁remains	-10.0661
▁bla	-10.0663
EE	-10.0669
▁filed	-10.0669
▁understanding	-10.0669
open	-10.0672
▁attend	-10.0674
▁staff	-10.0675
▁learning	-10.0675
start	-10.0678
IA	-10.0682
▁activities	-10.0684
▁military	-10.0687
align	-10.0691
▁2009	-10.0695
▁binding	-10.0697
2]	-10.0697
▁ensure	-10.07
hap	-10.0704
cos	-10.0705
ional	-10.0705
avi	-10.0706
ographic	-10.0707
ava	-10.0707
▁wonder	-10.0708
▁------	-10.071
▁appears	-10.0712
▁2018	-10.0713
1.5	-10.0713
nie	-10.0714
▁spend	-10.0719
rick	-10.0721
gene	-10.0726
ari	-10.0729
▁goes	-10.0729
▁wife	-10.0732
related	-10.0733
vit	-10.0737
▁immediately	-10.0739
miss	-10.0739
▁walk	-10.074
▁agree	-10.074
▁Min	-10.0741
▁sea	-10.0746
lam	-10.0748
arc	-10.0748
▁Section	-10.0751
▁mono	-10.0755
▁middle	-10.0756
▁intra	-10.0757
Set	-10.076
pass	-10.0761
▁mg	-10.0761
▁36	-10.077
▁/>	-10.0788
▁module	-10.079
▁solve	-10.0794
▁37	-10.08
▁reduction	-10.0801
▁Ben	-10.0801
▁association	-10.081
▁counsel	-10.0816
▁finally	-10.0816
▁London	-10.0817
▁basic	-10.0824
▁spot	-10.0832
▁distinct	-10.0835
▁news	-10.0838
duction	-10.084
▁connected	-10.084
rand	-10.0843
▁Get	-10.0843
ule	-10.0851
▁proof	-10.0855
▁feet	-10.0857
▁cas	-10.0858
hol	-10.0865
▁isn	-10.0866
▁Indian	-10.0868
▁ship	-10.0869
▁letter	-10.0869
▁listen	-10.0872
▁predict	-10.0874
▁har	-10.0876
▁database	-10.0885
erry	-10.0888
▁exercise	-10.0889
▁zero	-10.0896
▁expert	-10.0897
▁Ed	-10.0911
ara	-10.0914
)/	-10.0916
▁threat	-10.0919
▁trip	-10.092
▁roll	-10.0926
rl	-10.0927
equ	-10.093
FI	-10.093
node	-10.0935
▁receptor	-10.094
▁carried	-10.0946
▁transition	-10.0946
ming	-10.0949
inc	-10.0951
▁California	-10.0956
▁6.	-10.0961
▁regard	-10.0961
▁discussion	-10.0961
▁exhibit	-10.0964
▁throughout	-10.0975
▁interesting	-10.0975
option	-10.0976
▁aspect	-10.0978
OT	-10.098
▁TO	-10.0995
▁scene	-10.0998
2){	-10.0999
▁nearly	-10.1003
langle	-10.1006
▁pla	-10.1009
▁subsequent	-10.1015
▁manner	-10.1018
UR	-10.1031
▁substantial	-10.1031
▁resulting	-10.1032
1/2	-10.1034
)=	-10.1035
▁White	-10.1036
tag	-10.1037
▁yield	-10.1037
▁correlation	-10.1038
▁brief	-10.1038
▁len	-10.104
rum	-10.1042
▁Ser	-10.1046
▁processes	-10.105
PRO	-10.1051
rio	-10.1051
▁revealed	-10.1054
▁indicated	-10.1055
IO	-10.1056
▁Why	-10.1056
▁parent	-10.1058
Array	-10.1058
overline	-10.1061
▁continued	-10.1061
▁maximum	-10.1068
SU	-10.1068
ani	-10.1072
cit	-10.1072
▁gun	-10.1074
▁couldn	-10.1079
▁contribute	-10.1084
▁parents	-10.1085
[0]	-10.1088
▁construction	-10.1093
▁foot	-10.1094
▁engage	-10.1099
▁street	-10.1101
rough	-10.1102
▁convert	-10.1107
Size	-10.1111
▁cru	-10.1115
▁hot	-10.1129
▁References	-10.1135
▁border	-10.1139
non	-10.1141
▁Washington	-10.1152
▁During	-10.1157
▁investigation	-10.1163
▁parts	-10.1171
▁ready	-10.1172
▁participants	-10.1175
uring	-10.1178
▁election	-10.1183
▁alternative	-10.1187
▁achieve	-10.1187
byte	-10.1188
▁choose	-10.1201
▁interaction	-10.1202
▁floor	-10.121
▁bool	-10.1214
▁Center	-10.1215
▁Europe	-10.1216
▁broad	-10.1216
▁pathway	-10.1216
▁reasons	-10.1223
▁files	-10.1226
▁Em	-10.123
Par	-10.1232
▁exception	-10.1234
site	-10.124
▁passed	-10.1246
.](	-10.1247
font	-10.1248
▁jury	-10.1248
005	-10.1252
▁favor	-10.1256
Index	-10.1257
▁materials	-10.1259
BI	-10.126
▁camp	-10.126
minimal	-10.1267
▁regarding	-10.127
▁dia	-10.1272
▁moving	-10.1277
Log	-10.1277
▁remove	-10.1279
▁stated	-10.1282
rating	-10.1282
▁items	-10.1282
arian	-10.1283
▁bottom	-10.1285
▁treat	-10.1287
▁cont	-10.1289
▁relatively	-10.1289
cker	-10.1289
ike	-10.1291
▁February	-10.1292
['	-10.1296
▁beginning	-10.1297
▁nu	-10.1299
▁Nor	-10.1303
▁assume	-10.1306
▁perhaps	-10.1306
leg	-10.1306
▁una	-10.1307
▁international	-10.1311
▁happened	-10.1313
ried	-10.1313
▁career	-10.1315
▁reached	-10.1315
dding	-10.1316
▁45	-10.1316
PI	-10.1325
▁fully	-10.1326
)$.	-10.1327
▁AND	-10.1342
}^{\	-10.1344
gree	-10.1355
main	-10.136
▁pan	-10.1362
▁7.	-10.1363
PP	-10.1372
ache	-10.1378
▁hour	-10.1381
Date	-10.1381
▁android	-10.1384
▁placed	-10.1384
▁modern	-10.1385
cus	-10.1387
ulating	-10.139
*)	-10.1391
itive	-10.1393
▁onto	-10.1394
▁European	-10.14
TER	-10.1403
▁thinking	-10.1404
▁majority	-10.1404
▁lives	-10.1406
▁Public	-10.1407
cher	-10.1409
▁mechanism	-10.141
impl	-10.141
▁therapy	-10.1412
length	-10.1414
ula	-10.1415
stack	-10.1417
▁decrease	-10.1418
▁ways	-10.1421
▁variables	-10.1424
▁links	-10.1427
▁gone	-10.143
▁looks	-10.1432
▁Every	-10.1434
▁80	-10.1436
▁civil	-10.1437
NP	-10.1439
▁rock	-10.1441
▁Pol	-10.1441
▁Research	-10.1443
gli	-10.1444
▁rules	-10.1445
▁qual	-10.1446
▁movie	-10.1446
▁contribution	-10.1448
▁Furthermore	-10.145
flow	-10.1453
▁eat	-10.1455
▁Post	-10.1455
▁med	-10.1457
▁cho	-10.1458
▁visual	-10.1459
▁letters	-10.1459
▁---	-10.1464
doc	-10.1467
▁upper	-10.1468
▁wh	-10.1472
tig	-10.1472
ware	-10.1491
▁candidate	-10.1492
▁conclusion	-10.1492
▁injury	-10.1495
▁bill	-10.1495
Class	-10.1503
199	-10.1503
1.0	-10.1504
▁kept	-10.1505
▁ta	-10.1506
▁otherwise	-10.1507
▁returned	-10.151
▁plus	-10.1513
▁interface	-10.1513
▁reasonable	-10.1513
▁French	-10.1513
▁USA	-10.1514
▁90	-10.1516
media	-10.1526
▁graph	-10.1527
})$	-10.1527
TS	-10.153
[\	-10.1533
▁resistance	-10.1534
▁0.9	-10.1536
posed	-10.154
prov	-10.1547
▁(2)	-10.1547
rin	-10.1548
ATE	-10.1551
java	-10.1554
}=	-10.1556
▁award	-10.1558
▁Finally	-10.1559
Do	-10.1564
chan	-10.1566
▁fish	-10.1567
198	-10.1571
LC	-10.1572
▁platform	-10.1575
400	-10.1578
▁dose	-10.1581
**)	-10.1583
▁Table	-10.1584
ution	-10.1585
parent	-10.1586
lon	-10.1586
DS	-10.1588
▁nation	-10.1589
▁giving	-10.1595
▁named	-10.1599
rent	-10.1603
clar	-10.1607
even	-10.1616
▁indicate	-10.1618
}}(	-10.1618
Test	-10.162
0000	-10.1623
▁playing	-10.1623
▁regions	-10.1625
▁width	-10.1628
▁stock	-10.163
Source	-10.1631
date	-10.1637
▁picked	-10.1637
burg	-10.1642
met	-10.1643
▁Exp	-10.1647
▁######	-10.1648
Line	-10.1662
▁bone	-10.1665
ubuntu	-10.1666
▁draw	-10.1668
▁exists	-10.167
▁German	-10.1674
Build	-10.1678
▁costs	-10.1679
▁nice	-10.168
▁firm	-10.1683
▁starting	-10.1687
▁stream	-10.1689
▁generation	-10.1694
ordin	-10.1698
ering	-10.1704
cri	-10.1706
▁launch	-10.1713
version	-10.1719
▁calculated	-10.172
▁benefit	-10.172
▁grand	-10.1721
db	-10.1721
nom	-10.1723
▁origin	-10.1729
actic	-10.1731
▁cha	-10.1737
▁remain	-10.1737
▁1)	-10.1737
▁True	-10.174
[1]	-10.1741
oli	-10.1745
▁Mac	-10.1751
▁Another	-10.1753
▁Well	-10.176
▁hypo	-10.1769
▁drink	-10.1773
▁description	-10.1774
▁Hol	-10.1781
▁core	-10.1784
▁applications	-10.1786
▁recommend	-10.1788
level	-10.1789
▁Air	-10.1789
▁lie	-10.1791
▁join	-10.1795
4]	-10.1805
logical	-10.1814
▁removed	-10.1817
▁adapt	-10.1818
▁33	-10.182
titu	-10.1821
Cl	-10.1827
more	-10.1834
▁regulation	-10.1835
▁opportunity	-10.1836
New	-10.1836
▁animals	-10.1836
nate	-10.1836
itt	-10.1839
Me	-10.184
▁ni	-10.1841
▁wear	-10.1843
GL	-10.1844
▁stuff	-10.1846
▁variation	-10.1847
bro	-10.1851
Map	-10.1853
▁James	-10.1857
▁petition	-10.1857
Color	-10.1858
geq	-10.1861
▁paid	-10.1867
tech	-10.1868
▁Sh	-10.187
004	-10.1874
▁wind	-10.1875
▁(**	-10.1875
cip	-10.1876
▁administration	-10.1877
"})	-10.1878
ext	-10.1878
▁0.00	-10.1881
▁delay	-10.1881
▁2007	-10.1885
EV	-10.1888
mid	-10.1891
▁exposure	-10.1892
▁suggested	-10.1892
▁sexual	-10.1894
ALL	-10.1901
cro	-10.1905
ched	-10.1907
▁guide	-10.1908
▁Robert	-10.191
▁King	-10.1913
▁demonstrated	-10.1915
▁doubt	-10.1921
▁establish	-10.1922
php	-10.1923
▁<<	-10.1923
5]	-10.1926
▁Each	-10.1926
▁Pu	-10.1931
▁contain	-10.1932
▁Google	-10.1939
▁Black	-10.1945
▁Israel	-10.1947
▁capital	-10.1947
plication	-10.1948
▁48	-10.195
\],	-10.1952
▁principle	-10.1953
▁route	-10.1953
ball	-10.1954
house	-10.1957
▁mark	-10.1957
▁replacement	-10.1962
006	-10.1965
gal	-10.1967
▁Cas	-10.1969
▁rise	-10.1978
mag	-10.1978
▁4,	-10.198
▁safety	-10.1982
▁park	-10.1983
▁Under	-10.199
▁NOT	-10.199
▁variety	-10.1991
rail	-10.1992
amine	-10.2
race	-10.2
▁Commission	-10.2
▁argue	-10.2001
II	-10.2001
▁sat	-10.2009
▁Green	-10.2009
▁fill	-10.2011
Not	-10.2034
▁aware	-10.2038
ae	-10.2042
▁none	-10.2043
^3	-10.2043
tz	-10.2044
▁brother	-10.2045
▁providing	-10.2046
▁harm	-10.2047
▁processing	-10.205
limit	-10.2052
▁fields	-10.2052
▁detected	-10.2053
under	-10.2058
otic	-10.2058
▁crime	-10.206
PC	-10.2065
State	-10.2068
AG	-10.2069
▁peak	-10.2075
wing	-10.2078
▁plot	-10.2083
GF	-10.2083
▁fresh	-10.209
▁loop	-10.2093
▁statistical	-10.2096
Oh	-10.21
▁-2*	-10.2101
ith	-10.2102
RNA	-10.2103
▁te	-10.2105
bri	-10.2109
▁selection	-10.2109
▁conducted	-10.211
dam	-10.2111
▁0.05	-10.2112
sil	-10.2113
({\	-10.2114
▁correspond	-10.2117
▁becomes	-10.2118
');	-10.2118
ifier	-10.2119
ounce	-10.2121
1.1	-10.2123
▁yourself	-10.2123
OM	-10.2124
VI	-10.2125
page	-10.2132
▁govern	-10.2134
▁effort	-10.2136
▁soft	-10.2137
▁defense	-10.2138
▁sit	-10.2138
▁format	-10.2139
▁glass	-10.2139
▁instruction	-10.2144
▁session	-10.2148
▁experimental	-10.215
▁Office	-10.2151
activ	-10.2164
▁died	-10.2167
▁units	-10.2168
▁resources	-10.217
▁India	-10.2173
EP	-10.2174
continu	-10.2174
▁maybe	-10.218
▁click	-10.2181
ini	-10.2184
lang	-10.2184
ji	-10.219
▁2006	-10.2191
▁Free	-10.2191
▁sources	-10.2195
0.3	-10.2195
▁Law	-10.2195
▁exchange	-10.2196
,$$	-10.2199
▁cre	-10.2201
▁0.4	-10.2202
OW	-10.2205
TT	-10.2206
▁testing	-10.2211
▁tool	-10.2212
▁paint	-10.2215
▁steps	-10.2218
▁whom	-10.2219
▁pal	-10.2223
▁Gar	-10.2228
▁spread	-10.2229
▁seat	-10.2236
DM	-10.2237
▁magnetic	-10.224
▁val	-10.225
}}_	-10.2251
▁Many	-10.2256
\[	-10.226
)*(	-10.2261
ison	-10.2262
▁Tu	-10.2265
▁arrest	-10.2273
MD	-10.2279
▁muscle	-10.2282
▁cold	-10.2286
▁Sal	-10.2287
▁2000	-10.2293
title	-10.2294
▁liquid	-10.2295
▁Up	-10.2297
SM	-10.2297
3}	-10.23
CM	-10.2303
Of	-10.2304
ville	-10.2311
007	-10.2313
▁plea	-10.2319
▁spent	-10.2321
▁disorder	-10.2323
▁motor	-10.2327
▁hab	-10.2331
ibility	-10.2331
FT	-10.2332
2.5	-10.2336
▁custom	-10.2337
▁membrane	-10.2338
post	-10.2338
){#	-10.2339
8*	-10.2339
▁nearest	-10.2347
▁Ann	-10.2352
▁Sam	-10.2353
gress	-10.2357
▁($	-10.2357
▁(4	-10.2358
Supp	-10.2359
NA	-10.2362
▁Part	-10.2362
ancy	-10.2363
▁Congress	-10.2363
▁Christian	-10.2371
▁director	-10.2373
rated	-10.2373
▁rank	-10.2374
law	-10.2377
Po	-10.238
▁det	-10.238
▁shop	-10.238
/5	-10.2384
▁daily	-10.2386
Node	-10.2386
▁PM	-10.2392
Info	-10.2397
▁electro	-10.2398
+1	-10.24
LS	-10.2403
kg	-10.2404
▁books	-10.2408
toxic	-10.241
▁(5	-10.2412
▁70	-10.2413
▁decade	-10.2418
urs	-10.2419
▁assay	-10.2419
current	-10.2421
IG	-10.2423
▁partner	-10.2424
▁formula	-10.2425
▁##	-10.243
▁dimension	-10.2432
▁pl	-10.2432
▁-5	-10.2434
ked	-10.2438
methyl	-10.2442
▁nil	-10.2444
icon	-10.2446
If	-10.2454
▁RE	-10.2456
▁engine	-10.2456
▁(3	-10.2457
phe	-10.2458
Phi	-10.2459
▁capacity	-10.246
▁characteristics	-10.2462
dimensional	-10.2465
▁transform	-10.2469
▁continuous	-10.2474
Number	-10.2481
▁existing	-10.2489
atic	-10.2489
▁balance	-10.2492
PT	-10.2493
▁qui	-10.2494
▁grant	-10.2497
▁intervention	-10.2499
='	-10.2501
▁truth	-10.2504
▁Add	-10.251
specific	-10.2514
▁severe	-10.2519
▁gold	-10.2519
▁MA	-10.252
(0)	-10.2523
scale	-10.2523
mination	-10.2524
▁traditional	-10.2526
▁Like	-10.2527
▁});	-10.2532
pol	-10.2535
\|	-10.2536
▁rare	-10.2544
▁studied	-10.2544
"/>	-10.2552
tru	-10.2552
host	-10.2553
▁album	-10.2553
▁Work	-10.2554
(0,	-10.2557
▁34	-10.2558
▁Group	-10.2561
oxy	-10.2562
\'	-10.2563
ote	-10.2563
▁catch	-10.2565
▁typically	-10.2567
▁breath	-10.2569
▁pin	-10.2573
strict	-10.2574
▁Day	-10.2577
▁discuss	-10.2577
▁conflict	-10.2584
▁appeared	-10.2586
Le	-10.2591
Base	-10.2595
▁camera	-10.2597
▁bear	-10.26
▁Both	-10.2603
▁cook	-10.2604
▁International	-10.2606
lumin	-10.2606
▁pop	-10.2608
nov	-10.2609
▁reports	-10.2611
▁dev	-10.2614
mann	-10.2619
▁expand	-10.2621
▁raised	-10.2622
cel	-10.2625
▁victim	-10.2637
axis	-10.2638
)$,	-10.2639
▁finger	-10.2642
poli	-10.2643
conf	-10.265
▁happy	-10.2651
Ct	-10.2654
▁farm	-10.2655
rust	-10.2664
]{	-10.267
Check	-10.2673
mes	-10.2675
▁optical	-10.2675
(2	-10.2676
▁detection	-10.2682
api	-10.2684
▁Science	-10.2686
▁talking	-10.2695
▁cast	-10.2696
▁42	-10.2703
▁benefits	-10.2708
▁discussed	-10.2714
▁mentioned	-10.2715
Context	-10.2716
▁immuno	-10.2724
▁Plaintiff	-10.2727
ras	-10.273
card	-10.2731
▁Defendant	-10.2731
true	-10.2733
-15	-10.2734
▁huge	-10.2736
▁proper	-10.2738
rus	-10.2739
mol	-10.274
▁Bre	-10.2741
▁attract	-10.2741
molecules	-10.2742
mathfrak	-10.2743
ured	-10.2753
▁square	-10.2755
▁payment	-10.2757
▁item	-10.2758
diff	-10.2761
connect	-10.2762
OC	-10.2766
▁Second	-10.2766
ogen	-10.2767
▁Star	-10.2768
▁button	-10.2769
TION	-10.2772
ination	-10.2772
▁substrate	-10.2775
']	-10.278
▁Ac	-10.2784
born	-10.2787
▁configuration	-10.2789
plain	-10.2789
▁provision	-10.2791
NI	-10.2792
▁church	-10.2792
▁objects	-10.2794
▁approximately	-10.2795
pan	-10.2797
▁blog	-10.2798
model	-10.2799
▁survey	-10.28
▁Using	-10.28
....	-10.2801
▁https	-10.2804
parse	-10.2813
bus	-10.2819
▁pull	-10.2824
▁feed	-10.2826
▁prepared	-10.2827
pel	-10.2832
▁warm	-10.2833
0.4	-10.2833
▁representation	-10.2834
▁East	-10.2838
▁Han	-10.2839
▁Op	-10.2839
GC	-10.285
▁science	-10.285
▁template	-10.2855
tric	-10.2855
▁century	-10.2859
▁dismiss	-10.286
4}	-10.2862
ius	-10.2863
▁club	-10.2881
▁Ti	-10.2885
▁grow	-10.2887
cin	-10.2887
API	-10.2892
-1)	-10.2898
eau	-10.29
▁Street	-10.2902
ldots	-10.2911
▁responsible	-10.2918
▁branch	-10.292
▁hole	-10.2923
MT	-10.2924
MR	-10.2937
▁IS	-10.294
▁cup	-10.2941
▁George	-10.2943
UL	-10.2945
▁prison	-10.2946
▁witness	-10.2947
input	-10.2948
▁interval	-10.2954
▁mental	-10.2955
block	-10.2957
cord	-10.297
▁burn	-10.2977
control	-10.2981
thro	-10.2985
▁NULL	-10.2985
IV	-10.2991
▁genetic	-10.2991
▁successful	-10.2992
▁DE	-10.2994
▁opened	-10.2994
▁north	-10.2996
ensuremath	-10.3
LD	-10.3001
0\	-10.3005
Project	-10.3006
oon	-10.3009
ima	-10.3015
())	-10.3022
lateral	-10.3023
INT	-10.3024
▁laugh	-10.3024
prime	-10.3025
▁occasion	-10.3026
▁structures	-10.3026
change	-10.3029
turb	-10.3032
▁generate	-10.3033
▁sport	-10.3036
▁False	-10.3038
▁improved	-10.304
case	-10.3042
▁daughter	-10.3046
eration	-10.3051
_{0}	-10.3051
▁evolution	-10.3051
▁denote	-10.3052
▁heavy	-10.3055
▁Four	-10.3055
vor	-10.306
▁terr	-10.3063
▁statute	-10.3068
▁Rev	-10.3069
▁explained	-10.3071
▁alleged	-10.3074
▁smile	-10.3076
▁0)	-10.3077
"},	-10.3081
▁AM	-10.3084
▁Are	-10.3091
▁doctor	-10.3092
Lambda	-10.3092
abilities	-10.3093
ony	-10.3097
▁resident	-10.3102
▁Red	-10.3104
▁activation	-10.3105
▁Yes	-10.311
yard	-10.3111
▁opening	-10.3112
▁minor	-10.3112
▁wouldn	-10.3113
utter	-10.3114
cient	-10.3118
eva	-10.3118
▁Super	-10.3119
which	-10.3119
priv	-10.3122
▁Press	-10.3124
Control	-10.3126
▁smooth	-10.3126
▁digital	-10.3127
▁actions	-10.3127
▁NA	-10.3128
boldsymbol	-10.3131
dig	-10.3133
▁prefer	-10.3134
lab	-10.3135
▁buffer	-10.3138
▁introduced	-10.314
▁summer	-10.3144
uri	-10.3144
admin	-10.315
itation	-10.315
NF	-10.315
lem	-10.3152
▁forms	-10.3152
ider	-10.3153
▁chemical	-10.3156
▁earn	-10.3163
▁served	-10.3164
120	-10.3165
▁$2	-10.3167
Spec	-10.317
▁improvement	-10.3173
▁commercial	-10.3181
MC	-10.3185
▁lock	-10.3186
▁Such	-10.3186
▁resolution	-10.3186
▁colon	-10.3186
▁operate	-10.319
NG	-10.3191
▁float	-10.3191
▁protection	-10.3191
▁essential	-10.3191
awa	-10.3197
▁attorney	-10.32
bul	-10.3206
▁France	-10.3207
▁bond	-10.3211
ulated	-10.3213
All	-10.3216
pc	-10.3217
cat	-10.3218
proto	-10.3226
▁technique	-10.3229
▁virtual	-10.3231
mond	-10.3234
▁electric	-10.3236
▁fluid	-10.3238
Version	-10.3241
^2}	-10.3243
operative	-10.3245
▁beautiful	-10.3255
▁holding	-10.3259
▁TV	-10.3259
layout	-10.3263
▁Once	-10.3264
ech	-10.3266
▁surprise	-10.3268
▁ban	-10.3269
▁flat	-10.3274
▁Michael	-10.3276
▁UK	-10.328
nel	-10.3284
"><	-10.3286
▁external	-10.3287
udi	-10.3293
Sigma	-10.3296
▁inhibitor	-10.3304
check	-10.3306
▁render	-10.3309
content	-10.3311
▁Plan	-10.3312
▁born	-10.3316
▁income	-10.3317
▁Mag	-10.3317
▁mutation	-10.332
▁foreign	-10.332
Comp	-10.3323
yo	-10.3327
▁combined	-10.3327
▁places	-10.333
▁storage	-10.3333
▁(1)	-10.3337
▁promise	-10.3339
▁unless	-10.3339
▁capture	-10.3339
^{(	-10.3342
▁measures	-10.3349
▁Bro	-10.335
CK	-10.3353
mask	-10.3354
was	-10.3356
▁scheme	-10.3357
▁specifically	-10.3363
fici	-10.3365
3]	-10.3365
▁Chinese	-10.337
Action	-10.3375
mir	-10.3376
▁agent	-10.3377
▁diet	-10.3379
▁Ph	-10.338
▁2005	-10.3381
▁Judge	-10.3382
▁increases	-10.3388
ambi	-10.3391
from	-10.3392
▁belong	-10.3393
▁mine	-10.3399
▁certainly	-10.3399
bling	-10.34
▁growing	-10.3401
1%	-10.3403
-13	-10.3407
▁manager	-10.3408
▁master	-10.3408
TM	-10.3421
▁whereas	-10.3422
▁molecular	-10.3423
▁denied	-10.3426
▁Board	-10.3427
▁older	-10.343
▁institution	-10.3437
gate	-10.344
ora	-10.3444
RY	-10.3444
▁conventional	-10.3445
AND	-10.3447
▁strategy	-10.3448
▁Dan	-10.3451
rous	-10.3452
▁noise	-10.3453
iate	-10.3457
▁RNA	-10.3461
▁despite	-10.3474
Edit	-10.3474
BO	-10.3474
▁techniques	-10.3475
3){	-10.3476
ipped	-10.3476
▁criminal	-10.3477
▁artist	-10.3478
vir	-10.348
void	-10.3483
js	-10.3485
▁Test	-10.3485
▁flag	-10.3486
lash	-10.3489
init	-10.349
▁ran	-10.3492
▁pot	-10.3494
Element	-10.3497
▁absence	-10.3497
unit	-10.35
▁poll	-10.35
▁consequence	-10.3501
FL	-10.3503
▁pour	-10.3505
▁collected	-10.3509
▁==========	-10.3512
emp	-10.3515
rup	-10.3515
▁plane	-10.3516
_{2}	-10.3517
▁Use	-10.3517
▁supply	-10.3517
ese	-10.3519
},\	-10.3519
▁remaining	-10.3521
▁echo	-10.3521
ben	-10.3526
▁Bill	-10.3527
▁slightly	-10.3529
▁England	-10.3535
Code	-10.3536
eck	-10.3536
▁animal	-10.3538
mount	-10.3538
▁protocol	-10.3541
▁tools	-10.3541
With	-10.3542
Int	-10.3542
trop	-10.3543
▁killed	-10.3543
▁pack	-10.3555
OD	-10.3555
▁distributed	-10.3555
▁confirmed	-10.3559
)**	-10.356
▁abuse	-10.3561
▁solutions	-10.3563
▁proportion	-10.3563
▁wood	-10.3566
closure	-10.3566
offset	-10.3567
del	-10.3569
tub	-10.357
▁south	-10.3571
▁involve	-10.3574
That	-10.3577
▁extension	-10.3578
rom	-10.3579
▁football	-10.358
igen	-10.3582
Click	-10.359
lysis	-10.359
▁vol	-10.3592
▁surgery	-10.3595
1],	-10.3595
▁husband	-10.3597
PCR	-10.3597
150	-10.3597
▁workers	-10.3602
▁ring	-10.3602
Select	-10.3605
▁complaint	-10.3605
▁angle	-10.3606
Ref	-10.3608
▁student	-10.3617
container	-10.3621
▁occurred	-10.3622
▁std	-10.3629
atur	-10.3631
category	-10.3634
make	-10.3635
▁People	-10.3635
Change	-10.3636
apped	-10.3642
▁tests	-10.3642
1000	-10.3644
Create	-10.3645
▁0.8	-10.3645
▁Er	-10.3647
Message	-10.365
▁survival	-10.3652
local	-10.3654
▁guess	-10.3662
▁Please	-10.3667
▁ser	-10.367
▁equivalent	-10.3671
▁officer	-10.3676
▁analyzed	-10.368
▁PC	-10.3683
▁families	-10.3691
▁tag	-10.3693
-17	-10.3695
▁mix	-10.3698
▁1.0	-10.3698
▁comments	-10.3698
bm	-10.3699
UM	-10.37
kappa	-10.3704
▁agreed	-10.3704
▁mal	-10.3708
▁0.01	-10.371
TP	-10.371
▁battle	-10.3711
▁Stan	-10.3712
▁experiment	-10.3714
dots	-10.372
▁probability	-10.3723
▁mm	-10.3723
▁circumstances	-10.3725
hydr	-10.3739
▁margin	-10.3749
▁offered	-10.375
▁Mark	-10.3756
▁Web	-10.3758
2.1	-10.3776
▁raise	-10.3787
VA	-10.3789
ata	-10.379
▁Read	-10.379
▁advance	-10.3794
▁healthy	-10.3794
3%	-10.3796
▁affected	-10.3799
▁bra	-10.3808
etting	-10.3808
▁semi	-10.381
▁confirm	-10.3812
▁Peter	-10.3813
▁electron	-10.3818
());	-10.3819
▁society	-10.3822
▁tested	-10.3822
GE	-10.3835
0.00	-10.3837
▁instrument	-10.3837
sensitive	-10.3839
▁demonstrate	-10.3842
▁missing	-10.3843
▁Code	-10.3847
▁Republican	-10.385
▁fraction	-10.3851
▁billion	-10.3854
▁homo	-10.3856
azi	-10.3858
▁minimum	-10.3859
▁license	-10.3859
▁herself	-10.3862
▁recorded	-10.3867
RP	-10.3867
cover	-10.3868
▁progress	-10.387
▁assist	-10.387
▁Cap	-10.3873
sync	-10.3874
▁thank	-10.3884
kan	-10.3886
ester	-10.3892
▁writer	-10.3901
▁efficient	-10.3901
Page	-10.3904
▁uint	-10.3909
sys	-10.3909
astic	-10.3914
FC	-10.3916
▁noted	-10.3921
▁Great	-10.3925
▁secure	-10.3926
▁dream	-10.3927
▁entry	-10.3928
OK	-10.3928
▁entered	-10.3931
▁Tom	-10.3933
▁operations	-10.3936
▁symptoms	-10.3939
ptr	-10.3941
_2$	-10.3942
▁composition	-10.3944
▁0.6	-10.3944
▁straight	-10.3946
▁5,	-10.3947
▁assessment	-10.395
URL	-10.3951
-18	-10.3951
▁0.7	-10.3951
Request	-10.3953
emia	-10.3962
▁Port	-10.3964
▁intended	-10.3967
clo	-10.3972
visible	-10.3973
hur	-10.3973
▁Cre	-10.3976
▁Texas	-10.3977
lytic	-10.3982
128	-10.3985
▁2004	-10.3985
▁suppress	-10.3988
wrap	-10.3989
buf	-10.3997
LL	-10.3997
select	-10.4
▁-3*	-10.4007
▁200	-10.401
-16	-10.4012
▁testimony	-10.4013
▁murder	-10.4013
▁simulation	-10.4019
▁extent	-10.402
▁programs	-10.4021
▁Set	-10.4023
lusion	-10.4024
otimes	-10.4034
match	-10.404
tory	-10.4041
xy	-10.4043
oul	-10.4045
EST	-10.4046
▁IL	-10.4046
=0$	-10.4047
▁remark	-10.4047
▁mobile	-10.4051
▁nine	-10.4052
▁Smith	-10.4056
▁Rule	-10.4057
▁Uni	-10.4059
▁incident	-10.406
▁biggest	-10.4066
▁schedule	-10.4069
lia	-10.4069
▁Thanks	-10.407
▁Hill	-10.4073
▁NS	-10.4076
▁summary	-10.4079
urg	-10.4082
▁finite	-10.4085
:19	-10.4086
play	-10.4086
My	-10.4087
induced	-10.4087
gro	-10.4089
▁classes	-10.4092
NT	-10.4092
▁Supreme	-10.4096
result	-10.4098
wel	-10.4101
frame	-10.4102
▁accurate	-10.4106
▁faith	-10.4109
▁debt	-10.411
Box	-10.4111
▁repeated	-10.4113
DI	-10.4115
▁Out	-10.4115
ico	-10.4118
valid	-10.412
▁crystal	-10.4123
ander	-10.4124
hood	-10.4125
mov	-10.4129
xml	-10.414
▁appellant	-10.4141
uv	-10.4143
▁critic	-10.4144
▁quick	-10.4145
-14	-10.4158
▁tu	-10.4159
opt	-10.4163
2%	-10.4164
▁whatever	-10.4165
▁Sea	-10.4168
▁announced	-10.4169
▁Will	-10.4172
▁stat	-10.4177
▁leads	-10.4178
▁shared	-10.4179
▁reverse	-10.4181
Option	-10.4183
STAT	-10.4185
▁Find	-10.4186
Content	-10.4186
▁forces	-10.4187
Th	-10.419
aged	-10.4195
▁Eq	-10.4199
conc	-10.4201
▁estimated	-10.421
product	-10.4211
▁ideas	-10.4211
morphism	-10.4212
▁reject	-10.4214
▁Bank	-10.4215
▁diagnosis	-10.422
▁earth	-10.4226
Pre	-10.4228
road	-10.4235
▁joint	-10.4235
rug	-10.4237
▁derived	-10.4238
▁electronic	-10.424
▁Canada	-10.424
▁facts	-10.4241
2]\]	-10.4245
▁kids	-10.4246
▁(3)	-10.425
▁Institute	-10.4251
▁brand	-10.4253
▁library	-10.4253
bon	-10.4256
header	-10.4258
▁Dar	-10.4259
▁induced	-10.4263
▁breast	-10.4266
▁latter	-10.4268
▁=======	-10.4275
▁appearance	-10.4275
CF	-10.4275
gun	-10.4282
ulf	-10.4282
gui	-10.4287
mil	-10.4292
^1	-10.4295
▁Den	-10.4295
_{{\	-10.4296
▁chair	-10.4297
▁creating	-10.4299
▁records	-10.43
ground	-10.4301
event	-10.4301
▁traffic	-10.4301
5]\]	-10.4302
▁quarter	-10.4302
blo	-10.4304
().	-10.4307
▁explore	-10.4308
corp	-10.4319
▁sensor	-10.4324
3]\]	-10.4325
Multi	-10.4325
most	-10.4326
▁une	-10.4326
▁efforts	-10.4328
inated	-10.433
▁drugs	-10.4331
ude	-10.4333
ception	-10.4341
Write	-10.4342
stein	-10.4345
▁dress	-10.4345
nav	-10.4347
▁covered	-10.4347
▁Gen	-10.4357
object	-10.4364
▁disclose	-10.4364
▁Before	-10.4366
}}_{	-10.4375
▁reader	-10.4376
▁Council	-10.4382
▁horse	-10.4384
rine	-10.4385
▁Char	-10.4385
▁trouble	-10.4385
life	-10.4388
▁decreased	-10.4391
▁enhance	-10.4392
▁bag	-10.4392
▁college	-10.4393
▁Western	-10.4394
▁employees	-10.4394
enc	-10.4397
UP	-10.4401
▁segment	-10.4406
▁Union	-10.4407
Ed	-10.4411
▁Ly	-10.4412
polar	-10.4413
mbox	-10.4415
▁requirements	-10.4415
force	-10.4416
▁seek	-10.4416
HR	-10.4416
▁subjects	-10.4418
▁dry	-10.4421
▁corner	-10.4425
▁coach	-10.4426
▁III	-10.4429
wood	-10.4433
4]\]	-10.4433
▁Germany	-10.4437
▁transmission	-10.4442
▁nuclear	-10.4442
▁Obama	-10.4446
▁stood	-10.4447
sort	-10.4447
▁Win	-10.445
So	-10.4452
▁weapon	-10.4452
▁characters	-10.4456
matrix	-10.4461
ulate	-10.4466
▁Mary	-10.4469
dependence	-10.447
▁speech	-10.4471
UE	-10.4472
▁regime	-10.4474
bat	-10.4474
rb	-10.4475
0.9	-10.4485
star	-10.4487
RM	-10.4488
▁thread	-10.4491
glu	-10.4494
▁Further	-10.4495
embl	-10.4497
3*	-10.4499
▁integr	-10.4506
FR	-10.4511
▁assess	-10.4516
NN	-10.4517
ART	-10.4517
▁coefficient	-10.4518
▁properly	-10.452
6]	-10.4524
▁suggests	-10.4525
▁mouth	-10.4527
▁detail	-10.4531
▁Friday	-10.4535
▁contained	-10.4539
GR	-10.454
holder	-10.454
▁conversation	-10.4541
delete	-10.4544
But	-10.4545
▁largest	-10.4548
-02	-10.4549
▁importance	-10.4554
▁reveal	-10.4555
omb	-10.4556
▁leaving	-10.4559
▁digit	-10.456
▁literature	-10.4562
▁Sen	-10.4562
chrom	-10.4563
▁citizen	-10.4567
ECT	-10.4578
▁Facebook	-10.4584
itting	-10.4587
▁plans	-10.459
tiv	-10.4592
▁Open	-10.4597
▁stories	-10.4599
▁DO	-10.4603
▁sens	-10.4604
▁latest	-10.4613
▁max	-10.4615
▁symbol	-10.4617
1.2	-10.4624
▁>>	-10.4625
▁photograph	-10.4625
gh	-10.4626
▁voltage	-10.4629
Manager	-10.463
▁village	-10.4638
▁bright	-10.4643
▁referred	-10.4649
▁destroy	-10.465
bio	-10.465
▁jurisdiction	-10.4651
▁calculation	-10.4651
▁salt	-10.4653
“	-10.4655
izer	-10.4656
=1}^	-10.4657
create	-10.4667
uel	-10.4667
▁rich	-10.4668
ancing	-10.4668
obj	-10.4672
▁hum	-10.4673
▁2019	-10.4674
▁indeed	-10.4679
▁download	-10.4681
▁integer	-10.4681
crea	-10.4692
▁completed	-10.4694
oxide	-10.4698
Start	-10.4699
▁tip	-10.47
HER	-10.47
/4	-10.4703
▁polymer	-10.4704
▁authority	-10.4704
▁existence	-10.4708
▁guard	-10.4708
▁driving	-10.4709
▁carbon	-10.471
peptide	-10.471
_1$	-10.4711
▁strange	-10.4716
glob	-10.4717
sure	-10.4718
BP	-10.4727
▁objective	-10.4728
AGE	-10.473
TI	-10.4733
▁remained	-10.4738
▁Hy	-10.474
(&	-10.4742
▁2003	-10.4746
that	-10.4753
▁interested	-10.4754
▁marker	-10.4761
▁Sunday	-10.4765
▁recover	-10.477
phone	-10.4775
▁miles	-10.478
▁meant	-10.4782
▁remainder	-10.4783
round	-10.4784
HP	-10.4785
build	-10.4787
▁River	-10.4791
format	-10.4793
weight	-10.4794
6]\]	-10.4795
▁empty	-10.4795
▁il	-10.4796
ido	-10.4799
▁sales	-10.4801
supplementary	-10.4802
▁greatest	-10.4805
▁analyses	-10.4807
▁engineer	-10.4809
▁Christ	-10.4809
4%	-10.481
rog	-10.4814
▁script	-10.4819
tiny	-10.4821
▁thin	-10.4822
▁Shi	-10.4824
▁Men	-10.4825
▁powerful	-10.4829
temp	-10.4833
▁possibility	-10.4834
▁agents	-10.4836
▁patterns	-10.4837
▁percentage	-10.4841
DO	-10.4847
Auto	-10.4851
▁topic	-10.4855
HI	-10.4856
▁lung	-10.4856
UC	-10.4858
▁represents	-10.486
hin	-10.4869
RD	-10.487
▁Mad	-10.4878
▁adding	-10.488
▁plasma	-10.4881
nonumber	-10.4885
Str	-10.4888
5){	-10.4893
eff	-10.4898
:**	-10.49
▁implementation	-10.4906
▁peace	-10.4907
append	-10.4913
▁officers	-10.4921
▁Church	-10.4924
▁stopped	-10.4925
▁causes	-10.4926
8%	-10.4928
▁2001	-10.4935
8]	-10.4936
▁seed	-10.494
▁Frank	-10.4941
Mar	-10.4945
7%	-10.4946
▁pool	-10.4946
▁uniform	-10.495
600	-10.4951
▁learned	-10.4963
▁Lord	-10.4963
▁protected	-10.4965
ime	-10.4967
ando	-10.4969
▁controlled	-10.4969
any	-10.4971
▁conclude	-10.4973
▁evaluation	-10.4974
▁mechanisms	-10.4981
Resource	-10.4981
▁Company	-10.4983
▁split	-10.4983
SR	-10.4985
▁Brown	-10.4988
Order	-10.4988
Property	-10.4995
▁equipment	-10.4997
▁operating	-10.5005
LT	-10.5008
bird	-10.5009
▁apparatus	-10.5013
claim	-10.5013
▁customers	-10.5015
anim	-10.5015
▁java	-10.502
agg	-10.5022
7]	-10.5031
▁stable	-10.5037
0.8	-10.5038
isation	-10.5039
web	-10.5042
▁offers	-10.5043
alloc	-10.5043
▁collect	-10.5045
▁identity	-10.5046
▁Pen	-10.5047
▁quantum	-10.505
▁measurements	-10.5051
▁finish	-10.5051
look	-10.5055
▁standing	-10.5059
▁yes	-10.5061
bound	-10.5064
▁Class	-10.5067
▁concentrations	-10.5069
▁Russian	-10.5074
▁Right	-10.5075
4*	-10.5075
using	-10.5076
Application	-10.5082
duct	-10.5082
▁waiting	-10.5084
▁Hall	-10.5088
At	-10.5089
▁Good	-10.509
9]	-10.5091
▁jump	-10.5097
unsigned	-10.5097
\,\	-10.5099
▁teacher	-10.51
▁permit	-10.5102
▁insurance	-10.5105
▁chronic	-10.5108
▁Tre	-10.5109
▁inner	-10.5118
Link	-10.5127
Ar	-10.513
itter	-10.5133
1^	-10.5136
]$	-10.5139
▁Bio	-10.514
location	-10.5141
▁Who	-10.5147
sql	-10.515
Result	-10.5151
▁fu	-10.5152
▁Jan	-10.5153
▁extended	-10.5155
GO	-10.5158
angle	-10.5159
▁Japanese	-10.5159
▁sustain	-10.5159
***	-10.516
craft	-10.5163
itude	-10.5167
anger	-10.5175
[^	-10.5177
▁particles	-10.5191
▁scar	-10.5193
▁0$	-10.5197
0.7	-10.5197
▁emission	-10.5202
MB	-10.5205
▁deliver	-10.5205
▁-4*	-10.5207
▁fuel	-10.5207
itz	-10.521
▁College	-10.5212
▁disk	-10.5213
▁pure	-10.5215
▁trend	-10.5215
Thank	-10.5215
▁hydro	-10.5215
▁Theorem	-10.522
7]\]	-10.5221
▁consideration	-10.5222
▁rev	-10.5224
▁Foundation	-10.5225
110	-10.5228
CG	-10.5228
hold	-10.5229
0,0	-10.523
▁representative	-10.5233
▁tie	-10.5235
▁Only	-10.5235
▁Game	-10.5235
rage	-10.5237
where	-10.524
▁environmental	-10.5244
return	-10.5246
▁liver	-10.5248
▁recording	-10.5251
cup	-10.5254
cata	-10.5255
ility	-10.5255
▁compare	-10.5256
DL	-10.5256
nabla	-10.5257
DP	-10.5261
▁ideal	-10.5274
▁bed	-10.5274
▁purposes	-10.5277
ifying	-10.5279
aux	-10.528
▁eventually	-10.528
DB	-10.5284
▁mouse	-10.5285
▁plants	-10.5291
cache	-10.5294
▁gap	-10.5295
▁mention	-10.5296
▁fell	-10.5297
AY	-10.5299
layer	-10.5303
anti	-10.5303
got	-10.5305
800	-10.531
GB	-10.531
▁tight	-10.5312
▁virus	-10.5315
▁Where	-10.5317
SON	-10.532
▁Mal	-10.532
Local	-10.5336
json	-10.5336
▁relief	-10.5337
▁violation	-10.5338
▁Japan	-10.534
▁decline	-10.534
▁episode	-10.5343
▁suspect	-10.5351
PH	-10.5353
Service	-10.5353
▁determination	-10.5356
▁spring	-10.5363
▁Thomas	-10.5366
▁circle	-10.5366
iva	-10.5369
8]\]	-10.5371
coding	-10.5373
▁accident	-10.5374
▁None	-10.5374
mem	-10.5378
)=\	-10.5379
▁exact	-10.5384
▁secondary	-10.5386
▁Circuit	-10.5394
SL	-10.5396
▁precise	-10.5396
▁2002	-10.5402
endif	-10.5404
▁officials	-10.5405
ola	-10.5407
▁odd	-10.5414
▁Sun	-10.5416
▁zone	-10.5416
▁worse	-10.542
▁Bay	-10.542
6%	-10.5423
aria	-10.5424
compile	-10.5431
▁interactions	-10.5433
▁enzyme	-10.5435
▁spectrum	-10.5438
▁FOR	-10.5443
▁investment	-10.5443
▁efficiency	-10.5444
shi	-10.5446
▁shock	-10.5452
▁Bel	-10.5454
module	-10.5454
▁gate	-10.546
/7	-10.5462
▁represented	-10.5478
▁decide	-10.549
▁Monday	-10.5495
▁believed	-10.5498
▁Korea	-10.5501
▁sheet	-10.5509
▁trigger	-10.551
bot	-10.5517
▁developing	-10.5518
ador	-10.5519
▁fiber	-10.552
▁Cy	-10.5521
There	-10.5525
▁cyto	-10.5528
oop	-10.553
▁Ang	-10.553
▁inform	-10.5531
▁excess	-10.5535
▁examined	-10.5535
▁sto	-10.5536
▁transmit	-10.554
▁supposed	-10.5552
▁differ	-10.5553
▁Corp	-10.5553
Frame	-10.5564
▁technical	-10.5567
▁department	-10.5567
after	-10.5576
▁thanks	-10.5583
▁serum	-10.5585
standing	-10.5585
▁Sta	-10.5589
determin	-10.5589
▁evaluated	-10.5594
ESS	-10.5595
▁pipe	-10.5599
▁lift	-10.5601
Update	-10.5606
0.6	-10.5607
aire	-10.5613
number	-10.5614
▁lose	-10.5618
▁Richard	-10.5622
▁League	-10.5627
▁mostly	-10.5629
Group	-10.563
▁Instead	-10.5633
▁annual	-10.5636
you	-10.5638
organ	-10.5639
▁indicates	-10.564
2015	-10.5645
▁bias	-10.5647
▁union	-10.5648
▁instant	-10.565
▁delivery	-10.5653
▁McC	-10.5653
▁consumer	-10.5654
▁Australia	-10.5657
▁san	-10.5667
cut	-10.5668
▁Martin	-10.5668
▁stick	-10.5671
▁measurement	-10.5686
▁shut	-10.5688
▁agency	-10.569
▁extremely	-10.5694
venue	-10.5696
ipping	-10.5696
vil	-10.5698
aut	-10.57
ologist	-10.5702
Form	-10.5704
▁signed	-10.5708
Stat	-10.5712
▁desired	-10.5715
▁Life	-10.5726
ATION	-10.5729
stat	-10.573
▁smart	-10.5731
Read	-10.5735
▁sister	-10.5736
▁ahead	-10.5737
▁Home	-10.574
▁assumption	-10.5741
▁Gold	-10.5744
▁helped	-10.5746
▁twenty	-10.5748
migr	-10.5749
▁highlight	-10.5752
dim	-10.5753
▁crowd	-10.5754
dra	-10.5754
arily	-10.5755
▁FIG	-10.5762
▁cloud	-10.5763
empt	-10.5766
sect	-10.5767
▁encourage	-10.577
widetilde	-10.5771
github	-10.5774
cious	-10.5775
real	-10.5777
▁charged	-10.5777
▁Three	-10.5782
known	-10.5783
▁defect	-10.5783
GP	-10.5784
crypt	-10.5788
▁occurs	-10.5789
mise	-10.579
Vert	-10.5795
Description	-10.5809
ille	-10.5811
found	-10.5812
▁Committee	-10.5814
▁tube	-10.582
▁Association	-10.5825
▁reality	-10.5827
▁participate	-10.5831
▁0*	-10.5833
rank	-10.5833
▁alcohol	-10.5834
▁Government	-10.5837
▁!	-10.5841
▁changing	-10.585
▁iron	-10.5853
▁chosen	-10.5855
Stream	-10.5856
BR	-10.5857
gle	-10.5858
uma	-10.5859
▁Roman	-10.586
▁explicit	-10.587
\}$	-10.587
▁mixture	-10.5872
▁wound	-10.5874
▁fundamental	-10.5877
▁parallel	-10.5877
▁achieved	-10.5878
▁Math	-10.5881
▁observe	-10.5889
▁Their	-10.5891
2013	-10.5893
▁cop	-10.5896
▁End	-10.5901
▁allowing	-10.5901
cie	-10.5902
▁finished	-10.5904
amo	-10.5907
power	-10.5907
Current	-10.5912
9]\]	-10.5913
END	-10.5915
▁neither	-10.5922
▁typical	-10.5922
4){	-10.5928
▁reserve	-10.593
▁warrant	-10.5932
illi	-10.5937
hl	-10.5943
ugg	-10.5957
▁narrow	-10.5965
▁coordinate	-10.5973
MM	-10.5977
▁Vo	-10.5977
▁underlying	-10.598
"></	-10.5983
omic	-10.5987
▁burden	-10.5992
2012	-10.5993
_0$	-10.5994
pot	-10.5994
9%	-10.5995
tile	-10.5997
▁Island	-10.5999
▁retain	-10.5999
Add	-10.6007
▁Book	-10.6014
▁chief	-10.6015
Function	-10.6017
▁receiving	-10.6018
Record	-10.6021
▁easier	-10.6022
▁editor	-10.6022
cultural	-10.6024
conscious	-10.6027
▁favorite	-10.6027
▁imaging	-10.6031
occu	-10.6034
Ro	-10.6038
▁emerge	-10.6041
scription	-10.6042
▁Sho	-10.6044
▁Gene	-10.6045
cf	-10.6048
▁obvious	-10.6049
2014	-10.6054
▁forced	-10.6063
▁Die	-10.6066
▁employed	-10.6071
▁mini	-10.6081
▁mixed	-10.6088
▁trace	-10.6091
▁-5*	-10.6093
HS	-10.6095
▁Windows	-10.6101
▁possibly	-10.6104
▁expansion	-10.6105
▁directed	-10.6108
acc	-10.6108
▁seeing	-10.611
▁beam	-10.6111
(3)	-10.6111
▁trail	-10.6113
just	-10.6114
2016	-10.6115
▁restrict	-10.6116
vic	-10.6117
▁Bru	-10.6118
▁-->	-10.6123
▁thousands	-10.6124
note	-10.6127
constraint	-10.6128
▁issued	-10.6128
▁criteria	-10.613
▁filled	-10.6139
CV	-10.6143
▁relates	-10.6145
▁investigated	-10.6146
▁coverage	-10.6148
plas	-10.6157
Command	-10.6158
00000000	-10.616
▁protest	-10.616
▁interact	-10.6161
She	-10.6163
▁escape	-10.6167
▁discovered	-10.6171
▁offense	-10.6171
zen	-10.6175
▁nano	-10.6177
▁monitor	-10.6186
server	-10.6197
oxid	-10.6198
quit	-10.6199
▁permission	-10.6202
▁inhibit	-10.6202
▁versus	-10.6208
apping	-10.6209
▁-----------	-10.621
town	-10.6218
▁practical	-10.6218
▁threshold	-10.6219
▁lived	-10.622
▁freedom	-10.6223
ulator	-10.6227
hou	-10.6237
▁shoulder	-10.6238
▁mistake	-10.624
▁&\	-10.624
▁beat	-10.6242
harm	-10.6245
static	-10.625
water	-10.6252
▁Chi	-10.6254
▁${{\	-10.6254
▁cau	-10.6255
▁transaction	-10.6255
▁publish	-10.6267
rob	-10.6267
▁Miss	-10.627
▁Cell	-10.6273
journal	-10.6281
CU	-10.6284
123	-10.6285
eller	-10.6286
}}^	-10.6286
BM	-10.6286
▁twice	-10.6287
▁depends	-10.6294
▁isolated	-10.63
▁imagine	-10.6302
250	-10.6305
"]	-10.6305
▁sector	-10.6306
sensors	-10.6306
▁--------	-10.6307
▁economy	-10.6311
▁biological	-10.6312
cade	-10.6316
1.4	-10.6322
emi	-10.6324
▁Del	-10.6327
Return	-10.6328
ocytes	-10.6331
▁framework	-10.6331
▁intensity	-10.6332
▁quiet	-10.6332
▁religious	-10.6335
▁Scott	-10.6339
▁invest	-10.6343
poly	-10.6343
GT	-10.6347
bil	-10.635
▁Ob	-10.6358
▁till	-10.6359
▁Saturday	-10.6362
RR	-10.6363
▁fourth	-10.6368
olic	-10.6369
▁sale	-10.6372
▁recall	-10.6377
▁Ya	-10.6379
▁approved	-10.6379
▁Party	-10.6383
linear	-10.6384
▁investigate	-10.6384
▁ignore	-10.6385
▁entirely	-10.6386
▁evaluate	-10.6388
^2^	-10.6388
▁Far	-10.6394
▁duration	-10.6395
mL	-10.6397
▁Fer	-10.6401
▁strongly	-10.6404
BL	-10.6406
▁marked	-10.6409
rink	-10.6413
foo	-10.6415
▁repair	-10.6416
band	-10.6419
volution	-10.642
▁labor	-10.6425
rest	-10.643
}=\	-10.6434
▁granted	-10.6435
^+	-10.6436
pub	-10.645
psych	-10.6456
▁defend	-10.6459
▁calling	-10.6467
▁detailed	-10.6467
▁Internet	-10.6468
▁sitting	-10.6471
GG	-10.6472
▁+=	-10.6477
TYPE	-10.6478
▁immune	-10.6478
▁formal	-10.6481
Yes	-10.6488
1.3	-10.6496
▁accuracy	-10.6498
inflammatory	-10.6499
▁river	-10.65
▁Val	-10.65
via	-10.6502
▁excellent	-10.6503
▁fruit	-10.6505
member	-10.6505
^2$	-10.651
close	-10.6511
▁thick	-10.6512
ABLE	-10.6515
trial	-10.6516
▁confidence	-10.6518
▁Does	-10.6521
▁television	-10.6523
▁capable	-10.6524
^+^	-10.6524
▁Paris	-10.6527
▁Java	-10.6528
▁stem	-10.6537
DD	-10.6539
▁consult	-10.6541
▁Twitter	-10.6546
}{2}	-10.6547
▁focused	-10.6548
LP	-10.6558
Script	-10.6561
000000	-10.6565
▁frequently	-10.6569
▁fragment	-10.6576
▁managed	-10.658
▁affirm	-10.6584
▁opposite	-10.6585
▁prediction	-10.6586
▁Results	-10.6592
▁recovery	-10.6593
▁comprise	-10.6596
▁Pla	-10.6597
▁spirit	-10.66
▁interpretation	-10.6604
▁limitations	-10.6611
=2	-10.6618
NR	-10.662
▁Kar	-10.6623
▁broken	-10.6623
▁pulled	-10.6625
▁vessel	-10.6625
▁cert	-10.6626
▁react	-10.6627
▁minute	-10.6627
▁listed	-10.6629
process	-10.6631
▁baby	-10.6633
▁belief	-10.6642
zeta	-10.6644
▁desire	-10.6646
system	-10.6648
▁Ku	-10.6652
▁conference	-10.6653
regulated	-10.6658
DER	-10.6662
uous	-10.6666
▁Author	-10.6675
How	-10.6676
▁understood	-10.6676
wan	-10.668
▁native	-10.668
ante	-10.6682
▁regulator	-10.6683
child	-10.6684
▁Tuesday	-10.6685
2000	-10.6688
▁advanced	-10.6689
▁married	-10.6693
▁Last	-10.67
▁settle	-10.6704
join	-10.6706
Net	-10.6706
/6	-10.6707
▁intention	-10.6711
pression	-10.6714
merge	-10.6716
▁violence	-10.6718
2017	-10.6723
▁Sign	-10.6724
▁analog	-10.6726
▁Despite	-10.6727
}}{	-10.6732
normal	-10.6733
▁(\	-10.6733
▁Luc	-10.6734
Response	-10.6734
iness	-10.6737
ipp	-10.6739
101	-10.6741
eek	-10.6741
From	-10.6741
▁Mari	-10.6745
▁depending	-10.6753
▁electrode	-10.6754
▁wire	-10.6757
▁hotel	-10.6757
▁unknown	-10.6758
▁usual	-10.6759
▁sweet	-10.6765
▁Review	-10.6766
▁Charles	-10.6767
▁examination	-10.6768
▁Apple	-10.6777
posit	-10.6778
10]	-10.6782
▁constitute	-10.6783
▁arrived	-10.6784
▁duty	-10.6784
▁HIV	-10.6792
▁Copyright	-10.6793
▁stored	-10.6793
}})	-10.6797
target	-10.6802
Trans	-10.6804
▁audience	-10.681
morph	-10.6811
▁1](#	-10.6812
▁ultra	-10.6812
▁Russia	-10.6816
▁mainly	-10.6817
▁provider	-10.682
▁activate	-10.6822
▁publication	-10.6823
▁sensitivity	-10.6827
▁patent	-10.6831
▁planning	-10.684
▁boundary	-10.684
160	-10.684
▁considering	-10.6841
▁velocity	-10.6842
▁recognized	-10.6847
TL	-10.6847
▁draft	-10.6849
high	-10.6852
mobil	-10.6856
2011	-10.686
▁approaches	-10.686
Direct	-10.6866
▁Federal	-10.6866
▁satisfy	-10.6873
▁Appeal	-10.6878
Button	-10.6882
▁Sil	-10.6885
▁marriage	-10.6886
Client	-10.6887
▁competition	-10.6889
[12	-10.6889
▁debate	-10.6892
Block	-10.6898
▁entitled	-10.6902
▁export	-10.6916
Load	-10.6918
▁afford	-10.6921
oster	-10.6922
▁Commun	-10.6924
curr	-10.6927
▁neck	-10.693
▁Africa	-10.6934
▁Adv	-10.6934
▁asking	-10.6936
uery	-10.6936
token	-10.6938
▁External	-10.6939
▁gift	-10.6943
▁1999	-10.6945
▁intent	-10.6952
▁Jack	-10.6953
equiv	-10.6954
▁Hence	-10.6959
▁modified	-10.6959
▁strike	-10.6962
▁About	-10.6964
▁numerous	-10.6965
Microsoft	-10.6966
":"	-10.6967
▁repeat	-10.6969
iving	-10.6974
▁Long	-10.6978
▁joined	-10.698
ijms	-10.6981
edge	-10.6986
histo	-10.7007
▁Indeed	-10.7013
▁replace	-10.7016
▁exclude	-10.7016
3.1	-10.7017
▁rotation	-10.7018
▁induce	-10.7022
sphere	-10.7028
▁bug	-10.703
111	-10.7038
▁Give	-10.7043
{1}{2}	-10.7044
▁Photo	-10.7045
▁customer	-10.7054
▁Thursday	-10.7055
▁strip	-10.7056
▁assessed	-10.7061
▁mill	-10.7064
▁illustrate	-10.7067
▁exposed	-10.7069
2010	-10.7072
ION	-10.7073
▁differential	-10.7074
▁assuming	-10.7078
center	-10.7082
▁advice	-10.7087
vascular	-10.709
▁division	-10.7092
▁electrical	-10.7093
▁correlate	-10.7094
▁scenario	-10.7094
▁wheel	-10.7094
▁familiar	-10.7096
mode	-10.7099
▁consent	-10.7099
Supplementary	-10.7103
▁Program	-10.7103
[2]	-10.7109
▁Earth	-10.7117
3.5	-10.7121
graphic	-10.7122
variance	-10.7122
▁taste	-10.7124
angular	-10.7128
Server	-10.714
button	-10.714
▁commission	-10.7141
posing	-10.7141
▁adopt	-10.7143
**5	-10.7148
▁flight	-10.7152
awn	-10.7156
▁caught	-10.7159
▁Put	-10.7162
▁centre	-10.7164
▁walked	-10.7165
▁Wednesday	-10.7167
aud	-10.717
HC	-10.717
5}	-10.7173
prec	-10.7174
▁preparation	-10.7174
▁acute	-10.7177
▁Iran	-10.7177
/10	-10.718
aba	-10.7181
▁knock	-10.7187
▁Next	-10.7187
▁suitable	-10.7194
▁impossible	-10.7194
▁(18	-10.7196
▁extensive	-10.7198
▁conviction	-10.7201
▁struggle	-10.7202
▁plastic	-10.7206
▁concerned	-10.7207
▁Power	-10.7212
▁African	-10.7212
▁planet	-10.7217
▁Johnson	-10.7222
▁Chapter	-10.7231
cycle	-10.7236
attr	-10.7238
▁becoming	-10.7242
Input	-10.7244
▁widely	-10.7246
OUT	-10.7246
▁supplement	-10.7248
plugin	-10.7248
arri	-10.7249
▁recruit	-10.7251
▁hall	-10.7256
▁Vol	-10.7257
▁guarantee	-10.7257
▁perspective	-10.7261
\[[@	-10.7262
▁massive	-10.7266
▁sharp	-10.7266
google	-10.7268
▁tele	-10.7268
ova	-10.7269
AV	-10.727
Access	-10.7274
▁prospect	-10.7275
▁experienced	-10.7277
▁manage	-10.7279
▁Florida	-10.728
)))	-10.7281
▁composite	-10.7286
Controller	-10.7287
▁thereby	-10.7289
▁pump	-10.7291
▁mai	-10.7292
▁-------	-10.7295
LR	-10.7296
height	-10.7299
▁coupling	-10.73
▁climate	-10.73
▁applicable	-10.7302
pack	-10.7302
▁specified	-10.7303
else	-10.7305
▁moral	-10.7306
ICE	-10.7316
▁Human	-10.7317
first	-10.7322
astro	-10.7322
▁attached	-10.7324
▁accepted	-10.7324
▁laser	-10.7327
▁remote	-10.733
▁encounter	-10.7339
▁principal	-10.734
▁blow	-10.7341
img	-10.7346
NK	-10.7346
▁explanation	-10.7348
▁horizon	-10.7354
▁History	-10.7358
Equal	-10.7359
STR	-10.7359
▁injection	-10.7361
▁chapter	-10.7362
▁assembly	-10.7376
▁Blue	-10.738
▁possess	-10.7383
meric	-10.7386
▁unable	-10.7393
▁budget	-10.7399
hom	-10.7403
▁broke	-10.7404
▁Cho	-10.7404
▁Yet	-10.7407
▁restaurant	-10.7409
▁hence	-10.7411
▁discharge	-10.7413
present	-10.7415
Default	-10.7415
ouch	-10.7416
▁claimed	-10.7422
▁testified	-10.7423
esse	-10.7424
nbsp	-10.7426
love	-10.7428
▁acknowledge	-10.7431
▁policies	-10.7432
▁transcription	-10.7433
▁fellow	-10.7433
FP	-10.7436
shadow	-10.7437
▁genome	-10.7443
▁Maybe	-10.7444
SYS	-10.7444
3.0	-10.7445
nut	-10.7452
▁involving	-10.746
▁============	-10.746
▁remind	-10.7461
exec	-10.7462
▁stretch	-10.7464
****************	-10.7464
▁slowly	-10.7469
▁substance	-10.7472
▁mutant	-10.7474
symmetric	-10.748
+2	-10.7486
125	-10.7486
equal	-10.7488
than	-10.749
conv	-10.7497
▁1990	-10.7506
▁signaling	-10.7509
msg	-10.7512
▁transformation	-10.7512
▁absolute	-10.7513
immer	-10.7517
Unit	-10.753
▁watching	-10.7531
▁committed	-10.7535
&=&	-10.7537
▁manual	-10.7537
▁Report	-10.7539
▁mountain	-10.7543
▁sought	-10.7544
▁modification	-10.7544
▁dans	-10.7546
phospho	-10.7546
▁suggesting	-10.7555
▁particle	-10.7557
1,2	-10.7557
^2+	-10.7558
▁pad	-10.7563
▁Central	-10.7566
008	-10.7566
▁keeping	-10.7572
▁Simplify	-10.7572
Status	-10.7572
motiv	-10.7576
▁typename	-10.7577
▁comme	-10.7577
▁Make	-10.7578
▁Steve	-10.7581
Mode	-10.7588
They	-10.7594
▁carrier	-10.7597
▁nm	-10.7598
abil	-10.7599
American	-10.7606
256	-10.7606
▁stability	-10.7607
aver	-10.7609
izz	-10.761
KE	-10.7618
ifies	-10.7618
▁dataset	-10.7619
default	-10.7621
break	-10.7625
▁structural	-10.7626
Window	-10.7626
▁----------	-10.7629
▁sugar	-10.763
▁installed	-10.7631
▁necessarily	-10.7639
","	-10.7639
Man	-10.764
▁cash	-10.764
▁Justice	-10.7645
copy	-10.7646
▁contend	-10.7648
0.000	-10.7649
Custom	-10.765
▁communities	-10.7651
▁chart	-10.7653
▁ride	-10.7656
▁appreciate	-10.7662
iro	-10.7663
▁oxygen	-10.7668
▁Given	-10.767
ogenesis	-10.7675
Sub	-10.7677
shot	-10.7679
▁housing	-10.768
Format	-10.7682
▁compete	-10.7683
▁depend	-10.7684
▁sight	-10.7684
▁potentially	-10.769
▁commonly	-10.769
▁soil	-10.7692
Child	-10.7695
▁mechanical	-10.7697
▁Land	-10.7697
▁Those	-10.7698
▁####	-10.77
?”	-10.7701
▁Earl	-10.7704
▁1998	-10.7706
message	-10.7714
▁Lee	-10.7715
▁senior	-10.7719
Row	-10.7729
OH	-10.7736
▁----	-10.7742
Filter	-10.7742
LY	-10.7743
2018	-10.7743
▁estate	-10.7744
▁Islam	-10.7748
▁mM	-10.7748
▁vitro	-10.7756
▁distinguish	-10.7759
▁radiation	-10.7759
▁Jesus	-10.7761
▁examine	-10.7765
▁Chicago	-10.7768
▁EU	-10.777
▁assigned	-10.7772
▁surrounding	-10.7774
▁pod	-10.7776
▁thousand	-10.778
▁guest	-10.7782
▁Lake	-10.7791
step	-10.7792
▁manuscript	-10.7792
105	-10.7799
▁Pan	-10.78
osa	-10.7804
SET	-10.7806
ACT	-10.7806
▁0.001	-10.7807
Space	-10.7812
▁chamber	-10.7812
Product	-10.7815
▁loan	-10.7816
▁Information	-10.7818
180	-10.782
▁incorporate	-10.7823
PER	-10.7824
▁emotional	-10.7824
▁rapid	-10.7825
▁spatial	-10.7827
▁hurt	-10.7834
Var	-10.7838
▁concluded	-10.7839
deploy	-10.7841
▁identification	-10.7842
encies	-10.7843
peak	-10.7847
130	-10.785
▁rub	-10.7852
▁bomb	-10.7852
▁Social	-10.7854
▁indicating	-10.7855
▁Phil	-10.7857
▁executive	-10.7858
▁kick	-10.7868
plan	-10.7869
00,000	-10.7881
Config	-10.7884
▁requirement	-10.7884
NAME	-10.7886
TG	-10.7893
▁Rock	-10.7899
▁fashion	-10.7905
friend	-10.7907
▁Bla	-10.7915
addr	-10.7915
png	-10.7916
▁Minister	-10.7916
▁employee	-10.7924
citation	-10.7925
lement	-10.7927
EXT	-10.7934
▁vertical	-10.7936
olate	-10.7936
WA	-10.7937
ogenic	-10.7939
chen	-10.794
chem	-10.7943
▁mortality	-10.7944
▁restriction	-10.7944
tention	-10.7946
tree	-10.7952
▁fabric	-10.7956
▁flash	-10.7958
▁exclusive	-10.7958
▁Jones	-10.7959
▁drag	-10.7959
scopic	-10.7962
001){	-10.7963
▁smallest	-10.7965
▁weekend	-10.7967
▁truly	-10.7967
+1)	-10.7968
▁faster	-10.7969
Member	-10.7969
▁accomplish	-10.7977
▁characterized	-10.7978
▁boat	-10.798
▁Est	-10.7983
anna	-10.7984
▁Lar	-10.799
▁replaced	-10.799
▁pulse	-10.7994
false	-10.7995
▁baseline	-10.8005
PV	-10.8007
▁behaviour	-10.8016
▁implies	-10.8018
Process	-10.8021
▁deposit	-10.803
▁chip	-10.8032
▁100%	-10.8037
▁Year	-10.8037
2.2	-10.8041
▁Director	-10.8044
cil	-10.8049
▁merely	-10.805
▁linked	-10.806
chemical	-10.806
cum	-10.807
▁proposal	-10.8071
▁1997	-10.8072
▁justice	-10.8073
▁admit	-10.8073
umble	-10.8073
GET	-10.8076
▁effectively	-10.8078
▁Take	-10.808
FILE	-10.8093
▁Though	-10.8095
▁tear	-10.8105
▁milk	-10.8118
aka	-10.8131
010	-10.8132
▁walking	-10.8135
▁utilize	-10.8135
▁Louis	-10.8136
▁warning	-10.8137
▁antibody	-10.8144
▁routine	-10.8144
Document	-10.8144
▁colour	-10.8145
▁soul	-10.8145
▁gender	-10.8146
search	-10.8153
▁expense	-10.8154
▁adjust	-10.8161
enne	-10.8169
▁smoke	-10.8172
▁definitely	-10.8174
1.6	-10.8177
▁Cat	-10.8178
255	-10.8179
root	-10.818
▁Jim	-10.8182
treated	-10.819
▁Among	-10.8192
▁Award	-10.8196
▁guilty	-10.8207
HTML	-10.8208
scribe	-10.8213
fill	-10.8218
-10-	-10.8219
▁thermal	-10.8223
jun	-10.8225
▁exit	-10.8227
▁desk	-10.8235
▁scientific	-10.8236
▁introduce	-10.8242
Sym	-10.8242
▁persist	-10.8248
plex	-10.8253
▁Ham	-10.8253
▁assumed	-10.8256
Title	-10.826
▁admitted	-10.8269
▁knee	-10.8274
▁Society	-10.8275
▁permanent	-10.8275
RAM	-10.8278
atomic	-10.8278
(1-	-10.8283
▁correction	-10.8284
▁offering	-10.8287
mediated	-10.8287
lace	-10.829
▁famous	-10.8292
▁computation	-10.8293
mean	-10.8294
▁Fire	-10.8296
▁translation	-10.8298
▁strategies	-10.8299
▁optimal	-10.83
compress	-10.8302
▁historical	-10.8302
▁recognize	-10.8305
▁---------	-10.8311
factor	-10.8315
▁preserve	-10.8318
approx	-10.832
▁Alex	-10.832
▁realized	-10.832
debug	-10.8326
▁adequate	-10.8328
▁employment	-10.8335
▁reform	-10.8337
▁pitch	-10.8338
▁wine	-10.834
(5)	-10.8341
▁proved	-10.8341
▁supra	-10.8344
▁Anti	-10.8346
▁defeat	-10.8351
Engine	-10.8357
▁automatically	-10.8357
▁mRNA	-10.8359
▁informed	-10.836
▁shell	-10.8366
▁garden	-10.8371
▁programme	-10.8372
▁tea	-10.8374
pdf	-10.8384
▁Arab	-10.8385
display	-10.8387
▁honor	-10.8388
Label	-10.8388
▁probe	-10.8388
FE	-10.8389
▁lawyer	-10.8391
▁Lemma	-10.8392
ACK	-10.8398
▁closer	-10.84
▁predicted	-10.8409
▁putting	-10.8409
▁barrier	-10.841
IND	-10.8412
apache	-10.8416
▁dangerous	-10.8418
▁Democrat	-10.8418
article	-10.8423
▁vivo	-10.8423
▁truck	-10.8445
second	-10.8446
▁discretion	-10.8458
▁Additionally	-10.8461
optim	-10.8461
UV	-10.8466
2009	-10.8469
System	-10.8469
split	-10.847
▁funding	-10.8475
quest	-10.8475
197	-10.8478
▁consumption	-10.8481
▁closely	-10.8481
▁seeking	-10.8485
▁1996	-10.8488
▁abstract	-10.8491
▁expensive	-10.8493
▁Grand	-10.8495
▁Ten	-10.8496
▁assistance	-10.8499
udo	-10.85
▁weather	-10.8501
▁successfully	-10.8503
▁Spring	-10.8506
▁committee	-10.8517
▁pixel	-10.852
UD	-10.8523
▁seal	-10.8524
▁bodies	-10.8527
dynamic	-10.8533
▁console	-10.8537
flex	-10.8541
▁brown	-10.8547
▁namespace	-10.8549
care	-10.8549
viv	-10.8551
▁actor	-10.8555
TOR	-10.8563
}}^{	-10.857
pond	-10.8571
kov	-10.8573
++)	-10.8578
DNA	-10.8582
Well	-10.8582
▁magic	-10.8585
}}{\	-10.8587
▁manufacturer	-10.8588
▁Prince	-10.8593
▁Water	-10.8598
client	-10.8598
▁exceed	-10.8603
▁survive	-10.8604
Tex	-10.8617
▁responsibility	-10.8621
▁Van	-10.8624
person	-10.8628
worth	-10.8628
expected	-10.863
▁divide	-10.8633
cam	-10.8637
▁dispute	-10.8639
▁creation	-10.8646
▁dropped	-10.8647
103	-10.8649
▁diagram	-10.8659
Search	-10.8659
▁arrangement	-10.8661
▁arise	-10.8666
▁Canadian	-10.8669
▁Hospital	-10.8675
▁causing	-10.8675
▁physician	-10.8676
▁diameter	-10.8679
vie	-10.8679
▁characteristic	-10.8679
▁integrated	-10.8683
▁drawn	-10.869
raz	-10.8691
009	-10.8697
▁disappear	-10.8704
ueen	-10.871
grav	-10.8711
▁significance	-10.8714
▁diabetes	-10.8715
pop	-10.8719
▁organic	-10.873
▁vast	-10.8732
▁kid	-10.8732
strat	-10.8733
▁consists	-10.8738
▁drawing	-10.8742
▁honest	-10.8749
▁-----	-10.875
▁illegal	-10.8754
▁bottle	-10.8754
▁realize	-10.8759
▁grown	-10.876
▁Medical	-10.8762
APP	-10.8763
▁internet	-10.8763
▁hetero	-10.877
▁removal	-10.878
bacter	-10.8782
▁religion	-10.8783
Buffer	-10.8785
schema	-10.8786
▁Best	-10.8793
▁teaching	-10.88
▁reducing	-10.8801
▁minister	-10.8803
template	-10.8805
Effect	-10.8807
▁Senate	-10.8808
▁macro	-10.8809
status	-10.8813
▁suddenly	-10.8814
▁cities	-10.8821
▁worry	-10.8821
▁moderate	-10.8825
▁95%	-10.8826
▁apparent	-10.883
Tab	-10.8834
disp	-10.8836
Arg	-10.8841
▁simultaneous	-10.8843
{3}	-10.8846
▁Police	-10.8846
▁noticed	-10.8856
USE	-10.8857
▁recommended	-10.8857
fall	-10.8861
▁compact	-10.8863
▁kitchen	-10.8864
Parameter	-10.8876
widehat	-10.8879
▁amazing	-10.8887
-09-0	-10.8889
▁identical	-10.8892
▁browser	-10.8894
▁passage	-10.8899
▁Joe	-10.8899
▁Army	-10.8904
▁modify	-10.8917
Material	-10.8918
Psi	-10.8924
▁researchers	-10.8934
▁crack	-10.8936
▁Ana	-10.8941
▁somewhat	-10.8943
▁initially	-10.8945
▁classification	-10.8949
Handler	-10.8951
▁household	-10.8955
▁Accordingly	-10.8955
▁superior	-10.8959
aught	-10.896
▁syndrome	-10.896
Left	-10.8961
mph	-10.8964
▁antibodies	-10.8967
next	-10.8968
▁Old	-10.8968
▁surgical	-10.8969
▁hate	-10.897
empty	-10.8971
▁snow	-10.8974
▁Road	-10.8975
▁neurons	-10.8979
shift	-10.898
small	-10.8981
▁Adam	-10.8984
CIT	-10.8985
summary	-10.899
olar	-10.8992
MENT	-10.8992
▁manifest	-10.8993
DIR	-10.8995
Inter	-10.8996
140	-10.9
▁feedback	-10.9001
▁integral	-10.9002
flag	-10.9002
Exp	-10.9005
▁Love	-10.9007
2008	-10.9007
▁Henry	-10.9013
▁Introduction	-10.9017
▁Low	-10.9018
IST	-10.9024
▁winter	-10.9032
TRA	-10.9037
▁welcome	-10.9038
▁therapeutic	-10.904
▁employer	-10.9044
ysym	-10.9052
▁speaking	-10.9055
▁apparently	-10.9061
▁advise	-10.9061
documentclass	-10.9066
▁Play	-10.9074
▁coast	-10.9075
▁primarily	-10.9076
▁absorb	-10.9077
▁journey	-10.9085
setlength	-10.9087
▁Have	-10.9088
▁Jeff	-10.9088
Attribute	-10.909
two	-10.9091
compute	-10.9099
Temp	-10.9104
queue	-10.9104
▁1995	-10.9105
greek	-10.9106
2.4	-10.9108
▁Tro	-10.9108
▁dance	-10.9113
▁===	-10.9115
▁delivered	-10.9117
1.8	-10.9121
▁amplitude	-10.9121
▁Virginia	-10.9125
▁decay	-10.9127
▁Consider	-10.9132
▁presentation	-10.9134
▁concerning	-10.9135
ika	-10.9138
▁radical	-10.9139
▁Wood	-10.9141
wide	-10.9145
▁insight	-10.9145
▁rose	-10.9147
PK	-10.9149
4.0	-10.9155
▁Para	-10.9161
▁hunt	-10.9161
▁discover	-10.9163
(-1)	-10.9164
▁binary	-10.9169
▁signature	-10.9176
▁anyway	-10.9177
Range	-10.9177
▁Again	-10.9184
ctx	-10.9188
▁glucose	-10.9193
▁Today	-10.9201
Target	-10.9201
▁medicine	-10.9204
▁synthesis	-10.922
Collection	-10.922
▁pig	-10.9232
▁adopted	-10.9233
▁Muslim	-10.9233
▁conversion	-10.9234
▁regression	-10.9236
context	-10.924
▁expectation	-10.9241
corn	-10.9244
Task	-10.9244
▁army	-10.9245
▁inhibition	-10.9248
▁Software	-10.9249
service	-10.9252
entry	-10.9255
▁rational	-10.9264
▁coffee	-10.9269
▁crash	-10.9272
amssymb	-10.9275
Register	-10.9278
pair	-10.9278
oddsidemargin	-10.9289
mathrsfs	-10.9292
▁Bob	-10.9295
Reference	-10.9297
▁Based	-10.9298
▁Euro	-10.9301
▁tun	-10.9304
1.7	-10.9305
▁patch	-10.9307
2.3	-10.9308
Style	-10.9327
▁league	-10.9328
▁audio	-10.9329
▁Care	-10.933
▁Chief	-10.9332
Phone	-10.9333
▁bigger	-10.9335
▁flux	-10.9336
▁classical	-10.9344
▁lymph	-10.9351
▁immediate	-10.9353
jan	-10.9354
amsfonts	-10.9356
▁stroke	-10.9357
Additional	-10.9364
▁wealth	-10.937
cott	-10.9384
▁yellow	-10.9384
store	-10.9389
▁enhanced	-10.9391
108	-10.9393
▁constitutional	-10.9395
ACE	-10.9396
▁magnitude	-10.9398
▁recognition	-10.9401
▁tape	-10.9403
▁lowest	-10.9405
▁grew	-10.9406
amsmath	-10.9406
▁prompt	-10.9406
▁hypothesis	-10.9409
▁cheap	-10.9411
▁inspect	-10.9412
▁monitoring	-10.9412
▁Education	-10.9415
▁eine	-10.9416
Origin	-10.9419
Component	-10.942
6){	-10.9422
▁Tim	-10.9424
▁discovery	-10.9424
▁Gro	-10.9438
▁danger	-10.9441
request	-10.9444
▁Show	-10.9445
▁Mexico	-10.9445
▁closest	-10.9449
▁rect	-10.9451
▁violate	-10.9454
▁calc	-10.9455
▁serving	-10.9456
▁preferred	-10.9463
foot	-10.9466
property	-10.9466
alia	-10.9466
▁politics	-10.9469
▁adverse	-10.9473
▁sick	-10.9473
ERS	-10.9477
▁Rob	-10.9479
5.0	-10.9488
See	-10.949
Tag	-10.9491
▁dollars	-10.9491
▁kernel	-10.9494
▁slice	-10.95
▁chest	-10.9501
▁nerve	-10.951
▁undergo	-10.9514
amsbs	-10.9518
▁possession	-10.9521
}{-6	-10.9522
element	-10.9523
▁determining	-10.9525
▁bought	-10.9527
common	-10.9528
▁Division	-10.953
▁evident	-10.9532
▁declared	-10.9533
▁1980	-10.9547
▁equi	-10.9551
▁diagnose	-10.9551
▁Italian	-10.9558
▁cry	-10.9561
▁talent	-10.9567
▁irre	-10.9573
▁eliminate	-10.9577
▁transcript	-10.9584
▁complain	-10.9584
▁infant	-10.9586
▁Back	-10.9587
▁clinic	-10.9589
▁Force	-10.9592
When	-10.9594
▁commit	-10.9594
4.5	-10.9597
{2}	-10.9605
▁incidence	-10.9605
cision	-10.9607
▁extreme	-10.9607
▁grab	-10.9609
▁gall	-10.9611
▁absolutely	-10.9612
▁translate	-10.9612
▁Syria	-10.9623
▁accordance	-10.9626
▁crisis	-10.9629
▁fraud	-10.9635
clone	-10.9643
▁champion	-10.9645
▁reward	-10.9651
▁employ	-10.9651
Level	-10.9653
▁residue	-10.9653
▁submitted	-10.9654
\!\	-10.9655
▁folk	-10.9655
▁rapidly	-10.9659
▁categories	-10.966
▁deviation	-10.9663
▁afternoon	-10.9666
▁[1](#	-10.9666
▁Young	-10.9666
▁punish	-10.967
PORT	-10.9672
▁Matt	-10.9675
bullet	-10.9676
ntegr	-10.9682
▁hung	-10.9694
Library	-10.9695
III	-10.9696
▁converge	-10.971
author	-10.9711
▁wrt	-10.9712
▁partition	-10.9712
▁opportunities	-10.9713
▁0.02	-10.9715
▁dinner	-10.9716
▁shooting	-10.9718
mathsf	-10.9719
▁tank	-10.9722
iddle	-10.9724
▁nurse	-10.9727
▁prevalence	-10.9729
▁climb	-10.9739
▁favour	-10.9742
configure	-10.9746
ONE	-10.9752
▁essentially	-10.9753
▁medication	-10.9759
jar	-10.9761
front	-10.9769
▁Light	-10.977
ohn	-10.9772
quent	-10.9773
PRE	-10.9775
▁sorry	-10.9776
politi	-10.9776
▁respective	-10.9777
android	-10.9777
shire	-10.9777
Layout	-10.9778
▁trait	-10.9785
107	-10.9787
▁mirror	-10.9788
ibly	-10.9788
txt	-10.9791
▁assault	-10.9794
▁excited	-10.9798
002){	-10.9798
▁ANY	-10.9799
▁hybrid	-10.9799
home	-10.9807
ether	-10.9808
▁emergency	-10.9809
▁Still	-10.9812
▁Similarly	-10.9815
linux	-10.9822
Store	-10.9826
public	-10.9827
▁withdraw	-10.9828
▁exhaust	-10.9828
▁wonderful	-10.9829
▁cancel	-10.9829
▁Iraq	-10.9836
▁norm	-10.9838
▁lean	-10.9845
▁dust	-10.9846
Tool	-10.9849
immun	-10.9856
▁Arm	-10.9864
Byte	-10.9868
▁newspaper	-10.9869
▁numerical	-10.9869
=1$	-10.9871
▁fur	-10.9873
▁insist	-10.9876
▁suggestion	-10.9881
authentic	-10.9883
▁Following	-10.9887
Pop	-10.9897
▁worst	-10.9902
}}}}	-10.9905
▁Master	-10.9908
▁refused	-10.9912
▁domestic	-10.9914
106	-10.9914
[]{	-10.9915
▁Collect	-10.9915
▁Whi	-10.9917
▁maintenance	-10.992
protein	-10.9921
▁Round	-10.9924
▁Rose	-10.9926
Output	-10.993
▁Wall	-10.9933
▁2020	-10.9935
lich	-10.9941
3.3	-10.9945
▁resist	-10.9946
▁facilities	-10.995
▁Hamilton	-10.9953
▁1994	-10.9957
▁argued	-10.9958
▁Club	-10.9958
potent	-10.9959
▁ancient	-10.996
▁Clinton	-10.9963
▁ultimately	-10.9967
▁Women	-10.9969
▁spectra	-10.9971
Column	-10.9979
▁logic	-10.9984
▁Australian	-10.9989
▁pocket	-10.999
▁slide	-10.9991
▁trick	-10.9992
support	-10.9996
▁apartment	-11.0004
▁Philip	-11.0008
▁bowl	-11.001
developer	-11.0012
▁Development	-11.0015
999	-11.0017
▁crucial	-11.002
▁succeed	-11.0022
execute	-11.0022
▁helpful	-11.0025
capacit	-11.0025
▁ticket	-11.0027
▁Labor	-11.003
▁authorities	-11.0031
sheet	-11.0031
▁gather	-11.0031
shirt	-11.0032
OO	-11.0035
}}}$	-11.0036
wave	-11.0037
Override	-11.0043
▁euro	-11.0047
TRI	-11.0047
▁integration	-11.0049
▁obviously	-11.0051
hear	-11.0053
▁copyright	-11.0054
3.2	-11.0063
▁Attorney	-11.0067
vector	-11.0069
▁intelligence	-11.0073
▁directory	-11.0074
▁valve	-11.0082
▁Royal	-11.0084
▁approval	-11.0085
▁theorem	-11.0102
▁pilot	-11.0103
▁commun	-11.0109
Thread	-11.0109
▁depression	-11.0111
▁chose	-11.0112
filter	-11.0112
conduct	-11.0115
▁dispers	-11.0127
▁implant	-11.0129
cock	-11.013
▁battery	-11.0136
Location	-11.0141
NET	-11.0141
▁Several	-11.0143
▁<!--	-11.0144
▁encoding	-11.0148
▁universal	-11.0149
▁silver	-11.0149
▁neighborhood	-11.0152
greg	-11.0161
correct	-11.0163
proc	-11.0166
▁Mike	-11.0167
▁Fund	-11.0169
▁Boston	-11.017
▁acquired	-11.0173
viol	-11.0178
▁passion	-11.018
▁theoretical	-11.018
▁Team	-11.018
▁carefully	-11.018
||	-11.0181
▁magazine	-11.0183
\_[	-11.0187
▁Network	-11.0188
▁planned	-11.0188
▁Daniel	-11.0188
-08-	-11.0191
5,000	-11.0195
▁transferred	-11.0197
Policy	-11.0198
gathered	-11.0216
▁Place	-11.0219
▁emotion	-11.022
▁attitude	-11.0221
▁Catholic	-11.0224
▁separation	-11.0225
output	-11.0229
▁blind	-11.0236
1.9	-11.0242
▁Middle	-11.0246
▁ruling	-11.0249
▁enemy	-11.0251
▁architecture	-11.0257
▁Special	-11.026
▁descend	-11.0262
▁setup	-11.027
▁======	-11.0276
printf	-11.0284
▁Perhaps	-11.0294
▁Jackson	-11.03
2.6	-11.03
positive	-11.0301
▁guidelines	-11.032
▁thickness	-11.0322
▁bacteria	-11.0323
▁facilitate	-11.0325
▁1993	-11.0326
Address	-11.0339
▁crew	-11.0341
method	-11.0348
10.1	-11.0356
Util	-11.0367
Graph	-11.037
▁injuries	-11.0375
[0,	-11.0377
▁diagnostic	-11.0385
▁Jewish	-11.0387
column	-11.0387
▁1992	-11.0387
▁Christmas	-11.0395
▁Spanish	-11.0397
suspend	-11.0398
4.1	-11.04
▁FROM	-11.0402
quilibr	-11.0403
▁settlement	-11.0407
buffer	-11.041
▁Joseph	-11.0416
▁teach	-11.0416
▁leak	-11.0418
▁thi	-11.0429
qquad	-11.0432
▁Secretary	-11.0433
import	-11.0442
▁abandon	-11.0444
zero	-11.0446
reference	-11.0446
MAP	-11.0446
interrupt	-11.0447
▁Britain	-11.0447
▁calculate	-11.0448
MAX	-11.0449
▁Donald	-11.046
▁cohort	-11.0467
▁admission	-11.047
▁comfort	-11.0471
ologic	-11.0471
}.$$	-11.0473
inherit	-11.0476
▁spectral	-11.048
700	-11.0481
▁tough	-11.0482
▁merit	-11.0495
▁Music	-11.0497
fib	-11.0499
▁prohibit	-11.05
complete	-11.0505
▁industrial	-11.0517
AST	-11.052
▁suppose	-11.0526
Header	-11.0527
ANT	-11.0528
project	-11.0529
▁Syn	-11.053
▁concentr	-11.053
neur	-11.0532
thesis	-11.0537
(6)	-11.0538
▁Analysis	-11.0544
Video	-11.0546
Auth	-11.0548
**************	-11.056
▁dar	-11.0566
▁declare	-11.0567
▁leadership	-11.058
▁proliferation	-11.0582
▁respondent	-11.0595
▁producing	-11.06
▁liability	-11.0601
2019	-11.0601
▁saving	-11.0601
▁Carolina	-11.0603
▁complicated	-11.0605
python	-11.0609
DIS	-11.0616
firm	-11.0623
▁confident	-11.0625
▁tradition	-11.0629
|^2	-11.063
▁projection	-11.0636
▁solar	-11.064
▁rush	-11.0645
▁physio	-11.0647
▁cutting	-11.0651
update	-11.0654
▁valuable	-11.0657
▁conservative	-11.0669
onder	-11.0674
>0$	-11.0676
▁viral	-11.0678
▁Democratic	-11.0678
▁circum	-11.068
emphasis	-11.0681
▁antigen	-11.0683
▁packet	-11.0686
▁facility	-11.0689
URE	-11.0694
▁folder	-11.0707
Operation	-11.0714
▁drain	-11.0714
Short	-11.0717
Length	-11.0735
▁Bell	-11.0737
▁semiconductor	-11.0739
Token	-11.0743
Vector	-11.0744
construct	-11.0757
▁sharing	-11.0765
▁differentiation	-11.0771
▁insulin	-11.0773
REG	-11.0776
▁ourselves	-11.0776
roid	-11.0777
generate	-11.0778
▁abnormal	-11.0778
▁Cross	-11.0782
▁mapping	-11.0788
▁Through	-11.0789
7.5	-11.0804
▁dramatic	-11.0805
pyr	-11.0816
▁complement	-11.0817
▁cognitive	-11.0818
solution	-11.0833
wiki	-11.0837
▁intermediate	-11.0838
▁adjacent	-11.0839
▁systematic	-11.0842
▁Civil	-11.0843
handler	-11.0845
strong	-11.0845
▁Ohio	-11.0846
▁corporation	-11.0857
Activity	-11.0858
plane	-11.0859
▁steel	-11.0862
▁overlap	-11.0863
▁restore	-11.0866
▁somewhere	-11.0867
▁documentation	-11.0867
▁broadcast	-11.087
lusive	-11.0872
▁winning	-11.0872
IVE	-11.0874
▁revenue	-11.0879
click	-11.0889
help	-11.0893
adjusted	-11.0894
▁politician	-11.0901
▁reliable	-11.0909
structure	-11.0913
▁Android	-11.0915
▁Amendment	-11.0917
▁lipid	-11.0918
2.7	-11.0926
device	-11.0926
▁illness	-11.0932
auto	-11.0935
▁contra	-11.0941
viruses	-11.0944
▁50%	-11.0948
▁Unfortunately	-11.0956
Why	-11.0959
137	-11.0961
▁Business	-11.0963
________________	-11.0965
▁Italy	-11.0975
▁progression	-11.0976
▁fault	-11.098
shore	-11.0983
onym	-11.0985
Impl	-11.0987
▁Chris	-11.0992
▁Town	-11.0993
▁Tele	-11.1
▁miR	-11.1004
Sample	-11.1008
▁storm	-11.1016
lapse	-11.1019
Yeah	-11.1021
▁vaccine	-11.1024
▁copies	-11.1025
▁revolution	-11.1026
▁laboratory	-11.1026
&#	-11.1027
▁YOU	-11.1027
▁bulk	-11.1038
▁urge	-11.1043
▁submit	-11.1045
▁Edward	-11.1046
▁Trust	-11.105
▁convince	-11.105
virus	-11.1055
ILL	-11.1059
▁hydrogen	-11.1062
▁Angeles	-11.1064
▁msgid	-11.1069
▁magn	-11.1072
▁graduate	-11.1072
prefix	-11.1076
articul	-11.1078
▁loose	-11.1078
▁Design	-11.108
▁contest	-11.108
trivial	-11.1082
0%)	-11.1087
▁affair	-11.1091
▁approximation	-11.1098
▁Way	-11.1107
wedge	-11.1112
▁bundle	-11.1115
electric	-11.1116
▁1991	-11.1122
▁academic	-11.1126
▁evil	-11.1126
Scale	-11.1127
▁infinite	-11.1131
amil	-11.1133
▁replied	-11.1139
Err	-11.1141
automat	-11.1142
ische	-11.1144
▁statistics	-11.1146
▁silence	-11.1148
▁prote	-11.1149
▁roof	-11.1152
nucleotide	-11.1155
▁ordinary	-11.1156
▁gradient	-11.1157
century	-11.116
compatible	-11.1161
desc	-11.1174
▁depict	-11.118
▁twist	-11.118
▁dedicated	-11.1189
lemma	-11.1202
▁silent	-11.1205
Configuration	-11.1215
uestion	-11.1216
currency	-11.1218
▁volunteer	-11.1221
▁disrupt	-11.1222
▁Constitution	-11.1223
Device	-11.1224
▁introduction	-11.1234
▁Factor	-11.1235
▁typedef	-11.124
Instance	-11.1257
▁loud	-11.1259
▁Tru	-11.1259
▁afraid	-11.1261
▁Egypt	-11.1262
Flag	-11.1263
▁edition	-11.1269
▁aircraft	-11.127
▁university	-11.1272
though	-11.1277
SELECT	-11.1279
▁plenty	-11.1283
▁lattice	-11.1285
ORE	-11.1288
GFP	-11.1292
]{}]{}	-11.1294
▁teeth	-11.1295
▁migration	-11.1296
▁molecule	-11.1299
XML	-11.1306
▁scholar	-11.131
▁cardiac	-11.1312
▁nearby	-11.1315
eux	-11.1315
▁hardware	-11.1319
▁surprising	-11.1334
▁>=	-11.1338
▁recipe	-11.1348
Import	-11.1355
▁Fox	-11.1359
▁orientation	-11.1361
example	-11.1366
▁manufacturing	-11.1367
▁stimulation	-11.1378
▁comfortable	-11.1383
▁regardless	-11.1386
▁giant	-11.139
▁momentum	-11.1392
▁composed	-11.1395
▁sampling	-11.1396
▁urban	-11.1396
ARE	-11.1404
▁radius	-11.1404
conjug	-11.1407
▁powder	-11.1409
▁obligation	-11.1411
▁chicken	-11.1413
▁preference	-11.1415
▁analyze	-11.1418
▁Determine	-11.1422
▁kinase	-11.1425
▁dozen	-11.1426
▁opposed	-11.1428
▁execution	-11.143
▁stir	-11.1432
▁Greek	-11.1434
▁Jersey	-11.1436
▁alert	-11.1436
▁anywhere	-11.1436
▁compliance	-11.1443
▁Southern	-11.1448
"}](	-11.1448
▁smell	-11.1448
variate	-11.1452
▁grain	-11.1455
▁universe	-11.1455
large	-11.1456
▁victory	-11.1457
▁contrary	-11.1459
DATA	-11.1465
3.4	-11.1468
▁computed	-11.147
▁mitochondria	-11.1476
▁passenger	-11.1476
▁efficacy	-11.1482
float	-11.1485
generation	-11.1488
▁abundance	-11.1493
▁gentle	-11.1494
▁Harris	-11.1499
▁facing	-11.1504
▁satisfied	-11.1505
▁disagree	-11.1507
▁pursuan	-11.1507
▁exploit	-11.1509
▁Amazon	-11.1522
sponsor	-11.1535
Tree	-11.1535
▁staining	-11.1539
▁phenotype	-11.1542
▁professor	-11.1542
▁ingredient	-11.1548
▁collapse	-11.1554
▁msgstr	-11.1557
Detail	-11.1561
▁THIS	-11.1562
}({\	-11.1562
▁Micro	-11.1566
_0^	-11.1568
▁bull	-11.1571
ITY	-11.1578
▁involvement	-11.159
▁interior	-11.1599
Olympic	-11.1606
▁atmosphere	-11.1606
resistant	-11.1606
▁mild	-11.1607
3.6	-11.1616
Valid	-11.1626
white	-11.1627
▁glad	-11.1635
▁Market	-11.1642
▁arrive	-11.1645
▁missed	-11.1646
Term	-11.1653
▁embryo	-11.1655
▁enforcement	-11.1657
▁accused	-11.1659
▁technologies	-11.1661
▁Prime	-11.1662
multi	-11.1666
▁corporate	-11.1669
Factory	-11.1676
subscribe	-11.1683
▁unusual	-11.1685
underline	-11.1685
▁glance	-11.1685
▁cream	-11.1696
▁frequent	-11.1697
▁diversity	-11.1698
▁assignment	-11.1699
▁applies	-11.1699
▁arbitrary	-11.1704
▁winner	-11.1718
▁measuring	-11.1726
▁clothes	-11.173
Channel	-11.1732
▁specimen	-11.1734
▁opposition	-11.1739
▁implied	-11.1742
▁basically	-11.1745
▁complications	-11.1748
▁studio	-11.1748
003){	-11.175
▁administrative	-11.1756
▁creative	-11.1763
▁Discussion	-11.1766
izar	-11.1772
▁requiring	-11.178
micro	-11.1791
▁proud	-11.1796
▁inflammation	-11.1807
▁phrase	-11.1811
▁thirty	-11.1813
▁robust	-11.1813
ogni	-11.1819
▁bacterial	-11.1821
Param	-11.1832
Background	-11.1836
▁programming	-11.1849
▁Technology	-11.1849
▁[2](#	-11.1853
science	-11.1857
▁Whether	-11.1859
▁inclusion	-11.1862
▁compensation	-11.1863
2.8	-11.1864
Living	-11.1865
▁privilege	-11.1867
▁Andrew	-11.1868
augh	-11.1869
▁peripheral	-11.1869
▁indicator	-11.1872
▁crop	-11.1878
▁Major	-11.1882
▁telephone	-11.1882
▁assets	-11.1887
▁apoptosis	-11.1893
▁thermo	-11.1894
▁pseudo	-11.19
TIME	-11.1901
Connection	-11.1901
hydroxy	-11.1904
Body	-11.1911
▁grave	-11.1912
▁commitment	-11.1915
[3]	-11.192
▁quantity	-11.1934
▁quantitative	-11.194
▁Wilson	-11.1942
Include	-11.1944
crat	-11.1944
▁kiss	-11.1945
▁combine	-11.1949
Session	-11.1953
▁Invest	-11.1953
▁careful	-11.1956
▁gauge	-11.1958
week	-11.1959
▁pathogen	-11.1981
▁reflection	-11.1982
▁incubated	-11.1982
▁entity	-11.1984
▁upgrade	-11.199
▁Brazil	-11.2001
▁somehow	-11.2001
▁taught	-11.2003
▁Francisco	-11.2004
archive	-11.2012
▁anxiety	-11.2013
▁leaf	-11.2015
▁calm	-11.2023
▁pregnancy	-11.2025
▁elevated	-11.2029
▁selective	-11.2029
COMM	-11.2031
description	-11.2042
▁establishment	-11.2043
▁Republic	-11.2044
▁polynomial	-11.2045
▁Valley	-11.2056
Listener	-11.2058
1/4	-11.2061
▁collective	-11.2065
▁holiday	-11.2076
▁tension	-11.2076
▁Patent	-11.2078
▁liberal	-11.2082
▁partially	-11.2085
Close	-11.2088
▁grass	-11.209
\|_{	-11.2094
▁generator	-11.2095
Print	-11.21
helm	-11.2103
TEM	-11.2105
▁smoking	-11.2105
▁Study	-11.2123
Module	-11.2124
▁magnet	-11.2135
▁mounted	-11.2135
▁council	-11.2138
▁propose	-11.2139
▁comprehensive	-11.2142
▁galaxies	-11.215
▁dominate	-11.2156
Expression	-11.2157
▁comparable	-11.2158
Height	-11.2159
bottom	-11.2161
triangle	-11.2167
blue	-11.2178
apple	-11.2193
▁flavor	-11.2196
▁celebrate	-11.2198
Struct	-11.2199
▁manufacture	-11.2207
▁carcinoma	-11.2208
7.0	-11.2214
expression	-11.2219
▁contradict	-11.2223
KEY	-11.2224
Parent	-11.2228
▁appointed	-11.2231
▁combat	-11.2233
mathscr	-11.2237
including	-11.2238
response	-11.224
▁Taylor	-11.2245
▁metabolic	-11.225
dagger	-11.2252
▁psycho	-11.2256
▁Guide	-11.2261
▁Little	-11.2264
ERROR	-11.2264
▁convey	-11.2265
▁beauty	-11.2271
validate	-11.2271
▁joy	-11.2273
▁Having	-11.2281
▁Davis	-11.229
▁Third	-11.2291
▁agencies	-11.2296
Parse	-11.2297
▁destination	-11.23
▁comparing	-11.2302
▁flood	-11.2308
therapy	-11.2318
world	-11.2326
cookie	-11.2328
▁Michigan	-11.2333
▁Ireland	-11.2334
magnetic	-11.2334
▁legislation	-11.2337
▁regulate	-11.2338
phosphate	-11.2344
package	-11.2352
▁diverse	-11.2352
▁perception	-11.2355
▁Patients	-11.2356
▁cheese	-11.2357
▁Latin	-11.2359
Region	-11.2365
▁Without	-11.2371
▁omitted	-11.2373
▁audit	-11.2376
▁ongoing	-11.238
attach	-11.2382
▁Family	-11.2386
luding	-11.2386
▁BOOST	-11.2394
▁vital	-11.2396
election	-11.2398
▁rising	-11.2408
▁Georgia	-11.2409
cipit	-11.2412
▁renal	-11.2413
▁metabolism	-11.2413
Definition	-11.2413
screen	-11.2414
Match	-11.2415
▁Corporation	-11.2415
1,000	-11.242
▁breach	-11.244
▁decreasing	-11.2443
▁troops	-11.2444
stained	-11.2454
▁Sort	-11.2457
ussi	-11.246
▁creature	-11.2462
Account	-11.2464
▁discrimination	-11.2464
ocyte	-11.2464
▁nervous	-11.2471
anni	-11.2473
channel	-11.2473
access	-11.2478
5.5	-11.2478
morphic	-11.2484
▁robot	-11.2486
Release	-11.2487
Environment	-11.2488
6.0	-11.2492
widget	-11.2492
▁kidney	-11.2499
▁Brook	-11.2502
▁arranged	-11.2503
▁divisor	-11.2505
!!!	-11.2508
People	-11.2508
▁pleasure	-11.2508
▁journalist	-11.2512
▁fifth	-11.2516
digest	-11.2516
atric	-11.2519
▁statutory	-11.252
ethanol	-11.252
▁Museum	-11.2524
▁dominant	-11.2524
▁consume	-11.2536
course	-11.2538
▁struck	-11.2544
▁infrastructure	-11.2548
socket	-11.2554
▁competitive	-11.2556
▁Management	-11.2561
▁organized	-11.2565
▁pursue	-11.2577
▁Meanwhile	-11.2591
▁progressive	-11.2591
▁uintptr	-11.2591
▁thorough	-11.2593
▁corrupt	-11.2593
▁overcome	-11.2594
Core	-11.2596
Width	-11.2605
▁initiate	-11.2611
▁absorption	-11.2612
▁deserve	-11.2614
▁consisting	-11.2614
filename	-11.2617
▁blend	-11.2627
assemble	-11.2628
LINE	-11.2628
▁Common	-11.2628
▁genuine	-11.2643
▁osteo	-11.2644
▁privacy	-11.2645
▁Spain	-11.2645
Position	-11.2657
▁transplant	-11.2662
▁resonance	-11.2662
▁injured	-11.2667
escence	-11.2669
▁Guard	-11.2671
effective	-11.2677
▁subgroup	-11.268
▁vertex	-11.2687
▁improving	-11.2688
▁communicate	-11.269
▁southern	-11.2691
▁spiritual	-11.2693
▁atoms	-11.2694
invoke	-11.2695
▁invasion	-11.2695
Limit	-11.2698
sample	-11.2702
▁cited	-11.2703
▁![](	-11.2718
Debug	-11.2722
license	-11.2724
synthetic	-11.273
▁cytokine	-11.273
▁adjustment	-11.2734
▁Conclusion	-11.2736
▁lunch	-11.2739
▁antibiotic	-11.2745
▁embodiment	-11.2751
▁Energy	-11.2758
domain	-11.2759
▁sauce	-11.2761
▁behalf	-11.2767
▁Nevertheless	-11.2784
READ	-11.2786
▁specify	-11.2788
fetch	-11.2789
6.5	-11.2805
▁occurrence	-11.2824
▁evolve	-11.2824
▁blame	-11.2827
chemistry	-11.2831
▁voters	-11.2831
▁Different	-11.2835
Stack	-11.2842
▁violent	-11.2849
▁stuck	-11.2855
▁opponent	-11.2855
▁elsewhere	-11.2855
▁Northern	-11.2858
patient	-11.2859
Character	-11.286
HTTP	-11.2861
▁pepper	-11.2862
eastern	-11.2864
▁acquisition	-11.2866
▁Pakistan	-11.2868
▁northern	-11.2875
▁nodded	-11.2886
Normal	-11.2891
component	-11.2892
▁allegations	-11.2893
▁burst	-11.2903
▁prominent	-11.2924
▁challenging	-11.2928
before	-11.2937
▁promotion	-11.2944
▁"""	-11.2951
▁caption	-11.2953
▁Championship	-11.2964
VALUE	-11.2977
▁Pennsylvania	-11.2984
alkyl	-11.2986
8.0	-11.299
▁precede	-11.2991
▁alignment	-11.2997
▁serial	-11.3004
Work	-11.3005
▁trauma	-11.3005
▁plurality	-11.3007
▁Soviet	-11.3013
▁Sometimes	-11.3015
▁singular	-11.3018
▁landscape	-11.302
▁Series	-11.3022
▁heavily	-11.3034
nutrients	-11.3038
CONFIG	-11.3045
▁Stephen	-11.3045
▁okay	-11.305
Http	-11.3052
▁wavelength	-11.3056
Active	-11.3056
▁Related	-11.3057
▁Kingdom	-11.306
True	-11.3063
▁roughly	-11.3065
▁generic	-11.3069
▁steam	-11.307
5.1	-11.307
▁closing	-11.3072
▁Studies	-11.3079
remove	-11.3082
▁temporal	-11.3084
▁generating	-11.3095
▁fluorescence	-11.3097
Experiment	-11.3099
▁genotype	-11.3108
logger	-11.3109
session	-11.312
▁coincide	-11.3125
Double	-11.3127
▁desirable	-11.3135
▁rescue	-11.3137
(1+	-11.3142
▁yesterday	-11.3154
▁Academy	-11.3161
while	-11.3163
▁scattering	-11.3165
phenyl	-11.3174
▁Pacific	-11.3174
▁neural	-11.3176
▁timing	-11.3177
▁finance	-11.3194
▁personnel	-11.3199
regulation	-11.3204
▁frequencies	-11.3209
issue	-11.3212
▁temporary	-11.322
OME	-11.3227
▁interference	-11.3236
▁collision	-11.3248
ijerph	-11.325
▁uncertainty	-11.3259
▁Express	-11.3261
▁intense	-11.3265
▁Article	-11.3268
▁pause	-11.3271
▁comprising	-11.3273
▁glyc	-11.3274
▁Illinois	-11.3287
Integer	-11.3287
▁Centre	-11.329
▁executed	-11.3293
▁province	-11.3294
Panel	-11.3294
▁permitted	-11.3297
Phys	-11.3298
▁guitar	-11.3308
Remove	-11.3308
▁initiative	-11.331
2.9	-11.3313
▁simulate	-11.3317
▁vegetable	-11.3317
\*\*	-11.332
▁unlikely	-11.3326
▁breed	-11.3334
Menu	-11.3338
ectomy	-11.3341
▁minimize	-11.3343
▁certificate	-11.3354
onomy	-11.3362
▁phenomenon	-11.337
▁ocean	-11.3376
▁accumulation	-11.3377
▁confront	-11.3378
▁Watch	-11.3396
▁participation	-11.3405
window	-11.3408
▁Irish	-11.341
▁Proposition	-11.3411
▁reasonably	-11.342
▁wireless	-11.3421
▁convenient	-11.3422
▁inequality	-11.3425
internal	-11.3431
▁brush	-11.3433
▁(%)	-11.3434
▁amendment	-11.3441
▁impression	-11.345
invasive	-11.345
▁crazy	-11.3464
install	-11.3468
▁verify	-11.348
Player	-11.3482
steroid	-11.3485
▁respiratory	-11.3488
morbid	-11.3497
▁CEO	-11.3501
▁Radio	-11.3506
▁continuing	-11.3509
rgic	-11.3511
javascript	-11.3529
▁fulfill	-11.353
▁Professor	-11.3532
▁GNU	-11.3533
Entry	-11.3533
▁Jews	-11.3537
▁ligand	-11.3538
custom	-11.3538
keyword	-11.3543
▁completion	-11.3547
Basic	-11.3554
▁hormone	-11.3559
COMP	-11.3581
▁clause	-11.3597
▁tweet	-11.3599
▁childhood	-11.3601
▁precision	-11.3609
▁healthcare	-11.3611
▁partnership	-11.3614
▁optimize	-11.3615
▁degradation	-11.362
▁scream	-11.3623
carbon	-11.3624
▁concrete	-11.3628
4.4	-11.3631
▁everywhere	-11.3639
▁doctrine	-11.364
▁Eastern	-11.364
▁verdict	-11.365
▁worldwide	-11.365
▁tunnel	-11.3652
First	-11.3654
jpg	-11.3669
▁absent	-11.3669
CHECK	-11.3671
▁aggressive	-11.3671
Template	-11.3672
annotation	-11.368
Entity	-11.368
watch	-11.3685
condition	-11.3686
▁Clark	-11.3687
▁accompanied	-11.3688
▁appointment	-11.37
▁utility	-11.3711
▁sudden	-11.3713
="../	-11.3714
▁removing	-11.3717
neighbour	-11.3721
▁availability	-11.3721
▁judicial	-11.3721
Interface	-11.3724
▁Captain	-11.3725
▁consecutive	-11.3731
▁inspired	-11.3758
▁severity	-11.376
▁Children	-11.3762
reservation	-11.3765
▁prosecutor	-11.3767
▁steady	-11.3772
▁prejudice	-11.3772
Feature	-11.3773
▁slope	-11.3774
Summary	-11.3775
▁competing	-11.3794
▁bunch	-11.3795
command	-11.3808
FLAG	-11.3816
negative	-11.3818
▁Ryan	-11.3834
▁immunity	-11.3838
▁sodium	-11.3841
▁Simon	-11.3845
▁override	-11.3846
▁entries	-11.3854
▁calcium	-11.3855
▁refuge	-11.3857
004){	-11.3864
artifact	-11.3865
▁fracture	-11.3869
▁suspension	-11.3872
▁chromosome	-11.3897
▁screw	-11.3897
Condition	-11.3908
▁psychological	-11.3919
▁terrible	-11.392
▁summarize	-11.3924
3.7	-11.3926
liberate	-11.3926
▁tensor	-11.3938
▁likelihood	-11.3938
Route	-11.3942
▁harvest	-11.3943
▁Film	-11.3955
▁flexible	-11.3958
▁priest	-11.3959
▁beneath	-11.3973
▁uncertain	-11.3978
▁plug	-11.399
▁mutual	-11.3993
▁artificial	-11.4003
▁disadvantage	-11.4008
IGHT	-11.4015
piece	-11.4017
▁Mountain	-11.4025
▁Conference	-11.4028
▁advertising	-11.4048
(-4)	-11.4061
WITH	-11.4063
▁automatic	-11.4067
▁Electro	-11.4071
▁supplied	-11.4073
Offset	-11.409
▁drove	-11.4096
▁penalty	-11.4103
▁reputation	-11.4105
▁arrival	-11.4105
LICENSE	-11.411
Cloud	-11.4119
▁residence	-11.4123
▁Learn	-11.4131
▁angry	-11.4131
▁whisper	-11.4133
▁stepped	-11.4135
8.5	-11.4158
glyco	-11.4159
▁reproduce	-11.4186
▁Natural	-11.4194
▁geometry	-11.4196
▁residual	-11.4196
▁ortho	-11.4214
▁vitamin	-11.4247
▁advocate	-11.4249
▁municipal	-11.4252
protect	-11.4265
▁associate	-11.4274
Language	-11.4277
▁CPU	-11.4283
sexual	-11.4287
▁intellectual	-11.429
square	-11.4299
Wait	-11.4301
▁vacuum	-11.4303
▁satisfies	-11.4308
Hello	-11.4313
▁emphasize	-11.4321
Provider	-11.4321
3.8	-11.4332
▁attachment	-11.4334
SERV	-11.4337
▁occupation	-11.4346
▁exciting	-11.4346
▁promising	-11.4351
▁Elizabeth	-11.4359
▁tomorrow	-11.4359
Font	-11.4365
Appellee	-11.4365
▁crypto	-11.437
▁stupid	-11.4372
▁retrieve	-11.4375
▁ranging	-11.4388
▁Cambridge	-11.4393
quality	-11.4393
▁insufficient	-11.4408
▁Statistical	-11.4413
▁satellite	-11.4424
▁Jacob	-11.4424
▁terrorist	-11.4429
▁adventure	-11.4434
▁denominator	-11.4437
▁companion	-11.4444
▁nuclei	-11.445
▁scalar	-11.4455
▁diffusion	-11.4457
Container	-11.4463
▁Alexander	-11.4468
thyroid	-11.4476
▁nutrition	-11.4481
▁computing	-11.4481
▁gaze	-11.4482
Root	-11.4483
▁vocal	-11.449
▁compromise	-11.4499
omato	-11.4503
▁posterior	-11.4504
▁veteran	-11.4515
____	-11.4518
▁drew	-11.4519
definite	-11.452
Handle	-11.4528
Display	-11.453
granul	-11.4531
▁bedroom	-11.4545
release	-11.455
▁Consequently	-11.4559
▁concert	-11.456
valuation	-11.4563
▁kilo	-11.4572
▁ethnic	-11.458
▁recipient	-11.4585
▁questionnaire	-11.4593
Simple	-11.4596
responsive	-11.4599
ologies	-11.4601
▁entrance	-11.4614
▁silicon	-11.462
▁Specifically	-11.4625
▁sequencing	-11.4625
▁Anderson	-11.4628
▁solely	-11.4635
3.9	-11.4638
▁dysfunction	-11.4643
▁EDIT	-11.4664
▁embedded	-11.4665
▁bankruptcy	-11.4675
▁Besides	-11.4681
▁Would	-11.4686
▁worried	-11.4689
▁quasi	-11.4689
▁inherent	-11.4692
bracket	-11.4703
athlete	-11.4704
Copy	-11.4707
▁pulmonary	-11.4715
▁preliminary	-11.4734
associated	-11.4742
▁batch	-11.4749
▁destruction	-11.4763
▁kinetic	-11.4764
double	-11.4765
{0}	-11.4765
▁tongue	-11.4767
▁philosophy	-11.4774
▁narrative	-11.4777
▁varied	-11.4779
▁guidance	-11.4785
▁readily	-11.4788
▁ultimate	-11.4792
▁territory	-11.4793
▁Lewis	-11.4794
Constant	-11.4802
▁Columbia	-11.4803
▁spark	-11.4811
9.5	-11.4822
Visual	-11.4824
▁maximal	-11.4825
navigation	-11.4828
vendor	-11.483
Contact	-11.4833
4.6	-11.4834
▁stomach	-11.4836
family	-11.4839
▁categor	-11.4841
▁Previous	-11.4841
▁inference	-11.4847
canonical	-11.485
▁registration	-11.4852
▁breakfast	-11.4852
Settings	-11.4854
▁Studio	-11.4855
▁Arizona	-11.4868
▁describing	-11.4871
▁Jordan	-11.4871
▁investors	-11.4872
▁heaven	-11.4875
setminus	-11.4876
▁miRNA	-11.4882
▁Summer	-11.4882
▁organisation	-11.4886
▁yeah	-11.4898
▁lawsuit	-11.4898
▁implications	-11.4904
▁beneficial	-11.4917
oriented	-11.4923
▁suicide	-11.4923
▁surveillance	-11.4928
▁cyst	-11.4931
▁royal	-11.4953
Matrix	-11.4958
▁investigator	-11.4963
(-6)	-11.4973
(-3)	-11.4978
▁matrices	-11.4988
▁offensive	-11.4988
▁activist	-11.4997
consistency	-11.5018
opathy	-11.5019
\<0.001	-11.5021
Internal	-11.5027
▁prosecution	-11.5029
▁optimization	-11.5032
▁tournament	-11.5043
▁neglect	-11.5054
unsafe	-11.5054
▁Parliament	-11.5057
▁[3](#	-11.506
▁aggregate	-11.5068
▁discipline	-11.5068
▁Follow	-11.5075
season	-11.5075
▁tablespoon	-11.5076
▁pounds	-11.5098
▁Clinical	-11.5101
▁throat	-11.5119
▁remand	-11.5121
▁anterior	-11.5123
▁convicted	-11.5123
▁Colorado	-11.5134
derived	-11.5147
▁shield	-11.5179
▁literally	-11.5182
Screen	-11.5182
▁phosphorylation	-11.5193
▁estimation	-11.521
▁discrete	-11.5212
▁sacrifice	-11.5235
▁awesome	-11.5238
▁sanction	-11.5241
▁essay	-11.5241
▁Daily	-11.5244
▁pregnant	-11.5246
▁Small	-11.5263
▁sweat	-11.527
▁raising	-11.5274
▁nicht	-11.5277
▁immigration	-11.528
▁transistor	-11.5283
▁isolation	-11.5285
paste	-11.5286
50,000	-11.5287
▁Medicine	-11.5294
Complete	-11.5297
▁gravity	-11.5297
▁Wolf	-11.5302
Properties	-11.5311
Abstract	-11.5312
▁Oxford	-11.5314
▁Personal	-11.5314
▁Toronto	-11.5325
▁knife	-11.5328
dependency	-11.5329
▁collaboration	-11.5334
▁underwent	-11.5348
arXiv	-11.5351
▁cardiovascular	-11.5356
▁Administration	-11.5362
affiliate	-11.5368
▁vertices	-11.5373
\^[	-11.5391
▁Associate	-11.5405
▁Ministry	-11.5408
▁Scotland	-11.541
▁marijuana	-11.541
▁anticipate	-11.5411
▁satisfaction	-11.5413
▁decimal	-11.5422
▁twelve	-11.5428
vocation	-11.5433
▁impairment	-11.5433
▁innovation	-11.546
Claim	-11.5462
▁festival	-11.5485
▁Interestingly	-11.5494
Private	-11.55
▁threw	-11.5508
▁unfortunate	-11.5511
▁variability	-11.552
▁approximate	-11.5521
////////////////	-11.5528
▁Similar	-11.5529
▁longitudinal	-11.5543
▁gradually	-11.5549
▁shaft	-11.5549
nucleo	-11.5553
▁scaling	-11.5554
▁reliability	-11.5557
floor	-11.5561
▁confused	-11.5566
▁defensive	-11.5581
▁stellar	-11.5581
▁Representative	-11.5583
language	-11.5586
▁supplies	-11.5589
▁spontaneous	-11.5592
▁cavity	-11.5592
▁desperate	-11.5598
