<pad>	0
<unk>	0
</s>	0
<sha_tkn1>	0
<sha_tkn2>	0
<sha_tkn3>	0
<sha_tkn4>	0
<sha_tkn5>	0
▁	-3.0814
.	-3.43334
,	-3.47937
▁the	-3.5985
s	-3.67238
▁of	-4.17037
▁and	-4.32447
▁to	-4.36946
▁a	-4.47384
▁in	-4.6151
-	-4.71193
▁is	-5.12112
_	-5.12637
'	-5.21837
▁that	-5.24606
)	-5.26508
▁for	-5.32273
:	-5.34045
▁(	-5.37499
t	-5.42888
d	-5.57646
▁with	-5.57649
▁I	-5.60205
(	-5.68251
ing	-5.71642
ed	-5.7229
▁on	-5.72967
▁was	-5.738
▁The	-5.74851
▁be	-5.82688
▁it	-5.84269
▁"	-5.85884
▁as	-5.87544
/	-5.93273
n	-5.94259
▁by	-5.96348
;	-6.00494
a	-6.01548
▁are	-6.04472
▁\	-6.09158
▁=	-6.09326
▁at	-6.11663
▁from	-6.12791
e	-6.13221
▁this	-6.17673
i	-6.18972
▁you	-6.19121
{	-6.19336
▁not	-6.19989
▁or	-6.20891
\	-6.2611
▁an	-6.2627
▁$	-6.26518
m	-6.27804
’	-6.28564
▁have	-6.28907
>	-6.32698
r	-6.36075
y	-6.37577
"	-6.40149
er	-6.43479
*	-6.43808
x	-6.44304
in	-6.44315
}	-6.4476
▁A	-6.44875
ly	-6.46844
p	-6.46937
▁*	-6.50425
▁he	-6.51243
c	-6.51785
▁were	-6.52686
S	-6.53336
▁we	-6.53491
b	-6.54978
B	-6.55735
$	-6.56265
▁-	-6.57898
▁can	-6.6
k	-6.60165
▁his	-6.61632
?	-6.62064
▁which	-6.64749
o	-6.6518
▁<	-6.65554
2	-6.66583
g	-6.70769
▁but	-6.71023
▁In	-6.71259
f	-6.71892
al	-6.75154
C	-6.75487
A	-6.76586
▁has	-6.77126
▁all	-6.78563
1	-6.79731
▁+	-6.80532
▁if	-6.81996
▁had	-6.82142
▁one	-6.82824
="	-6.85401
l	-6.8599
▁S	-6.86155
▁{	-6.8825
▁will	-6.88499
u	-6.89615
re	-6.90943
▁they	-6.95287
h	-6.95643
▁their	-6.97162
es	-6.97929
▁more	-7.01174
▁her	-7.03561
▁so	-7.04832
▁1	-7.06832
▁de	-7.07008
▁been	-7.072
F	-7.09358
▁C	-7.09692
▁}	-7.1068
3	-7.1117
).	-7.1164
▁out	-7.12095
I	-7.12234
or	-7.12975
▁time	-7.13626
▁would	-7.13797
▁my	-7.14506
▁your	-7.14718
▁“	-7.15449
▁also	-7.1556
▁$\	-7.15624
▁no	-7.15671
▁when	-7.16377
D	-7.16437
P	-7.17099
▁do	-7.17416
v	-7.17806
▁about	-7.19129
T	-7.19682
▁It	-7.20628
▁other	-7.21347
▁there	-7.21462
M	-7.21797
▁up	-7.22182
R	-7.23173
▁0	-7.23246
4	-7.24692
_{	-7.24706
z	-7.25498
▁who	-7.25779
]	-7.25874
▁[	-7.27188
▁This	-7.27783
H	-7.28097
▁into	-7.28491
▁me	-7.28801
L	-7.28987
▁than	-7.30254
E	-7.30277
j	-7.30306
G	-7.31762
);	-7.32172
▁F	-7.34167
."	-7.35242
▁B	-7.35271
▁We	-7.35632
▁said	-7.36559
▁she	-7.37706
▁2	-7.37984
),	-7.38125
▁He	-7.38473
▁like	-7.38909
----------------	-7.39031
N	-7.39324
▁two	-7.39612
▁only	-7.39949
▁&	-7.41013
▁P	-7.41256
w	-7.41495
0	-7.41671
▁what	-7.43112
▁over	-7.43172
▁T	-7.43821
▁some	-7.44412
en	-7.45097
▁E	-7.45903
▁our	-7.46088
▁M	-7.46747
ref	-7.4684
▁first	-7.47676
▁its	-7.48159
▁'	-7.4835
▁any	-7.48537
=	-7.48968
▁new	-7.49424
th	-7.49476
▁may	-7.50512
▁such	-7.51082
!	-7.51888
{\	-7.52235
on	-7.52514
▁p	-7.53044
to	-7.53161
type	-7.53327
▁re	-7.53428
K	-7.54777
▁v	-7.54909
▁these	-7.55845
[	-7.5611
▁them	-7.56318
▁D	-7.58273
▁could	-7.58728
▁R	-7.58853
▁H	-7.59445
▁use	-7.59769
▁after	-7.60078
▁between	-7.60791
▁3	-7.61484
W	-7.62054
▁G	-7.62353
^	-7.62575
▁him	-7.62798
▁just	-7.62867
▁where	-7.63051
ation	-7.63391
▁get	-7.64493
▁#	-7.64748
▁un	-7.6743
ve	-7.67441
▁Let	-7.68629
▁used	-7.68995
▁then	-7.69014
le	-7.69141
id	-7.70972
▁//	-7.72817
▁data	-7.72826
▁[@	-7.73026
ic	-7.73687
5	-7.74333
▁L	-7.74527
▁N	-7.75574
▁using	-7.75661
V	-7.75794
X	-7.76236
▁people	-7.76486
an	-7.77031
▁4	-7.77713
▁5	-7.78485
it	-7.78668
▁i	-7.78814
able	-7.78906
**	-7.81085
▁well	-7.8115
▁For	-7.81166
▁because	-7.81523
ers	-7.81711
ar	-7.8277
▁most	-7.83287
▁how	-7.83775
6	-7.8483
▁U	-7.84934
▁K	-7.85011
▁work	-7.85087
▁should	-7.85526
▁under	-7.86518
▁each	-7.87062
▁through	-7.87725
ll	-7.88146
▁case	-7.88356
▁back	-7.88949
q	-7.89542
▁m	-7.90408
▁see	-7.90455
▁make	-7.91259
▁W	-7.91379
▁way	-7.915
J	-7.91919
▁c	-7.92157
ity	-7.93021
▁return	-7.93501
8	-7.93882
}\	-7.93893
com	-7.94368
▁J	-7.94559
▁What	-7.94609
▁even	-7.94767
▁If	-7.94783
▁|	-7.94919
+	-7.9546
▁now	-7.95526
▁same	-7.95691
9	-7.96012
▁before	-7.97083
▁f	-7.97534
",	-7.97683
frac	-7.97787
▁did	-7.97854
,"	-7.98083
end	-7.98303
▁very	-7.98387
▁But	-7.98555
▁know	-7.9891
▁both	-7.99482
right	-7.99646
is	-8.00304
▁years	-8.00313
▁set	-8.00854
us	-8.01136
▁those	-8.01242
▁@	-8.01678
▁10	-8.03027
▁As	-8.03252
▁_	-8.03333
▁number	-8.03382
</	-8.03416
->	-8.03933
▁many	-8.04103
▁class	-8.0469
”	-8.04806
▁different	-8.05272
}$	-8.05429
▁being	-8.05696
▁made	-8.05825
7	-8.05986
▁need	-8.06087
Y	-8.06302
O	-8.06394
▁don	-8.07487
<	-8.0835
▁And	-8.08632
▁here	-8.09435
up	-8.09507
fig	-8.09772
...	-8.10621
at	-8.10639
▁found	-8.1094
▁while	-8.11489
ch	-8.11967
▁e	-8.11988
U	-8.11996
▁much	-8.12027
▁good	-8.12297
ine	-8.12484
()	-8.12523
▁right	-8.12525
left	-8.12971
▁6	-8.13969
▁system	-8.14962
▁us	-8.15244
▁To	-8.15557
▁\[[@	-8.15782
▁You	-8.15787
▁**	-8.15828
▁\[	-8.16025
▁high	-8.16071
▁down	-8.16201
▁function	-8.16626
▁three	-8.16912
et	-8.17431
▁long	-8.18232
el	-8.18363
ion	-8.18447
▁want	-8.18752
▁part	-8.18796
man	-8.18901
%	-8.19021
▁value	-8.19156
▁She	-8.19228
▁Re	-8.19311
▁19	-8.1935
de	-8.19582
▁without	-8.20039
▁d	-8.20269
▁la	-8.20272
▁study	-8.20427
_{\	-8.20517
▁end	-8.21631
▁So	-8.21698
▁b	-8.21902
▁during	-8.22249
▁No	-8.22324
▁order	-8.22616
▁non	-8.23872
li	-8.23923
ive	-8.24009
(\	-8.24065
▁V	-8.24076
▁go	-8.24308
the	-8.24346
▁think	-8.24433
▁O	-8.24529
▁public	-8.24533
▁court	-8.24687
▁state	-8.2496
▁cells	-8.26636
▁group	-8.27049
▁h	-8.27188
▁patients	-8.27195
▁still	-8.27311
ment	-8.27396
as	-8.27636
▁en	-8.2796
▁per	-8.2801
and	-8.2814
://	-8.28362
">	-8.29208
|	-8.29315
▁There	-8.29389
▁g	-8.29843
▁does	-8.30308
ant	-8.30396
mu	-8.3056
▁8	-8.30617
▁must	-8.31394
▁take	-8.32233
▁pre	-8.3239
▁last	-8.33191
▁Category	-8.33319
int	-8.33613
The	-8.33625
▁against	-8.33653
no	-8.33856
▁day	-8.33994
▁18	-8.34023
&	-8.341
▁name	-8.34219
est	-8.34223
▁year	-8.34383
▁n	-8.3477
am	-8.35106
un	-8.35219
▁al	-8.35358
▁l	-8.35499
ist	-8.35679
um	-8.36768
.”	-8.37023
▁second	-8.37093
co	-8.37479
▁7	-8.37609
10	-8.37746
ia	-8.37867
st	-8.37999
▁own	-8.38144
te	-8.389
pi	-8.39053
ate	-8.39142
▁off	-8.39434
▁information	-8.40217
▁life	-8.40567
▁They	-8.40625
▁find	-8.40944
▁t	-8.41203
▁et	-8.41731
▁k	-8.41962
▁around	-8.42099
ent	-8.42102
ol	-8.42329
▁model	-8.42425
**2	-8.42572
▁w	-8.42589
▁present	-8.43337
▁point	-8.44103
CR	-8.44293
▁man	-8.44494
▁another	-8.44707
▁type	-8.44906
alpha	-8.44957
▁12	-8.45132
▁con	-8.45386
ul	-8.45549
ary	-8.45655
▁might	-8.45854
▁following	-8.45911
▁r	-8.45932
ur	-8.4599
▁results	-8.46215
il	-8.46243
--	-8.46358
}}	-8.46525
::	-8.46769
get	-8.46797
▁New	-8.47085
▁going	-8.4744
▁However	-8.47591
)$	-8.47827
("	-8.48386
](#	-8.48456
ness	-8.48481
00	-8.48634
▁since	-8.49018
▁20	-8.4923
mathcal	-8.49346
ge	-8.49573
▁within	-8.49633
ir	-8.49891
▁When	-8.50007
▁line	-8.50079
▁control	-8.50399
\]	-8.50597
▁</	-8.50717
▁show	-8.51057
":	-8.51739
set	-8.52064
ne	-8.52459
▁example	-8.52679
▁help	-8.52687
▁co	-8.52838
▁world	-8.53245
▁every	-8.53725
▁too	-8.54116
?"	-8.54584
▁cell	-8.55177
▁home	-8.55482
ance	-8.55529
▁say	-8.55667
ad	-8.56059
▁am	-8.566
▁di	-8.56701
ton	-8.57238
line	-8.57259
▁x	-8.57408
ian	-8.57527
16	-8.576
▁given	-8.5769
ie	-8.57748
na	-8.57778
▁result	-8.57792
▁$$\	-8.5786
▁dis	-8.58089
▁small	-8.5828
ated	-8.58412
name	-8.58696
▁including	-8.58803
son	-8.58822
▁process	-8.58909
▁On	-8.59033
▁{#	-8.59178
▁*/	-8.59207
▁something	-8.59334
one	-8.59509
▁light	-8.5999
▁support	-8.60314
▁form	-8.6035
▁hand	-8.60542
me	-8.60564
▁never	-8.60657
▁little	-8.60812
os	-8.60889
32	-8.60891
▁sub	-8.61122
▁se	-8.61273
▁best	-8.61424
▁test	-8.6159
-1	-8.61697
text	-8.61817
▁X	-8.61923
▁15	-8.62168
▁place	-8.62354
▁water	-8.62454
▁really	-8.62506
▁come	-8.62825
▁few	-8.63031
▁power	-8.63103
ter	-8.63371
▁next	-8.63386
▁method	-8.63977
▁change	-8.64065
ty	-8.64433
ra	-8.64494
out	-8.64662
age	-8.64964
▁left	-8.65427
▁large	-8.65466
^{	-8.65562
▁based	-8.65687
ry	-8.65737
▁important	-8.66006
▁analysis	-8.66103
rm	-8.66334
▁file	-8.66411
▁All	-8.66581
▁That	-8.66838
▁9	-8.6716
▁o	-8.67383
▁13	-8.67685
▁fact	-8.67822
ling	-8.68443
▁At	-8.68732
▁again	-8.68758
▁post	-8.68831
▁great	-8.69043
▁y	-8.69206
table	-8.69409
io	-8.6944
▁better	-8.70028
▁above	-8.70199
ization	-8.70261
▁11	-8.70487
▁less	-8.71098
label	-8.71131
▁level	-8.71463
▁que	-8.71795
ies	-8.71836
ma	-8.71953
();	-8.725
▁look	-8.72522
▁Co	-8.72564
12	-8.72651
11	-8.72755
▁These	-8.72778
ism	-8.72893
,”	-8.72965
▁whether	-8.73003
▁self	-8.73088
▁evidence	-8.7346
▁side	-8.7365
▁real	-8.74014
be	-8.74078
ating	-8.74308
▁free	-8.74473
▁problem	-8.74634
▁least	-8.74743
ized	-8.74965
▁effect	-8.74967
"}	-8.75045
▁having	-8.75116
▁possible	-8.75324
ut	-8.75361
▁An	-8.75493
▁16	-8.7581
▁United	-8.75819
▁St	-8.75825
ac	-8.75914
ce	-8.7601
▁things	-8.7616
▁let	-8.76683
▁due	-8.76859
▁single	-8.76924
▁treatment	-8.77015
▁pro	-8.77043
▁low	-8.77058
log	-8.77081
▁until	-8.77155
▁always	-8.77795
▁days	-8.78215
▁give	-8.78252
64	-8.78277
ial	-8.78498
13	-8.78953
pone	-8.78979
▁put	-8.78982
.2	-8.79018
▁known	-8.7904
▁expression	-8.7934
▁got	-8.79343
▁code	-8.79535
▁open	-8.79617
ish	-8.79677
▁called	-8.79695
)\	-8.79991
▁law	-8.80225
data	-8.80695
▁j	-8.80769
ous	-8.80901
$.	-8.80928
$,	-8.80975
mo	-8.8098
ell	-8.81225
▁mean	-8.81593
▁four	-8.81744
begin	-8.81792
em	-8.81847
mathbb	-8.82071
80	-8.82179
18	-8.82225
ci	-8.82329
▁further	-8.8241
▁shown	-8.8288
▁didn	-8.83251
sum	-8.83531
▁field	-8.83646
bar	-8.83651
▁17	-8.83682
sec	-8.83698
▁{\	-8.83701
▁human	-8.83722
aligned	-8.84092
▁head	-8.84197
▁provide	-8.84219
▁question	-8.84563
▁common	-8.84725
▁current	-8.84743
▁size	-8.84752
▁family	-8.84829
▁/*	-8.84907
ally	-8.85022
▁car	-8.85327
▁true	-8.85501
time	-8.85655
1,	-8.85711
▁government	-8.85891
▁Court	-8.86234
▁several	-8.8634
))	-8.86343
▁local	-8.86348
▁either	-8.86559
▁men	-8.86608
▁away	-8.86755
}{	-8.86864
▁One	-8.8689
ro	-8.87004
▁30	-8.87251
ting	-8.87332
go	-8.87575
pt	-8.87584
}(	-8.87959
la	-8.8798
▁game	-8.8813
▁else	-8.88177
14	-8.88197
per	-8.88429
▁far	-8.88601
usepackage	-8.88668
▁States	-8.88819
@	-8.88832
}$$	-8.89435
ex	-8.89474
less	-8.89724
▁After	-8.89828
▁available	-8.89834
▁thought	-8.90273
▁full	-8.9036
01	-8.90368
if	-8.90453
▁space	-8.90511
▁general	-8.90643
▁position	-8.90743
▁children	-8.90825
▁start	-8.91143
▁error	-8.912
50	-8.91518
▁body	-8.9191
lo	-8.9205
▁De	-8.92384
▁later	-8.92644
▁studies	-8.92645
▁See	-8.92648
▁though	-8.92669
div	-8.9287
min	-8.92912
▁higher	-8.92918
**3	-8.92931
▁run	-8.92939
ap	-8.92967
lambda	-8.93028
▁similar	-8.9315
000	-8.93396
▁old	-8.93411
15	-8.93446
▁means	-8.93516
Name	-8.93701
▁already	-8.93711
▁read	-8.93808
▁int	-8.94071
ri	-8.94152
▁significant	-8.94245
▁course	-8.94373
▁14	-8.94557
▁total	-8.94685
▁action	-8.94774
▁list	-8.95174
▁My	-8.9527
▁came	-8.95289
beta	-8.95326
▁care	-8.95654
Fig	-8.9568
▁Le	-8.95726
_1	-8.95763
▁area	-8.95773
▁range	-8.9585
▁upon	-8.96012
im	-8.96016
▁often	-8.96053
cal	-8.96208
In	-8.96235
ence	-8.96449
▁rate	-8.96526
▁why	-8.96542
ta	-8.96683
▁team	-8.96687
▁trial	-8.9685
▁health	-8.97138
▁%	-8.97205
▁call	-8.97604
▁enough	-8.97685
▁told	-8.97761
#	-8.97818
▁short	-8.97871
▁values	-8.97912
org	-8.98164
do	-8.98221
▁person	-8.98305
▁done	-8.98533
▁however	-8.98775
▁along	-8.98825
▁--	-8.98886
▁lot	-8.98953
rs	-8.99047
▁lower	-8.99072
▁women	-8.9925
▁Con	-8.99422
▁among	-8.99447
],	-8.99465
▁thing	-8.99643
]{}	-8.9971
ner	-8.99812
▁image	-8.99824
^{\	-8.99858
▁view	-8.99973
20	-9.0047
-2	-9.00766
▁associated	-9.00886
▁keep	-9.00926
▁State	-9.00946
▁1.	-9.01157
▁anti	-9.01256
▁development	-9.01428
▁response	-9.01739
▁La	-9.0175
^2	-9.02107
Type	-9.02592
17	-9.02659
ak	-9.0266
19	-9.02766
▁cases	-9.02769
02	-9.02794
▁Do	-9.02796
▁24	-9.028
▁var	-9.02925
40	-9.02969
▁${\	-9.03047
he	-9.03055
▁energy	-9.0307
▁reported	-9.03299
ke	-9.03303
▁age	-9.03433
▁z	-9.03627
▁levels	-9.03641
25	-9.03652
▁play	-9.03655
▁sure	-9.03718
ted	-9.03926
▁seen	-9.04097
▁took	-9.04359
▁says	-9.04457
▁Suppose	-9.04623
}_{	-9.0478
phi	-9.0479
▁American	-9.04945
30	-9.04965
▁together	-9.04995
▁face	-9.05198
con	-9.05199
ning	-9.05227
of	-9.05273
▁able	-9.05311
('	-9.05319
land	-9.05357
▁business	-9.05914
▁compared	-9.05964
▁main	-9.06099
oc	-9.063
▁add	-9.06341
▁love	-9.0639
▁final	-9.06482
▁early	-9.06512
▁u	-9.06753
▁potential	-9.06815
▁How	-9.06851
▁==	-9.06872
▁required	-9.06967
se	-9.07134
▁specific	-9.07139
▁top	-9.0724
mathbf	-9.07283
ure	-9.07301
▁Then	-9.07338
▁once	-9.07512
code	-9.07648
▁issue	-9.07663
▁across	-9.07735
▁making	-9.07754
▁hard	-9.07889
▁By	-9.0802
▁([@	-9.08031
by	-9.08119
▁past	-9.08214
▁access	-9.08219
▁const	-9.08247
ide	-9.08277
▁include	-9.08345
▁research	-9.0865
▁activity	-9.08663
▁clear	-9.08795
▁key	-9.08856
eq	-9.08908
▁times	-9.0914
▁become	-9.09198
▁working	-9.09233
way	-9.09265
po	-9.09375
span	-9.09505
_\	-9.09556
nu	-9.09634
▁terms	-9.09655
▁structure	-9.09675
ful	-9.09758
▁went	-9.09833
▁import	-9.09863
▁risk	-9.09867
pm	-9.10451
▁University	-9.10461
].	-9.1059
ang	-9.10665
▁void	-9.10717
▁surface	-9.10806
▁groups	-9.1082
sigma	-9.10872
▁Y	-9.1119
▁addition	-9.11222
27	-9.11262
▁service	-9.11461
ical	-9.11585
24	-9.11739
▁described	-9.11909
▁base	-9.11918
▁term	-9.1207
ca	-9.12073
▁role	-9.12088
▁kind	-9.12189
ti	-9.12548
▁2*	-9.12655
ID	-9.12678
▁provided	-9.12893
▁increase	-9.13048
ley	-9.13187
▁particular	-9.13228
over	-9.13252
▁conditions	-9.13253
▁2.	-9.13336
▁With	-9.13373
ities	-9.13486
▁design	-9.13529
▁period	-9.13549
ative	-9.13591
▁source	-9.13622
gen	-9.13819
▁([	-9.13848
▁25	-9.13874
▁His	-9.13889
60	-9.14085
▁try	-9.14086
string	-9.1415
▁observed	-9.14206
▁section	-9.14412
▁school	-9.14824
value	-9.14829
▁Al	-9.1485
▁company	-9.14942
tic	-9.15106
▁doesn	-9.15191
▁increased	-9.15291
,\	-9.15304
▁project	-9.15327
▁protein	-9.15342
▁cannot	-9.15356
bib	-9.15424
sqrt	-9.15435
▁asked	-9.15494
▁book	-9.15497
▁-1	-9.15583
▁night	-9.15657
▁program	-9.15687
gamma	-9.15744
▁months	-9.15801
mer	-9.15908
Re	-9.15948
ber	-9.15969
ard	-9.15976
▁multiple	-9.15981
▁room	-9.15999
_2	-9.16129
▁bit	-9.16137
▁social	-9.16146
tr	-9.16204
"}).	-9.16366
28	-9.16648
▁rather	-9.16831
ten	-9.1694
▁third	-9.16963
▁week	-9.16978
▁country	-9.17018
chi	-9.171
ha	-9.17127
▁ever	-9.17176
▁matter	-9.1736
▁yet	-9.17423
▁site	-9.17612
▁effects	-9.17626
▁disease	-9.17654
▁whole	-9.17669
▁string	-9.17734
▁changes	-9.178
▁el	-9.17974
▁table	-9.18112
▁Mr	-9.18145
den	-9.18309
▁factors	-9.185
▁Ra	-9.1854
▁believe	-9.18579
35	-9.18876
▁content	-9.19067
▁reason	-9.19082
▁mind	-9.1911
▁version	-9.1914
men	-9.19188
];	-9.19245
▁five	-9.19529
▁1,	-9.19541
ase	-9.19756
▁performed	-9.19898
2,	-9.19902
▁close	-9.20162
tion	-9.20201
▁factor	-9.20271
▁object	-9.20321
▁blood	-9.20472
http	-9.20549
▁standard	-9.20695
▁...	-9.20847
▁user	-9.20916
▁taken	-9.20926
key	-9.20981
▁feel	-9.21048
▁below	-9.21444
04	-9.21455
▁various	-9.21468
▁inter	-9.21471
▁according	-9.21629
mm	-9.21774
que	-9.21905
ise	-9.21935
▁showed	-9.21937
rho	-9.22159
▁money	-9.22161
der	-9.2227
mathrm	-9.22286
ED	-9.22306
▁doing	-9.22306
21	-9.22355
▁THE	-9.22587
da	-9.22613
34	-9.22615
▁le	-9.22618
▁account	-9.2277
ab	-9.22832
▁season	-9.22915
ip	-9.22942
ler	-9.23064
[@	-9.23109
▁simple	-9.23185
▁amount	-9.23208
▁positive	-9.23281
▁private	-9.23291
▁actually	-9.23395
▁device	-9.23452
test	-9.23496
▁half	-9.23653
▁create	-9.23658
www	-9.23683
▁experience	-9.2381
▁100	-9.2389
for	-9.23927
this	-9.24015
▁air	-9.24231
We	-9.24241
▁approach	-9.24278
▁almost	-9.24324
▁review	-9.24384
di	-9.24416
▁food	-9.24474
om	-9.24536
36	-9.2454
45	-9.24767
our	-9.24813
html	-9.2487
▁check	-9.24881
-3	-9.24898
1-	-9.24901
26	-9.24964
▁Me	-9.25179
▁York	-9.25439
1)	-9.25471
old	-9.25487
yl	-9.25498
▁cause	-9.25537
▁interest	-9.2555
led	-9.25574
▁application	-9.25593
▁certain	-9.25663
ba	-9.25741
Figure	-9.2576
▁obtained	-9.2576
▁house	-9.2577
▁considered	-9.25838
nd	-9.25957
▁performance	-9.26067
▁Mo	-9.26132
tau	-9.26255
str	-9.2644
▁cancer	-9.26522
---	-9.26534
▁Here	-9.26742
▁||	-9.26747
hat	-9.26814
29	-9.26816
▁likely	-9.26863
▁future	-9.26906
▁big	-9.26984
▁app	-9.27184
48	-9.27267
▁material	-9.27273
ung	-9.27291
▁black	-9.27326
▁rest	-9.27397
▁sp	-9.2741
03	-9.27545
▁21	-9.27605
05	-9.27624
▁shows	-9.27725
xi	-9.27874
▁Some	-9.27924
▁report	-9.27926
100	-9.27956
09	-9.28048
▁solution	-9.28145
▁nothing	-9.28163
▁death	-9.28196
red	-9.28241
ice	-9.2831
39	-9.28491
▁war	-9.28545
▁property	-9.28651
▁tell	-9.28668
▁text	-9.28723
70	-9.28826
38	-9.2887
It	-9.28938
▁micro	-9.29012
▁heart	-9.29049
▁added	-9.29146
▁Dr	-9.29235
▁God	-9.29335
2)	-9.29338
ven	-9.29423
▁anything	-9.29436
▁weight	-9.2949
▁film	-9.29513
▁Mar	-9.2964
▁condition	-9.29647
▁Ma	-9.29652
ron	-9.29673
form	-9.2976
08	-9.29804
delta	-9.29922
▁won	-9.29992
▁individual	-9.30055
▁50	-9.30091
▁region	-9.3017
▁systems	-9.30203
▁pay	-9.30234
▁trying	-9.30304
ast	-9.30423
22	-9.30425
47	-9.30432
bb	-9.30454
list	-9.30468
▁media	-9.30553
ga	-9.30661
▁event	-9.30723
ier	-9.30723
app	-9.31054
▁paper	-9.31069
_0	-9.31087
You	-9.3116
▁included	-9.31238
23	-9.3129
omega	-9.31394
see	-9.31447
▁motion	-9.31489
size	-9.31491
▁John	-9.31558
theta	-9.31741
▁looking	-9.31755
▁related	-9.31797
▁mass	-9.31837
▁held	-9.31845
bo	-9.31858
▁(*	-9.31906
▁city	-9.3195
31	-9.31983
▁live	-9.3202
90	-9.32022
▁points	-9.32042
▁young	-9.32091
})	-9.32226
▁defined	-9.32284
ology	-9.323
▁history	-9.32301
07	-9.32351
▁date	-9.3245
▁network	-9.32677
▁Now	-9.32744
▁minutes	-9.32894
ep	-9.32968
▁series	-9.33025
▁record	-9.33035
▁additional	-9.33085
▁Pro	-9.33245
len	-9.33258
▁front	-9.3341
lin	-9.33411
▁flow	-9.33458
all	-9.33668
▁white	-9.33722
val	-9.33866
▁prior	-9.33973
▁cost	-9.34091
▁US	-9.34116
▁bar	-9.34128
▁major	-9.34139
▁decision	-9.34187
▁turn	-9.342
▁idea	-9.3423
▁million	-9.34293
port	-9.34308
▁While	-9.34368
▁child	-9.3443
▁break	-9.34478
")	-9.34545
▁respectively	-9.34565
▁art	-9.34676
eta	-9.34992
times	-9.34993
ka	-9.3501
▁received	-9.35015
ium	-9.35078
we	-9.35104
▁du	-9.35156
▁length	-9.35224
▁signal	-9.35248
▁story	-9.35287
▁others	-9.35334
================	-9.35395
tor	-9.35424
▁members	-9.3553
▁q	-9.35536
▁difference	-9.35653
▁static	-9.35753
op	-9.35831
▁special	-9.35832
partial	-9.35973
ize	-9.35982
my	-9.36018
▁super	-9.36114
56	-9.36262
res	-9.36309
▁population	-9.36337
▁himself	-9.36434
▁thus	-9.36454
▁understand	-9.36486
▁ne	-9.36539
use	-9.3654
▁st	-9.3657
06	-9.36591
ub	-9.36728
▁22	-9.36911
va	-9.36913
▁eyes	-9.36932
▁color	-9.37017
▁via	-9.37096
44	-9.37143
▁phase	-9.37152
▁door	-9.37168
▁plan	-9.37184
57	-9.37194
▁normal	-9.37279
33	-9.37292
▁significantly	-9.37308
▁May	-9.37322
▁step	-9.37358
dy	-9.37392
▁consider	-9.37393
37	-9.37492
tro	-9.37499
▁Our	-9.37722
▁3*	-9.37723
vert	-9.38063
▁Na	-9.38107
act	-9.38296
lic	-9.3831
▁Be	-9.38337
ee	-9.38646
net	-9.38661
▁getting	-9.38794
▁Li	-9.38955
ill	-9.39023
▁=>	-9.39033
▁Thus	-9.39116
▁hours	-9.3912
off	-9.39157
^\	-9.39157
99	-9.39295
not	-9.39338
▁na	-9.3944
▁average	-9.39473
▁$(	-9.39541
define	-9.39552
based	-9.39714
▁patient	-9.3973
ite	-9.39926
49	-9.3998
▁makes	-9.40224
▁language	-9.40258
▁min	-9.40263
▁gene	-9.40321
▁sense	-9.4038
field	-9.40446
▁needed	-9.40446
▁\\	-9.40453
▁ex	-9.40475
▁bi	-9.40547
Table	-9.40568
ability	-9.40569
▁started	-9.40582
▁claim	-9.40593
▁therefore	-9.40647
▁saw	-9.4072
ER	-9.40765
▁3.	-9.4078
");	-9.409
▁contact	-9.40952
53	-9.40977
pe	-9.4113
mp	-9.41132
ator	-9.41165
▁previous	-9.41174
▁community	-9.41294
=\	-9.4136
▁defendant	-9.41389
▁respect	-9.41402
year	-9.41496
▁red	-9.4151
▁$$	-9.41702
ig	-9.41707
42	-9.41786
▁Not	-9.41934
ver	-9.41946
var	-9.41965
To	-9.42
▁path	-9.42039
▁near	-9.42087
59	-9.42092
▁(19	-9.42157
▁National	-9.42175
▁six	-9.4229
day	-9.42372
▁Since	-9.42678
▁growth	-9.42684
):	-9.42689
▁moment	-9.42728
▁words	-9.42761
▁product	-9.42876
▁party	-9.42896
▁Her	-9.42914
▁false	-9.4299
br	-9.43037
\_	-9.43081
▁sample	-9.43096
▁instead	-9.43119
ster	-9.43166
▁28	-9.43252
▁Or	-9.43352
▁market	-9.43362
side	-9.43414
▁page	-9.43427
▁itself	-9.4351
▁War	-9.43524
let	-9.43543
▁production	-9.43572
add	-9.43612
▁multi	-9.43614
▁probably	-9.43619
▁land	-9.43636
><	-9.43846
}_	-9.43885
▁clinical	-9.4389
▁write	-9.439
▁original	-9.43944
pa	-9.43946
▁today	-9.44025
▁seems	-9.44085
▁23	-9.44212
▁cut	-9.44212
▁move	-9.4423
54	-9.44232
▁word	-9.44432
LE	-9.44563
▁target	-9.44667
▁des	-9.44681
▁distribution	-9.44699
▁complex	-9.4474
▁ground	-9.44823
▁someone	-9.44831
▁district	-9.44902
ah	-9.44904
String	-9.44954
46	-9.44975
▁title	-9.45028
class	-9.45081
▁wanted	-9.45148
mon	-9.45152
▁methods	-9.4516
75	-9.45183
▁par	-9.45208
▁0,	-9.45238
ze	-9.45275
▁involved	-9.45471
▁lead	-9.45656
▁temperature	-9.457
▁looked	-9.45759
▁com	-9.45802
path	-9.45815
▁40	-9.45853
▁su	-9.45951
▁expected	-9.45967
▁bad	-9.46036
▁address	-9.46083
55	-9.46121
load	-9.46308
3,	-9.46313
Delta	-9.46335
▁mother	-9.46376
▁Ho	-9.46387
leq	-9.46478
ho	-9.46486
▁input	-9.46496
▁states	-9.46507
bi	-9.46743
▁taking	-9.46751
▁(\[	-9.46791
▁pressure	-9.46871
▁allow	-9.46876
▁behind	-9.46904
43	-9.46928
les	-9.46945
tra	-9.46978
infty	-9.47065
▁sequence	-9.47123
new	-9.47145
▁Go	-9.47155
ag	-9.47181
like	-9.47301
58	-9.47325
▁complete	-9.47361
ni	-9.47376
69	-9.47435
86	-9.47484
▁die	-9.47527
AL	-9.47568
}}$	-9.47594
▁job	-9.47642
▁quite	-9.4766
▁necessary	-9.47879
▁host	-9.48012
ham	-9.48085
▁Vi	-9.48121
Data	-9.48162
ose	-9.48174
▁determine	-9.48229
▁video	-9.48249
▁http	-9.48261
▁strong	-9.48333
▁cross	-9.48374
▁inside	-9.48432
▁Ch	-9.48494
▁para	-9.48777
▁percent	-9.48827
sh	-9.48886
65	-9.48901
▁services	-9.48938
nt	-9.48951
▁quality	-9.49052
▁search	-9.49108
mb	-9.49258
light	-9.494
▁![	-9.49407
▁deal	-9.49415
▁stop	-9.49419
▁outside	-9.49444
▁presence	-9.49454
ual	-9.49463
▁City	-9.49485
96	-9.49901
41	-9.49932
▁From	-9.49942
▁0.1	-9.49974
▁subject	-9.50009
0,	-9.50034
▁First	-9.50058
CC	-9.5009
▁unit	-9.502
lan	-9.50249
▁recent	-9.5026
ger	-9.50443
▁follow	-9.50473
▁sh	-9.50517
file	-9.50575
2-	-9.50625
▁lines	-9.50659
▁hope	-9.50679
Id	-9.50772
▁knew	-9.50817
▁especially	-9.50841
▁display	-9.50857
so	-9.50937
▁problems	-9.51052
85	-9.51052
state	-9.51368
▁simply	-9.51449
▁personal	-9.51464
top	-9.51473
cc	-9.51489
▁gas	-9.51528
▁shall	-9.51648
AS	-9.51649
▁(1	-9.51726
▁output	-9.51797
▁Sa	-9.51827
▁!=	-9.51889
></	-9.51973
▁determined	-9.51995
▁everything	-9.52054
▁Although	-9.52105
au	-9.52167
▁center	-9.5221
▁id	-9.52345
View	-9.52434
}}}	-9.52462
No	-9.52497
95	-9.52512
▁Pa	-9.52516
▁appeal	-9.52627
ina	-9.52749
▁became	-9.52849
gar	-9.52899
94	-9.52965
ship	-9.52982
▁loss	-9.52987
point	-9.53016
▁Ca	-9.53054
▁release	-9.53092
▁political	-9.53112
+\	-9.53205
ot	-9.53463
CA	-9.535
▁build	-9.53536
▁models	-9.53666
▁longer	-9.53673
▁issues	-9.5379
▁began	-9.53913
▁features	-9.53971
ko	-9.54006
▁fire	-9.54104
▁direct	-9.54123
▁initial	-9.54317
▁species	-9.54348
ING	-9.54509
67	-9.54649
List	-9.54677
▁South	-9.54733
▁former	-9.54796
▁&&	-9.54831
▁trans	-9.54837
▁26	-9.54957
▁impact	-9.54989
ow	-9.55121
sp	-9.55191
▁events	-9.55196
▁4*	-9.55228
▁late	-9.55363
ft	-9.55539
fe	-9.55695
▁police	-9.55749
▁comes	-9.55785
▁element	-9.55828
▁member	-9.55879
ud	-9.55913
include	-9.55952
Value	-9.55967
▁answer	-9.56054
izing	-9.56269
ile	-9.56603
ana	-9.56657
▁music	-9.56766
psi	-9.5682
▁running	-9.56865
{{\	-9.56868
cap	-9.56975
▁force	-9.57021
▁lack	-9.57131
He	-9.57155
▁Po	-9.57186
mar	-9.57188
IS	-9.57293
▁acid	-9.5732
▁Ro	-9.57335
▁Ar	-9.57337
97	-9.57507
▁needs	-9.57517
▁Man	-9.57571
▁2,	-9.57585
▁OF	-9.57609
▁memory	-9.57609
gi	-9.57618
▁father	-9.57697
}{\	-9.57847
1.	-9.57867
1){	-9.57877
}^{	-9.57879
▁0;	-9.58124
▁turned	-9.58127
link	-9.58206
▁provides	-9.58255
▁woman	-9.58257
▁felt	-9.58422
hu	-9.5843
▁son	-9.58549
▁-2	-9.58561
▁Ka	-9.58599
▁policy	-9.58641
▁El	-9.58718
▁array	-9.58788
!"	-9.58812
▁office	-9.58886
▁students	-9.58946
▁Pre	-9.5896
▁created	-9.59004
▁Sch	-9.59017
▁talk	-9.5911
\\	-9.59233
▁fine	-9.59289
▁easy	-9.59295
▁presented	-9.59301
▁reference	-9.59314
89	-9.59362
ens	-9.59468
▁written	-9.59469
▁North	-9.5952
ible	-9.59527
▁sound	-9.59529
▁Act	-9.5954
array	-9.59694
OR	-9.59731
▁contract	-9.59824
par	-9.59954
ified	-9.59965
▁scale	-9.59989
▁physical	-9.60036
ja	-9.6008
▁invention	-9.60085
▁Therefore	-9.60118
▁judgment	-9.60201
▁index	-9.60403
▁tried	-9.60422
▁star	-9.60465
▁null	-9.60475
▁primary	-9.60502
$-	-9.60507
pre	-9.60538
▁gave	-9.60622
IC	-9.60627
▁sa	-9.60676
▁60	-9.60738
▁building	-9.60764
▁followed	-9.60782
▁Sp	-9.60807
EN	-9.60826
▁parameters	-9.60903
}}\	-9.60912
▁directly	-9.60925
76	-9.61049
▁effective	-9.61131
▁properties	-9.61152
tilde	-9.61183
▁forward	-9.61228
▁27	-9.61259
▁Trump	-9.61279
▁Inc	-9.61358
▁style	-9.6137
▁da	-9.61405
row	-9.61496
width	-9.61552
pr	-9.61569
▁World	-9.61594
▁layer	-9.61657
▁wrong	-9.61686
▁works	-9.61714
▁software	-9.6177
84	-9.6181
ick	-9.61956
79	-9.62017
52	-9.62107
98	-9.62203
▁identified	-9.62208
cdot	-9.62275
▁natural	-9.62361
td	-9.62464
ay	-9.62473
▁tax	-9.62496
▁medical	-9.62532
-4	-9.6258
▁soon	-9.62589
▁difficult	-9.62602
ng	-9.62614
▁CD	-9.62661
▁negative	-9.62863
▁Can	-9.62887
▁samples	-9.62891
▁context	-9.62914
▁Cir	-9.62932
px	-9.6297
▁relationship	-9.62994
▁knowledge	-9.63014
▁Gu	-9.63111
▁weeks	-9.63126
▁count	-9.63142
▁ask	-9.63177
fa	-9.63213
▁products	-9.63236
88	-9.63273
▁elements	-9.63487
cr	-9.63592
▁environment	-9.63625
back	-9.63648
74	-9.6368
▁distance	-9.63689
▁greater	-9.63742
ui	-9.63756
▁double	-9.63774
▁ago	-9.63812
▁entire	-9.6403
▁II	-9.64031
▁whose	-9.64054
ker	-9.64087
iv	-9.64137
▁request	-9.64166
▁March	-9.64173
car	-9.64207
big	-9.64223
▁applied	-9.64282
▁questions	-9.64358
▁require	-9.64379
▁hit	-9.64412
▁leave	-9.64459
87	-9.64469
▁themselves	-9.64475
▁ratio	-9.64493
▁training	-9.64514
▁Car	-9.64612
▁national	-9.64622
▁follows	-9.6463
▁limited	-9.64635
hr	-9.64639
63	-9.64642
▁ha	-9.64661
▁General	-9.64749
83	-9.64768
▁map	-9.64811
ik	-9.64848
ach	-9.64931
ification	-9.64968
box	-9.65041
▁status	-9.65136
▁ten	-9.65189
▁basis	-9.65218
▁note	-9.65254
])	-9.65348
▁developed	-9.65377
sim	-9.65378
▁President	-9.6541
▁practice	-9.65524
▁ma	-9.65542
▁Calculate	-9.65575
can	-9.6561
▁im	-9.65623
rangle	-9.65642
▁although	-9.65658
ever	-9.65692
▁mice	-9.65725
▁relative	-9.6582
▁Bo	-9.65839
ious	-9.65855
▁Ha	-9.65871
rate	-9.65961
ists	-9.66101
▁avoid	-9.66146
py	-9.66233
SS	-9.66248
";	-9.66344
4,	-9.66388
▁sort	-9.66471
ring	-9.6649
▁stage	-9.66511
▁pain	-9.66589
▁coming	-9.66621
sub	-9.6663
▁str	-9.66636
▁Ga	-9.66647
ste	-9.66687
|\	-9.6679
▁voice	-9.66863
▁functions	-9.66989
▁computer	-9.67091
IN	-9.67115
▁reduced	-9.67119
sion	-9.67179
▁particularly	-9.67266
▁previously	-9.67269
▁types	-9.67269
ons	-9.6743
ST	-9.67441
vo	-9.67537
](	-9.6767
▁29	-9.67675
▁generally	-9.67707
78	-9.6774
ov	-9.67807
▁nature	-9.67848
▁lost	-9.67855
▁brain	-9.6786
param	-9.67885
ef	-9.68034
.3	-9.68051
ec	-9.68101
ru	-9.68171
▁hold	-9.68199
▁def	-9.68252
▁rule	-9.68284
51	-9.68309
mi	-9.68318
▁block	-9.68377
▁derivative	-9.68465
▁genes	-9.68523
▁constant	-9.68616
▁Se	-9.68707
▁4.	-9.68743
▁background	-9.68817
▁command	-9.6905
ado	-9.69083
▁met	-9.69091
▁rights	-9.69093
▁areas	-9.691
▁month	-9.69129
▁5*	-9.69176
▁visit	-9.69292
▁players	-9.69299
▁auto	-9.69325
▁County	-9.69329
▁Ba	-9.69398
▁link	-9.69442
▁June	-9.69443
read	-9.69483
ero	-9.69507
▁usually	-9.69556
▁continue	-9.69583
struct	-9.6961
▁statement	-9.6961
ob	-9.6963
self	-9.69816
ions	-9.69826
▁behavior	-9.69849
▁published	-9.69858
max	-9.6989
81	-9.69913
SE	-9.69965
▁character	-9.69991
▁independent	-9.69999
▁article	-9.70001
▁direction	-9.70065
▁por	-9.7013
▁Un	-9.70155
iz	-9.70166
▁author	-9.70172
uff	-9.70214
▁anyone	-9.70253
▁theory	-9.70271
▁fast	-9.7028
▁sent	-9.70287
▁DNA	-9.70307
▁message	-9.70321
3)	-9.70411
82	-9.70431
▁:=	-9.70439
▁website	-9.70473
▁[*	-9.70527
▁global	-9.70538
view	-9.7056
▁poly	-9.70563
ric	-9.70606
▁expect	-9.70621
han	-9.70672
▁agreement	-9.70695
▁drive	-9.70705
▁America	-9.70793
▁heard	-9.70804
▁stress	-9.70827
MS	-9.70907
^*	-9.70912
▁House	-9.70951
▁imp	-9.7096
ES	-9.70979
ray	-9.70982
▁err	-9.71006
▁obtain	-9.71012
bf	-9.71012
ging	-9.71045
ix	-9.71178
▁pass	-9.71323
▁heat	-9.71387
-\	-9.71439
lib	-9.71599
▁includes	-9.71658
▁legal	-9.71676
▁living	-9.71723
▁drug	-9.7179
▁writing	-9.71808
62	-9.71868
ations	-9.72017
▁mo	-9.72056
sch	-9.72181
▁Lo	-9.72211
ey	-9.72238
▁speed	-9.72242
▁Hu	-9.72249
68	-9.72264
77	-9.72348
fer	-9.72394
▁\<	-9.72415
▁oil	-9.72516
▁hands	-9.72657
▁ability	-9.72805
ph	-9.72861
▁online	-9.72874
▁hospital	-9.72959
RE	-9.73004
term	-9.7307
ev	-9.73155
▁Ne	-9.73166
av	-9.73265
AR	-9.73388
▁package	-9.73493
)}	-9.73532
▁corresponding	-9.73558
▁claims	-9.73663
▁volume	-9.73715
($	-9.73769
ised	-9.73844
▁vi	-9.73859
▁em	-9.73897
\])	-9.73901
▁0.5	-9.73941
base	-9.74002
tan	-9.74005
▁San	-9.74024
tain	-9.74037
▁En	-9.74042
▁purpose	-9.74083
▁etc	-9.74104
▁density	-9.74123
▁struct	-9.74169
▁__	-9.74179
▁Note	-9.74232
▁differences	-9.74285
72	-9.74309
qui	-9.74348
tal	-9.74422
▁alone	-9.74431
ue	-9.7445
▁fun	-9.74659
▁phone	-9.74769
kin	-9.74931
0)	-9.75059
fold	-9.751
ki	-9.75206
66	-9.75321
▁screen	-9.7536
3-	-9.75386
));	-9.75415
File	-9.75489
▁der	-9.75524
▁31	-9.75651
ada	-9.75735
▁(2	-9.75789
▁2016	-9.75821
▁Of	-9.75835
▁bring	-9.75887
\].	-9.75924
73	-9.76019
ez	-9.76045
▁2014	-9.76181
her	-9.76185
▁success	-9.76195
ij	-9.76272
ny	-9.76307
▁road	-9.76343
}(\	-9.76348
▁2012	-9.7635
▁default	-9.76371
$\	-9.76407
▁unique	-9.76448
▁town	-9.76508
▁2013	-9.76539
▁active	-9.7654
tu	-9.7657
▁proposed	-9.76584
je	-9.76591
▁href	-9.76638
▁security	-9.76704
▁act	-9.76746
▁win	-9.76771
▁friends	-9.7678
▁charge	-9.76892
und	-9.77056
▁fl	-9.77069
document	-9.77074
▁images	-9.77082
▁failure	-9.7714
▁situation	-9.77148
but	-9.77156
▁mis	-9.77191
ake	-9.77286
▁July	-9.77351
▁/**	-9.77376
▁brought	-9.77407
bin	-9.7742
▁System	-9.77438
▁share	-9.77543
wa	-9.77567
lip	-9.77601
bl	-9.77726
art	-9.77759
▁measured	-9.7776
▁April	-9.77779
▁Even	-9.77829
▁Per	-9.77855
PA	-9.77887
bit	-9.77899
▁App	-9.77978
Omega	-9.77981
▁stay	-9.78058
▁Fig	-9.78092
▁China	-9.78245
▁recently	-9.78272
▁pretty	-9.78322
ably	-9.78408
https	-9.78459
▁larger	-9.78497
▁mode	-9.78533
ek	-9.78606
▁argument	-9.78627
▁attention	-9.78663
**]{}	-9.78751
▁central	-9.78831
▁meeting	-9.78949
ai	-9.78956
▁dark	-9.7897
▁server	-9.78996
▁More	-9.79004
▁2015	-9.79054
▁wasn	-9.79132
▁seem	-9.79169
▁extra	-9.79269
▁offer	-9.79298
▁appropriate	-9.79307
▁toward	-9.79309
fn	-9.79386
script	-9.79387
▁notice	-9.79427
▁instance	-9.79434
▁August	-9.79472
▁equal	-9.79489
61	-9.79578
epsilon	-9.79632
▁meet	-9.79832
▁price	-9.7991
▁board	-9.79957
▁January	-9.79974
ble	-9.79991
▁couple	-9.80011
▁char	-9.80013
▁morning	-9.80056
▁OR	-9.80114
▁Jo	-9.80168
▁receive	-9.80188
quad	-9.80237
ff	-9.80252
▁qu	-9.80261
▁sc	-9.80263
▁degree	-9.80282
rt	-9.80319
▁limit	-9.80545
ping	-9.8057
▁photo	-9.80583
dev	-9.80644
▁chance	-9.80645
cl	-9.80651
well	-9.80681
▁Ge	-9.8069
vec	-9.80714
▁conduct	-9.80761
map	-9.80849
BC	-9.80851
▁allowed	-9.8093
ave	-9.81067
ran	-9.81072
▁cr	-9.81089
▁saying	-9.81122
▁highly	-9.81128
▁define	-9.81188
▁games	-9.81219
▁###	-9.81281
hi	-9.8129
▁travel	-9.81314
▁[**	-9.8133
king	-9.81349
▁operation	-9.81369
▁seven	-9.81373
▁designed	-9.81484
▁location	-9.81489
ock	-9.81511
Object	-9.8155
▁2010	-9.81561
Gamma	-9.81572
▁prevent	-9.81591
ail	-9.81594
▁32	-9.81635
▁fixed	-9.81724
uk	-9.81765
▁treated	-9.81773
ath	-9.81778
▁attack	-9.81823
▁Also	-9.8187
▁Because	-9.81909
93	-9.81914
gg	-9.81918
ino	-9.81968
▁failed	-9.8201
De	-9.8205
▁si	-9.82056
▁},	-9.82144
▁suggest	-9.82221
▁2017	-9.82241
▁devices	-9.82278
▁frequency	-9.82319
AT	-9.82435
▁prime	-9.82481
▁wrote	-9.82658
▁everyone	-9.82663
0.0	-9.82787
ane	-9.82805
▁produced	-9.82822
▁License	-9.8286
What	-9.82863
che	-9.82945
▁pair	-9.82965
od	-9.83015
Item	-9.83037
▁reading	-9.83045
▁Di	-9.83079
And	-9.8308
▁van	-9.83081
US	-9.83163
tt	-9.83164
IP	-9.83214
=0	-9.83272
unt	-9.83292
▁pe	-9.83344
item	-9.8338
amp	-9.8339
▁learn	-9.83393
istic	-9.83411
eg	-9.8344
▁economic	-9.83479
▁selected	-9.83529
▁District	-9.83576
▁established	-9.83583
▁frame	-9.8373
▁useful	-9.83766
▁management	-9.83841
▁influence	-9.83859
▁del	-9.83862
ren	-9.83875
ris	-9.83974
CH	-9.83977
▁divided	-9.83996
92	-9.84039
Con	-9.84072
ack	-9.84129
▁transfer	-9.84133
▁English	-9.84134
▁pattern	-9.84138
PS	-9.84211
▁Am	-9.84251
▁September	-9.84336
▁fit	-9.84339
▁2011	-9.84345
▁circuit	-9.84414
▁tri	-9.84474
ade	-9.84499
▁copy	-9.84584
▁combination	-9.84592
▁focus	-9.8474
user	-9.84755
▁October	-9.84818
▁West	-9.8493
ole	-9.84931
pro	-9.84968
▁comment	-9.84994
▁leading	-9.84994
▁caused	-9.85007
▁round	-9.85016
71	-9.85017
▁send	-9.85164
mit	-9.85202
5,	-9.85231
oo	-9.85255
cer	-9.85267
▁correct	-9.85332
TA	-9.85416
▁band	-9.85493
▁deep	-9.85626
▁built	-9.8563
▁critical	-9.85697
lt	-9.85704
ular	-9.85736
▁technology	-9.85742
▁numbers	-9.85836
bor	-9.85841
col	-9.85847
AC	-9.85926
DA	-9.85969
▁components	-9.85977
▁rates	-9.86027
part	-9.86154
▁earlier	-9.86191
ong	-9.862
▁wide	-9.86225
▁-3	-9.86239
vis	-9.86301
rd	-9.86433
▁completely	-9.86474
▁Just	-9.86486
▁takes	-9.86565
▁federal	-9.86594
ement	-9.8666
err	-9.86683
▁users	-9.86684
-5	-9.86723
AN	-9.86724
yn	-9.86872
▁easily	-9.86881
▁findings	-9.86889
▁choice	-9.86914
▁Pe	-9.86959
▁countries	-9.87011
SP	-9.87053
▁poor	-9.87071
▁details	-9.87249
▁hear	-9.87285
1*	-9.87299
▁improve	-9.87305
space	-9.87337
▁currently	-9.87499
▁plaintiff	-9.87592
▁sex	-9.87621
▁tissue	-9.87639
▁Dis	-9.87702
CD	-9.87748
▁shape	-9.87813
IT	-9.87847
▁panel	-9.87992
uc	-9.88062
▁Department	-9.88066
▁35	-9.88087
▁worked	-9.88094
▁led	-9.88107
dot	-9.88107
▁component	-9.88135
▁collection	-9.88178
▁web	-9.8824
▁Two	-9.88241
SD	-9.88241
▁Ko	-9.88244
▁culture	-9.88318
▁myself	-9.88331
dent	-9.8837
ological	-9.88381
▁companies	-9.88409
SI	-9.88439
ple	-9.88465
jo	-9.88514
▁wall	-9.8852
▁increasing	-9.88636
▁except	-9.88653
▁released	-9.88683
▁Pat	-9.88707
5)	-9.8871
za	-9.88736
8)	-9.88922
▁0.2	-9.88972
ries	-9.88991
▁Com	-9.89
AP	-9.89077
▁fear	-9.8911
▁matrix	-9.89133
▁friend	-9.89156
▁moved	-9.89202
af	-9.89208
▁Art	-9.89208
▁log	-9.89214
lay	-9.89243
▁Cal	-9.89252
▁Data	-9.89261
▁connection	-9.89271
▁seemed	-9.89387
▁metal	-9.89409
▁December	-9.89422
▁appear	-9.89497
▁novel	-9.89534
▁select	-9.89597
▁3,	-9.89676
▁pr	-9.89718
▁ver	-9.89719
▁decided	-9.89728
/2	-9.89756
varepsilon	-9.89853
▁cl	-9.89892
▁window	-9.89892
▁November	-9.8991
▁located	-9.89916
group	-9.8997
▁sign	-9.90004
▁skin	-9.90007
▁Solve	-9.90021
▁campaign	-9.90039
▁individuals	-9.90039
▁race	-9.90148
▁formation	-9.90179
▁arm	-9.90198
▁dead	-9.90311
▁proteins	-9.90356
▁changed	-9.90487
▁expressed	-9.90489
with	-9.90532
▁According	-9.90541
▁beyond	-9.90544
▁bio	-9.90547
▁industry	-9.90574
▁finding	-9.90634
▁stand	-9.90651
ants	-9.90754
board	-9.90785
cy	-9.90801
ich	-9.90824
ient	-9.9089
▁isn	-9.90891
▁measure	-9.90972
qua	-9.90982
▁Which	-9.91074
▁Don	-9.91111
head	-9.91152
▁contrast	-9.91233
Text	-9.91234
▁trade	-9.91375
▁contains	-9.91389
▁plant	-9.91392
▁supported	-9.91406
}^	-9.91488
▁hearing	-9.91488
igh	-9.9159
Error	-9.91606
ck	-9.91696
ration	-9.91703
▁gives	-9.91716
▁comparison	-9.91739
▁Other	-9.91768
▁clearly	-9.9177
are	-9.91798
▁requires	-9.91849
▁containing	-9.91869
▁judge	-9.91911
ward	-9.91925
▁List	-9.91949
▁Ex	-9.91977
▁eye	-9.92022
ition	-9.92071
function	-9.92109
▁feature	-9.92118
▁filter	-9.92131
▁gr	-9.92143
▁interview	-9.92148
lig	-9.92177
▁fall	-9.92208
▁played	-9.92253
}$,	-9.92254
▁shot	-9.92258
body	-9.92283
▁formed	-9.92295
▁radio	-9.92413
▁internal	-9.92436
▁exist	-9.92455
▁financial	-9.92501
▁quickly	-9.92506
91	-9.92572
▁po	-9.92623
ates	-9.92752
▁blue	-9.92762
Key	-9.92809
Sec	-9.92824
▁String	-9.92871
▁High	-9.92933
ight	-9.92977
CT	-9.93033
operatorname	-9.93051
4)	-9.93057
▁option	-9.93063
lar	-9.9307
SC	-9.93106
▁remember	-9.93124
▁linear	-9.93132
Path	-9.93169
mark	-9.93219
▁highest	-9.93248
▁sites	-9.93253
ica	-9.93273
For	-9.93281
uck	-9.93301
▁generated	-9.93329
long	-9.93333
nic	-9.93358
▁};	-9.93367
▁Figure	-9.9342
1}	-9.93436
▁smaller	-9.93495
▁Bar	-9.93511
ound	-9.93543
▁Pi	-9.93584
▁Bi	-9.93588
▁print	-9.93616
▁sometimes	-9.93623
▁lo	-9.9366
▁hair	-9.93671
▁box	-9.93717
varphi	-9.93759
▁credit	-9.93777
▁separate	-9.93793
exp	-9.93816
RS	-9.9389
▁Your	-9.93926
){	-9.93954
▁match	-9.93958
▁store	-9.94023
▁president	-9.94027
ments	-9.9403
▁overall	-9.94037
CP	-9.94051
*]{}	-9.94122
cell	-9.94201
▁email	-9.94223
▁actual	-9.94223
▁towards	-9.94278
▁School	-9.94281
OS	-9.94352
▁authors	-9.94404
free	-9.94455
-1}	-9.94514
=1	-9.94518
▁mid	-9.94553
▁perform	-9.94583
sen	-9.9463
ding	-9.94741
▁tumor	-9.94752
▁ho	-9.94756
van	-9.94869
▁Ta	-9.94893
**4	-9.94941
Get	-9.9501
ug	-9.95012
▁nor	-9.95028
▁2008	-9.95062
▁Most	-9.95108
▁produce	-9.95121
▁green	-9.95172
5%	-9.95174
bu	-9.95213
▁medium	-9.95261
lu	-9.95264
▁height	-9.95295
image	-9.9531
▁Su	-9.95324
▁apply	-9.95347
+1}	-9.95352
▁sl	-9.95363
action	-9.95381
tre	-9.95393
▁///	-9.95408
▁cover	-9.95469
RO	-9.95488
active	-9.95507
index	-9.95541
▁goal	-9.95547
▁relevant	-9.95556
AD	-9.95595
work	-9.95765
▁wave	-9.95783
▁variable	-9.95875
lim	-9.95893
Un	-9.95905
▁clean	-9.95911
▁parameter	-9.95924
▁options	-9.95948
▁opinion	-9.95968
▁reduce	-9.95989
▁allows	-9.96102
▁hyper	-9.96126
▁concentration	-9.96134
▁showing	-9.96204
▁exactly	-9.96243
▁ge	-9.963
▁node	-9.9643
ita	-9.9649
▁sur	-9.96508
▁setting	-9.96531
▁education	-9.96567
▁parties	-9.9663
▁figure	-9.96637
▁appears	-9.96765
}$.	-9.9684
ear	-9.96876
▁solid	-9.969
▁definition	-9.96967
▁remains	-9.96968
▁damage	-9.96989
▁op	-9.96995
▁experiments	-9.97017
▁Moreover	-9.97028
▁closed	-9.97031
▁filed	-9.97108
▁2009	-9.97139
▁safe	-9.97141
▁Paul	-9.97142
cm	-9.97225
sta	-9.97237
▁understanding	-9.97279
▁Fe	-9.97302
This	-9.97351
NS	-9.97359
▁British	-9.97394
▁prove	-9.97423
▁CO	-9.9743
▁David	-9.97448
▁------	-9.97455
EL	-9.97457
▁learning	-9.97478
▁mg	-9.97553
▁task	-9.97569
▁parts	-9.97645
▁0.0	-9.97651
char	-9.97665
▁staff	-9.97682
ea	-9.97683
▁Da	-9.97729
▁activities	-9.97779
-6	-9.97811
▁goes	-9.97814
▁military	-9.97814
cho	-9.97827
▁2018	-9.97878
▁player	-9.97879
▁fa	-9.97909
wing	-9.97912
▁ensure	-9.97916
▁Park	-9.97928
▁den	-9.9793
▁agree	-9.97988
OP	-9.98042
▁assert	-9.98069
▁-4	-9.98102
▁regular	-9.98125
IR	-9.98131
▁card	-9.98141
ura	-9.98147
▁vote	-9.98201
4-	-9.98218
▁wife	-9.98258
IL	-9.98275
▁shift	-9.9828
▁immediately	-9.98284
▁sun	-9.98341
Ch	-9.98358
▁sea	-9.98382
▁score	-9.98446
ou	-9.98451
node	-9.98569
ans	-9.98583
▁CA	-9.98584
2*	-9.98585
▁spin	-9.98591
▁random	-9.986
▁chain	-9.9862
▁reaction	-9.98638
▁Gi	-9.9865
▁je	-9.98668
mod	-9.98681
▁/>	-9.98692
▁root	-9.98828
▁finally	-9.98855
▁reduction	-9.9888
book	-9.98979
vers	-9.99046
▁association	-9.99047
▁strength	-9.9909
▁counsel	-9.99098
▁pick	-9.99132
▁middle	-9.99181
▁Section	-9.99187
▁gl	-9.99191
▁bound	-9.99225
▁binding	-9.99246
▁movement	-9.99342
▁please	-9.99382
related	-9.99514
vi	-9.99547
▁feet	-9.99574
▁London	-9.99583
ash	-9.99602
CS	-9.99606
serv	-9.99695
▁connected	-9.99712
▁basic	-9.99742
▁zero	-9.99771
▁database	-9.99784
▁ways	-9.99815
rightarrow	-9.99817
▁exercise	-9.99831
▁walk	-9.99831
▁gun	-9.9996
▁interesting	-9.99974
▁switch	-10.0004
ped	-10.0007
ax	-10.0008
ind	-10.0011
ret	-10.0014
▁proof	-10.0017
ene	-10.0018
▁resulting	-10.0021
color	-10.0025
mail	-10.0031
▁carried	-10.0039
▁transition	-10.0041
▁California	-10.005
ull	-10.005
Set	-10.0058
▁parents	-10.0062
▁throughout	-10.0064
▁files	-10.0067
db	-10.0067
lor	-10.0074
count	-10.0075
▁ob	-10.0075
▁nearly	-10.0079
▁tend	-10.0081
▁0.3	-10.0082
▁letter	-10.0083
2){	-10.0087
▁couldn	-10.0087
▁eight	-10.009
langle	-10.0091
▁1)	-10.0102
▁continued	-10.0105
▁manner	-10.0107
▁vehicle	-10.0109
▁processes	-10.0115
Size	-10.0118
ery	-10.0119
▁channel	-10.012
▁Why	-10.013
some	-10.0132
▁indicated	-10.0133
▁revealed	-10.0135
illa	-10.0136
▁news	-10.0138
▁scene	-10.0147
▁vector	-10.015
ya	-10.015
overline	-10.0152
[0]	-10.0155
▁perfect	-10.0158
_{1}	-10.0159
▁reasons	-10.0161
▁hot	-10.0161
▁maximum	-10.0162
ute	-10.0165
tri	-10.0167
▁correlation	-10.0171
▁machine	-10.0173
Event	-10.0178
▁construction	-10.018
App	-10.0185
▁White	-10.0192
▁sum	-10.0192
▁fully	-10.0207
pat	-10.0212
6,	-10.0217
▁Mac	-10.0225
▁References	-10.0227
▁domain	-10.023
pos	-10.023
▁Lu	-10.0231
▁port	-10.0235
▁Phys	-10.0236
▁stated	-10.0238
▁Wi	-10.0239
elle	-10.024
▁Washington	-10.0245
▁passed	-10.0246
▁track	-10.0247
▁fr	-10.0248
▁During	-10.0252
▁participants	-10.0255
▁investigation	-10.0257
▁looks	-10.0257
dis	-10.0264
core	-10.0264
▁onto	-10.0266
▁reflect	-10.0269
TH	-10.0274
▁alternative	-10.028
error	-10.0294
▁choose	-10.0294
▁edge	-10.0295
▁floor	-10.0296
▁ch	-10.0297
0.5	-10.0297
2}	-10.0301
▁press	-10.0302
CO	-10.0303
7,	-10.0305
▁37	-10.0306
▁portion	-10.0307
}_{\	-10.0311
▁Center	-10.0312
▁border	-10.0315
▁items	-10.0317
▁fight	-10.0325
▁func	-10.0326
low	-10.0328
▁AND	-10.033
▁ready	-10.0332
▁45	-10.0334
▁regarding	-10.0336
▁happened	-10.0339
▁Ver	-10.0339
▁jury	-10.0343
▁materials	-10.0344
Index	-10.0349
trans	-10.0349
IF	-10.0357
oth	-10.0357
▁Europe	-10.0359
▁interaction	-10.0359
▁(2)	-10.0361
▁reached	-10.0363
Exception	-10.0363
▁rules	-10.0366
▁bottom	-10.0367
▁moving	-10.0368
▁relatively	-10.0369
▁career	-10.0374
ome	-10.0375
▁placed	-10.0376
▁remove	-10.038
wi	-10.0381
▁reach	-10.0382
oma	-10.0382
▁thinking	-10.0386
▁che	-10.0387
▁beginning	-10.039
har	-10.039
.](	-10.0392
▁perhaps	-10.04
▁international	-10.0405
▁February	-10.0406
▁gain	-10.0408
▁Col	-10.041
▁returned	-10.0413
▁wish	-10.0415
▁assume	-10.0416
▁links	-10.0423
▁les	-10.0426
▁worth	-10.0434
▁load	-10.0438
MA	-10.0439
spir	-10.044
▁variables	-10.0445
xe	-10.0447
ass	-10.0453
reg	-10.0454
▁functional	-10.0456
▁Health	-10.046
▁regions	-10.0462
▁android	-10.0468
++	-10.0468
GA	-10.0471
▁modern	-10.0479
▁letters	-10.0484
media	-10.0485
▁European	-10.0491
▁majority	-10.0492
▁stream	-10.0493
▁therapy	-10.0494
▁gone	-10.0494
ett	-10.0498
ame	-10.0509
dia	-10.0509
RA	-10.0513
ew	-10.0519
**)	-10.0531
▁Research	-10.0536
length	-10.0541
▁named	-10.0543
▁Furthermore	-10.0544
▁bill	-10.0547
cher	-10.0556
▁Table	-10.056
▁King	-10.0563
▁transport	-10.0564
▁core	-10.0564
{1}{	-10.0568
▁36	-10.0569
▁mechanism	-10.0569
▁ball	-10.0571
-19	-10.0574
arrow	-10.0575
rk	-10.058
▁width	-10.0581
▁male	-10.0584
▁procedure	-10.0587
▁Post	-10.0588
▁injury	-10.0589
▁USA	-10.0589
▁costs	-10.059
tag	-10.0595
▁kept	-10.0598
▁otherwise	-10.0599
open	-10.06
ture	-10.06
▁reasonable	-10.0602
▁exists	-10.0604
▁install	-10.0605
*)	-10.0608
▁dose	-10.0609
tel	-10.0614
▁infection	-10.0619
▁upper	-10.0624
med	-10.0624
▁playing	-10.0629
Class	-10.0629
ET	-10.0634
001	-10.0637
▁French	-10.0639
▁rock	-10.0656
▁resistance	-10.0656
▁Finally	-10.0657
▁save	-10.0659
order	-10.066
win	-10.0662
ii	-10.0664
▁est	-10.0665
▁hour	-10.0667
lock	-10.0675
don	-10.0676
Test	-10.0679
rie	-10.0681
dd	-10.0681
java	-10.0683
▁column	-10.0683
▁starting	-10.0686
▁giving	-10.0688
▁picked	-10.0688
dic	-10.0689
^[@	-10.0689
ign	-10.0694
▁48	-10.0696
▁enjoy	-10.0702
▁bone	-10.0702
▁watch	-10.0704
▁interface	-10.071
▁######	-10.0714
▁equation	-10.0717
ken	-10.0719
ox	-10.0723
▁Ad	-10.0728
▁applications	-10.0729
nie	-10.0733
▁fix	-10.0734
▁platform	-10.0735
▁firm	-10.0737
▁Cor	-10.0739
▁nice	-10.0741
dir	-10.0746
▁Har	-10.0752
dependent	-10.0752
▁Mon	-10.0755
▁plus	-10.0757
▁generation	-10.0762
mal	-10.0763
▁und	-10.0765
▁German	-10.0778
ok	-10.0783
▁represent	-10.0792
info	-10.0794
▁indicate	-10.0795
▁Well	-10.0797
circ	-10.0801
TC	-10.0802
js	-10.0804
▁mar	-10.0805
▁calculated	-10.0807
PP	-10.0811
)=	-10.0817
▁sentence	-10.0817
▁True	-10.0818
[1]	-10.082
▁develop	-10.082
▁lu	-10.0824
▁ret	-10.0826
spec	-10.0826
)$.	-10.0827
ney	-10.0831
▁Ab	-10.084
▁Another	-10.0846
▁stock	-10.0848
▁description	-10.0851
▁suit	-10.0855
▁4,	-10.0856
▁tree	-10.0858
▁qui	-10.0862
Color	-10.0863
▁Th	-10.0872
▁pen	-10.0873
▁animals	-10.0874
du	-10.0875
lang	-10.0875
1/	-10.0879
['	-10.0879
▁benefit	-10.088
ert	-10.0889
▁client	-10.089
▁removed	-10.0893
math	-10.0899
ct	-10.09
▁document	-10.0901
ama	-10.0908
▁fields	-10.0914
SA	-10.0916
▁popular	-10.0923
mid	-10.0924
▁remain	-10.0928
▁opportunity	-10.0929
▁(**	-10.093
▁stuff	-10.0938
ram	-10.0941
▁sexual	-10.0949
▁James	-10.095
0.1	-10.095
NO	-10.0952
▁identify	-10.0959
MP	-10.0961
▁suggested	-10.0961
▁speak	-10.0967
post	-10.0967
version	-10.0968
New	-10.0968
▁administration	-10.0971
LA	-10.0973
php	-10.098
▁exposure	-10.0985
ji	-10.0986
▁origin	-10.0989
▁5.	-10.099
▁demonstrated	-10.0995
▁Robert	-10.1002
500	-10.1002
ify	-10.1004
▁Each	-10.1006
▁ba	-10.1009
-8	-10.1015
▁lives	-10.1015
▁doubt	-10.1015
start	-10.1018
▁paid	-10.1023
▁rise	-10.1025
▁Sal	-10.1025
▁processing	-10.1027
▁Sh	-10.1029
▁becomes	-10.1029
(1)	-10.1031
-20	-10.1033
▁died	-10.1038
▁peak	-10.1039
DE	-10.1039
▁Black	-10.104
▁capital	-10.1041
oid	-10.1044
▁wind	-10.1048
▁accept	-10.1049
▁station	-10.1052
▁replacement	-10.1054
▁Sub	-10.1056
style	-10.1063
▁IN	-10.1063
▁Du	-10.1063
▁meaning	-10.107
▁bank	-10.107
▁safety	-10.1074
▁picture	-10.1075
▁Google	-10.1076
byte	-10.1081
▁variety	-10.1085
\[	-10.1086
PC	-10.1095
▁sources	-10.1098
▁concept	-10.1098
Time	-10.1099
▁detected	-10.1099
▁format	-10.11
▁$1	-10.1104
)/	-10.1107
▁res	-10.1108
ust	-10.1109
▁2007	-10.111
▁wait	-10.1119
▁sw	-10.1123
▁0.4	-10.1123
▁guide	-10.1126
▁consistent	-10.1127
▁route	-10.1132
▁-5	-10.1139
▁providing	-10.114
▁happen	-10.1142
▁brother	-10.1145
▁units	-10.1146
▁cu	-10.1154
▁buy	-10.1154
▁cur	-10.1154
▁<<	-10.1163
▁conducted	-10.1165
[]	-10.1166
▁steps	-10.1175
zo	-10.1175
▁br	-10.118
▁fresh	-10.1184
▁Green	-10.1185
zy	-10.1188
▁seat	-10.1189
▁selection	-10.1194
▁girl	-10.1195
cos	-10.1197
▁ja	-10.1202
▁spot	-10.1202
▁testing	-10.1203
direct	-10.1207
Of	-10.1209
▁-2*	-10.1212
▁Get	-10.1217
page	-10.1218
▁yourself	-10.1218
▁tool	-10.1221
▁defense	-10.1231
▁whom	-10.1232
▁experimental	-10.124
▁magnetic	-10.1241
cul	-10.1247
▁counter	-10.1247
▁trust	-10.1251
▁(3	-10.1255
▁click	-10.1257
▁maybe	-10.126
ale	-10.1267
ire	-10.1268
▁reports	-10.1271
▁NOT	-10.1275
▁2000	-10.1277
');	-10.1278
▁exchange	-10.1289
▁effort	-10.1296
ib	-10.1296
▁slow	-10.1315
▁loop	-10.1318
▁spread	-10.1319
▁Many	-10.1319
▁soft	-10.1319
6)	-10.1322
cur	-10.1335
8,	-10.1344
erry	-10.1345
▁sufficient	-10.1347
▁female	-10.1349
▁0.9	-10.1359
▁serious	-10.1365
▁books	-10.1366
▁muscle	-10.1376
position	-10.1377
▁det	-10.1378
▁42	-10.1379
card	-10.138
rit	-10.1383
▁enter	-10.1385
range	-10.1386
▁drop	-10.1387
▁liquid	-10.1388
▁Comp	-10.1393
▁custom	-10.1395
▁spent	-10.1396
▁Ni	-10.1399
Node	-10.1399
Big	-10.1404
▁wild	-10.1405
▁cold	-10.1413
▁resources	-10.1419
▁cat	-10.1421
▁Add	-10.1421
▁2006	-10.1422
▁membrane	-10.1432
▁director	-10.1439
▁nearest	-10.1439
down	-10.1444
ld	-10.1445
If	-10.145
▁Congress	-10.1456
TE	-10.1457
1]	-10.1458
▁India	-10.1463
▁---	-10.1471
▁ring	-10.1471
▁daily	-10.148
^{-1}	-10.1484
gy	-10.1491
▁nil	-10.1493
▁label	-10.1494
uit	-10.1495
▁piece	-10.1496
aw	-10.1497
▁secret	-10.1506
▁0.00	-10.1514
\'	-10.1518
▁characteristics	-10.1521
▁Red	-10.1527
2\	-10.1529
▁PM	-10.153
NP	-10.1535
▁Mc	-10.1541
▁existing	-10.1545
▁Mor	-10.1547
▁capacity	-10.1553
press	-10.1555
▁IS	-10.1564
run	-10.1571
)/(	-10.1576
const	-10.1578
9)	-10.1579
berg	-10.1581
geq	-10.1582
wise	-10.1588
NA	-10.1596
▁truth	-10.1597
print	-10.1602
▁cap	-10.1603
prop	-10.1604
unk	-10.1605
▁##	-10.1605
Phi	-10.1606
▁train	-10.1606
▁severe	-10.161
▁objects	-10.1611
dimensional	-10.1616
onic	-10.1616
▁professional	-10.1617
▁traditional	-10.1619
200	-10.1623
specific	-10.163
▁Group	-10.163
▁});	-10.1631
vel	-10.1632
une	-10.1634
rap	-10.1635
▁Work	-10.1635
▁Ru	-10.1638
▁studied	-10.1638
▁handle	-10.1638
▁appeared	-10.1645
▁album	-10.1647
▁catch	-10.1653
▁typically	-10.1654
ano	-10.1656
▁sleep	-10.1658
▁Ser	-10.1659
Info	-10.1661
▁Both	-10.1662
▁balance	-10.1663
▁33	-10.1665
ju	-10.167
scale	-10.1671
▁engine	-10.1677
▁conflict	-10.1678
▁fair	-10.168
▁camera	-10.1682
▁Rev	-10.1682
Ct	-10.1683
==============	-10.1686
▁forms	-10.1686
▁tra	-10.1692
lem	-10.1693
mor	-10.1697
▁International	-10.17
▁raised	-10.1701
▁discuss	-10.1701
▁80	-10.1708
▁grant	-10.1708
ces	-10.1711
init	-10.1716
▁https	-10.1717
ford	-10.1723
pp	-10.1723
▁TO	-10.1723
FF	-10.1727
▁Day	-10.1728
▁benefits	-10.173
ulation	-10.1734
({\	-10.1734
▁talking	-10.1735
EX	-10.1739
burg	-10.174
ography	-10.1743
▁happy	-10.1745
"/>	-10.1751
7)	-10.1756
▁official	-10.1756
ava	-10.1765
▁detection	-10.1769
pl	-10.1772
▁optical	-10.1774
▁touch	-10.1775
nn	-10.1779
▁Science	-10.178
5-	-10.1787
▁update	-10.1788
uri	-10.1788
▁demand	-10.1789
▁discussed	-10.179
ending	-10.179
▁challenge	-10.179
▁ran	-10.1792
▁proper	-10.1792
^{2}	-10.1793
Context	-10.18
▁item	-10.1804
▁Ben	-10.1806
zi	-10.1808
true	-10.1818
▁button	-10.182
nes	-10.1821
▁huge	-10.183
▁organization	-10.1833
ella	-10.1837
mathfrak	-10.1837
▁square	-10.1838
▁East	-10.1839
-10	-10.1842
003	-10.1844
▁Cha	-10.1847
BS	-10.1849
/5	-10.185
▁mentioned	-10.1852
api	-10.1852
▁explain	-10.1856
osis	-10.1866
▁substrate	-10.1869
▁science	-10.1871
aci	-10.1872
non	-10.1874
▁places	-10.1874
▁($	-10.1875
▁communication	-10.1876
OT	-10.1877
▁Using	-10.1882
}^{\	-10.1885
▁warm	-10.1889
▁Tri	-10.1892
▁survey	-10.1894
▁noted	-10.1896
rus	-10.1906
▁cup	-10.1909
▁approximately	-10.1909
▁representation	-10.191
▁operator	-10.1913
SO	-10.1914
▁structures	-10.192
EP	-10.1921
▁cool	-10.1921
▁Bu	-10.1925
ned	-10.193
▁template	-10.193
ident	-10.1933
▁parent	-10.1937
▁prepared	-10.1938
▁century	-10.1939
▁configuration	-10.1939
▁affect	-10.194
def	-10.1941
▁Second	-10.1946
oke	-10.1947
ari	-10.195
▁fo	-10.195
IM	-10.1954
ros	-10.1954
-1)	-10.1956
SH	-10.1961
▁visual	-10.1963
▁Ri	-10.197
TO	-10.1971
etic	-10.1971
▁club	-10.1971
DS	-10.1974
Pa	-10.1981
▁actions	-10.1983
▁attempt	-10.1989
▁Street	-10.1995
util	-10.1996
ldots	-10.2
▁mental	-10.2003
eb	-10.2005
▁grow	-10.2007
▁responsible	-10.2012
▁opened	-10.2012
▁feeling	-10.2012
3}	-10.2013
"},	-10.2014
='	-10.2021
gra	-10.2021
▁Fi	-10.2023
_3	-10.2024
ENT	-10.2025
ani	-10.2026
6-	-10.2027
▁Che	-10.2028
vin	-10.2031
▁George	-10.2036
▁generate	-10.2039
▁wouldn	-10.2043
rc	-10.2044
hal	-10.2048
block	-10.2049
▁protect	-10.205
MC	-10.2055
())	-10.2055
TS	-10.2057
input	-10.2057
▁sat	-10.2059
▁foot	-10.2062
▁70	-10.2062
air	-10.2065
▁NULL	-10.2072
.$$	-10.2074
date	-10.2083
▁north	-10.2084
▁Under	-10.2087
ory	-10.2089
cu	-10.209
put	-10.2093
▁(1)	-10.2093
ensuremath	-10.2094
▁successful	-10.2095
▁express	-10.2097
num	-10.21
▁contain	-10.2102
▁PC	-10.2107
ency	-10.2109
▁0)	-10.211
▁improved	-10.211
▁chemical	-10.2113
rating	-10.2113
title	-10.2115
▁explained	-10.2117
LI	-10.2124
▁graph	-10.2127
▁opening	-10.2128
▁relation	-10.2129
oxy	-10.213
EE	-10.2131
/(	-10.2131
Le	-10.214
▁daughter	-10.214
}=	-10.2141
▁heavy	-10.2149
▁90	-10.2154
ific	-10.2154
▁statute	-10.2161
rot	-10.2167
LO	-10.2174
)$,	-10.2174
att	-10.2176
ville	-10.2179
▁genetic	-10.218
ette	-10.2183
Lambda	-10.2186
▁Press	-10.2196
▁cluster	-10.22
IO	-10.2203
▁serve	-10.2205
ore	-10.2211
oy	-10.2212
▁digital	-10.2215
▁buffer	-10.2216
▁served	-10.2218
▁smooth	-10.2219
▁introduced	-10.2224
boldsymbol	-10.2224
write	-10.2224
bm	-10.2228
})$	-10.2228
cent	-10.2229
▁False	-10.2229
▁34	-10.223
▁summer	-10.2236
which	-10.2246
prime	-10.2248
itis	-10.2249
▁broad	-10.2251
rich	-10.2255
▁(5	-10.2257
▁Such	-10.2258
▁harm	-10.2273
▁commercial	-10.2275
}}_	-10.2275
▁protection	-10.2276
▁5,	-10.2276
▁Part	-10.2277
▁resolution	-10.2278
tz	-10.2279
▁occur	-10.228
▁increases	-10.2282
▁cycle	-10.2289
war	-10.2292
▁tests	-10.2293
▁attorney	-10.2294
▁essential	-10.2295
▁activation	-10.2297
▁bond	-10.2297
▁mi	-10.2298
▁France	-10.2299
▁row	-10.2301
house	-10.2305
▁Yes	-10.231
▁organ	-10.2314
oli	-10.232
▁exception	-10.2327
▁maintain	-10.233
▁fluid	-10.2332
▁begin	-10.2341
▁Once	-10.2346
mat	-10.2348
\],	-10.2349
▁beautiful	-10.2349
▁measures	-10.235
▁200	-10.2351
▁none	-10.2358
▁UK	-10.236
▁val	-10.2374
▁holding	-10.2378
▁RNA	-10.2379
ender	-10.2383
▁una	-10.2387
▁technique	-10.2389
Sigma	-10.2389
▁bo	-10.2389
vol	-10.2389
ties	-10.2393
▁Michael	-10.2397
']	-10.2402
inter	-10.2411
▁foreign	-10.2414
▁combined	-10.2414
▁unless	-10.2417
ky	-10.2418
FT	-10.2419
lation	-10.2424
▁flat	-10.2428
▁pop	-10.2428
1.0	-10.243
content	-10.2438
graph	-10.2447
▁mon	-10.2448
▁scheme	-10.2451
▁specifically	-10.2453
▁external	-10.2454
"><	-10.2455
level	-10.246
▁income	-10.246
was	-10.2461
▁Chinese	-10.2464
▁certainly	-10.2467
▁motor	-10.2469
▁neuro	-10.247
main	-10.2472
▁growing	-10.2475
▁Judge	-10.2478
▁weak	-10.2478
▁Test	-10.2483
comp	-10.2483
▁solutions	-10.2483
▁older	-10.2483
▁whereas	-10.2483
RT	-10.2484
DR	-10.2486
4}	-10.249
▁mod	-10.2491
▁formula	-10.2491
tar	-10.2493
▁storage	-10.2493
fin	-10.2495
from	-10.25
▁techniques	-10.2502
▁threat	-10.2505
▁draw	-10.2506
▁TV	-10.2507
▁0.01	-10.2509
▁Board	-10.2515
▁dia	-10.2519
▁pour	-10.252
▁denied	-10.252
▁agent	-10.252
▁aim	-10.2521
dom	-10.2523
ius	-10.2526
3){	-10.2529
▁los	-10.2537
▁noise	-10.2537
▁Inter	-10.2538
▁angle	-10.254
▁strategy	-10.2542
▁plane	-10.2547
▁Over	-10.2552
void	-10.2552
▁Bill	-10.2553
RI	-10.2556
▁Air	-10.2557
▁Ph	-10.2557
▁ro	-10.2558
ush	-10.2559
▁conventional	-10.2559
}}(	-10.2559
▁despite	-10.2568
last	-10.2568
▁criminal	-10.2571
Element	-10.2572
ata	-10.2573
▁manager	-10.2573
▁collected	-10.2574
▁prob	-10.2575
source	-10.2577
▁te	-10.2577
▁molecular	-10.2584
▁killed	-10.2586
flu	-10.259
▁absence	-10.2591
▁remaining	-10.2592
fully	-10.2595
case	-10.2595
▁mono	-10.2601
▁0.8	-10.2604
▁2005	-10.2605
▁supply	-10.2611
TM	-10.2618
flow	-10.2626
▁confirmed	-10.2628
▁England	-10.2629
▁slightly	-10.2629
ord	-10.2634
▁Te	-10.2637
▁bed	-10.2638
▁Public	-10.2639
HA	-10.2644
▁distributed	-10.2645
ote	-10.2646
▁abuse	-10.2647
An	-10.2648
ential	-10.2648
era	-10.265
Code	-10.2654
▁uses	-10.2654
With	-10.2663
▁south	-10.2664
▁algorithm	-10.2667
▁achieve	-10.2669
▁semi	-10.2673
▁football	-10.2674
198	-10.2676
▁tools	-10.2679
That	-10.2685
[\	-10.2685
▁Any	-10.2687
▁comments	-10.2688
▁surgery	-10.2689
▁husband	-10.269
▁protocol	-10.2694
▁complaint	-10.2695
▁animal	-10.2697
▁Indian	-10.2704
gr	-10.2705
▁master	-10.2707
aff	-10.2712
▁occurred	-10.2714
▁People	-10.2715
CL	-10.2718
▁module	-10.2739
ku	-10.274
Message	-10.2744
▁plate	-10.2744
▁survival	-10.2746
url	-10.2749
▁workers	-10.2749
quot	-10.2752
▁extension	-10.2754
▁guess	-10.2755
▁equivalent	-10.2766
▁analyzed	-10.2767
▁vs	-10.2768
dots	-10.2768
State	-10.2774
▁agreed	-10.2776
thing	-10.278
▁families	-10.2785
▁blog	-10.2785
▁student	-10.2785
▁std	-10.2787
tim	-10.2787
fect	-10.2793
kappa	-10.2797
qu	-10.2798
▁tested	-10.2798
rr	-10.2801
▁battle	-10.2806
▁offered	-10.2812
▁Use	-10.2813
▁probability	-10.2816
▁Ti	-10.282
iff	-10.2823
Mo	-10.2824
▁officer	-10.2824
▁affected	-10.2832
▁Tom	-10.2833
ians	-10.284
▁operations	-10.2843
▁Set	-10.2848
▁circumstances	-10.2849
▁Please	-10.2856
▁healthy	-10.2861
leg	-10.2862
cha	-10.2865
▁tr	-10.2867
ets	-10.2877
▁born	-10.2881
▁Code	-10.2885
▁IL	-10.2885
ON	-10.2885
MT	-10.2888
▁facts	-10.2891
▁discussion	-10.2891
▁0.6	-10.2894
▁brief	-10.2894
▁Peter	-10.2904
▁advance	-10.2904
▁programs	-10.2907
());	-10.291
ptr	-10.2911
▁recorded	-10.2912
bel	-10.2912
My	-10.2913
uch	-10.2913
▁experiment	-10.2914
▁society	-10.2916
▁electron	-10.2925
model	-10.2927
▁instrument	-10.2931
amine	-10.2934
GC	-10.2938
tab	-10.294
▁license	-10.2942
▁billion	-10.2942
▁fraction	-10.2944
▁missing	-10.2948
▁minimum	-10.2953
▁demonstrate	-10.2953
cor	-10.2955
▁entered	-10.2957
▁herself	-10.2957
▁NO	-10.2957
FA	-10.2958
▁sit	-10.2961
ering	-10.2962
▁1.0	-10.2964
rig	-10.2969
(0)	-10.2972
▁boy	-10.2973
▁favor	-10.2976
▁thank	-10.2976
del	-10.2978
ora	-10.2978
},\	-10.2983
▁pa	-10.2991
▁Free	-10.2995
Box	-10.2996
II	-10.3002
▁entry	-10.3004
▁progress	-10.3005
ode	-10.3006
▁pan	-10.3006
PT	-10.3007
▁symptoms	-10.3013
▁raise	-10.3014
▁cast	-10.3018
ther	-10.3019
▁epi	-10.302
▁dream	-10.302
▁Great	-10.3021
IA	-10.3022
Do	-10.3029
▁composition	-10.3036
CM	-10.3037
Request	-10.3038
▁straight	-10.3039
▁Star	-10.3041
▁assessment	-10.3041
ski	-10.3042
▁Christian	-10.3047
▁Id	-10.3048
uni	-10.3049
ket	-10.3056
▁intended	-10.3069
▁Texas	-10.307
▁forces	-10.3073
▁Je	-10.3078
UN	-10.3089
aries	-10.3091
▁purchase	-10.3094
▁plot	-10.3096
radi	-10.3097
ato	-10.3098
▁Min	-10.3099
▁leads	-10.3102
▁murder	-10.3107
▁testimony	-10.3107
material	-10.311
▁extent	-10.3113
otimes	-10.3113
Method	-10.3114
ifier	-10.3115
▁-3*	-10.3115
▁driver	-10.3118
▁election	-10.3119
▁classes	-10.3122
^{-	-10.3126
▁Law	-10.3128
▁MA	-10.3128
▁regard	-10.3129
0.00	-10.3129
▁ideas	-10.313
ele	-10.3131
ural	-10.3135
▁ta	-10.314
▁mobile	-10.3144
▁fish	-10.3148
▁6.	-10.3148
▁Smith	-10.315
rim	-10.315
rel	-10.3151
▁enable	-10.3153
▁echo	-10.3153
)*(	-10.3153
▁summary	-10.3153
▁incident	-10.3154
004	-10.3159
▁biggest	-10.316
AM	-10.3165
UI	-10.3171
▁subjects	-10.3171
▁ship	-10.3176
=0$	-10.3177
bol	-10.318
ider	-10.3184
▁ban	-10.3187
▁Supreme	-10.3189
hand	-10.3191
ml	-10.3192
▁glass	-10.3193
▁respond	-10.3198
▁curve	-10.3203
_{{\	-10.3203
ini	-10.3206
User	-10.321
▁2004	-10.3211
induced	-10.3213
▁shared	-10.3214
▁records	-10.3214
atory	-10.3214
▁profile	-10.3216
gal	-10.3216
EC	-10.322
▁AM	-10.3222
TER	-10.3226
result	-10.3227
▁Like	-10.323
▁Ly	-10.3232
▁appellant	-10.3235
each	-10.3237
▁$2	-10.324
▁quick	-10.3241
ese	-10.3242
tes	-10.3243
pel	-10.3244
▁Rule	-10.3244
▁whatever	-10.3249
AA	-10.3249
TT	-10.3252
(2)	-10.3254
uring	-10.3255
▁estimated	-10.3256
▁characters	-10.3256
ect	-10.3257
ense	-10.3263
▁sta	-10.3263
▁uint	-10.3266
▁announced	-10.3271
ien	-10.3272
otic	-10.3273
EA	-10.3274
Content	-10.3277
▁kids	-10.3279
002	-10.3279
bal	-10.328
other	-10.328
▁finite	-10.3285
CE	-10.3285
▁(3)	-10.329
▁Find	-10.3294
▁PA	-10.3295
▁tag	-10.3299
▁crystal	-10.3305
▁drugs	-10.3307
▁joint	-10.3307
▁induced	-10.3311
▁diagnosis	-10.3314
▁Thanks	-10.3315
▁describe	-10.332
▁electronic	-10.332
▁Bank	-10.3322
().	-10.3325
check	-10.3328
BA	-10.3329
uv	-10.3329
▁hundred	-10.333
▁derived	-10.3333
▁Canada	-10.3334
▁song	-10.3335
▁bag	-10.334
▁efforts	-10.3341
az	-10.3342
▁Institute	-10.3345
▁Time	-10.335
ically	-10.3355
On	-10.3356
lash	-10.3357
▁treat	-10.3357
▁latter	-10.3357
▁breast	-10.3359
▁appearance	-10.3366
▁38	-10.3366
ami	-10.3368
▁covered	-10.337
▁bus	-10.3372
dr	-10.3374
▁join	-10.3382
rin	-10.3384
chan	-10.3385
▁creating	-10.339
▁fat	-10.3393
star	-10.3397
matic	-10.3399
Al	-10.3402
_{2}	-10.3403
/3	-10.3407
FC	-10.3409
any	-10.3417
▁39	-10.3419
▁III	-10.3421
▁Ed	-10.3423
0000	-10.3427
AB	-10.3428
▁Mi	-10.3431
▁library	-10.3432
▁eat	-10.3434
▁dry	-10.3436
All	-10.3436
gli	-10.3437
▁Out	-10.3438
▁employees	-10.3443
▁brand	-10.3445
arch	-10.3446
▁decreased	-10.3449
sign	-10.345
▁rich	-10.3452
ara	-10.3454
duct	-10.3459
▁requirements	-10.3461
PD	-10.3463
▁43	-10.3464
▁Council	-10.3475
FI	-10.3476
object	-10.3476
▁trouble	-10.3479
▁Union	-10.348
PR	-10.3483
▁seek	-10.3483
mes	-10.3485
▁dev	-10.3485
▁college	-10.3487
▁Western	-10.3488
▁RE	-10.349
▁Trans	-10.349
▁trip	-10.3492
buf	-10.3493
ati	-10.3493
▁plans	-10.3502
▁suggests	-10.3503
mbox	-10.3507
Cl	-10.3513
arg	-10.3516
▁camp	-10.3518
▁decrease	-10.3518
▁Si	-10.3519
▁Germany	-10.3521
▁Before	-10.3527
▁transmission	-10.3533
▁Bre	-10.3534
▁corner	-10.3536
▁stood	-10.3537
wood	-10.3537
▁Obama	-10.3539
bre	-10.3543
)*	-10.3546
▁Bur	-10.3551
▁adult	-10.3559
▁segment	-10.356
▁speech	-10.3565
But	-10.3574
▁script	-10.3575
mission	-10.3576
Int	-10.3584
005	-10.3588
▁Further	-10.3589
▁establish	-10.3589
2]	-10.3595
)**	-10.3596
▁contained	-10.3602
kg	-10.3602
▁properly	-10.3603
lum	-10.3617
▁nuclear	-10.3618
pc	-10.362
verse	-10.3621
▁Gra	-10.3621
sha	-10.3625
pass	-10.3627
▁Friday	-10.3628
▁assess	-10.363
▁largest	-10.363
▁Read	-10.3631
rib	-10.3632
▁conversation	-10.3635
▁advantage	-10.3635
▁salt	-10.3636
PE	-10.364
▁importance	-10.3643
Field	-10.3644
▁Eq	-10.3644
Array	-10.3647
law	-10.3647
mann	-10.3647
▁grand	-10.3648
that	-10.3649
MI	-10.3652
▁leaving	-10.3653
▁=======	-10.3655
▁literature	-10.3655
▁Pr	-10.3655
So	-10.3656
▁reveal	-10.3666
ened	-10.3667
▁Hi	-10.3672
grad	-10.3672
shed	-10.3676
▁bool	-10.3677
▁Facebook	-10.3678
▁Ja	-10.3679
itch	-10.368
▁Mark	-10.3681
fr	-10.3684
-01	-10.3684
▁stories	-10.369
▁latest	-10.3698
roll	-10.3698
▁photograph	-10.3698
CI	-10.3701
▁Men	-10.3703
under	-10.3704
DI	-10.3705
▁represents	-10.3707
tens	-10.3708
-7	-10.371
▁Will	-10.3721
▁carbon	-10.3722
▁guy	-10.3723
▁voltage	-10.3723
Manager	-10.3723
▁il	-10.3726
Image	-10.3729
▁village	-10.3732
▁(4	-10.3733
actic	-10.374
cat	-10.3743
▁2019	-10.3743
ress	-10.3743
▁interested	-10.3745
▁jurisdiction	-10.3745
▁church	-10.3745
▁completed	-10.3747
▁outcome	-10.3748
▁sets	-10.3749
▁digit	-10.3751
▁mouth	-10.3753
▁names	-10.3754
ae	-10.3755
▁rank	-10.3755
lon	-10.3756
▁NS	-10.3761
▁controls	-10.3763
og	-10.3766
create	-10.3767
▁indeed	-10.3768
▁intra	-10.3773
▁sold	-10.3774
▁thread	-10.378
▁empty	-10.3782
▁meant	-10.3789
CF	-10.379
▁authority	-10.379
(&	-10.3791
▁adding	-10.3792
▁standing	-10.3794
▁existence	-10.3799
▁cent	-10.38
▁NA	-10.3801
▁referred	-10.3801
▁driving	-10.3802
▁remained	-10.3807
sis	-10.3808
ido	-10.381
▁causes	-10.3814
OL	-10.3816
▁patterns	-10.3816
▁yield	-10.382
▁sales	-10.3825
▁symbol	-10.3826
bot	-10.3829
▁objective	-10.3834
▁0.7	-10.3838
▁disc	-10.384
▁convert	-10.384
▁detail	-10.385
▁download	-10.3851
▁7.	-10.3851
▁miles	-10.3851
▁conclusion	-10.3852
▁agents	-10.3853
cast	-10.3855
▁scar	-10.3858
▁Sunday	-10.3859
ace	-10.3872
▁Bio	-10.3872
▁integer	-10.3874
cular	-10.3876
▁remainder	-10.3876
7-	-10.3879
▁River	-10.388
ech	-10.3886
gu	-10.3888
La	-10.3891
▁delay	-10.3891
▁greatest	-10.3891
supplementary	-10.3893
▁mm	-10.3893
▁gets	-10.3898
▁Open	-10.3899
▁Christ	-10.39
▁analyses	-10.3903
▁Dan	-10.3908
▁fe	-10.3914
▁64	-10.3919
build	-10.3919
-15	-10.392
▁ser	-10.392
nce	-10.3922
▁calls	-10.3922
weight	-10.3922
▁powerful	-10.3925
Ed	-10.3925
▁CI	-10.3927
▁possibility	-10.3927
▁thin	-10.3933
▁percentage	-10.3933
Co	-10.3937
▁officers	-10.3938
▁alter	-10.3942
▁lung	-10.3945
Map	-10.3946
(2	-10.3956
OD	-10.3964
▁exp	-10.3966
loc	-10.3966
▁Er	-10.3968
▁plasma	-10.3974
▁ce	-10.3975
▁li	-10.3975
600	-10.3976
▁2003	-10.3977
fil	-10.3977
nonumber	-10.3978
▁movie	-10.398
▁mechanisms	-10.3981
▁implementation	-10.3983
ALL	-10.3984
▁offers	-10.3989
:**	-10.399
RP	-10.3993
▁valid	-10.3993
▁ni	-10.3998
_{0}	-10.3999
.[@	-10.4001
▁protected	-10.4002
equ	-10.4003
▁carry	-10.4012
+1	-10.4015
▁Church	-10.4018
▁stopped	-10.4019
▁nu	-10.402
▁learned	-10.4024
Resource	-10.4025
▁ca	-10.4034
_1$	-10.4043
utter	-10.4046
▁receptor	-10.4047
▁Commission	-10.4051
dan	-10.4053
▁customers	-10.4054
▁Lord	-10.4057
▁44	-10.4058
▁concentrations	-10.4059
Me	-10.406
vent	-10.4062
▁java	-10.4067
▁evaluation	-10.4067
▁stable	-10.4076
▁Company	-10.4077
▁Brown	-10.4082
▁measurements	-10.4082
▁birth	-10.4082
▁conclude	-10.4083
Property	-10.4088
atter	-10.409
▁equipment	-10.4091
▁refer	-10.4093
ula	-10.4093
▁operating	-10.4099
acy	-10.4105
ique	-10.4106
▁apparatus	-10.4107
Not	-10.4109
isation	-10.4111
▁William	-10.4111
pet	-10.4116
▁49	-10.4123
NE	-10.4124
▁!	-10.4126
▁waiting	-10.4134
DC	-10.4135
^{(	-10.4137
▁identity	-10.4139
▁street	-10.414
▁quantum	-10.4145
▁comp	-10.4153
▁Russian	-10.4162
▁finish	-10.4162
bound	-10.4163
astic	-10.4164
▁disk	-10.4166
▁controlled	-10.417
room	-10.4172
▁pl	-10.4174
anger	-10.4175
▁2001	-10.418
ida	-10.4182
▁extended	-10.4186
▁permit	-10.4188
2.1	-10.419
▁pool	-10.4191
▁cm	-10.4191
▁jump	-10.4192
▁Vo	-10.4193
event	-10.4194
▁continuous	-10.4195
▁arms	-10.4196
▁insurance	-10.4199
▁chronic	-10.4204
▁41	-10.421
▁pu	-10.4211
▁farm	-10.4212
CG	-10.4216
▁dog	-10.4227
▁particles	-10.4233
local	-10.4236
▁purposes	-10.4239
▁responses	-10.4239
ware	-10.4241
MD	-10.4244
MM	-10.4245
sia	-10.4246
Result	-10.4247
rum	-10.4247
mov	-10.4247
▁extract	-10.4248
xml	-10.4248
800	-10.4252
▁gate	-10.4261
St	-10.4263
▁Sha	-10.4268
▁plants	-10.427
itt	-10.4275
▁MS	-10.4275
▁consideration	-10.4276
▁cha	-10.4278
ubuntu	-10.4281
config	-10.4285
▁emission	-10.4286
▁recording	-10.4288
▁AD	-10.4289
▁Japanese	-10.429
▁File	-10.4294
▁fuel	-10.4294
▁trend	-10.4294
▁signals	-10.4296
▁breath	-10.4298
▁sell	-10.4301
▁hypo	-10.4302
▁crime	-10.4305
▁College	-10.4306
BP	-10.4306
▁rel	-10.4306
mic	-10.4308
▁Good	-10.4312
▁Theorem	-10.4313
▁inner	-10.4313
▁-4*	-10.4314
▁officials	-10.4317
▁nine	-10.4319
▁Foundation	-10.432
▁yes	-10.4321
▁inform	-10.4323
ola	-10.4323
▁environmental	-10.4323
SR	-10.4325
▁fell	-10.4325
▁representative	-10.4325
▁deliver	-10.4327
RNA	-10.4327
json	-10.4332
eff	-10.4332
?'	-10.4333
]$	-10.4335
lat	-10.434
▁ideal	-10.4341
pen	-10.4345
cept	-10.4345
nabla	-10.4351
▁kill	-10.4352
▁Service	-10.4357
▁0.05	-10.4358
vid	-10.4359
▁ST	-10.4365
▁gap	-10.4367
▁lib	-10.4368
▁virus	-10.4368
ito	-10.4368
Po	-10.4372
▁Ac	-10.4373
▁eventually	-10.4374
▁distinct	-10.4374
▁Only	-10.4376
return	-10.4378
$$	-10.4378
OC	-10.4378
MO	-10.438
▁evolution	-10.4385
fl	-10.4387
▁Tra	-10.4388
ria	-10.4388
las	-10.4392
▁tight	-10.4395
▁mention	-10.4396
▁stars	-10.4396
fi	-10.4402
gro	-10.4403
HR	-10.4412
▁Han	-10.4418
▁spend	-10.4419
sup	-10.4419
▁liver	-10.442
▁prop	-10.4421
born	-10.4423
▁interactions	-10.4427
tur	-10.4429
▁relief	-10.4431
▁violation	-10.4431
ici	-10.4432
▁Japan	-10.4433
▁sheet	-10.4435
▁episode	-10.4436
eth	-10.444
▁interests	-10.4442
▁compare	-10.4446
▁fan	-10.4448
▁determination	-10.4449
section	-10.4449
▁Sam	-10.445
▁rep	-10.4458
▁award	-10.4459
▁Thomas	-10.4459
endif	-10.4462
cit	-10.4463
▁secondary	-10.4464
▁accident	-10.4467
-9	-10.447
▁construct	-10.4471
duc	-10.4472
▁DO	-10.4474
ME	-10.4475
▁mouse	-10.4477
▁exact	-10.4479
Service	-10.448
▁Fa	-10.4484
▁Circuit	-10.4488
eck	-10.4489
▁News	-10.449
lect	-10.4494
ando	-10.4494
GE	-10.4496
▁odd	-10.4497
DB	-10.4499
lie	-10.4499
EM	-10.45
ico	-10.4502
ming	-10.4504
lot	-10.4507
ult	-10.451
▁gold	-10.4511
▁estimate	-10.4512
▁worse	-10.4514
▁Image	-10.4517
▁represented	-10.4517
▁sequences	-10.4521
There	-10.4527
0.8	-10.453
▁strain	-10.4531
▁spectrum	-10.4532
)=\	-10.4532
▁investment	-10.4533
3*	-10.4534
▁believed	-10.4534
▁efficiency	-10.4538
▁shock	-10.4539
▁fill	-10.454
▁lose	-10.4543
▁(0	-10.4545
▁spring	-10.4545
\,\	-10.4548
rick	-10.4554
▁Exp	-10.4558
vil	-10.4562
SM	-10.4563
hood	-10.4566
▁sin	-10.4569
1\	-10.4569
▁developing	-10.4572
▁Where	-10.4577
▁session	-10.4578
▁circle	-10.4579
module	-10.4579
▁Monday	-10.4587
Pre	-10.4588
▁mostly	-10.4591
▁decide	-10.4596
nch	-10.4597
▁fiber	-10.4598
▁thanks	-10.4598
gel	-10.4598
pot	-10.46
sky	-10.4601
▁park	-10.4602
▁union	-10.4603
rist	-10.4607
▁Super	-10.4612
▁examined	-10.4616
DP	-10.4618
▁0$	-10.4625
▁2002	-10.463
▁lay	-10.463
▁DE	-10.4632
cin	-10.4632
▁indicates	-10.4636
▁supposed	-10.4636
/7	-10.4642
▁65	-10.4642
▁Corp	-10.4643
▁helped	-10.4648
▁fer	-10.4649
VE	-10.4652
ott	-10.4654
▁75	-10.4657
match	-10.4657
▁technical	-10.4661
▁tu	-10.4663
▁department	-10.4663
▁differ	-10.4663
cover	-10.4664
lam	-10.4665
phy	-10.4671
▁evaluated	-10.4672
▁serum	-10.4673
▁net	-10.4677
▁leader	-10.4677
option	-10.4678
▁contribute	-10.4678
▁occurs	-10.4678
rant	-10.468
▁47	-10.4683
cle	-10.4689
GF	-10.469
▁civil	-10.4691
▁errors	-10.4691
){#	-10.4694
▁org	-10.4699
ost	-10.4699
▁signed	-10.4705
▁bias	-10.4706
ibility	-10.4716
▁Richard	-10.4716
iti	-10.4719
▁League	-10.4722
▁Web	-10.4723
▁zone	-10.4726
rio	-10.4729
▁annual	-10.4729
▁Sun	-10.473
▁Instead	-10.4731
miss	-10.4733
▁delivery	-10.4739
▁aware	-10.4739
lia	-10.4748
ante	-10.4752
▁Their	-10.4755
Group	-10.4756
ern	-10.4762
▁Tu	-10.4765
▁minor	-10.4768
▁Gar	-10.4772
:19	-10.4773
▁Martin	-10.478
▁Up	-10.478
▁FOR	-10.4781
▁extremely	-10.4781
▁agency	-10.4783
▁detect	-10.4784
▁Fr	-10.4785
▁predict	-10.4785
▁pull	-10.4787
▁sister	-10.4788
▁[]	-10.4789
gt	-10.4791
▁charged	-10.4792
▁ahead	-10.4793
▁desired	-10.4794
mount	-10.4795
▁transform	-10.4795
Ma	-10.4798
pin	-10.4798
▁meta	-10.4799
▁Who	-10.4804
▁Australia	-10.4808
}}_{	-10.4808
avi	-10.481
1.1	-10.4811
prov	-10.4815
▁Home	-10.4818
((	-10.4821
place	-10.4824
TR	-10.4829
▁assumption	-10.4835
▁measurement	-10.4841
ais	-10.4842
▁FIG	-10.4842
▁twenty	-10.4842
cel	-10.4844
mag	-10.4844
NC	-10.4845
▁crowd	-10.4848
▁subsequent	-10.4855
▁mark	-10.4857
gent	-10.4858
parent	-10.4861
widetilde	-10.4864
late	-10.4865
github	-10.4867
uma	-10.4872
▁tube	-10.4875
▁Three	-10.4876
-14	-10.4878
▁stick	-10.4886
▁push	-10.4887
▁fi	-10.4902
▁nation	-10.4903
▁reality	-10.4904
ulator	-10.4905
▁Committee	-10.4908
▁substantial	-10.4913
ili	-10.4914
4*	-10.4914
aging	-10.4915
▁projects	-10.4916
▁0*	-10.4917
ories	-10.4918
2.0	-10.4918
▁Association	-10.4919
▁holds	-10.4927
▁alcohol	-10.4927
▁Government	-10.4931
▁achieved	-10.4933
▁Roman	-10.4935
▁cho	-10.4935
Vert	-10.4936
▁Life	-10.4941
▁assay	-10.4941
▁allowing	-10.4942
▁chosen	-10.4943
▁46	-10.4943
▁Israel	-10.4948
Stream	-10.495
▁throw	-10.495
▁float	-10.4952
▁seeing	-10.4953
▁mission	-10.4955
frame	-10.4956
▁leaves	-10.4956
▁shop	-10.4959
ather	-10.496
yo	-10.4961
▁parallel	-10.4962
▁mixture	-10.4965
PL	-10.4966
▁observe	-10.4967
impl	-10.4968
▁fundamental	-10.497
▁Bra	-10.4971
▁AS	-10.4972
nut	-10.4978
▁finished	-10.4978
doc	-10.4981
sensors	-10.4982
Count	-10.4982
^3	-10.4983
▁cloud	-10.4985
0.2	-10.4992
play	-10.4998
▁(!	-10.5004
▁End	-10.5005
▁earth	-10.5007
teen	-10.5009
rb	-10.501
[^	-10.5012
hy	-10.5014
▁poll	-10.5014
▁neither	-10.5016
▁Are	-10.5024
▁changing	-10.5027
▁55	-10.5029
1%	-10.5031
0.4	-10.5032
▁era	-10.5036
variant	-10.5041
▁happens	-10.5046
own	-10.5048
▁lock	-10.5048
ike	-10.5051
▁beat	-10.5051
ament	-10.5054
BR	-10.5057
▁narrow	-10.5058
Record	-10.506
▁Mu	-10.5061
▁((	-10.5062
sure	-10.5062
ye	-10.5062
format	-10.5071
▁underlying	-10.5073
▁beam	-10.5073
4){	-10.5074
▁traffic	-10.5078
ei	-10.5079
ball	-10.5082
▁drink	-10.5082
wer	-10.5083
▁burden	-10.5086
▁Island	-10.5089
END	-10.5092
^1	-10.5095
▁forced	-10.5102
▁alleged	-10.5104
0.6	-10.5106
▁immuno	-10.5109
▁chief	-10.511
▁films	-10.511
Function	-10.5112
▁receiving	-10.5112
▁vol	-10.5115
▁easier	-10.5116
0.9	-10.5117
UT	-10.5118
▁favorite	-10.512
▁Cy	-10.5122
ool	-10.5123
▁imaging	-10.5124
▁shoulder	-10.5124
omic	-10.513
"></	-10.5131
gh	-10.5132
nar	-10.5137
BM	-10.514
stream	-10.5143
_0$	-10.5143
▁mixed	-10.5144
gene	-10.5146
Add	-10.5147
▁typical	-10.515
▁issued	-10.5151
▁directed	-10.5152
▁obvious	-10.5153
▁Nor	-10.5156
▁sal	-10.5158
▁thousands	-10.5162
pub	-10.5169
▁iron	-10.5176
more	-10.5189
▁filled	-10.5191
(0,	-10.5191
▁Windows	-10.5192
meter	-10.5192
1^	-10.5196
▁possibly	-10.5198
▁Gen	-10.5198
▁Los	-10.5199
▁expansion	-10.5199
▁cor	-10.5203
▁Mal	-10.5206
word	-10.5207
▁-5*	-10.5208
agon	-10.5209
AND	-10.521
▁employed	-10.5215
zz	-10.5216
▁intervention	-10.5218
▁-->	-10.522
even	-10.5222
▁criteria	-10.5224
▁investigated	-10.5224
ester	-10.5225
Th	-10.5228
bon	-10.5229
CV	-10.5233
▁coverage	-10.5235
▁protest	-10.5241
▁Book	-10.5246
▁discovered	-10.5251
ATION	-10.5254
urs	-10.5254
▁trace	-10.5255
▁src	-10.526
▁escape	-10.5262
▁lived	-10.5262
▁diseases	-10.5263
▁2)	-10.5263
▁offense	-10.5263
Command	-10.5263
▁laws	-10.5264
▁Sea	-10.5266
▁spoke	-10.5267
NI	-10.5269
▁observation	-10.5271
band	-10.5272
(3)	-10.5281
▁variation	-10.5286
▁permission	-10.529
AG	-10.5292
HO	-10.5295
MR	-10.5295
▁pathway	-10.5296
▁versus	-10.5301
▁terminal	-10.5304
▁depth	-10.5311
▁freedom	-10.5315
▁${{\	-10.5315
▁electric	-10.5322
LC	-10.5323
▁relates	-10.5326
▁depends	-10.533
operative	-10.5331
▁mistake	-10.5332
▁occasion	-10.5333
iel	-10.5337
hop	-10.5338
▁mine	-10.5347
▁transaction	-10.5348
▁Mil	-10.535
8-	-10.5354
eh	-10.5354
Pro	-10.5357
▁threshold	-10.5359
PI	-10.5363
water	-10.5365
▁mal	-10.5376
sys	-10.5379
▁twice	-10.5381
▁faith	-10.5381
▁diet	-10.5384
PO	-10.5386
LL	-10.5386
▁connect	-10.5389
▁calling	-10.5392
▁isolated	-10.5394
tern	-10.5394
▁homo	-10.5395
eng	-10.5395
▁imagine	-10.5396
▁Mrs	-10.5398
▁56	-10.5401
▁biological	-10.5402
▁concern	-10.5403
▁sector	-10.5404
▁economy	-10.5405
▁virtual	-10.5407
007	-10.5409
real	-10.5416
▁om	-10.5416
/6	-10.5417
▁1:	-10.5418
▁pin	-10.5421
Model	-10.5422
▁intensity	-10.5426
▁religious	-10.5429
▁Hall	-10.5431
▁confirm	-10.5432
xy	-10.5432
▁fourth	-10.5437
mate	-10.5438
▁sale	-10.5439
▁till	-10.5439
▁skills	-10.5442
▁wood	-10.5442
Return	-10.5445
▁strongly	-10.545
▁(\	-10.5451
inc	-10.5451
▁marked	-10.5453
▁Saturday	-10.5456
▁entirely	-10.5456
▁Cr	-10.5458
ivity	-10.5461
tive	-10.5462
^2^	-10.5465
▁Party	-10.5466
▁promote	-10.5467
"})	-10.5468
▁quarter	-10.5471
▁defend	-10.5473
bro	-10.5473
▁container	-10.5473
▁approved	-10.548
▁query	-10.5483
▁exhibit	-10.5483
▁nano	-10.5483
VI	-10.5483
▁duration	-10.5486
▁forth	-10.5488
1],	-10.5489
****************	-10.549
▁investigate	-10.5494
oz	-10.5497
▁evaluate	-10.5498
▁granted	-10.5502
▁Gr	-10.5503
iation	-10.5504
▁repair	-10.5506
▁formal	-10.5507
Yes	-10.5511
▁framework	-10.5515
icon	-10.5516
atic	-10.5517
▁guys	-10.5519
1.5	-10.5525
iving	-10.5526
gl	-10.5527
0.3	-10.5536
▁detailed	-10.5539
▁+=	-10.5541
"]	-10.5542
ipped	-10.5544
▁len	-10.5546
▁Office	-10.5546
▁teams	-10.5549
▁sitting	-10.5551
got	-10.5554
2016	-10.5555
▁Br	-10.5555
▁coach	-10.5557
0\	-10.5557
ben	-10.5561
ched	-10.5561
▁Internet	-10.5562
▁compounds	-10.5562
▁sk	-10.5564
▁&\	-10.5565
emia	-10.5567
▁wants	-10.5568
▁focused	-10.557
▁immune	-10.5571
TYPE	-10.5572
LP	-10.5573
▁Does	-10.5575
_2$	-10.5576
▁outcomes	-10.5576
east	-10.5581
GL	-10.5581
▁Ju	-10.5582
▁52	-10.5589
▁accuracy	-10.5592
▁river	-10.5592
▁Hill	-10.5593
poly	-10.5594
▁excellent	-10.5596
▁thick	-10.5597
▁fruit	-10.5597
▁ordered	-10.56
▁capable	-10.5605
▁ID	-10.5606
▁pp	-10.5608
ening	-10.5608
▁listed	-10.5608
▁confidence	-10.5612
^+^	-10.5615
INT	-10.5616
▁television	-10.5616
▁Cell	-10.562
▁Plan	-10.5621
▁schools	-10.5622
006	-10.5622
bio	-10.5624
▁rain	-10.5624
▁bear	-10.5625
▁belong	-10.5625
its	-10.5632
▁proceed	-10.5633
eat	-10.5633
FS	-10.5634
▁lie	-10.5636
▁feed	-10.5637
▁Twitter	-10.564
cut	-10.564
▁col	-10.5642
▁max	-10.5644
\|	-10.5644
ras	-10.5646
▁AT	-10.5648
▁rare	-10.5648
▁stem	-10.5651
▁category	-10.5651
Ro	-10.5652
▁managed	-10.5656
▁prediction	-10.5657
▁frequently	-10.5657
▁regulation	-10.5659
tile	-10.5659
▁spirit	-10.5662
aka	-10.5664
▁6*	-10.5668
iate	-10.5669
▁evening	-10.5669
▁fragment	-10.5669
▁recovery	-10.567
ony	-10.5674
round	-10.5678
high	-10.5679
▁opposite	-10.5679
▁pulled	-10.568
▁Results	-10.5681
▁leaders	-10.5682
kh	-10.5689
regulated	-10.5693
300	-10.5696
▁bright	-10.5698
▁interpretation	-10.5702
▁broken	-10.5703
▁branch	-10.5709
▁pur	-10.5711
▁Val	-10.5715
\{	-10.5717
▁Paris	-10.5719
zeta	-10.5719
▁baby	-10.5722
▁girls	-10.5728
▁som	-10.5736
▁belief	-10.5736
nom	-10.5737
\}$	-10.5744
▁guard	-10.5747
▁conference	-10.5748
▁prefer	-10.5752
▁desire	-10.5753
process	-10.5757
}{2}	-10.5759
▁advanced	-10.5761
hor	-10.5764
▁500	-10.5765
▁intention	-10.5767
bil	-10.5769
▁understood	-10.577
▁recall	-10.5772
system	-10.5774
▁Tuesday	-10.5779
▁married	-10.5786
TP	-10.5792
you	-10.5795
aire	-10.5801
▁profit	-10.5808
▁Bay	-10.5809
▁Em	-10.5809
LT	-10.5811
DL	-10.5811
1;	-10.5811
▁violence	-10.5812
How	-10.5816
GP	-10.5818
▁Despite	-10.582
Block	-10.5821
▁stored	-10.5821
▁publication	-10.5822
▁limitations	-10.5825
-13	-10.5825
▁considering	-10.5825
▁stone	-10.5827
Response	-10.5828
kt	-10.5828
▁depending	-10.5829
ION	-10.5832
anti	-10.5835
life	-10.584
src	-10.5843
▁electrode	-10.5844
UL	-10.5848
▁hotel	-10.5848
▁unknown	-10.5849
2/	-10.5849
▁Apple	-10.5851
▁Review	-10.5854
-12	-10.5854
▁usual	-10.5854
0.7	-10.5856
▁sweet	-10.5859
▁mainly	-10.5859
▁grade	-10.5859
▁Charles	-10.586
▁asking	-10.5865
▁temp	-10.5866
▁arrived	-10.5868
▁polymer	-10.5869
▁duty	-10.5869
▁1](#	-10.5876
▁candidate	-10.5876
").	-10.5876
▁constitute	-10.5877
▁HIV	-10.5881
rog	-10.5886
▁Copyright	-10.5887
▁med	-10.5888
▁(6	-10.5895
▁margin	-10.5899
▁audience	-10.5904
LD	-10.5906
▁render	-10.591
▁va	-10.5912
▁Field	-10.5913
BI	-10.5915
VA	-10.5915
ough	-10.5915
▁implement	-10.5916
BO	-10.5916
▁Russia	-10.5917
▁examination	-10.592
rated	-10.5921
▁Every	-10.5921
Load	-10.5921
target	-10.5924
▁patent	-10.5924
wrap	-10.5925
▁boundary	-10.5927
▁Last	-10.5927
▁approaches	-10.5929
Oh	-10.5931
aux	-10.5932
▁planning	-10.5932
ked	-10.5935
Ex	-10.5935
▁velocity	-10.5936
▁ear	-10.5936
▁native	-10.5939
▁Par	-10.5941
▁draft	-10.5942
]{	-10.5944
▁har	-10.5945
▁pas	-10.5945
methyl	-10.5946
Button	-10.5951
oul	-10.5955
▁launch	-10.5957
▁==========	-10.5957
▁Federal	-10.5959
ising	-10.5961
▁minute	-10.5961
layer	-10.5962
▁recognized	-10.5963
▁54	-10.5964
▁dr	-10.5967
▁runs	-10.5968
_1,	-10.597
}=\	-10.597
▁solve	-10.5971
Client	-10.5971
TI	-10.5978
gate	-10.5979
▁marriage	-10.598
▁8.	-10.5981
▁debate	-10.5982
▁competition	-10.5982
▁petition	-10.5993
IG	-10.5993
ington	-10.5993
▁witness	-10.5995
▁entitled	-10.5996
▁sensitivity	-10.5996
/\	-10.6003
IV	-10.6005
▁Cat	-10.6005
uery	-10.6007
▁Cre	-10.6008
▁Hence	-10.6009
2017	-10.6012
tant	-10.6014
ulated	-10.6015
▁neck	-10.6015
(1	-10.6018
▁arguments	-10.6021
▁Give	-10.6022
[2]	-10.6023
▁stack	-10.6024
(),	-10.6024
▁Plaintiff	-10.6024
cup	-10.6027
▁joined	-10.603
▁intent	-10.6031
▁External	-10.6033
▁leg	-10.6034
▁Africa	-10.6035
▁gift	-10.6037
▁cont	-10.6037
▁72	-10.6039
▁Jack	-10.6044
▁networks	-10.6045
▁wonder	-10.6045
current	-10.6045
▁--------	-10.6046
ulating	-10.6046
unc	-10.6047
vy	-10.6048
▁modified	-10.6051
stein	-10.6051
":"	-10.6052
▁strike	-10.6055
▁Defendant	-10.6056
▁About	-10.6057
▁numerous	-10.6058
rank	-10.606
LS	-10.6069
yard	-10.6069
▁Hol	-10.607
▁observations	-10.6071
ijms	-10.6073
most	-10.6077
▁chair	-10.6079
ime	-10.6083
▁Put	-10.6084
▁listen	-10.6084
cus	-10.6089
▁PD	-10.6089
align	-10.6096
▁documents	-10.6096
vir	-10.6098
center	-10.6103
▁Indeed	-10.6106
rack	-10.611
▁rotation	-10.6111
-18	-10.6112
▁induce	-10.6113
▁->	-10.6114
MB	-10.6118
▁strip	-10.6119
has	-10.6119
▁electrical	-10.6125
sect	-10.6128
▁contribution	-10.6128
▁export	-10.6128
▁owner	-10.613
▁interval	-10.613
▁assessed	-10.6131
sol	-10.6133
UP	-10.6134
NT	-10.6137
▁dynamic	-10.6139
lit	-10.614
▁differential	-10.6146
▁promise	-10.6148
▁Thursday	-10.6148
agg	-10.615
▁procedures	-10.615
▁proportion	-10.6152
sent	-10.6153
dal	-10.6156
bus	-10.616
fusion	-10.6161
▁defendants	-10.6162
img	-10.6162
▁une	-10.6165
▁1.5	-10.6169
▁exposed	-10.617
▁assuming	-10.6171
▁(10	-10.6172
raw	-10.6177
BL	-10.6178
▁advice	-10.6181
▁division	-10.6181
*(	-10.6182
▁Char	-10.6182
▁island	-10.6185
▁repeat	-10.6187
▁scenario	-10.6188
▁familiar	-10.6189
web	-10.6191
▁1999	-10.6191
▁consent	-10.6194
tig	-10.6194
▁wear	-10.6195
Supplementary	-10.6197
▁earn	-10.6197
▁customer	-10.6198
lysis	-10.6199
HS	-10.6202
▁taste	-10.6202
Pi	-10.6203
oon	-10.6204
▁acts	-10.6208
▁Earth	-10.6211
▁register	-10.6211
▁trees	-10.6215
10]	-10.6218
rem	-10.622
▁partner	-10.6224
▁walked	-10.6225
▁ice	-10.6228
▁Long	-10.6228
▁concerned	-10.6231
▁flight	-10.6232
▁commission	-10.6232
▁rev	-10.6233
mem	-10.6234
}}{	-10.6239
▁fu	-10.6241
▁statistical	-10.6245
ala	-10.6245
▁decisions	-10.6249
▁caught	-10.6251
▁resulted	-10.6252
▁Cl	-10.6253
Is	-10.6253
WA	-10.6258
▁Wednesday	-10.6261
inal	-10.6261
button	-10.6262
▁ju	-10.6264
▁53	-10.6265
▁experienced	-10.6265
▁preparation	-10.6268
▁Appellant	-10.6269
▁doctor	-10.627
▁acute	-10.627
emp	-10.6273
▁Chi	-10.6274
Unit	-10.6279
itz	-10.628
hol	-10.6281
▁exc	-10.6281
▁suitable	-10.6283
▁concerns	-10.6284
▁boot	-10.6286
▁centre	-10.6287
▁impossible	-10.6288
▁Program	-10.6288
bra	-10.6288
▁planet	-10.629
hen	-10.6291
Input	-10.6293
▁conviction	-10.6294
▁struggle	-10.6296
▁sn	-10.6296
1].	-10.6297
▁Project	-10.6297
▁African	-10.6298
▁hi	-10.6304
▁positions	-10.6305
▁Power	-10.6306
▁widely	-10.6309
DF	-10.6311
plugin	-10.6311
▁Johnson	-10.6312
gon	-10.6312
itation	-10.6316
rey	-10.6321
▁replace	-10.6321
▁scores	-10.633
5}	-10.6331
▁----	-10.6331
▁split	-10.6333
▁becoming	-10.6335
▁accepted	-10.6342
▁supplement	-10.6346
▁statements	-10.6346
▁bug	-10.6349
sync	-10.6353
Row	-10.6354
▁sensor	-10.6354
try	-10.6354
▁perspective	-10.6355
mode	-10.6358
▁sharp	-10.6359
google	-10.6361
▁efficient	-10.6362
▁chart	-10.6363
UR	-10.6364
*-	-10.6364
400	-10.637
▁massive	-10.6372
▁improvement	-10.6372
▁Florida	-10.6374
▁thereby	-10.6375
pu	-10.6376
HI	-10.6377
HC	-10.6378
2%	-10.6379
ators	-10.6379
▁composite	-10.638
▁pump	-10.6382
\[[@	-10.6382
stat	-10.6384
▁manage	-10.6385
gan	-10.6386
lumin	-10.639
▁moral	-10.6391
iva	-10.6392
▁climate	-10.6394
▁specified	-10.6395
▁applicable	-10.6395
urg	-10.6397
iter	-10.6401
▁plastic	-10.6403
▁-------	-10.6403
Line	-10.6404
sie	-10.6405
▁Human	-10.6407
dict	-10.6407
temp	-10.6409
**5	-10.6412
▁invest	-10.6414
▁Chapter	-10.6415
dim	-10.6416
pack	-10.6417
▁attached	-10.6417
▁claimed	-10.6419
▁sections	-10.6419
_{2	-10.6419
attr	-10.642
▁unable	-10.642
height	-10.6421
▁Cas	-10.6421
ook	-10.6423
site	-10.6423
▁Pan	-10.6423
▁remote	-10.6424
▁charges	-10.6424
By	-10.6425
256	-10.6425
^2$	-10.6428
▁Math	-10.6431
▁laser	-10.6432
▁wire	-10.6432
ral	-10.6434
▁blow	-10.6434
iro	-10.6434
priv	-10.6435
gre	-10.6435
▁None	-10.6437
▁views	-10.6438
PH	-10.6439
▁explanation	-10.6441
▁Next	-10.6445
lee	-10.6446
▁principal	-10.6447
first	-10.6449
tru	-10.6451
2.5	-10.6451
▁coupling	-10.6453
';	-10.6454
call	-10.6462
rain	-10.6463
Base	-10.6463
-16	-10.6464
▁hence	-10.6465
▁signaling	-10.6473
▁pieces	-10.6473
▁possess	-10.6481
ature	-10.6483
arm	-10.6483
lf	-10.6485
3.5	-10.6486
▁goals	-10.6492
▁injection	-10.6493
▁budget	-10.6493
▁peace	-10.6496
▁pages	-10.6497
▁hole	-10.65
▁restaurant	-10.6503
5){	-10.6504
▁skill	-10.6507
▁discharge	-10.6508
Default	-10.651
▁chapter	-10.651
▁testified	-10.6511
2015	-10.6513
▁Yet	-10.6514
▁payment	-10.6516
nbsp	-10.6519
▁fellow	-10.6525
cil	-10.6526
▁policies	-10.6526
▁secure	-10.6526
▁resource	-10.653
▁os	-10.6534
OM	-10.6535
▁(18	-10.6536
▁genome	-10.6537
conf	-10.6538
▁History	-10.6538
▁slowly	-10.6539
▁assembly	-10.6543
▁DC	-10.6544
ima	-10.6545
acc	-10.6545
▁Tre	-10.6546
▁Type	-10.6547
▁nm	-10.6548
msg	-10.655
▁watching	-10.6551
▁involving	-10.6554
udi	-10.6555
ban	-10.6556
▁Au	-10.6561
▁cook	-10.6565
▁substance	-10.6566
tte	-10.6567
[12	-10.6568
▁Mary	-10.6569
▁keeping	-10.6569
▁mutant	-10.6572
host	-10.6573
aba	-10.6578
just	-10.6578
From	-10.6578
▁Blue	-10.6579
ori	-10.658
▁Lee	-10.6587
▁fans	-10.6588
▁transformation	-10.6589
▁uniform	-10.6592
▁Americans	-10.6592
▁explore	-10.6594
▁EU	-10.6601
cia	-10.6605
▁suggesting	-10.6605
▁examples	-10.6606
▁stretch	-10.6611
3.0	-10.6613
rid	-10.6615
▁51	-10.6619
▁av	-10.662
▁6,	-10.6624
They	-10.6626
▁Wal	-10.6627
▁committed	-10.6628
▁tail	-10.6628
▁victim	-10.6629
▁rats	-10.6631
1/2	-10.6633
▁Name	-10.6633
UC	-10.6634
Date	-10.6635
▁modification	-10.6636
▁dimension	-10.6636
▁sought	-10.6637
▁mountain	-10.6637
dig	-10.6638
layout	-10.6639
▁dans	-10.6639
▁Op	-10.6643
ena	-10.6643
▁Shi	-10.6647
gn	-10.6648
▁num	-10.6652
quit	-10.6653
▁Dar	-10.6654
3]	-10.6654
▁Central	-10.6659
▁Class	-10.666
▁installed	-10.6661
▁SA	-10.6663
▁Simplify	-10.6666
▁hall	-10.6668
fu	-10.667
At	-10.6672
▁hydro	-10.6675
diff	-10.6677
die	-10.6678
}}^	-10.6678
Status	-10.6678
▁absolute	-10.6681
▁cash	-10.6682
▁carrier	-10.6691
3%	-10.6693
▁stability	-10.6694
▁1990	-10.6695
▁rat	-10.6695
EV	-10.6695
▁Maybe	-10.6696
stone	-10.6705
▁dataset	-10.6706
crypt	-10.6711
▁principle	-10.6712
ogen	-10.6712
▁soil	-10.6713
df	-10.6718
▁structural	-10.6719
▁sugar	-10.6722
Window	-10.6724
▁commonly	-10.6724
/10	-10.673
itive	-10.673
▁sight	-10.6732
▁necessarily	-10.6733
▁Make	-10.6733
American	-10.6736
▁Justice	-10.6736
▁potentially	-10.6736
rug	-10.6737
▁vision	-10.6739
ston	-10.6741
▁prison	-10.6743
▁communities	-10.6744
abs	-10.6744
Sub	-10.6747
default	-10.6748
▁Given	-10.675
▁Report	-10.675
▁willing	-10.6753
eo	-10.6755
ancy	-10.6756
tree	-10.6757
rod	-10.6758
)))	-10.6759
args	-10.6761
▁oxygen	-10.6762
▁Cu	-10.677
cker	-10.677
▁Check	-10.6772
▁vis	-10.6772
▁settings	-10.6772
▁housing	-10.6773
▁Ref	-10.6774
▁equations	-10.6775
)).	-10.6776
pha	-10.6781
via	-10.6785
Child	-10.6786
number	-10.6788
▁Those	-10.6789
▁haven	-10.679
▁plain	-10.679
▁smile	-10.6795
?”	-10.6795
ere	-10.6799
FR	-10.68
▁---------	-10.6802
▁scope	-10.6802
She	-10.6803
▁arrest	-10.6803
/4	-10.6804
▁dress	-10.6805
Or	-10.6806
▁debt	-10.6807
▁Lake	-10.6809
▁senior	-10.6813
▁rec	-10.6814
▁estate	-10.6817
▁Land	-10.6822
FL	-10.6826
kins	-10.6827
","	-10.6829
▁och	-10.683
▁-------------	-10.6835
Filter	-10.6836
▁typename	-10.6837
aut	-10.6839
message	-10.684
Ar	-10.6843
▁SE	-10.6843
▁(7	-10.6843
▁vitro	-10.6844
▁reverse	-10.6849
▁radiation	-10.6852
▁58	-10.6854
▁Jesus	-10.6854
▁mM	-10.6856
▁adults	-10.6859
▁labor	-10.6859
▁emotional	-10.686
▁Chicago	-10.6862
▁mechanical	-10.6867
▁surrounding	-10.6868
▁loan	-10.6872
sel	-10.6874
Bar	-10.6875
128	-10.6876
▁plays	-10.6876
▁examine	-10.6876
▁Jan	-10.688
▁accurate	-10.6881
font	-10.6883
▁assigned	-10.6885
▁manuscript	-10.6886
▁------------	-10.6886
▁300	-10.6891
tub	-10.6894
bert	-10.6894
Log	-10.6895
FP	-10.6899
unit	-10.69
▁operate	-10.69
step	-10.6902
▁chamber	-10.6906
255	-10.6907
▁particle	-10.6908
▁1998	-10.6909
▁concluded	-10.6911
ility	-10.6911
▁SD	-10.6911
change	-10.6911
3.1	-10.6914
server	-10.6921
▁spatial	-10.6921
och	-10.6921
product	-10.6921
▁depend	-10.6922
▁hurt	-10.6922
ira	-10.6924
git	-10.6926
▁rapid	-10.6927
▁compound	-10.6927
Format	-10.6929
PER	-10.6931
▁bomb	-10.6932
▁-----------	-10.6935
▁identification	-10.6936
png	-10.6937
▁kick	-10.694
▁thousand	-10.694
▁indicating	-10.6949
▁Social	-10.695
▁executive	-10.6952
show	-10.6955
▁Rock	-10.6958
▁aren	-10.6961
▁jobs	-10.6963
-02	-10.6969
▁aspect	-10.6969
▁Frank	-10.698
ista	-10.6981
▁boat	-10.6981
+2	-10.6984
NAME	-10.6985
▁Reg	-10.6989
00,000	-10.6991
▁Information	-10.6992
met	-10.6995
cam	-10.7
gue	-10.7
▁recommend	-10.7008
▁Minister	-10.7009
▁Ke	-10.7011
fill	-10.7017
Source	-10.7019
2018	-10.7019
▁ended	-10.7023
where	-10.7023
ches	-10.7023
cri	-10.7024
▁vertical	-10.7026
location	-10.7027
▁faster	-10.7028
zen	-10.7031
ination	-10.7031
CU	-10.7033
▁syn	-10.7036
sort	-10.7036
▁aspects	-10.7037
▁requirement	-10.7037
▁jo	-10.7038
▁mortality	-10.7038
▁flash	-10.7042
▁waste	-10.7043
nia	-10.7044
DER	-10.7044
▁smallest	-10.7049
▁fabric	-10.705
▁57	-10.7053
▁Jones	-10.7055
▁weekend	-10.7055
▁10.	-10.7059
▁truly	-10.7059
▁loved	-10.7063
▁replaced	-10.7066
eur	-10.707
wan	-10.7078
▁characterized	-10.7082
▁Take	-10.7082
▁cellular	-10.7084
▁Port	-10.7085
mir	-10.7086
▁pulse	-10.7088
▁${	-10.7088
▁fail	-10.7089
close	-10.7089
▁chip	-10.709
▁flag	-10.7095
▁baseline	-10.7096
2013	-10.7099
▁(8	-10.7099
▁linked	-10.71
▁mask	-10.71
SET	-10.7102
+1)	-10.7107
▁behaviour	-10.711
▁implies	-10.7112
duction	-10.7115
▁probe	-10.7117
▁nodes	-10.7117
false	-10.7121
]]	-10.7124
▁interact	-10.7124
▁100%	-10.7125
▁axis	-10.7127
▁strange	-10.7129
▁employee	-10.7129
▁effectively	-10.7131
▁challenges	-10.7131
itude	-10.7136
▁Dec	-10.714
▁justice	-10.7141
dam	-10.7142
▁metric	-10.7143
AV	-10.7145
ille	-10.7146
▁UN	-10.7149
ua	-10.7149
▁mix	-10.7149
phone	-10.7151
▁soul	-10.7151
▁merely	-10.7153
chen	-10.7157
ional	-10.7162
▁mini	-10.7164
▁admit	-10.7164
rine	-10.7164
▁proposal	-10.7165
008	-10.7166
▁notes	-10.7171
▁(9	-10.7174
matrix	-10.7179
▁{{\	-10.718
▁Gene	-10.7181
▁standards	-10.7183
2014	-10.7184
lytic	-10.7186
▁Though	-10.7187
▁walking	-10.719
▁IP	-10.7193
▁ka	-10.7195
SL	-10.7197
oper	-10.7198
▁repeated	-10.7202
▁instructions	-10.7205
itter	-10.7205
▁milk	-10.721
Mode	-10.7212
FILE	-10.7216
gram	-10.7217
-21	-10.7219
▁Bon	-10.7221
▁00	-10.7222
minimal	-10.7224
control	-10.7227
▁warning	-10.7228
00,	-10.7229
▁Louis	-10.723
▁gender	-10.7231
▁antibody	-10.7235
▁>>	-10.7237
▁routine	-10.7238
▁colour	-10.7239
ART	-10.7239
RF	-10.7241
\*	-10.7245
▁pure	-10.725
ied	-10.7252
root	-10.7252
rous	-10.7253
▁pot	-10.7256
▁1997	-10.7259
▁Year	-10.7262
▁Times	-10.7263
▁tour	-10.7264
▁smoke	-10.7265
▁exit	-10.7265
▁definitely	-10.7267
search	-10.7269
▁----------	-10.727
▁relations	-10.7271
▁roll	-10.7272
GT	-10.7278
fra	-10.7278
▁Among	-10.7285
▁dynamics	-10.7287
▁populations	-10.7288
▁relationships	-10.7288
▁articles	-10.7292
oe	-10.7292
▁120	-10.7292
▁supporting	-10.7294
160	-10.7294
▁degrees	-10.7294
▁decades	-10.7297
▁guilty	-10.7298
)]	-10.7299
find	-10.7301
OUT	-10.7306
▁fees	-10.7307
▁sides	-10.7315
▁assumed	-10.7316
8*	-10.7323
opt	-10.7325
▁offering	-10.7329
▁scientific	-10.7329
▁correction	-10.7331
▁bra	-10.7331
normal	-10.7337
▁wine	-10.7337
mediated	-10.734
only	-10.734
▁wheel	-10.7342
-17	-10.7343
▁SP	-10.7343
immer	-10.7346
▁disorder	-10.7347
HER	-10.7348
▁Van	-10.7349
▁minimal	-10.7351
▁introduce	-10.7352
▁Big	-10.7358
9-	-10.7358
▁channels	-10.7359
{{	-10.7361
▁admitted	-10.7361
TG	-10.7362
▁passing	-10.7364
▁proved	-10.7366
▁knee	-10.7367
▁Society	-10.7368
▁permanent	-10.7369
▁pal	-10.7369
tract	-10.7372
▁san	-10.7372
▁-----	-10.7373
dra	-10.7375
▁electro	-10.7379
▁famous	-10.7385
▁peptide	-10.7386
▁Award	-10.7389
▁provision	-10.7392
▁strategies	-10.7392
▁realized	-10.7392
▁scan	-10.7393
▁optimal	-10.7393
▁historical	-10.7396
▁sensitive	-10.7402
▁programme	-10.7402
▁Ber	-10.7405
▁Real	-10.7406
▁Pol	-10.7406
BD	-10.7407
ching	-10.7407
eri	-10.7408
▁thermal	-10.741
▁reform	-10.7411
▁Fl	-10.7413
rac	-10.7413
▁recognize	-10.7415
▁--------------	-10.7416
▁Ku	-10.7419
▁funds	-10.7423
logy	-10.7425
til	-10.7425
"}.	-10.7431
▁2.0	-10.7433
▁supra	-10.7436
claim	-10.7437
▁predicted	-10.7438
-03	-10.7447
▁largely	-10.7447
▁fashion	-10.7449
ska	-10.7449
▁mRNA	-10.7449
▁automatically	-10.7451
nel	-10.746
▁-6	-10.7461
▁pitch	-10.7462
▁closer	-10.7462
▁capture	-10.7463
▁garden	-10.7464
▁OS	-10.7464
Tab	-10.7466
▁employment	-10.7466
subset	-10.747
ln	-10.747
▁funding	-10.7471
▁menu	-10.7472
los	-10.7472
cf	-10.7472
▁informed	-10.7476
▁honor	-10.7482
▁lawyer	-10.7485
▁Lemma	-10.7485
-10-	-10.7488
▁Anti	-10.7493
▁editor	-10.7494
PV	-10.7495
debug	-10.7496
Label	-10.7497
140	-10.7499
▁putting	-10.7499
GG	-10.75
▁barrier	-10.7504
apache	-10.7505
ador	-10.7508
Number	-10.751
▁regime	-10.7511
pdf	-10.7511
limit	-10.7512
123	-10.7513
iction	-10.7513
▁dangerous	-10.7514
▁vivo	-10.7516
▁forest	-10.7516
izer	-10.7516
▁seal	-10.7519
0}	-10.7519
▁pointed	-10.752
lus	-10.7524
foo	-10.7525
ifying	-10.7526
▁McC	-10.7527
▁Model	-10.7527
▁Click	-10.7529
▁closely	-10.7529
▁seeking	-10.7535
▁truck	-10.7536
▁Joe	-10.7537
▁sky	-10.7538
▁API	-10.7538
5]	-10.7542
osa	-10.7545
199	-10.7546
▁expert	-10.7547
vic	-10.7548
▁visible	-10.755
▁molecules	-10.7551
▁59	-10.7552
▁discretion	-10.7552
ines	-10.756
cdots	-10.7562
▁translation	-10.7563
▁Additionally	-10.7564
▁weather	-10.7566
second	-10.7569
vor	-10.7572
▁consumption	-10.7575
▁Grand	-10.7577
▁Bel	-10.7578
▁successfully	-10.758
▁Rob	-10.7582
▁signs	-10.7583
zer	-10.7584
▁abstract	-10.7585
▁expensive	-10.7586
▁Va	-10.7587
▁Tr	-10.7587
▁FA	-10.7587
split	-10.7587
▁assistance	-10.759
▁Spec	-10.7595
▁acc	-10.7595
System	-10.7596
▁Spring	-10.7596
▁font	-10.7596
▁150	-10.7601
ded	-10.7601
4%	-10.7603
▁shell	-10.7605
Write	-10.7606
▁committee	-10.7611
▁argues	-10.7615
▁zu	-10.7615
++)	-10.7617
tis	-10.7621
2012	-10.7622
▁continues	-10.7622
)?	-10.7622
Config	-10.7623
▁trigger	-10.7624
Man	-10.7625
lev	-10.7626
▁console	-10.763
▁Ty	-10.7631
esse	-10.7639
▁namespace	-10.764
▁knows	-10.764
▁brown	-10.7642
6*	-10.7646
▁clock	-10.7647
▁7,	-10.7647
pop	-10.7649
▁unsigned	-10.765
Well	-10.765
▁actor	-10.7652
css	-10.7658
▁9.	-10.7659
▁magic	-10.7665
▁Main	-10.7666
▁shut	-10.7667
rad	-10.7668
pid	-10.7673
▁CT	-10.7677
▁manufacturer	-10.7679
▁Max	-10.7679
olar	-10.7679
▁chi	-10.768
▁1996	-10.7681
▁MP	-10.7682
▁Sw	-10.7683
bur	-10.7685
▁Prince	-10.7686
ographic	-10.7692
▁exceed	-10.7696
molecules	-10.7697
▁dec	-10.7701
nate	-10.7706
▁Water	-10.7706
equiv	-10.7707
aring	-10.7709
▁responsibility	-10.7715
ving	-10.7716
▁bodies	-10.7716
▁limits	-10.772
▁Thank	-10.772
▁prices	-10.7723
client	-10.7724
cip	-10.7725
▁pixel	-10.7726
▁tissues	-10.7727
eps	-10.7729
OK	-10.773
▁dispute	-10.7731
aving	-10.7731
select	-10.7731
Version	-10.7737
shi	-10.7738
▁dropped	-10.774
}}{\	-10.7741
▁dependent	-10.7742
▁Miss	-10.7744
▁arise	-10.7744
illi	-10.7746
▁telling	-10.7746
flex	-10.7747
▁vast	-10.7747
▁offset	-10.7749
addr	-10.7749
▁divide	-10.7753
/11	-10.7754
▁diagram	-10.7754
NR	-10.7755
▁amino	-10.7755
▁arrangement	-10.7758
▁---------------	-10.7758
▁drawn	-10.7761
KE	-10.7763
tric	-10.7764
▁Kar	-10.7764
▁Best	-10.7766
▁causing	-10.7766
▁writer	-10.7767
▁Hospital	-10.7768
▁physician	-10.777
▁ride	-10.7771
▁diameter	-10.7772
▁PR	-10.7773
anda	-10.7774
▁lens	-10.7775
▁organic	-10.7776
omb	-10.7777
merge	-10.7781
▁integrated	-10.7785
▁aid	-10.7785
Tex	-10.7786
▁Control	-10.7787
power	-10.7788
▁drawing	-10.7789
after	-10.779
DM	-10.7794
tom	-10.7795
▁god	-10.7799
▁horse	-10.78
▁significance	-10.7808
RN	-10.7808
▁diabetes	-10.7809
▁Canadian	-10.7815
ali	-10.7816
ika	-10.7823
fall	-10.7824
▁Republican	-10.7826
RR	-10.7832
▁grown	-10.7834
▁terr	-10.7834
▁Win	-10.7837
▁Mag	-10.7837
▁characteristic	-10.7838
▁attend	-10.784
▁das	-10.784
now	-10.7841
▁honest	-10.7843
▁bottle	-10.7847
▁illegal	-10.7847
▁creation	-10.7848
▁sounds	-10.7851
nav	-10.7853
▁controller	-10.7853
▁Medical	-10.7856
lich	-10.7856
mise	-10.7861
bul	-10.7862
En	-10.7863
▁knowing	-10.7864
▁realize	-10.7866
2;	-10.7868
▁internet	-10.7869
▁Bor	-10.787
aster	-10.7871
els	-10.7873
▁removal	-10.7874
▁63	-10.7875
197	-10.7875
▁Ana	-10.7876
▁religion	-10.7877
▁attacks	-10.7877
▁teaching	-10.7878
Buffer	-10.788
7]	-10.788
010	-10.7881
inate	-10.7883
▁recommended	-10.7884
▁1;	-10.7885
▁windows	-10.7886
▁cities	-10.7888
▁tea	-10.7889
▁minister	-10.7893
▁Senate	-10.7896
▁reducing	-10.7897
▁-7	-10.7899
▁layers	-10.7902
▁suddenly	-10.7902
▁noticed	-10.7903
Effect	-10.7903
▁outer	-10.7907
▁compact	-10.791
▁Have	-10.791
▁moderate	-10.7913
▁mit	-10.7914
conv	-10.7914
▁worry	-10.7915
▁Mer	-10.7917
▁95%	-10.7919
▁Auto	-10.792
mpl	-10.7927
▁consists	-10.7928
▁apparent	-10.7932
▁Down	-10.7934
continu	-10.7935
een	-10.7936
▁Police	-10.7937
template	-10.7939
aj	-10.7939
status	-10.7939
▁[[	-10.7939
8%	-10.794
▁Key	-10.7941
mil	-10.7942
▁AL	-10.7944
uid	-10.7944
nit	-10.7945
mination	-10.7946
Action	-10.7946
pine	-10.795
▁trials	-10.7953
SU	-10.7954
▁CH	-10.7954
Psi	-10.7954
▁kitchen	-10.7958
▁warrant	-10.7963
md	-10.7964
Parameter	-10.7969
▁68	-10.797
angle	-10.7971
Str	-10.7972
widehat	-10.7972
\"	-10.7973
inger	-10.7974
uel	-10.7977
▁passage	-10.7978
▁neutral	-10.7979
▁amazing	-10.798
aria	-10.7983
-09-0	-10.7984
▁identical	-10.7985
▁hundreds	-10.7986
▁Army	-10.7988
vie	-10.799
eller	-10.7991
▁Log	-10.7995
▁returns	-10.7995
para	-10.7997
UE	-10.8
▁modify	-10.8
Left	-10.8002
▁initially	-10.8005
▁forget	-10.8006
grade	-10.8006
▁og	-10.8007
▁Hor	-10.8009
▁laugh	-10.8009
Tag	-10.8014
▁enhance	-10.8015
▁tro	-10.8016
▁macro	-10.8017
▁researchers	-10.8017
▁crack	-10.8017
Ha	-10.802
7%	-10.8022
▁Accordingly	-10.8026
▁adjust	-10.8028
▁Love	-10.8029
▁humans	-10.8029
▁hate	-10.8031
▁rose	-10.8032
▁classification	-10.8034
next	-10.8034
▁apart	-10.8034
jar	-10.8034
2000	-10.8035
▁household	-10.8038
▁snow	-10.8039
face	-10.804
▁somewhat	-10.8041
Handler	-10.8042
▁seed	-10.8043
▁persons	-10.8043
▁bridge	-10.8045
▁Road	-10.8046
▁integral	-10.8047
ule	-10.8048
▁header	-10.8049
▁Adam	-10.805
009	-10.8051
▁superior	-10.8052
▁pH	-10.8053
▁syndrome	-10.8054
tail	-10.8054
▁assist	-10.8056
sur	-10.8056
ysym	-10.8057
▁schedule	-10.8059
▁info	-10.806
▁Vol	-10.8061
▁antibodies	-10.8061
-11	-10.8062
▁surgical	-10.8063
CIT	-10.8063
▁PCR	-10.8066
▁neurons	-10.8071
▁speaking	-10.8074
dol	-10.8075
▁browser	-10.8075
ACT	-10.8076
▁messages	-10.8079
▁highlight	-10.808
▁Sir	-10.8082
bat	-10.8084
▁mail	-10.8085
prod	-10.8085
▁von	-10.809
yr	-10.8091
null	-10.8092
▁turns	-10.8092
▁coast	-10.8093
small	-10.8093
▁Care	-10.8093
▁feedback	-10.8093
using	-10.81
▁sports	-10.8102
▁wound	-10.8102
lines	-10.8102
iness	-10.8104
ject	-10.8105
▁Henry	-10.8106
▁Ya	-10.8109
▁cultural	-10.8109
Point	-10.8109
▁tun	-10.8111
▁Introduction	-10.8111
▁winter	-10.8111
1.8	-10.8112
queue	-10.8116
summary	-10.8116
▁ko	-10.8117
▁plaintiffs	-10.8119
mac	-10.812
▁employer	-10.8124
OH	-10.8125
town	-10.8126
▁95	-10.8127
▁welcome	-10.8132
^2\	-10.8133
▁therapeutic	-10.8133
▁Williams	-10.8137
_1}	-10.8139
▁dance	-10.814
▁concerning	-10.8143
ait	-10.8144
▁apparently	-10.8145
▁knock	-10.8147
1.7	-10.8147
▁estimates	-10.8148
shot	-10.8151
▁presentation	-10.8153
Don	-10.8156
lb	-10.8158
documentclass	-10.816
▁walls	-10.816
▁("	-10.8167
▁Hy	-10.8169
▁primarily	-10.817
▁Order	-10.8171
▁absorb	-10.8171
▁pictures	-10.8173
End	-10.8176
}+	-10.8177
greek	-10.8178
▁journey	-10.8179
▁Oh	-10.818
pyr	-10.818
setlength	-10.818
isi	-10.8183
Attribute	-10.8183
▁delivered	-10.8184
ACK	-10.8188
^+	-10.8189
5*	-10.8195
▁RT	-10.8195
^2}	-10.8197
ente	-10.8198
ipping	-10.8202
1:	-10.8206
iso	-10.8206
pair	-10.8208
ctx	-10.8209
▁66	-10.8209
▁pack	-10.8213
▁amplitude	-10.8215
▁decay	-10.8216
▁Def	-10.8218
rat	-10.8218
yer	-10.822
▁Wood	-10.822
▁ok	-10.8226
▁Consider	-10.8226
▁IV	-10.8227
▁Bob	-10.8228
▁insight	-10.8229
▁turning	-10.8229
▁Old	-10.8231
▁Virginia	-10.8233
▁radical	-10.8233
▁median	-10.8234
2]\].	-10.8235
mol	-10.8236
▁Security	-10.8236
\]).	-10.8237
▁practical	-10.8238
nov	-10.8239
MENT	-10.8247
ison	-10.8252
▁Phil	-10.8253
entry	-10.8254
▁anyway	-10.8255
▁smart	-10.8258
}})	-10.8261
▁binary	-10.8263
▁Director	-10.8264
▁signature	-10.8268
HE	-10.8268
parse	-10.8268
▁army	-10.827
PK	-10.8272
pul	-10.8272
▁:)	-10.8275
approx	-10.8277
▁discover	-10.8277
Collection	-10.8278
conc	-10.828
nal	-10.828
▁maintained	-10.828
▁blocks	-10.8282
4.0	-10.8284
Range	-10.8285
▁glucose	-10.8287
▁Ter	-10.8288
▁tip	-10.8288
▁Today	-10.8288
▁acting	-10.8289
kan	-10.8289
cd	-10.8292
▁adopted	-10.8294
rest	-10.8297
▁medicine	-10.8298
▁1995	-10.8299
Target	-10.8304
store	-10.8305
erg	-10.8308
▁synthesis	-10.8313
kar	-10.8316
▁2-	-10.8317
Task	-10.8318
}^2	-10.8323
▁conversion	-10.8324
posit	-10.8325
RM	-10.8327
▁Muslim	-10.8328
▁Top	-10.8328
▁3-	-10.8329
TD	-10.8329
▁Uni	-10.833
▁regression	-10.8332
▁toxic	-10.8333
▁inhibition	-10.8336
ister	-10.8336
clone	-10.8337
▁Source	-10.8337
5]\].	-10.8339
,$$	-10.8339
▁maps	-10.8342
▁figures	-10.8345
▁rational	-10.8347
gui	-10.8351
hom	-10.8352
▁&=	-10.8353
▁67	-10.8354
context	-10.8355
▁topic	-10.8356
ved	-10.8358
▁extend	-10.836
elli	-10.8362
▁coffee	-10.8363
arian	-10.8363
▁pet	-10.8363
▁crash	-10.8365
▁Line	-10.8366
two	-10.8368
amssymb	-10.8369
1_	-10.8369
service	-10.8373
▁Sta	-10.8374
night	-10.8375
▁surprise	-10.8376
▁1000	-10.8378
Ca	-10.8378
oddsidemargin	-10.8383
factor	-10.8384
▁patch	-10.8384
▁SO	-10.8386
mathrsfs	-10.8386
▁hero	-10.8389
▁beside	-10.8391
▁tab	-10.8393
umble	-10.8394
▁Software	-10.8394
▁tele	-10.8395
lag	-10.8401
DD	-10.8404
TION	-10.8404
Reference	-10.8406
▁Was	-10.8407
sty	-10.8411
omer	-10.8412
cro	-10.8412
sil	-10.8413
Style	-10.8414
["	-10.8414
called	-10.8415
▁Fu	-10.8419
▁displayed	-10.8422
▁league	-10.8422
▁Chief	-10.8426
▁bigger	-10.8426
▁meat	-10.8427
▁Ki	-10.843
▁flux	-10.843
header	-10.8434
clar	-10.8436
▁Based	-10.8436
▁classical	-10.8437
oral	-10.844
2.4	-10.8441
pan	-10.8441
▁Case	-10.8444
▁ty	-10.8446
▁Bal	-10.8447
▁Four	-10.8447
▁sick	-10.8448
▁stroke	-10.8449
amsfonts	-10.845
▁immediate	-10.8456
▁involves	-10.8457
▁describes	-10.8461
▁partial	-10.8461
▁0.02	-10.8462
cp	-10.8462
Be	-10.8463
▁wealth	-10.8464
PM	-10.8464
▁picking	-10.8465
▁monitoring	-10.8468
See	-10.8468
▁Cup	-10.8468
4]\].	-10.8469
uar	-10.847
ude	-10.847
uint	-10.8471
dec	-10.8474
ACE	-10.8477
▁96	-10.8479
▁constructed	-10.8486
Tool	-10.8486
SV	-10.8486
TOR	-10.8486
▁peri	-10.8487
equal	-10.8489
▁lowest	-10.8489
▁Far	-10.8491
▁trail	-10.8491
AF	-10.8491
vision	-10.8491
▁magnitude	-10.8492
▁enhanced	-10.8492
▁Mel	-10.8493
▁grew	-10.8497
▁recognition	-10.8497
▁Ag	-10.8498
▁cheap	-10.8498
6%	-10.8498
tone	-10.8499
amsmath	-10.85
▁prompt	-10.85
▁arch	-10.8501
▁extends	-10.8503
▁hypothesis	-10.8503
exec	-10.8509
▁Education	-10.8509
mis	-10.8509
▁Gold	-10.8509
▁tie	-10.851
▁discovery	-10.8511
▁audio	-10.8513
Component	-10.8514
note	-10.8515
join	-10.8516
▁fighting	-10.8517
▁cry	-10.8519
-24	-10.8519
▁Scott	-10.852
9]	-10.8525
▁danger	-10.8529
107	-10.853
hl	-10.8533
std	-10.8535
▁closest	-10.8535
▁cards	-10.8537
▁argue	-10.8537
FE	-10.8537
▁Mexico	-10.8539
▁clients	-10.854
▁serving	-10.8541
Frame	-10.8548
▁pairs	-10.8551
▁Arm	-10.8552
▁yellow	-10.8555
▁preferred	-10.8556
known	-10.856
present	-10.856
▁politics	-10.8563
▁adverse	-10.8565
request	-10.8567
▁sad	-10.8567
▁Mad	-10.8571
/9	-10.8572
admin	-10.8573
izz	-10.8573
}{-6	-10.8576
else	-10.8576
▁practices	-10.8578
▁chest	-10.8579
▁carrying	-10.858
▁dollars	-10.8585
▁residents	-10.8586
element	-10.859
property	-10.8592
'$	-10.8593
uz	-10.8593
rup	-10.8597
▁nerve	-10.8602
▁Force	-10.8604
▁meal	-10.8605
abilities	-10.8606
cum	-10.8607
▁1980	-10.8608
▁king	-10.8609
▁possession	-10.861
ONE	-10.8611
amsbs	-10.8612
▁declared	-10.8612
▁ill	-10.8613
▁recover	-10.8613
▁Gal	-10.8615
▁determining	-10.8616
gree	-10.8617
proto	-10.8618
▁mutations	-10.8619
▁bought	-10.8621
▁Division	-10.8622
LY	-10.8622
▁citizens	-10.8629
common	-10.8631
2_	-10.8633
▁Die	-10.8633
morph	-10.8642
▁Ham	-10.8646
▁Italian	-10.8652
(-1)	-10.8652
▁SC	-10.8659
▁talent	-10.8659
posed	-10.8659
▁Show	-10.866
▁Photo	-10.866
pic	-10.8661
found	-10.8662
▁slice	-10.8663
inner	-10.8665
▁infant	-10.8671
ibly	-10.8673
▁watched	-10.8677
▁rear	-10.868
▁UI	-10.8681
amo	-10.8681
Read	-10.8683
▁complain	-10.8683
▁boys	-10.8684
▁clinic	-10.8687
mel	-10.8693
▁===	-10.8694
▁absolutely	-10.8694
mean	-10.8695
TX	-10.8697
4.5	-10.8698
▁arg	-10.8699
▁incidence	-10.8699
cen	-10.87
2.3	-10.8701
▁extreme	-10.8703
▁plea	-10.8705
aga	-10.8705
When	-10.8706
Level	-10.8712
▁kernel	-10.8712
▁subset	-10.8714
▁damages	-10.8715
▁\>	-10.8716
▁Microsoft	-10.8717
IX	-10.8718
▁instant	-10.8719
mul	-10.872
▁accordance	-10.8721
gun	-10.8721
▁seconds	-10.8722
▁crisis	-10.8723
▁amounts	-10.8725
^4	-10.8725
▁""	-10.8725
▁transcript	-10.8733
NN	-10.8734
▁61	-10.8734
:30	-10.8734
ith	-10.8737
▁thoughts	-10.8737
5.0	-10.8741
▁Page	-10.8741
▁rapidly	-10.8742
fo	-10.8742
Store	-10.8744
▁reward	-10.8744
dio	-10.8746
▁submitted	-10.8747
▁oral	-10.8749
bullet	-10.875
sql	-10.8752
▁categories	-10.8753
▁PS	-10.8755
▁Matt	-10.8755
▁Young	-10.8757
▁deviation	-10.8757
olo	-10.8759
-11-	-10.8759
▁token	-10.876
▁afternoon	-10.876
▁[1](#	-10.8762
▁driven	-10.8769
▁gall	-10.8775
▁99	-10.8777
▁MO	-10.8778
▁Den	-10.8778
▁monitor	-10.878
▁employ	-10.8781
cial	-10.8781
▁(4)	-10.8782
▁BE	-10.8783
▁Bas	-10.8784
dt	-10.8785
▁Journal	-10.8787
limits	-10.8789
▁hidden	-10.879
▁att	-10.8792
▁separated	-10.8795
force	-10.8796
_4	-10.8797
▁partition	-10.8798
morphism	-10.88
hole	-10.8801
▁wrt	-10.8801
ope	-10.8802
▁habit	-10.8802
▁originally	-10.8806
▁opportunities	-10.8807
home	-10.881
hm	-10.8811
▁tank	-10.8811
mathsf	-10.8812
▁ng	-10.8814
▁dinner	-10.8815
▁denote	-10.8815
Create	-10.8819
▁rely	-10.8819
▁nurse	-10.882
hard	-10.8822
▁prevalence	-10.8823
▁62	-10.8823
meta	-10.8825
▁km	-10.8826
2011	-10.8827
▁essentially	-10.8829
PG	-10.8829
_{1	-10.8831
▁Back	-10.8831
▁Luc	-10.8833
▁climb	-10.8833
▁reader	-10.8833
▁quiet	-10.8837
kel	-10.8843
▁Light	-10.8844
▁shooting	-10.8845
come	-10.8845
▁bind	-10.8848
▁Ann	-10.8849
ively	-10.8854
▁Non	-10.8854
▁medication	-10.8856
▁fund	-10.8859
▁commit	-10.8865
▁screening	-10.8866
▁respective	-10.8868
▁sorry	-10.8869
VM	-10.887
^0	-10.887
▁marketing	-10.8871
front	-10.8876
▁implemented	-10.8877
▁algebra	-10.8877
cata	-10.8881
▁mirror	-10.8881
▁hum	-10.8883
▁Still	-10.8885
sten	-10.8885
ocytes	-10.8885
apped	-10.8887
▁assault	-10.8889
txt	-10.889
▁excited	-10.8891
▁pad	-10.8894
▁correctly	-10.8894
▁ANY	-10.89
ulate	-10.8901
▁emergency	-10.8903
▁Age	-10.8903
Dis	-10.8903
▁Similarly	-10.8903
android	-10.8906
disp	-10.8908
▁wonderful	-10.891
oop	-10.8911
▁encourage	-10.8912
▁matters	-10.8915
linux	-10.8916
she	-10.8918
▁Tro	-10.8919
▁exhaust	-10.8922
▁shoot	-10.8925
]),	-10.8927
▁Iraq	-10.8929
▁stages	-10.8931
Current	-10.8932
▁11.	-10.8933
vit	-10.8934
▁dust	-10.8935
hang	-10.8935
▁dar	-10.8937
▁lift	-10.8941
din	-10.8945
des	-10.8945
▁starts	-10.8946
^-	-10.895
gathered	-10.8951
8]	-10.8953
public	-10.8954
eva	-10.8954
▁Bro	-10.8957
dem	-10.8957
▁Gro	-10.8958
▁newspaper	-10.8964
tory	-10.8965
▁2](#	-10.8966
▁numerical	-10.8966
▁strains	-10.8967
▁Following	-10.897
▁argued	-10.8973
▁suspect	-10.8973
▁Sign	-10.8974
▁Master	-10.8976
uda	-10.8977
then	-10.8978
hin	-10.8979
▁www	-10.898
▁boost	-10.8981
▁kid	-10.8981
Start	-10.8985
▁Author	-10.8987
▁MI	-10.8988
▁Description	-10.8989
▁####	-10.899
ivo	-10.8991
politi	-10.8991
▁Ram	-10.8992
▁kit	-10.8994
▁worst	-10.8996
1.2	-10.8996
▁Round	-10.8998
Page	-10.9003
▁locations	-10.9004
▁======	-10.9005
OW	-10.9006
▁dual	-10.9007
▁domestic	-10.9008
▁Pla	-10.9009
▁Object	-10.9011
▁maintenance	-10.9014
7*	-10.9018
▁pipe	-10.9019
▁Ve	-10.9019
Select	-10.9021
crea	-10.9021
RY	-10.9023
Output	-10.9023
▁1994	-10.9027
▁85	-10.9028
=1$	-10.9028
▁slide	-10.903
▁contributions	-10.903
▁refused	-10.9031
titu	-10.9033
▁ancient	-10.9034
120	-10.9036
▁Ang	-10.9037
▁resist	-10.9038
▁organizations	-10.9038
itu	-10.9038
{1}{2}	-10.9044
▁facilities	-10.9044
▁forming	-10.9045
32_	-10.9048
▁Club	-10.9048
AST	-10.905
▁decline	-10.9052
printf	-10.9053
▁ultimately	-10.9055
venue	-10.9055
ego	-10.9057
▁Clinton	-10.9057
aki	-10.906
▁Collect	-10.9061
▁west	-10.9061
▁Women	-10.9062
▁Philip	-10.9064
▁trick	-10.9066
▁spectra	-10.9067
[]{	-10.9069
cio	-10.9069
▁Australian	-10.9071
Column	-10.9072
ended	-10.9075
URL	-10.908
erman	-10.9081
▁stat	-10.9081
▁posted	-10.9083
▁pocket	-10.9084
-001	-10.9086
^{2	-10.9087
▁tape	-10.9088
rep	-10.9088
------------	-10.9094
2010	-10.9096
▁finger	-10.9102
▁apartment	-10.9104
▁businesses	-10.9105
▁ON	-10.9107
▁Development	-10.9109
}|	-10.9112
▁crucial	-10.9114
▁tasks	-10.9117
1]\].	-10.9119
support	-10.9121
▁authorities	-10.9122
▁sand	-10.9123
▁ticket	-10.9125
ois	-10.9126
Exp	-10.9127
say	-10.9128
▁integration	-10.9128
▁paint	-10.9128
▁obviously	-10.913
▁helpful	-10.9133
ides	-10.9137
▁spending	-10.9137
Override	-10.9137
potent	-10.9138
▁afford	-10.9142
▁pos	-10.9143
▁helps	-10.9146
▁copyright	-10.9149
▁directory	-10.915
GET	-10.9152
▁User	-10.9155
▁Game	-10.9155
_1\	-10.9156
▁cable	-10.9157
▁Attorney	-10.9161
tech	-10.9165
▁78	-10.9165
▁Sen	-10.9166
aa	-10.9166
▁intelligence	-10.9167
▁valve	-10.917
eration	-10.9173
ander	-10.9174
▁bowl	-10.9174
Thread	-10.9176
▁Cur	-10.9177
(1,	-10.9178
▁approval	-10.9179
Sp	-10.9181
▁Did	-10.9182
▁Royal	-10.9187
lex	-10.9188
ages	-10.919
▁============	-10.919
▁photos	-10.9191
▁theorem	-10.9191
▁pilot	-10.9196
tron	-10.9197
▁consequences	-10.9199
▁depression	-10.9199
▁chose	-10.9201
Up	-10.9206
vector	-10.9206
used	-10.9207
▁Rose	-10.921
Col	-10.9212
rl	-10.9216
emi	-10.9217
▁Call	-10.9222
▁implant	-10.9222
ured	-10.9226
▁expand	-10.9228
▁battery	-10.9229
▁Mike	-10.923
filter	-10.923
Ref	-10.923
▁77	-10.9231
▁2020	-10.9232
Location	-10.9233
▁younger	-10.9235
mont	-10.9235
▁endo	-10.9236
▁Several	-10.9236
▁instruction	-10.9237
▁<!--	-10.9238
▁encoding	-10.9238
9%	-10.9241
lac	-10.9242
query	-10.9243
▁silver	-10.9243
Form	-10.9244
▁universal	-10.9245
▁neighborhood	-10.9246
awn	-10.9251
bold	-10.9251
=1}^	-10.9256
▁acquired	-10.9258
obj	-10.9259
NET	-10.926
▁norm	-10.9262
▁targets	-10.9263
”.	-10.9263
ried	-10.9263
▁Boston	-10.9264
})\	-10.9265
▁carefully	-10.9265
▁Place	-10.9267
raz	-10.9267
▁fly	-10.927
▁theoretical	-10.9273
▁magazine	-10.9277
▁url	-10.9278
▁Team	-10.9279
▁miss	-10.928
▁planned	-10.9281
]\	-10.9282
▁Daniel	-10.9283
▁updated	-10.9283
Net	-10.9285
▁accounts	-10.9286
▁Media	-10.9288
EF	-10.9288
▁transferred	-10.9288
▁gu	-10.9288
▁remark	-10.929
bed	-10.9291
5,000	-10.9291
tmp	-10.9294
▁LA	-10.9295
▁experiences	-10.9297
▁{}	-10.9302
enter	-10.9304
▁youth	-10.9304
▁adopt	-10.9306
arc	-10.9308
▁400	-10.9308
-08-	-10.9309
draw	-10.9309
▁journal	-10.9311
▁colon	-10.9313
▁attitude	-10.9315
▁Catholic	-10.9318
▁retain	-10.9318
▁separation	-10.9319
▁constitutional	-10.932
▁Java	-10.9321
▁govern	-10.9322
▁ga	-10.9322
}}}$	-10.9324
MAP	-10.9326
▁blind	-10.933
▁Middle	-10.9335
▁insert	-10.934
▁ruling	-10.9342
\_[	-10.9343
▁enemy	-10.9345
utor	-10.9345
▁setup	-10.9347
▁74	-10.9348
▁applying	-10.9349
▁Sur	-10.9349
▁architecture	-10.935
▁como	-10.935
cons	-10.9351
append	-10.9351
output	-10.9351
▁operators	-10.9352
▁county	-10.9352
▁Special	-10.9355
▁12.	-10.9358
▁grid	-10.9361
700	-10.9362
=2	-10.9364
▁enzyme	-10.9364
NG	-10.9365
▁Hal	-10.9366
▁Iran	-10.9367
wick	-10.9369
▁BY	-10.937
cycl	-10.937
Script	-10.937
▁burn	-10.9381
▁Right	-10.9382
Build	-10.9384
▁ME	-10.9384
▁extensive	-10.9387
▁bin	-10.9387
▁Perhaps	-10.9388
▁orders	-10.939
ites	-10.939
-1,	-10.9391
▁Jackson	-10.9392
▁Sec	-10.9392
had	-10.9393
▁Met	-10.9396
▁1993	-10.9397
neq	-10.9397
110	-10.9401
Util	-10.9401
▁Application	-10.9403
Go	-10.9405
ATE	-10.9407
-12-	-10.9409
GS	-10.9411
1000	-10.9412
▁guidelines	-10.9414
▁thickness	-10.9415
▁facilitate	-10.9418
▁crew	-10.9419
ogenic	-10.9419
mas	-10.942
wel	-10.942
▁bacteria	-10.9422
▁2:	-10.9422
▁HD	-10.9422
positive	-10.9423
ifies	-10.9423
xc	-10.9425
▁raw	-10.9426
oph	-10.9428
▁Network	-10.9428
Address	-10.9429
▁principles	-10.9432
ela	-10.9433
▁totally	-10.9433
▁lies	-10.9437
▁las	-10.944
▁deaths	-10.9443
ality	-10.9443
Controller	-10.9446
▁Fire	-10.9448
▁Ten	-10.9449
▁sm	-10.945
▁69	-10.945
▁helping	-10.9451
defined	-10.9451
▁requested	-10.9452
(0	-10.9453
▁align	-10.9454
▁Lar	-10.9454
▁disorders	-10.9455
▁sto	-10.9455
▁1992	-10.9458
AY	-10.9458
"),	-10.9463
▁wh	-10.9465
GM	-10.9467
▁injuries	-10.9468
}}}}	-10.9471
method	-10.9476
luc	-10.9477
▁diagnostic	-10.9479
▁destroy	-10.9479
▁Jewish	-10.948
{{{\	-10.9481
▁candidates	-10.9484
▁inhibit	-10.9485
▁reporter	-10.9486
abil	-10.9486
▁Christmas	-10.949
▁Spanish	-10.9491
▁settlement	-10.9491
150	-10.9493
▁Bell	-10.9494
▁FROM	-10.9496
1.9	-10.9497
▁eating	-10.95
ueen	-10.95
CK	-10.95
▁participate	-10.9502
▁artist	-10.9506
One	-10.9506
▁Rep	-10.9507
▁Joseph	-10.951
▁engaged	-10.9512
DH	-10.9513
column	-10.9514
▁Total	-10.9514
▁Ol	-10.9517
Mar	-10.952
rian	-10.952
qquad	-10.9523
MAX	-10.9526
▁edges	-10.9527
▁Stra	-10.9528
▁Secretary	-10.9528
▁correspond	-10.9529
atomic	-10.9529
3.3	-10.9537
interrupt	-10.9538
▁7*	-10.9538
}.$$	-10.9538
▁fil	-10.9539
({	-10.9539
ova	-10.9541
eau	-10.9541
▁Britain	-10.9541
▁mess	-10.9542
{2}	-10.9547
buffer	-10.9547
▁compete	-10.955
Comp	-10.9552
pho	-10.9553
▁Play	-10.9553
8]\].	-10.9553
▁Donald	-10.9553
▁merit	-10.9557
activ	-10.9557
▁calculate	-10.9558
▁Create	-10.9558
ema	-10.9558
▁cohort	-10.956
▁admission	-10.9561
pol	-10.9562
▁Example	-10.9564
ona	-10.9565
▁tough	-10.9565
▁teach	-10.9567
▁comfort	-10.9567
▁spectral	-10.9569
▁logic	-10.9569
jun	-10.9571
ambi	-10.9573
▁Fo	-10.9573
▁fairly	-10.9574
▁Ven	-10.9577
▁tumors	-10.9577
eno	-10.9583
oni	-10.9584
GO	-10.9585
HD	-10.9585
zero	-10.9591
111	-10.9592
Car	-10.9593
▁cas	-10.9593
▁prohibit	-10.9593
▁weapons	-10.9594
▁RA	-10.9595
mobil	-10.9599
109	-10.9599
ean	-10.9599
mond	-10.9605
▁Pu	-10.9605
grav	-10.9607
▁answered	-10.9609
▁View	-10.961
▁Services	-10.961
▁industrial	-10.9611
▁sqrt	-10.9612
3/	-10.9612
▁suffer	-10.9613
▁Number	-10.9615
▁reporting	-10.9617
▁east	-10.9618
Options	-10.9622
▁spec	-10.9623
sti	-10.9625
pression	-10.9626
▁normally	-10.9626
▁PE	-10.9628
complete	-10.9631
CN	-10.9633
mL	-10.9636
▁suppose	-10.9636
▁Analysis	-10.9638
env	-10.964
||	-10.9643
lle	-10.9643
▁Standard	-10.9643
Char	-10.9645
▁8,	-10.965
handler	-10.9651
PRO	-10.9656
▁pathways	-10.9656
month	-10.9657
▁Run	-10.9659
roid	-10.966
▁projection	-10.9661
▁songs	-10.9661
nda	-10.9663
▁reg	-10.9667
-23	-10.9669
phe	-10.967
....	-10.967
ERS	-10.9671
▁leadership	-10.9672
▁Music	-10.9676
scope	-10.9676
▁proliferation	-10.9676
▁Mill	-10.9676
)}\	-10.9676
▁declare	-10.9677
▁respondent	-10.968
reference	-10.9685
▁eine	-10.9687
▁liability	-10.9689
▁1/2	-10.9692
▁pod	-10.9692
oxid	-10.9697
▁Carolina	-10.9698
▁critic	-10.9698
apping	-10.9699
▁complicated	-10.9699
foot	-10.97
▁performing	-10.9701
▁Para	-10.9701
python	-10.9703
▁1$	-10.9704
nan	-10.9705
▁saving	-10.9705
fd	-10.9705
2.6	-10.9706
lement	-10.9706
project	-10.971
▁hat	-10.9715
lies	-10.9717
▁solar	-10.9717
▁rush	-10.9721
plication	-10.9723
▁tradition	-10.9725
ht	-10.9725
▁correlated	-10.9725
▁decade	-10.9726
▁polar	-10.9726
▁10^	-10.9727
▁broke	-10.9731
▁-10	-10.9732
▁curves	-10.9737
▁Wa	-10.9741
-04	-10.9741
▁cutting	-10.9742
▁Wil	-10.9742
Header	-10.9744
lv	-10.9746
AI	-10.9746
Op	-10.9746
▁valuable	-10.975
PCR	-10.9751
▁transcription	-10.9751
▁happening	-10.9753
▁simulation	-10.976
▁mat	-10.9763
▁conservative	-10.9763
▁Democratic	-10.9763
▁viral	-10.9763
▁password	-10.9765
▁Mari	-10.9766
▁packet	-10.9767
astro	-10.977
VP	-10.9771
USE	-10.9772
chin	-10.9774
Short	-10.9774
3]\].	-10.9775
emphasis	-10.9775
/8	-10.9775
EST	-10.9777
static	-10.9777
▁cars	-10.9779
▁drain	-10.9781
stru	-10.9782
▁facility	-10.9782
update	-10.9782
▁hadn	-10.9784
▁killing	-10.9785
>0$	-10.9785
ouch	-10.9786
REG	-10.9793
eek	-10.9793
▁folder	-10.9797
▁tells	-10.98
▁prepare	-10.9802
plane	-10.9803
Operation	-10.9804
Token	-10.9822
9]\].	-10.9824
hold	-10.9825
NK	-10.9827
▁hell	-10.9828
Length	-10.9829
][	-10.9831
ECT	-10.9832
▁semiconductor	-10.9832
▁producing	-10.9833
tta	-10.9833
AU	-10.9834
▁equally	-10.9834
schema	-10.9835
▁config	-10.9837
▁icon	-10.9838
▁wearing	-10.9839
▁engineer	-10.9841
▁subsequently	-10.9842
dx	-10.9844
lab	-10.9845
▁aside	-10.9845
▁substantially	-10.9847
kov	-10.9848
▁purchased	-10.9848
DO	-10.985
ops	-10.9851
▁Local	-10.9853
mile	-10.9854
▁sharing	-10.9859
-05	-10.986
Vector	-10.9861
auto	-10.9861
▁dogs	-10.9862
▁consequence	-10.9866
..."	-10.9867
aud	-10.9867
▁insulin	-10.9869
▁differentiation	-10.987
▁ourselves	-10.987
▁5-	-10.9872
]:	-10.9872
PAR	-10.9874
▁mapping	-10.9875
▁legs	-10.9876
▁Form	-10.9877
Byte	-10.9877
volution	-10.9878
▁Cross	-10.9879
▁perfectly	-10.9884
▁Start	-10.9886
lis	-10.9887
rule	-10.9889
organ	-10.9891
construct	-10.9893
▁2.5	-10.9894
▁Mus	-10.9896
shore	-10.9899
inch	-10.9906
etter	-10.9909
▁shadow	-10.9909
▁antigen	-10.9911
▁cognitive	-10.9911
ago	-10.9912
▁ER	-10.9914
▁attempts	-10.9916
▁3)	-10.9919
▁regional	-10.992
eli	-10.9925
how	-10.9927
▁documentation	-10.9928
▁intermediate	-10.9931
▁adjacent	-10.9933
▁10,	-10.9934
▁Adv	-10.9936
▁increasingly	-10.9937
▁Civil	-10.9937
▁76	-10.9939
▁HE	-10.9939
▁fee	-10.994
Activity	-10.9941
▁Ohio	-10.9942
imp	-10.9942
▁Tor	-10.9943
thm	-10.9943
UD	-10.995
▁corporation	-10.9951
child	-10.9952
▁steel	-10.9954
▁somewhere	-10.9959
▁Nov	-10.9961
▁broadcast	-10.9963
▁revenue	-10.9963
take	-10.9964
▁winning	-10.9965
▁cyto	-10.9965
adi	-10.9966
▁Dun	-10.9967
▁bars	-10.9968
solution	-10.997
4\	-10.9971
▁suffered	-10.9971
dding	-10.9971
Tr	-10.9971
strong	-10.9974
▁mill	-10.9977
2019	-10.998
▁reviewed	-10.9985
▁Est	-10.9988
azz	-10.9989
trial	-10.9989
structure	-10.999
3.2	-10.9991
▁Appeals	-10.9991
TL	-10.9991
▁temperatures	-10.9992
rand	-10.9995
▁courts	-10.9995
▁Mass	-10.9999
▁kan	-10.9999
▁reliable	-11.0002
help	-11.0003
alloc	-11.0004
▁10%	-11.0007
▁Android	-11.0009
lm	-11.001
▁lipid	-11.0011
▁sport	-11.0011
▁Amendment	-11.0011
Web	-11.0015
▁Korea	-11.0015
}}^{	-11.0016
click	-11.0018
▁lit	-11.002
stan	-11.0023
▁Wall	-11.0026
▁illness	-11.0027
▁73	-11.0027
ugg	-11.0029
▁PRO	-11.0033
linear	-11.0033
▁50%	-11.0035
rom	-11.0036
4]	-11.0036
URE	-11.0037
▁delete	-11.0039
▁dependence	-11.004
*]{},	-11.0041
▁mas	-11.0041
▁remind	-11.0043
▁registered	-11.0045
▁peer	-11.0047
device	-11.0049
▁Unfortunately	-11.005
▁Town	-11.0051
onia	-11.0051
member	-11.0056
]{},	-11.0056
▁arrested	-11.0056
▁Business	-11.0057
aged	-11.0059
pur	-11.006
Why	-11.006
________________	-11.0061
GB	-11.0062
▁Italy	-11.0064
▁progression	-11.0064
}+\	-11.0067
▁84	-11.0067
▁DM	-11.0068
▁infected	-11.0069
Sample	-11.0071
lapse	-11.0072
zu	-11.0072
▁Pri	-11.0073
▁markers	-11.0074
▁fault	-11.0074
makers	-11.0074
fire	-11.0077
▁miR	-11.0083
RD	-11.0084
sey	-11.0085
▁Chris	-11.0089
2.7	-11.0091
▁$|	-11.0093
▁ends	-11.0093
([	-11.0095
▁bringing	-11.0098
LR	-11.0098
viruses	-11.0099
▁soldiers	-11.0104
{}	-11.0105
API	-11.0106
▁-8	-11.0108
lap	-11.0111
▁copies	-11.0116
▁suffering	-11.0117
▁vaccine	-11.0118
▁laboratory	-11.012
Yeah	-11.0121
▁vehicles	-11.0126
▁mutation	-11.0129
▁bulk	-11.0129
aine	-11.013
ution	-11.014
▁Edward	-11.0141
ILL	-11.0141
Layout	-11.0142
ados	-11.0143
▁excess	-11.0144
▁spaces	-11.0149
lop	-11.0153
▁collect	-11.0154
.^[@	-11.0154
▁contest	-11.0154
▁hydrogen	-11.0155
▁addressed	-11.0158
▁71	-11.0159
TV	-11.0159
▁Design	-11.0161
▁msgid	-11.0162
▁attempted	-11.0164
(6)	-11.0164
▁graduate	-11.0166
▁Angeles	-11.0166
bling	-11.0167
▁loose	-11.0168
wedge	-11.017
uce	-11.0171
▁Sil	-11.0173
▁$(\	-11.0175
trivial	-11.0175
ANT	-11.0177
▁Alex	-11.0181
▁Del	-11.0188
▁1991	-11.0191
▁approximation	-11.0192
001){	-11.0193
prefix	-11.0195
▁answers	-11.0197
CON	-11.0198
ND	-11.02
cious	-11.0201
FO	-11.0202
Scale	-11.0203
AMP	-11.0204
▁SM	-11.0205
cient	-11.021
Ne	-11.0211
Fe	-11.0213
▁Value	-11.0213
OX	-11.0214
▁evil	-11.0216
▁petitioner	-11.0216
ounce	-11.0219
▁academic	-11.0219
rent	-11.0221
▁SU	-11.0222
rage	-11.0224
7.5	-11.0225
▁lots	-11.0231
▁replied	-11.0233
▁statistics	-11.024
▁usage	-11.024
147	-11.0241
▁roof	-11.0241
_0^	-11.0241
▁silence	-11.0242
PF	-11.0242
▁Pen	-11.0242
▁gel	-11.0243
▁110	-11.0245
▁Fer	-11.0246
Spec	-11.0247
4.1	-11.0248
nucleotide	-11.0249
▁ordinary	-11.0249
▁dealing	-11.025
▁Mat	-11.0251
▁gradient	-11.0251
▁wage	-11.0251
▁til	-11.0253
▁storm	-11.0253
▁guarantee	-11.0255
▁teacher	-11.0256
APP	-11.0258
awa	-11.0261
▁Has	-11.0262
IVE	-11.0264
▁producer	-11.0266
tw	-11.027
▁infinite	-11.0272
scribe	-11.0272
horn	-11.0273
▁twist	-11.0274
▁notion	-11.0275
▁Es	-11.0276
atur	-11.0278
ifi	-11.0279
lemma	-11.028
abb	-11.028
HP	-11.0282
▁dedicated	-11.0283
century	-11.0287
▁Date	-11.0287
▁cache	-11.0288
▁classic	-11.0288
far	-11.029
dynamic	-11.029
make	-11.0293
azi	-11.0293
▁counts	-11.0294
Pop	-11.0295
▁coupled	-11.0297
▁9,	-11.0297
▁silent	-11.0298
▁submit	-11.0301
1"	-11.0301
Per	-11.0302
▁surprised	-11.0304
▁resolve	-11.0305
195	-11.0307
▁Ken	-11.0308
Configuration	-11.0309
▁Boy	-11.031
icular	-11.031
currency	-11.0312
▁volunteer	-11.0315
dist	-11.0316
▁Constitution	-11.0317
)+	-11.0318
▁bundle	-11.0319
▁hide	-11.0319
etting	-11.032
▁proceedings	-11.032
Device	-11.0324
▁institutions	-11.0325
ESS	-11.0326
▁introduction	-11.0328
▁contributed	-11.033
anna	-11.0331
▁typedef	-11.0332
▁pushed	-11.0334
▁tre	-11.0336
▁simulations	-11.0336
▁dismiss	-11.0337
uf	-11.0339
▁receiver	-11.034
ground	-11.034
▁jet	-11.034
▁buildings	-11.034
GFP	-11.034
▁YOU	-11.0341
ridge	-11.0343
yan	-11.0343
▁suppress	-11.0345
ordin	-11.0346
▁NC	-11.0346
▁representing	-11.0347
▁loud	-11.0348
▁Factor	-11.0348
▁tall	-11.0348
asi	-11.0354
▁afraid	-11.0354
▁hy	-11.0355
rv	-11.0355
master	-11.0356
▁edition	-11.0357
▁owned	-11.0362
▁aircraft	-11.0363
1$	-11.0364
▁Cap	-11.0364
▁university	-11.0366
▁Six	-11.037
cycle	-11.0371
Ab	-11.0371
SELECT	-11.0373
▁Support	-11.0374
▁react	-11.0376
▁cre	-11.0376
Bo	-11.0376
alia	-11.0377
▁plenty	-11.0377
shaped	-11.0378
"}),	-11.038
▁demo	-11.0382
icate	-11.0383
ters	-11.0385
graphic	-11.0385
though	-11.0386
▁migration	-11.0389
▁teeth	-11.039
bc	-11.0391
▁begins	-11.0392
1.4	-11.0392
▁SN	-11.0392
Tree	-11.0395
▁alive	-11.0396
XML	-11.0399
Comm	-11.04
quin	-11.0402
▁Jim	-11.0402
_1,\	-11.0402
dash	-11.0405
▁cardiac	-11.0406
▁butter	-11.0407
callback	-11.0407
▁nearby	-11.0408
1\]	-11.0408
▁hardware	-11.0411
▁induction	-11.0412
AGE	-11.0412
▁coefficients	-11.0415
▁thereof	-11.0418
▁GL	-11.0424
▁>=	-11.0425
▁statistically	-11.0433
:0	-11.044
Import	-11.0442
▁recipe	-11.0442
▁MD	-11.0444
▁owners	-11.0447
treated	-11.045
lusion	-11.0451
▁Fox	-11.0453
▁orientation	-11.0455
gie	-11.0456
▁lattice	-11.0459
params	-11.046
▁manufacturing	-11.0461
FD	-11.0463
IE	-11.0464
▁1970	-11.0464
6]\].	-11.0464
igen	-11.0466
▁rounded	-11.0467
135	-11.0467
▁provisions	-11.0471
**2.	-11.0472
▁stimulation	-11.0472
▁momentum	-11.0472
▁launched	-11.0474
▁comfortable	-11.0475
edge	-11.0475
▁regardless	-11.0477
care	-11.048
]{}]{}	-11.0481
▁giant	-11.0481
lane	-11.0481
oh	-11.0482
▁11,	-11.0483
curr	-11.0485
▁composed	-11.0487
▁sampling	-11.0489
▁urban	-11.0489
“	-11.049
▁bull	-11.0493
example	-11.0493
>(	-11.0494
▁cop	-11.0494
▁Tim	-11.0496
tus	-11.0498
author	-11.0499
▁Kat	-11.0499
plan	-11.0499
jan	-11.05
▁alert	-11.05
▁powder	-11.0503
▁foundation	-11.0504
▁obligation	-11.0505
▁preference	-11.0505
▁acids	-11.0505
eral	-11.0505
▁chicken	-11.0507
than	-11.0512
▁wir	-11.0513
▁Determine	-11.0516
▁dozen	-11.0518
▁kinase	-11.0518
▁calculation	-11.0518
▁fur	-11.0521
▁ease	-11.0522
▁execution	-11.0524
▁grain	-11.0525
stin	-11.0527
▁ultra	-11.0527
▁anywhere	-11.0528
iden	-11.0528
▁analyze	-11.0528
▁Greek	-11.0528
Detail	-11.0529
▁Jersey	-11.053
126	-11.053
▁opposed	-11.0533
▁columns	-11.0533
edit	-11.0533
▁matches	-11.0536
▁compliance	-11.0537
▁experts	-11.0538
fix	-11.054
eux	-11.0541
▁Kim	-11.0542
▁Southern	-11.0543
"}](	-11.0544
▁smell	-11.0544
▁Son	-11.0547
▁difficulty	-11.0548
▁fingers	-11.055
▁contrary	-11.055
▁victory	-11.0551
)|	-11.0551
lated	-11.0553
▁universe	-11.0554
▁0.03	-11.0555
▁gear	-11.0557
▁Brad	-11.0559
▁hill	-11.0559
000000	-11.056
mut	-11.0561
▁passenger	-11.057
▁supports	-11.0572
▁stands	-11.0573
▁Live	-11.0576
▁efficacy	-11.0576
Out	-11.0578
▁NY	-11.058
onder	-11.0584
▁Harris	-11.0587
▁abundance	-11.0587
Br	-11.0592
▁div	-11.0593
▁computed	-11.0594
Flag	-11.0597
▁Asia	-11.0597
▁facing	-11.0597
▁satisfied	-11.0599
hap	-11.0599
▁modes	-11.06
▁disagree	-11.0601
▁pursuan	-11.0601
▁exploit	-11.0603
race	-11.0606
DATA	-11.0606
▁inhibitor	-11.0607
prec	-11.0609
▁79	-11.0609
float	-11.061
▁newly	-11.061
eman	-11.0612
▁Amazon	-11.0616
▁laid	-11.0623
▁situations	-11.0625
7){	-11.0627
-25	-11.0628
sponsor	-11.0628
copy	-11.0631
▁Des	-11.0633
▁stronger	-11.0635
▁phenotype	-11.0636
▁professor	-11.0636
▁Multi	-11.0636
greg	-11.064
▁staining	-11.0641
350	-11.0647
▁collapse	-11.0648
▁msgstr	-11.0651
▁GO	-11.0652
▁sufficiently	-11.0654
▁Prime	-11.0655
▁THIS	-11.0656
▁Micro	-11.0657
scroll	-11.0658
VC	-11.0658
▁regulations	-11.066
func	-11.066
glu	-11.066
|^2	-11.0664
eil	-11.0665
▁dimensions	-11.0667
ige	-11.0674
▁coefficient	-11.0674
▁radius	-11.0675
▁involvement	-11.0675
resistant	-11.0677
ronic	-11.0678
ARD	-11.0679
▁greatly	-11.068
wide	-11.0685
▁interior	-11.0692
=(	-11.0693
(4)	-11.0693
▁97	-11.0694
Valid	-11.0696
poli	-11.0696
▁atmosphere	-11.07
Olympic	-11.07
-30	-11.0705
▁mild	-11.0706
▁interpret	-11.071
ece	-11.0712
▁corresponds	-11.0715
▁glad	-11.0719
▁paying	-11.0719
▁spell	-11.0721
▁primer	-11.0722
Control	-11.0725
cmd	-11.0727
dar	-11.0729
▁Market	-11.0729
BE	-11.073
SK	-11.0734
wall	-11.0736
uan	-11.074
▁98	-11.0747
ICE	-11.0748
Factory	-11.075
▁moments	-11.075
Core	-11.075
▁enforcement	-11.0753
white	-11.0753
▁accused	-11.0753
req	-11.0753
▁arrive	-11.0754
▁technologies	-11.0755
▁88	-11.076
▁consumer	-11.076
ext	-11.0762
▁Yu	-11.0762
▁corporate	-11.0763
▁missed	-11.0765
0%)	-11.0766
▁selling	-11.0767
omi	-11.0768
').	-11.0773
▁cream	-11.0777
metric	-11.0778
▁unusual	-11.0778
craft	-11.078
tum	-11.0783
LED	-11.0785
117	-11.0787
▁rows	-11.0787
▁Ste	-11.0791
▁applies	-11.0793
▁diversity	-11.0794
multi	-11.0796
▁evident	-11.0798
▁arbitrary	-11.0799
▁assignment	-11.08
▁frequent	-11.08
2\]	-11.08
▁AP	-11.0801
som	-11.0801
_2)	-11.0801
cord	-11.0802
▁1.1	-11.0802
▁inflammatory	-11.0805
Supp	-11.0808
!!	-11.0809
LV	-11.0812
▁winner	-11.0813
underline	-11.0813
anim	-11.0814
Ho	-11.0814
1.3	-11.0816
citation	-11.0817
Option	-11.0819
▁measuring	-11.082
▁requests	-11.0824
▁clothes	-11.0829
ception	-11.0829
Channel	-11.083
▁opposition	-11.0831
▁Fund	-11.0832
TEM	-11.0833
▁variance	-11.0833
olic	-11.0834
▁papers	-11.0834
▁implied	-11.0836
▁basically	-11.0836
▁engage	-11.0838
▁calculations	-11.0838
▁reactions	-11.084
▁complications	-11.0842
▁studio	-11.0843
atric	-11.0845
▁Bru	-11.0845
trop	-11.0847
▁administrative	-11.085
▁creative	-11.0853
▁Methods	-11.0853
)^	-11.0855
\]),	-11.0855
game	-11.0858
▁satisfy	-11.0859
▁Discussion	-11.0859
fit	-11.086
7]\].	-11.0861
tho	-11.0863
-06	-11.0864
bri	-11.0864
ily	-11.0865
9*	-11.0868
2.8	-11.0868
▁clusters	-11.087
▁horizontal	-11.0873
▁hip	-11.0873
▁requiring	-11.0873
▁proud	-11.0873
▁Democrats	-11.0875
▁AC	-11.0876
▁Turn	-11.0878
[3]	-11.0886
▁lesions	-11.0888
Param	-11.0891
Living	-11.0893
170	-11.0901
▁inflammation	-11.0901
▁1.2	-11.0903
chrom	-11.0904
▁considerable	-11.0906
▁Ban	-11.0907
▁thirty	-11.0907
▁robust	-11.0907
tiv	-11.0908
▁bacterial	-11.0909
crat	-11.091
▁bread	-11.0918
▁Bla	-11.0918
.**	-11.0924
▁tiny	-11.0925
lg	-11.0926
▁Sk	-11.0926
Background	-11.0928
hur	-11.0929
▁mus	-11.0931
cb	-11.0933
/12	-11.0933
Link	-11.0934
▁fails	-11.0937
002){	-11.094
▁programming	-11.0942
▁Technology	-11.0943
101	-11.0946
▁[2](#	-11.0947
▁elected	-11.0948
▁87	-11.0948
compile	-11.0949
2009	-11.0949
_1(	-11.0952
▁contents	-11.0952
▁Whether	-11.0953
Check	-11.0954
▁inclusion	-11.0955
▁URL	-11.0957
▁compensation	-11.0957
▁grave	-11.0958
▁lesson	-11.0958
▁breaking	-11.0959
oso	-11.096
▁privilege	-11.0961
▁Andrew	-11.0961
▁peripheral	-11.0963
▁indicator	-11.0965
▁nest	-11.0967
loss	-11.0968
▁western	-11.0969
▁92	-11.0969
▁excluded	-11.0969
Body	-11.0969
▁Change	-11.0969
Inter	-11.0971
▁assets	-11.0974
cou	-11.0974
▁disclosed	-11.0975
▁Major	-11.0975
▁telephone	-11.0976
0.000	-11.0977
▁adequate	-11.0978
Print	-11.0978
360	-11.0985
fici	-11.0985
▁involve	-11.0986
▁apoptosis	-11.0987
Connection	-11.0993
▁pseudo	-11.0993
Can	-11.0994
hydroxy	-11.0995
▁Nu	-11.0995
TIME	-11.0999
clo	-11.1002
3.4	-11.1002
▁rid	-11.1002
▁commitment	-11.1005
▁feels	-11.1005
\}	-11.1007
asse	-11.1008
▁losing	-11.1009
▁Try	-11.101
▁phrase	-11.1011
▁beach	-11.1011
▁forum	-11.1013
▁ein	-11.1015
▁um	-11.1016
▁profiles	-11.1017
Equal	-11.1021
Origin	-11.1022
3\	-11.1023
rade	-11.1025
▁regulatory	-11.1025
▁trained	-11.1026
▁faces	-11.1027
)^2	-11.103
▁quantity	-11.103
▁Der	-11.1032
6}	-11.1032
▁quantitative	-11.1034
▁complexity	-11.1034
RES	-11.1036
10.1	-11.1037
▁Wilson	-11.1038
▁ignore	-11.104
▁SI	-11.104
$$\	-11.1041
▁kiss	-11.1041
▁intake	-11.1041
GR	-11.1042
▁Again	-11.1043
Session	-11.1043
▁Version	-11.1044
▁reflection	-11.1044
999	-11.1044
rive	-11.1052
▁gauge	-11.1052
▁painting	-11.1054
ulp	-11.1055
▁combine	-11.1059
Builder	-11.1059
▁careful	-11.1062
▁classified	-11.1062
▁Kit	-11.1063
▁saved	-11.1068
▁grounds	-11.1068
▁entity	-11.1069
▁comme	-11.1069
▁precisely	-11.107
','	-11.107
▁coll	-11.1073
week	-11.1075
▁incubated	-11.1076
menu	-11.1077
aught	-11.1084
▁somehow	-11.1085
▁upgrade	-11.109
▁checked	-11.1094
▁talked	-11.1094
▁taught	-11.1095
016	-11.1095
▁&=&	-11.1096
turb	-11.1097
▁Francisco	-11.1098
una	-11.1098
Cell	-11.11
▁sending	-11.1101
▁anxiety	-11.1107
▁taxes	-11.1108
[$	-11.1109
firm	-11.1109
▁"[	-11.1111
▁wherein	-11.1111
▁calm	-11.1112
▁TR	-11.1114
lio	-11.1115
amente	-11.1118
▁pregnancy	-11.1119
▁establishment	-11.1121
report	-11.1122
▁elevated	-11.1123
cock	-11.1127
▁[1	-11.1128
tics	-11.1132
DT	-11.1134
rob	-11.1134
cont	-11.1136
▁-9	-11.1137
▁89	-11.1137
Lock	-11.1139
▁polynomial	-11.1139
archive	-11.114
▁IT	-11.114
▁speaker	-11.1142
Height	-11.1142
127	-11.1143
▁Republic	-11.1146
iated	-11.1147
▁Arab	-11.1148
▁Valley	-11.1149
train	-11.1149
uro	-11.1151
nis	-11.1152
Listener	-11.1152
ault	-11.1154
▁Barr	-11.1158
▁renew	-11.1158
▁Patent	-11.1159
▁Tan	-11.116
▁Due	-11.1161
MRI	-11.1161
options	-11.1161
)^{	-11.1162
description	-11.1162
enable	-11.1163
020	-11.1166
aver	-11.1166
activity	-11.1169
▁grass	-11.117
▁holiday	-11.117
▁tension	-11.1171
▁loaded	-11.1172
▁rent	-11.1172
polar	-11.1174
▁Hard	-11.1176
145	-11.1176
▁liberal	-11.1177
▁EC	-11.1178
▁seriously	-11.1179
▁loading	-11.118
such	-11.1182
▁collective	-11.1183
▁covering	-11.1184
▁simultaneously	-11.1188
▁generator	-11.1188
119	-11.119
▁partially	-11.1194
3.6	-11.1196
▁91	-11.1197
▁smoking	-11.1199
▁lymph	-11.1199
IST	-11.1202
0$	-11.1202
▁pla	-11.1205
cie	-11.1205
▁busy	-11.1206
Expression	-11.1207
6){	-11.1209
▁$3	-11.1209
▁Study	-11.1217
▁victims	-11.1218
Module	-11.1219
WS	-11.122
▁marker	-11.1223
▁Count	-11.1225
▁mounted	-11.1226
idad	-11.1226
▁donor	-11.1226
ussi	-11.1228
▁kinds	-11.123
▁versions	-11.123
▁magnet	-11.1231
▁council	-11.1231
▁extracted	-11.1233
▁comprehensive	-11.1236
{2	-11.1236
▁propose	-11.1239
▁Head	-11.1242
▁galaxies	-11.1244
▁Pur	-11.1245
generation	-11.1247
▁selective	-11.1248
▁bat	-11.1249
triangle	-11.125
offset	-11.1252
▁comparable	-11.1252
▁Os	-11.1253
lder	-11.1254
▁receptors	-11.1254
144	-11.1256
▁Step	-11.1257
▁stores	-11.126
\|_{	-11.1261
▁symmetry	-11.1262
▁Tur	-11.1263
jack	-11.1269
ood	-11.1283
Single	-11.1284
▁14.	-11.1288
bottom	-11.1288
▁acknowledge	-11.1289
▁$10	-11.1289
▁flavor	-11.129
ether	-11.129
ario	-11.1291
▁celebrate	-11.1291
blue	-11.1291
▁surfaces	-11.1293
▁Space	-11.1298
▁Link	-11.1299
▁''	-11.1301
▁carcinoma	-11.1302
▁partners	-11.1303
wards	-11.1304
▁activated	-11.1304
▁handling	-11.1305
▁manufacture	-11.1305
▁Point	-11.1306
augh	-11.1306
▁targeted	-11.1308
ection	-11.1313
▁Update	-11.1316
what	-11.1317
KEY	-11.132
▁reserved	-11.1323
▁combat	-11.1324
desc	-11.1325
lower	-11.1328
▁mut	-11.1329
mathscr	-11.1331
Parent	-11.1332
▁appointed	-11.1334
itting	-11.1336
▁Taylor	-11.1339
▁retail	-11.1341
16)	-11.1342
▁metabolic	-11.1344
▁Mod	-11.1345
▁contra	-11.1345
dagger	-11.1346
▁3:	-11.1349
viv	-11.1351
psych	-11.1352
▁Wild	-11.1355
Open	-11.1357
▁Little	-11.1358
▁convey	-11.1358
ERROR	-11.1358
▁span	-11.1359
bigg	-11.136
protein	-11.1361
Right	-11.1362
}^\	-11.1364
including	-11.1364
▁beauty	-11.1364
pac	-11.1365
hem	-11.1367
▁promoter	-11.1367
▁Low	-11.1367
▁readers	-11.1369
▁coordinate	-11.137
▁variations	-11.1372
response	-11.1372
▁Having	-11.1377
▁101	-11.1378
▁Davis	-11.1381
-002	-11.1383
Direct	-11.1384
▁Third	-11.1385
▁joy	-11.1386
▁agencies	-11.1389
plus	-11.1393
▁250	-11.1393
▁destination	-11.1393
blank	-11.1395
▁photon	-11.1395
▁comparing	-11.1396
▁flood	-11.1396
corp	-11.1397
▁AF	-11.1398
▁Miller	-11.1398
▁streets	-11.1404
)}$	-11.1405
apple	-11.1406
NV	-11.1408
▁melt	-11.1408
Close	-11.1413
▁(“	-11.1414
▁PL	-11.1415
arity	-11.1415
gle	-11.1416
pose	-11.1416
00000	-11.1418
ival	-11.1418
ales	-11.1419
177	-11.1421
inder	-11.1423
▁naturally	-11.1423
▁commun	-11.1423
hou	-11.1425
migr	-11.1425
▁Global	-11.1426
▁Michigan	-11.1427
▁Ireland	-11.1427
▁94	-11.1428
▁legislation	-11.1432
▁Food	-11.1432
lide	-11.1432
Editor	-11.1435
1,2	-11.1437
phosphate	-11.1438
▁83	-11.1439
***	-11.1442
▁slot	-11.1443
break	-11.1443
therapy	-11.1443
▁perception	-11.1444
lier	-11.1445
▁Latin	-11.1447
▁weapon	-11.1447
▁Patients	-11.1448
imm	-11.145
▁cheese	-11.145
esh	-11.145
world	-11.1452
▁Error	-11.1454
▁vary	-11.1454
▁diverse	-11.1456
▁Without	-11.1459
track	-11.146
who	-11.1461
▁controlling	-11.1462
▁86	-11.1465
▁vessel	-11.1465
▁omitted	-11.1467
encies	-11.1469
attach	-11.147
▁falling	-11.1471
▁opt	-11.1472
▁ongoing	-11.1472
package	-11.1473
▁vital	-11.1474
amil	-11.1474
▁crop	-11.1475
shire	-11.1479
▁cancel	-11.148
▁Family	-11.148
▁CL	-11.148
_2}	-11.1481
push	-11.1488
cot	-11.149
enti	-11.1494
▁rising	-11.1495
OF	-11.1498
▁fraud	-11.1502
▁attribute	-11.1503
▁Georgia	-11.1503
0;	-11.1504
▁TH	-11.1505
▁renal	-11.1505
▁connections	-11.1506
▁metabolism	-11.1507
Definition	-11.1507
empty	-11.1508
▁Custom	-11.1509
▁Corporation	-11.1509
▁encounter	-11.1515
240	-11.1515
▁millions	-11.1516
▁gang	-11.1516
mph	-11.1518
ache	-11.152
▁infections	-11.152
eter	-11.1523
="#	-11.1524
▁breach	-11.1534
▁Sort	-11.1534
▁drinking	-11.1534
450	-11.1535
▁troops	-11.1535
endo	-11.1536
▁decreasing	-11.1537
▁regulate	-11.1537
▁Dam	-11.1537
rov	-11.1539
compress	-11.1541
▁Jr	-11.1543
)}{	-11.1545
▁namely	-11.1545
Account	-11.1548
▁kom	-11.1548
embl	-11.1549
screen	-11.1549
▁dys	-11.1551
▁creature	-11.1554
Impl	-11.1555
▁discrimination	-11.1558
▁hook	-11.1559
▁pointer	-11.1563
▁colors	-11.1564
▁reaching	-11.1564
▁nervous	-11.1564
900	-11.1566
▁12,	-11.1567
FU	-11.1567
cache	-11.1569
cision	-11.1571
lov	-11.1574
▁robot	-11.1575
▁drivers	-11.1576
▁Lan	-11.1578
▁BOOST	-11.1579
Release	-11.158
making	-11.158
dl	-11.1582
nell	-11.1586
axis	-11.1586
widget	-11.1586
▁Word	-11.1588
▁0.04	-11.1589
road	-11.1589
▁craft	-11.1591
▁kidney	-11.1593
▁GR	-11.1594
▁divisor	-11.1599
channel	-11.1599
stained	-11.1601
▁pleasure	-11.1601
▁obj	-11.1601
▁moves	-11.1604
access	-11.1605
uous	-11.1605
ethanol	-11.1606
isa	-11.1607
etal	-11.1607
▁outline	-11.1609
▁hardly	-11.1609
▁fifth	-11.1609
▁arranged	-11.161
▁statutory	-11.1614
”,	-11.1616
▁Museum	-11.1618
▁dominant	-11.1618
agan	-11.1619
▁distinguish	-11.162
▁struck	-11.1633
EXT	-11.1633
▁1.3	-11.1634
▁180	-11.1634
People	-11.1634
155	-11.1639
Ad	-11.164
▁infrastructure	-11.1641
250	-11.1642
:\	-11.1643
▁sail	-11.1643
enc	-11.1644
socket	-11.1645
▁detector	-11.1645
6.0	-11.1646
LU	-11.1648
▁competitive	-11.165
wal	-11.1652
grams	-11.1652
▁Management	-11.1654
▁Father	-11.1656
stack	-11.1656
!!!	-11.1662
Term	-11.1666
▁1.4	-11.1669
▁pursue	-11.167
kind	-11.1672
▁organized	-11.1676
▁Bush	-11.1677
▁roles	-11.168
=1}^{	-11.1682
▁Blo	-11.1684
▁Pass	-11.1684
▁Meanwhile	-11.1685
▁uintptr	-11.1685
oom	-11.1687
▁journalist	-11.1689
▁hybrid	-11.1694
COMM	-11.1694
asp	-11.1695
$]{}	-11.1695
▁overcome	-11.1696
▁blend	-11.1697
▁oxide	-11.1698
Width	-11.1698
▁Pal	-11.1699
▁responded	-11.1699
▁deserve	-11.17
125	-11.1705
▁1989	-11.1706
turn	-11.1706
▁absorption	-11.1706
UM	-11.1707
▁mad	-11.1707
1/4	-11.1708
▁HTML	-11.1709
▁captured	-11.171
Doc	-11.1711
2008	-11.1713
strict	-11.1713
▁Common	-11.1714
filename	-11.1715
SEC	-11.1716
▁psycho	-11.1719
▁Jeff	-11.1723
▁consisting	-11.1727
▁Member	-11.1727
tention	-11.1731
RAM	-11.1734
▁genuine	-11.1736
▁Fran	-11.1737
Com	-11.1737
▁births	-11.1738
▁progressive	-11.1738
▁Ash	-11.1738
▁privacy	-11.1739
▁Spain	-11.1739
_1)	-11.174
Instance	-11.1741
gov	-11.1742
▁Product	-11.1743
▁independently	-11.1744
5.5	-11.1748
cyclo	-11.1749
▁rejected	-11.175
Position	-11.175
invoke	-11.1752
▁constraints	-11.1754
▁resonance	-11.1756
▁Officer	-11.1756
▁boil	-11.1759
▁WT	-11.1759
▁injured	-11.176
rav	-11.1761
escence	-11.1764
phon	-11.1765
▁pig	-11.1766
hour	-11.1768
▁matching	-11.1768
het	-11.1768
ury	-11.1771
▁subgroup	-11.1771
▁whenever	-11.1774
▁Cla	-11.1776
▁"\	-11.178
▁vertex	-11.1781
▁Stat	-11.1781
▁bytes	-11.1781
▁Full	-11.1782
▁improving	-11.1782
129	-11.1782
▁communicate	-11.1784
▁southern	-11.1785
▁Look	-11.1786
:10	-11.1786
▁precise	-11.1786
124	-11.1788
▁invasion	-11.1789
▁shouldn	-11.1789
▁Saint	-11.1789
▁cited	-11.179
▁artists	-11.179
▁atoms	-11.179
green	-11.1791
Pointer	-11.1795
▁Jean	-11.1796
sample	-11.1799
▁defeat	-11.18
▁slight	-11.1802
iii	-11.1802
did	-11.1805
Stack	-11.1808
ride	-11.1809
▁assign	-11.181
▁installation	-11.181
▁adjusted	-11.1811
▁waves	-11.1811
▁![](	-11.1812
▁append	-11.1813
prob	-11.1813
effective	-11.1813
▁hang	-11.1814
▁strict	-11.1815
▁plates	-11.1816
▁payments	-11.1816
▁filing	-11.1817
▁orbit	-11.1819
2^	-11.182
▁adjustment	-11.182
▁restricted	-11.1821
▁sir	-11.1822
▁1983	-11.1823
▁cytokine	-11.1823
vention	-11.1824
arri	-11.1827
blo	-11.1829
▁lunch	-11.1829
▁Conclusion	-11.183
Debug	-11.183
1,000	-11.1833
▁AR	-11.1834
▁marks	-11.1835
license	-11.1836
▁females	-11.1836
▁antibiotic	-11.1839
▁bla	-11.184
<\	-11.1841
buck	-11.1843
cad	-11.1844
▁prisoner	-11.1845
▁embodiment	-11.1845
▁spiritual	-11.1846
▁blame	-11.1848
)$$	-11.1849
▁CON	-11.1849
▁Energy	-11.1852
▁sauce	-11.1855
▁specify	-11.1856
▁manifest	-11.1858
READ	-11.1859
6]	-11.1859
zone	-11.186
▁Asian	-11.1861
▁coin	-11.1865
fetch	-11.1868
▁Pot	-11.187
▁engineering	-11.1871
▁Cons	-11.1872
(5)	-11.1873
▁shout	-11.1875
▁Nevertheless	-11.1878
▁explicitly	-11.1878
▁behalf	-11.1878
▁males	-11.1878
mente	-11.1881
INE	-11.1883
▁Ill	-11.1884
door	-11.1884
pad	-11.1885
▁Sim	-11.1886
LINE	-11.1887
iser	-11.1889
domain	-11.1889
▁yields	-11.1891
&\	-11.1893
▁**(	-11.1896
▁Gre	-11.1898
▁"$	-11.1903
BT	-11.1906
issa	-11.1907
▁15,	-11.1908
▁93	-11.1908
▁machines	-11.1908
).$$	-11.1912
▁explicit	-11.1913
▁chat	-11.1914
OB	-11.1915
▁occurrence	-11.1918
▁corn	-11.1919
▁voters	-11.1921
Update	-11.1925
aya	-11.1928
▁Different	-11.1929
▁houses	-11.1932
▁Ob	-11.1936
▁stuck	-11.1937
trip	-11.1937
onym	-11.1941
▁settled	-11.1941
▁violent	-11.1942
175	-11.1943
▁grin	-11.1943
▁domains	-11.1943
ende	-11.1944
▁compute	-11.1945
▁processor	-11.1947
kk	-11.1948
▁Text	-11.1949
▁opponent	-11.1949
▁elsewhere	-11.1949
▁Northern	-11.1953
Character	-11.1953
ube	-11.1954
HTTP	-11.1955
▁pepper	-11.1955
▁0.001	-11.1956
▁bands	-11.1957
▁bath	-11.1958
▁dat	-11.1958
there	-11.1958
▁PI	-11.1959
▁acquisition	-11.196
▁Mid	-11.1961
INS	-11.1961
▁indication	-11.1961
▁illustrate	-11.1962
▁Pakistan	-11.1962
eastern	-11.1962
▁teachers	-11.1964
196	-11.1964
▁enum	-11.1966
DIS	-11.1967
ACC	-11.1968
▁northern	-11.197
Normal	-11.1972
▁102	-11.1974
agged	-11.1975
NF	-11.1976
Match	-11.1976
patient	-11.1977
▁choices	-11.1978
▁nodded	-11.198
]);	-11.1981
▁hetero	-11.1982
▁Tru	-11.1983
1.6	-11.1986
fib	-11.1992
mini	-11.1994
▁scientists	-11.1994
▁burst	-11.1996
▁Steve	-11.1996
▁weigh	-11.1997
▁periods	-11.2004
Active	-11.2006
posing	-11.2009
histo	-11.2016
▁incorporated	-11.2016
▁prominent	-11.2018
137	-11.2019
component	-11.2019
▁challenging	-11.2022
ulin	-11.2027
ologist	-11.2028
▁Merc	-11.2029
ulus	-11.203
ieve	-11.203
HT	-11.2033
▁Grant	-11.2033
Some	-11.2038
▁caption	-11.2039
▁promotion	-11.2039
220	-11.2041
▁serial	-11.2044
XX	-11.205
▁Fla	-11.2054
▁allegations	-11.2056
cz	-11.2056
▁Championship	-11.2058
ITY	-11.2059
▁Sy	-11.2061
▁brings	-11.2061
▁nose	-11.2062
▁bearing	-11.2062
▁anymore	-11.2062
ello	-11.2063
DIR	-11.2063
before	-11.2065
190	-11.2068
▁Det	-11.2069
▁-\	-11.2069
amide	-11.2069
ELL	-11.207
▁wake	-11.207
▁analog	-11.2071
▁1988	-11.2071
▁"""	-11.2072
▁Additional	-11.2074
}^{2}	-11.2074
30]	-11.2074
optim	-11.2075
alkyl	-11.2077
▁Cho	-11.2078
▁Pennsylvania	-11.2078
▁104	-11.2078
▁imposed	-11.2078
}_\	-11.208
▁aged	-11.2087
180	-11.2087
▁reads	-11.2091
▁alignment	-11.2096
final	-11.2097
▁powers	-11.2097
will	-11.2099
▁Library	-11.21
▁plurality	-11.21
▁stations	-11.2101
connect	-11.2101
▁lady	-11.2102
MAN	-11.2103
▁smiled	-11.2105
risk	-11.2106
▁Series	-11.2106
▁Soviet	-11.2107
▁Sometimes	-11.2109
▁debut	-11.211
▁Week	-11.2111
▁lying	-11.2111
▁singular	-11.2112
Dir	-11.2113
away	-11.2113
▁landscape	-11.2115
cli	-11.2115
▁gray	-11.2119
}\\	-11.2121
vm	-11.2121
▁16,	-11.2123
▁pace	-11.2124
Work	-11.2126
▁heavily	-11.2127
▁reviews	-11.2128
▁objection	-11.2128
worthy	-11.2129
▁cert	-11.213
▁Jen	-11.2131
tica	-11.2132
thread	-11.2133
▁Sho	-11.2134
130	-11.2135
Click	-11.2137
CONFIG	-11.2139
▁Stephen	-11.2139
III	-11.214
6.5	-11.2141
▁integr	-11.2143
▁proven	-11.2144
▁okay	-11.2144
Http	-11.2146
▁3](#	-11.2147
▁references	-11.2148
▁fewer	-11.2148
▁wavelength	-11.2149
▁dismissed	-11.2151
ometric	-11.2152
live	-11.2152
hash	-11.2153
▁Kingdom	-11.2153
▁Related	-11.2153
Draw	-11.2154
ape	-11.2156
133	-11.2157
▁14,	-11.2157
▁generic	-11.2158
▁provider	-11.216
MV	-11.2161
Grid	-11.2161
▁destroyed	-11.2161
▁mol	-11.2165
▁closing	-11.2166
figure	-11.2166
▁steam	-11.2167
▁roughly	-11.2169
▁survive	-11.2171
▁Studies	-11.2173
▁feelings	-11.2174
Host	-11.2174
136	-11.2175
▁Santa	-11.2175
fort	-11.2176
▁1-	-11.2177
▁temporal	-11.2178
▁videos	-11.2179
▁rub	-11.218
▁diagnosed	-11.2182
▁operated	-11.2183
!”	-11.2186
▁generating	-11.2188
True	-11.219
▁fluorescence	-11.2191
▁appreciate	-11.2191
▁buying	-11.2194
disable	-11.2195
0.01	-11.2199
▁8*	-11.22
▁genotype	-11.2202
▁educational	-11.2206
▁OK	-11.2207
(1-	-11.221
▁Harry	-11.2212
▁edit	-11.2214
▁vascular	-11.222
Double	-11.222
ease	-11.2221
remove	-11.2222
▁communications	-11.2222
occu	-11.2224
mask	-11.2224
▁Pl	-11.2224
thal	-11.2225
▁tar	-11.2226
▁march	-11.2227
▁desirable	-11.2229
▁rescue	-11.223
▁enabled	-11.2233
sident	-11.2236
▁fed	-11.2238
▁failing	-11.224
▁lips	-11.224
▁consult	-11.224
session	-11.2243
Player	-11.2244
187	-11.2244
▁returning	-11.2245
▁markets	-11.2245
▁Dev	-11.2246
▁yesterday	-11.2247
▁Ali	-11.2248
▁Hand	-11.225
▁mere	-11.2254
▁Academy	-11.2254
018	-11.2255
▁Action	-11.2257
▁blot	-11.2258
▁scattering	-11.226
cade	-11.2262
▁timing	-11.2263
_>	-11.2263
▁neural	-11.2264
Graph	-11.2265
▁Pacific	-11.2268
phenyl	-11.2268
▁converted	-11.2269
▁slave	-11.227
bury	-11.2276
▁Pay	-11.2277
iously	-11.2278
▁heads	-11.228
▁<=	-11.2284
etti	-11.2285
while	-11.2289
▁finance	-11.229
▁personnel	-11.2291
▁sizes	-11.2293
▁aimed	-11.2294
fast	-11.2294
▁Carl	-11.2298
▁frequencies	-11.2302
▁bike	-11.2303
cour	-11.2303
▁bits	-11.2303
▁gay	-11.2304
▁dear	-11.2305
▁Array	-11.2305
rust	-11.2306
▁hack	-11.2308
imi	-11.2309
15]	-11.2309
Menu	-11.2309
▁temporary	-11.2314
▁Cer	-11.2314
DNA	-11.2322
regulation	-11.2324
▁shares	-11.2324
Mu	-11.2325
▁Sand	-11.2325
cite	-11.2328
eous	-11.233
==	-11.233
▁interference	-11.2331
▁rail	-11.2331
▁sig	-11.2333
▁105	-11.2335
made	-11.2335
eval	-11.2335
issue	-11.2336
El	-11.2337
phase	-11.2339
▁$\{	-11.2341
▁collision	-11.2341
ijerph	-11.2344
resource	-11.2347
▁trap	-11.2347
▁bell	-11.2348
▁Kir	-11.2348
OME	-11.2351
▁uncertainty	-11.2352
}[	-11.2353
▁intense	-11.2354
arily	-11.2355
ulf	-11.2356
kill	-11.2357
}^{(	-11.2358
▁hung	-11.236
}-\	-11.2361
hon	-11.2362
▁posts	-11.2362
▁Article	-11.2362
Panel	-11.2363
▁comprising	-11.2367
▁rooms	-11.2377
rink	-11.2378
▁Illinois	-11.2381
Integer	-11.2381
▁refers	-11.2382
cid	-11.2383
ctor	-11.2383
▁Centre	-11.2383
Null	-11.2383
▁Express	-11.2384
▁soci	-11.2384
valid	-11.2384
handle	-11.2384
▁province	-11.2388
hw	-11.2388
▁permitted	-11.2388
▁finds	-11.239
▁keys	-11.2397
▁updates	-11.2399
▁guitar	-11.2401
▁initiative	-11.2404
▁pause	-11.2404
zip	-11.2404
▁reflected	-11.2406
MIT	-11.2406
▁enjoyed	-11.2409
▁directions	-11.241
▁vegetable	-11.2411
▁Map	-11.2411
Par	-11.2412
▁Lind	-11.2414
▁rural	-11.2416
▁breed	-11.2418
▁executed	-11.2419
▁tone	-11.242
▁thy	-11.242
wave	-11.2421
mates	-11.2424
▁dem	-11.2424
▁Israeli	-11.2425
Remove	-11.2425
Phys	-11.2425
asm	-11.2429
▁deck	-11.2433
▁listening	-11.2433
▁unlikely	-11.2434
▁bid	-11.2435
rite	-11.2435
▁minimize	-11.2437
▁slip	-11.2441
▁proc	-11.2445
▁Euro	-11.2445
▁Republicans	-11.2446
▁certificate	-11.2448
▁ou	-11.2448
ete	-11.2452
2.9	-11.2454
&#	-11.2454
▁serves	-11.2457
▁Yo	-11.2458
neg	-11.2459
shift	-11.2459
ectomy	-11.2461
▁+/-	-11.2464
▁phenomenon	-11.2464
▁calc	-11.2468
validate	-11.2468
▁pit	-11.2468
▁ocean	-11.2469
▁Defendants	-11.2469
▁confront	-11.247
▁accumulation	-11.2471
105	-11.2475
▁Base	-11.2476
plas	-11.2478
▁leaf	-11.2478
2.2	-11.2479
lut	-11.2479
▁moon	-11.2481
nick	-11.2483
▁Dia	-11.2486
^{-\	-11.2486
5%)	-11.2487
▁hab	-11.2487
chain	-11.2489
coding	-11.2492
evo	-11.2496
cross	-11.2497
▁restrict	-11.2497
▁arc	-11.2498
steroid	-11.2499
▁participation	-11.2499
▁Proposition	-11.25
▁Watch	-11.25
guard	-11.25
▁Irish	-11.2502
udge	-11.2506
escent	-11.2508
▁reasonably	-11.2511
▁convenient	-11.2516
▁Plaintiffs	-11.2517
▁reply	-11.2518
▁wireless	-11.2518
▁inequality	-11.2518
conscious	-11.2519
hip	-11.2521
▁vice	-11.2523
▁brush	-11.2524
▁(%)	-11.2524
▁Radio	-11.2526
▁tract	-11.2528
▁leak	-11.253
▁preserve	-11.2532
={	-11.2534
▁amendment	-11.2534
window	-11.2535
▁impression	-11.2542
”)	-11.2543
invasive	-11.2544
▁mais	-11.2544
Server	-11.2544
▁Come	-11.2545
MG	-11.2548
▁pros	-11.255
uest	-11.2552
▁parking	-11.2552
▁rice	-11.2552
▁\{	-11.2553
▁banks	-11.2553
Let	-11.2554
▁fired	-11.2555
▁manual	-11.2556
ila	-11.2556
TEST	-11.2556
internal	-11.2557
▁crazy	-11.2558
▁wedding	-11.2558
▁Eric	-11.2559
▁tap	-11.256
▁verify	-11.2567
_0}	-11.257
▁Community	-11.2571
▁een	-11.2574
▁covers	-11.2579
▁NF	-11.2579
▁respiratory	-11.2581
▁accomplish	-11.2582
▁entre	-11.2584
{1}{\	-11.2584
keyword	-11.2588
▁deposit	-11.259
▁Fed	-11.2591
docs	-11.2592
▁CEO	-11.2594
\*\*	-11.2595
peak	-11.2597
▁continuing	-11.2598
▁homes	-11.2598
▁scored	-11.26
▁reserve	-11.2603
▁($\	-11.2603
(1+	-11.2604
install	-11.2604
oil	-11.2605
]{.	-11.2605
▁fool	-11.2606
lack	-11.2612
▁Gla	-11.2612
ubi	-11.2613
/15	-11.2613
emic	-11.2618
▁#:	-11.262
javascript	-11.2621
doi	-11.2621
materials	-11.2622
citing	-11.2624
▁fulfill	-11.2624
▁herein	-11.2624
▁treatments	-11.2625
Max	-11.2625
▁Professor	-11.2626
▁GNU	-11.2626
▁Jews	-11.2629
14)	-11.263
▁ligand	-11.2631
Hash	-11.2632
>&	-11.2633
▁hash	-11.2635
▁instances	-11.2636
nen	-11.2638
▁Camp	-11.2638
▁-0.1	-11.2639
Entry	-11.2639
▁completion	-11.264
eria	-11.2643
▁cru	-11.2645
▁attended	-11.2646
▁transmit	-11.2649
Run	-11.265
▁rarely	-11.265
▁hormone	-11.2652
▁consumers	-11.2653
+01	-11.2654
▁luck	-11.2659
▁affirm	-11.2662
▁1960	-11.2662
▁faced	-11.2662
194	-11.2662
▁1987	-11.2664
worth	-11.2665
uge	-11.2665
▁Comment	-11.2665
▁creates	-11.2666
▁holes	-11.2668
▁alarm	-11.2669
btn	-11.267
det	-11.2671
▁printed	-11.2671
▁Angel	-11.2671
▁variants	-11.2672
▁friendly	-11.2674
chemical	-11.2675
▁upload	-11.2676
▁shook	-11.2676
▁exclusive	-11.2677
▁***	-11.2679
▁Early	-11.2679
▁resolved	-11.268
▁Prior	-11.2681
▁tech	-11.2687
▁vectors	-11.2689
▁clause	-11.269
▁awarded	-11.2692
▁viewed	-11.2692
▁tweet	-11.2693
angel	-11.2694
▁childhood	-11.2695
▁SYS	-11.2697
▁drag	-11.2698
▁visited	-11.2698
▁precision	-11.27
▁advantages	-11.2701
LM	-11.2703
▁healthcare	-11.2704
tier	-11.2705
▁Mean	-11.2705
▁partnership	-11.2706
token	-11.2707
▁liked	-11.271
▁maintaining	-11.271
▁belt	-11.2711
▁cord	-11.2712
▁Oct	-11.2714
ania	-11.2714
▁degradation	-11.2714
▁scream	-11.2717
rip	-11.272
lite	-11.2721
▁concrete	-11.2721
▁adapt	-11.2724
▁separately	-11.2725
olate	-11.2727
▁constantly	-11.2731
rai	-11.2731
maker	-11.2732
▁everywhere	-11.2732
task	-11.2733
▁doctrine	-11.2733
▁Eastern	-11.2734
▁distributions	-11.2737
▁losses	-11.2739
LOG	-11.2741
▁verdict	-11.2742
mmer	-11.2742
▁worldwide	-11.2743
anne	-11.2743
stage	-11.2744
▁tunnel	-11.2746
tam	-11.2747
4.2	-11.2747
iling	-11.2752
nome	-11.2754
burn	-11.2755
▁colleagues	-11.2756
ologic	-11.2756
004){	-11.2757
▁Fair	-11.2757
▁tower	-11.2759
▁(15	-11.276
lain	-11.276
▁Keep	-11.276
▁Rome	-11.2761
▁Ye	-11.2761
black	-11.2761
jpg	-11.2761
colon	-11.2762
▁absent	-11.2763
REF	-11.2763
ealand	-11.2764
▁aggressive	-11.2765
CHECK	-11.2765
Template	-11.2765
▁cultures	-11.2767
Part	-11.2769
annotation	-11.2772
▁Fall	-11.2773
xx	-11.2775
Project	-11.2778
about	-11.278
First	-11.2781
139	-11.2781
▁accompanied	-11.2781
allow	-11.2782
▁priority	-11.2783
yes	-11.2783
8.0	-11.2783
nutrients	-11.2786
pear	-11.2787
dest	-11.2788
▁Off	-11.2788
Entity	-11.2788
▁masses	-11.279
erie	-11.2792
▁assistant	-11.2793
▁appointment	-11.2796
▁snap	-11.2797
▁fiction	-11.2798
Enter	-11.2799
▁tent	-11.2799
▁(12	-11.2799
▁scheduled	-11.2799
0.25	-11.28
dies	-11.28
sheet	-11.2801
isse	-11.2802
imo	-11.2803
▁Later	-11.2803
▁utility	-11.2804
▁bounded	-11.2807
loop	-11.2809
▁removing	-11.281
condition	-11.2811
▁angular	-11.2811
here	-11.2811
Interface	-11.2811
011	-11.2812
▁coordinates	-11.2812
sym	-11.2812
[0,	-11.2813
watch	-11.2814
▁availability	-11.2815
▁judicial	-11.2815
assert	-11.2815
share	-11.2815
▁Captain	-11.2816
▁sudden	-11.2817
bad	-11.2817
fen	-11.2817
^2+	-11.2821
▁algorithms	-11.2822
▁consecutive	-11.2825
▁hoping	-11.2826
review	-11.2826
333	-11.2827
display	-11.2828
Feature	-11.283
▁risks	-11.2831
OO	-11.2832
▁au	-11.2833
▁flour	-11.2837
Def	-11.2838
▁organism	-11.2839
▁founded	-11.284
bind	-11.284
cipit	-11.284
^2}{	-11.2841
desktop	-11.2842
▁106	-11.2848
0,0	-11.285
reservation	-11.285
▁inspired	-11.285
▁enforce	-11.2851
▁lateral	-11.2853
▁severity	-11.2854
toxic	-11.2856
▁Ray	-11.2856
▁Children	-11.2856
▁drill	-11.2859
▁extraction	-11.286
▁prosecutor	-11.2861
▁dense	-11.2862
▁slope	-11.2863
▁expanded	-11.2864
stand	-11.2865
▁prejudice	-11.2866
▁steady	-11.2867
▁entering	-11.2868
Summary	-11.2868
▁tracks	-11.2872
prototype	-11.2875
aze	-11.2877
▁movies	-11.2878
2/3	-11.2878
▁lake	-11.2879
opping	-11.2879
uli	-11.2882
▁proceeding	-11.2883
▁Clark	-11.2885
area	-11.2886
▁birds	-11.2887
▁competing	-11.2888
▁bunch	-11.2888
▁Tele	-11.2888
▁sym	-11.2897
▁limitation	-11.2899
▁AI	-11.2899
nat	-11.2901
illo	-11.2901
usr	-11.2902
gil	-11.2903
▁layout	-11.2903
▁prospect	-11.2905
▁Had	-11.2908
SY	-11.2908
▁ubuntu	-11.2909
▁deeply	-11.2912
{3}	-11.2912
▁Mother	-11.2914
2007	-11.2919
total	-11.2921
▁musical	-11.2921
▁varying	-11.2922
▁glyc	-11.2922
▁yards	-11.2927
▁Register	-11.2927
\!\	-11.2927
▁Night	-11.2928
▁immunity	-11.2932
▁1986	-11.2933
▁writers	-11.2933
command	-11.2934
UG	-11.2934
▁Ryan	-11.2934
146	-11.2937
fish	-11.2939
▁sodium	-11.2939
full	-11.294
negative	-11.2945
▁override	-11.2946
▁entries	-11.2947
▁calcium	-11.2947
▁systematic	-11.2949
▁jail	-11.2949
decode	-11.295
▁Py	-11.2953
idine	-11.2954
015	-11.2956
ssen	-11.2961
▁fracture	-11.2962
▁alien	-11.2962
▁Ren	-11.2965
▁intervals	-11.2965
▁awareness	-11.2966
▁suspension	-11.2966
ades	-11.2969
Local	-11.2975
▁dish	-11.2977
▁neo	-11.2977
solve	-11.2984
modal	-11.2986
▁chromosome	-11.299
▁spr	-11.2991
▁screw	-11.2991
rop	-11.2992
topic	-11.2993
large	-11.2994
Init	-11.2997
168	-11.2998
▁mom	-11.2999
Condition	-11.3
▁Var	-11.3004
▁Syn	-11.3005
Person	-11.3005
▁qualified	-11.3007
▁inhibitors	-11.3007
four	-11.3009
157	-11.3009
authentic	-11.301
▁blade	-11.3011
▁terrible	-11.3011
plex	-11.3012
▁psychological	-11.3013
▁coat	-11.3016
▁regularly	-11.3016
▁administered	-11.302
▁gut	-11.3021
liberate	-11.3023
2006	-11.3023
Dec	-11.3024
▁similarly	-11.3024
virus	-11.3024
Track	-11.3028
▁ml	-11.3029
dro	-11.3031
▁Cel	-11.3032
▁likelihood	-11.3032
▁Kan	-11.3034
mix	-11.3035
▁tensor	-11.3035
▁trading	-11.3037
▁harvest	-11.3037
192	-11.304
rock	-11.304
empt	-11.3041
oplus	-11.3041
aza	-11.3042
▁Simon	-11.3046
▁Film	-11.3048
003){	-11.305
▁rough	-11.305
may	-11.3052
hyp	-11.3052
▁flexible	-11.3052
(7)	-11.3052
▁-11	-11.3054
logical	-11.3054
▁priest	-11.3055
▁movements	-11.3062
WR	-11.3064
▁altered	-11.3065
constraint	-11.3066
▁beneath	-11.3067
0.05	-11.3069
▁personally	-11.3069
lace	-11.3073
▁reduces	-11.3076
heat	-11.308
165	-11.3081
$^{	-11.3081
5.1	-11.3081
cate	-11.3084
▁allele	-11.3086
▁128	-11.3087
7.0	-11.3093
ARE	-11.3093
zie	-11.3094
3.7	-11.3094
▁guest	-11.3094
▁mutual	-11.3094
▁artificial	-11.3097
▁execute	-11.3097
▁drum	-11.31
▁desk	-11.3101
▁disadvantage	-11.3102
-22	-11.3102
uite	-11.3102
▁disappear	-11.3104
▁protective	-11.3105
014	-11.3106
rill	-11.3107
uestion	-11.3108
▁Gl	-11.311
▁improvements	-11.3111
▁washed	-11.3112
inated	-11.3112
Access	-11.3117
4.4	-11.312
▁Mountain	-11.3121
▁doctors	-11.3121
Err	-11.3122
▁Conference	-11.3122
▁printing	-11.3124
sensitive	-11.3125
IGHT	-11.3125
▁passion	-11.3126
neur	-11.3129
}({\	-11.313
▁Cook	-11.3131
▁retro	-11.3133
▁reject	-11.3136
attribute	-11.314
▁advertising	-11.3142
anni	-11.3146
143	-11.3146
cancer	-11.3149
}}}\	-11.3152
▁euro	-11.3153
▁4-	-11.3155
▁eu	-11.3155
▁Edit	-11.3156
WITH	-11.3156
▁automatic	-11.3159
wiki	-11.3159
▁cycles	-11.316
▁stayed	-11.3161
Application	-11.3161
piece	-11.3162
▁sole	-11.3163
▁tens	-11.3164
▁supplied	-11.3166
▁eggs	-11.3167
▁await	-11.3169
▁invariant	-11.3171
tbl	-11.3173
subseteq	-11.3173
▁perceived	-11.3173
▁portions	-11.3174
Font	-11.3175
▁clip	-11.3177
RU	-11.3181
Min	-11.3182
▁onset	-11.3185
▁lifetime	-11.3186
▁ortho	-11.3187
▁drove	-11.3187
SHA	-11.3188
▁explains	-11.319
Offset	-11.3191
13]	-11.3193
▁boolean	-11.3193
▁shorter	-11.3195
▁Expand	-11.3196
▁penalty	-11.3196
138	-11.3197
▁reputation	-11.3199
▁arrival	-11.3199
▁Hay	-11.3201
▁dad	-11.3201
▁189	-11.3201
▁comprises	-11.3203
LICENSE	-11.3204
▁excessive	-11.321
▁symmetric	-11.3211
▁gained	-11.3211
▁eliminate	-11.3214
▁residence	-11.3217
▁\|	-11.3217
binding	-11.3222
▁angry	-11.3223
188	-11.3223
▁Learn	-11.3223
Cloud	-11.3224
▁quest	-11.3225
▁Card	-11.3227
▁stepped	-11.3228
▁acceptable	-11.3228
▁coal	-11.3229
▁Ltd	-11.3231
▁witnesses	-11.3234
love	-11.3235
148	-11.3236
▁ext	-11.3236
156	-11.3239
visible	-11.3239
closure	-11.3241
rows	-11.3242
Case	-11.3243
176	-11.3244
gress	-11.3251
cv	-11.3252
▁providers	-11.3252
▁Trust	-11.3252
cyclic	-11.3252
▁1985	-11.3255
gio	-11.3258
iya	-11.3258
▁{{	-11.3259
omo	-11.326
▁roots	-11.3261
enberg	-11.3266
thesis	-11.3268
▁egg	-11.3268
▁searching	-11.327
loid	-11.3273
▁opinions	-11.3274
▁produces	-11.3275
Call	-11.3275
▁locally	-11.3279
▁reproduce	-11.3279
▁Albert	-11.328
▁processed	-11.3282
▁Natural	-11.3288
▁Korean	-11.3289
▁fusion	-11.329
▁residual	-11.329
▁geometry	-11.329
▁prevention	-11.3291
Bit	-11.3291
▁resin	-11.3291
153	-11.3292
▁Overall	-11.3295
iddle	-11.3296
▁texture	-11.3296
▁Policy	-11.3297
▁1984	-11.3299
▁disability	-11.33
scopic	-11.3301
▁Jane	-11.3301
hydr	-11.3302
taining	-11.3303
▁ir	-11.3304
▁joke	-11.3306
▁parse	-11.331
DW	-11.3311
▁108	-11.3311
gas	-11.3312
▁Islam	-11.3314
▁Tour	-11.3315
▁cooking	-11.3316
fore	-11.3321
STR	-11.3323
▁Poly	-11.3324
▁Process	-11.3325
▁Sky	-11.3326
Region	-11.3326
▁Nick	-11.3327
▁prayer	-11.3334
Now	-11.3337
▁lean	-11.3338
five	-11.3339
when	-11.3339
nne	-11.3339
▁sem	-11.3339
▁vitamin	-11.334
▁coating	-11.3341
▁hunt	-11.3342
▁advocate	-11.3343
▁undergo	-11.3343
omato	-11.3345
4]\]	-11.3345
atom	-11.3345
▁municipal	-11.3345
>::	-11.3347
▁(17	-11.3347
very	-11.3349
1+	-11.3352
IND	-11.3353
▁anchor	-11.3355
1.00	-11.3355
MIN	-11.3361
▁contends	-11.3362
▁sul	-11.3363
11]	-11.3364
▁conclusions	-11.3368
Language	-11.3371
210	-11.3373
container	-11.3373
▁Arch	-11.3374
▁conform	-11.3375
▁Lett	-11.3377
▁CPU	-11.3377
ower	-11.3378
▁restriction	-11.3379
▁(5)	-11.3379
3.8	-11.3379
odi	-11.338
▁legend	-11.3382
}})$	-11.3382
▁intellectual	-11.3384
trim	-11.3387
▁associate	-11.3387
wy	-11.3387
protect	-11.3391
▁bow	-11.3394
▁airport	-11.3396
▁vacuum	-11.3397
STAT	-11.34
▁satisfies	-11.3402
▁inverse	-11.3405
▁passes	-11.3413
comment	-11.3414
▁emphasize	-11.3414
▁Beach	-11.3417
▁deposition	-11.3418
square	-11.3418
score	-11.3418
▁physics	-11.3419
throp	-11.3419
^2)	-11.3421
▁validation	-11.3421
▁shade	-11.3422
▁Bol	-11.3424
Route	-11.3424
▁attachment	-11.3428
LIB	-11.3428
Root	-11.343
▁expenses	-11.3431
017	-11.3431
▁occupation	-11.344
▁**1	-11.344
▁exciting	-11.3441
_0)	-11.3443
▁exhibited	-11.3443
ega	-11.3444
/13	-11.3444
▁promising	-11.3445
▁Seven	-11.3448
▁Stone	-11.3449
stock	-11.3452
▁Elizabeth	-11.3453
▁tomorrow	-11.3453
phen	-11.3453
Theta	-11.3456
▁subjected	-11.3457
▁regarded	-11.3457
Appellee	-11.3458
▁denial	-11.346
▁hint	-11.3461
rait	-11.3461
▁Nothing	-11.3462
▁sustained	-11.3463
▁Farm	-11.3465
103	-11.3465
▁stupid	-11.3466
▁Haw	-11.3466
fc	-11.3466
▁retrieve	-11.3468
▁flying	-11.3469
▁theories	-11.347
▁cooling	-11.3472
▁developers	-11.3474
▁cau	-11.3475
▁$[	-11.3477
RV	-11.3481
▁ranging	-11.3481
▁Hope	-11.3481
0001	-11.3481
▁rh	-11.3483
▁Steven	-11.3484
Provider	-11.3485
149	-11.3485
TY	-11.3486
▁Access	-11.3486
▁Cambridge	-11.3486
▁Share	-11.3488
2+	-11.3491
Change	-11.3492
▁interventions	-11.3492
▁quant	-11.3492
▁attractive	-11.3495
▁disclosure	-11.3496
▁switching	-11.3497
▁flags	-11.3497
▁Jon	-11.3502
▁insufficient	-11.3502
2001	-11.3504
14]	-11.3506
=3	-11.3506
▁Statistical	-11.3507
▁mold	-11.3508
pris	-11.3508
▁falls	-11.3515
▁harder	-11.3517
▁satellite	-11.3517
▁Jacob	-11.3518
motion	-11.3523
kra	-11.3525
▁adventure	-11.3528
▁denominator	-11.353
gus	-11.3531
▁influenced	-11.3531
▁Title	-11.3531
▁ruin	-11.3532
3/2	-11.3534
MAC	-11.3534
▁companion	-11.3538
Val	-11.3538
▁Rad	-11.3539
boy	-11.3539
▁terrorist	-11.354
VO	-11.3541
TN	-11.3542
▁nuclei	-11.3543
({{\	-11.3544
express	-11.3545
auth	-11.3545
▁twin	-11.3547
2]\]	-11.3547
▁scalar	-11.3549
ATT	-11.355
odo	-11.3551
▁diffusion	-11.3551
5]\]	-11.3552
nik	-11.3554
▁Roger	-11.3554
encia	-11.3555
Container	-11.3556
▁Alexander	-11.3562
▁gaze	-11.3562
▁affects	-11.3564
▁Ger	-11.3564
▁ski	-11.3569
▁Should	-11.3571
thyroid	-11.3572
▁computing	-11.3575
textrm	-11.3576
Hello	-11.3576
UST	-11.3579
▁shake	-11.3579
LF	-11.358
▁103	-11.358
▁settle	-11.3584
oxide	-11.3585
talk	-11.3586
▁125	-11.3586
▁Through	-11.3586
▁randomly	-11.3589
▁presidential	-11.3591
{1}	-11.3592
owner	-11.3593
▁compromise	-11.3593
prom	-11.3593
**************	-11.3595
▁vocal	-11.3595
▁mL	-11.3596
▁posterior	-11.3598
▁overlap	-11.3598
▁addresses	-11.3599
GN	-11.36
▁governor	-11.36
00000000	-11.36
▁Victoria	-11.3602
gri	-11.3604
▁demands	-11.3605
▁-12	-11.3605
MU	-11.3605
▁specification	-11.3607
▁veteran	-11.3608
▁drew	-11.361
▁engagement	-11.3611
▁recovered	-11.3618
▁Lady	-11.3618
▁paragraph	-11.3619
▁ships	-11.3619
)(1)	-11.3619
____	-11.3621
Display	-11.3621
▁grab	-11.3621
zel	-11.3627
▁pole	-11.3629
Reader	-11.3629
▁campus	-11.3629
▁revolution	-11.3633
bie	-11.3634
CHAR	-11.3635
▁relating	-11.3636
▁bedroom	-11.3638
VER	-11.3639
cra	-11.3642
▁UV	-11.3643
▁residues	-11.3645
▁wondering	-11.3647
article	-11.3647
genic	-11.3648
lator	-11.3648
.....	-11.3651
▁Consequently	-11.3653
▁concert	-11.3653
▁limb	-11.3654
runner	-11.3656
berry	-11.3657
valuation	-11.3658
^*$	-11.3663
Num	-11.3664
POST	-11.3664
Arg	-11.3668
▁solvent	-11.3668
▁enhancement	-11.3668
uh	-11.3668
▁esc	-11.3671
▁Shar	-11.3672
▁ethnic	-11.3674
release	-11.3677
ologies	-11.3677
▁recipient	-11.3679
definite	-11.3682
▁tired	-11.3685
shape	-11.3686
▁questionnaire	-11.3687
▁artery	-11.3688
wait	-11.3689
▁Within	-11.369
▁mixing	-11.3691
▁Search	-11.3692
responsive	-11.3692
quo	-11.3692
viol	-11.3694
▁sustain	-11.3694
▁Syria	-11.3695
▁accessible	-11.3696
▁Rights	-11.3706
▁pic	-11.3706
Simple	-11.3707
DV	-11.3708
▁entrance	-11.3708
Wait	-11.3709
▁recommendations	-11.3711
▁Server	-11.3713
▁prospective	-11.3713
▁silicon	-11.3714
▁rival	-11.3715
zon	-11.3715
▁Document	-11.3716
▁Specifically	-11.3719
▁sequencing	-11.3719
▁unlike	-11.3719
DATE	-11.372
▁heating	-11.372
▁Anderson	-11.3722
pool	-11.3727
▁modules	-11.3729
▁$5	-11.373
▁lab	-11.3732
boot	-11.3734
▁defect	-11.3737
▁dysfunction	-11.3738
▁feeding	-11.3739
158	-11.374
strat	-11.374
▁solely	-11.3744
plot	-11.3744
▁ingredients	-11.3745
▁laughed	-11.3745
Join	-11.3748
▁unexpected	-11.3749
▁molecule	-11.3749
orse	-11.375
▁computation	-11.375
▁Brand	-11.3751
ffer	-11.3752
▁utilized	-11.3754
▁Pra	-11.3756
▁filling	-11.3757
▁EDIT	-11.3757
▁barely	-11.3758
▁(11	-11.3758
▁embedded	-11.3758
drop	-11.376
▁invited	-11.376
Copy	-11.3763
▁normalized	-11.3769
▁bankruptcy	-11.3769
20]	-11.377
-07-	-11.3771
IAL	-11.3772
person	-11.3773
▁FBI	-11.3774
▁Besides	-11.3775
▁earned	-11.3779
▁Would	-11.378
PORT	-11.378
▁quasi	-11.3782
▁worried	-11.3782
▁cow	-11.3784
▁inherent	-11.3785
Cor	-11.3786
uality	-11.3786
▁130	-11.3788
▁padding	-11.3788
▁circum	-11.3791
username	-11.3791
▁shirt	-11.3794
▁dump	-11.3795
bracket	-11.3796
▁steal	-11.3799
▁throws	-11.3802
Save	-11.3803
KO	-11.3804
▁attributes	-11.3804
▁sessions	-11.3805
}}(\	-11.3805
▁scr	-11.3807
symmetric	-11.3808
▁pulmonary	-11.3809
▁Python	-11.3811
▁effectiveness	-11.3813
aws	-11.3822
▁difficulties	-11.3824
3.9	-11.3827
▁preliminary	-11.3828
Handle	-11.3828
Ptr	-11.3828
▁invalid	-11.3829
▁tracking	-11.3829
166	-11.3829
▁armed	-11.3829
Sha	-11.3832
_2\	-11.3832
TU	-11.3832
▁za	-11.3833
hspace	-11.3833
▁Mir	-11.3834
}$$\	-11.3841
▁convention	-11.3842
(-6)	-11.3842
axial	-11.3844
▁forever	-11.3848
require	-11.385
ologists	-11.3852
Mod	-11.3856
▁tied	-11.3856
▁coding	-11.3857
▁destruction	-11.3857
▁kinetic	-11.3857
▁tongue	-11.3858
▁Games	-11.3861
▁Por	-11.3862
parser	-11.3862
associated	-11.3869
▁narrative	-11.387
▁philosophy	-11.3871
▁cleaning	-11.3871
▁varied	-11.3872
▁defects	-11.3873
Port	-11.3878
urn	-11.3878
▁guidance	-11.3879
▁Video	-11.3879
▁mot	-11.3879
▁favour	-11.3879
▁distant	-11.3881
▁everybody	-11.3882
alla	-11.3882
etty	-11.3882
▁readily	-11.3883
▁professionals	-11.3884
▁featured	-11.3885
SON	-11.3885
meth	-11.3886
▁territory	-11.3887
▁Lewis	-11.3887
▁institution	-11.3889
Vi	-11.389
double	-11.3891
▁batch	-11.3891
\#	-11.3894
▁Five	-11.3895
▁ultimate	-11.3895
Constant	-11.3897
▁Columbia	-11.3897
ody	-11.3898
8.5	-11.3901
▁spark	-11.3903
oster	-11.3906
▁targeting	-11.3906
▁mood	-11.3909
phospho	-11.3909
▁Dor	-11.391
▁sink	-11.3911
Visual	-11.3913
▁Arg	-11.3915
▁advise	-11.3919
vendor	-11.392
▁boss	-11.3921
▁2.2	-11.3921
▁physiological	-11.3921
navigation	-11.3922
eon	-11.3922
import	-11.3923
Contact	-11.3925
▁embryo	-11.3926
▁assays	-11.3927
▁deeper	-11.3929
▁stomach	-11.393
canonical	-11.3933
▁folks	-11.3933
4.3	-11.3935
▁Previous	-11.3935
179	-11.3937
▁Ubuntu	-11.3938
Settings	-11.3939
▁Stan	-11.3942
▁(@	-11.3942
hill	-11.3943
▁shopping	-11.3943
Url	-11.3944
▁consistently	-11.3945
walk	-11.3946
vat	-11.3946
▁esta	-11.3947
▁breakfast	-11.3947
▁elections	-11.3948
▁registration	-11.3948
▁Studio	-11.3949
)/((	-11.3949
Writer	-11.395
▁horses	-11.3951
TABLE	-11.3953
vac	-11.3954
▁remembered	-11.3955
▁triple	-11.3955
BER	-11.3956
gua	-11.3958
▁branches	-11.3958
019	-11.396
▁Arizona	-11.3962
▁Jordan	-11.3965
▁describing	-11.3965
family	-11.3965
▁investors	-11.3965
▁Cro	-11.3966
▁Rather	-11.3968
▁heaven	-11.3968
▁funny	-11.3968
setminus	-11.397
held	-11.3971
pay	-11.3972
▁maximal	-11.3973
5$	-11.3974
▁miRNA	-11.3975
Cache	-11.3975
▁connecting	-11.3976
HL	-11.3977
▁Summer	-11.3977
▁contend	-11.3978
▁comic	-11.3978
▁organisation	-11.3979
tiny	-11.3983
▁1.6	-11.3984
wr	-11.3985
▁Kur	-11.3986
▁tips	-11.3989
▁Len	-11.3989
enny	-11.399
193	-11.3991
▁yeah	-11.3992
hep	-11.3993
▁lawsuit	-11.3993
▁ignored	-11.3997
▁implications	-11.3997
▁vessels	-11.3997
mass	-11.3997
▁insist	-11.3998
▁tears	-11.4
▁discussions	-11.4002
amino	-11.4006
▁needle	-11.4008
BIT	-11.401
▁beneficial	-11.4011
▁Cam	-11.4012
oriented	-11.4012
▁unclear	-11.4015
▁complement	-11.4015
12]	-11.4015
Post	-11.4016
▁suicide	-11.4017
▁Eli	-11.4019
HU	-11.4021
▁treating	-11.4022
▁surveillance	-11.4022
▁Final	-11.4022
Database	-11.4022
▁formulation	-11.4024
Basic	-11.4025
▁designer	-11.4025
VR	-11.4025
▁inference	-11.4026
▁imply	-11.4027
lead	-11.4029
charge	-11.4029
cop	-11.403
1]).	-11.4031
205	-11.4033
▁boxes	-11.4035
proc	-11.4035
▁occurring	-11.404
exc	-11.4043
320	-11.4046
▁pri	-11.4046
bank	-11.4046
▁royal	-11.4047
▁checking	-11.4047
▁withdraw	-11.405
wear	-11.4051
Matrix	-11.4052
▁succeed	-11.4052
rene	-11.4053
▁Tax	-11.4055
▁investigator	-11.4057
lick	-11.4057
▁identifying	-11.4059
rough	-11.4059
scape	-11.406
▁Berlin	-11.406
▁transmitted	-11.4062
8]\]	-11.4062
Material	-11.4065
eus	-11.4068
▁expectations	-11.4069
▁cheer	-11.4074
▁auf	-11.4074
▁interpreted	-11.4076
prev	-11.4077
▁mock	-11.4078
▁pray	-11.408
▁matrices	-11.4082
▁offensive	-11.4082
Kind	-11.4086
Reg	-11.4088
▁activist	-11.4089
▁complexes	-11.4092
▁pose	-11.4095
▁ought	-11.4096
▁112	-11.4096
▁NJ	-11.4097
▁decreases	-11.4097
vascular	-11.4097
▁WE	-11.41
▁swing	-11.41
replace	-11.4102
▁blast	-11.4103
▁optional	-11.4106
ogenesis	-11.4107
chlor	-11.4108
▁ownership	-11.4108
IDE	-11.4109
\<0.001	-11.4115
:20	-11.4116
consistency	-11.4117
textbf	-11.4117
▁Ross	-11.4118
Internal	-11.4118
▁enzymes	-11.4118
▁flowers	-11.4118
▁periodic	-11.4118
▁Lea	-11.4119
▁Bridge	-11.4123
▁prosecution	-11.4123
▁alongside	-11.4124
iki	-11.4125
MEM	-11.4126
▁optimization	-11.4126
▁0.05)	-11.4127
▁promised	-11.413
plain	-11.4132
▁radial	-11.4134
▁tournament	-11.4137
3%)	-11.4137
CODE	-11.4138
hear	-11.4139
▁Moore	-11.4141
clock	-11.4142
▁mitochondrial	-11.4144
iety	-11.4145
▁ruled	-11.4145
▁discipline	-11.4146
▁ML	-11.4147
▁neglect	-11.4148
▁sphere	-11.4148
Any	-11.4149
▁Mur	-11.4149
▁Parliament	-11.4151
guide	-11.4153
▁[3](#	-11.4153
▁scholar	-11.4155
runtime	-11.4156
167	-11.4157
harm	-11.4158
▁aggregate	-11.4162
design	-11.4163
GFR	-11.4165
▁osteo	-11.4168
▁tablespoon	-11.417
Prop	-11.4171
▁Linux	-11.4173
▁captain	-11.4176
NOT	-11.4176
▁spi	-11.4177
▁cake	-11.4178
▁coli	-11.4178
▁equilibrium	-11.4179
▁Supp	-11.4181
WH	-11.4182
unsafe	-11.4184
▁tear	-11.4185
▁Follow	-11.4187
terminal	-11.4188
▁pounds	-11.419
,0)	-11.4196
▁gentle	-11.4198
Var	-11.4199
))/(	-11.4202
▁champion	-11.4202
season	-11.4203
7}	-11.4204
▁specificity	-11.4205
OFF	-11.4206
chy	-11.4208
▁throat	-11.4212
512	-11.4212
▁orange	-11.4213
▁remand	-11.4213
▁Clinical	-11.4214
▁disaster	-11.4215
▁drama	-11.4216
▁anterior	-11.4217
▁convicted	-11.4217
digest	-11.4218
▁gotten	-11.4221
▁Mah	-11.4224
STATE	-11.4226
▁closure	-11.4227
▁Way	-11.4228
▁Tam	-11.4228
▁Colorado	-11.4228
▁pol	-11.4228
4.6	-11.4229
▁mature	-11.4233
xsl	-11.4235
flat	-11.4235
▁crimes	-11.4235
▁Hz	-11.4237
▁sizeof	-11.4239
▁9*	-11.4239
parameter	-11.4242
▁kon	-11.4242
PRE	-11.4245
▁bore	-11.4245
glut	-11.4245
▁locked	-11.4246
▁oh	-11.4247
▁shit	-11.4247
▁prote	-11.4249
▁Islamic	-11.4251
thy	-11.4255
▁nobody	-11.4255
blog	-11.4256
▁Nat	-11.4261
▁transportation	-11.4261
bolic	-11.4265
▁distinction	-11.4265
▁Dem	-11.4265
▁pale	-11.4265
flags	-11.4267
▁somebody	-11.4268
▁nations	-11.4269
▁suck	-11.427
▁Tar	-11.4271
▁crossing	-11.4272
Rect	-11.4272
▁mort	-11.4272
▁shield	-11.4273
▁duties	-11.4273
Down	-11.4273
derived	-11.4273
▁repeatedly	-11.4274
Screen	-11.4276
▁literally	-11.4276
209	-11.428
▁emerged	-11.4282
▁sword	-11.4284
▁phosphorylation	-11.4287
▁remarkable	-11.4288
),\	-11.4288
TRA	-11.429
▁Coast	-11.4293
▁attributed	-11.4294
determin	-11.4297
204	-11.4299
▁estimation	-11.4303
▁pathogen	-11.4305
▁discrete	-11.4306
DU	-11.4307
230	-11.431
▁criticism	-11.4314
159	-11.4316
▁SW	-11.4317
▁plug	-11.4318
▁fitting	-11.432
▁Rod	-11.4321
lik	-11.4321
▁1981	-11.4325
SYS	-11.4325
cpu	-11.4326
▁shoes	-11.4327
{2\	-11.4329
▁sacrifice	-11.4329
paste	-11.4329
▁awesome	-11.4332
▁categor	-11.4333
▁essay	-11.4336
▁Daily	-11.4338
scrib	-11.4339
tique	-11.4339
▁pregnant	-11.434
[4]	-11.4344
▁PBS	-11.4345
▁rein	-11.4347
▁seeds	-11.4347
▁Morris	-11.4349
▁preferably	-11.435
"))	-11.4354
COMP	-11.4355
▁Small	-11.4356
▁expressing	-11.4358
8_	-11.4359
9.5	-11.4359
▁translate	-11.4361
▁visitors	-11.4361
▁bare	-11.4362
▁sweat	-11.4362
lux	-11.4363
▁systemic	-11.4364
▁juice	-11.4368
▁illustrated	-11.4368
▁raising	-11.4368
▁cave	-11.4371
▁declined	-11.4373
▁immigration	-11.4374
▁nicht	-11.4375
▁personality	-11.4375
▁transistor	-11.4377
▁isolation	-11.4377
variate	-11.4378
▁Fred	-11.4378
Complete	-11.438
▁thrown	-11.438
Top	-11.438
16]	-11.438
▁Price	-11.4381
▁tale	-11.4383
▁headed	-11.4384
▁abnormal	-11.4387
fmt	-11.4388
▁Medicine	-11.4388
▁gravity	-11.4391
1---	-11.4392
ipp	-11.4392
▁lease	-11.4393
50,000	-11.4394
▁Wolf	-11.4395
Cap	-11.4396
▁115	-11.4398
Properties	-11.4405
▁Lie	-11.4405
Abstract	-11.4405
▁Upon	-11.4406
▁Oxford	-11.4408
pent	-11.4411
104	-11.4413
▁1982	-11.4413
dependency	-11.4415
▁Deb	-11.4418
▁Toronto	-11.4419
detail	-11.4419
▁iPhone	-11.442
▁knife	-11.4422
▁Personal	-11.4422
mysql	-11.4425
Temp	-11.4427
▁collaboration	-11.4427
▁adapted	-11.4429
▁scanning	-11.443
108	-11.4439
analysis	-11.444
Transform	-11.444
articul	-11.444
▁Bern	-11.444
micro	-11.4441
▁burning	-11.4441
▁underwent	-11.4442
arXiv	-11.4445
address	-11.4445
▁audit	-11.4448
▁confident	-11.4449
mming	-11.4449
▁bird	-11.4449
4.9	-11.445
▁cardiovascular	-11.445
▁Recently	-11.4451
ryl	-11.4452
▁monthly	-11.4453
bean	-11.4453
▁Administration	-11.4456
through	-11.4456
▁overnight	-11.4458
▁punishment	-11.4459
xxx	-11.4461
affiliate	-11.4462
012	-11.4463
quent	-11.4463
▁vertices	-11.4467
corn	-11.4469
▁McG	-11.4474
cott	-11.4474
▁attract	-11.4476
▁emerge	-11.4477
quality	-11.4479
▁tolerance	-11.4479
▁grace	-11.4483
▁Convert	-11.4483
▁refuse	-11.4486
amos	-11.449
Sym	-11.449
lah	-11.4491
stead	-11.4492
▁validity	-11.4492
essa	-11.4494
human	-11.4494
-100	-11.4497
▁Associate	-11.4499
▁===========	-11.4499
yne	-11.45
▁Ministry	-11.4501
minating	-11.4503
▁charm	-11.4504
▁Heart	-11.4504
▁Scotland	-11.4504
▁marijuana	-11.4504
▁\#	-11.4504
▁curious	-11.4505
5]).	-11.4507
▁satisfaction	-11.4507
▁integrity	-11.4512
▁compatible	-11.4516
▁decimal	-11.4516
Mon	-11.452
▁skip	-11.452
▁twelve	-11.4521
▁logical	-11.4523
vocation	-11.4525
▁inserted	-11.4526
*(-2	-11.4527
▁utilize	-11.4527
▁impairment	-11.4527
▁designated	-11.4532
_0(	-11.4539
iga	-11.4539
formed	-11.4541
▁disabled	-11.4541
▁restrictions	-11.4543
1,0	-11.4543
▁governing	-11.4545
uter	-11.4546
▁denotes	-11.4546
▁suspected	-11.4547
NUM	-11.4548
▁Nature	-11.4551
email	-11.4551
▁innovation	-11.4553
Foo	-11.4554
chem	-11.4554
cpp	-11.4554
▁healing	-11.4562
▁poet	-11.4564
egan	-11.4566
186	-11.4567
tex	-11.4567
phys	-11.4568
▁labeled	-11.4568
▁tit	-11.4569
iterator	-11.4573
2005	-11.4573
▁strengthen	-11.4573
▁Area	-11.4574
hir	-11.4577
}_1	-11.4577
ously	-11.4578
▁festival	-11.4579
▁damn	-11.4581
▁guests	-11.4582
0.07	-11.4583
▁stir	-11.4583
Sch	-11.4583
1],[@	-11.4586
▁Interestingly	-11.4588
Claim	-11.4588
▁Brian	-11.4588
▁1950	-11.459
iza	-11.4593
▁functionality	-11.4593
Private	-11.4593
ench	-11.4594
▁solo	-11.4595
▁weird	-11.4596
iber	-11.4601
gno	-11.4602
▁20%	-11.4602
▁threw	-11.4602
enne	-11.4603
inflammatory	-11.4603
imag	-11.4606
6.1	-11.4612
▁synthetic	-11.4613
▁variability	-11.4614
look	-11.4614
ERR	-11.4614
32)	-11.4616
▁studying	-11.4616
▁begun	-11.4616
▁exponential	-11.4618
▁scrap	-11.4619
▁Hotel	-11.462
////////////////	-11.4622
abi	-11.4623
▁approximate	-11.4624
-40	-11.4625
▁waited	-11.4628
▁Blood	-11.463
▁Similar	-11.4633
▁Anna	-11.4633
▁keyboard	-11.4636
▁longitudinal	-11.4637
▁vein	-11.4638
▁Include	-11.4638
▁JSON	-11.464
▁shaft	-11.4643
▁Ball	-11.4645
Document	-11.4646
▁scaling	-11.4646
▁briefly	-11.4647
▁gradually	-11.4648
▁manually	-11.465
▁reliability	-11.4651
glob	-11.4652
▁4)	-11.4652
_0\	-11.4656
▁confused	-11.4662
ethyl	-11.4662
▁regimen	-11.4662
ogue	-11.4665
(-3)	-11.4666
▁worker	-11.4668
4.7	-11.4671
▁(20	-11.4671
8){	-11.4672
▁defensive	-11.4674
▁stellar	-11.4675
▁Chan	-11.4676
▁Representative	-11.4677
▁topics	-11.4678
▁Cost	-11.4682
rou	-11.4682
▁supplies	-11.4683
floor	-11.4683
▁delayed	-11.4683
clear	-11.4685
obacter	-11.4685
{0}	-11.4685
2004	-11.4686
▁spontaneous	-11.4686
▁cavity	-11.4686
plant	-11.4686
10^	-11.469
actin	-11.4692
▁desperate	-11.4692
▁spray	-11.4693
▁Mart	-11.4694
photo	-11.4695
▁enterprise	-11.4695
None	-11.4696
Extension	-11.4698
rude	-11.4699
▁derive	-11.4701
▁Corn	-11.4701
morphic	-11.4702
Where	-11.4704
154	-11.4705
1]\]	-11.4706
jet	-11.4708
language	-11.4709
▁Agency	-11.471
▁matched	-11.471
▁sake	-11.4712
▁heading	-11.4716
▁Commissioner	-11.4716
Organ	-11.4718
▁blocked	-11.472
▁motivation	-11.4721
nea	-11.4723
▁Animal	-11.4724
Require	-11.4726
▁Dark	-11.4728
loo	-11.4728
▁voor	-11.4731
still	-11.4732
nucleo	-11.4733
▁dire	-11.4734
▁regulator	-11.4734
**2*	-11.4735
▁eligible	-11.4739
▁Vietnam	-11.4741
writer	-11.4742
▁existed	-11.4746
▁contemporary	-11.4747
ebra	-11.4748
UV	-11.475
▁Kra	-11.475
transform	-11.4751
eptic	-11.4752
▁Mai	-11.4753
LOCK	-11.4754
▁confusion	-11.4755
fluor	-11.4756
0.08	-11.476
▁Bible	-11.4761
▁Aff	-11.4762
PLA	-11.4765
▁cholesterol	-11.4765
▁immigrant	-11.4765
▁thermo	-11.4769
▁reconstruction	-11.4771
▁Aug	-11.4774
rik	-11.4774
FOR	-11.4777
▁factual	-11.4779
▁inches	-11.478
▁sam	-11.4783
▁rotate	-11.4784
▁singer	-11.4786
▁voting	-11.4786
Order	-11.4786
▁museum	-11.4788
▁occupied	-11.4794
tax	-11.4802
▁equipped	-11.4803
quire	-11.4804
variable	-11.4805
▁borrow	-11.4806
▁Fisher	-11.4806
▁Death	-11.4808
INFO	-11.481
erator	-11.481
▁stiff	-11.4813
▁Agreement	-11.4815
}}_{\	-11.4816
TRI	-11.4817
Process	-11.482
▁Brazil	-11.4821
▁developer	-11.4825
▁Sie	-11.4826
gia	-11.4827
178	-11.4827
▁Mol	-11.4828
225	-11.4829
market	-11.483
register	-11.4831
▁praise	-11.4833
▁Allen	-11.4837
▁racial	-11.4839
▁tender	-11.484
▁striking	-11.4841
wind	-11.4846
▁Convention	-11.4846
scription	-11.4847
▁Sum	-11.4847
▁proposition	-11.4847
▁PHP	-11.4848
▁injected	-11.4849
Layer	-11.4853
▁intrinsic	-11.4856
icht	-11.4856
404	-11.486
169	-11.486
▁fallen	-11.4862
▁hazard	-11.4862
▁esp	-11.4862
▁pushing	-11.4865
▁violated	-11.4866
▁proportional	-11.4867
▁sens	-11.487
Argument	-11.4871
▁incorrect	-11.4872
bridge	-11.4873
▁grateful	-11.4874
▁Dutch	-11.4874
▁deny	-11.4875
▁mineral	-11.4877
etc	-11.4879
▁memories	-11.4883
="0"	-11.4887
eight	-11.4891
-1$	-11.4891
▁gonna	-11.4892
Auto	-11.4893
▁Tal	-11.4894
▁physically	-11.4897
▁enormous	-11.4898
▁compression	-11.49
▁0);	-11.49
▁crypto	-11.49
▁custody	-11.4901
▁fifty	-11.4901
brane	-11.4901
configure	-11.4902
▁pill	-11.4906
▁transformed	-11.4907
▁conspiracy	-11.4907
▁teaspoon	-11.491
udo	-11.491
▁desert	-11.4912
▁publish	-11.4913
standing	-11.4917
science	-11.4918
▁inspect	-11.4919
▁impose	-11.492
Trans	-11.492
▁computational	-11.4922
▁pending	-11.4923
▁activate	-11.4923
dale	-11.4925
▁Ever	-11.4926
▁holder	-11.4927
good	-11.4929
▁tin	-11.493
▁plasmid	-11.4931
▁Massachusetts	-11.4933
Comparison	-11.4936
▁rendered	-11.4937
▁intersection	-11.4938
▁Navy	-11.4939
▁polarization	-11.4939
▁catalyst	-11.4939
▁abortion	-11.494
▁trauma	-11.4941
▁descend	-11.4941
▁participated	-11.4945
logging	-11.4946
Variable	-11.4949
Okay	-11.4952
have	-11.4954
Platform	-11.4954
▁fate	-11.4955
▁bother	-11.4958
▁quantities	-11.4959
005){	-11.4959
application	-11.496
▁Monte	-11.4963
Connect	-11.4964
▁Flor	-11.4965
NL	-11.4966
▁Guide	-11.4969
▁adaptation	-11.4972
pore	-11.4973
▁cheek	-11.4973
|$	-11.4973
▁sentencing	-11.4975
▁microscopy	-11.4975
▁tumour	-11.4975
▁reinforce	-11.4976
▁accurately	-11.4977
▁lifestyle	-11.4978
▁excuse	-11.498
▁pressed	-11.498
▁fought	-11.4981
Stop	-11.4982
GEN	-11.4986
▁expense	-11.4987
homogeneous	-11.4987
perform	-11.4988
▁surely	-11.4992
270	-11.4993
▁Interest	-11.4993
▁frozen	-11.4993
lateral	-11.4994
▁Plus	-11.4996
▁Unlike	-11.4998
▁cultured	-11.4999
▁deficit	-11.4999
Package	-11.5001
enta	-11.5001
▁transparent	-11.5001
idade	-11.5001
▁Marine	-11.5004
▁Dick	-11.5007
▁favorable	-11.501
▁attempting	-11.5012
nova	-11.5012
pple	-11.5013
▁casual	-11.5019
▁discount	-11.502
▁1979	-11.5021
pag	-11.5022
▁dock	-11.5025
▁chemo	-11.5026
▁TNF	-11.5028
▁nitrogen	-11.5029
9]\]	-11.503
background	-11.5031
▁manifold	-11.5031
(10)	-11.5032
▁prima	-11.5032
security	-11.5033
▁occasionally	-11.5036
▁Mann	-11.5037
profile	-11.5037
▁factory	-11.5038
▁reset	-11.5041
▁Empire	-11.5041
▁Houston	-11.5041
uate	-11.5043
▁fatty	-11.5044
grid	-11.5045
metadata	-11.5047
▁graft	-11.5049
sphere	-11.5049
▁magn	-11.5054
▁announcement	-11.5055
ohn	-11.5055
▁Cancer	-11.5058
oud	-11.5059
▁Kong	-11.506
ector	-11.5064
▁drift	-11.5066
▁grey	-11.5066
aking	-11.5067
▁rabbit	-11.5069
▁outlet	-11.507
▁Beau	-11.507
▁dynamical	-11.5071
▁Maria	-11.5072
▁junction	-11.5072
▁Turkey	-11.5073
▁cease	-11.5074
4.8	-11.5074
▁declaration	-11.5075
▁debtor	-11.5075
they	-11.5075
▁Future	-11.5079
chemistry	-11.5081
Gen	-11.5082
▁Doctor	-11.5082
Title	-11.5084
▁epithelial	-11.5087
\*\*\*	-11.5089
iller	-11.509
twitter	-11.509
-28	-11.5093
odor	-11.5093
▁distract	-11.5096
▁capabilities	-11.5097
▁NFL	-11.5098
DEF	-11.5098
otropic	-11.5099
▁politicians	-11.5101
UND	-11.5105
ibi	-11.5106
simeq	-11.5107
▁boundaries	-11.511
acht	-11.511
alis	-11.5111
▁threatened	-11.5115
Did	-11.5116
▁servant	-11.5117
Flow	-11.5117
▁backward	-11.5124
Archive	-11.5126
▁Trade	-11.5127
▁shortly	-11.5128
MOESM	-11.5129
▁laptop	-11.5129
▁fatal	-11.513
▁strategic	-11.513
▁halo	-11.513
7%)	-11.5131
▁restore	-11.5134
▁focusing	-11.5137
293	-11.5138
▁crossed	-11.5139
bibr	-11.5139
▁Hamiltonian	-11.5141
▁Assembly	-11.5142
feed	-11.5143
Break	-11.5146
optic	-11.5147
▁galaxy	-11.5148
▁circular	-11.5148
▁replicate	-11.5148
arse	-11.5149
▁genomic	-11.5151
▁myth	-11.5152
▁surprising	-11.5153
▁Governor	-11.5154
connection	-11.5154
▁distress	-11.5155
▁approached	-11.5156
▁Story	-11.5156
tools	-11.5158
owski	-11.5159
▁vulnerable	-11.516
▁sanction	-11.516
▁grip	-11.5161
ABLE	-11.5162
ORE	-11.5162
▁damaged	-11.5163
▁preventing	-11.5165
eqn	-11.5167
2%)	-11.5168
Assert	-11.5169
▁preparing	-11.5169
▁impressive	-11.5172
robe	-11.5173
holder	-11.5176
5.6	-11.5177
▁secured	-11.5178
▁Sports	-11.5179
▁Tea	-11.5181
▁Motor	-11.5181
▁eigen	-11.5182
-26	-11.5182
▁Jun	-11.5182
profit	-11.5183
Float	-11.5184
▁intend	-11.5187
8}	-11.5191
cong	-11.5191
},$$	-11.5192
▁obesity	-11.5193
▁intracellular	-11.5197
▁libraries	-11.5203
energy	-11.5205
▁gross	-11.5207
LAN	-11.5209
▁coil	-11.521
▁cried	-11.521
▁Very	-11.5212
▁Div	-11.5212
chloro	-11.5213
▁legislative	-11.5215
▁affecting	-11.5216
▁dating	-11.5218
▁symptom	-11.5219
▁Carlo	-11.5221
imon	-11.5221
▁chemotherapy	-11.5221
unlock	-11.5223
Mask	-11.5224
wei	-11.5227
▁reversed	-11.5228
▁extending	-11.5229
5],[@	-11.523
disc	-11.523
▁Philadelphia	-11.523
▁publicly	-11.5231
▁uptake	-11.5231
▁Medi	-11.5233
▁spoken	-11.5234
▁Gaussian	-11.5236
▁differently	-11.5237
mper	-11.5237
▁4](#	-11.5237
260	-11.5238
▁specimens	-11.5238
▁Spirit	-11.5239
native	-11.5239
▁wondered	-11.5241
▁Less	-11.5242
▁Could	-11.5243
Over	-11.5244
wen	-11.5244
▁consensus	-11.5246
Exc	-11.5246
▁meaningful	-11.5248
▁conservation	-11.5249
pod	-11.5249
4%)	-11.525
▁Apache	-11.5252
▁amended	-11.5253
▁temple	-11.5255
COM	-11.5257
lating	-11.5258
being	-11.5259
emos	-11.526
▁[^1]	-11.5261
Who	-11.5263
acetyl	-11.5264
cellular	-11.5265
degree	-11.5265
▁Egypt	-11.5265
3],[@	-11.5266
6]\]	-11.5266
ducing	-11.527
▁poem	-11.527
Last	-11.5277
▁rape	-11.5277
▁consisted	-11.5278
▁choosing	-11.5279
▁discloses	-11.5281
▁Rh	-11.5281
280	-11.5282
▁darkness	-11.5282
▁poverty	-11.5283
hex	-11.5283
voca	-11.5285
prim	-11.5285
lessly	-11.5286
▁squad	-11.5286
▁listing	-11.5286
affe	-11.5288
▁embrace	-11.5289
▁defining	-11.5295
▁Hong	-11.5299
}_2	-11.5302
▁energies	-11.5302
8%)	-11.5303
Memory	-11.5305
trust	-11.5305
▁prize	-11.5305
▁Sound	-11.5307
2]).	-11.5308
assa	-11.5309
ference	-11.5309
▁Fra	-11.531
▁Jay	-11.5311
17]	-11.5312
174	-11.5312
PATH	-11.5312
▁bathroom	-11.5314
trophy	-11.5315
Progress	-11.5316
neu	-11.5317
him	-11.5318
▁converge	-11.5321
206	-11.5325
Delete	-11.5326
▁Palestinian	-11.5326
▁emerging	-11.5326
"};	-11.5326
▁IFN	-11.5327
▁obtaining	-11.5328
▁legitimate	-11.5329
▁geographic	-11.5333
▁founder	-11.5335
▁negotiation	-11.5335
208	-11.5336
▁golden	-11.534
▁Him	-11.534
▁affairs	-11.5341
▁inquiry	-11.5341
▁Mount	-11.5342
interface	-11.5345
bach	-11.5346
uick	-11.5347
fighter	-11.5348
▁Mun	-11.535
instance	-11.535
3]\]	-11.5351
diag	-11.5354
hara	-11.5356
particle	-11.5357
soluble	-11.5357
Statement	-11.536
▁equality	-11.536
▁mai	-11.5362
▁Duke	-11.5362
ische	-11.5364
▁Station	-11.5365
▁demon	-11.5366
▁Avenue	-11.5369
vig	-11.5371
▁qual	-11.5373
evi	-11.5374
▁mortgage	-11.5376
▁assertion	-11.5376
▁analytical	-11.5382
bell	-11.5382
ocyte	-11.5387
▁tonight	-11.5387
▁chocolate	-11.5388
▁contention	-11.539
generate	-11.5393
▁surrounded	-11.5394
opathy	-11.5395
Alb	-11.5395
▁endorse	-11.5395
▁tetra	-11.5396
106	-11.5397
MSC	-11.5398
▁indices	-11.5398
▁crush	-11.54
▁lamp	-11.5401
▁stereo	-11.5403
ective	-11.5405
▁pipeline	-11.5407
ARY	-11.5413
player	-11.5414
Profile	-11.5415
lade	-11.5419
▁punch	-11.5422
Random	-11.5423
▁Bad	-11.5426
characterization	-11.5426
750	-11.5427
avan	-11.5429
▁USB	-11.5431
▁suspended	-11.5436
▁secretion	-11.5437
▁fake	-11.5438
▁rect	-11.5439
conduct	-11.544
▁copper	-11.5444
fel	-11.5445
EAR	-11.5445
▁strictly	-11.5446
▁appreciated	-11.545
ague	-11.545
▁Online	-11.545
▁letting	-11.545
▁replication	-11.5452
▁recruit	-11.5453
▁placement	-11.5456
▁anybody	-11.5457
▁Mit	-11.546
2,000	-11.5461
▁bubble	-11.5463
custom	-11.5463
team	-11.5465
▁satisfying	-11.5465
▁iteration	-11.5465
▁publisher	-11.5469
▁convinced	-11.5471
▁premier	-11.5473
^2+^	-11.5473
uber	-11.5474
▁resort	-11.5474
Machine	-11.5475
igo	-11.5475
Schema	-11.5481
▁authorized	-11.5483
▁exclusively	-11.5487
▁Ur	-11.5489
▁voted	-11.5491
etta	-11.5491
minute	-11.5492
hover	-11.5495
▁membership	-11.5495
021	-11.5495
▁efficiently	-11.5496
▁Kevin	-11.5499
▁Unless	-11.5501
▁cylinder	-11.5501
▁accumulate	-11.5501
141	-11.5504
Begin	-11.5505
2003	-11.5505
weak	-11.5508
▁Battle	-11.5509
▁weekly	-11.5509
▁opera	-11.5511
▁dried	-11.5514
▁horror	-11.5517
▁elderly	-11.5517
Enum	-11.5518
▁1975	-11.5518
thro	-11.552
▁flame	-11.5524
▁Hart	-11.5526
itarian	-11.5526
ethylene	-11.5526
▁disrupt	-11.5527
▁electricity	-11.5527
OV	-11.5528
Engine	-11.5529
clam	-11.5531
▁counterpart	-11.5534
142	-11.5536
▁situ	-11.5536
222	-11.5536
▁hanging	-11.5539
▁abandoned	-11.5541
▁dye	-11.5542
▁prevented	-11.5544
1-\	-11.5545
_{3}	-11.5545
▁emotions	-11.5545
-29	-11.5546
▁scratch	-11.5555
_3$	-11.5555
▁Ron	-11.5555
▁coincide	-11.5557
dog	-11.5557
▁Minnesota	-11.5558
▁YouTube	-11.5558
quoting	-11.5559
idx	-11.556
▁Atlantic	-11.5561
record	-11.5563
▁Matthew	-11.5564
▁maternal	-11.5564
ERT	-11.5565
▁cortex	-11.5565
fund	-11.5565
izable	-11.5566
speed	-11.5568
▁118	-11.557
212	-11.557
▁Subject	-11.5571
ulo	-11.5572
▁belonging	-11.5573
▁lecture	-11.5575
▁Think	-11.5578
▁lovely	-11.5578
▁visiting	-11.5579
cutaneous	-11.558
7.1	-11.5581
▁1978	-11.5582
heim	-11.5583
treatment	-11.5584
▁acted	-11.5589
Runtime	-11.559
adv	-11.5592
▁resident	-11.5595
anta	-11.5597
▁justify	-11.5597
5.4	-11.5598
▁divorce	-11.5599
cyan	-11.56
Eq	-11.5606
▁Mexican	-11.5609
▁shelter	-11.5609
▁substitute	-11.561
▁suggestions	-11.5612
lug	-11.5613
▁excitation	-11.5614
▁1976	-11.5617
electro	-11.5618
Dialog	-11.5621
▁allege	-11.5622
global	-11.5622
taking	-11.5622
▁pleased	-11.5622
▁mayor	-11.5623
▁similarity	-11.5624
▁extrem	-11.5624
18]	-11.5624
▁bud	-11.5625
▁solved	-11.5627
anche	-11.5631
▁probable	-11.5631
▁(95%	-11.5635
shing	-11.5635
[[	-11.5635
▁encountered	-11.5636
▁deficiency	-11.5638
▁widespread	-11.5638
▁Francis	-11.5639
MIC	-11.5639
6%)	-11.564
▁centuries	-11.5641
Clear	-11.5641
▁Sarah	-11.5644
▁Dur	-11.5645
▁Clo	-11.5648
voir	-11.565
▁geometric	-11.5651
▁Ok	-11.5652
▁lifted	-11.5652
fail	-11.5654
▁rigid	-11.5658
▁accomplished	-11.566
Book	-11.566
▁perturbation	-11.566
▁exclude	-11.5661
▁participant	-11.5664
Protocol	-11.5664
▁endothelial	-11.5667
▁wider	-11.5668
▁bitter	-11.5668
▁Holy	-11.5671
▁documented	-11.5671
natal	-11.5671
ncia	-11.5672
▁constrain	-11.5673
▁bench	-11.5678
driver	-11.5678
boost	-11.5681
hall	-11.5682
bou	-11.5684
▁cigarette	-11.5686
▁fluctuations	-11.5686
152	-11.5686
\^[	-11.5689
▁partly	-11.5689
▁fifteen	-11.5692
should	-11.5693
▁reaches	-11.5694
▁Petitioner	-11.5696
Just	-11.5696
▁traits	-11.5698
▁Bitcoin	-11.5699
▁specialist	-11.57
▁clothing	-11.5701
course	-11.5701
immun	-11.5702
Bound	-11.5702
Description	-11.5703
Search	-11.5703
▁managing	-11.5706
OA	-11.5707
▁independence	-11.5708
▁Brother	-11.5713
region	-11.5718
▁Festival	-11.5718
▁Mont	-11.5721
worm	-11.5725
207	-11.5727
▁dramatic	-11.5728
▁Ent	-11.5728
▁fever	-11.5729
▁erred	-11.5729
ummy	-11.573
▁limiting	-11.5739
oblast	-11.5745
▁relate	-11.5746
Stat	-11.5749
▁outdoor	-11.5753
▁arising	-11.5754
▁Beck	-11.5757
▁hoped	-11.5761
SSL	-11.5762
▁compl	-11.5762
RED	-11.5765
▁referring	-11.5766
▁Boo	-11.5768
▁prevail	-11.577
owl	-11.5771
▁refresh	-11.5773
Render	-11.5776
▁differentiate	-11.5777
1%)	-11.5778
Long	-11.5781
▁Front	-11.5784
▁Economic	-11.5786
▁denying	-11.5787
▁virtually	-11.5788
EAT	-11.5788
▁termination	-11.5789
▁retired	-11.5791
ulous	-11.5791
▁Neu	-11.5794
▁historic	-11.5797
▁qualify	-11.58
▁localization	-11.5802
▁fond	-11.5802
▁tire	-11.5805
0.10	-11.5806
▁Notice	-11.5808
▁pile	-11.5809
peptide	-11.5811
frag	-11.5812
random	-11.5812
▁inspection	-11.5813
CAT	-11.5816
1999	-11.5817
▁dispersion	-11.5817
▁diminish	-11.5819
▁este	-11.582
iger	-11.582
XXX	-11.5824
▁shame	-11.5825
focus	-11.5827
▁civilian	-11.5828
ometer	-11.5831
dication	-11.5835
▁strand	-11.5836
▁fitted	-11.5836
deploy	-11.5836
▁allegedly	-11.5838
▁adhesion	-11.5841
▁coronary	-11.5842
▁irre	-11.5842
▁entertainment	-11.5844
▁panic	-11.5846
▁warned	-11.5846
▁Nik	-11.5849
shell	-11.5851
7]\]	-11.5851
▁rhythm	-11.5851
Distribu	-11.5858
▁Tony	-11.586
▁pretend	-11.5861
▁>>>	-11.5862
logic	-11.5862
▁funded	-11.5862
DMA	-11.5862
▁improper	-11.5864
▁encouraged	-11.5865
ready	-11.5866
▁exclusion	-11.5868
▁Dep	-11.5868
▁oligo	-11.5869
▁Rick	-11.587
▁animation	-11.5872
▁-0.2	-11.5872
tran	-11.5874
▁depict	-11.5874
▁trait	-11.5876
▁deemed	-11.5878
▁Sure	-11.5878
rail	-11.5879
▁fri	-11.5879
literal	-11.588
OLD	-11.5886
▁Sar	-11.5886
▁achievement	-11.5888
chrome	-11.589
third	-11.589
▁Dave	-11.589
▁fantastic	-11.5891
▁tries	-11.5891
▁Being	-11.5891
▁pulling	-11.5892
Mark	-11.5893
▁promoting	-11.5894
▁Garden	-11.5894
▁eigenvalue	-11.5895
▁Howard	-11.5896
quel	-11.5896
▁persistent	-11.5896
ovi	-11.5897
jection	-11.5897
▁metallic	-11.5905
▁joining	-11.5907
(__	-11.5907
▁Materials	-11.5908
lob	-11.5909
▁nucleus	-11.591
365	-11.5911
=0.0	-11.5913
ventricular	-11.5917
▁incredible	-11.5917
▁enemies	-11.5917
short	-11.5917
▁Building	-11.592
▁hypertension	-11.592
215	-11.5921
▁Senator	-11.5923
163	-11.5924
="../	-11.5924
▁Intel	-11.5926
▁Alabama	-11.5927
iana	-11.5929
ometry	-11.5931
▁Revolution	-11.5932
azione	-11.5934
480	-11.5934
▁dressed	-11.5936
▁envelope	-11.5937
▁Reserve	-11.5937
paper	-11.5938
▁chill	-11.5939
Rev	-11.5939
$-$	-11.594
▁goto	-11.5942
▁$1$	-11.5945
stimulated	-11.5945
▁Defense	-11.5947
perp	-11.5948
7.4	-11.5949
▁Hollywood	-11.5953
▁tick	-11.5954
apper	-11.5955
Good	-11.5956
▁secretary	-11.5959
▁Treatment	-11.5963
▁spinal	-11.5964
▁establishing	-11.5965
▁shower	-11.5969
Compile	-11.5969
norm	-11.5969
category	-11.5969
▁birthday	-11.5969
Pool	-11.597
▁editing	-11.5971
Json	-11.5972
lusive	-11.5975
▁entities	-11.5978
▁lucky	-11.598
▁touched	-11.5981
▁Feb	-11.5981
Rule	-11.5986
▁WITHOUT	-11.5986
▁antenna	-11.599
vacu	-11.599
▁Kelly	-11.5995
▁ATP	-11.5995
224	-11.5998
▁sperm	-11.6001
▁demographic	-11.6004
resolve	-11.6005
borne	-11.6005
▁Site	-11.6006
6.7	-11.6012
idae	-11.6013
9.0	-11.6016
3]).	-11.6016
PRI	-11.602
uka	-11.602
rump	-11.6021
super	-11.6023
▁buried	-11.6023
▁hired	-11.6025
▁Indiana	-11.6025
Framework	-11.6027
386	-11.6028
Civ	-11.6029
Dynamic	-11.6029
(-4)	-11.6031
▁mathematical	-11.6033
4]).	-11.6035
▁Disease	-11.6037
▁pra	-11.6039
▁affidavit	-11.6039
rgic	-11.604
▁attacked	-11.6041
pmatrix	-11.6041
▁[...]	-11.6042
pond	-11.6042
Universit	-11.6046
wire	-11.6046
▁Lang	-11.605
natural	-11.6052
Main	-11.6054
▁exert	-11.6056
▁recurrence	-11.6056
▁0.06	-11.606
▁wie	-11.6063
Storage	-11.6067
subscribe	-11.6068
Occ	-11.6068
OUR	-11.6069
▁accelerate	-11.6069
▁suppression	-11.6071
lute	-11.6074
▁bli	-11.6074
▁commence	-11.6077
▁COURT	-11.6079
commerce	-11.608
▁suggestion	-11.608
school	-11.6082
▁nous	-11.6082
▁Need	-11.6083
▁WHERE	-11.6083
INTER	-11.6084
▁scoring	-11.6086
rash	-11.6087
erna	-11.6089
▁firing	-11.6089
▁behavioral	-11.6089
▁Invention	-11.6092
▁retained	-11.6094
▁Anne	-11.6094
▁Nations	-11.6094
▁incorporate	-11.6095
▁violate	-11.6097
fat	-11.6098
TAG	-11.6099
▁capability	-11.61
▁rolling	-11.61
voice	-11.6101
▁postoperative	-11.6101
▁Brook	-11.6103
▁entertain	-11.6104
▁nonlinear	-11.6105
ota	-11.6105
▁tribe	-11.6105
mouth	-11.6106
▁stating	-11.6107
▁Bull	-11.6108
DEBUG	-11.611
▁tackle	-11.611
Next	-11.611
▁tendency	-11.6111
▁palm	-11.6112
▁Eight	-11.6113
Multi	-11.6114
azo	-11.6116
▁deletion	-11.612
▁transient	-11.6124
lore	-11.6127
173	-11.6129
▁Burn	-11.613
▁rolled	-11.613
▁11*	-11.6131
▁lesion	-11.6132
▁contributor	-11.6133
granul	-11.6133
CAP	-11.6134
WORD	-11.6135
ntegr	-11.6135
330	-11.6136
0.02	-11.6141
203	-11.6145
▁stimuli	-11.6147
▁steep	-11.6147
▁della	-11.6148
▁Patrick	-11.6148
▁duplicate	-11.615
ellar	-11.615
Face	-11.6151
▁Michel	-11.6151
opped	-11.6152
Thank	-11.6154
ogg	-11.6157
▁landing	-11.6158
Empty	-11.616
▁owe	-11.6161
variance	-11.6167
▁convergence	-11.6167
▁Between	-11.617
▁displacement	-11.617
▁condemn	-11.617
iko	-11.6172
suppl	-11.6173
jour	-11.6174
Bundle	-11.6175
2],[@	-11.6178
lude	-11.6179
▁Self	-11.6183
Section	-11.6184
bile	-11.6184
▁decomposition	-11.6187
▁basketball	-11.6187
aker	-11.619
▁supporters	-11.619
▁BBC	-11.6192
three	-11.6192
9%)	-11.6194
▁Everything	-11.6195
▁honey	-11.6196
▁Carr	-11.6197
▁dying	-11.6197
hbar	-11.6201
bug	-11.6204
▁Motion	-11.6205
▁fuck	-11.6206
▁stranger	-11.6208
▁Problem	-11.6211
▁generalized	-11.6211
national	-11.6213
COUNT	-11.6215
soft	-11.6215
▁wore	-11.6222
▁continuously	-11.6222
234	-11.6222
▁Chen	-11.6225
▁comply	-11.6226
9){	-11.6228
▁acknowledged	-11.6228
++;	-11.6229
Limit	-11.623
▁empirical	-11.6231
NER	-11.6233
NY	-11.6234
ifer	-11.6236
flag	-11.6238
▁challenged	-11.6239
▁acquire	-11.6241
▁poison	-11.6243
▁prescription	-11.6244
▁shifted	-11.6246
Ext	-11.6249
▁Disney	-11.6251
▁motif	-11.6253
7]).	-11.6256
▁gest	-11.6258
grant	-11.6259
1-2	-11.6259
▁Forest	-11.6259
▁curl	-11.626
▁Currently	-11.626
▁Band	-11.6265
▁Thor	-11.6265
▁buyer	-11.6269
▁Digital	-11.6272
▁predictor	-11.6273
▁resume	-11.6274
▁stake	-11.6276
insert	-11.6276
clk	-11.6279
Install	-11.6281
distribution	-11.6282
▁inspiration	-11.6282
2002	-11.6283
expected	-11.6288
▁isolates	-11.6288
▁breathing	-11.6288
▁Square	-11.6289
Binding	-11.6291
laus	-11.6291
▁golf	-11.6291
▁prince	-11.6293
Bean	-11.6296
▁brilliant	-11.6296
▁1977	-11.6297
▁venture	-11.6298
▁subunit	-11.6301
171	-11.6301
logger	-11.6302
▁randomized	-11.6304
▁inhibited	-11.6306
▁blocking	-11.6306
▁oxidative	-11.6306
ionic	-11.6307
▁fishing	-11.6308
▁conserved	-11.631
375	-11.631
▁pink	-11.6311
social	-11.6313
▁democracy	-11.6313
▁suite	-11.6314
rium	-11.6315
▁Scientific	-11.6316
▁hind	-11.632
▁departure	-11.6321
▁flip	-11.6322
fact	-11.6323
UTF	-11.6324
▁pap	-11.6325
keeper	-11.6327
▁virtue	-11.6327
▁innocent	-11.6327
Demo	-11.6327
▁yeast	-11.6331
▁Diego	-11.6331
Scan	-11.6331
▁sweep	-11.6334
YES	-11.6335
▁cookies	-11.6335
▁===============	-11.6339
pkg	-11.634
▁litigation	-11.634
▁Invest	-11.6343
▁Modern	-11.6345
▁mandate	-11.6347
CHE	-11.6348
▁BMI	-11.635
▁0.001)	-11.635
Success	-11.6351
sorb	-11.6356
phage	-11.636
ciones	-11.636
▁Kansas	-11.6361
235	-11.6363
6]).	-11.6364
▁****	-11.6366
▁gathering	-11.6367
tico	-11.6367
▁premium	-11.6368
(1-\	-11.6369
▁highway	-11.637
▁baseball	-11.6371
▁explored	-11.6372
▁Moon	-11.6372
▁retirement	-11.6373
MAT	-11.6374
▁Cru	-11.6377
also	-11.6377
▁forgotten	-11.6378
ancing	-11.6378
▁medal	-11.638
▁Saudi	-11.6381
ritt	-11.6381
move	-11.6382
saturated	-11.6382
▁Clar	-11.6384
▁Roll	-11.6385
▁germ	-11.6388
(11)	-11.6389
▁Cast	-11.6391
▁compartment	-11.6392
▁upset	-11.6393
▁Paper	-11.6397
hydro	-11.6402
▁signing	-11.6403
▁Remember	-11.6404
hil	-11.6405
Raw	-11.6405
▁advised	-11.6406
247	-11.6408
meric	-11.6408
forall	-11.6408
▁dominated	-11.6411
glyco	-11.6414
▁Never	-11.6415
▁worship	-11.6416
▁equi	-11.6421
340	-11.6425
5.7	-11.6426
509	-11.6427
▁eager	-11.6431
▁realistic	-11.6431
19]	-11.6432
Phone	-11.6432
▁bonus	-11.6435
▁controversial	-11.6437
384	-11.6438
▁entropy	-11.644
▁metabolite	-11.6444
Custom	-11.6445
▁expectation	-11.6445
▁Organization	-11.6448
▁consciousness	-11.6448
▁notification	-11.6448
▁unnecessary	-11.6451
▁gather	-11.6452
▁Neither	-11.6453
▁Culture	-11.6454
▁elect	-11.6455
Volume	-11.6456
credit	-11.6456
▁modulation	-11.6459
▁qualitative	-11.6461
▁McK	-11.6463
▁persist	-11.6463
upper	-11.6464
journal	-11.6467
▁acceptance	-11.6467
................	-11.6468
▁seizure	-11.6472
▁Protein	-11.6472
}}=	-11.6475
Picture	-11.6476
rah	-11.6478
utf	-11.648
program	-11.6482
▁agenda	-11.6482
▁faculty	-11.6482
Art	-11.6484
unsigned	-11.6485
▁dispers	-11.6486
initialize	-11.6486
delete	-11.6488
254	-11.6491
▁Nazi	-11.6491
▁simulated	-11.6494
Your	-11.6496
println	-11.6498
repository	-11.65
engine	-11.65
uke	-11.6501
▁gesture	-11.6503
▁upward	-11.6505
▁bleeding	-11.6507
▁bump	-11.6508
▁stamp	-11.6509
)(2)	-11.6512
▁Credit	-11.6513
▁reside	-11.6514
▁damp	-11.6517
people	-11.6517
▁Domin	-11.6521
▁Wales	-11.6525
opper	-11.6528
8.1	-11.6528
▁faint	-11.653
▁nail	-11.6531
pgen	-11.6532
▁stared	-11.6532
Back	-11.6534
▁Walker	-11.6541
▁1/3	-11.6543
▁marginal	-11.6543
▁Golden	-11.6546
hello	-11.6547
▁purified	-11.6547
▁NH	-11.6549
▁Iowa	-11.655
▁Labor	-11.6551
▁chunk	-11.6551
▁adolescent	-11.6552
▁preserved	-11.6552
▁crown	-11.6553
quest	-11.6555
▁Maryland	-11.6555
▁flesh	-11.6557
9]).	-11.6559
▁Foreign	-11.6559
AME	-11.6561
▁Season	-11.6562
▁interfere	-11.6563
▁diese	-11.6564
172	-11.6567
▁claiming	-11.6569
▁terror	-11.6573
▁weakness	-11.6575
raise	-11.6575
▁Bear	-11.6575
party	-11.6578
aja	-11.6581
▁Dad	-11.6584
▁Austria	-11.6584
211	-11.6586
▁Cooper	-11.6587
▁alternate	-11.6588
▁configured	-11.6593
undo	-11.6594
▁Wisconsin	-11.6594
skip	-11.6595
▁decent	-11.6595
▁packed	-11.6597
ANG	-11.6598
▁vibration	-11.6601
gru	-11.6604
inject	-11.6604
▁behave	-11.6607
▁Football	-11.6608
echo	-11.661
selector	-11.661
▁Oregon	-11.6612
▁drunk	-11.6614
▁gran	-11.6616
▁Morgan	-11.6618
inator	-11.662
DOC	-11.6622
▁painful	-11.6627
children	-11.6629
▁WARRANTIES	-11.663
▁biomarker	-11.663
▁distinguished	-11.663
▁insertion	-11.6636
▁welfare	-11.6637
hair	-11.6638
▁backup	-11.6644
▁fitness	-11.6646
Dictionary	-11.6647
exe	-11.6649
▁officially	-11.6649
)}{\	-11.6649
▁Everyone	-11.6656
▁endpoint	-11.6657
▁taxpayer	-11.6658
quer	-11.6659
Non	-11.666
▁Fourth	-11.666
▁franchise	-11.6661
6.4	-11.6661
▁wooden	-11.6666
Month	-11.6667
▁Bow	-11.6667
ogni	-11.6668
▁spine	-11.667
▁quoted	-11.6671
eclipse	-11.6672
▁modulate	-11.6672
▁disappeared	-11.6673
▁1974	-11.6675
original	-11.6676
▁participating	-11.6679
threatening	-11.668
avor	-11.668
▁shipping	-11.668
▁Arthur	-11.6684
▁Emb	-11.6686
▁incubation	-11.6686
7],[@	-11.6688
Callback	-11.669
ifdef	-11.6697
▁Survey	-11.6697
▁regret	-11.6699
▁gem	-11.6699
CY	-11.67
▁substitution	-11.67
assertEqual	-11.6701
▁upcoming	-11.6705
RON	-11.6706
666	-11.6707
After	-11.671
▁lid	-11.671
▁stimulus	-11.6711
coated	-11.6713
▁morphology	-11.6715
Make	-11.6718
▁skull	-11.672
Sorry	-11.6723
Edit	-11.6725
TAL	-11.6726
▁Labour	-11.6726
▁sudo	-11.6727
phor	-11.6727
anza	-11.673
▁relied	-11.6731
fluoro	-11.6731
▁accommodate	-11.6733
▁syntax	-11.6733
▁contractor	-11.6734
259	-11.6736
▁floating	-11.6738
▁spare	-11.6738
PIN	-11.6743
Note	-11.6743
moto	-11.6744
password	-11.6744
▁dietary	-11.6746
heart	-11.6747
▁constructor	-11.6747
▁hire	-11.6753
▁poorly	-11.6759
5.8	-11.676
245	-11.6763
▁xmlns	-11.6765
synaptic	-11.6768
cookie	-11.6769
-1}\	-11.677
▁riding	-11.6778
▁sobre	-11.6779
▁recess	-11.6783
▁Mix	-11.6784
▁Neuro	-11.6788
bootstrap	-11.6788
▁awake	-11.6789
▁oscillation	-11.679
▁ceiling	-11.6791
▁thi	-11.6791
▁Say	-11.6794
▁gently	-11.6796
115	-11.6799
typename	-11.6801
▁IgG	-11.6804
▁asymptotic	-11.6804
275	-11.6804
▁Guard	-11.6805
fused	-11.6806
▁promoted	-11.6806
▁straightforward	-11.6808
9],[@	-11.6809
ogra	-11.681
▁1973	-11.6813
▁prostate	-11.6814
uster	-11.6817
229	-11.6819
displaystyle	-11.6823
▁Buck	-11.6825
cred	-11.6826
due	-11.6826
▁CSS	-11.6827
Func	-11.6828
▁traveling	-11.6829
▁Sanders	-11.683
▁asthma	-11.6833
▁Missouri	-11.6833
▁prescribed	-11.6833
▁ranking	-11.6834
▁CNN	-11.6836
rane	-11.6839
▁pivot	-11.6841
▁fleet	-11.6841
entine	-11.6842
ogram	-11.6843
▁tourist	-11.685
Selected	-11.685
▁Brief	-11.6851
expression	-11.6851
▁Carol	-11.6852
ARG	-11.6854
deficient	-11.6855
Our	-11.6855
▁Silver	-11.6858
containing	-11.6858
▁everyday	-11.6859
▁relaxation	-11.6862
▁Kid	-11.6865
demo	-11.6866
MODE	-11.6867
▁Epi	-11.6867
▁farmers	-11.6867
crit	-11.6869
▁Excel	-11.6869
respond	-11.687
▁submission	-11.6873
▁plum	-11.6875
▁subtle	-11.6875
▁actively	-11.6876
▁horizon	-11.6879
&=&	-11.688
▁intact	-11.6881
▁Walter	-11.6881
▁positively	-11.6881
▁comparative	-11.6884
▁contradict	-11.6884
Sequence	-11.6887
▁vest	-11.6888
▁Palm	-11.6888
290	-11.6891
6.6	-11.6891
▁LLC	-11.6894
▁Hamilton	-11.6895
▁disposed	-11.6895
▁relieve	-11.6896
/../	-11.6898
▁spike	-11.6899
▁protecting	-11.69
Audio	-11.6901
election	-11.6904
4],[@	-11.6904
▁intelligent	-11.6905
estimate	-11.6907
▁reception	-11.6909
▁passive	-11.6916
231	-11.6917
avage	-11.6918
▁placing	-11.692
ophil	-11.6921
216	-11.6922
alter	-11.6923
▁wrapped	-11.6924
▁sich	-11.6924
once	-11.6927
Member	-11.693
▁Appendix	-11.6931
<<	-11.6931
Look	-11.6932
▁pride	-11.6935
▁Executive	-11.6938
▁Lincoln	-11.6938
▁placebo	-11.6939
6],[@	-11.6943
▁[4](#	-11.6946
mapsto	-11.6947
▁Kennedy	-11.6949
▁demonstration	-11.6949
▁featuring	-11.6949
Edge	-11.6951
▁furnish	-11.6953
Star	-11.6954
Solution	-11.6957
EVER	-11.6957
▁handled	-11.6962
▁exam	-11.6964
motiv	-11.6967
▁Rich	-11.6967
▁basal	-11.6968
▁Senior	-11.6971
▁raid	-11.6972
elves	-11.6972
▁considerably	-11.6973
▁investigating	-11.6975
▁thrill	-11.6975
succ	-11.6979
**6	-11.6979
▁proton	-11.698
ANCE	-11.6981
▁iOS	-11.6982
health	-11.6983
▁minority	-11.6983
▁initiated	-11.6987
▁leap	-11.6987
▁NEW	-11.6988
job	-11.6988
▁predictive	-11.6989
carboxy	-11.6989
▁Julia	-11.699
amel	-11.6991
▁distribute	-11.6992
half	-11.6998
▁halt	-11.7
▁staying	-11.7004
neighbour	-11.7004
▁applicant	-11.7004
▁labour	-11.7006
▁valley	-11.7006
▁cure	-11.7008
▁revision	-11.701
▁Oil	-11.7011
▁extraordinary	-11.7011
▁guilt	-11.7013
▁detecting	-11.7014
bool	-11.7015
Move	-11.7016
hab	-11.7016
Parse	-11.7017
▁organize	-11.7018
6.8	-11.7019
▁expertise	-11.7021
▁noble	-11.7024
TEXT	-11.7024
▁1972	-11.7027
video	-11.7028
▁Appeal	-11.703
▁Drug	-11.7033
▁monster	-11.7034
wrapper	-11.7034
8]).	-11.7034
▁ethical	-11.7038
▁$${\	-11.7038
different	-11.7042
306	-11.7043
▁replacing	-11.7044
▁possibilities	-11.7044
hren	-11.7045
^{*}	-11.7045
-17-	-11.7047
coherent	-11.7048
▁relies	-11.7049
▁kun	-11.705
▁explaining	-11.705
phan	-11.7052
▁downstream	-11.7054
▁phenomena	-11.7056
▁cab	-11.7056
▁cyst	-11.7059
▁Recent	-11.706
pharmaceutical	-11.7067
^{{\	-11.707
▁collagen	-11.707
dag	-11.7071
▁localized	-11.7072
selected	-11.7072
▁glance	-11.7073
substituted	-11.7073
roach	-11.7078
▁Kal	-11.708
volatile	-11.7081
RX	-11.7086
▁translated	-11.7088
▁tobacco	-11.7089
▁Much	-11.7089
odot	-11.7089
▁Leader	-11.7091
reach	-11.7093
▁graphics	-11.7093
special	-11.7095
▁profound	-11.7096
▁outbreak	-11.7099
CLASS	-11.71
▁grasp	-11.7102
▁punish	-11.7107
▁affinity	-11.7107
▁contributing	-11.7107
detect	-11.7107
▁writ	-11.7109
▁characterize	-11.7109
▁Kon	-11.7113
▁citizen	-11.7113
▁operational	-11.7113
▁Gun	-11.7114
▁Whi	-11.7115
▁Greg	-11.7115
▁firearm	-11.7121
▁commander	-11.7123
genesis	-11.7124
▁impaired	-11.7126
▁macrophages	-11.713
▁engaging	-11.713
▁mesh	-11.713
Space	-11.7131
Auth	-11.7132
▁defence	-11.7132
▁retrospective	-11.7137
Obj	-11.7138
▁corrected	-11.714
cephal	-11.7141
translation	-11.7143
▁bargain	-11.7144
▁Steel	-11.7144
written	-11.7145
LOW	-11.7146
▁ghost	-11.7146
serialize	-11.7149
trace	-11.7151
▁pleasant	-11.7152
expr	-11.7154
325	-11.7154
RAN	-11.7156
▁printer	-11.7157
render	-11.7157
adapter	-11.7157
gam	-11.7157
Hom	-11.7158
worker	-11.7159
border	-11.716
▁logo	-11.716
Mouse	-11.7164
),$$	-11.7166
▁emotion	-11.7168
▁suppressed	-11.7168
▁spite	-11.7173
288	-11.7178
▁Commonwealth	-11.7182
▁stabilize	-11.7182
Will	-11.7182
▁accordingly	-11.7184
▁lover	-11.7185
▁Official	-11.7185
▁smartphone	-11.7186
▁parliament	-11.7189
Role	-11.719
GRA	-11.719
Trace	-11.7192
roma	-11.7193
▁-0.3	-11.7193
▁sensation	-11.7194
bash	-11.7201
▁sleeping	-11.7202
▁ROS	-11.7204
▁struggling	-11.7204
▁nursing	-11.7204
utta	-11.7205
andra	-11.7206
▁carries	-11.721
food	-11.7211
▁liable	-11.7211
NULL	-11.7213
throw	-11.7214
▁necessity	-11.7215
ometri	-11.7216
BASE	-11.7216
liver	-11.7217
culture	-11.7218
Invalid	-11.7219
hedral	-11.722
▁connector	-11.7223
wig	-11.7224
ATC	-11.7224
▁Glen	-11.7226
Unknown	-11.7226
▁theater	-11.7226
▁evaluating	-11.7227
▁sentiment	-11.723
Receive	-11.7234
▁transit	-11.7235
▁orbital	-11.7237
unny	-11.7237
▁flexibility	-11.7238
▁conceal	-11.7238
▁clue	-11.7241
405	-11.7242
Identifier	-11.7242
▁elite	-11.7242
Boolean	-11.7245
▁confi	-11.7247
swift	-11.7247
2020	-11.7247
▁modest	-11.7248
brain	-11.7248
▁cooperation	-11.7251
ksi	-11.7251
carbon	-11.7253
▁Hell	-11.7254
▁90%	-11.7255
biotic	-11.7256
▁sixth	-11.7256
▁counting	-11.7257
▁genus	-11.7259
▁Procedure	-11.726
atum	-11.726
▁surgeon	-11.7261
stick	-11.7261
Lib	-11.7261
tuple	-11.7263
Adapter	-11.7263
▁figured	-11.7264
▁Equation	-11.7265
▁Shan	-11.7267
Allow	-11.7268
▁humor	-11.7269
265	-11.7271
▁workshop	-11.7271
248	-11.7271
\;\	-11.7272
IES	-11.7273
beat	-11.7274
▁Publication	-11.7274
fulness	-11.7275
▁convenience	-11.7275
▁Tennessee	-11.7283
Use	-11.7289
Sign	-11.7298
▁Dead	-11.73
▁courage	-11.7302
Prim	-11.7302
▁Miami	-11.7303
ensis	-11.7304
TRUE	-11.7305
▁cousin	-11.7305
angular	-11.7305
▁gland	-11.7306
azar	-11.7309
Drop	-11.7312
▁analyst	-11.7313
▁appearing	-11.7314
▁automated	-11.7314
▁analysed	-11.7314
nucl	-11.7317
345	-11.7317
John	-11.7318
▁defer	-11.7319
▁resemble	-11.7325
▁Bureau	-11.7325
▁Univ	-11.7329
algebra	-11.733
▁abundant	-11.7332
239	-11.7334
▁inflation	-11.7337
Alpha	-11.7338
▁Douglas	-11.7344
▁distal	-11.7347
▁Immuno	-11.7347
▁controversy	-11.7347
▁charging	-11.7348
role	-11.735
▁demanded	-11.735
ASH	-11.735
▁adoption	-11.7351
▁explosion	-11.7351
Widget	-11.7352
INC	-11.7352
latin	-11.7354
Extra	-11.7354
▁temper	-11.7354
Equ	-11.7355
Day	-11.7357
▁Thr	-11.7358
▁JavaScript	-11.7359
310	-11.7362
▁appellee	-11.7363
▁Petr	-11.7365
▁Insurance	-11.7366
Directory	-11.7366
▁Jason	-11.7367
surface	-11.737
▁Anthony	-11.737
chron	-11.7375
timeout	-11.7381
▁neuronal	-11.7383
▁logistic	-11.7386
▁transverse	-11.7388
▁platelet	-11.7389
▁rifle	-11.739
▁Seattle	-11.739
7.6	-11.739
[...]
