{
  "version": "1.0",
  "truncation": null,
  "padding": {
    "strategy": "BatchLongest",
    "direction": "Right",
    "pad_to_multiple_of": null,
    "pad_id": 0,
    "pad_type_id": 0,
    "pad_token": "<pad>"
  },
  "added_tokens": [
    {
      "id": 0,
      "special": true,
      "content": "<pad>",
      "single_word": false,
      "lstrip": false,
      "rstrip": false,
      "normalized": false
    },
    {
      "id": 1,
      "special": true,
      "content": "<unk>",
      "single_word": false,
      "lstrip": false,
      "rstrip": false,
      "normalized": false
    },
    {
      "id": 2,
      "special": true,
      "content": "</s>",
      "single_word": false,
      "lstrip": false,
      "rstrip": false,
      "normalized": false
    }
  ],
  "normalizer": null,
  "pre_tokenizer": {
    "type": "ByteLevel",
    "add_prefix_space": true,
    "trim_offsets": true
  },
  "post_processor": {
    "type": "TemplateProcessing",
    "single": [
      {
        "SpecialToken": {
          "id": "</s>",
          "type_id": 0
        }
      },
      {
        "Sequence": {
          "id": "A",
          "type_id": 0
        }
      },
      {
        "SpecialToken": {
          "id": "</s>",
          "type_id": 0
        }
      }
    ],
    "pair": [
      {
        "SpecialToken": {
          "id": "</s>",
          "type_id": 0
        }
      },
      {
        "Sequence": {
          "id": "A",
          "type_id": 0
        }
      },
      {
        "SpecialToken": {
          "id": "</s>",
          "type_id": 0
        }
      },
      {
        "Sequence": {
          "id": "B",
          "type_id": 1
        }
      },
      {
        "SpecialToken": {
          "id": "</s>",
          "type_id": 1
        }
      }
    ],
    "special_tokens": {
      "</s>": {
        "id": "</s>",
        "ids": [
          2
        ],
        "tokens": [
          "</s>"
        ]
      }
    }
  },
  "decoder": {
    "type": "ByteLevel",
    "add_prefix_space": true,
    "trim_offsets": true
  },
  "model": {
    "dropout": null,
    "unk_token": null,
    "continuing_subword_prefix": null,
    "end_of_word_suffix": null,
    "fuse_unk": false,
    "vocab": {
      "<pad>": 0,
      "<unk>": 1,
      "</s>": 2,
      "!": 3,
      "\"": 4,
      "#": 5,
      "$": 6,
      "%": 7,
      "&": 8,
      "'": 9,
      "(": 10,
      ")": 11,
      "*": 12,
      "+": 13,
      ",": 14,
      "-": 15,
      ".": 16,
      "/": 17,
      "0": 18,
      "1": 19,
      "2": 20,
      "3": 21,
      "4": 22,
      "5": 23,
      "6": 24,
      "7": 25,
      "8": 26,
      "9": 27,
      ":": 28,
      ";": 29,
      "<": 30,
      "=": 31,
      ">": 32,
      "?": 33,
      "@": 34,
      "A": 35,
      "B": 36,
      "C": 37,
      "D": 38,
      "E": 39,
      "F": 40,
      "G": 41,
      "H": 42,
      "I": 43,
      "J": 44,
      "K": 45,
      "L": 46,
      "M": 47,
      "N": 48,
      "O": 49,
      "P": 50,
      "Q": 51,
      "R": 52,
      "S": 53,
      "T": 54,
      "U": 55,
      "V": 56,
      "W": 57,
      "X": 58,
      "Y": 59,
      "Z": 60,
      "[": 61,
      "\\": 62,
      "]": 63,
      "^": 64,
      "_": 65,
      "`": 66,
      "a": 67,
      "b": 68,
      "c": 69,
      "d": 70,
      "e": 71,
      "f": 72,
      "g": 73,
      "h": 74,
      "i": 75,
      "j": 76,
      "k": 77,
      "l": 78,
      "m": 79,
      "n": 80,
      "o": 81,
      "p": 82,
      "q": 83,
      "r": 84,
      "s": 85,
      "t": 86,
      "u": 87,
      "v": 88,
      "w": 89,
      "x": 90,
      "y": 91,
      "z": 92,
      "{": 93,
      "|": 94,
      "}": 95,
      "~": 96,
      "¡": 97,
      "¢": 98,
      "£": 99,
      "¤": 100,
      "¥": 101,
      "¦": 102,
      "§": 103,
      "¨": 104,
      "©": 105,
      "ª": 106,
      "«": 107,
      "¬": 108,
      "®": 109,
      "¯": 110,
      "°": 111,
      "±": 112,
      "²": 113,
      "³": 114,
      "´": 115,
      "µ": 116,
      "¶": 117,
      "·": 118,
      "¸": 119,
      "¹": 120,
      "º": 121,
      "»": 122,
      "¼": 123,
      "½": 124,
      "¾": 125,
      "¿": 126,
      "À": 127,
      "Á": 128,
      "Â": 129,
      "Ã": 130,
      "Ä": 131,
      "Å": 132,
      "Æ": 133,
      "Ç": 134,
      "È": 135,
      "É": 136,
      "Ê": 137,
      "Ë": 138,
      "Ì": 139,
      "Í": 140,
      "Î": 141,
      "Ï": 142,
      "Ð": 143,
      "Ñ": 144,
      "Ò": 145,
      "Ó": 146,
      "Ô": 147,
      "Õ": 148,
      "Ö": 149,
      "×": 150,
      "Ø": 151,
      "Ù": 152,
      "Ú": 153,
      "Û": 154,
      "Ü": 155,
      "Ý": 156,
      "Þ": 157,
      "ß": 158,
      "à": 159,
      "á": 160,
      "â": 161,
      "ã": 162,
      "ä": 163,
      "å": 164,
      "æ": 165,
      "ç": 166,
      "è": 167,
      "é": 168,
      "ê": 169,
      "ë": 170,
      "ì": 171,
      "í": 172,
      "î": 173,
      "ï": 174,
      "ð": 175,
      "ñ": 176,
      "ò": 177,
      "ó": 178,
      "ô": 179,
      "õ": 180,
      "ö": 181,
      "÷": 182,
      "ø": 183,
      "ù": 184,
      "ú": 185,
      "û": 186,
      "ü": 187,
      "ý": 188,
      "þ": 189,
      "ÿ": 190,
      "Ā": 191,
      "ā": 192,
      "Ă": 193,
      "ă": 194,
      "Ą": 195,
      "ą": 196,
      "Ć": 197,
      "ć": 198,
      "Ĉ": 199,
      "ĉ": 200,
      "Ċ": 201,
      "ċ": 202,
      "Č": 203,
      "č": 204,
      "Ď": 205,
      "ď": 206,
      "Đ": 207,
      "đ": 208,
      "Ē": 209,
      "ē": 210,
      "Ĕ": 211,
      "ĕ": 212,
      "Ė": 213,
      "ė": 214,
      "Ę": 215,
      "ę": 216,
      "Ě": 217,
      "ě": 218,
      "Ĝ": 219,
      "ĝ": 220,
      "Ğ": 221,
      "ğ": 222,
      "Ġ": 223,
      "ġ": 224,
      "Ģ": 225,
      "ģ": 226,
      "Ĥ": 227,
      "ĥ": 228,
      "Ħ": 229,
      "ħ": 230,
      "Ĩ": 231,
      "ĩ": 232,
      "Ī": 233,
      "ī": 234,
      "Ĭ": 235,
      "ĭ": 236,
      "Į": 237,
      "į": 238,
      "İ": 239,
      "ı": 240,
      "Ĳ": 241,
      "ĳ": 242,
      "Ĵ": 243,
      "ĵ": 244,
      "Ķ": 245,
      "ķ": 246,
      "ĸ": 247,
      "Ĺ": 248,
      "ĺ": 249,
      "Ļ": 250,
      "ļ": 251,
      "Ľ": 252,
      "ľ": 253,
      "Ŀ": 254,
      "ŀ": 255,
      "Ł": 256,
      "ł": 257,
      "Ń": 258,
      "Ġt": 259,
      "he": 260,
      "Ġa": 261,
      "in": 262,
      "re": 263,
      "Ġthe": 264,
      "on": 265,
      "Ġs": 266,
      "er": 267,
      "Ġw": 268,
      "Ġo": 269,
      "at": 270,
      "en": 271,
      "an": 272,
      "Ġc": 273,
      "it": 274,
      "is": 275,
      "ed": 276,
      "Ġb": 277,
      "or": 278,
      "es": 279,
      "Ġf": 280,
      "ou": 281,
      "Ġp": 282,
      "ing": 283,
      "nd": 284,
      "ar": 285,
      "Ġm": 286,
      "al": 287,
      "Ġof": 288,
      "Ġd": 289,
      "Ġto": 290,
      "Ġh": 291,
      "Ġin": 292,
      "as": 293,
      "Ġand": 294,
      "ic": 295,
      "le": 296,
      "Ġth": 297,
      "om": 298,
      "ion": 299,
      "Ġl": 300,
      "Ġn": 301,
      "ll": 302,
      "ent": 303,
      "Ġe": 304,
      "st": 305,
      "Ġre": 306,
      "ro": 307,
      "âĢ": 308,
      "Ġg": 309,
      "ve": 310,
      "ly": 311,
      "id": 312,
      "ad": 313,
      "Ġbe": 314,
      "ĠI": 315,
      "ac": 316,
      "ut": 317,
      "ĠT": 318,
      "ot": 319,
      "ĠS": 320,
      "Ġhe": 321,
      "im": 322,
      "et": 323,
      "Ġon": 324,
      "ĠA": 325,
      "am": 326,
      "ow": 327,
      "se": 328,
      "ig": 329,
      "ay": 330,
      "ur": 331,
      "ld": 332,
      "ĠC": 333,
      "Ġthat": 334,
      "Ġu": 335,
      "Ġfor": 336,
      "ver": 337,
      "Ġy": 338,
      "Ġis": 339,
      "ir": 340,
      "Ġst": 341,
      "ct": 342,
      "Ġwas": 343,
      "ĠM": 344,
      "il": 345,
      "Ġit": 346,
      "ith": 347,
      "ol": 348,
      "Ġas": 349,
      "ch": 350,
      "ce": 351,
      "ĠB": 352,
      "ter": 353,
      "Ġwh": 354,
      "ation": 355,
      "Ġwith": 356,
      "Ġde": 357,
      "Ġwe": 358,
      "ĠH": 359,
      "Ġan": 360,
      "Ġ1": 361,
      "Ġyou": 362,
      "ĠP": 363,
      "ri": 364,
      "her": 365,
      "and": 366,
      "'s": 367,
      "ke": 368,
      "Ġ(": 369,
      "ra": 370,
      "Ġat": 371,
      "ill": 372,
      "Ġcon": 373,
      "Ġse": 374,
      "if": 375,
      "us": 376,
      "ĠThe": 377,
      "ge": 378,
      "ul": 379,
      "ĠW": 380,
      "ht": 381,
      "ĠD": 382,
      "ers": 383,
      "ist": 384,
      "od": 385,
      "ĠR": 386,
      "pp": 387,
      "est": 388,
      "os": 389,
      "qu": 390,
      "em": 391,
      "un": 392,
      "ore": 393,
      "um": 394,
      "rom": 395,
      "ĠF": 396,
      "Ġv": 397,
      "th": 398,
      "Ġr": 399,
      "Ġha": 400,
      "ate": 401,
      "ĠL": 402,
      "Ġ2": 403,
      "el": 404,
      "Ġhis": 405,
      "Ġ\"": 406,
      "Ġcom": 407,
      "ĠG": 408,
      "ain": 409,
      "op": 410,
      "ant": 411,
      "Ġpro": 412,
      "res": 413,
      "ould": 414,
      "ĠN": 415,
      "ab": 416,
      "ess": 417,
      "âĢĻ": 418,
      "Ġne": 419,
      "Ġor": 420,
      "Ġnot": 421,
      "Ġby": 422,
      "ĠE": 423,
      "Ġal": 424,
      "Ġfrom": 425,
      "ie": 426,
      "Ġex": 427,
      "Ġare": 428,
      "ight": 429,
      "oc": 430,
      "red": 431,
      "Ġsu": 432,
      "Ġsh": 433,
      "Ġle": 434,
      "art": 435,
      "ĠJ": 436,
      "ity": 437,
      "ort": 438,
      "ĠâĢ": 439,
      "nt": 440,
      "all": 441,
      "ive": 442,
      "Ġk": 443,
      "Ġhad": 444,
      "ard": 445,
      "Ġch": 446,
      "pe": 447,
      "ust": 448,
      "Ġhave": 449,
      "ment": 450,
      "end": 451,
      "iv": 452,
      "ies": 453,
      "Ġsa": 454,
      "Ġher": 455,
      "ack": 456,
      "out": 457,
      "our": 458,
      "The": 459,
      "ok": 460,
      "ĠO": 461,
      "Ġthis": 462,
      "oug": 463,
      "Ġj": 464,
      "ak": 465,
      "ast": 466,
      "Ġab": 467,
      "ag": 468,
      "Ġme": 469,
      "ome": 470,
      "Ġpl": 471,
      "00": 472,
      "ap": 473,
      "ud": 474,
      "Ġdo": 475,
      "ich": 476,
      "Ġbut": 477,
      "te": 478,
      "ally": 479,
      "Ġgo": 480,
      "Ġwor": 481,
      "ost": 482,
      "ãģ": 483,
      ".\"": 484,
      "Ġwhe": 485,
      "ound": 486,
      "Ġall": 487,
      "ong": 488,
      "ide": 489,
      "Ġthey": 490,
      "Ġwere": 491,
      "ous": 492,
      "ear": 493,
      "ine": 494,
      "Ġout": 495,
      "Ġar": 496,
      "ure": 497,
      "Ġ19": 498,
      "ĠK": 499,
      "ia": 500,
      "ame": 501,
      "pt": 502,
      "Ġtr": 503,
      "Ġshe": 504,
      "ber": 505,
      "ther": 506,
      "ans": 507,
      "Ġso": 508,
      "Ġwho": 509,
      "Ġcan": 510,
      "one": 511,
      "ĠU": 512,
      "Ġup": 513,
      "Ġun": 514,
      "Ġsaid": 515,
      "Ġqu": 516,
      "ff": 517,
      "ind": 518,
      "to": 519,
      "Ġen": 520,
      "'t": 521,
      "Ġtheir": 522,
      "ip": 523,
      "ial": 524,
      "Ġ_": 525,
      "Ġone": 526,
      "ice": 527,
      "Ġhas": 528,
      "ough": 529,
      "og": 530,
      "ated": 531,
      "ook": 532,
      "ne": 533,
      "Ġcl": 534,
      "ions": 535,
      "ike": 536,
      "ĠHe": 537,
      "are": 538,
      "age": 539,
      "au": 540,
      "pl": 541,
      "Ġwould": 542,
      "Ġhim": 543,
      "Ġmy": 544,
      "act": 545,
      "iz": 546,
      "ime": 547,
      "Ġwhich": 548,
      "ry": 549,
      "ace": 550,
      "ue": 551,
      "Ġim": 552,
      "ass": 553,
      "Ġman": 554,
      "av": 555,
      "Ġwill": 556,
      "ep": 557,
      "Ġad": 558,
      "ary": 559,
      "âĢĿ": 560,
      "Ġmore": 561,
      "ĠĠ": 562,
      "Ġus": 563,
      "Ã©": 564,
      "ub": 565,
      "ake": 566,
      "Ġabout": 567,
      "Ġte": 568,
      "ĠIn": 569,
      "Ġag": 570,
      "cc": 571,
      "Ġbeen": 572,
      "per": 573,
      "very": 574,
      "ire": 575,
      "**": 576,
      "ĠTh": 577,
      "ian": 578,
      "ven": 579,
      "Ġthem": 580,
      "own": 581,
      "Ġcont": 582,
      "Ġsp": 583,
      "01": 584,
      "ite": 585,
      "ond": 586,
      "ord": 587,
      "Ġfe": 588,
      "ose": 589,
      "ĠV": 590,
      "ĠSt": 591,
      "ĠCh": 592,
      "Ġcomp": 593,
      "ib": 594,
      "Ġoff": 595,
      "so": 596,
      "ign": 597,
      "Ġyour": 598,
      "Ġno": 599,
      "ĠIt": 600,
      "ru": 601,
      "able": 602,
      "Ġlike": 603,
      "ĠY": 604,
      "hed": 605,
      "cl": 606,
      "ish": 607,
      "ical": 608,
      "ress": 609,
      "mer": 610,
      "Ġinto": 611,
      "Ġper": 612,
      "ect": 613,
      "Ġother": 614,
      "ick": 615,
      "Ġover": 616,
      ",\"": 617,
      "Ġthere": 618,
      "ence": 619,
      "ach": 620,
      "ile": 621,
      "Ġpe": 622,
      "Ġro": 623,
      "âĢĶ": 624,
      "Ġdis": 625,
      "ance": 626,
      "ays": 627,
      "Ġres": 628,
      "Ġkn": 629,
      "Ġsome": 630,
      "Ġwhen": 631,
      "wn": 632,
      "ult": 633,
      "Ġtw": 634,
      "fter": 635,
      "Ġwhat": 636,
      "ang": 637,
      "Ġpart": 638,
      "orm": 639,
      "ations": 640,
      "Ġsc": 641,
      "ory": 642,
      "Ġbec": 643,
      "Ġapp": 644,
      "ens": 645,
      "uc": 646,
      "ks": 647,
      "Ġtime": 648,
      "ree": 649,
      "ction": 650,
      "ount": 651,
      "ĠâĢľ": 652,
      "ren": 653,
      "Ġcould": 654,
      "ove": 655,
      "Ġany": 656,
      "reat": 657,
      "Ġgr": 658,
      "Ġla": 659,
      "ade": 660,
      "Ġ3": 661,
      "irst": 662,
      "Ġalso": 663,
      "Ġif": 664,
      "int": 665,
      "Ġ201": 666,
      "Ġthan": 667,
      "Ġyear": 668,
      "ings": 669,
      "Ġits": 670,
      "we": 671,
      "ood": 672,
      "ark": 673,
      "Ġbl": 674,
      "sel": 675,
      "rit": 676,
      "ov": 677,
      "Ġdes": 678,
      "fe": 679,
      "Ġpr": 680,
      "Ġdid": 681,
      "urn": 682,
      "..": 683,
      "ase": 684,
      "ople": 685,
      "Ġund": 686,
      "ink": 687,
      "Ġpre": 688,
      "Ġco": 689,
      "vel": 690,
      "Ġjust": 691,
      "Ġrec": 692,
      "ition": 693,
      "ild": 694,
      "hing": 695,
      "Ġback": 696,
      "port": 697,
      "ĠâĢĵ": 698,
      "ater": 699,
      "ors": 700,
      "Ġwork": 701,
      "Ġnew": 702,
      "ict": 703,
      "Ġfirst": 704,
      "vers": 705,
      "ft": 706,
      "ĠÐ": 707,
      "ob": 708,
      "ious": 709,
      "ail": 710,
      "ons": 711,
      "ãĤ": 712,
      "Ġget": 713,
      "erv": 714,
      "Ġ'": 715,
      "ents": 716,
      "Ġonly": 717,
      "Ġtwo": 718,
      "Ġfl": 719,
      "Ġpeople": 720,
      "amp": 721,
      "Ġpo": 722,
      "âĢĵ": 723,
      "oy": 724,
      "Ġafter": 725,
      "itt": 726,
      "),": 727,
      "ew": 728,
      "Ġatt": 729,
      "Ġour": 730,
      "les": 731,
      "iss": 732,
      "Ġknow": 733,
      "anc": 734,
      "ause": 735,
      "Ġagain": 736,
      "lic": 737,
      "Ġcomm": 738,
      "Ġbet": 739,
      "Ġhow": 740,
      "Ġspe": 741,
      "hen": 742,
      "Ġ,": 743,
      "ull": 744,
      "Ġthen": 745,
      "Ġam": 746,
      ").": 747,
      "Ġlook": 748,
      "ates": 749,
      "fore": 750,
      "ell": 751,
      "Ġunder": 752,
      "ph": 753,
      "rough": 754,
      "man": 755,
      "ied": 756,
      "form": 757,
      "oll": 758,
      "ath": 759,
      "ec": 760,
      "Ġ4": 761,
      "ual": 762,
      "Ġacc": 763,
      "igh": 764,
      "Ġsee": 765,
      "Ð¾": 766,
      "other": 767,
      "ont": 768,
      "ning": 769,
      "ident": 770,
      "tern": 771,
      "Ġsm": 772,
      "Ġact": 773,
      "uch": 774,
      "ĠUn": 775,
      "old": 776,
      "Ġwant": 777,
      "Ġpol": 778,
      "Ġ|": 779,
      "Ġeven": 780,
      "Ġnow": 781,
      "Ġthrough": 782,
      "Ġmost": 783,
      "ock": 784,
      "ward": 785,
      "Ġrem": 786,
      "ily": 787,
      "ife": 788,
      "self": 789,
      "ise": 790,
      "Ġdown": 791,
      "?\"": 792,
      "hat": 793,
      "ss": 794,
      "Ġbr": 795,
      "Ġind": 796,
      "Ġplay": 797,
      "Ġ200": 798,
      "Ġwhere": 799,
      "Ġcons": 800,
      "ng": 801,
      "Ġem": 802,
      "xt": 803,
      "ĠShe": 804,
      "way": 805,
      "Ġway": 806,
      "oss": 807,
      "Ġsec": 808,
      "ier": 809,
      "Ġevery": 810,
      "row": 811,
      "Ġ5": 812,
      "ought": 813,
      "In": 814,
      "Ġrel": 815,
      "enc": 816,
      "oth": 817,
      "ational": 818,
      "ãĥ": 819,
      "ĠBut": 820,
      "Ġac": 821,
      "ĠAnd": 822,
      "Ġhand": 823,
      "Ġneed": 824,
      "clud": 825,
      "rent": 826,
      "Ġbefore": 827,
      "Ġlong": 828,
      "und": 829,
      "Ġ-": 830,
      "up": 831,
      "Ġown": 832,
      "ert": 833,
      "lect": 834,
      "rib": 835,
      "Ġyears": 836,
      "Ġcall": 837,
      "ty": 838,
      "led": 839,
      "ited": 840,
      "omet": 841,
      "Ġinv": 842,
      "ather": 843,
      "gr": 844,
      "io": 845,
      "ked": 846,
      "Ġright": 847,
      "du": 848,
      "ject": 849,
      "Ġmade": 850,
      "Ġmay": 851,
      "pect": 852,
      "Ġthese": 853,
      "ug": 854,
      "land": 855,
      "Ġra": 856,
      "ating": 857,
      "Ġbecause": 858,
      "Ð°": 859,
      "Ġmake": 860,
      "Ġdon": 861,
      "aking": 862,
      "Ġshould": 863,
      "ĠĊ": 864,
      "19": 865,
      "Ġent": 866,
      "orn": 867,
      "Ġwell": 868,
      "Ġinc": 869,
      "Ġsl": 870,
      "Ġdec": 871,
      "Ðµ": 872,
      "ah": 873,
      "Ġtra": 874,
      "Ġthink": 875,
      "ĠWe": 876,
      "Ġdif": 877,
      "Ġpres": 878,
      "Ġph": 879,
      "gan": 880,
      "arly": 881,
      "uring": 882,
      "Ġsur": 883,
      "hes": 884,
      "Ġev": 885,
      "ower": 886,
      "ange": 887,
      "meric": 888,
      "Ġmuch": 889,
      "olog": 890,
      "Ġreg": 891,
      "Ġass": 892,
      "ĠThis": 893,
      "Ġke": 894,
      "ten": 895,
      "als": 896,
      "Ġend": 897,
      "Ġadd": 898,
      "ix": 899,
      "ful": 900,
      "ars": 901,
      "##": 902,
      "air": 903,
      "Ġsupp": 904,
      "oup": 905,
      "Ġbeing": 906,
      "Ġmany": 907,
      "ting": 908,
      "ener": 909,
      "get": 910,
      "Ġsy": 911,
      "Ġbu": 912,
      "ins": 913,
      "Ġ.": 914,
      "ave": 915,
      "Ġvery": 916,
      "ble": 917,
      "Ġimp": 918,
      "ative": 919,
      "Ġsuch": 920,
      "Ġfin": 921,
      "ism": 922,
      "Ġinclud": 923,
      "Ã¤": 924,
      "ublic": 925,
      "Ġob": 926,
      "az": 927,
      "ased": 928,
      "ters": 929,
      "Ġbel": 930,
      "ered": 931,
      "ouse": 932,
      "ool": 933,
      "ities": 934,
      "ible": 935,
      "ics": 936,
      "Ġop": 937,
      "ince": 938,
      "ĠRe": 939,
      "Ġsay": 940,
      "iet": 941,
      "ific": 942,
      "ĠNew": 943,
      "Ġmin": 944,
      "ween": 945,
      "ĠAl": 946,
      "Ġel": 947,
      "ork": 948,
      "erson": 949,
      "iew": 950,
      "Ġcol": 951,
      "Ġgood": 952,
      "ĠAr": 953,
      "Ġgu": 954,
      "Ġset": 955,
      "Ġ18": 956,
      "Ġsub": 957,
      "ason": 958,
      "ms": 959,
      "Ð¸": 960,
      "Ġthose": 961,
      "ĠAmeric": 962,
      "hip": 963,
      "Ġstill": 964,
      "ĠâĢĶ": 965,
      "ale": 966,
      "Ġ6": 967,
      "ient": 968,
      "ank": 969,
      "ĠAn": 970,
      "Ġcar": 971,
      "Ġbetween": 972,
      "day": 973,
      "vern": 974,
      "Ġret": 975,
      "ĠLe": 976,
      "ollow": 977,
      "ts": 978,
      "Ġhere": 979,
      "ys": 980,
      "ĠSe": 981,
      "pr": 982,
      "oh": 983,
      "ĠDe": 984,
      "ern": 985,
      "Ġaround": 986,
      "Ġhead": 987,
      "ved": 988,
      "its": 989,
      "Ġhel": 990,
      "He": 991,
      "ĠÃ": 992,
      "ĠMar": 993,
      "ĠTr": 994,
      "oun": 995,
      "Ġsomet": 996,
      "ÑĤ": 997,
      "ĠYou": 998,
      "ared": 999,
      "'d": 1000,
      "Ġfound": 1001,
      "Ġstart": 1002,
      "ĠThey": 1003,
      "Ġuse": 1004,
      "Ġfam": 1005,
      "Ġinter": 1006,
      "Ġinst": 1007,
      "It": 1008,
      "Ġmon": 1009,
      "gg": 1010,
      "Ġlast": 1011,
      "omm": 1012,
      "read": 1013,
      "Ġworld": 1014,
      "ump": 1015,
      ".âĢĿ": 1016,
      "Ġche": 1017,
      "imes": 1018,
      "cess": 1019,
      "Ġwhile": 1020,
      "cept": 1021,
      "Ġshow": 1022,
      "Ġins": 1023,
      "Ġfr": 1024,
      "Ġcount": 1025,
      "Ġcr": 1026,
      "ures": 1027,
      "Ġagainst": 1028,
      "Ġgoing": 1029,
      "alk": 1030,
      "ments": 1031,
      "ually": 1032,
      "Ġstud": 1033,
      "Ġstr": 1034,
      "ik": 1035,
      "Ġque": 1036,
      "Ġgl": 1037,
      "Ġter": 1038,
      "ĠAs": 1039,
      "ck": 1040,
      "the": 1041,
      "Th": 1042,
      "Ġtake": 1043,
      "ces": 1044,
      "Ġturn": 1045,
      "Ġsame": 1046,
      "uss": 1047,
      "Ġlife": 1048,
      "ness": 1049,
      "rest": 1050,
      "Ġtoo": 1051,
      "Ġday": 1052,
      "pped": 1053,
      "Ġtrans": 1054,
      "Ġthree": 1055,
      "Ġser": 1056,
      "Ġwom": 1057,
      "aw": 1058,
      "Ġhelp": 1059,
      "Ġint": 1060,
      "Ġpoint": 1061,
      "Ġdoes": 1062,
      "ner": 1063,
      "Ġserv": 1064,
      "Ġsim": 1065,
      "Ġmed": 1066,
      "Ġcent": 1067,
      "Ġdef": 1068,
      "der": 1069,
      "ility": 1070,
      "Ġdisc": 1071,
      "ues": 1072,
      "ines": 1073,
      "oot": 1074,
      "ivers": 1075,
      "ittle": 1076,
      "ists": 1077,
      "Ġfollow": 1078,
      "ek": 1079,
      "arm": 1080,
      "any": 1081,
      "Ġmem": 1082,
      "ric": 1083,
      "Ġest": 1084,
      "ution": 1085,
      "ross": 1086,
      "Ġreal": 1087,
      "atch": 1088,
      "--": 1089,
      "Ġcap": 1090,
      "Ġ7": 1091,
      "ular": 1092,
      "âĢľ": 1093,
      "Ġeff": 1094,
      "Ġexp": 1095,
      "ene": 1096,
      "Ġnum": 1097,
      "ĠSh": 1098,
      "ton": 1099,
      "Ġnever": 1100,
      "aj": 1101,
      "Ġdet": 1102,
      "arl": 1103,
      "Ġgreat": 1104,
      "ever": 1105,
      "ives": 1106,
      "Ġused": 1107,
      "Ġlead": 1108,
      "ret": 1109,
      "Ġdiffe": 1110,
      "Ġhigh": 1111,
      "Ġrep": 1112,
      "ody": 1113,
      "Ġboth": 1114,
      "ined": 1115,
      "ãĢ": 1116,
      ",âĢĿ": 1117,
      "ving": 1118,
      "Ġinte": 1119,
      "chool": 1120,
      "ax": 1121,
      "uth": 1122,
      "ann": 1123,
      "ished": 1124,
      "Ġref": 1125,
      "Ġspec": 1126,
      "Ð½": 1127,
      "Ġbro": 1128,
      "Ġdist": 1129,
      "Ġ$": 1130,
      "Ġcour": 1131,
      "'re": 1132,
      "Ġsign": 1133,
      "ying": 1134,
      "Ġprov": 1135,
      "Ġform": 1136,
      "Ġmod": 1137,
      "Ġes": 1138,
      "Ñģ": 1139,
      "be": 1140,
      "aug": 1141,
      "stem": 1142,
      "att": 1143,
      "ened": 1144,
      "Ġmet": 1145,
      "Ġdidn": 1146,
      "Ġchar": 1147,
      "Ġfind": 1148,
      "Ġ8": 1149,
      "ried": 1150,
      "Ġread": 1151,
      "com": 1152,
      "thing": 1153,
      "Ġdire": 1154,
      "arn": 1155,
      "Ġlar": 1156,
      "ĠFr": 1157,
      "Ġpass": 1158,
      "ÑĢ": 1159,
      "ames": 1160,
      "ĠWh": 1161,
      "me": 1162,
      "Ġext": 1163,
      "Ġloc": 1164,
      "ision": 1165,
      "Ġcome": 1166,
      "Ġanother": 1167,
      "Ġed": 1168,
      "Ġrun": 1169,
      "Ġcre": 1170,
      "ized": 1171,
      "Ġlittle": 1172,
      "velop": 1173,
      "Ġlet": 1174,
      "Ġperson": 1175,
      "Ġchild": 1176,
      "Ġmight": 1177,
      "Ġthought": 1178,
      "Ġgovern": 1179,
      "Ġeach": 1180,
      "Ġhapp": 1181,
      "cent": 1182,
      "Ġconf": 1183,
      "000": 1184,
      "outh": 1185,
      "Ġunt": 1186,
      "Ġseem": 1187,
      "ves": 1188,
      "ute": 1189,
      "ience": 1190,
      "Ġ10": 1191,
      "Ġsomething": 1192,
      "ger": 1193,
      "Ġcur": 1194,
      "Ġfew": 1195,
      "Ġ199": 1196,
      "Ġpar": 1197,
      "...": 1198,
      "Ġplace": 1199,
      "ĠCl": 1200,
      "Ġbo": 1201,
      "ash": 1202,
      "ĠZ": 1203,
      "que": 1204,
      "Ġ9": 1205,
      "Ġgot": 1206,
      "We": 1207,
      "ĠIs": 1208,
      "Ġsk": 1209,
      "Ġteam": 1210,
      "ĠFor": 1211,
      "Ġmen": 1212,
      "Ġart": 1213,
      "Ġey": 1214,
      "Ġput": 1215,
      "ina": 1216,
      "Ã³": 1217,
      "Ġfeel": 1218,
      "Ġduring": 1219,
      "ted": 1220,
      "ices": 1221,
      "akes": 1222,
      "Ġcle": 1223,
      "Ð¾Ð": 1224,
      "ced": 1225,
      "Ġmar": 1226,
      "Ġgener": 1227,
      "Ġaway": 1228,
      "ants": 1229,
      "Ġtold": 1230,
      "ĠIf": 1231,
      "ense": 1232,
      "ling": 1233,
      "Ġleft": 1234,
      "ral": 1235,
      "Ġold": 1236,
      "Ġav": 1237,
      "con": 1238,
      "ged": 1239,
      "ets": 1240,
      "Ġsoc": 1241,
      "Ġreport": 1242,
      "Ġsecond": 1243,
      "Ġfil": 1244,
      "riend": 1245,
      "ĠPro": 1246,
      "ÃŃ": 1247,
      "ield": 1248,
      "ait": 1249,
      "Ġet": 1250,
      "Ġcare": 1251,
      "Ġexper": 1252,
      "Ġdep": 1253,
      "ages": 1254,
      "ĠThere": 1255,
      "Ġfact": 1256,
      "You": 1257,
      "ex": 1258,
      "ways": 1259,
      "Ġuntil": 1260,
      "'m": 1261,
      "less": 1262,
      "Ġexpl": 1263,
      "ention": 1264,
      "Ġrest": 1265,
      "son": 1266,
      "min": 1267,
      "duc": 1268,
      "Ġinf": 1269,
      "Ġcontin": 1270,
      "Ġdel": 1271,
      "Ġhome": 1272,
      "osed": 1273,
      "Ġdem": 1274,
      "ung": 1275,
      "Ġposs": 1276,
      "ired": 1277,
      "Ġcame": 1278,
      "Ġsmall": 1279,
      "med": 1280,
      "Ġbus": 1281,
      "Ġsystem": 1282,
      "Ġhum": 1283,
      "iness": 1284,
      "ĠInd": 1285,
      "Ġbeh": 1286,
      ".'": 1287,
      "Ġgroup": 1288,
      "Ã¡": 1289,
      "Ġpolit": 1290,
      "__": 1291,
      "Ġmust": 1292,
      "Ġsince": 1293,
      "Ġleg": 1294,
      "uck": 1295,
      "Ġbelie": 1296,
      "Ġpublic": 1297,
      "ohn": 1298,
      "Ġwithout": 1299,
      "orth": 1300,
      "ically": 1301,
      "ised": 1302,
      "Ġz": 1303,
      "Ġmov": 1304,
      "ature": 1305,
      "Ġtook": 1306,
      "Ġ[": 1307,
      "Ġdevelop": 1308,
      "ane": 1309,
      "Ġcalled": 1310,
      "ury": 1311,
      "alth": 1312,
      "Ġoffic": 1313,
      "ched": 1314,
      "Ġcomple": 1315,
      "Ġdifferent": 1316,
      "Ġlaw": 1317,
      "ata": 1318,
      "'ll": 1319,
      "ially": 1320,
      "Ġlater": 1321,
      "uro": 1322,
      "ĠQ": 1323,
      "Ġreally": 1324,
      "Ġthings": 1325,
      "Ġstate": 1326,
      "ize": 1327,
      "ital": 1328,
      "Ġbest": 1329,
      "Ġfour": 1330,
      "bers": 1331,
      "Ġbook": 1332,
      "enn": 1333,
      "ley": 1334,
      "Ġpri": 1335,
      "Ġcor": 1336,
      "ĠBe": 1337,
      "ĠAt": 1338,
      "ĠÂ": 1339,
      "Ġpower": 1340,
      "Ġwrit": 1341,
      "Ġquest": 1342,
      "Ġword": 1343,
      "Ġnext": 1344,
      "Ġstand": 1345,
      "ural": 1346,
      "Ġdirect": 1347,
      "ĠSc": 1348,
      "Ġresp": 1349,
      "ement": 1350,
      "Ġhard": 1351,
      "Ġmil": 1352,
      "ained": 1353,
      "ats": 1354,
      "rist": 1355,
      "ering": 1356,
      "arch": 1357,
      "ird": 1358,
      "ately": 1359,
      "Ġsays": 1360,
      "Ġide": 1361,
      "Ġsupport": 1362,
      "Ġprodu": 1363,
      "ĠOn": 1364,
      "here": 1365,
      "Ġvar": 1366,
      "Ġtell": 1367,
      "Ġadv": 1368,
      "Ġcommun": 1369,
      "ĠBl": 1370,
      "ĠAmerican": 1371,
      "Ġpartic": 1372,
      "Ġ20": 1373,
      "Ġhist": 1374,
      "Ġimport": 1375,
      "iving": 1376,
      "Ġgovernment": 1377,
      "iversity": 1378,
      "co": 1379,
      "Ġwent": 1380,
      "Ġopen": 1381,
      "ĠĠĊ": 1382,
      "Ġmain": 1383,
      "Ġwar": 1384,
      "Ġopp": 1385,
      "ĠAd": 1386,
      "Ġmat": 1387,
      "ably": 1388,
      "ott": 1389,
      "Ġ**": 1390,
      "Ġrequ": 1391,
      "ron": 1392,
      "Ġpop": 1393,
      "Ġalways": 1394,
      "ertain": 1395,
      "rop": 1396,
      "ĠĠĠĠ": 1397,
      "ĠThat": 1398,
      "illion": 1399,
      "ract": 1400,
      "Ġwater": 1401,
      "Ġsw": 1402,
      "ided": 1403,
      "Ġfriend": 1404,
      "Ġval": 1405,
      "Ġkeep": 1406,
      "Ġbuild": 1407,
      "Ġvis": 1408,
      "Ġmark": 1409,
      "Ġfar": 1410,
      "Ġschool": 1411,
      ".,": 1412,
      "Ġmonth": 1413,
      "ember": 1414,
      "'ve": 1415,
      "new": 1416,
      "Ġasked": 1417,
      "Ġbig": 1418,
      "Ġname": 1419,
      "Ġgame": 1420,
      "de": 1421,
      "Ġfamily": 1422,
      "ai": 1423,
      "gin": 1424,
      "iam": 1425,
      "Ġdra": 1426,
      "Ġnight": 1427,
      "Ġrele": 1428,
      "Ġside": 1429,
      "Ġnumber": 1430,
      "Ġreturn": 1431,
      "ruct": 1432,
      "ived": 1433,
      "Ġele": 1434,
      "ional": 1435,
      "elt": 1436,
      "br": 1437,
      "Ġi": 1438,
      "Ġpos": 1439,
      "gy": 1440,
      "ĠSp": 1441,
      "This": 1442,
      "ĠJohn": 1443,
      "ER": 1444,
      "view": 1445,
      "Ġlist": 1446,
      "ĠGr": 1447,
      "Ġtop": 1448,
      "une": 1449,
      "Ġface": 1450,
      "Ã¶": 1451,
      "Ġdri": 1452,
      "Ġroom": 1453,
      "iver": 1454,
      "Ġfull": 1455,
      "ording": 1456,
      "chn": 1457,
      "ĠHow": 1458,
      "alf": 1459,
      "app": 1460,
      "Ġconst": 1461,
      "by": 1462,
      "Ġair": 1463,
      "inc": 1464,
      "urs": 1465,
      "20": 1466,
      "Ġthough": 1467,
      "Ġinform": 1468,
      "ology": 1469,
      "Ġmus": 1470,
      "ently": 1471,
      "ains": 1472,
      "Ġ198": 1473,
      "ĠPh": 1474,
      "raph": 1475,
      "stand": 1476,
      "ior": 1477,
      "let": 1478,
      "But": 1479,
      "Ġresult": 1480,
      "Ġ15": 1481,
      "ured": 1482,
      "reen": 1483,
      "Ġlight": 1484,
      "den": 1485,
      "sc": 1486,
      "Ġbre": 1487,
      "Ġallow": 1488,
      "Ġlo": 1489,
      "Ġmom": 1490,
      "Ġlarge": 1491,
      "Ġbetter": 1492,
      "Ġmove": 1493,
      "gram": 1494,
      "Ġless": 1495,
      "10": 1496,
      "ead": 1497,
      "oney": 1498,
      "atic": 1499,
      "Ġincluding": 1500,
      "ream": 1501,
      "Ġpat": 1502,
      "Ġenough": 1503,
      "used": 1504,
      "side": 1505,
      "ister": 1506,
      "Ġcontro": 1507,
      "Ġprom": 1508,
      "Ġve": 1509,
      "oon": 1510,
      "ians": 1511,
      "omp": 1512,
      "ides": 1513,
      "sh": 1514,
      "Ġcamp": 1515,
      "iven": 1516,
      "Ġer": 1517,
      "Ġfun": 1518,
      "Ġty": 1519,
      "Ġclass": 1520,
      "inal": 1521,
      "Ġ*": 1522,
      "Ġsing": 1523,
      "Ġhouse": 1524,
      "aim": 1525,
      "Ġeyes": 1526,
      "Ġann": 1527,
      "ĠCon": 1528,
      "mber": 1529,
      "rence": 1530,
      "Ġprof": 1531,
      "Ġ&": 1532,
      "Ġalong": 1533,
      "Ġlot": 1534,
      "Ġiss": 1535,
      "Ġweek": 1536,
      "ĠEng": 1537,
      "Ġinterest": 1538,
      "urch": 1539,
      "ĠOr": 1540,
      "lish": 1541,
      "ĠCol": 1542,
      "Ġproble": 1543,
      "Ġdr": 1544,
      "Ġthing": 1545,
      "Ġeas": 1546,
      "ued": 1547,
      "Ġinvest": 1548,
      "Ġ12": 1549,
      "most": 1550,
      "ĠYork": 1551,
      "ator": 1552,
      "Ġland": 1553,
      "my": 1554,
      "ĠWhen": 1555,
      "aps": 1556,
      "Ġsol": 1557,
      "And": 1558,
      "Ġfore": 1559,
      "Ġhimself": 1560,
      "ĠTrump": 1561,
      "Ġ||": 1562,
      "Ġyoung": 1563,
      "Ġstat": 1564,
      "Ġdays": 1565,
      "ready": 1566,
      "Ġpast": 1567,
      "ĠUnited": 1568,
      "Ġcountry": 1569,
      "Ġpost": 1570,
      "Ġwomen": 1571,
      "Ġcase": 1572,
      "ote": 1573,
      "rew": 1574,
      "ĠBr": 1575,
      "Ġ17": 1576,
      "ober": 1577,
      "ĠÎ": 1578,
      "mb": 1579,
      "Ġmean": 1580,
      "Ġlooked": 1581,
      "ĠAll": 1582,
      "Ġorgan": 1583,
      "ours": 1584,
      "oice": 1585,
      "ison": 1586,
      "ĠMay": 1587,
      "ajor": 1588,
      "Ġoper": 1589,
      "Ġkind": 1590,
      "aring": 1591,
      "ission": 1592,
      "ĠPl": 1593,
      "Ġknown": 1594,
      "Ġocc": 1595,
      "Ġcity": 1596,
      "Ġsit": 1597,
      "Ġonce": 1598,
      "ards": 1599,
      "Ġprev": 1600,
      "els": 1601,
      "ium": 1602,
      "ither": 1603,
      "eng": 1604,
      "bs": 1605,
      "Ġkill": 1606,
      "irl": 1607,
      "ĠHis": 1608,
      "ider": 1609,
      "Ġprocess": 1610,
      "What": 1611,
      "Ġever": 1612,
      "Ġincre": 1613,
      "Ð»": 1614,
      "18": 1615,
      "ope": 1616,
      "ĠUS": 1617,
      "Ġrece": 1618,
      "Ġappro": 1619,
      "ency": 1620,
      "Ġalready": 1621,
      "ĠComm": 1622,
      "Ch": 1623,
      "ple": 1624,
      "Ġdesc": 1625,
      "veral": 1626,
      "Ġaff": 1627,
      "Ġwin": 1628,
      "ries": 1629,
      "conom": 1630,
      "ode": 1631,
      "ony": 1632,
      "Ġoften": 1633,
      "Ã¥": 1634,
      "ĠUniversity": 1635,
      "Ġeffect": 1636,
      "ĠSo": 1637,
      "gether": 1638,
      "Ġseason": 1639,
      "ery": 1640,
      "Ġ197": 1641,
      "Ġ0": 1642,
      "Ġconc": 1643,
      "Ġwhy": 1644,
      "Ġbusiness": 1645,
      "She": 1646,
      "oint": 1647,
      "ccess": 1648,
      "Ġmind": 1649,
      "ocr": 1650,
      "St": 1651,
      "ee": 1652,
      "arent": 1653,
      "Ġplan": 1654,
      "utes": 1655,
      "ĠGer": 1656,
      "use": 1657,
      "Ġimportant": 1658,
      "arr": 1659,
      "Ġsure": 1660,
      "ining": 1661,
      "ended": 1662,
      "Ġlove": 1663,
      "uthor": 1664,
      "pec": 1665,
      "Ġ16": 1666,
      "na": 1667,
      "ĠNo": 1668,
      "ateg": 1669,
      "Ġearly": 1670,
      "ration": 1671,
      "ps": 1672,
      "Ġgive": 1673,
      "Ġhuman": 1674,
      "Ġacross": 1675,
      "Ġbas": 1676,
      "aken": 1677,
      "Ã¼": 1678,
      "Ġleast": 1679,
      "Ġseen": 1680,
      "eb": 1681,
      "Ġdesign": 1682,
      "Ġchildren": 1683,
      "ler": 1684,
      "ality": 1685,
      "Ġfac": 1686,
      "ample": 1687,
      "Ġwon": 1688,
      "Ġtoward": 1689,
      "Ġmor": 1690,
      "line": 1691,
      "Ġtalk": 1692,
      "Ġsaw": 1693,
      "Ġline": 1694,
      "Ġbody": 1695,
      "Ġview": 1696,
      "Ġknew": 1697,
      "Ġdi": 1698,
      "Wh": 1699,
      "Ġbecome": 1700,
      "ĠRep": 1701,
      "50": 1702,
      "Ġce": 1703,
      "Ġtest": 1704,
      "Ġcourse": 1705,
      "che": 1706,
      "Ġfree": 1707,
      "ĠChrist": 1708,
      "Ġusing": 1709,
      "ĠEuro": 1710,
      "Ġca": 1711,
      "Ġrecord": 1712,
      "Ġattack": 1713,
      "Ġseveral": 1714,
      "Ġelect": 1715,
      "Ġprogram": 1716,
      "ball": 1717,
      "Ġorder": 1718,
      "Ġsent": 1719,
      "ney": 1720,
      "Ġwr": 1721,
      "of": 1722,
      "Ġsal": 1723,
      "ama": 1724,
      "Ġchang": 1725,
      "As": 1726,
      "IN": 1727,
      "ww": 1728,
      "Ġri": 1729,
      "Ġbegan": 1730,
      "Ġhold": 1731,
      "Ġdeath": 1732,
      "ush": 1733,
      "Ġbecame": 1734,
      "Ġtogether": 1735,
      "Ġ11": 1736,
      "orld": 1737,
      "Ġcompany": 1738,
      "por": 1739,
      "ĠMr": 1740,
      "lo": 1741,
      "Ã¨": 1742,
      "Ġshort": 1743,
      "ĠPr": 1744,
      "Ġwithin": 1745,
      "Ġgrow": 1746,
      "reet": 1747,
      "ãģ®": 1748,
      "Ġblack": 1749,
      "Ġchange": 1750,
      "Ġequ": 1751,
      "Ġlevel": 1752,
      "Ġmaking": 1753,
      "aster": 1754,
      "ĠBrit": 1755,
      "Ġcertain": 1756,
      "ization": 1757,
      "iety": 1758,
      "Ġable": 1759,
      "Ġwanted": 1760,
      "acy": 1761,
      "Ġhalf": 1762,
      "ories": 1763,
      "ĠHer": 1764,
      "Ġnews": 1765,
      "ox": 1766,
      "ption": 1767,
      "ĠCan": 1768,
      "Ġtimes": 1769,
      "ases": 1770,
      "Ġnothing": 1771,
      "ising": 1772,
      "ada": 1773,
      "itions": 1774,
      "Ġbehind": 1775,
      "rown": 1776,
      "Ġmeet": 1777,
      "Ġperform": 1778,
      "Ġtre": 1779,
      "Ġappear": 1780,
      "ald": 1781,
      "Ġtri": 1782,
      "Ġdone": 1783,
      "uff": 1784,
      "Ġtechn": 1785,
      "Ġmoment": 1786,
      "Ġmoney": 1787,
      "30": 1788,
      "Ġpay": 1789,
      "Ġsocial": 1790,
      "Ġson": 1791,
      "Ġorig": 1792,
      "ored": 1793,
      "Ġeng": 1794,
      "ĠWhat": 1795,
      "Ġexpect": 1796,
      "Ġothers": 1797,
      "Ġtem": 1798,
      "ending": 1799,
      "Ġmajor": 1800,
      "Ġhaving": 1801,
      "Ġstory": 1802,
      "ified": 1803,
      "lished": 1804,
      "Ġmid": 1805,
      "ploy": 1806,
      "ances": 1807,
      "ze": 1808,
      "iber": 1809,
      "Ġunderstand": 1810,
      "Ġvi": 1811,
      "Ġinformation": 1812,
      "Ġalmost": 1813,
      "Ġfather": 1814,
      "ulation": 1815,
      "Ġdoor": 1816,
      "There": 1817,
      "Ġ196": 1818,
      "aut": 1819,
      "fic": 1820,
      "ĠGod": 1821,
      "oci": 1822,
      "Ġturned": 1823,
      "Ġpain": 1824,
      "Ġprote": 1825,
      "ĠSte": 1826,
      "Ġclose": 1827,
      "ones": 1828,
      "ĠStates": 1829,
      "Ġwind": 1830,
      "Ġfelt": 1831,
      "ges": 1832,
      "Ġrese": 1833,
      "ourn": 1834,
      "ÏĦ": 1835,
      "ows": 1836,
      "Ġcharac": 1837,
      "Ġnon": 1838,
      "Ġwoman": 1839,
      "Ġprop": 1840,
      "Ġfive": 1841,
      "Ġste": 1842,
      "Ġamong": 1843,
      "ĠGo": 1844,
      "lf": 1845,
      "augh": 1846,
      "!\"": 1847,
      "ĠÃł": 1848,
      "ĠCo": 1849,
      "for": 1850,
      "resent": 1851,
      "ograph": 1852,
      "Ġproject": 1853,
      "Ġ14": 1854,
      "Ġgiven": 1855,
      "Ġmother": 1856,
      "Ġpresent": 1857,
      "Ġanything": 1858,
      "ĠTe": 1859,
      "ivid": 1860,
      "Ġsuccess": 1861,
      "ma": 1862,
      "Ġpress": 1863,
      "ĠWar": 1864,
      "Ġpot": 1865,
      "Ġfollowing": 1866,
      "Ġfront": 1867,
      "Ġeconom": 1868,
      "Ġyet": 1869,
      "yn": 1870,
      "ille": 1871,
      "Ġant": 1872,
      "not": 1873,
      "ster": 1874,
      "rict": 1875,
      "Ġtrad": 1876,
      "Ġbit": 1877,
      "iously": 1878,
      "On": 1879,
      "Ġder": 1880,
      "Ġpercent": 1881,
      "Ġdev": 1882,
      "ument": 1883,
      "go": 1884,
      "Ġsound": 1885,
      "Ġnear": 1886,
      "ĠGe": 1887,
      "Ġclaim": 1888,
      "ĠEurope": 1889,
      "though": 1890,
      "Ġwasn": 1891,
      "If": 1892,
      "Ðº": 1893,
      "Ñĥ": 1894,
      "12": 1895,
      "Ġmillion": 1896,
      "Ġpolitical": 1897,
      "Ġformer": 1898,
      "Î±": 1899,
      "uly": 1900,
      "ĠEl": 1901,
      "par": 1902,
      "Ġdata": 1903,
      "amed": 1904,
      "ief": 1905,
      "ape": 1906,
      "Ġjob": 1907,
      "Ġquestion": 1908,
      "_.": 1909,
      "ĠEx": 1910,
      "work": 1911,
      "oke": 1912,
      "Ġworking": 1913,
      "Ġdoing": 1914,
      "Ġ13": 1915,
      "Ġhands": 1916,
      "ague": 1917,
      "rie": 1918,
      "ilt": 1919,
      "Ġfilm": 1920,
      "aced": 1921,
      "Ġexample": 1922,
      "Ġstarted": 1923,
      "Ġarea": 1924,
      "ON": 1925,
      "Ġlocal": 1926,
      "Ġcond": 1927,
      "ots": 1928,
      "Ġintern": 1929,
      "Ġauthor": 1930,
      "ament": 1931,
      "Ġcurrent": 1932,
      "ĠOne": 1933,
      "selves": 1934,
      "Ġaut": 1935,
      "ĠTo": 1936,
      "Ġpresident": 1937,
      "201": 1938,
      "Ġpract": 1939,
      "Ġcrit": 1940,
      "Ġpub": 1941,
      "Ġevent": 1942,
      "ĠMan": 1943,
      "Ġdeal": 1944,
      "Ġwhite": 1945,
      "Ġvers": 1946,
      "ĠPres": 1947,
      "mp": 1948,
      "Ġap": 1949,
      "af": 1950,
      "ique": 1951,
      "Ġheld": 1952,
      "Ġhealth": 1953,
      "aces": 1954,
      "ctor": 1955,
      "Ġpossible": 1956,
      "Ġdie": 1957,
      "Ġcut": 1958,
      "ĠMc": 1959,
      "ror": 1960,
      "umb": 1961,
      "Ġfoot": 1962,
      "Ġles": 1963,
      "idence": 1964,
      "tt": 1965,
      "Î½": 1966,
      "Ġprob": 1967,
      "ij": 1968,
      "Ġfall": 1969,
      "eder": 1970,
      "Ġsix": 1971,
      "Ġda": 1972,
      "11": 1973,
      "An": 1974,
      "ches": 1975,
      "Ġgirl": 1976,
      "ole": 1977,
      "ili": 1978,
      "irc": 1979,
      "aff": 1980,
      "ached": 1981,
      "ĠEd": 1982,
      "ĠX": 1983,
      "Ġbar": 1984,
      "eth": 1985,
      "iter": 1986,
      "Ġden": 1987,
      "Ġcontrol": 1988,
      "AR": 1989,
      "Ġcult": 1990,
      "ination": 1991,
      "Ġreason": 1992,
      "ĠWorld": 1993,
      "Ġground": 1994,
      "sy": 1995,
      "ully": 1996,
      "ado": 1997,
      "Ġfood": 1998,
      "Ġans": 1999,
      "Ġhistory": 2000,
      "ĠCent": 2001,
      "Ġver": 2002,
      "Ġlooking": 2003,
      "ĠWill": 2004,
      "200": 2005,
      "oud": 2006,
      "Ġlim": 2007,
      "ĠGerman": 2008,
      "Ġfur": 2009,
      "Ġstrong": 2010,
      "Ġpriv": 2011,
      "isc": 2012,
      "ĠAm": 2013,
      "Ġelse": 2014,
      "Ġtaken": 2015,
      "ĠRuss": 2016,
      "Ġmembers": 2017,
      "Ġsn": 2018,
      "fer": 2019,
      "ĠFl": 2020,
      "Ġcost": 2021,
      "oph": 2022,
      "Ġ=": 2023,
      "Ġident": 2024,
      "Ġ:": 2025,
      "Ġsum": 2026,
      "ands": 2027,
      "ĠCar": 2028,
      "aper": 2029,
      "artment": 2030,
      "Ġpolice": 2031,
      "Ġlow": 2032,
      "ana": 2033,
      "Ġinvol": 2034,
      "iron": 2035,
      "Ġdoesn": 2036,
      "Ġrather": 2037,
      "ien": 2038,
      "urg": 2039,
      "oor": 2040,
      "ĠMy": 2041,
      "Î¿": 2042,
      "tain": 2043,
      "That": 2044,
      "ux": 2045,
      "ware": 2046,
      "val": 2047,
      "wh": 2048,
      "ĠGu": 2049,
      "ĠMin": 2050,
      "urity": 2051,
      ",'": 2052,
      "reed": 2053,
      "Ġrepl": 2054,
      "Ġminutes": 2055,
      "Ġdeb": 2056,
      "itive": 2057,
      "Ġquick": 2058,
      "Ġred": 2059,
      "Ġwords": 2060,
      "Ġple": 2061,
      "ĠPol": 2062,
      "15": 2063,
      "ĠNe": 2064,
      "Ġactiv": 2065,
      "duced": 2066,
      "osp": 2067,
      "Ġwhole": 2068,
      "Ġ194": 2069,
      "Ġmeans": 2070,
      "ential": 2071,
      "Ġarg": 2072,
      "rain": 2073,
      "Ġfut": 2074,
      "Ġdeep": 2075,
      "Ġenc": 2076,
      "Ġidea": 2077,
      "Ġsugg": 2078,
      "amb": 2079,
      "Ġlive": 2080,
      "Ġmag": 2081,
      "Ġ30": 2082,
      "ES": 2083,
      "ring": 2084,
      "Ġsuggest": 2085,
      "Ġdu": 2086,
      "Ġtown": 2087,
      "empt": 2088,
      "AT": 2089,
      "ĠSy": 2090,
      "ãĢģ": 2091,
      "aul": 2092,
      "itary": 2093,
      "head": 2094,
      "ips": 2095,
      "Ġask": 2096,
      "ĠJan": 2097,
      "Ġfire": 2098,
      "dle": 2099,
      "Ġofficial": 2100,
      "Ġheart": 2101,
      "angu": 2102,
      "Ġsat": 2103,
      "Ġdou": 2104,
      "Ġsex": 2105,
      "Ġmusic": 2106,
      "Ġsingle": 2107,
      "AN": 2108,
      "ĠTw": 2109,
      "ĠNational": 2110,
      "ĠHouse": 2111,
      "pping": 2112,
      "Ġmarket": 2113,
      "Ġfight": 2114,
      "Ġbelieve": 2115,
      "Ġwhether": 2116,
      "Ġfail": 2117,
      "Ġsomeone": 2118,
      "ĠAfter": 2119,
      "Ġgave": 2120,
      "ĠAust": 2121,
      "Ġsil": 2122,
      "arth": 2123,
      "Ġcreat": 2124,
      "Ġmonths": 2125,
      "Ġtrying": 2126,
      "No": 2127,
      "Ġcolle": 2128,
      "rote": 2129,
      "Ġseries": 2130,
      "17": 2131,
      "Ġbegin": 2132,
      "Ġpolic": 2133,
      "aign": 2134,
      "Ġhowever": 2135,
      "Ġfig": 2136,
      "ops": 2137,
      "ĠAf": 2138,
      "ogn": 2139,
      "isk": 2140,
      "ĠSouth": 2141,
      "Ġfund": 2142,
      "ids": 2143,
      "ese": 2144,
      "ule": 2145,
      "iod": 2146,
      "ĠDem": 2147,
      "For": 2148,
      "ences": 2149,
      "Ġdark": 2150,
      "Ġproper": 2151,
      "Ġdescrib": 2152,
      "over": 2153,
      "Ġvol": 2154,
      "Ġcomplete": 2155,
      "Ġjo": 2156,
      "ividual": 2157,
      "ortun": 2158,
      "haps": 2159,
      "When": 2160,
      "irt": 2161,
      "ĠMe": 2162,
      "ĠĠĠ": 2163,
      "Ġmot": 2164,
      "ĠCal": 2165,
      "ais": 2166,
      "Ġeither": 2167,
      "ĠÃ©": 2168,
      "Ġnational": 2169,
      "Ġbad": 2170,
      "Ġproblem": 2171,
      "gress": 2172,
      "Ġport": 2173,
      "Ġlos": 2174,
      "eter": 2175,
      "Ġself": 2176,
      "Ġactually": 2177,
      "lling": 2178,
      "Ġeverything": 2179,
      "16": 2180,
      "Ġdest": 2181,
      "Ġtoday": 2182,
      "ude": 2183,
      "ĠNot": 2184,
      "ĠWith": 2185,
      "attle": 2186,
      "rem": 2187,
      "Ġpick": 2188,
      "Ġproduct": 2189,
      "Ġbene": 2190,
      "idge": 2191,
      "itional": 2192,
      "oe": 2193,
      "Ġsoon": 2194,
      "Ġclear": 2195,
      "ĠAb": 2196,
      "Ġsus": 2197,
      "Ġheard": 2198,
      "ĠNorth": 2199,
      "fully": 2200,
      "ondon": 2201,
      "ĠPe": 2202,
      "ĠâĢĺ": 2203,
      "ara": 2204,
      "à¤": 2205,
      "vol": 2206,
      "ĠPresident": 2207,
      "Ġgra": 2208,
      "Ġboy": 2209,
      "Ð²": 2210,
      "Ġbring": 2211,
      "OR": 2212,
      "Ġaccount": 2213,
      "Ġdiv": 2214,
      "erc": 2215,
      "ades": 2216,
      "Ġentire": 2217,
      "Ġexist": 2218,
      "hern": 2219,
      "ha": 2220,
      "ĠState": 2221,
      "aged": 2222,
      "ĠAug": 2223,
      "Ġgetting": 2224,
      "Ġlearn": 2225,
      "Ġmakes": 2226,
      "Ġviol": 2227,
      "aly": 2228,
      "Ġseemed": 2229,
      "Ġstep": 2230,
      "ference": 2231,
      "Ġcomb": 2232,
      "Ġrelations": 2233,
      "Ġitself": 2234,
      "omb": 2235,
      "Ġstay": 2236,
      "lu": 2237,
      "._": 2238,
      "imate": 2239,
      "irm": 2240,
      "Ġspecial": 2241,
      "ĠHar": 2242,
      "14": 2243,
      "Ġmiss": 2244,
      "unch": 2245,
      "Ã§": 2246,
      "ening": 2247,
      "Ġsense": 2248,
      "wer": 2249,
      "Ġavail": 2250,
      "overed": 2251,
      "Ġvoice": 2252,
      "yle": 2253,
      "ĠDav": 2254,
      "ãģĦ": 2255,
      "Ġtot": 2256,
      "Ġpull": 2257,
      "Ġbased": 2258,
      "ino": 2259,
      "Ġabove": 2260,
      "Ġlate": 2261,
      "Ġfield": 2262,
      "year": 2263,
      "ĠEn": 2264,
      "ĠBar": 2265,
      "ĠDon": 2266,
      "inn": 2267,
      "Ġvide": 2268,
      "ashing": 2269,
      "Ġsour": 2270,
      "unt": 2271,
      "Ġconv": 2272,
      "Ġindividual": 2273,
      "ham": 2274,
      "Ġoutside": 2275,
      "lex": 2276,
      "Ġfuture": 2277,
      "Re": 2278,
      "Ġcommunity": 2279,
      "Ġupon": 2280,
      "aid": 2281,
      "stit": 2282,
      "ett": 2283,
      "Ġappe": 2284,
      "where": 2285,
      "uary": 2286,
      "Ġdead": 2287,
      "reg": 2288,
      "lled": 2289,
      "lin": 2290,
      "Ġexperience": 2291,
      "rench": 2292,
      "icle": 2293,
      "orts": 2294,
      "Ġlost": 2295,
      "Ġmatter": 2296,
      "Ġcampaign": 2297,
      "Ġhours": 2298,
      "Ġlab": 2299,
      "ĠSec": 2300,
      "ĠLa": 2301,
      "____": 2302,
      "Ġgeneral": 2303,
      "ilar": 2304,
      "itor": 2305,
      "Ġrepresent": 2306,
      "Ġparty": 2307,
      "Ġtaking": 2308,
      "Ã³n": 2309,
      "Ġcoming": 2310,
      "ategory": 2311,
      "EN": 2312,
      "Ø§": 2313,
      "cher": 2314,
      "Ġcompet": 2315,
      "Ġheav": 2316,
      "Ġ25": 2317,
      "Ġconne": 2318,
      "//": 2319,
      "ĠPer": 2320,
      "ĠCount": 2321,
      "Ġfoc": 2322,
      "Ġphot": 2323,
      "Ġfav": 2324,
      "ply": 2325,
      "Ġfriends": 2326,
      "Ġrad": 2327,
      "iqu": 2328,
      "ĠThen": 2329,
      "Ġposition": 2330,
      "Î¹": 2331,
      "Ġaccording": 2332,
      "Ġwait": 2333,
      "Ġarri": 2334,
      "Ġbed": 2335,
      "ĠOct": 2336,
      "ability": 2337,
      "Ġexpress": 2338,
      "Ġbreak": 2339,
      "Al": 2340,
      "ively": 2341,
      "Ġbuilding": 2342,
      "Ġwatch": 2343,
      "Ġwall": 2344,
      "ato": 2345,
      "Ġsold": 2346,
      "Ġcommon": 2347,
      "fect": 2348,
      "Ġcharacter": 2349,
      "right": 2350,
      "ators": 2351,
      "Ġpie": 2352,
      "Ġhig": 2353,
      "ĠMarch": 2354,
      "ĠPar": 2355,
      "Ġestab": 2356,
      "ask": 2357,
      "Ġgen": 2358,
      "iment": 2359,
      "Ġprofess": 2360,
      "Ġage": 2361,
      "ĠBritish": 2362,
      "Ġthemselves": 2363,
      "Ġannoun": 2364,
      "ĠSept": 2365,
      "ĠAmerica": 2366,
      "?'": 2367,
      "ĠSu": 2368,
      "cted": 2369,
      "iding": 2370,
      "Ñı": 2371,
      "itting": 2372,
      "itted": 2373,
      "Ġplayed": 2374,
      "enty": 2375,
      "bed": 2376,
      "Ġdiscuss": 2377,
      "Ġtax": 2378,
      "ging": 2379,
      "13": 2380,
      "Ġservice": 2381,
      "ĠCity": 2382,
      "Ġmess": 2383,
      "Ġcal": 2384,
      "IS": 2385,
      "Ġlikely": 2386,
      "Ġperiod": 2387,
      "pper": 2388,
      "Ġwrote": 2389,
      "Ġinside": 2390,
      "Ġobject": 2391,
      "Ġindust": 2392,
      "uation": 2393,
      "Ġmult": 2394,
      "pecially": 2395,
      "Ġvot": 2396,
      "ĠPart": 2397,
      "ĠQu": 2398,
      "Ġspace": 2399,
      "Ġfurther": 2400,
      "ustom": 2401,
      "Ġstri": 2402,
      "Ġabs": 2403,
      "itch": 2404,
      "Ġsuper": 2405,
      "Ġsuff": 2406,
      "ĠSch": 2407,
      "Ġfeat": 2408,
      "apter": 2409,
      "Ġoffice": 2410,
      "Ġprobably": 2411,
      "Ġthird": 2412,
      "pril": 2413,
      "Ġfinal": 2414,
      "Ġcomes": 2415,
      "Ġroad": 2416,
      "Ġhor": 2417,
      "ables": 2418,
      "Ġled": 2419,
      "Ġtry": 2420,
      "Ġtrue": 2421,
      "ran": 2422,
      "Ġcoun": 2423,
      "Ġhot": 2424,
      "istic": 2425,
      "off": 2426,
      "\",": 2427,
      "Ġleave": 2428,
      "Ġcapt": 2429,
      "medi": 2430,
      "Ġemploy": 2431,
      "Ġadded": 2432,
      "How": 2433,
      "Ġ24": 2434,
      "\".": 2435,
      "Ġavailable": 2436,
      "pro": 2437,
      "Ġquite": 2438,
      "ills": 2439,
      "hel": 2440,
      "Ġattempt": 2441,
      "Ġtal": 2442,
      "They": 2443,
      ".)": 2444,
      "ĠJune": 2445,
      "Ġpur": 2446,
      "Ġcirc": 2447,
      "Ð¼": 2448,
      "Ġcouldn": 2449,
      "Ġinvestig": 2450,
      "ĠRepublic": 2451,
      "ĠJe": 2452,
      "ift": 2453,
      "ĠWest": 2454,
      "ãĢĤ": 2455,
      "ĠHowever": 2456,
      "ĠGeor": 2457,
      "ĠAugust": 2458,
      "lement": 2459,
      "Ġwond": 2460,
      "Ġsaying": 2461,
      "Ġsong": 2462,
      "So": 2463,
      "Ġnet": 2464,
      "ĠRes": 2465,
      "erm": 2466,
      "uel": 2467,
      "Ġten": 2468,
      "minist": 2469,
      "back": 2470,
      "ãģ«": 2471,
      "Ġcho": 2472,
      "Ġcover": 2473,
      "uk": 2474,
      "ivil": 2475,
      "aving": 2476,
      "ĠKing": 2477,
      "Ġ2016": 2478,
      "Ġnat": 2479,
      "like": 2480,
      "alt": 2481,
      "uge": 2482,
      "Ġsle": 2483,
      "ĠLondon": 2484,
      "ĠMed": 2485,
      "ĠBy": 2486,
      "Ġprot": 2487,
      "ficult": 2488,
      "Ġhon": 2489,
      "uf": 2490,
      "Ġstra": 2491,
      "Ġdom": 2492,
      "Ġphys": 2493,
      "Ġaccess": 2494,
      "ica": 2495,
      "Ġdam": 2496,
      "cle": 2497,
      "Ġmedia": 2498,
      "ctions": 2499,
      "Äĥ": 2500,
      "Ġconcern": 2501,
      "Ð´": 2502,
      "Ġvict": 2503,
      "Ġswe": 2504,
      "Ġdecl": 2505,
      "Ġanim": 2506,
      "Ġlangu": 2507,
      "apan": 2508,
      "oved": 2509,
      "Ġfell": 2510,
      "lev": 2511,
      "Ġneeded": 2512,
      "Ã£": 2513,
      "Ġrul": 2514,
      "Ġtou": 2515,
      "Ġlonger": 2516,
      "Ġwalk": 2517,
      "ender": 2518,
      "anger": 2519,
      "bo": 2520,
      "book": 2521,
      "Ġround": 2522,
      "Ġbrought": 2523,
      "Ġago": 2524,
      "ani": 2525,
      "ĠJuly": 2526,
      "Îµ": 2527,
      "ĠÐ¿": 2528,
      "Ġdifficult": 2529,
      "Ġliving": 2530,
      "Ġdue": 2531,
      "ournal": 2532,
      "Ġblood": 2533,
      "Ġtable": 2534,
      "Ġmilitary": 2535,
      "25": 2536,
      "aves": 2537,
      "Ġenv": 2538,
      "Ġprim": 2539,
      "Ġreleased": 2540,
      "itter": 2541,
      "asing": 2542,
      "Ġmass": 2543,
      "ĠThese": 2544,
      "Ġfa": 2545,
      "Ġord": 2546,
      "Ġimm": 2547,
      "Ġill": 2548,
      "ari": 2549,
      "ĠEnglish": 2550,
      "gest": 2551,
      "Ġmorning": 2552,
      "ĠJust": 2553,
      "Ġpret": 2554,
      "Ġstop": 2555,
      "ensive": 2556,
      "Ġneg": 2557,
      "ky": 2558,
      "ĠDemocr": 2559,
      "ï¼": 2560,
      "raft": 2561,
      "ĠApril": 2562,
      "atter": 2563,
      "Ġsqu": 2564,
      "Ġmoved": 2565,
      "Ġreported": 2566,
      "iled": 2567,
      "ĠSeptember": 2568,
      "Ġforward": 2569,
      "Ġaccept": 2570,
      "oul": 2571,
      "ibility": 2572,
      "Ġgames": 2573,
      "ĠCor": 2574,
      "Ã©s": 2575,
      "Ġimpro": 2576,
      "ĠAss": 2577,
      "Ġtried": 2578,
      "Ġcourt": 2579,
      "ĠRo": 2580,
      "Ġtreat": 2581,
      "Âł": 2582,
      "Ñĭ": 2583,
      "reme": 2584,
      "bor": 2585,
      "Ġtit": 2586,
      "ida": 2587,
      "Ġrole": 2588,
      "rap": 2589,
      "ĠComp": 2590,
      "ological": 2591,
      "Ġdetail": 2592,
      "ford": 2593,
      "Ġslow": 2594,
      "room": 2595,
      "body": 2596,
      "eks": 2597,
      "str": 2598,
      "ores": 2599,
      "Ġparent": 2600,
      "Ġtyp": 2601,
      "iting": 2602,
      "ĠFrench": 2603,
      "Ġcompl": 2604,
      "ãģ¨": 2605,
      "ume": 2606,
      "Ġspeak": 2607,
      "vent": 2608,
      "ĠDep": 2609,
      "ovember": 2610,
      "Ġkey": 2611,
      "men": 2612,
      "ises": 2613,
      "kn": 2614,
      "Ã£o": 2615,
      "Ġinclude": 2616,
      "undred": 2617,
      "ival": 2618,
      "Ġworks": 2619,
      "Ġsimilar": 2620,
      "ico": 2621,
      "Ġeduc": 2622,
      "Ġearl": 2623,
      "Ġstudy": 2624,
      "la": 2625,
      "ights": 2626,
      "Ġarm": 2627,
      "ci": 2628,
      "ify": 2629,
      "Ġsimply": 2630,
      "ĠDo": 2631,
      "Ġsignific": 2632,
      "Ġinit": 2633,
      "AS": 2634,
      "Ġtar": 2635,
      "airs": 2636,
      "Ġ195": 2637,
      "ĠJanuary": 2638,
      "Ġrespons": 2639,
      "Ġadm": 2640,
      "Ġremain": 2641,
      "Ġobs": 2642,
      "uted": 2643,
      "ĠOctober": 2644,
      "Ġran": 2645,
      "ãĤĭ": 2646,
      "epend": 2647,
      "Ġfeet": 2648,
      "ĠIntern": 2649,
      "Ġvill": 2650,
      "ĠII": 2651,
      "Ġconsider": 2652,
      "Ġdevelopment": 2653,
      "Ġlay": 2654,
      "HE": 2655,
      "Ġespecially": 2656,
      "Ġresearch": 2657,
      "Ġthreat": 2658,
      "aught": 2659,
      "Ġsoft": 2660,
      "Ġnecess": 2661,
      "ales": 2662,
      "rug": 2663,
      "Ġgun": 2664,
      "iers": 2665,
      "add": 2666,
      "Ġhope": 2667,
      "Ġmater": 2668,
      "Ġrelig": 2669,
      "lt": 2670,
      "Ġsurpr": 2671,
      "Ġsubject": 2672,
      "Ġep": 2673,
      "Ġmeas": 2674,
      "ĠSome": 2675,
      "Ġreceived": 2676,
      "ÑĮ": 2677,
      "Ġworked": 2678,
      "ĠSw": 2679,
      "bum": 2680,
      "Ġwife": 2681,
      "Ġrespect": 2682,
      "Ġrecogn": 2683,
      "Ġstudents": 2684,
      "Ġstru": 2685,
      "Ġtext": 2686,
      "aur": 2687,
      "Ġcross": 2688,
      "cember": 2689,
      "ager": 2690,
      "ript": 2691,
      "Ġisn": 2692,
      "ĠAustral": 2693,
      "ederal": 2694,
      "Ġjud": 2695,
      "rel": 2696,
      "pite": 2697,
      "oman": 2698,
      "ãģŁ": 2699,
      "ires": 2700,
      "ander": 2701,
      "Ġcompan": 2702,
      "Ġimag": 2703,
      "ray": 2704,
      "ĠMus": 2705,
      "Ġener": 2706,
      "Ġ2017": 2707,
      "Ġcentury": 2708,
      "Category": 2709,
      "Ġhy": 2710,
      "Ġaction": 2711,
      "ĠJapan": 2712,
      "âĢ¦": 2713,
      "Ġwhose": 2714,
      "Ġ2015": 2715,
      "Ġ/": 2716,
      "nes": 2717,
      "Ġtrack": 2718,
      "Ġdied": 2719,
      "yl": 2720,
      "Ġhear": 2721,
      "Ġbuilt": 2722,
      "gen": 2723,
      ");": 2724,
      "ĠSen": 2725,
      "Ġdoc": 2726,
      "Ġbrother": 2727,
      "AL": 2728,
      "Ġrunning": 2729,
      "Ġsett": 2730,
      "rael": 2731,
      "ael": 2732,
      "ĠSm": 2733,
      "ãģĹ": 2734,
      "aughter": 2735,
      "Ġdro": 2736,
      "Ġseems": 2737,
      "ĠNovember": 2738,
      "ken": 2739,
      "ĠGl": 2740,
      "----": 2741,
      "ashington": 2742,
      "Ġvideo": 2743,
      "Ġpor": 2744,
      "Ġgone": 2745,
      "Ġ2014": 2746,
      "Ġcand": 2747,
      "play": 2748,
      "Ġpers": 2749,
      "urt": 2750,
      "Ġfem": 2751,
      "sp": 2752,
      "Ġeight": 2753,
      "omes": 2754,
      "Ġhit": 2755,
      "Ġexc": 2756,
      "Ġcannot": 2757,
      "ĠBro": 2758,
      "ÂŃ": 2759,
      "ĠMich": 2760,
      "Ġcoll": 2761,
      "Ġhost": 2762,
      "Ġinstead": 2763,
      "gar": 2764,
      "Ġball": 2765,
      "Ġcell": 2766,
      "ites": 2767,
      "Ġeveryone": 2768,
      "Ġplayers": 2769,
      "ruction": 2770,
      "://": 2771,
      "za": 2772,
      "hod": 2773,
      "Ġcup": 2774,
      "ularly": 2775,
      "Ġhappened": 2776,
      "resh": 2777,
      "Ġ22": 2778,
      "het": 2779,
      "bl": 2780,
      "Ġsens": 2781,
      "Ġpict": 2782,
      "Ġcoup": 2783,
      "Ġimmedi": 2784,
      "ris": 2785,
      "ĠAfric": 2786,
      "Ġwrong": 2787,
      "Ġforce": 2788,
      "ĠFeb": 2789,
      "ĠIm": 2790,
      "estern": 2791,
      "ledge": 2792,
      "Ġpersonal": 2793,
      "Ġanyone": 2794,
      "ãģ§": 2795,
      "era": 2796,
      "ĠWilliam": 2797,
      "ev": 2798,
      "To": 2799,
      "At": 2800,
      "Ġmyself": 2801,
      "Ġhundred": 2802,
      "Ġoil": 2803,
      "Ġclos": 2804,
      "itte": 2805,
      "ĠChina": 2806,
      "iction": 2807,
      "Ġrelationship": 2808,
      "ãģ¦": 2809,
      "Ġspecific": 2810,
      "Ġvalue": 2811,
      "Ãª": 2812,
      "leg": 2813,
      "ients": 2814,
      "Ġcustom": 2815,
      "Ġcareer": 2816,
      "clus": 2817,
      "Ġpoints": 2818,
      "###": 2819,
      "ĠSchool": 2820,
      "Ġleaders": 2821,
      "oura": 2822,
      "Ġwal": 2823,
      "Ġhistor": 2824,
      "Ġcreate": 2825,
      "cil": 2826,
      "ĠDecember": 2827,
      "Ġprovide": 2828,
      "Ġesc": 2829,
      "Ġbelow": 2830,
      "ĠApp": 2831,
      "oid": 2832,
      "ĠSoc": 2833,
      "Ġopt": 2834,
      "Ġhair": 2835,
      "Ġpopular": 2836,
      "ãģ¯": 2837,
      "Ġ100": 2838,
      "bit": 2839,
      "eed": 2840,
      "Ġ23": 2841,
      "Ġpublished": 2842,
      "Ġissue": 2843,
      "Ġ;": 2844,
      "ĠMon": 2845,
      "key": 2846,
      "Ġexec": 2847,
      "Ġchall": 2848,
      "Ġje": 2849,
      "Ġmember": 2850,
      "Ġintro": 2851,
      "action": 2852,
      "hood": 2853,
      "ĠPaul": 2854,
      "ironment": 2855,
      "Ġut": 2856,
      "Ġquickly": 2857,
      "ÃŃa": 2858,
      "anced": 2859,
      "sec": 2860,
      "Ġfear": 2861,
      "ĠNow": 2862,
      "Ġsecurity": 2863,
      "Ġwide": 2864,
      "Ġclub": 2865,
      "Ġil": 2866,
      "Ġ193": 2867,
      "antly": 2868,
      "Ġcontinued": 2869,
      "ĠEm": 2870,
      "Ġfunction": 2871,
      "ressed": 2872,
      "ruary": 2873,
      "ĠDr": 2874,
      "Ġfill": 2875,
      "Ġmaterial": 2876,
      "Ġbur": 2877,
      "Ġ2012": 2878,
      "ĠÐ²": 2879,
      "Ġsun": 2880,
      "Ġtotal": 2881,
      "Ġ)": 2882,
      "Ġoriginal": 2883,
      "Ġ2018": 2884,
      "Ġbott": 2885,
      "Ġmur": 2886,
      "asp": 2887,
      "Ġgrand": 2888,
      "ÑģÑĤ": 2889,
      "sequ": 2890,
      "Ġplayer": 2891,
      "Ġpack": 2892,
      "Ġess": 2893,
      "ends": 2894,
      "yond": 2895,
      "Ġalone": 2896,
      "Ġreve": 2897,
      "Ġsite": 2898,
      "face": 2899,
      "199": 2900,
      "ground": 2901,
      "Ġthous": 2902,
      "zy": 2903,
      "Ġdecided": 2904,
      "Ġ2013": 2905,
      "Ġassoci": 2906,
      "ĠCounty": 2907,
      "ĠSan": 2908,
      "aching": 2909,
      "ĠMor": 2910,
      "joy": 2911,
      "Ġdecision": 2912,
      "ĠDavid": 2913,
      "incip": 2914,
      "lam": 2915,
      "Ġstruct": 2916,
      "Ġrecent": 2917,
      "Ġcop": 2918,
      "Ġfre": 2919,
      "Ġcreated": 2920,
      "cy": 2921,
      "Sh": 2922,
      "Ġblock": 2923,
      "Ġbeaut": 2924,
      "Ġearlier": 2925,
      "eneral": 2926,
      "ãĤĴ": 2927,
      "RE": 2928,
      "Ġversion": 2929,
      "Ġalbum": 2930,
      "mon": 2931,
      "asc": 2932,
      "Ġnamed": 2933,
      "ĠWashington": 2934,
      "Ġkilled": 2935,
      "Ġinflu": 2936,
      "Ġaud": 2937,
      "Ġsi": 2938,
      "Ġâ": 2939,
      "rag": 2940,
      "Ġperfect": 2941,
      "Ġbreat": 2942,
      "Ġweeks": 2943,
      "ibr": 2944,
      "Ġadminist": 2945,
      "ilities": 2946,
      "aint": 2947,
      "Ġamount": 2948,
      "Ġexact": 2949,
      "anks": 2950,
      "Ġsto": 2951,
      "Ġmis": 2952,
      "obal": 2953,
      "ĠPress": 2954,
      "Ġways": 2955,
      "ĠPark": 2956,
      "Ġsepar": 2957,
      "ĠIsrael": 2958,
      "ceed": 2959,
      "Ġcook": 2960,
      "Ġvarious": 2961,
      "AP": 2962,
      "Ġmodern": 2963,
      "Not": 2964,
      "Ġtravel": 2965,
      "Ġtype": 2966,
      "Ġwritten": 2967,
      "ourt": 2968,
      "Ġpred": 2969,
      "Ġlanguage": 2970,
      "osition": 2971,
      "Ġ#": 2972,
      "Ġevidence": 2973,
      "Ġrights": 2974,
      "Ġkept": 2975,
      "izing": 2976,
      "My": 2977,
      "ĠWhite": 2978,
      "ĠAg": 2979,
      "wards": 2980,
      "ius": 2981,
      "ded": 2982,
      "Ġopened": 2983,
      "cer": 2984,
      "Ġnorm": 2985,
      "Ġfollowed": 2986,
      "Ġprivate": 2987,
      "iÃ³n": 2988,
      "ĠOb": 2989,
      "24": 2990,
      "ãģĮ": 2991,
      "lim": 2992,
      "Ġstood": 2993,
      "ams": 2994,
      "Ġreached": 2995,
      "Ġattention": 2996,
      "Ġcollect": 2997,
      "Ġpopulation": 2998,
      "sych": 2999,
      "Ġneeds": 3000,
      "Ġeasy": 3001,
      "ĠPal": 3002,
      "Ġmethod": 3003,
      "ãģª": 3004,
      "Ġpolicy": 3005,
      "Ġtro": 3006,
      "chie": 3007,
      "Ġstation": 3008,
      "Ġherself": 3009,
      "IT": 3010,
      "Ġenergy": 3011,
      "fort": 3012,
      "Ġsecret": 3013,
      "Ġregard": 3014,
      "IC": 3015,
      "Ġemer": 3016,
      "time": 3017,
      "omen": 3018,
      "Ġdraw": 3019,
      "idered": 3020,
      "band": 3021,
      "Ġ50": 3022,
      "erve": 3023,
      "Ġpan": 3024,
      "Ġnature": 3025,
      "Ġthinking": 3026,
      "Ġvisit": 3027,
      "ĠFebruary": 3028,
      "Ġbase": 3029,
      "Ġdoub": 3030,
      "Ġremember": 3031,
      "Ġ2010": 3032,
      "urb": 3033,
      "Ïģ": 3034,
      "ste": 3035,
      "Ġ26": 3036,
      "Ġsort": 3037,
      "Ġpaper": 3038,
      "fl": 3039,
      "ÏĤ": 3040,
      "Ġprep": 3041,
      "ae": 3042,
      "verage": 3043,
      "ny": 3044,
      "ests": 3045,
      "aled": 3046,
      "Ġexcept": 3047,
      "Ġparticular": 3048,
      "iff": 3049,
      "Ġhop": 3050,
      "emy": 3051,
      "Ġperhaps": 3052,
      "Ġspir": 3053,
      "Ġwouldn": 3054,
      "ãĥ¼": 3055,
      "Ġarch": 3056,
      "ming": 3057,
      "li": 3058,
      "uses": 3059,
      "Ġune": 3060,
      "arter": 3061,
      "Ġtarget": 3062,
      "Ġlives": 3063,
      "Ġhar": 3064,
      "Ġplaying": 3065,
      "Ñĩ": 3066,
      "Ġshows": 3067,
      "Ġlog": 3068,
      "ĠCong": 3069,
      "Ġbroad": 3070,
      "Ġgroups": 3071,
      "Ġ2011": 3072,
      "22": 3073,
      "Ġnorth": 3074,
      "ady": 3075,
      "ĠRed": 3076,
      "onse": 3077,
      "Ġinterview": 3078,
      "utions": 3079,
      "ĠJames": 3080,
      "Ġindic": 3081,
      "Ġquestions": 3082,
      "ault": 3083,
      "vert": 3084,
      "Ġsimple": 3085,
      "Ġshot": 3086,
      "Ġfinally": 3087,
      "lla": 3088,
      "Ġincluded": 3089,
      "Ġ27": 3090,
      "After": 3091,
      "ui": 3092,
      "Ġcontinue": 3093,
      "Ġnearly": 3094,
      "Ġservices": 3095,
      "Ġstates": 3096,
      "Ġopportun": 3097,
      "Ġsometimes": 3098,
      "Ġelection": 3099,
      "ĠJew": 3100,
      "ĠÂ«": 3101,
      "Ġ21": 3102,
      "âĢ¢": 3103,
      "Ġmodel": 3104,
      "Ġcorn": 3105,
      "Ġfloor": 3106,
      "Ġfing": 3107,
      "acher": 3108,
      "Ġissues": 3109,
      "ä¸": 3110,
      "Ġcontrib": 3111,
      "Ġ28": 3112,
      "Ġcred": 3113,
      "Ġband": 3114,
      "Ġcountries": 3115,
      "Ġchance": 3116,
      "Ġterms": 3117,
      "apt": 3118,
      "Ġge": 3119,
      "uit": 3120,
      "Ġinj": 3121,
      "Ġnatural": 3122,
      "Ïĥ": 3123,
      "Ġcivil": 3124,
      "Ġparticip": 3125,
      "ka": 3126,
      "ols": 3127,
      "ffic": 3128,
      "atives": 3129,
      "Ġcapital": 3130,
      "Ġpretty": 3131,
      "ĠStreet": 3132,
      "Ġphone": 3133,
      "Ġenjoy": 3134,
      "order": 3135,
      "Ġconsidered": 3136,
      "light": 3137,
      "Ġmeeting": 3138,
      "Ġfinanc": 3139,
      "BC": 3140,
      "ĠJack": 3141,
      "ĠDes": 3142,
      "ĠPat": 3143,
      "Ġsen": 3144,
      "ecause": 3145,
      "agement": 3146,
      "nder": 3147,
      "Ġtakes": 3148,
      "Ġevents": 3149,
      "unk": 3150,
      "Ġcompanies": 3151,
      "ĠAct": 3152,
      "ously": 3153,
      "ccording": 3154,
      "oming": 3155,
      "asons": 3156,
      "ĠRober": 3157,
      "Ġ--": 3158,
      "Ġrisk": 3159,
      "born": 3160,
      "ĠÐ½": 3161,
      "irth": 3162,
      "Ġmount": 3163,
      "ta": 3164,
      "iforn": 3165,
      "Ġcry": 3166,
      "ification": 3167,
      "dom": 3168,
      "Ġexam": 3169,
      "Ġcast": 3170,
      "Ġanswer": 3171,
      "ĠBer": 3172,
      "):": 3173,
      "ampions": 3174,
      "Ġparents": 3175,
      "Ġbenef": 3176,
      "Ġinvolved": 3177,
      "ros": 3178,
      "rab": 3179,
      "Ġcontract": 3180,
      "Ġfavor": 3181,
      "Ġcouple": 3182,
      "field": 3183,
      "23": 3184,
      "Ġwat": 3185,
      "aries": 3186,
      "cast": 3187,
      "',": 3188,
      "Ġsurv": 3189,
      "Ġliter": 3190,
      "ushed": 3191,
      "Ġsleep": 3192,
      "Ġbox": 3193,
      "dd": 3194,
      "Ġapplic": 3195,
      "round": 3196,
      "Ġappeared": 3197,
      "All": 3198,
      "Ġshare": 3199,
      "Ġcheck": 3200,
      "Ġdig": 3201,
      "Ġwood": 3202,
      "tr": 3203,
      "Ġworth": 3204,
      "Ġhigher": 3205,
      "ĠSer": 3206,
      "atory": 3207,
      "Ġsituation": 3208,
      "Ġmeant": 3209,
      "ĠEngland": 3210,
      "iday": 3211,
      "Ġproblems": 3212,
      "Ġspent": 3213,
      "rences": 3214,
      "Ġalthough": 3215,
      "Ġresults": 3216,
      "ios": 3217,
      "Ġpour": 3218,
      "Ġannounced": 3219,
      "Ġengine": 3220,
      "Ġreturned": 3221,
      "inally": 3222,
      "Ġfast": 3223,
      "Ġoffer": 3224,
      "Ġpassed": 3225,
      "tered": 3226,
      "60": 3227,
      "Ġprec": 3228,
      "Ġqui": 3229,
      "Ġsud": 3230,
      "ÏĢ": 3231,
      "Ġfine": 3232,
      "ĠVal": 3233,
      "ĠHigh": 3234,
      "Ġaffect": 3235,
      "hem": 3236,
      "hold": 3237,
      "Ġinternational": 3238,
      "Ġchanges": 3239,
      "US": 3240,
      "Ġready": 3241,
      "ilos": 3242,
      "ĠIndia": 3243,
      "arily": 3244,
      "Ġusually": 3245,
      "Ġborn": 3246,
      "Ġpath": 3247,
      "rs": 3248,
      "Ġprincip": 3249,
      "ki": 3250,
      "ĠBlack": 3251,
      "ÙĦ": 3252,
      "Ġmention": 3253,
      "Ġcit": 3254,
      "raw": 3255,
      "ĠEven": 3256,
      "Ġexpected": 3257,
      "iles": 3258,
      "Ġaw": 3259,
      "ifornia": 3260,
      "40": 3261,
      "rief": 3262,
      "Ġcontr": 3263,
      "ĠReg": 3264,
      "LE": 3265,
      "wood": 3266,
      "Ġsouth": 3267,
      "iant": 3268,
      "AC": 3269,
      "ĠEuropean": 3270,
      "rian": 3271,
      "Ġindustry": 3272,
      "zz": 3273,
      "80": 3274,
      "Ġinn": 3275,
      "ĠIndian": 3276,
      "inese": 3277,
      "Ġrelease": 3278,
      "elle": 3279,
      "see": 3280,
      "ĠRich": 3281,
      "One": 3282,
      "han": 3283,
      "Ġreview": 3284,
      "Ġcases": 3285,
      "Ġcause": 3286,
      "ĠAnt": 3287,
      "Ãł": 3288,
      "ography": 3289,
      "Ġserved": 3290,
      "Ġrout": 3291,
      "ils": 3292,
      "Ġuna": 3293,
      "ĠÑģ": 3294,
      "Ġproduction": 3295,
      "Tr": 3296,
      "Ġstaff": 3297,
      "aker": 3298,
      "Ã±": 3299,
      "Ġdog": 3300,
      "ĠChar": 3301,
      "Ġdescribed": 3302,
      "ittee": 3303,
      "Ġbeyond": 3304,
      "ĠGeorge": 3305,
      "ĠKe": 3306,
      "Ġstatement": 3307,
      "Ġneigh": 3308,
      "Ġdisp": 3309,
      "ĠWhile": 3310,
      "Ġareas": 3311,
      "ĠFrance": 3312,
      "Ġcandid": 3313,
      "ria": 3314,
      "Ġmovement": 3315,
      "iling": 3316,
      "Ġdemand": 3317,
      "Ġscient": 3318,
      "Ġtalking": 3319,
      "ĠEast": 3320,
      "ĠMark": 3321,
      "Ġ2008": 3322,
      "Ġeconomic": 3323,
      "Ġbi": 3324,
      "volution": 3325,
      "Ġwriting": 3326,
      "chen": 3327,
      "lection": 3328,
      "Ġgold": 3329,
      "Ġtruth": 3330,
      "With": 3331,
      "Ġlack": 3332,
      "Ġrepe": 3333,
      "Ġenvironment": 3334,
      "abor": 3335,
      "alys": 3336,
      "ĠBo": 3337,
      "Ġrefer": 3338,
      "ospital": 3339,
      "gu": 3340,
      "roy": 3341,
      "Ġmiddle": 3342,
      "Ġlegal": 3343,
      "Ã©e": 3344,
      "Ġtrou": 3345,
      "ano": 3346,
      "Le": 3347,
      "ĠdÃ©": 3348,
      "udd": 3349,
      "ners": 3350,
      "ĠCont": 3351,
      "Ġfocus": 3352,
      "inks": 3353,
      "Ġrock": 3354,
      "Ġcarry": 3355,
      "Ġaddress": 3356,
      "Ġloss": 3357,
      "Ġconvers": 3358,
      "Ġcontent": 3359,
      "Ġallowed": 3360,
      "Ġlif": 3361,
      "Ġachie": 3362,
      "col": 3363,
      "Ġsudden": 3364,
      "Ġcold": 3365,
      "Ġbooks": 3366,
      "mar": 3367,
      "Ġletter": 3368,
      "Ġplus": 3369,
      "Ġlower": 3370,
      "hib": 3371,
      "New": 3372,
      "Ġfeeling": 3373,
      "Ġresponse": 3374,
      "Ġcat": 3375,
      ",_": 3376,
      "Ġprotect": 3377,
      "ading": 3378,
      "Ġmatch": 3379,
      "ette": 3380,
      "Ġdrug": 3381,
      "Ġmach": 3382,
      "Ġshoot": 3383,
      "Ġboard": 3384,
      "aded": 3385,
      "Ġdisapp": 3386,
      "Ġpara": 3387,
      "Ġcomput": 3388,
      "Ġpas": 3389,
      "atever": 3390,
      "Ġpurp": 3391,
      "Ġshall": 3392,
      "ĠCalifornia": 3393,
      "iny": 3394,
      "Ġsch": 3395,
      "Ġ40": 3396,
      "ĠDepartment": 3397,
      "Ġmouth": 3398,
      "uments": 3399,
      "AD": 3400,
      "Ġimage": 3401,
      "alled": 3402,
      "Be": 3403,
      "Ġbank": 3404,
      "Ġsafe": 3405,
      "Ġbehav": 3406,
      "rey": 3407,
      "Ġarms": 3408,
      "lying": 3409,
      "Don": 3410,
      "Ġtowards": 3411,
      "Ġ2009": 3412,
      "isted": 3413,
      "reng": 3414,
      "Ġlas": 3415,
      "Ġ2019": 3416,
      "Ġsize": 3417,
      "Ar": 3418,
      "lig": 3419,
      "Ġir": 3420,
      "Yes": 3421,
      "ĠSim": 3422,
      "isl": 3423,
      "ĠSam": 3424,
      "Ġhus": 3425,
      "ĠLeague": 3426,
      "inary": 3427,
      "Ġterm": 3428,
      "va": 3429,
      "Ġbeginning": 3430,
      "atur": 3431,
      "king": 3432,
      "oring": 3433,
      "ero": 3434,
      "Ġens": 3435,
      "Ġfootball": 3436,
      "Ġvan": 3437,
      "Ġrespond": 3438,
      "Ġdeg": 3439,
      "Ġstraight": 3440,
      "ĠArt": 3441,
      "Ġnod": 3442,
      "Ġdans": 3443,
      "Ġgoes": 3444,
      "Ġcode": 3445,
      "Ġextra": 3446,
      "iced": 3447,
      "Ġsummer": 3448,
      "Is": 3449,
      "Ġwhom": 3450,
      "Ġ29": 3451,
      "Ġforces": 3452,
      "Ġcommand": 3453,
      "ĠAir": 3454,
      "ls": 3455,
      "ago": 3456,
      "Ġpotential": 3457,
      "Ġtour": 3458,
      "Ġgreen": 3459,
      "Ġbow": 3460,
      "Ġpage": 3461,
      "Ġchanged": 3462,
      "Ġcenter": 3463,
      "De": 3464,
      "Ġindepend": 3465,
      "berg": 3466,
      "rig": 3467,
      "Ġhous": 3468,
      "po": 3469,
      "ĠGeneral": 3470,
      "Ġperm": 3471,
      "21": 3472,
      "well": 3473,
      "Ġfair": 3474,
      "ĠMart": 3475,
      "omas": 3476,
      "27": 3477,
      "ÑĢÐ°": 3478,
      "ension": 3479,
      "Ġpark": 3480,
      "Ġrace": 3481,
      "ech": 3482,
      "istory": 3483,
      "Ġcondu": 3484,
      "Ġsource": 3485,
      "ING": 3486,
      "Ġcomment": 3487,
      "Ġpoor": 3488,
      "Ġseven": 3489,
      "ĠCongress": 3490,
      "Ġdream": 3491,
      "ibly": 3492,
      "Ġwarm": 3493,
      "Ġtrade": 3494,
      "ĠFirst": 3495,
      "Ġbattle": 3496,
      "Ġfresh": 3497,
      "ples": 3498,
      "Ġconcept": 3499,
      "Ġtouch": 3500,
      "owers": 3501,
      "enced": 3502,
      "Ġpractice": 3503,
      "Ġclosed": 3504,
      "acing": 3505,
      "ĠCourt": 3506,
      "Un": 3507,
      "Ġmix": 3508,
      "ram": 3509,
      "zen": 3510,
      "Ġperformance": 3511,
      "Ã¶r": 3512,
      "ller": 3513,
      "ety": 3514,
      "ĠChinese": 3515,
      "Ġimmediately": 3516,
      "come": 3517,
      "ems": 3518,
      "Ġrate": 3519,
      ":**": 3520,
      "Ġyourself": 3521,
      "Ġclean": 3522,
      "Ġ<": 3523,
      "ocked": 3524,
      "Ġtraining": 3525,
      "Ġdirector": 3526,
      "Ġsearch": 3527,
      "Ġstrugg": 3528,
      "Ġlooks": 3529,
      "ĠFrom": 3530,
      "Ġforeign": 3531,
      "Ġfederal": 3532,
      "ÐµÐ½": 3533,
      "Ġbuy": 3534,
      "Ġpen": 3535,
      "26": 3536,
      "inated": 3537,
      "Ġdefin": 3538,
      "Ġconsum": 3539,
      "Ġfigure": 3540,
      "Ġmeaning": 3541,
      "Ġaddition": 3542,
      "Ġweap": 3543,
      "iful": 3544,
      "Ġdemon": 3545,
      "Ġcrow": 3546,
      "ĠBill": 3547,
      "Ġdanger": 3548,
      "Ġblue": 3549,
      "ords": 3550,
      "Ġones": 3551,
      "Ġdaughter": 3552,
      "oo": 3553,
      "ĠNews": 3554,
      "bre": 3555,
      "ĠAnge": 3556,
      "Ġexperi": 3557,
      "rim": 3558,
      "cul": 3559,
      "Ð¾Ð²": 3560,
      "Ġship": 3561,
      "Ġchurch": 3562,
      "Ġstyle": 3563,
      "ession": 3564,
      "ĠParty": 3565,
      "ĠChe": 3566,
      "Ġonto": 3567,
      "pir": 3568,
      "Ġprison": 3569,
      "Ġmultip": 3570,
      "ression": 3571,
      "Ġimpact": 3572,
      "Ġhour": 3573,
      "cial": 3574,
      "itar": 3575,
      "ini": 3576,
      "igr": 3577,
      "ĠTV": 3578,
      "oyal": 3579,
      "Ġcontact": 3580,
      "Ġcam": 3581,
      "ĠAlex": 3582,
      "Ġang": 3583,
      "Ġnation": 3584,
      "Ġemb": 3585,
      "Ġprice": 3586,
      "pre": 3587,
      "á½": 3588,
      "Ġofficials": 3589,
      "Ġrequire": 3590,
      "Ġfif": 3591,
      "ĠRec": 3592,
      "Ġcy": 3593,
      "ston": 3594,
      "29": 3595,
      "Ġglass": 3596,
      "itz": 3597,
      "Ġsociety": 3598,
      "Ġknowledge": 3599,
      "ita": 3600,
      "Ġrange": 3601,
      "Ġdeterm": 3602,
      "but": 3603,
      "Ġsea": 3604,
      "ĠRussian": 3605,
      "Ġeye": 3606,
      "lls": 3607,
      "Ġgrad": 3608,
      "Ġregion": 3609,
      "ĠCap": 3610,
      "ora": 3611,
      "Ġspecies": 3612,
      "ĠMac": 3613,
      "Ġgoal": 3614,
      "rupt": 3615,
      "Ġcomplex": 3616,
      "ville": 3617,
      "no": 3618,
      "astic": 3619,
      "wise": 3620,
      "imately": 3621,
      "28": 3622,
      "Ġoccur": 3623,
      "Ġbill": 3624,
      "Ã¤r": 3625,
      "Ġcompletely": 3626,
      "ĠMichael": 3627,
      "Ġonline": 3628,
      "Ġfeatures": 3629,
      "Ġbab": 3630,
      "ishing": 3631,
      "ED": 3632,
      "icro": 3633,
      "Ġment": 3634,
      "Ġliber": 3635,
      "ĠMore": 3636,
      "Ġvia": 3637,
      "Ġapproach": 3638,
      "Ġslight": 3639,
      "oly": 3640,
      "Ġprevious": 3641,
      "ula": 3642,
      "vey": 3643,
      "Ġstage": 3644,
      "Ġplant": 3645,
      "Ġmoving": 3646,
      "Ġrecently": 3647,
      "do": 3648,
      "Ġparticularly": 3649,
      "Ġaverage": 3650,
      "ya": 3651,
      "Ġbal": 3652,
      "ĠCoun": 3653,
      "Ġhuge": 3654,
      "Ġking": 3655,
      "Ġincrease": 3656,
      "lands": 3657,
      "Ġlaws": 3658,
      "Ġtrust": 3659,
      "Ġtechnology": 3660,
      "olic": 3661,
      "Ġleading": 3662,
      "Ġleader": 3663,
      "Ġrequired": 3664,
      "ĠChristian": 3665,
      "Ä±": 3666,
      "ength": 3667,
      "burg": 3668,
      "ĠDist": 3669,
      "Ġhappen": 3670,
      "Ġspot": 3671,
      "Ġanc": 3672,
      "erved": 3673,
      "Ġdrink": 3674,
      "Ġstopped": 3675,
      "ication": 3676,
      "Ġstreet": 3677,
      "Ġculture": 3678,
      "utive": 3679,
      "Ġwindow": 3680,
      "Ġparts": 3681,
      "Ġbeg": 3682,
      "itude": 3683,
      "Ġau": 3684,
      "Ġmer": 3685,
      "anch": 3686,
      "Ġprogress": 3687,
      "Ġanti": 3688,
      "Ġthroughout": 3689,
      "asion": 3690,
      "Ġexactly": 3691,
      "ura": 3692,
      "rect": 3693,
      "Ġheat": 3694,
      "aches": 3695,
      "Ġvillage": 3696,
      "Ġability": 3697,
      "Ġgiving": 3698,
      "ĠCanada": 3699,
      "ĠInt": 3700,
      "Ġchair": 3701,
      "Ġbes": 3702,
      "Ph": 3703,
      "ĠLou": 3704,
      "Ġwalked": 3705,
      "Ġstreng": 3706,
      "rely": 3707,
      "ĠØ": 3708,
      "idents": 3709,
      "Ġunc": 3710,
      "ogle": 3711,
      "Ġnetwork": 3712,
      "Ġplat": 3713,
      "text": 3714,
      "ĠFranc": 3715,
      "Ġstar": 3716,
      "icles": 3717,
      "set": 3718,
      "eds": 3719,
      "Ġspread": 3720,
      "Ġfat": 3721,
      "ĠMag": 3722,
      "OS": 3723,
      "ante": 3724,
      "oses": 3725,
      "Oh": 3726,
      "Ġeducation": 3727,
      "Ġfinancial": 3728,
      "Ġwild": 3729,
      "www": 3730,
      "Ġmist": 3731,
      "ares": 3732,
      "Ġprovided": 3733,
      "Ġnovel": 3734,
      "Ġemot": 3735,
      "Ġ2007": 3736,
      "Ġdin": 3737,
      "'.": 3738,
      "Ġburn": 3739,
      "oper": 3740,
      "Ġraised": 3741,
      "llig": 3742,
      "aling": 3743,
      "Ġaf": 3744,
      "Cl": 3745,
      "Ġproduc": 3746,
      "lege": 3747,
      "based": 3748,
      "ĠInternational": 3749,
      "Ġvote": 3750,
      "useum": 3751,
      "ears": 3752,
      "ipped": 3753,
      "duction": 3754,
      "Ġpal": 3755,
      "Ġnecessary": 3756,
      "Ġwebs": 3757,
      "Ġobv": 3758,
      "lected": 3759,
      "Ġpiece": 3760,
      "ĠRussia": 3761,
      "Ġpsych": 3762,
      "anned": 3763,
      "ĠCam": 3764,
      "Ġstories": 3765,
      "Ġworkers": 3766,
      "icated": 3767,
      "Ġhappy": 3768,
      "AM": 3769,
      "ando": 3770,
      "ĠQue": 3771,
      "....": 3772,
      "put": 3773,
      "ĠHen": 3774,
      "Ġarrest": 3775,
      "Ġplaces": 3776,
      "Ġsignificant": 3777,
      "Ġein": 3778,
      "icip": 3779,
      "Ġign": 3780,
      "Ġglobal": 3781,
      "reek": 3782,
      "Ġreach": 3783,
      "Ġhusband": 3784,
      "alysis": 3785,
      "ii": 3786,
      "acebook": 3787,
      "Ġnumbers": 3788,
      "ĠÏĦ": 3789,
      "Ġtwenty": 3790,
      "Ġreb": 3791,
      "ĠMary": 3792,
      "more": 3793,
      "Ġheavy": 3794,
      "Ġpulled": 3795,
      "Ġlines": 3796,
      "ãģĻ": 3797,
      "ĠBel": 3798,
      "Ġleaving": 3799,
      "=\"": 3800,
      "Pro": 3801,
      "Ð·": 3802,
      "Ġlocated": 3803,
      "isions": 3804,
      "icht": 3805,
      "OU": 3806,
      "Ġmaybe": 3807,
      "Ġtitle": 3808,
      "ĠSund": 3809,
      "Ġcele": 3810,
      "Ġ2006": 3811,
      "Ġahead": 3812,
      "ĠMiss": 3813,
      "aked": 3814,
      "Ġwonder": 3815,
      "####": 3816,
      "Ġassist": 3817,
      "Ġbirth": 3818,
      "ilies": 3819,
      "Ġinstit": 3820,
      "Ġconstit": 3821,
      "Ġcard": 3822,
      "Ġeffort": 3823,
      "aining": 3824,
      "hi": 3825,
      "---": 3826,
      "inct": 3827,
      "Do": 3828,
      "oted": 3829,
      "levision": 3830,
      "ĠPort": 3831,
      "Ġfirm": 3832,
      "Ġlink": 3833,
      "ĠChurch": 3834,
      "ias": 3835,
      "ĠRiver": 3836,
      "aging": 3837,
      "Ġcas": 3838,
      "Ġspirit": 3839,
      "70": 3840,
      "Ġcentral": 3841,
      "ĠEvery": 3842,
      "outhern": 3843,
      "Ġdrive": 3844,
      "Ġacqu": 3845,
      "ĠMad": 3846,
      "ĠLet": 3847,
      "Ġquiet": 3848,
      "down": 3849,
      "Ġdistrict": 3850,
      "riage": 3851,
      "itation": 3852,
      "ĠÂ»": 3853,
      "Ġserious": 3854,
      "ĠHill": 3855,
      "Ġdirectly": 3856,
      "Ġwants": 3857,
      "Ġaware": 3858,
      "Ġshowed": 3859,
      "Ġearth": 3860,
      "Ġmiles": 3861,
      "ĠSal": 3862,
      "ampionship": 3863,
      "Ġpeace": 3864,
      "Ġwrite": 3865,
      "Ġqual": 3866,
      "ĠInst": 3867,
      "Now": 3868,
      "Well": 3869,
      "Ġplans": 3870,
      "ĠUK": 3871,
      "irty": 3872,
      "ga": 3873,
      "Ġarticle": 3874,
      "Ġcritic": 3875,
      "ĠMal": 3876,
      "Ġx": 3877,
      "ĠCom": 3878,
      "Ġsystems": 3879,
      "yr": 3880,
      "ipp": 3881,
      "ĠCons": 3882,
      "ĠAc": 3883,
      "Ġcertainly": 3884,
      "ĠServ": 3885,
      "ĠĠĠĠĠĠĠĠ": 3886,
      "reedom": 3887,
      "ĠCenter": 3888,
      "orthern": 3889,
      "Ġalle": 3890,
      "Ġprior": 3891,
      "Ġcolor": 3892,
      "ĠAmericans": 3893,
      "ĠStud": 3894,
      "Â»": 3895,
      "Ġprevent": 3896,
      "ĠRobert": 3897,
      "Ġdocument": 3898,
      "Ġscene": 3899,
      "Ġjournal": 3900,
      "Ġlived": 3901,
      "Ġlat": 3902,
      "Ġmill": 3903,
      "Ġchief": 3904,
      "Ġgar": 3905,
      "ources": 3906,
      "Ġfix": 3907,
      "Ġfarm": 3908,
      "Ġunf": 3909,
      "Ġ+": 3910,
      "II": 3911,
      "Ġeat": 3912,
      "Ġincreasing": 3913,
      "Ġcool": 3914,
      "ĠAssoci": 3915,
      "Ġfrequ": 3916,
      "Ġhom": 3917,
      "OT": 3918,
      "ĠEr": 3919,
      "ĠJer": 3920,
      "Ġdeveloped": 3921,
      "Ġproduced": 3922,
      "Ex": 3923,
      "umn": 3924,
      "45": 3925,
      "35": 3926,
      "Ġwa": 3927,
      "ĠGreat": 3928,
      "Ġmessage": 3929,
      "Ġscience": 3930,
      "unn": 3931,
      "Ġreading": 3932,
      "Ġbillion": 3933,
      "ĠTur": 3934,
      "ounds": 3935,
      "ĠMex": 3936,
      "Ġhadn": 3937,
      "Ġveh": 3938,
      "Ġsexual": 3939,
      "Ġwaiting": 3940,
      "ID": 3941,
      "ĠParis": 3942,
      "Ġextreme": 3943,
      "Ġchoice": 3944,
      "Ġpaid": 3945,
      "Ġconditions": 3946,
      "Ġcaught": 3947,
      "Ġgets": 3948,
      "ancy": 3949,
      "inton": 3950,
      "orks": 3951,
      "Con": 3952,
      "Ġult": 3953,
      "org": 3954,
      "chan": 3955,
      "ĠTHE": 3956,
      "Ġhelped": 3957,
      "ĠBen": 3958,
      "uing": 3959,
      "ĠObama": 3960,
      "Ġcurrently": 3961,
      "Why": 3962,
      "Ġmedical": 3963,
      "Ġestablished": 3964,
      "using": 3965,
      "olf": 3966,
      "Ġteams": 3967,
      "Ġstanding": 3968,
      "Ġshut": 3969,
      "Ġgrowing": 3970,
      "Ġstore": 3971,
      "uty": 3972,
      "Ġpun": 3973,
      "Ġvictim": 3974,
      "Ġcitiz": 3975,
      "ĠSee": 3976,
      "Ġstuff": 3977,
      "Ġmarried": 3978,
      "Ġdise": 3979,
      "ona": 3980,
      "now": 3981,
      "Ġbrief": 3982,
      "Ġmo": 3983,
      "Ġphilos": 3984,
      "ĠUnion": 3985,
      "Äģ": 3986,
      "ĠMil": 3987,
      "Ġspl": 3988,
      "ĠGermany": 3989,
      "Ġscreen": 3990,
      "Ġimprove": 3991,
      "lict": 3992,
      "bert": 3993,
      "Ġremains": 3994,
      "itness": 3995,
      "Ġeasily": 3996,
      "Ġcounter": 3997,
      "Ġuns": 3998,
      "oles": 3999,
      "Ġprem": 4000,
      "house": 4001,
      "Ġattract": 4002,
      "Ġterror": 4003,
      "enge": 4004,
      "Ġ`": 4005,
      "vis": 4006,
      "Ãº": 4007,
      "aste": 4008,
      "ĠYour": 4009,
      "Ġphysical": 4010,
      "99": 4011,
      "Ġremained": 4012,
      "ĠGovern": 4013,
      "Ġyes": 4014,
      "Ġgrowth": 4015,
      "Ġoffered": 4016,
      "ĠFrank": 4017,
      "ĠMid": 4018,
      "OM": 4019,
      "EL": 4020,
      "ĠAdd": 4021,
      "Ġforced": 4022,
      "Ġli": 4023,
      "Ġarrived": 4024,
      "Ġspoke": 4025,
      "orrow": 4026,
      "Ġdate": 4027,
      "ĠTimes": 4028,
      "Ġproperty": 4029,
      "Ġthus": 4030,
      "Ġrules": 4031,
      "stitute": 4032,
      "ĠTra": 4033,
      "ĠPhil": 4034,
      "arning": 4035,
      "iance": 4036,
      "ĠGreen": 4037,
      "Ġspeed": 4038,
      "Ġpurch": 4039,
      "Ġcru": 4040,
      "Ġdespite": 4041,
      "Ġgod": 4042,
      "Se": 4043,
      "ĠCollege": 4044,
      ".**": 4045,
      "ĠÐ¾": 4046,
      "change": 4047,
      "van": 4048,
      "Ġeventually": 4049,
      "Ġarmy": 4050,
      "ãĥ³": 4051,
      "hest": 4052,
      "Ġdesigned": 4053,
      "enth": 4054,
      "Ġskin": 4055,
      "ĠTrans": 4056,
      "Ġtransl": 4057,
      "cious": 4058,
      "ĠMond": 4059,
      "board": 4060,
      "Ġbelieved": 4061,
      "Ġnor": 4062,
      "Ġclot": 4063,
      "cell": 4064,
      "ET": 4065,
      "Ġsection": 4066,
      "Î»": 4067,
      "ola": 4068,
      "Ġdefe": 4069,
      "Ġreports": 4070,
      "Ġfle": 4071,
      "ĠKore": 4072,
      "Ġspok": 4073,
      "Ġjoined": 4074,
      "Ġsurround": 4075,
      "ivity": 4076,
      "Ġshown": 4077,
      "rend": 4078,
      "Ġdistrib": 4079,
      "just": 4080,
      "ena": 4081,
      "oto": 4082,
      "Ġfinished": 4083,
      "Ġcelebr": 4084,
      "Ġ{": 4085,
      "Ïħ": 4086,
      "Ġfort": 4087,
      "Ġlearned": 4088,
      "Ñħ": 4089,
      "ocks": 4090,
      "Ġguy": 4091,
      "ĠLaw": 4092,
      "Ġarr": 4093,
      "Ġquality": 4094,
      "Ġintellig": 4095,
      "pm": 4096,
      "ĠAustralia": 4097,
      "Ġamb": 4098,
      "Ġbag": 4099,
      "gal": 4100,
      "ads": 4101,
      "ĠWhy": 4102,
      "sey": 4103,
      "arden": 4104,
      "ĠTom": 4105,
      "irgin": 4106,
      "olute": 4107,
      "Ġplatform": 4108,
      "Ġbrain": 4109,
      "Ġearn": 4110,
      "Ġupd": 4111,
      "ĠCouncil": 4112,
      "Ġnames": 4113,
      "ĠBra": 4114,
      "olly": 4115,
      "Ġknows": 4116,
      "ĠMost": 4117,
      "ĠNet": 4118,
      "ĠRob": 4119,
      "teen": 4120,
      "hr": 4121,
      "Ġsusp": 4122,
      "ĠOff": 4123,
      "ibrary": 4124,
      "Ġofficer": 4125,
      "etic": 4126,
      "ĠMinister": 4127,
      "igned": 4128,
      "ĠTex": 4129,
      "semb": 4130,
      "Ġclim": 4131,
      "ido": 4132,
      "ĠLord": 4133,
      "Ġopportunity": 4134,
      "ĠThomas": 4135,
      "Ġdoll": 4136,
      "Ġtrain": 4137,
      "Ġstandard": 4138,
      "ĠPri": 4139,
      "rol": 4140,
      "ĠOf": 4141,
      "Ġlevels": 4142,
      "Ġweight": 4143,
      "Ġrap": 4144,
      "Ġpowerful": 4145,
      "ĠPeter": 4146,
      "75": 4147,
      "ĠFacebook": 4148,
      "Ġproducts": 4149,
      "Ġaim": 4150,
      "ĠOther": 4151,
      "ĠDay": 4152,
      "ĠPet": 4153,
      "Ġbeautiful": 4154,
      "part": 4155,
      "istan": 4156,
      "Ġagre": 4157,
      "uman": 4158,
      "Ġfamilies": 4159,
      "Ġkids": 4160,
      "198": 4161,
      "ãģĭ": 4162,
      "Ġwhatever": 4163,
      "Ã¢": 4164,
      "Ġstarting": 4165,
      "ription": 4166,
      "ua": 4167,
      "Ġreality": 4168,
      "Ġdirection": 4169,
      "Ġ2000": 4170,
      "icient": 4171,
      "Ġincludes": 4172,
      "Ġban": 4173,
      "Ġrelative": 4174,
      "Ġpu": 4175,
      "Ġdoubt": 4176,
      "ĠTwitter": 4177,
      "Ġreligious": 4178,
      "Ġadministration": 4179,
      "ĠRoman": 4180,
      "ĠTer": 4181,
      "Ġtheory": 4182,
      "ĠWell": 4183,
      "Ġepis": 4184,
      "Ġprofessional": 4185,
      "Ġhall": 4186,
      "rill": 4187,
      "ĠĠĠĊ": 4188,
      "ĠDel": 4189,
      "Ġplaced": 4190,
      "hy": 4191,
      "Ġvo": 4192,
      "ĠSmith": 4193,
      "Ġsupposed": 4194,
      "Ġnote": 4195,
      "ĠÐ¸": 4196,
      "Ġideas": 4197,
      "IL": 4198,
      "aud": 4199,
      "ĠHere": 4200,
      "Ð¿": 4201,
      "iation": 4202,
      "usion": 4203,
      "Ġ2005": 4204,
      "olution": 4205,
      "Ġnom": 4206,
      "Ġdetails": 4207,
      "ĠFriday": 4208,
      "ipe": 4209,
      "Ã¼r": 4210,
      "Ġimpl": 4211,
      "Ġstudent": 4212,
      "ĠJes": 4213,
      "ala": 4214,
      "Ġsom": 4215,
      "By": 4216,
      "Ġtemper": 4217,
      "Ġemail": 4218,
      "Ġopin": 4219,
      "Ð¹": 4220,
      "itect": 4221,
      "Ġoch": 4222,
      "ĠArmy": 4223,
      "Ġencoura": 4224,
      "Ġfailed": 4225,
      "Ġhospital": 4226,
      "Ġmob": 4227,
      "Ġdrop": 4228,
      "ĠBook": 4229,
      "Ġcomfort": 4230,
      "Ġtend": 4231,
      "Ġteacher": 4232,
      "ĠHam": 4233,
      "Ġclearly": 4234,
      "Ġofficers": 4235,
      "Ġice": 4236,
      "ĠHall": 4237,
      "Ġlength": 4238,
      "|-": 4239,
      "ĠSunday": 4240,
      "antic": 4241,
      "ingly": 4242,
      "illa": 4243,
      "ucle": 4244,
      "Ġpattern": 4245,
      "33": 4246,
      "Ġlegisl": 4247,
      "force": 4248,
      "Ġsitting": 4249,
      "Ġcrowd": 4250,
      "ĠVer": 4251,
      "Ġhat": 4252,
      "Ġpressure": 4253,
      "isf": 4254,
      "Ġsurface": 4255,
      "iament": 4256,
      "Ġgives": 4257,
      "duce": 4258,
      "ãĤĮ": 4259,
      "á»": 4260,
      "ione": 4261,
      "inter": 4262,
      "ĠÙ": 4263,
      "Sc": 4264,
      "uke": 4265,
      "Ġtraditional": 4266,
      "Ġappears": 4267,
      "âĢĶ\"": 4268,
      "ĠGoogle": 4269,
      "âĢĿ.": 4270,
      "Ġaltern": 4271,
      "ront": 4272,
      "Ġrecomm": 4273,
      "Ġdifference": 4274,
      "Ġcris": 4275,
      "Ġorganization": 4276,
      "äº": 4277,
      "Ġyell": 4278,
      "Ġholding": 4279,
      "Ġbeat": 4280,
      "Ġbra": 4281,
      "Ġpositive": 4282,
      "craft": 4283,
      "ĠCup": 4284,
      "arp": 4285,
      "ĠDistrict": 4286,
      "Ġjump": 4287,
      "ulated": 4288,
      "Ġconsist": 4289,
      "ĠMat": 4290,
      "Ġeconomy": 4291,
      "Ġusers": 4292,
      "CH": 4293,
      "Ġserve": 4294,
      "Ġcab": 4295,
      "ees": 4296,
      "Ġcarried": 4297,
      "Ġavoid": 4298,
      "Ġnice": 4299,
      "ION": 4300,
      "Î·": 4301,
      "While": 4302,
      "Ġpet": 4303,
      "Ġpicture": 4304,
      "Ġprint": 4305,
      "ici": 4306,
      "90": 4307,
      "ĠIslam": 4308,
      "Ġrestaur": 4309,
      "rows": 4310,
      "Ġagreed": 4311,
      "Ġdestroy": 4312,
      "Ġsend": 4313,
      "ĠGold": 4314,
      "oms": 4315,
      "Then": 4316,
      "Ġspeech": 4317,
      "Ġcollege": 4318,
      "mark": 4319,
      "ĠRepublican": 4320,
      "that": 4321,
      "ications": 4322,
      "Ġcu": 4323,
      "Ġvirt": 4324,
      "ĠMod": 4325,
      "Ġappoint": 4326,
      "ĠRichard": 4327,
      "Ġcalls": 4328,
      "icks": 4329,
      "ĠCommun": 4330,
      "Ġmemory": 4331,
      "Ġnoted": 4332,
      "Ġlarger": 4333,
      "________": 4334,
      "Ġmir": 4335,
      "Ġnormal": 4336,
      "Ġcorner": 4337,
      "Ġfemale": 4338,
      "how": 4339,
      "Ġrequest": 4340,
      "Ġdisplay": 4341,
      "Ġcrim": 4342,
      "Ġended": 4343,
      "Ġwebsite": 4344,
      "Ġoccup": 4345,
      "Ġgreater": 4346,
      "ĠIran": 4347,
      "with": 4348,
      "Ġbreath": 4349,
      "ropri": 4350,
      "Ġefforts": 4351,
      "Ã©t": 4352,
      "uts": 4353,
      "ND": 4354,
      "Ġapparent": 4355,
      "Ġna": 4356,
      "ĠWed": 4357,
      "Ġtelevision": 4358,
      "Ġolder": 4359,
      "orry": 4360,
      "Ġrob": 4361,
      "Ġenter": 4362,
      "Ã¸": 4363,
      "Ġ190": 4364,
      "Ġgas": 4365,
      "Ġkit": 4366,
      "Ġsaf": 4367,
      "Ġpurpose": 4368,
      "Ġmut": 4369,
      "Ġautom": 4370,
      "Ġmajority": 4371,
      "ker": 4372,
      "ãģ¾": 4373,
      "Ġrac": 4374,
      "ĠWestern": 4375,
      "Ġ60": 4376,
      "kin": 4377,
      "iring": 4378,
      "ĠCharles": 4379,
      "ĠDiv": 4380,
      "osing": 4381,
      "Ġsigned": 4382,
      "ĠWil": 4383,
      "ĠMonday": 4384,
      "Ġadditional": 4385,
      "chers": 4386,
      "ruit": 4387,
      "isher": 4388,
      "ĠBay": 4389,
      "ãģ£": 4390,
      "ĠMo": 4391,
      "Ġviolence": 4392,
      "anging": 4393,
      "Ġregular": 4394,
      "bon": 4395,
      "Ġcharge": 4396,
      "rial": 4397,
      "rif": 4398,
      "ĠMont": 4399,
      "Ġmultiple": 4400,
      "ĠMa": 4401,
      "Ġfile": 4402,
      "Ġsuccessful": 4403,
      "agn": 4404,
      "Ġstre": 4405,
      "Ġseeing": 4406,
      "á¼": 4407,
      "Ġopening": 4408,
      "ĠTor": 4409,
      "mit": 4410,
      "Ġgirls": 4411,
      "Ġassum": 4412,
      "night": 4413,
      "Ġincreased": 4414,
      "Ġevening": 4415,
      "Ġhur": 4416,
      "Ġcovered": 4417,
      "Ġstructure": 4418,
      "Ġsmile": 4419,
      "Ã¡s": 4420,
      "Ġlargest": 4421,
      "Ġtight": 4422,
      "mm": 4423,
      "Ġrelated": 4424,
      "imum": 4425,
      "Ġsuddenly": 4426,
      "resp": 4427,
      "ĠPost": 4428,
      "ĠJapanese": 4429,
      "Ġfully": 4430,
      "Ġsave": 4431,
      "Ġrule": 4432,
      "Ġestablish": 4433,
      "apers": 4434,
      "Ġeffects": 4435,
      "Ġnar": 4436,
      "wo": 4437,
      "Ġriver": 4438,
      "ustr": 4439,
      "Ġpa": 4440,
      "Ġwww": 4441,
      "ava": 4442,
      "alian": 4443,
      "ja": 4444,
      "uce": 4445,
      "ĠCr": 4446,
      "Ġmovie": 4447,
      "ĠFrancis": 4448,
      "Ġcommer": 4449,
      "kay": 4450,
      "ĠNor": 4451,
      "Ġadop": 4452,
      "ĠPeople": 4453,
      "ship": 4454,
      "ube": 4455,
      "ĠDis": 4456,
      "iliar": 4457,
      "Ġhtt": 4458,
      "Ñĸ": 4459,
      "ĠZe": 4460,
      "rer": 4461,
      "Ġtherefore": 4462,
      "Ġreasons": 4463,
      "anda": 4464,
      "Pl": 4465,
      "ĠScott": 4466,
      "Ġschools": 4467,
      "anish": 4468,
      "ĠBu": 4469,
      "htt": 4470,
      "Ġcaused": 4471,
      "ĠIr": 4472,
      "Ġmap": 4473,
      "Ġseat": 4474,
      "Ġstrength": 4475,
      "Ġ2004": 4476,
      "known": 4477,
      "ufact": 4478,
      "Ġpleas": 4479,
      "Ġlie": 4480,
      "Ġbottom": 4481,
      "Ġsister": 4482,
      "win": 4483,
      "arsh": 4484,
      "ferences": 4485,
      "Ġwish": 4486,
      "Ġinvestigation": 4487,
      "Ġpresence": 4488,
      "Ġharm": 4489,
      "Ġera": 4490,
      "Ġinteresting": 4491,
      "arliament": 4492,
      "uesday": 4493,
      "Ġrev": 4494,
      "Ġquarter": 4495,
      "edy": 4496,
      "Ġmi": 4497,
      "Ã¨re": 4498,
      "ota": 4499,
      "Ġwatching": 4500,
      "venue": 4501,
      "ĠSand": 4502,
      "ĠTexas": 4503,
      "Ġrid": 4504,
      "yer": 4505,
      "ĠOh": 4506,
      "Ġeth": 4507,
      "Ġinfluence": 4508,
      "akers": 4509,
      "ayer": 4510,
      "Ġlimited": 4511,
      "Ġvon": 4512,
      "Ġsuspect": 4513,
      "ÑĢÐµ": 4514,
      "ĠClinton": 4515,
      "ĠOp": 4516,
      "Ġunderstanding": 4517,
      "Ġedge": 4518,
      "Ġtom": 4519,
      "Ġconserv": 4520,
      "ĠLike": 4521,
      "Ġfaith": 4522,
      "kt": 4523,
      "TER": 4524,
      "Ġleaves": 4525,
      "inet": 4526,
      "ĠÅ": 4527,
      "Ġthick": 4528,
      "Ġbare": 4529,
      "andon": 4530,
      "ario": 4531,
      "Ġdaily": 4532,
      "Ġaren": 4533,
      "Ġintegr": 4534,
      "ements": 4535,
      "aine": 4536,
      "Ġsteps": 4537,
      "Ġtreatment": 4538,
      "emb": 4539,
      "vest": 4540,
      "Ġcondition": 4541,
      "Ġradio": 4542,
      "vo": 4543,
      "Î¼": 4544,
      "36": 4545,
      "Some": 4546,
      "lor": 4547,
      "OP": 4548,
      "Ġwatched": 4549,
      "ĠGrand": 4550,
      "Ġhun": 4551,
      "Ġbecomes": 4552,
      "rid": 4553,
      "gged": 4554,
      "Ġ31": 4555,
      "Ġsac": 4556,
      "icago": 4557,
      "ĠMount": 4558,
      "ĠCanad": 4559,
      "Ġsuit": 4560,
      "Ġdistance": 4561,
      "Ġdry": 4562,
      "Ġslowly": 4563,
      "ding": 4564,
      "ĠTwo": 4565,
      "ports": 4566,
      "Ġhighly": 4567,
      "ĠAlthough": 4568,
      "Ġguard": 4569,
      "ĠBre": 4570,
      "Ġanalysis": 4571,
      "Ġconflict": 4572,
      "Ġguess": 4573,
      "gn": 4574,
      "istry": 4575,
      "Ġfans": 4576,
      "Ġbaby": 4577,
      "ĠDemocratic": 4578,
      "Ġpolitics": 4579,
      "ception": 4580,
      "ĠSuper": 4581,
      "ĠTheir": 4582,
      "Ġstudies": 4583,
      "Ġtrib": 4584,
      "Ġrise": 4585,
      "æľ": 4586,
      "bing": 4587,
      "anta": 4588,
      "Ġstatus": 4589,
      "Ġgenerally": 4590,
      "Ġpurs": 4591,
      "Ġtrees": 4592,
      "Ġtables": 4593,
      "aturday": 4594,
      "78": 4595,
      "Ġmission": 4596,
      "ĠpÃ¥": 4597,
      "ĠBrown": 4598,
      "Ġcomputer": 4599,
      "Ġempt": 4600,
      "Ġkid": 4601,
      "ĠJud": 4602,
      "ulf": 4603,
      "Ġmanaged": 4604,
      "Ġdouble": 4605,
      "orters": 4606,
      "earch": 4607,
      "ĠDonald": 4608,
      "Ġactivity": 4609,
      "Ġclaims": 4610,
      "entially": 4611,
      "Ġtree": 4612,
      "Ġ35": 4613,
      "porary": 4614,
      "Ġfighting": 4615,
      "Ġmeasure": 4616,
      "Ġslightly": 4617,
      "aped": 4618,
      "Ġstream": 4619,
      "Ġsafety": 4620,
      "Ð±": 4621,
      "Ġbird": 4622,
      "ih": 4623,
      "ĠÐº": 4624,
      "Ġing": 4625,
      "Ġwest": 4626,
      "Ġadvant": 4627,
      "iverse": 4628,
      "Ġimplement": 4629,
      "ĠTuesday": 4630,
      "ãĤĤ": 4631,
      "Ġpros": 4632,
      "Ġcoff": 4633,
      "Ġforg": 4634,
      "Ġmechan": 4635,
      "Ġweak": 4636,
      "aming": 4637,
      "44": 4638,
      "Ġadult": 4639,
      "ito": 4640,
      "orter": 4641,
      "avy": 4642,
      "ÑĤÐ¾": 4643,
      "Ġom": 4644,
      "Ġcharacters": 4645,
      "Ġorganiz": 4646,
      "Ġma": 4647,
      "Ġexplained": 4648,
      "Ġbound": 4649,
      "38": 4650,
      "Ġuses": 4651,
      "ursday": 4652,
      "Ġcopy": 4653,
      "Ġdemonstr": 4654,
      "ĠSl": 4655,
      "ãģĨ": 4656,
      "Ġthousands": 4657,
      "Bl": 4658,
      "ĠSun": 4659,
      "Ġactions": 4660,
      "Ġdim": 4661,
      "Ġexpression": 4662,
      "Ġdamage": 4663,
      "igure": 4664,
      "ois": 4665,
      "Ġindividuals": 4666,
      "ĠLouis": 4667,
      "Let": 4668,
      "Ġsalt": 4669,
      "uries": 4670,
      "ĠPre": 4671,
      "Ġmaster": 4672,
      "Ġegg": 4673,
      "ictor": 4674,
      "ĠAfrica": 4675,
      "ĠMrs": 4676,
      "ĠHenry": 4677,
      "ĠrÃ©": 4678,
      "His": 4679,
      "ĠMet": 4680,
      "Ġnodded": 4681,
      "ador": 4682,
      "Ġdress": 4683,
      "ca": 4684,
      "Ġbehavior": 4685,
      "ented": 4686,
      "Ġur": 4687,
      "ĠJose": 4688,
      "ĠStr": 4689,
      "ym": 4690,
      "ashed": 4691,
      "Ġcoach": 4692,
      "Ġmale": 4693,
      "Ġminor": 4694,
      "while": 4695,
      "Ġtransfer": 4696,
      "Ġ}": 4697,
      "Ġfeed": 4698,
      "Ġbelong": 4699,
      "Ġfilled": 4700,
      "ey": 4701,
      "EC": 4702,
      "emic": 4703,
      "ĠSenate": 4704,
      "Ġprimary": 4705,
      "nesday": 4706,
      "Ġlaug": 4707,
      "encies": 4708,
      "inger": 4709,
      "Ġsoldiers": 4710,
      "Ġjoin": 4711,
      "Ġborder": 4712,
      "olit": 4713,
      "vi": 4714,
      "Ġcatch": 4715,
      "Ġtelling": 4716,
      "Ġsweet": 4717,
      "Ġcorrect": 4718,
      "ĠEarth": 4719,
      "Ġsem": 4720,
      "Ġbod": 4721,
      "Ġbecoming": 4722,
      "Ġforms": 4723,
      "Ġrail": 4724,
      "Ġeast": 4725,
      "Ġflat": 4726,
      "Ġremind": 4727,
      "65": 4728,
      "Ġ@": 4729,
      "ĠBecause": 4730,
      "Ġsched": 4731,
      "ĠMuslim": 4732,
      "icked": 4733,
      "ez": 4734,
      "Ġexerc": 4735,
      "osh": 4736,
      "iques": 4737,
      "lease": 4738,
      "Ġdiscovered": 4739,
      "Ġlatest": 4740,
      "Ã¤n": 4741,
      "ossible": 4742,
      "da": 4743,
      "Ġdropped": 4744,
      "azine": 4745,
      "ÅĤ": 4746,
      "what": 4747,
      "ĠAfrican": 4748,
      "Ġsoul": 4749,
      "Ġshared": 4750,
      "Ġstock": 4751,
      "lied": 4752,
      "Ġfeature": 4753,
      "Ġcaption": 4754,
      "formation": 4755,
      "Ġregul": 4756,
      "Ġclaimed": 4757,
      "Ġunique": 4758,
      "ĠAre": 4759,
      "ĠLos": 4760,
      "ĠMany": 4761,
      "Ġvac": 4762,
      "Ġpolitic": 4763,
      "aciÃ³n": 4764,
      "Ġbasic": 4765,
      "Ġbul": 4766,
      "olk": 4767,
      "Ġreceive": 4768,
      "Ġcalling": 4769,
      "OL": 4770,
      "ĠAssociation": 4771,
      "Ġthrow": 4772,
      "Me": 4773,
      "Ġclimate": 4774,
      "Ġstone": 4775,
      "ĠJim": 4776,
      "ĠGroup": 4777,
      "anted": 4778,
      "vere": 4779,
      "ĠIS": 4780,
      "Ġbright": 4781,
      "iable": 4782,
      "ushing": 4783,
      "Ġbud": 4784,
      "Ġpreviously": 4785,
      "Ġmarriage": 4786,
      "Ġsubst": 4787,
      "ĠDa": 4788,
      "Ġproduce": 4789,
      "Ġaward": 4790,
      "34": 4791,
      "Ġmachine": 4792,
      "mas": 4793,
      "Ġmostly": 4794,
      "ĠMel": 4795,
      "Ġcitizens": 4796,
      "Ġfreedom": 4797,
      "ĠDuring": 4798,
      "Ġsand": 4799,
      "icit": 4800,
      "Ġhero": 4801,
      "Ġfit": 4802,
      "ĠBritain": 4803,
      "Ġbroken": 4804,
      "Ġfal": 4805,
      "aze": 4806,
      "ĠInter": 4807,
      "Ġtypes": 4808,
      "Ġmanagement": 4809,
      "En": 4810,
      "aks": 4811,
      "Ġabsolute": 4812,
      "Ġloved": 4813,
      "Ġlearning": 4814,
      "Ġchoose": 4815,
      "Ġfish": 4816,
      "Ġresist": 4817,
      "Ġcorpor": 4818,
      "hered": 4819,
      "ĠMer": 4820,
      "Ġconversation": 4821,
      "ĠArab": 4822,
      "uer": 4823,
      "Americ": 4824,
      "Ġforest": 4825,
      "ĠVirgin": 4826,
      "Ġsky": 4827,
      "je": 4828,
      "Ġactivities": 4829,
      "Ġsenior": 4830,
      "asy": 4831,
      "Ġsides": 4832,
      "ties": 4833,
      "Ð³": 4834,
      "Ġkne": 4835,
      "esh": 4836,
      "ĠDet": 4837,
      "Ġexpand": 4838,
      "Ġju": 4839,
      "aren": 4840,
      "noon": 4841,
      "Ġattacks": 4842,
      "Ġanimals": 4843,
      "Ġded": 4844,
      "Ġapart": 4845,
      "ĠOur": 4846,
      "Ġassociated": 4847,
      "Ġactive": 4848,
      "ĠThursday": 4849,
      "Ġactual": 4850,
      "Ġrich": 4851,
      "Ġnone": 4852,
      "ipl": 4853,
      "Ġvalues": 4854,
      "osen": 4855,
      "Ġ2003": 4856,
      "ĠCath": 4857,
      "ĠRoad": 4858,
      "ĠDire": 4859,
      "Ġneighbor": 4860,
      "bour": 4861,
      "uclear": 4862,
      "istics": 4863,
      "32": 4864,
      "Ġfamous": 4865,
      "ĠFore": 4866,
      "Ġcities": 4867,
      "Ġmanager": 4868,
      "ĠGet": 4869,
      "Ã©n": 4870,
      "IA": 4871,
      "Ġprovides": 4872,
      "37": 4873,
      "ati": 4874,
      "Ġtransport": 4875,
      "acks": 4876,
      "ource": 4877,
      "anged": 4878,
      "Ad": 4879,
      "Ġgrew": 4880,
      "Ġhaven": 4881,
      "Ġworse": 4882,
      "ĠWednesday": 4883,
      "Ġruns": 4884,
      "Ġmanufact": 4885,
      "Ġsuggested": 4886,
      "ĠAccording": 4887,
      "Ġconstruction": 4888,
      "ĠSur": 4889,
      "ĠIsland": 4890,
      "Ġsig": 4891,
      "Ġcontain": 4892,
      "ĠSil": 4893,
      "Ġasking": 4894,
      "ĠLat": 4895,
      "Ġcredit": 4896,
      "Ġemp": 4897,
      "Ġsho": 4898,
      "Ġpieces": 4899,
      "Ġlabor": 4900,
      "owed": 4901,
      "Ð½Ð¸": 4902,
      "Ġnewsp": 4903,
      "ĠSaturday": 4904,
      "Ġ2001": 4905,
      "Îº": 4906,
      "Ġdisease": 4907,
      "Ġtill": 4908,
      "Ġ1990": 4909,
      "Ġcollection": 4910,
      "Ġstret": 4911,
      "pret": 4912,
      "Ġuser": 4913,
      "48": 4914,
      "Ġresources": 4915,
      "ĠJul": 4916,
      "Ġsight": 4917,
      "Ġcrime": 4918,
      "cont": 4919,
      "annel": 4920,
      "Ġnotice": 4921,
      "Ġachieve": 4922,
      "Ġlaun": 4923,
      "ĠStar": 4924,
      "Ġformed": 4925,
      "ĠIra": 4926,
      "look": 4927,
      "Ġlean": 4928,
      "ĠBur": 4929,
      "Ġaspect": 4930,
      "Ġlose": 4931,
      "Ġthousand": 4932,
      "Ġshoulder": 4933,
      "stein": 4934,
      "ãĤī": 4935,
      "ĠCle": 4936,
      "mond": 4937,
      "Ġdetect": 4938,
      "ĠSecret": 4939,
      "Ġren": 4940,
      "ĠJo": 4941,
      "gl": 4942,
      "Mar": 4943,
      "Ġseparate": 4944,
      "ÙĬ": 4945,
      "Ġdemocr": 4946,
      "Ġnine": 4947,
      "Ġisland": 4948,
      "Ġspend": 4949,
      "itely": 4950,
      "kins": 4951,
      "ĠInstitute": 4952,
      "ĠÐ´": 4953,
      "Ġphilosoph": 4954,
      "igration": 4955,
      "Ġminister": 4956,
      "ĠCarol": 4957,
      "Ġenemy": 4958,
      "Ġlocation": 4959,
      "ĠUs": 4960,
      "inate": 4961,
      "Ġancient": 4962,
      "Ġimages": 4963,
      "Ġkitchen": 4964,
      "ĠChicago": 4965,
      "ĠSince": 4966,
      "Ġbrown": 4967,
      "Ġbasis": 4968,
      "bid": 4969,
      "know": 4970,
      "Ġcritical": 4971,
      "Ġindeed": 4972,
      "Ġframe": 4973,
      "Ġentirely": 4974,
      "Ġindependent": 4975,
      "cing": 4976,
      "Ġincome": 4977,
      "Ġrealized": 4978,
      "ãģĵ": 4979,
      "Ġcosts": 4980,
      "oviet": 4981,
      "Ġestim": 4982,
      "ĠAnn": 4983,
      "ĠFlor": 4984,
      "Ġexplain": 4985,
      "--------": 4986,
      "ĠJoe": 4987,
      "hens": 4988,
      "55": 4989,
      "Ġmurder": 4990,
      "39": 4991,
      "ĠCamp": 4992,
      "yan": 4993,
      "Ġtrouble": 4994,
      "Ġsymb": 4995,
      "Î¯": 4996,
      "Ġscen": 4997,
      "Ġcoast": 4998,
      "Ġoperations": 4999,
      "Ġwel": 5000,
      "ĠCompany": 5001,
      "Ġminute": 5002,
      "Ġdism": 5003,
      "Ġsatisf": 5004,
      "ST": 5005,
      "Ġprefer": 5006,
      "urance": 5007,
      "Ġscr": 5008,
      "amm": 5009,
      "eah": 5010,
      "Ġdefense": 5011,
      "ĠLuc": 5012,
      "See": 5013,
      "cho": 5014,
      "ĠFin": 5015,
      "ingu": 5016,
      "ras": 5017,
      "uls": 5018,
      "Ġentered": 5019,
      "Ñİ": 5020,
      "Ġwine": 5021,
      "From": 5022,
      "Ġresear": 5023,
      "Ġfingers": 5024,
      "Ġhell": 5025,
      "ĠOver": 5026,
      "Ġwalls": 5027,
      "Ne": 5028,
      "irmed": 5029,
      "Ġsugar": 5030,
      "tre": 5031,
      "Ġlic": 5032,
      "oday": 5033,
      "Ġinterested": 5034,
      "ĠCommittee": 5035,
      "Ġjobs": 5036,
      "100": 5037,
      "Ġ...": 5038,
      "Ġnotes": 5039,
      "Ġsales": 5040,
      "BI": 5041,
      "ENT": 5042,
      "hab": 5043,
      "Ġcrisis": 5044,
      "Ġoffers": 5045,
      "hand": 5046,
      "Ġsources": 5047,
      "ĠSir": 5048,
      "Ġ2002": 5049,
      "Ġcloser": 5050,
      "cks": 5051,
      "Ġfamiliar": 5052,
      "Ġmit": 5053,
      "Ġwilling": 5054,
      "agon": 5055,
      "Ġwriter": 5056,
      "Ø§ÙĦ": 5057,
      "Ġgoals": 5058,
      "Ġleague": 5059,
      "Ġstrange": 5060,
      "Ġarchitect": 5061,
      "Ġguys": 5062,
      "arian": 5063,
      "Ġanaly": 5064,
      "Ġdegree": 5065,
      "Ġcompared": 5066,
      "fin": 5067,
      "cles": 5068,
      "aval": 5069,
      "Ġresponsible": 5070,
      "Ġtim": 5071,
      "Ġdoctor": 5072,
      "IV": 5073,
      "Ġpointed": 5074,
      "Ġwealth": 5075,
      "ĠTy": 5076,
      "Ġintroduced": 5077,
      "Ġneck": 5078,
      "Ġá¼": 5079,
      "ĠCentral": 5080,
      "Ġprojects": 5081,
      "Ġwhis": 5082,
      "ela": 5083,
      "jo": 5084,
      "Ġhorse": 5085,
      "ashion": 5086,
      "ĠJewish": 5087,
      "Ġbelief": 5088,
      "Ġrose": 5089,
      "Ġrepeated": 5090,
      "ĠMur": 5091,
      "Ĥ¬": 5092,
      "ategy": 5093,
      "Ġspring": 5094,
      "Ġallows": 5095,
      "Just": 5096,
      "Ġrain": 5097,
      "Ø±": 5098,
      "Ġmine": 5099,
      "Ġshook": 5100,
      "ira": 5101,
      "ĠRom": 5102,
      "Ġdecades": 5103,
      "Des": 5104,
      "Ġstick": 5105,
      "Ġpp": 5106,
      "Ġseg": 5107,
      "Ġton": 5108,
      "Ġcircum": 5109,
      "Ð°Ð»": 5110,
      "Ġparties": 5111,
      "FL": 5112,
      "Ġmal": 5113,
      "iest": 5114,
      "ĠOld": 5115,
      "acity": 5116,
      "Ġtrip": 5117,
      "64": 5118,
      "ĠMill": 5119,
      "Ġbrand": 5120,
      "owing": 5121,
      "Ġhurt": 5122,
      "oti": 5123,
      "Ġchallenge": 5124,
      "Ġpoet": 5125,
      "ooth": 5126,
      "gypt": 5127,
      "uous": 5128,
      "Ġweapons": 5129,
      "Ġhighest": 5130,
      "Of": 5131,
      "Ã§Ã£o": 5132,
      "Ġchem": 5133,
      "Ġcontext": 5134,
      "Ġaudience": 5135,
      "Ġmentioned": 5136,
      "Ġconsequ": 5137,
      "stood": 5138,
      "Ġwalking": 5139,
      "Ġintelligence": 5140,
      "Ġoverall": 5141,
      "Ġrough": 5142,
      "ĠRem": 5143,
      "Ġbiggest": 5144,
      "Ġwitness": 5145,
      "isation": 5146,
      "Ġtroops": 5147,
      "icted": 5148,
      "ĠVol": 5149,
      "Ð¾Ð¼": 5150,
      "ĠOnce": 5151,
      "Ġjudge": 5152,
      "och": 5153,
      "icy": 5154,
      "iel": 5155,
      "Ġsad": 5156,
      "Ġshape": 5157,
      "izes": 5158,
      "Ġpicked": 5159,
      "Ġrow": 5160,
      "onents": 5161,
      "Ġsmiled": 5162,
      "ĠGood": 5163,
      "ocol": 5164,
      "Ġlaunch": 5165,
      "Ġsolid": 5166,
      "iro": 5167,
      "rible": 5168,
      "Ġsell": 5169,
      "icken": 5170,
      "Ġturning": 5171,
      "ifying": 5172,
      "ados": 5173,
      "Ġpair": 5174,
      "Ġappre": 5175,
      "ounded": 5176,
      "which": 5177,
      "Ġcontem": 5178,
      "Ġbroke": 5179,
      "Ġcultural": 5180,
      "Ġviews": 5181,
      "Ġgro": 5182,
      "Ġshad": 5183,
      "Ġterrit": 5184,
      "Ġcolon": 5185,
      "ÑĨ": 5186,
      "Ġvoc": 5187,
      "Ġoption": 5188,
      "Ġconference": 5189,
      "Ġdiss": 5190,
      "Ġcreating": 5191,
      "Ġrecorded": 5192,
      "Ġagree": 5193,
      "Ġmaintain": 5194,
      "odes": 5195,
      "Ġwarn": 5196,
      "Ġid": 5197,
      "ĠIraq": 5198,
      "Ġdas": 5199,
      "ĠItalian": 5200,
      "can": 5201,
      "Ġsmaller": 5202,
      "Ġthoughts": 5203,
      "Ġplease": 5204,
      "tained": 5205,
      "ĠBig": 5206,
      "erous": 5207,
      "Ġjour": 5208,
      "Ġcra": 5209,
      "Ġspect": 5210,
      "Ġconcent": 5211,
      "igen": 5212,
      "31": 5213,
      "Ġprepared": 5214,
      "ĠOut": 5215,
      "ancing": 5216,
      "Ġpil": 5217,
      "Ġanimal": 5218,
      "Ġworry": 5219,
      "Ġcontinues": 5220,
      "ĠCarl": 5221,
      "Ġlegs": 5222,
      "Ġgent": 5223,
      "Ġprograms": 5224,
      "inent": 5225,
      "Ġnarrow": 5226,
      "Ġattend": 5227,
      "Ġreform": 5228,
      "ĠMcC": 5229,
      "Ġchest": 5230,
      "ĠOl": 5231,
      "ĠDie": 5232,
      "ima": 5233,
      "Ġcrew": 5234,
      "Ġsin": 5235,
      "May": 5236,
      "rog": 5237,
      "ĠMartin": 5238,
      "Ġpatients": 5239,
      "Ġreflect": 5240,
      "ĠJesus": 5241,
      "ĠSociety": 5242,
      "ĠWind": 5243,
      "estival": 5244,
      "Ġafternoon": 5245,
      "verse": 5246,
      "Ġrecords": 5247,
      "Ġchapter": 5248,
      "Ġrevealed": 5249,
      "ĠCommission": 5250,
      "ye": 5251,
      "rd": 5252,
      "ÙĨ": 5253,
      "Ġimpossible": 5254,
      "Ġapplication": 5255,
      "Ġagreement": 5256,
      "Ġmort": 5257,
      "onent": 5258,
      "Ġelements": 5259,
      "Ġsmart": 5260,
      "ctors": 5261,
      "ĠChampionship": 5262,
      "Ġbackground": 5263,
      "Ġrub": 5264,
      "La": 5265,
      "ucky": 5266,
      "Ġremaining": 5267,
      "ĠFe": 5268,
      "ĠSol": 5269,
      "å¤": 5270,
      "Ġremoved": 5271,
      "osite": 5272,
      "icket": 5273,
      "net": 5274,
      "estic": 5275,
      "Ġvariety": 5276,
      "ĠWall": 5277,
      "lymp": 5278,
      "Ġ45": 5279,
      "Ġreject": 5280,
      "Ġinstance": 5281,
      "ĠSing": 5282,
      "Ġartist": 5283,
      "NA": 5284,
      "Ġsetting": 5285,
      "ĠUp": 5286,
      "Ġcommercial": 5287,
      "47": 5288,
      "ĠProf": 5289,
      "Ġinitial": 5290,
      "west": 5291,
      "Ġprotest": 5292,
      "Ġfourth": 5293,
      "Ġhab": 5294,
      "term": 5295,
      "uan": 5296,
      "Ġboys": 5297,
      "ĠJohnson": 5298,
      "ĠSoviet": 5299,
      "Ġà¤": 5300,
      "Ġ1980": 5301,
      "Ġeffective": 5302,
      "Ġkeeping": 5303,
      "ĠDemocrats": 5304,
      "oves": 5305,
      "wide": 5306,
      "war": 5307,
      "Ġconcerned": 5308,
      "Ġargument": 5309,
      "real": 5310,
      "ache": 5311,
      "Ġthin": 5312,
      "Ġtradition": 5313,
      "orial": 5314,
      "Ġfellow": 5315,
      "Ġnarr": 5316,
      "ä»": 5317,
      "Ð¾Ð»": 5318,
      "ĠCanadian": 5319,
      "bridge": 5320,
      "EM": 5321,
      "ĠInc": 5322,
      "ĠAtl": 5323,
      "Ġempty": 5324,
      "Ġvictory": 5325,
      "ternal": 5326,
      "ĠDen": 5327,
      "respond": 5328,
      "Ġelectric": 5329,
      "Ġvision": 5330,
      "ĠHealth": 5331,
      "coin": 5332,
      "ĠVictor": 5333,
      "Ġsuc": 5334,
      "Ġrat": 5335,
      "orney": 5336,
      "RA": 5337,
      "Ġris": 5338,
      "Ġdat": 5339,
      "ĠSar": 5340,
      "ĠIts": 5341,
      "itÃ©": 5342,
      "68": 5343,
      "Ġowners": 5344,
      "load": 5345,
      "Ġhappens": 5346,
      "eless": 5347,
      "Ġopinion": 5348,
      "uct": 5349,
      "ĠAustralian": 5350,
      "point": 5351,
      "sk": 5352,
      "ĠLiber": 5353,
      "Ġshout": 5354,
      "ĠBet": 5355,
      "ching": 5356,
      "ĠÂ£": 5357,
      "Ġcou": 5358,
      "Ġweb": 5359,
      "Ġcars": 5360,
      "osa": 5361,
      "Ġshowing": 5362,
      "ĠÐ½Ð°": 5363,
      "Ġpromot": 5364,
      "Ġ189": 5365,
      "Ġsoftware": 5366,
      "Ġreplied": 5367,
      "Ġcoffee": 5368,
      "49": 5369,
      "Ġconstruct": 5370,
      "Ġobserv": 5371,
      "ĠBob": 5372,
      "Ġcloud": 5373,
      "ails": 5374,
      "à¥": 5375,
      "Ġtrial": 5376,
      "Ġchalleng": 5377,
      "illed": 5378,
      "raid": 5379,
      "Ġspeaking": 5380,
      "ĠArch": 5381,
      "Ġfra": 5382,
      "Ġunivers": 5383,
      "Ġagency": 5384,
      "ãĤĬ": 5385,
      "clusion": 5386,
      "Ġeditor": 5387,
      "Ġdepart": 5388,
      "you": 5389,
      "ĠGar": 5390,
      "ĠRoyal": 5391,
      "Ġpit": 5392,
      "Ġtall": 5393,
      "iot": 5394,
      "ĠSum": 5395,
      "vant": 5396,
      "Ġentre": 5397,
      "!'": 5398,
      "Ġschol": 5399,
      "Ġalleged": 5400,
      "ulture": 5401,
      "ista": 5402,
      "ÑĢÐ¸": 5403,
      "Ġhotel": 5404,
      "Ġ2020": 5405,
      "Ġappearance": 5406,
      "âĢĿ,": 5407,
      "ÐµÑĤ": 5408,
      "ket": 5409,
      "Ġdesire": 5410,
      "alle": 5411,
      "Ġsan": 5412,
      "Ġbomb": 5413,
      "Ġcommit": 5414,
      "gel": 5415,
      "Ġfavorite": 5416,
      "Ġdangerous": 5417,
      "77": 5418,
      "ĠLake": 5419,
      "stitution": 5420,
      "ocket": 5421,
      "ĠAtt": 5422,
      "Ġordered": 5423,
      "Ġetc": 5424,
      "ĠSub": 5425,
      "Ġpropos": 5426,
      "Ġexecutive": 5427,
      "mes": 5428,
      "Ġzu": 5429,
      "Ġcustomers": 5430,
      "Here": 5431,
      "Ġoptions": 5432,
      "Ġ80": 5433,
      "Ġadvantage": 5434,
      "atically": 5435,
      "ĠHel": 5436,
      "Ġuseful": 5437,
      "isters": 5438,
      "ĠAngeles": 5439,
      "oving": 5440,
      "Chapter": 5441,
      "Ġsnow": 5442,
      "pective": 5443,
      "Ġgrab": 5444,
      "ĠEgypt": 5445,
      "Ġpushed": 5446,
      "ĠCast": 5447,
      "Ġcomo": 5448,
      "Ġdraft": 5449,
      "Ġtask": 5450,
      "Ġensure": 5451,
      "Ġum": 5452,
      "Ġcandidate": 5453,
      "Ġsequ": 5454,
      "Ġsolution": 5455,
      "actions": 5456,
      "Ġadding": 5457,
      "Ġwearing": 5458,
      "wing": 5459,
      "vention": 5460,
      "Ġdeter": 5461,
      "Go": 5462,
      "Ġbuildings": 5463,
      "ĠSpr": 5464,
      "Ġexchange": 5465,
      "Ġsquare": 5466,
      "Ġpush": 5467,
      "Ġpoll": 5468,
      "Ġappropri": 5469,
      "Ġcompetition": 5470,
      "Ġpod": 5471,
      "ĠSocial": 5472,
      "ĠInstead": 5473,
      "Ġodd": 5474,
      "ishes": 5475,
      "ĠCharl": 5476,
      "Ġdinner": 5477,
      "bar": 5478,
      "Ġoccasion": 5479,
      "ĠLife": 5480,
      "Ġdebate": 5481,
      "roll": 5482,
      "Ġincident": 5483,
      "ighter": 5484,
      "ĠFlorida": 5485,
      "Ġbudget": 5486,
      "Ġille": 5487,
      "Ġmedium": 5488,
      "ige": 5489,
      "Ġlimit": 5490,
      "Ġsurprise": 5491,
      "alls": 5492,
      "Ġring": 5493,
      "ĠRad": 5494,
      "66": 5495,
      "Ġimagine": 5496,
      "iano": 5497,
      "Or": 5498,
      "friend": 5499,
      "ĠUnder": 5500,
      "ĠMexico": 5501,
      "Ġauthority": 5502,
      "Ġ(@": 5503,
      "Ġunit": 5504,
      "Am": 5505,
      "Ġsmell": 5506,
      "Ġkiss": 5507,
      "ĠIl": 5508,
      "Ġelected": 5509,
      "Ġveget": 5510,
      "ĠIre": 5511,
      "Ġtrail": 5512,
      "Ġcompleted": 5513,
      "Ġtwe": 5514,
      "Ġbodies": 5515,
      "istor": 5516,
      "Ġcomments": 5517,
      "Ab": 5518,
      "ĠWal": 5519,
      "Ġstated": 5520,
      "Ġtruly": 5521,
      "ãĤ¹": 5522,
      "under": 5523,
      "ronic": 5524,
      "ĠTim": 5525,
      "ulate": 5526,
      "å®": 5527,
      "fast": 5528,
      "IG": 5529,
      "Ġtells": 5530,
      "ĠIN": 5531,
      "azing": 5532,
      "ĠOlymp": 5533,
      "Ġmeat": 5534,
      "pet": 5535,
      "Her": 5536,
      "Ġou": 5537,
      "ĠOF": 5538,
      "ĠAng": 5539,
      "ĠBank": 5540,
      "ĠLab": 5541,
      "ĠMass": 5542,
      "ĠVe": 5543,
      "Ġfinding": 5544,
      "Ġotherwise": 5545,
      "Ġputting": 5546,
      "uated": 5547,
      "Ġoperation": 5548,
      "Ġequip": 5549,
      "Ġentr": 5550,
      "ĠWho": 5551,
      "Ġexperiment": 5552,
      "iner": 5553,
      "Ġpartners": 5554,
      "ÑĪ": 5555,
      "ĠMen": 5556,
      "Ġtwice": 5557,
      "Ġpresented": 5558,
      "PS": 5559,
      "ogue": 5560,
      "Ġplays": 5561,
      "ĠYes": 5562,
      "ĠOffice": 5563,
      "Ġstrategy": 5564,
      "Ġscore": 5565,
      "Ã´": 5566,
      "Ġleadership": 5567,
      "rier": 5568,
      "ĠDef": 5569,
      "ĠLee": 5570,
      "ãĥ¼ãĥ": 5571,
      "Ġauthorities": 5572,
      "Ġepisode": 5573,
      "Ġpictures": 5574,
      "Ġrapid": 5575,
      "ÃŁ": 5576,
      "cean": 5577,
      "Ġmissing": 5578,
      "ĠMem": 5579,
      "ali": 5580,
      "ĠJeff": 5581,
      "Ġble": 5582,
      "Ġmax": 5583,
      "Ġunlike": 5584,
      "Ġstreets": 5585,
      "Im": 5586,
      "urd": 5587,
      "These": 5588,
      "mann": 5589,
      "ĠTre": 5590,
      "ĠSecond": 5591,
      "ko": 5592,
      "ĠGreek": 5593,
      "ĠLo": 5594,
      "Ġabandon": 5595,
      "Get": 5596,
      "Ġlaunched": 5597,
      "onom": 5598,
      "Ind": 5599,
      "Qu": 5600,
      "Ġconnection": 5601,
      "ĠClub": 5602,
      "kes": 5603,
      "ĠSpanish": 5604,
      "Ġsick": 5605,
      "Ġneither": 5606,
      "Ġjustice": 5607,
      "ba": 5608,
      "Ġsounds": 5609,
      "Ġunderstood": 5610,
      "Ġtout": 5611,
      "Ġforget": 5612,
      "ĠHistory": 5613,
      "Ġeasier": 5614,
      "ĠFound": 5615,
      "uate": 5616,
      "Ġcells": 5617,
      "oured": 5618,
      "ĠÃ©t": 5619,
      "Ġcriminal": 5620,
      "imal": 5621,
      "ĠYet": 5622,
      "Ġwinter": 5623,
      "According": 5624,
      "500": 5625,
      "Ġpure": 5626,
      "Ġmoral": 5627,
      "phas": 5628,
      "ban": 5629,
      "Ġnuclear": 5630,
      "Ġinstruct": 5631,
      "Ġdefend": 5632,
      "Ġbenefits": 5633,
      "Ġtele": 5634,
      "ĠEst": 5635,
      "Ġacad": 5636,
      "ãĢĮ": 5637,
      "Ġcompar": 5638,
      "ãĢį": 5639,
      "ĠEU": 5640,
      "Ġidentity": 5641,
      "road": 5642,
      "Ġcommunities": 5643,
      "Ġpra": 5644,
      "roat": 5645,
      "Ġdepartment": 5646,
      "box": 5647,
      "ĠDivision": 5648,
      "Ġfigures": 5649,
      "Ġroute": 5650,
      "ĠSup": 5651,
      "á¿": 5652,
      "met": 5653,
      "IM": 5654,
      "arters": 5655,
      "rip": 5656,
      "Ġ188": 5657,
      "Ġsongs": 5658,
      "Ġnegative": 5659,
      "Ġdevice": 5660,
      "Ġvast": 5661,
      "osc": 5662,
      "Ġdigital": 5663,
      "Ġseconds": 5664,
      "Te": 5665,
      "astern": 5666,
      "Ġproposed": 5667,
      "Ġhung": 5668,
      "Ġmetal": 5669,
      "ĠFil": 5670,
      "Ġhearing": 5671,
      "writ": 5672,
      "Ġflo": 5673,
      "Ġintended": 5674,
      "åħ": 5675,
      "Ġremark": 5676,
      "Ġconclud": 5677,
      "Ġyouth": 5678,
      "Ġletters": 5679,
      "pecial": 5680,
      "CC": 5681,
      "Ġ1970": 5682,
      "Ġdepend": 5683,
      "ãģ¦ãģĦ": 5684,
      "Ġdriver": 5685,
      "==": 5686,
      "Ġalign": 5687,
      "Ġmassive": 5688,
      "Ġcommission": 5689,
      "Ùħ": 5690,
      "Ġsilence": 5691,
      "Ġconcerns": 5692,
      "aret": 5693,
      "ĠHol": 5694,
      "uten": 5695,
      "Ġobvious": 5696,
      "Ġalive": 5697,
      "oston": 5698,
      "ĠSqu": 5699,
      "Ġ90": 5700,
      "ĠMaybe": 5701,
      "ĠAcad": 5702,
      "Ġstrateg": 5703,
      "cel": 5704,
      "rick": 5705,
      "Ġ1999": 5706,
      "Ġturns": 5707,
      "Ġcentre": 5708,
      "Ġrestrict": 5709,
      "Ġperformed": 5710,
      "ĠBern": 5711,
      "lyn": 5712,
      "ĠâĢ¢": 5713,
      "Ġconfirmed": 5714,
      "abeth": 5715,
      "Ġflight": 5716,
      "---|": 5717,
      "Ġrevolution": 5718,
      "ĠPlay": 5719,
      "ĠMuseum": 5720,
      "Ġ70": 5721,
      "Ġelement": 5722,
      "Ġmental": 5723,
      "host": 5724,
      "EO": 5725,
      "vin": 5726,
      "Ġpartner": 5727,
      "Ġave": 5728,
      "Ġru": 5729,
      "Ġdriving": 5730,
      "Ġhistorical": 5731,
      "ĠPo": 5732,
      "âĢĶâĢĶ": 5733,
      "Ġdial": 5734,
      "åı": 5735,
      "ĠRel": 5736,
      "acked": 5737,
      "overy": 5738,
      "Ġcart": 5739,
      "Ġstars": 5740,
      "ĠPublic": 5741,
      "Ġdollars": 5742,
      "Ġfalse": 5743,
      "Ġadvert": 5744,
      "urban": 5745,
      "ĠJon": 5746,
      "riff": 5747,
      "ĠOnly": 5748,
      "ho": 5749,
      "Ġconnect": 5750,
      "Ġplanning": 5751,
      "ĠEv": 5752,
      "igan": 5753,
      "Ġmel": 5754,
      "aron": 5755,
      "\":": 5756,
      "Ġflag": 5757,
      "iser": 5758,
      "ĠJournal": 5759,
      "ĠMike": 5760,
      "ĠGra": 5761,
      "El": 5762,
      "Ġafraid": 5763,
      "Sp": 5764,
      "ĠLeg": 5765,
      "ĠTime": 5766,
      "Ġog": 5767,
      "lies": 5768,
      "mo": 5769,
      "lets": 5770,
      "Ġdetermined": 5771,
      "Ġsubsequ": 5772,
      "class": 5773,
      "Ġstorm": 5774,
      "works": 5775,
      "Ġhouses": 5776,
      "Ġserving": 5777,
      "Ã¡n": 5778,
      "ĠService": 5779,
      "Ġnoticed": 5780,
      "Ġspr": 5781,
      "Ġreligion": 5782,
      "John": 5783,
      "Ġsupported": 5784,
      "ĠPolice": 5785,
      "ĠTown": 5786,
      "Ġextremely": 5787,
      "ĠVirginia": 5788,
      "Ð¾Ð´": 5789,
      "oir": 5790,
      "çĶ": 5791,
      "Ġrates": 5792,
      "essed": 5793,
      "Ġmad": 5794,
      "Äĩ": 5795,
      "Ġnu": 5796,
      "Ġmicro": 5797,
      "Ð¶": 5798,
      "Ġskills": 5799,
      "ĠJones": 5800,
      "Ġlips": 5801,
      "ĠJustice": 5802,
      "Ġsorry": 5803,
      "aniel": 5804,
      "Ġfant": 5805,
      "Ġquant": 5806,
      "Ġcamera": 5807,
      "oral": 5808,
      "aven": 5809,
      "ĠWood": 5810,
      "Ġ?": 5811,
      "Ġinterpret": 5812,
      "Ġfold": 5813,
      "Ġnegoti": 5814,
      "Ġwinning": 5815,
      "ĠKh": 5816,
      "46": 5817,
      "Ġtiny": 5818,
      "Ġclothes": 5819,
      "Ġfan": 5820,
      "Ġshop": 5821,
      "Ġopposition": 5822,
      "Ġexistence": 5823,
      "ĠLong": 5824,
      "azz": 5825,
      "ĠSomet": 5826,
      "oked": 5827,
      "Ġweren": 5828,
      "Ġhousehold": 5829,
      "Ġiniti": 5830,
      "iger": 5831,
      "Can": 5832,
      "Â½": 5833,
      "Ġbought": 5834,
      "Ġbutter": 5835,
      "Ġhundreds": 5836,
      "Ġtaste": 5837,
      "ĠLand": 5838,
      "Ġsupply": 5839,
      "rad": 5840,
      "ĠChapter": 5841,
      "Ġbenefit": 5842,
      "ellect": 5843,
      "Pe": 5844,
      "Ġcontrast": 5845,
      "Ġunits": 5846,
      "ĠBest": 5847,
      "ikes": 5848,
      "Ġspending": 5849,
      "Ġshooting": 5850,
      "ĠÐ¼": 5851,
      "Ġemployees": 5852,
      "onna": 5853,
      "inte": 5854,
      "ĠÏĢ": 5855,
      "iana": 5856,
      "Ġdirected": 5857,
      "ÏĮ": 5858,
      "ef": 5859,
      "Ġoriginally": 5860,
      "ĠResearch": 5861,
      "ĠBoth": 5862,
      "Ġbat": 5863,
      "Ġvoters": 5864,
      "Ġtraffic": 5865,
      "Ġfilms": 5866,
      "Ġspokes": 5867,
      "ĠSpe": 5868,
      "Ġrefused": 5869,
      "].": 5870,
      "OD": 5871,
      "ortunately": 5872,
      "phone": 5873,
      "atre": 5874,
      "Ġworst": 5875,
      "Ġrooms": 5876,
      "ĠItaly": 5877,
      "aba": 5878,
      "ĠGovernment": 5879,
      "Ġsites": 5880,
      "igg": 5881,
      "unction": 5882,
      "Ġresidents": 5883,
      "OW": 5884,
      "aph": 5885,
      "Ġsust": 5886,
      "anche": 5887,
      "ican": 5888,
      "Ġmanner": 5889,
      "ĠAny": 5890,
      "iat": 5891,
      "ĠÑĤ": 5892,
      "sembly": 5893,
      "Ġdyn": 5894,
      "Ġexhib": 5895,
      "Ġplanned": 5896,
      "Ġselect": 5897,
      "Ġannual": 5898,
      "Ã¨s": 5899,
      "Ġemerg": 5900,
      "ĠRock": 5901,
      "Ġaccur": 5902,
      "Ġpatient": 5903,
      "Ġgeneration": 5904,
      "utch": 5905,
      "Ġtools": 5906,
      "Ø§Ø": 5907,
      "Ġinterests": 5908,
      "Ġprotection": 5909,
      "Ġiron": 5910,
      "Ġboat": 5911,
      "Ġitems": 5912,
      "Ġacknow": 5913,
      "ĠGal": 5914,
      "Ġaside": 5915,
      "Ġrent": 5916,
      "Ġconduct": 5917,
      "eline": 5918,
      "Ġho": 5919,
      "Ġlisten": 5920,
      "Ġcore": 5921,
      "anz": 5922,
      "upp": 5923,
      "coming": 5924,
      "Ġcorrespond": 5925,
      "American": 5926,
      "andom": 5927,
      "omin": 5928,
      "Ġplants": 5929,
      "79": 5930,
      "Ġdiscussion": 5931,
      "Ð¾Ð³": 5932,
      "Ġcancer": 5933,
      "ĠAP": 5934,
      "Ġassault": 5935,
      "Ġreduce": 5936,
      "bb": 5937,
      "place": 5938,
      "Ġinstr": 5939,
      "Ġpresidential": 5940,
      "BA": 5941,
      "Ġsam": 5942,
      "ĠJoseph": 5943,
      "Ġstepped": 5944,
      "ensus": 5945,
      "Ġproceed": 5946,
      "Ste": 5947,
      "Ġpossibly": 5948,
      "?âĢĿ": 5949,
      "iders": 5950,
      "ĠCat": 5951,
      "Ġinvestment": 5952,
      "BS": 5953,
      "ĠApple": 5954,
      "Ġsurprised": 5955,
      "76": 5956,
      "Ġscale": 5957,
      "Ġmotion": 5958,
      "Ġreplaced": 5959,
      "Ġlargely": 5960,
      "ader": 5961,
      "Ġbowl": 5962,
      "Ġopposite": 5963,
      "Ġweather": 5964,
      "Ġappreci": 5965,
      "illy": 5966,
      "Ġbeside": 5967,
      "amin": 5968,
      "essor": 5969,
      "unicip": 5970,
      "Ġarrested": 5971,
      "uz": 5972,
      "wers": 5973,
      "Ġfounded": 5974,
      "Ġhabit": 5975,
      "Ġscream": 5976,
      "Ġcolumn": 5977,
      "Ġhid": 5978,
      "áº": 5979,
      "Ġsouthern": 5980,
      "Ġidentified": 5981,
      "Ġfocused": 5982,
      "ĠÃ®": 5983,
      "Ġknowing": 5984,
      "Ġstrike": 5985,
      "Ġnearby": 5986,
      "Ġthirty": 5987,
      "Ġpolicies": 5988,
      "opher": 5989,
      "Ġcharges": 5990,
      "ĠPenn": 5991,
      "Ġ1998": 5992,
      "Ġscientific": 5993,
      "Ġfailure": 5994,
      "Ġaccepted": 5995,
      "41": 5996,
      "ĠJac": 5997,
      "ĠST": 5998,
      "Ġliked": 5999,
      "Ġcircumst": 6000,
      "irus": 6001,
      "ĠMax": 6002,
      "standing": 6003,
      "ĠCatholic": 6004,
      "ila": 6005,
      "Ġissued": 6006,
      "Ġaccident": 6007,
      "Ġfly": 6008,
      "ĠEs": 6009,
      "Ġhol": 6010,
      "Ġsports": 6011,
      "ãĤ¤": 6012,
      "Ġbalance": 6013,
      "Ġcapacity": 6014,
      "Ġmais": 6015,
      "Ġnorthern": 6016,
      "ĠLes": 6017,
      "Ġapprox": 6018,
      "Ġthr": 6019,
      "ĠAlso": 6020,
      "eck": 6021,
      "una": 6022,
      "Ġescape": 6023,
      "oma": 6024,
      "Ġrom": 6025,
      "Ġgreatest": 6026,
      "cript": 6027,
      "Ġexisting": 6028,
      "ĠFer": 6029,
      "Ġcontains": 6030,
      "Ġfro": 6031,
      "Ġanx": 6032,
      "Ġbeneath": 6033,
      "Ġtalked": 6034,
      "Ġrestaurant": 6035,
      "Ġstir": 6036,
      "ĠAward": 6037,
      "Ġcoal": 6038,
      "Ã¦": 6039,
      "lar": 6040,
      "ĠFar": 6041,
      "Ġequal": 6042,
      "yd": 6043,
      "ipping": 6044,
      "Ġdram": 6045,
      "ĠEmp": 6046,
      "Ġcash": 6047,
      "Ġprices": 6048,
      "Ġagent": 6049,
      "Ġchart": 6050,
      "ned": 6051,
      "ĠChief": 6052,
      "ĠForce": 6053,
      "ĠHaw": 6054,
      "Ġadvance": 6055,
      "Ġsharp": 6056,
      "åĪ": 6057,
      "ĠPac": 6058,
      "Ġbear": 6059,
      "Every": 6060,
      "ultural": 6061,
      "Ġpassing": 6062,
      "Ġtransform": 6063,
      "iden": 6064,
      "Mr": 6065,
      "wered": 6066,
      "ĠBoy": 6067,
      "Per": 6068,
      "Ġteasp": 6069,
      "ĠStep": 6070,
      "inch": 6071,
      "Ġequipment": 6072,
      "Ġemphas": 6073,
      "Ġexcell": 6074,
      "ĠScience": 6075,
      "Ð½Ð¾": 6076,
      "Ġhumans": 6077,
      "Ġfeels": 6078,
      "outs": 6079,
      "ĠLove": 6080,
      "run": 6081,
      "lete": 6082,
      "Ġlatter": 6083,
      "Ġunless": 6084,
      "Ġvehicle": 6085,
      "itable": 6086,
      "tes": 6087,
      "Ġist": 6088,
      "ĠFre": 6089,
      "umber": 6090,
      "42": 6091,
      "http": 6092,
      "hetic": 6093,
      "Ġgest": 6094,
      "Ġlit": 6095,
      "ĠInternet": 6096,
      "hh": 6097,
      "Ġusual": 6098,
      "ĠFred": 6099,
      "ĠScot": 6100,
      "Ġconscious": 6101,
      "58": 6102,
      "ĠQueen": 6103,
      "Ġdeliver": 6104,
      "Ġstress": 6105,
      "Ġheads": 6106,
      "Ġforth": 6107,
      "ĠPak": 6108,
      "Ġsucceed": 6109,
      "Ġwithd": 6110,
      "Ġkilling": 6111,
      "43": 6112,
      "Ġseek": 6113,
      "Â«": 6114,
      "Ġgather": 6115,
      "Ġmethods": 6116,
      "Ġbridge": 6117,
      "IP": 6118,
      "Ġtermin": 6119,
      "Ġpaint": 6120,
      "ĠDan": 6121,
      "Ġgarden": 6122,
      "CA": 6123,
      "Ġmagn": 6124,
      "arks": 6125,
      "osure": 6126,
      "Ġgain": 6127,
      "ĠHot": 6128,
      "Ġphoto": 6129,
      "Ġmilk": 6130,
      "59": 6131,
      "ompl": 6132,
      "ĠIreland": 6133,
      "Who": 6134,
      "Ð°ÑĤ": 6135,
      "ĠÎº": 6136,
      "Ġrequires": 6137,
      "Ġast": 6138,
      "Ġmagic": 6139,
      "Ġraise": 6140,
      "ĠAv": 6141,
      "ums": 6142,
      "icking": 6143,
      "Ġ\\": 6144,
      "een": 6145,
      "Ġadvoc": 6146,
      "Ġjourney": 6147,
      "Ġowner": 6148,
      "Ġfaces": 6149,
      "nic": 6150,
      "Ġauf": 6151,
      "Ġaccomp": 6152,
      "Ġyellow": 6153,
      "ĠKenn": 6154,
      "ĠMiddle": 6155,
      "ĠWomen": 6156,
      "iform": 6157,
      "itors": 6158,
      "nel": 6159,
      "ä½": 6160,
      "Ġaircraft": 6161,
      "69": 6162,
      "going": 6163,
      "imp": 6164,
      "Ġpossibility": 6165,
      "ĠBus": 6166,
      "nell": 6167,
      "Ġshif": 6168,
      "Ġhonest": 6169,
      "Ġbatt": 6170,
      "Ġrelatively": 6171,
      "Ġsigns": 6172,
      "Ġflav": 6173,
      "Ġprosec": 6174,
      "Ġmas": 6175,
      "ĠFrancisco": 6176,
      "icine": 6177,
      "SA": 6178,
      "Ġaccused": 6179,
      "ĠUk": 6180,
      "cia": 6181,
      "uy": 6182,
      "acle": 6183,
      "ĠTem": 6184,
      "ĠÐ±": 6185,
      "ĠEll": 6186,
      "Ġfinish": 6187,
      "Ġconsult": 6188,
      "Ġobjects": 6189,
      "ĠFort": 6190,
      "uration": 6191,
      "...\"": 6192,
      "ĠTechn": 6193,
      "izabeth": 6194,
      "Ġnumerous": 6195,
      "Ġinstall": 6196,
      "Ġ32": 6197,
      "Ġproviding": 6198,
      "ĠÐ·": 6199,
      "Ġhyp": 6200,
      "Ġfollows": 6201,
      "Ġcarefully": 6202,
      "Ġimper": 6203,
      "ĠKorea": 6204,
      "Ġol": 6205,
      "Ġmodels": 6206,
      "onto": 6207,
      "Ġfuel": 6208,
      "Ġbread": 6209,
      "ĠCur": 6210,
      "Ġrank": 6211,
      "ansion": 6212,
      "ĠMusic": 6213,
      "oking": 6214,
      "Ġyounger": 6215,
      "Ġweekend": 6216,
      "Ġmerely": 6217,
      "Ġrot": 6218,
      "Fr": 6219,
      "ivered": 6220,
      "Ġoccurred": 6221,
      "Ġapparently": 6222,
      "Ġmountain": 6223,
      "Ġdecide": 6224,
      "water": 6225,
      "Ġ1960": 6226,
      "Ġtool": 6227,
      "Where": 6228,
      "Â°": 6229,
      "Î¬": 6230,
      "ÐµÑĢ": 6231,
      "Ġlies": 6232,
      "Ġthanks": 6233,
      "equ": 6234,
      "Ġtor": 6235,
      "Ġhandle": 6236,
      "Ïī": 6237,
      "inem": 6238,
      "Ġafford": 6239,
      "ĠGeorg": 6240,
      "Ġliqu": 6241,
      "CT": 6242,
      "Ġregist": 6243,
      "Ġends": 6244,
      "rich": 6245,
      "eping": 6246,
      "oom": 6247,
      "Ġvul": 6248,
      "Ġ38": 6249,
      "Ġmatters": 6250,
      "ĠRepublicans": 6251,
      "Ġorders": 6252,
      "Ġunion": 6253,
      "icon": 6254,
      "Ġsie": 6255,
      "enses": 6256,
      "century": 6257,
      "ãģķ": 6258,
      "Ġincred": 6259,
      "Ġsomewhere": 6260,
      "Ġunable": 6261,
      "Ġpages": 6262,
      "Ġhomes": 6263,
      "Ġdeclared": 6264,
      "zil": 6265,
      "Ġfundament": 6266,
      "Ġdivision": 6267,
      "oi": 6268,
      "Ġhonor": 6269,
      "ĠOx": 6270,
      "Ġallowing": 6271,
      "nam": 6272,
      "ĠfÃ¶r": 6273,
      "ĠDi": 6274,
      "Ġalternative": 6275,
      "embered": 6276,
      "ÐµÐ»": 6277,
      "Ġperman": 6278,
      "Ġuniversity": 6279,
      "ÑģÐº": 6280,
      "ĠBoston": 6281,
      "law": 6282,
      "ĠGen": 6283,
      "Ġstruck": 6284,
      "Ġinternal": 6285,
      "67": 6286,
      "Ġ(\"": 6287,
      "aire": 6288,
      "Ġcream": 6289,
      "pes": 6290,
      "Ġvent": 6291,
      "Ġessential": 6292,
      "ao": 6293,
      "Ġcommitted": 6294,
      "ĠØ§ÙĦ": 6295,
      "Ġlaid": 6296,
      "ĠChristmas": 6297,
      "Ġfunding": 6298,
      "Ġresponsibility": 6299,
      "Ġbath": 6300,
      "ĠWork": 6301,
      "Ġdocuments": 6302,
      "Ġreference": 6303,
      "Ġwid": 6304,
      "asts": 6305,
      "Ġgrass": 6306,
      "Ġfashion": 6307,
      "Ġcontrovers": 6308,
      "ĠUN": 6309,
      "ĠBas": 6310,
      "Ġalt": 6311,
      "Ġwed": 6312,
      "Ġsmooth": 6313,
      "Ġincor": 6314,
      "Ġlosing": 6315,
      "Ġ1997": 6316,
      "usal": 6317,
      "iences": 6318,
      "Ġmagazine": 6319,
      "UR": 6320,
      "Ġ1996": 6321,
      "Ġbringing": 6322,
      "Ġresearchers": 6323,
      "Ġexperienced": 6324,
      "life": 6325,
      "ishop": 6326,
      "pa": 6327,
      "apping": 6328,
      "bal": 6329,
      "Ġourselves": 6330,
      "ĠWhere": 6331,
      "ĠSupreme": 6332,
      "Ġlisted": 6333,
      "Ġdistinct": 6334,
      "Ð¸ÑĤ": 6335,
      "Ġpow": 6336,
      "ench": 6337,
      "Ġbegins": 6338,
      "idad": 6339,
      "Ġships": 6340,
      "ureau": 6341,
      "Ġ>": 6342,
      "UT": 6343,
      "Ġdecisions": 6344,
      "ĠKn": 6345,
      "Ġrare": 6346,
      "olved": 6347,
      "rency": 6348,
      "worth": 6349,
      "Ã©r": 6350,
      "Ġimportance": 6351,
      "Ġfruit": 6352,
      "Our": 6353,
      "Ġinsp": 6354,
      "Ġride": 6355,
      "ĠClass": 6356,
      "Ġchanging": 6357,
      "gent": 6358,
      "ns": 6359,
      "otic": 6360,
      "Ġremove": 6361,
      "Ġsilver": 6362,
      "ograp": 6363,
      "ĠSecurity": 6364,
      "Ġcharged": 6365,
      "cr": 6366,
      "Ġwear": 6367,
      "Ġanyway": 6368,
      "Ġelim": 6369,
      "onym": 6370,
      "arry": 6371,
      "ection": 6372,
      "Ġprime": 6373,
      "pass": 6374,
      "ĠJean": 6375,
      "lder": 6376,
      "Ġconnected": 6377,
      "Ġfinger": 6378,
      "agues": 6379,
      "Ġintellect": 6380,
      "Ġdrew": 6381,
      "ĠJews": 6382,
      "aux": 6383,
      "Ð½Ñĭ": 6384,
      "ĠAndrew": 6385,
      "elf": 6386,
      "cha": 6387,
      "Ġloud": 6388,
      "Ġelections": 6389,
      "Ġdrawn": 6390,
      "hus": 6391,
      "Ġsecure": 6392,
      "Ġproced": 6393,
      "ĠRome": 6394,
      "Ġgrown": 6395,
      "ĠRam": 6396,
      "icate": 6397,
      "ĠIrish": 6398,
      "Ġnewspaper": 6399,
      "Ġupper": 6400,
      "orse": 6401,
      "Ġhate": 6402,
      "Ġstarts": 6403,
      "Ġcards": 6404,
      "ĠSecretary": 6405,
      "Ġapply": 6406,
      "Ġmoments": 6407,
      "Ġnerv": 6408,
      "Ġappointed": 6409,
      "Ġdecade": 6410,
      "Ġjoint": 6411,
      "Ġhelping": 6412,
      "Ġcommittee": 6413,
      "Ġmillions": 6414,
      "ĠValley": 6415,
      "uster": 6416,
      "IR": 6417,
      "Ġhappening": 6418,
      "ere": 6419,
      "Ġlaughed": 6420,
      "ĠMic": 6421,
      "amber": 6422,
      "Ġblog": 6423,
      "Ġbell": 6424,
      "Ġfuck": 6425,
      "igrants": 6426,
      "Ġprove": 6427,
      "Ġstared": 6428,
      "ĠEach": 6429,
      "color": 6430,
      "icide": 6431,
      "Ġscript": 6432,
      "Ġeating": 6433,
      "Ġdevices": 6434,
      "Ġthank": 6435,
      "ologies": 6436,
      "Ġorganizations": 6437,
      "],": 6438,
      "Ġhan": 6439,
      "athan": 6440,
      "issions": 6441,
      "Ġartists": 6442,
      "Ġaccompl": 6443,
      "Ġprofessor": 6444,
      "Ġaccounts": 6445,
      "ĠDec": 6446,
      "åĲ": 6447,
      "History": 6448,
      "Ġvictims": 6449,
      "Ġlock": 6450,
      "ĠAnother": 6451,
      "Ġoffering": 6452,
      "izz": 6453,
      "However": 6454,
      "Ġadvice": 6455,
      "Ġincreasingly": 6456,
      "roid": 6457,
      "Ġstro": 6458,
      "Ġcrypt": 6459,
      "pan": 6460,
      "mail": 6461,
      "Ġnicht": 6462,
      "ĠThose": 6463,
      "Ġsuggests": 6464,
      "endo": 6465,
      "Ġdoors": 6466,
      "enger": 6467,
      "Ġremembered": 6468,
      "Ġexpert": 6469,
      "Ġadjust": 6470,
      "Ġ1994": 6471,
      "Ġrepresented": 6472,
      "PA": 6473,
      "amily": 6474,
      "Ġbatter": 6475,
      "Ġyards": 6476,
      "ĠPalest": 6477,
      "ĠAND": 6478,
      "Ġlaugh": 6479,
      "Ġalc": 6480,
      "Ġowned": 6481,
      "stone": 6482,
      "ĠÄ": 6483,
      "Ġcarrying": 6484,
      "ĠPrime": 6485,
      "Ġhardly": 6486,
      "ĠBell": 6487,
      "Î¿Ïħ": 6488,
      "aland": 6489,
      "uv": 6490,
      "Ġplanet": 6491,
      "Ġwave": 6492,
      "Ġcollabor": 6493,
      "Ġmeasures": 6494,
      "Ġstead": 6495,
      "Ġsauce": 6496,
      "ducation": 6497,
      "Gr": 6498,
      "ped": 6499,
      "CE": 6500,
      "Ġrecommend": 6501,
      "Ġcro": 6502,
      "ĠYoung": 6503,
      "Ġtaught": 6504,
      "ĠJackson": 6505,
      "Ġreduced": 6506,
      "Ġbeer": 6507,
      "Ġrum": 6508,
      "Ġstands": 6509,
      "Ġtesting": 6510,
      "ĠChris": 6511,
      "sen": 6512,
      "ĠVan": 6513,
      "pered": 6514,
      "Ġbon": 6515,
      "claim": 6516,
      "otten": 6517,
      "Ġbond": 6518,
      "Ġrecognized": 6519,
      "ructure": 6520,
      "ĠIll": 6521,
      "Ġstruggle": 6522,
      "Ġfunds": 6523,
      "long": 6524,
      "Ġcreation": 6525,
      "Ġsought": 6526,
      "ĠHa": 6527,
      "Ġpromise": 6528,
      "ĠHarr": 6529,
      "Ġexercise": 6530,
      "Ġ1995": 6531,
      "ĠStan": 6532,
      "idel": 6533,
      "Ġshock": 6534,
      "Ġnative": 6535,
      "azon": 6536,
      "Ġcalcul": 6537,
      "Ġrecon": 6538,
      "inating": 6539,
      "rees": 6540,
      "alog": 6541,
      "gers": 6542,
      "Ġcouncil": 6543,
      "ĠFox": 6544,
      "Ġdrugs": 6545,
      "Ġanswered": 6546,
      "Ġath": 6547,
      "iva": 6548,
      "Ġnose": 6549,
      "Ġdebt": 6550,
      "ĠGall": 6551,
      "Ġannounce": 6552,
      "arant": 6553,
      "ãģł": 6554,
      "Ġtourn": 6555,
      "Even": 6556,
      "Are": 6557,
      "Ġoblig": 6558,
      "Ġpositions": 6559,
      "During": 6560,
      "ĠAp": 6561,
      "Ġexpressed": 6562,
      "More": 6563,
      "Ġwindows": 6564,
      "Ġconce": 6565,
      "LA": 6566,
      "Ġaid": 6567,
      "ĠWay": 6568,
      "ÎŃ": 6569,
      "Ġreaction": 6570,
      "56": 6571,
      "ĠDar": 6572,
      "ĠYear": 6573,
      "Ġphotograph": 6574,
      "ãĥĪ": 6575,
      "Ġsav": 6576,
      "Ġpowers": 6577,
      "Ġhealthy": 6578,
      "Ġsuffered": 6579,
      "Ġlibrary": 6580,
      "Ġec": 6581,
      "Ġped": 6582,
      "Ġtemperature": 6583,
      "Ġassess": 6584,
      "ĠWilliams": 6585,
      "km": 6586,
      "MA": 6587,
      "Ġplate": 6588,
      "rate": 6589,
      "ova": 6590,
      "Ġfeelings": 6591,
      "Ġattrib": 6592,
      "Ġneighborhood": 6593,
      "uled": 6594,
      "Ġsport": 6595,
      "elve": 6596,
      "Ġextended": 6597,
      "acter": 6598,
      "Ġcombined": 6599,
      "Ġstudio": 6600,
      "orage": 6601,
      "Ġdebut": 6602,
      "Ġrend": 6603,
      "Ġblind": 6604,
      "xture": 6605,
      "Ġleads": 6606,
      "Ġ1992": 6607,
      "Ġsubs": 6608,
      "Ġapartment": 6609,
      "char": 6610,
      "ÅŁ": 6611,
      "Ġgraph": 6612,
      "Ġflow": 6613,
      "Ġprecise": 6614,
      "ĠSk": 6615,
      "Ã©d": 6616,
      "elly": 6617,
      "ãģı": 6618,
      "stream": 6619,
      "Ġhousing": 6620,
      "ĠColumb": 6621,
      "Ġchose": 6622,
      "las": 6623,
      "ĠCarolina": 6624,
      "tw": 6625,
      "Ġrealize": 6626,
      "ĠSyria": 6627,
      "orough": 6628,
      "ĠFour": 6629,
      "Ġpassion": 6630,
      "amente": 6631,
      "velopment": 6632,
      "ĠBow": 6633,
      "SP": 6634,
      "Ġ36": 6635,
      "Ġalg": 6636,
      "ĠEdward": 6637,
      "Will": 6638,
      "Ġdies": 6639,
      "esc": 6640,
      "Ġtea": 6641,
      "Ġven": 6642,
      "ĠUSA": 6643,
      "57": 6644,
      "Ġdesper": 6645,
      "adium": 6646,
      "Ġcircumstances": 6647,
      "Ġimpress": 6648,
      "Ġshel": 6649,
      "ĠPolit": 6650,
      "Ġgall": 6651,
      "Ġplenty": 6652,
      "Ġflour": 6653,
      "Ġteeth": 6654,
      "ĠIII": 6655,
      "ĠâĢ¦": 6656,
      "ml": 6657,
      "ĠPerhaps": 6658,
      "ĠProv": 6659,
      "Ġrising": 6660,
      "Ġstudied": 6661,
      "Ġdance": 6662,
      "Ġarrange": 6663,
      "Ġdefinitely": 6664,
      "cons": 6665,
      "ĠWild": 6666,
      "ĠAsia": 6667,
      "ologist": 6668,
      "ÑĢÐ¾": 6669,
      "never": 6670,
      "ĠBit": 6671,
      "ĠSystem": 6672,
      "unte": 6673,
      "Cont": 6674,
      "Ġfer": 6675,
      "Ġreferred": 6676,
      "ques": 6677,
      "ĠLady": 6678,
      "Ġrefuge": 6679,
      "Ġsilent": 6680,
      "ĠAut": 6681,
      "anny": 6682,
      "Ġsir": 6683,
      "ĠFire": 6684,
      "Ġclasses": 6685,
      "Ġproud": 6686,
      "ĠmÃ¡s": 6687,
      "inking": 6688,
      "Ġultimately": 6689,
      "Ġsole": 6690,
      "gas": 6691,
      "Ġdomestic": 6692,
      "ĠAcademy": 6693,
      "Ġapplied": 6694,
      "ĠCH": 6695,
      "bel": 6696,
      "Ġargued": 6697,
      "Ġscientists": 6698,
      "Ġlabel": 6699,
      "Ġfields": 6700,
      "Ġfacing": 6701,
      "Ġstayed": 6702,
      "Ġvs": 6703,
      "ĠChild": 6704,
      "Ġlob": 6705,
      "Ġangry": 6706,
      "Ġtil": 6707,
      "ĠDev": 6708,
      "Ġdust": 6709,
      "Ġroof": 6710,
      "Ġconvention": 6711,
      "press": 6712,
      "angers": 6713,
      "Ġfool": 6714,
      "Ġfactors": 6715,
      "ĠElizabeth": 6716,
      "gon": 6717,
      "kel": 6718,
      "ĠAri": 6719,
      "Ġchain": 6720,
      "Ġreact": 6721,
      "Ġhelps": 6722,
      "Ġdefined": 6723,
      "aved": 6724,
      "isa": 6725,
      "Ġfaced": 6726,
      "osis": 6727,
      "Ġvari": 6728,
      "acking": 6729,
      "Ġstandards": 6730,
      "Ġgentle": 6731,
      "print": 6732,
      "ulations": 6733,
      "imm": 6734,
      "ulous": 6735,
      "iplom": 6736,
      "ĠFBI": 6737,
      "Ġcandidates": 6738,
      "Ġplane": 6739,
      "Ġvolume": 6740,
      "ghan": 6741,
      "acc": 6742,
      "Ġtreated": 6743,
      "rete": 6744,
      "Ġpepper": 6745,
      "utt": 6746,
      "Ġlui": 6747,
      "Ġbusinesses": 6748,
      "Ġmotiv": 6749,
      "Ġtrend": 6750,
      "Ġexperiences": 6751,
      "Ġsets": 6752,
      "Ġpool": 6753,
      "Ġfrequently": 6754,
      "Ġboot": 6755,
      "Ġadmitted": 6756,
      "Ġrein": 6757,
      "rast": 6758,
      "Ġbarely": 6759,
      "Ġflood": 6760,
      "Ġappropriate": 6761,
      "ĠFoundation": 6762,
      "Ġdiet": 6763,
      "Ġvisual": 6764,
      "kl": 6765,
      "Ġmobile": 6766,
      "forcement": 6767,
      "Ġavec": 6768,
      "Ġsyn": 6769,
      "ĠGi": 6770,
      "Ġdetermine": 6771,
      "ĠEnd": 6772,
      "Ġbull": 6773,
      "essions": 6774,
      "ucks": 6775,
      "ĠRod": 6776,
      "Ġsurvey": 6777,
      "ÙĪ": 6778,
      "Ġadministr": 6779,
      "Ġlad": 6780,
      "Ġlying": 6781,
      "orge": 6782,
      "Ġweapon": 6783,
      "Ġdestroyed": 6784,
      "awa": 6785,
      "ĠPan": 6786,
      "aylor": 6787,
      "ĠHuman": 6788,
      "Ġelev": 6789,
      "Ġdesk": 6790,
      "Ġlights": 6791,
      "Ġfired": 6792,
      "asted": 6793,
      "Man": 6794,
      "Ġcapable": 6795,
      "Ġwaited": 6796,
      "ĠPower": 6797,
      "Ġnut": 6798,
      "ĠOpen": 6799,
      "Ġoperating": 6800,
      "72": 6801,
      "Ġseeking": 6802,
      "Ġcontest": 6803,
      "uj": 6804,
      "eenth": 6805,
      "illing": 6806,
      "ĠThree": 6807,
      "Ġdeveloping": 6808,
      "Ġexcellent": 6809,
      "Ġwidely": 6810,
      "lisher": 6811,
      "Ġpredict": 6812,
      "TH": 6813,
      "Ġfixed": 6814,
      "Ġmarked": 6815,
      "ensity": 6816,
      "Ġroll": 6817,
      "oration": 6818,
      "adel": 6819,
      "Ġheight": 6820,
      "Ġ%": 6821,
      "ĠBoard": 6822,
      "ught": 6823,
      "Ġclin": 6824,
      "Ġexplan": 6825,
      "ensions": 6826,
      "Ġfalling": 6827,
      "Ġshoulders": 6828,
      "ĠWhe": 6829,
      "Ġwondered": 6830,
      "Your": 6831,
      "Ġguns": 6832,
      "Ġresc": 6833,
      "ĠTH": 6834,
      "Ge": 6835,
      "Ġdeeply": 6836,
      "Ġillegal": 6837,
      "ĠSpace": 6838,
      "54": 6839,
      "Ġsomehow": 6840,
      "ĠDid": 6841,
      "ĠBlue": 6842,
      "ĠHarry": 6843,
      "74": 6844,
      "Ġmarkets": 6845,
      "iments": 6846,
      "Ġfought": 6847,
      "ĠPut": 6848,
      "ĠPrince": 6849,
      "Ð°Ð½": 6850,
      "ĠTO": 6851,
      "Ġchamp": 6852,
      "Ġmaterials": 6853,
      "anna": 6854,
      "AF": 6855,
      "71": 6856,
      "uting": 6857,
      "Å¡": 6858,
      "ĠSwed": 6859,
      "Ġ39": 6860,
      "Ġbroadcast": 6861,
      "Ġchosen": 6862,
      "Ġwra": 6863,
      "Ġinvolve": 6864,
      "ĠThus": 6865,
      "Ġcalm": 6866,
      "Ġduty": 6867,
      "Ã¹": 6868,
      "IF": 6869,
      "Ġmotor": 6870,
      "51": 6871,
      "Ġinnov": 6872,
      "Ġwestern": 6873,
      "Ġpray": 6874,
      "Ġevil": 6875,
      "aka": 6876,
      "Ġteen": 6877,
      "oster": 6878,
      "ãģĹãģŁ": 6879,
      "cked": 6880,
      "uns": 6881,
      "dy": 6882,
      "Ġsomewhat": 6883,
      "mosp": 6884,
      "Ġinstitutions": 6885,
      "Ġideal": 6886,
      "Ġedition": 6887,
      "Ġsmoke": 6888,
      "PR": 6889,
      "Ġdiscover": 6890,
      "Ġtone": 6891,
      "idering": 6892,
      "Ġclosely": 6893,
      "Ġconfirm": 6894,
      "Ġbanks": 6895,
      "Ġinjury": 6896,
      "53": 6897,
      "ĠÑ": 6898,
      "duct": 6899,
      "was": 6900,
      "88": 6901,
      "bu": 6902,
      "ĠVi": 6903,
      "Ġsettled": 6904,
      "Ġinqu": 6905,
      "OC": 6906,
      "52": 6907,
      "person": 6908,
      "Ġdelic": 6909,
      "essel": 6910,
      "Ġdismiss": 6911,
      "Ġobviously": 6912,
      "Ġregarding": 6913,
      "comm": 6914,
      "zer": 6915,
      "Ġabsolutely": 6916,
      "ĠFree": 6917,
      "ĠGuard": 6918,
      "Ġrelief": 6919,
      "atural": 6920,
      "Col": 6921,
      "ĠSpain": 6922,
      "Ġshift": 6923,
      "ĠSon": 6924,
      "Ġ500": 6925,
      "Ġplastic": 6926,
      "Ġexpensive": 6927,
      "prof": 6928,
      "Ġdiscussed": 6929,
      "ĠGame": 6930,
      "Ġactor": 6931,
      "Ġaggress": 6932,
      "âĢĭ": 6933,
      "Ġsich": 6934,
      "ĠAM": 6935,
      "ĠRay": 6936,
      "Ġobserved": 6937,
      "Ġworried": 6938,
      "ĠDer": 6939,
      "Ġcraft": 6940,
      "Ġsplit": 6941,
      "Ġcombat": 6942,
      "anwhile": 6943,
      "Ġsuffering": 6944,
      "Ġdrawing": 6945,
      "Ġfunctions": 6946,
      "oli": 6947,
      "Ġterrible": 6948,
      "Ġdisappoint": 6949,
      "ĠSea": 6950,
      "ĠPR": 6951,
      "Ġuncle": 6952,
      "Ġ1993": 6953,
      "Ġfeatured": 6954,
      "Ġclient": 6955,
      "ãĤĵ": 6956,
      "Ġphen": 6957,
      "ĠEp": 6958,
      "ĠTeam": 6959,
      "61": 6960,
      "Ġbusy": 6961,
      "ĠTurn": 6962,
      "free": 6963,
      "acht": 6964,
      "Ġtu": 6965,
      "ĠFederal": 6966,
      "she": 6967,
      "ĠHy": 6968,
      "Ġfiles": 6969,
      "DA": 6970,
      "73": 6971,
      "63": 6972,
      "ĠCy": 6973,
      "Ġexclus": 6974,
      "\")": 6975,
      "Ġenvironmental": 6976,
      "GB": 6977,
      "ĠDirector": 6978,
      "Ġexamples": 6979,
      "ĠWater": 6980,
      "Ġmoon": 6981,
      "Ġbigger": 6982,
      "Ġadvanced": 6983,
      "ĠTest": 6984,
      "ĠLight": 6985,
      "ĠBrazil": 6986,
      "Ġconver": 6987,
      "foot": 6988,
      "ĠOs": 6989,
      "Ġphotos": 6990,
      "Ġindustrial": 6991,
      "ĠKingdom": 6992,
      "App": 6993,
      "Ġmissed": 6994,
      "Other": 6995,
      "Ġattended": 6996,
      "rait": 6997,
      "Ġhidden": 6998,
      "iti": 6999,
      "xual": 7000,
      "Ġcheese": 7001,
      "icing": 7002,
      "Ġisol": 7003,
      "Ġhors": 7004,
      "Ġalleg": 7005,
      "Ġperspective": 7006,
      "aza": 7007,
      "Ġbeach": 7008,
      "Ġconducted": 7009,
      "62": 7010,
      "Ġscar": 7011,
      "Ġpractices": 7012,
      "çļ": 7013,
      "Ġacting": 7014,
      "Ġidentify": 7015,
      "reens": 7016,
      "Ġtypically": 7017,
      "thur": 7018,
      "ĠSa": 7019,
      "ĠZealand": 7020,
      "Ġphilosophy": 7021,
      "Ġtough": 7022,
      "ĠDam": 7023,
      "Ã©es": 7024,
      "Ġgiant": 7025,
      "ĠLew": 7026,
      "anges": 7027,
      "ĠLittle": 7028,
      "usse": 7029,
      "Res": 7030,
      "Ġheaded": 7031,
      "Ġselected": 7032,
      "ĠBefore": 7033,
      "ĠÑĩ": 7034,
      "wan": 7035,
      "Ġunus": 7036,
      "Ġmyth": 7037,
      "Ġentertain": 7038,
      "pted": 7039,
      "Ġconfidence": 7040,
      "ĠOper": 7041,
      "inson": 7042,
      "Ġabuse": 7043,
      "Ġsurprising": 7044,
      "Ġdifferences": 7045,
      "TS": 7046,
      "atoes": 7047,
      "ington": 7048,
      "Another": 7049,
      "Ġpassage": 7050,
      "Ġguitar": 7051,
      "Pr": 7052,
      "ĠBudd": 7053,
      "Ġpleasure": 7054,
      "nce": 7055,
      "Ġos": 7056,
      "agers": 7057,
      "ĠHome": 7058,
      "orted": 7059,
      "Ġmixed": 7060,
      "Ġguide": 7061,
      "Ġexplos": 7062,
      "ĠRose": 7063,
      "wa": 7064,
      "Ġlawyer": 7065,
      "ãģį": 7066,
      "ĠRon": 7067,
      "ilipp": 7068,
      "Ġflu": 7069,
      "Ġholds": 7070,
      "atures": 7071,
      "urther": 7072,
      "Ġhide": 7073,
      "opy": 7074,
      "First": 7075,
      "Ġlunch": 7076,
      "Ġanger": 7077,
      "Ġbasket": 7078,
      "Ġconfront": 7079,
      "Ġdeploy": 7080,
      "Ġentry": 7081,
      "Ġthroat": 7082,
      "ĠCD": 7083,
      "Ġcauses": 7084,
      "rient": 7085,
      "Ġwet": 7086,
      "then": 7087,
      "ĠViet": 7088,
      "scape": 7089,
      "ĠBack": 7090,
      "Ġposted": 7091,
      "uh": 7092,
      "ĠPub": 7093,
      "utation": 7094,
      "Ġkm": 7095,
      "Ġwaste": 7096,
      "Ġfaster": 7097,
      "asty": 7098,
      "ifest": 7099,
      "Ġfab": 7100,
      "ĠFoot": 7101,
      "oty": 7102,
      "Ġseriously": 7103,
      "Ġcooper": 7104,
      "OO": 7105,
      "Ġ33": 7106,
      "Ġcos": 7107,
      "ĠShow": 7108,
      "Ġconstant": 7109,
      "Ġpromised": 7110,
      "Ġphr": 7111,
      "Ġfasc": 7112,
      "Ġadvent": 7113,
      "ĠNaz": 7114,
      "ãģĤ": 7115,
      "Ġthinks": 7116,
      "Ġlady": 7117,
      "mpt": 7118,
      "Ġanywhere": 7119,
      "Ġintention": 7120,
      "Ġemotional": 7121,
      "FC": 7122,
      "Ġsubm": 7123,
      "ĠBush": 7124,
      "Ġheavily": 7125,
      "Since": 7126,
      "æĹ": 7127,
      "nie": 7128,
      "Ġvalid": 7129,
      "Ġunknown": 7130,
      "Ġjoy": 7131,
      "Ġrepro": 7132,
      "TV": 7133,
      "ilty": 7134,
      "bell": 7135,
      "ĠLy": 7136,
      "Ġapplications": 7137,
      "Ġtests": 7138,
      "oz": 7139,
      "Ġ1991": 7140,
      "Ġproved": 7141,
      "Ġmand": 7142,
      "ĠNavy": 7143,
      "athered": 7144,
      "Ġdesp": 7145,
      "Ġroy": 7146,
      "Ġvulner": 7147,
      "Ġmanage": 7148,
      "Ġbeauty": 7149,
      "Ġtur": 7150,
      "Ġformal": 7151,
      "ĠRog": 7152,
      "Ġcomfortable": 7153,
      "ĠHolly": 7154,
      "Ġaffected": 7155,
      "Ġveter": 7156,
      "Ã®": 7157,
      "Ġtears": 7158,
      "Ġselling": 7159,
      "Ġapproximately": 7160,
      "wart": 7161,
      "ĠÐ½Ðµ": 7162,
      "bury": 7163,
      "ĠCross": 7164,
      "ĠOxford": 7165,
      "Ġuniform": 7166,
      "Ġgay": 7167,
      "chain": 7168,
      "onde": 7169,
      "Ġestate": 7170,
      "Ġteaching": 7171,
      "Good": 7172,
      "Ð»Ð¸": 7173,
      "Ġillustr": 7174,
      "inder": 7175,
      "earing": 7176,
      "ika": 7177,
      "Ġcoord": 7178,
      "ĠAlexander": 7179,
      "Ġliterature": 7180,
      "ĠWat": 7181,
      "sm": 7182,
      "Ġhoped": 7183,
      "Ġdescribe": 7184,
      "Ġ48": 7185,
      "Ġpocket": 7186,
      "Ġhttps": 7187,
      "ĠMir": 7188,
      "ourage": 7189,
      "ĠPacific": 7190,
      "iveness": 7191,
      "ĠPlan": 7192,
      "Ġteach": 7193,
      "Ġcommunication": 7194,
      "Ġeval": 7195,
      "ĠCaptain": 7196,
      "Ġcombination": 7197,
      "ĠNic": 7198,
      "ĠEconom": 7199,
      "bi": 7200,
      "phy": 7201,
      "Ġtort": 7202,
      "Ġintent": 7203,
      "stra": 7204,
      "rum": 7205,
      "ĠNight": 7206,
      "ishment": 7207,
      "Ġcriticism": 7208,
      "heast": 7209,
      "aria": 7210,
      "Ġsitu": 7211,
      "Ġdrove": 7212,
      "Ġlegislation": 7213,
      "Ġspecifically": 7214,
      "Ġvehicles": 7215,
      "ĠParliament": 7216,
      "Ġchemical": 7217,
      "ĠColl": 7218,
      "ĠLatin": 7219,
      "Ġinitially": 7220,
      "ĠDaniel": 7221,
      "Ġske": 7222,
      "soft": 7223,
      "Ġchicken": 7224,
      "ĠWas": 7225,
      "Ġsale": 7226,
      "ĠCEO": 7227,
      "orders": 7228,
      "ĠVen": 7229,
      "Ġspiritual": 7230,
      "ruption": 7231,
      "Ed": 7232,
      "ĠTal": 7233,
      "Ġmode": 7234,
      "Ġalongside": 7235,
      "ilding": 7236,
      "Ġwheel": 7237,
      "ĠMP": 7238,
      "Ġplain": 7239,
      "Ð°Ðº": 7240,
      "Ġdelivered": 7241,
      "Ġcann": 7242,
      "Ġcomme": 7243,
      "Ġattempts": 7244,
      "ĠCivil": 7245,
      "Ġteaspoon": 7246,
      "Î³": 7247,
      "ĠMatt": 7248,
      "ĠIslamic": 7249,
      "SS": 7250,
      "Ġarmed": 7251,
      "Ġdomin": 7252,
      "obe": 7253,
      "Ġconstitution": 7254,
      "Ġdogs": 7255,
      "ĠHon": 7256,
      "Ġwarning": 7257,
      "Ġdelay": 7258,
      "Because": 7259,
      "uthors": 7260,
      "Ġflying": 7261,
      "ĠSouthern": 7262,
      "ĠConf": 7263,
      "Ġconservative": 7264,
      "Ġperfectly": 7265,
      "Ġpaying": 7266,
      "Ġtact": 7267,
      "ses": 7268,
      "ctic": 7269,
      "Ġimmediate": 7270,
      "Ġ!": 7271,
      "Ġsurrounding": 7272,
      "ĠTop": 7273,
      "usted": 7274,
      "Ġsector": 7275,
      "Ġradical": 7276,
      "Ġta": 7277,
      "ohol": 7278,
      "Ġbrothers": 7279,
      "Ġglad": 7280,
      "ĠLook": 7281,
      "Ġgender": 7282,
      "Ġseats": 7283,
      "Ġstring": 7284,
      "ordan": 7285,
      "ĠRos": 7286,
      "æĸ": 7287,
      "Ġdistribution": 7288,
      "Ġembr": 7289,
      "Did": 7290,
      "tion": 7291,
      "ĠStill": 7292,
      "Ġblank": 7293,
      "Ġatmosp": 7294,
      "ourse": 7295,
      "Ġinternet": 7296,
      "Ġacts": 7297,
      "Ġrelationships": 7298,
      "athy": 7299,
      "Ġsees": 7300,
      "apes": 7301,
      "Ġdepth": 7302,
      "ĠSaint": 7303,
      "Ġthrew": 7304,
      "fall": 7305,
      "ĠKen": 7306,
      "Ġoccas": 7307,
      "Ġinsurance": 7308,
      "Two": 7309,
      "ĠToday": 7310,
      "ducing": 7311,
      "TA": 7312,
      "ĠInf": 7313,
      "Ġtechnical": 7314,
      "Ġpurchase": 7315,
      "Ġdos": 7316,
      "car": 7317,
      "ĠEmpire": 7318,
      "NN": 7319,
      "Ġbutton": 7320,
      "çļĦ": 7321,
      "Ġtail": 7322,
      "eared": 7323,
      "ĠIns": 7324,
      "Ġingred": 7325,
      "Ġfol": 7326,
      "ĠProject": 7327,
      "ĠBerlin": 7328,
      "Ġ×": 7329,
      "hips": 7330,
      "ĠSat": 7331,
      "Ġregional": 7332,
      "related": 7333,
      "Ġopposed": 7334,
      "Ġokay": 7335,
      "Ġenorm": 7336,
      "iy": 7337,
      "inations": 7338,
      "Ġkinds": 7339,
      "ownt": 7340,
      "Ġtransm": 7341,
      "Øª": 7342,
      "ĠWalk": 7343,
      "icious": 7344,
      "Ġplot": 7345,
      "Ġchannel": 7346,
      "Ġviolent": 7347,
      "upid": 7348,
      "Ġsup": 7349,
      "Ġfactor": 7350,
      "Ġdozen": 7351,
      "ĠSteve": 7352,
      "OV": 7353,
      "acement": 7354,
      "ĠLast": 7355,
      "Ãªme": 7356,
      "Ġmusical": 7357,
      "Ġmuseum": 7358,
      "ocal": 7359,
      "lishing": 7360,
      "ĠâĤ¬": 7361,
      "Ġhang": 7362,
      "ĠBrook": 7363,
      "amic": 7364,
      "Ġemergency": 7365,
      "Ġses": 7366,
      "ules": 7367,
      "ben": 7368,
      "enda": 7369,
      "Ġ49": 7370,
      "tical": 7371,
      "ĠBab": 7372,
      "Ġopportunities": 7373,
      "tense": 7374,
      "Ġmixture": 7375,
      "Ġterritory": 7376,
      "Ġsentence": 7377,
      "Ġamazing": 7378,
      "Ġsubstant": 7379,
      "ĠRevolution": 7380,
      "lich": 7381,
      "Ġhasn": 7382,
      "Ġdiplom": 7383,
      "Ð¾Ð¹": 7384,
      "()": 7385,
      "Ġnoise": 7386,
      "terday": 7387,
      "Ġrandom": 7388,
      "Although": 7389,
      "Ġgift": 7390,
      "Ġswitch": 7391,
      "agan": 7392,
      "ĠConserv": 7393,
      "ollowing": 7394,
      "Ġurban": 7395,
      "Ġmerc": 7396,
      "Ġcerem": 7397,
      "Ġtweet": 7398,
      "cription": 7399,
      "ÈĽ": 7400,
      "Ġmunicip": 7401,
      "Ġ1950": 7402,
      "Ġsecretary": 7403,
      "ĠÑĥ": 7404,
      "Ġagents": 7405,
      "ĠHug": 7406,
      "acon": 7407,
      "Ġrecognize": 7408,
      "Ġinner": 7409,
      "åĽ": 7410,
      "ĠKim": 7411,
      "Ġrig": 7412,
      "ĠMicro": 7413,
      "Ġshouldn": 7414,
      "mans": 7415,
      "Ġcaptain": 7416,
      "Ġpregn": 7417,
      "ĠJr": 7418,
      "ĠElect": 7419,
      "Ġerror": 7420,
      "Like": 7421,
      "Ġbreaking": 7422,
      "ĠNorthern": 7423,
      "lines": 7424,
      "Ġsed": 7425,
      "Ġgoods": 7426,
      "Ġwriters": 7427,
      "ĠArm": 7428,
      "Ġvotes": 7429,
      "Ġmonitor": 7430,
      "Ġgate": 7431,
      "Ġdefeat": 7432,
      "Ġhal": 7433,
      "Ġbirds": 7434,
      "Ġdarkness": 7435,
      "Ġseasons": 7436,
      "Ġsteel": 7437,
      "ĠAfghan": 7438,
      "Ġcha": 7439,
      "ĠLu": 7440,
      "Int": 7441,
      "rett": 7442,
      "ĠHan": 7443,
      "lers": 7444,
      "Ġdish": 7445,
      "Ġear": 7446,
      "bles": 7447,
      "ĠCub": 7448,
      "Ġbelieves": 7449,
      "rant": 7450,
      "Ġgang": 7451,
      "ente": 7452,
      "Ġconfident": 7453,
      "ĠAdam": 7454,
      "len": 7455,
      "Ġextent": 7456,
      "Ġcaptured": 7457,
      "ĠHun": 7458,
      "ãĥĥ": 7459,
      "Ġsque": 7460,
      "bec": 7461,
      "ĠThough": 7462,
      "Ġsufficient": 7463,
      "Ġcert": 7464,
      "Ġ1989": 7465,
      "ĠMajor": 7466,
      "Ġlistening": 7467,
      "ĠMot": 7468,
      "Ġreaders": 7469,
      "Åį": 7470,
      "08": 7471,
      "Ġvisible": 7472,
      "ocolate": 7473,
      "ĠMah": 7474,
      "word": 7475,
      "Ġassert": 7476,
      "Äį": 7477,
      "isp": 7478,
      "Ġcoc": 7479,
      "Ġrelax": 7480,
      "Ġmyst": 7481,
      "Ġresistance": 7482,
      "Ġmilit": 7483,
      "from": 7484,
      "ansas": 7485,
      "enny": 7486,
      "Ġestimated": 7487,
      "ĠIsraeli": 7488,
      "ĠCard": 7489,
      "Ġcig": 7490,
      "pected": 7491,
      "ilit": 7492,
      "Ġsubt": 7493,
      "Ġstuck": 7494,
      "Ġwonderful": 7495,
      "rated": 7496,
      "Ġscholars": 7497,
      "Ġknife": 7498,
      "Most": 7499,
      "Ġsquad": 7500,
      "ĠWeb": 7501,
      "Ġtip": 7502,
      "Ġlifted": 7503,
      "Ġexcited": 7504,
      "Ġni": 7505,
      "Ġtruck": 7506,
      "Ġscored": 7507,
      "ĠStephen": 7508,
      "ĠAh": 7509,
      "Ġsupporters": 7510,
      "quarters": 7511,
      "Ġja": 7512,
      "Ġfrag": 7513,
      "state": 7514,
      "Ġinnoc": 7515,
      "irk": 7516,
      "iral": 7517,
      "Ġtracks": 7518,
      "vania": 7519,
      "Ġsymbol": 7520,
      "Ġtired": 7521,
      "Ġdedicated": 7522,
      "raine": 7523,
      "Ġcups": 7524,
      "ĠCambridge": 7525,
      "Ġcircle": 7526,
      "ĠOrgan": 7527,
      "bro": 7528,
      "ĠMas": 7529,
      "Ġtong": 7530,
      "itual": 7531,
      "aints": 7532,
      "Ġfavour": 7533,
      "Ġchap": 7534,
      "vy": 7535,
      "uable": 7536,
      "Ġswim": 7537,
      "Ġearned": 7538,
      "Ġlots": 7539,
      "Ġsimpl": 7540,
      "Ġoverw": 7541,
      "Ġreturning": 7542,
      "Ġresponded": 7543,
      "Ġhill": 7544,
      "Ġclassic": 7545,
      "Ġwire": 7546,
      "ĠPen": 7547,
      "ĠÎºÎ±": 7548,
      "09": 7549,
      "Ġorigin": 7550,
      "Ġhole": 7551,
      "Ġhttp": 7552,
      "Ġtied": 7553,
      "Ġpapers": 7554,
      "Ġ34": 7555,
      "Ġliberal": 7556,
      "Ġhoping": 7557,
      "Ġexplo": 7558,
      "Ġwore": 7559,
      "Ġprofession": 7560,
      "ĠOhio": 7561,
      "Ġtalks": 7562,
      "ella": 7563,
      "Ġloose": 7564,
      "Ġphenomen": 7565,
      "ĠNorm": 7566,
      "Ġvessel": 7567,
      "inity": 7568,
      "Ġwake": 7569,
      "ĠAff": 7570,
      "Ġfallen": 7571,
      "Ġsuppose": 7572,
      "Ġbehavi": 7573,
      "Ġbegun": 7574,
      "Ġcoverage": 7575,
      "Ġarticles": 7576,
      "Ġdesert": 7577,
      "Ġtent": 7578,
      "Ġpanel": 7579,
      "Ġcareful": 7580,
      "omach": 7581,
      "Ġvisited": 7582,
      "Ġdeaths": 7583,
      "ĠWilson": 7584,
      "Ġlinks": 7585,
      "unes": 7586,
      "peror": 7587,
      "Ġcrazy": 7588,
      "ĠAgain": 7589,
      "Ġham": 7590,
      "Ġuniverse": 7591,
      "ĠPakistan": 7592,
      "acket": 7593,
      "ji": 7594,
      "ĠToronto": 7595,
      "there": 7596,
      "Ġox": 7597,
      "Ġspin": 7598,
      "Ġentrance": 7599,
      "ĠReview": 7600,
      "Ġsche": 7601,
      "har": 7602,
      "Ġprospect": 7603,
      "Ġguilty": 7604,
      "Ġglanced": 7605,
      "Ġsevent": 7606,
      "Ġdrinking": 7607,
      "ĠRyan": 7608,
      "ĠDespite": 7609,
      "Ġsession": 7610,
      "ailed": 7611,
      "Ġrecip": 7612,
      "ĠĠĠĠĠ": 7613,
      "Ġappeal": 7614,
      "ĠGree": 7615,
      "ori": 7616,
      "rage": 7617,
      "ÈĻ": 7618,
      "Ġshr": 7619,
      "season": 7620,
      "Ġutil": 7621,
      "Ġtrick": 7622,
      "boy": 7623,
      "Ġattorney": 7624,
      "ĠRen": 7625,
      "Ġfacts": 7626,
      "Ġencoun": 7627,
      "ĠRail": 7628,
      "ĠAsian": 7629,
      "Ġorganized": 7630,
      "rive": 7631,
      "Ġboss": 7632,
      "uana": 7633,
      "Ġintellectual": 7634,
      "ÄĻ": 7635,
      "Look": 7636,
      "Ġrenew": 7637,
      "Ġbien": 7638,
      "Ġdivided": 7639,
      "Ġaus": 7640,
      "Ġnations": 7641,
      "ĠEducation": 7642,
      "aro": 7643,
      "Med": 7644,
      "avig": 7645,
      "Yeah": 7646,
      "ĠÃ®n": 7647,
      "Ġcreative": 7648,
      "Ġmoves": 7649,
      "emies": 7650,
      "Ġfifth": 7651,
      "Ġgovernor": 7652,
      "ĠOffic": 7653,
      "Ġsword": 7654,
      "âĸ": 7655,
      "Ġgaze": 7656,
      "udes": 7657,
      "Ġliquid": 7658,
      "sl": 7659,
      "Ġchallenges": 7660,
      "Ġcounty": 7661,
      "Ġsignal": 7662,
      "ĠRub": 7663,
      "Ġpermission": 7664,
      "rat": 7665,
      "Ġproperties": 7666,
      "anes": 7667,
      "ĠColor": 7668,
      "ĠFather": 7669,
      "called": 7670,
      "ĠLind": 7671,
      "erves": 7672,
      "ĠSupp": 7673,
      "Ġagric": 7674,
      "ĠTaylor": 7675,
      "Ġenh": 7676,
      "Ġdetermin": 7677,
      "iones": 7678,
      "Ġtherap": 7679,
      "ĠfÃ¼r": 7680,
      "aus": 7681,
      "Ġmistake": 7682,
      "Ġproof": 7683,
      "ĠGab": 7684,
      "Ġdistingu": 7685,
      "syl": 7686,
      "leep": 7687,
      "orne": 7688,
      "Ġmes": 7689,
      "ãĤ¢": 7690,
      "Ġtomorrow": 7691,
      "Ġcorporate": 7692,
      "ĠDoug": 7693,
      "unior": 7694,
      "attered": 7695,
      "EP": 7696,
      "ãĥ«": 7697,
      "Ġprinciple": 7698,
      "ogen": 7699,
      "Ġblow": 7700,
      "rastructure": 7701,
      "Ġstores": 7702,
      "Ġtrig": 7703,
      "Ġconven": 7704,
      "cus": 7705,
      "ĠAnth": 7706,
      "ĠPers": 7707,
      "style": 7708,
      "oln": 7709,
      "ĠMichigan": 7710,
      "Ġattacked": 7711,
      "ĠPrem": 7712,
      "father": 7713,
      "Ġmainly": 7714,
      "ographer": 7715,
      "Ġzone": 7716,
      "05": 7717,
      "ãĤĪ": 7718,
      "heim": 7719,
      "Ġteachers": 7720,
      "ĠÐ³": 7721,
      "ĠScotland": 7722,
      "Ġwarned": 7723,
      "Ġtack": 7724,
      "Ġcenturies": 7725,
      "hal": 7726,
      "Ġrecording": 7727,
      "Ġhorses": 7728,
      "ĠEastern": 7729,
      "Ġexperts": 7730,
      "Ġfundamental": 7731,
      "Over": 7732,
      "Ġgathered": 7733,
      "ĠStand": 7734,
      "Ġconsidering": 7735,
      "Ġsupporting": 7736,
      "Ġpainting": 7737,
      "Ġshadow": 7738,
      "Ġinstitution": 7739,
      "ĠFord": 7740,
      "Ġlinked": 7741,
      "Ġmessages": 7742,
      "Ġnarrative": 7743,
      "unning": 7744,
      "Ġintense": 7745,
      "anto": 7746,
      "abilities": 7747,
      "ĠConst": 7748,
      "Ġurg": 7749,
      "Ġ300": 7750,
      "Ġpitch": 7751,
      "rep": 7752,
      "Ġcrack": 7753,
      "Ġengaged": 7754,
      "rical": 7755,
      "Ġregime": 7756,
      "Ġfacilities": 7757,
      "ĠBattle": 7758,
      "ĠSpecial": 7759,
      "antry": 7760,
      "eral": 7761,
      "Ġinspired": 7762,
      "Ïĩ": 7763,
      "ĠAvenue": 7764,
      "Ġhes": 7765,
      "gment": 7766,
      "cht": 7767,
      "utenant": 7768,
      "Ġconsequences": 7769,
      "Ġpackage": 7770,
      "Ġenthus": 7771,
      "ĠWin": 7772,
      "ĠCook": 7773,
      "umes": 7774,
      "Ġwooden": 7775,
      "urally": 7776,
      "eding": 7777,
      "Ġmatches": 7778,
      "tering": 7779,
      "Ã¤t": 7780,
      "Ġdiscip": 7781,
      "Ġhanded": 7782,
      "ĠHo": 7783,
      "TC": 7784,
      "aya": 7785,
      "Ġadopted": 7786,
      "Ġprimarily": 7787,
      "Ġselection": 7788,
      "Trump": 7789,
      "Ġbrings": 7790,
      "Ġaspects": 7791,
      "Ġfault": 7792,
      "olo": 7793,
      "Ġ1988": 7794,
      "Ġfifty": 7795,
      "Ġeggs": 7796,
      "sters": 7797,
      "Up": 7798,
      "Ġresident": 7799,
      "iah": 7800,
      "Ġenjoyed": 7801,
      "Ġaux": 7802,
      "Ġexcess": 7803,
      "Ġvolunte": 7804,
      "ami": 7805,
      "Ġcontemporary": 7806,
      "Ġcooking": 7807,
      "Ġeverybody": 7808,
      "Ġwrites": 7809,
      "rors": 7810,
      "ups": 7811,
      "uma": 7812,
      "Ġtheme": 7813,
      "ĠRet": 7814,
      "inding": 7815,
      "ĠAmazon": 7816,
      "makers": 7817,
      "Ġsympt": 7818,
      "Comp": 7819,
      "ĠÎ±": 7820,
      "ĠPC": 7821,
      "Ġvice": 7822,
      "oscow": 7823,
      "resents": 7824,
      "level": 7825,
      "ĠList": 7826,
      "Ġfinds": 7827,
      "Ġsending": 7828,
      "spe": 7829,
      "umbled": 7830,
      "Ġcrossed": 7831,
      "ĠBa": 7832,
      "sylvania": 7833,
      "Ġrolled": 7834,
      "ĠNever": 7835,
      "Ġminimum": 7836,
      "Ġforever": 7837,
      "Ġattempted": 7838,
      "Ġsoil": 7839,
      "Ġinvited": 7840,
      "Ø¯": 7841,
      "ĠBru": 7842,
      "ĠPass": 7843,
      "mod": 7844,
      "ĠMaster": 7845,
      "iar": 7846,
      "five": 7847,
      "ennis": 7848,
      "tra": 7849,
      "Ġremote": 7850,
      "Ġnewly": 7851,
      "ãĥª": 7852,
      "Ġretire": 7853,
      "Ġoffensive": 7854,
      "Ġpale": 7855,
      "ieties": 7856,
      "Ġkil": 7857,
      "weet": 7858,
      "Ġroyal": 7859,
      "Ġfairly": 7860,
      "ĠBal": 7861,
      "Ġacademic": 7862,
      "ĠHard": 7863,
      "Ġasks": 7864,
      "ĠTro": 7865,
      "Ġstomach": 7866,
      "ĠWindows": 7867,
      "Ġreturns": 7868,
      "ĠDutch": 7869,
      "ĠCa": 7870,
      "95": 7871,
      "Ġimmigration": 7872,
      "Ġoptim": 7873,
      "Ġwelcome": 7874,
      "Ġassistant": 7875,
      "achel": 7876,
      "agger": 7877,
      "éĸ": 7878,
      "andal": 7879,
      "uters": 7880,
      "Ġdressed": 7881,
      "ĠGames": 7882,
      "Ġprotected": 7883,
      "Ġapproved": 7884,
      "Ġtypical": 7885,
      "ĠPM": 7886,
      "Ġtotally": 7887,
      "Ġgotten": 7888,
      "ĠBon": 7889,
      "Ġstorage": 7890,
      "ĠNFL": 7891,
      "ortion": 7892,
      "asure": 7893,
      "Ġreceiving": 7894,
      "Ġbottle": 7895,
      "Ġpic": 7896,
      "cluding": 7897,
      "bled": 7898,
      "Ġstations": 7899,
      "Ġtournament": 7900,
      "Ġreplace": 7901,
      "Ġrefe": 7902,
      "Ġanymore": 7903,
      "ĠHistor": 7904,
      "ockey": 7905,
      "ĠPlace": 7906,
      "Co": 7907,
      "case": 7908,
      "Ġrear": 7909,
      "eman": 7910,
      "ĠBBC": 7911,
      "utor": 7912,
      "ĠLibrary": 7913,
      "Ġdiagn": 7914,
      "98": 7915,
      "å¹": 7916,
      "Ġadapt": 7917,
      "Ġtas": 7918,
      "Ġencourage": 7919,
      "äºº": 7920,
      "Ġtechniques": 7921,
      "_**": 7922,
      "Ġconcert": 7923,
      "Ġextract": 7924,
      "Ġforty": 7925,
      "Ġdescription": 7926,
      "Ġneut": 7927,
      "ĠMedia": 7928,
      "ĠSimon": 7929,
      "Ġdenied": 7930,
      "evin": 7931,
      "ibilities": 7932,
      "Ġexplore": 7933,
      "adelph": 7934,
      "Ġgranted": 7935,
      "ãĥ©": 7936,
      "Ġtransition": 7937,
      "ĠForm": 7938,
      "Ġeastern": 7939,
      "Ġeverywhere": 7940,
      "umin": 7941,
      "Ġmechanism": 7942,
      "Ġproposal": 7943,
      "Ġacknowled": 7944,
      "Ġhyd": 7945,
      "Ġconvin": 7946,
      "ilton": 7947,
      "ĠHay": 7948,
      "ĠStone": 7949,
      "hire": 7950,
      "burgh": 7951,
      "inned": 7952,
      "lock": 7953,
      "Ġshares": 7954,
      "rec": 7955,
      "Ġproducer": 7956,
      "Ġsaved": 7957,
      "Ġthread": 7958,
      "alo": 7959,
      "ĠDor": 7960,
      "Ġburied": 7961,
      "Ġbreakfast": 7962,
      "Ġwing": 7963,
      "Ġauthors": 7964,
      "Ġdecor": 7965,
      "hent": 7966,
      "ĠSuch": 7967,
      "Ġstupid": 7968,
      "Ġdriven": 7969,
      "Ġproperly": 7970,
      "ĠId": 7971,
      "Ġnecessarily": 7972,
      "Ġears": 7973,
      "Ġincorpor": 7974,
      "Ġpressed": 7975,
      "Ġmanufacture": 7976,
      "hemat": 7977,
      "Ġtalent": 7978,
      "riv": 7979,
      "Ġversions": 7980,
      "Ġretired": 7981,
      "gcolor": 7982,
      "Ġconstantly": 7983,
      "Ġprinciples": 7984,
      "Ġcutting": 7985,
      "Ġoverwhel": 7986,
      "ribe": 7987,
      "Ġmayor": 7988,
      "Ġparliament": 7989,
      "ĠBeach": 7990,
      "ĠField": 7991,
      "!!": 7992,
      "agen": 7993,
      "Ġnobody": 7994,
      "who": 7995,
      "thew": 7996,
      "Ġfiled": 7997,
      "Ġ65": 7998,
      "ĠPhilipp": 7999,
      "ĠÃ¥": 8000,
      "Ġcontained": 8001,
      "Ġevolution": 8002,
      "ĠDevelopment": 8003,
      "Ġfurn": 8004,
      "Ġbranch": 8005,
      "Ġburst": 8006,
      "Ġshirt": 8007,
      "Ġcycle": 8008,
      "Ġroot": 8009,
      "ĠLie": 8010,
      "ĠDun": 8011,
      "Ġperce": 8012,
      "Ġunw": 8013,
      "ãģĻãĤĭ": 8014,
      "ĠTour": 8015,
      "Ġ37": 8016,
      "Ġprominent": 8017,
      "Ġcarbon": 8018,
      "Ġprocesses": 8019,
      "Ġharder": 8020,
      "Ġtouched": 8021,
      "è¦": 8022,
      "Ġspoken": 8023,
      "Ġsymp": 8024,
      "Ġrepresents": 8025,
      "ele": 8026,
      "Ġsont": 8027,
      "abled": 8028,
      "ĠCoast": 8029,
      "Ġemerged": 8030,
      "Once": 8031,
      "Ġphase": 8032,
      "Ġanticip": 8033,
      "ĠBol": 8034,
      ".âĢĻ": 8035,
      "yard": 8036,
      "ĠRight": 8037,
      "Ġhistoric": 8038,
      "Ġinjured": 8039,
      "Ġagencies": 8040,
      "ãĤ¯": 8041,
      "Rep": 8042,
      "Ġhopes": 8043,
      "ĠProgram": 8044,
      "des": 8045,
      "ĠSanta": 8046,
      "abil": 8047,
      "Ġpill": 8048,
      "Ġflowers": 8049,
      "Ġtrading": 8050,
      "Ġleaned": 8051,
      "zo": 8052,
      "Ġobtained": 8053,
      "Ð½Ð°": 8054,
      "Ġinstrument": 8055,
      "Ã©m": 8056,
      "ĠDown": 8057,
      "Ġtwelve": 8058,
      "uper": 8059,
      "gi": 8060,
      "Ġsurve": 8061,
      "Ġawarded": 8062,
      "greg": 8063,
      "Ġguarant": 8064,
      "lessly": 8065,
      "ĠAsh": 8066,
      "ĠKent": 8067,
      "itarian": 8068,
      "Ġdefeated": 8069,
      "ĠCall": 8070,
      "Ġuncertain": 8071,
      "Ġreputation": 8072,
      "ĠFestival": 8073,
      "ĠNY": 8074,
      "adelphia": 8075,
      "ĠKat": 8076,
      "Ġsolo": 8077,
      "Ġdelight": 8078,
      "Many": 8079,
      "ãģĿ": 8080,
      "atell": 8081,
      "Ġexposed": 8082,
      "Ġassume": 8083,
      "ĠÎ¼": 8084,
      "ijuana": 8085,
      "Ġathlet": 8086,
      "Ġgained": 8087,
      "Ġequival": 8088,
      "ÑģÑı": 8089,
      "éĢ": 8090,
      "Ġgovernments": 8091,
      "Ġexpansion": 8092,
      "ĠSus": 8093,
      "Ġcolleagues": 8094,
      "Ġexha": 8095,
      "Ġcow": 8096,
      "Ġargue": 8097,
      "ĠÃ¨": 8098,
      "ĠÐ¿Ð¾": 8099,
      "Ġslic": 8100,
      "ammed": 8101,
      "People": 8102,
      "ĠMake": 8103,
      "Ġupdate": 8104,
      "care": 8105,
      "Ġdella": 8106,
      "Ġreaching": 8107,
      "Ġlect": 8108,
      "Ġstatements": 8109,
      "Ġals": 8110,
      "Ġexception": 8111,
      "ifer": 8112,
      "Ġenforcement": 8113,
      "olis": 8114,
      "olve": 8115,
      "ĠSeries": 8116,
      "Ġsinger": 8117,
      "Ġeffectively": 8118,
      "ĠCentre": 8119,
      "Ġprovince": 8120,
      "ĠPennsylvania": 8121,
      "Ġgolden": 8122,
      "Ġsignificantly": 8123,
      "Ġportion": 8124,
      "rooms": 8125,
      "Ġretail": 8126,
      "ocation": 8127,
      "Ġmovements": 8128,
      "Ġstructures": 8129,
      "ĠGeorgia": 8130,
      "Ġcoat": 8131,
      "ĠPalestin": 8132,
      "rome": 8133,
      "Ġquietly": 8134,
      "Ġtonight": 8135,
      "ĠJane": 8136,
      "Ġtaxes": 8137,
      "Ġmovies": 8138,
      "ugg": 8139,
      "ĠÏĥ": 8140,
      "Figure": 8141,
      "Ġclick": 8142,
      "ĠCru": 8143,
      "ĠAnton": 8144,
      "ials": 8145,
      "Ġmanifest": 8146,
      "Ġmeal": 8147,
      "active": 8148,
      "Ġpurposes": 8149,
      "ĠSi": 8150,
      "ĠBrad": 8151,
      "Ġroughly": 8152,
      "Ġinstant": 8153,
      "Je": 8154,
      "Ġrice": 8155,
      "enh": 8156,
      "Ġgray": 8157,
      "\\\\": 8158,
      "Ġih": 8159,
      "Ġsurvive": 8160,
      "Ġdetailed": 8161,
      "ĠDavis": 8162,
      "this": 8163,
      "ĠDaily": 8164,
      "ĠSanders": 8165,
      "ĠImages": 8166,
      "Ġcock": 8167,
      "arrass": 8168,
      "Ġobtain": 8169,
      "ni": 8170,
      "Che": 8171,
      "Ġclar": 8172,
      "ĠKong": 8173,
      "ĠLabour": 8174,
      "Ġunp": 8175,
      "encing": 8176,
      "Ġtemple": 8177,
      "Äħ": 8178,
      "Ġpractical": 8179,
      "Ġlegit": 8180,
      "Us": 8181,
      "Ġsomebody": 8182,
      "Ġdecre": 8183,
      "Ġ()": 8184,
      "Ġfacility": 8185,
      "Ġcausing": 8186,
      "Ġobst": 8187,
      "Ġachieved": 8188,
      "ographic": 8189,
      "ffect": 8190,
      "04": 8191
    },
    "merges": [
      "Ġ t",
      "h e",
      "Ġ a",
      "i n",
      "r e",
      "Ġt he",
      "o n",
      "Ġ s",
      "e r",
      "Ġ w",
      "Ġ o",
      "a t",
      "e n",
      "a n",
      "Ġ c",
      "i t",
      "i s",
      "e d",
      "Ġ b",
      "o r",
      "e s",
      "Ġ f",
      "o u",
      "Ġ p",
      "in g",
      "n d",
      "a r",
      "Ġ m",
      "a l",
      "Ġo f",
      "Ġ d",
      "Ġt o",
      "Ġ h",
      "Ġ in",
      "a s",
      "Ġa nd",
      "i c",
      "l e",
      "Ġt h",
      "o m",
      "i on",
      "Ġ l",
      "Ġ n",
      "l l",
      "en t",
      "Ġ e",
      "s t",
      "Ġ re",
      "r o",
      "â Ģ",
      "Ġ g",
      "v e",
      "l y",
      "i d",
      "a d",
      "Ġb e",
      "Ġ I",
      "a c",
      "u t",
      "Ġ T",
      "o t",
      "Ġ S",
      "Ġ he",
      "i m",
      "e t",
      "Ġ on",
      "Ġ A",
      "a m",
      "o w",
      "s e",
      "i g",
      "a y",
      "u r",
      "l d",
      "Ġ C",
      "Ġth at",
      "Ġ u",
      "Ġf or",
      "v er",
      "Ġ y",
      "Ġ is",
      "i r",
      "Ġs t",
      "c t",
      "Ġw as",
      "Ġ M",
      "i l",
      "Ġ it",
      "it h",
      "o l",
      "Ġa s",
      "c h",
      "c e",
      "Ġ B",
      "t er",
      "Ġw h",
      "at ion",
      "Ġw ith",
      "Ġd e",
      "Ġw e",
      "Ġ H",
      "Ġa n",
      "Ġ 1",
      "Ġy ou",
      "Ġ P",
      "r i",
      "he r",
      "an d",
      "' s",
      "k e",
      "Ġ (",
      "r a",
      "Ġa t",
      "i ll",
      "Ġc on",
      "Ġs e",
      "i f",
      "u s",
      "ĠT he",
      "g e",
      "u l",
      "Ġ W",
      "h t",
      "Ġ D",
      "er s",
      "is t",
      "o d",
      "Ġ R",
      "p p",
      "es t",
      "o s",
      "q u",
      "e m",
      "u n",
      "o re",
      "u m",
      "r om",
      "Ġ F",
      "Ġ v",
      "t h",
      "Ġ r",
      "Ġh a",
      "at e",
      "Ġ L",
      "Ġ 2",
      "e l",
      "Ġh is",
      "Ġ \"",
      "Ġc om",
      "Ġ G",
      "a in",
      "o p",
      "an t",
      "Ġp ro",
      "re s",
      "ou ld",
      "Ġ N",
      "a b",
      "es s",
      "âĢ Ļ",
      "Ġn e",
      "Ġo r",
      "Ġn ot",
      "Ġb y",
      "Ġ E",
      "Ġa l",
      "Ġf rom",
      "i e",
      "Ġe x",
      "Ġa re",
      "ig ht",
      "o c",
      "re d",
      "Ġs u",
      "Ġs h",
      "Ġ le",
      "ar t",
      "Ġ J",
      "it y",
      "or t",
      "Ġ âĢ",
      "n t",
      "al l",
      "i ve",
      "Ġ k",
      "Ġh ad",
      "ar d",
      "Ġc h",
      "p e",
      "u st",
      "Ġha ve",
      "m ent",
      "en d",
      "i v",
      "i es",
      "Ġs a",
      "Ġhe r",
      "ac k",
      "ou t",
      "ou r",
      "T he",
      "o k",
      "Ġ O",
      "Ġth is",
      "ou g",
      "Ġ j",
      "a k",
      "as t",
      "Ġa b",
      "a g",
      "Ġm e",
      "om e",
      "Ġp l",
      "0 0",
      "a p",
      "u d",
      "Ġd o",
      "ic h",
      "Ġb ut",
      "t e",
      "al ly",
      "Ġg o",
      "Ġw or",
      "o st",
      "ã ģ",
      ". \"",
      "Ġw he",
      "ou nd",
      "Ġa ll",
      "on g",
      "id e",
      "Ġthe y",
      "Ġwe re",
      "ou s",
      "e ar",
      "in e",
      "Ġo ut",
      "Ġa r",
      "u re",
      "Ġ1 9",
      "Ġ K",
      "i a",
      "am e",
      "p t",
      "Ġt r",
      "Ġs he",
      "b er",
      "t her",
      "an s",
      "Ġs o",
      "Ġwh o",
      "Ġc an",
      "on e",
      "Ġ U",
      "Ġu p",
      "Ġu n",
      "Ġsa id",
      "Ġ qu",
      "f f",
      "in d",
      "t o",
      "Ġ en",
      "' t",
      "Ġthe ir",
      "i p",
      "i al",
      "Ġ _",
      "Ġon e",
      "ic e",
      "Ġh as",
      "oug h",
      "o g",
      "at ed",
      "o ok",
      "n e",
      "Ġc l",
      "ion s",
      "i ke",
      "ĠH e",
      "a re",
      "a ge",
      "a u",
      "p l",
      "Ġw ould",
      "Ġh im",
      "Ġm y",
      "ac t",
      "i z",
      "im e",
      "Ġwh ich",
      "r y",
      "ac e",
      "u e",
      "Ġ im",
      "as s",
      "Ġm an",
      "a v",
      "Ġw ill",
      "e p",
      "Ġa d",
      "ar y",
      "âĢ Ŀ",
      "Ġm ore",
      "Ġ Ġ",
      "Ġu s",
      "Ã ©",
      "u b",
      "a ke",
      "Ġab out",
      "Ġt e",
      "ĠI n",
      "Ġa g",
      "c c",
      "Ġbe en",
      "p er",
      "ver y",
      "i re",
      "* *",
      "ĠT h",
      "i an",
      "v en",
      "Ġthe m",
      "ow n",
      "Ġcon t",
      "Ġs p",
      "0 1",
      "it e",
      "on d",
      "or d",
      "Ġf e",
      "o se",
      "Ġ V",
      "ĠS t",
      "ĠC h",
      "Ġcom p",
      "i b",
      "Ġof f",
      "s o",
      "ig n",
      "Ġyou r",
      "Ġn o",
      "ĠI t",
      "r u",
      "ab le",
      "Ġl ike",
      "Ġ Y",
      "he d",
      "c l",
      "is h",
      "ic al",
      "res s",
      "m er",
      "Ġin to",
      "Ġp er",
      "e ct",
      "Ġo ther",
      "ic k",
      "Ġo ver",
      ", \"",
      "Ġthe re",
      "en ce",
      "ac h",
      "i le",
      "Ġp e",
      "Ġ ro",
      "âĢ Ķ",
      "Ġd is",
      "an ce",
      "ay s",
      "Ġre s",
      "Ġk n",
      "Ġs ome",
      "Ġwhe n",
      "w n",
      "ul t",
      "Ġt w",
      "f ter",
      "Ġwh at",
      "an g",
      "Ġp art",
      "or m",
      "ation s",
      "Ġs c",
      "or y",
      "Ġbe c",
      "Ġa pp",
      "en s",
      "u c",
      "k s",
      "Ġt ime",
      "re e",
      "ct ion",
      "ou nt",
      "ĠâĢ ľ",
      "re n",
      "Ġc ould",
      "o ve",
      "Ġan y",
      "re at",
      "Ġg r",
      "Ġl a",
      "ad e",
      "Ġ 3",
      "ir st",
      "Ġal so",
      "Ġ if",
      "in t",
      "Ġ2 01",
      "Ġth an",
      "Ġy ear",
      "ing s",
      "Ġit s",
      "w e",
      "o od",
      "ar k",
      "Ġb l",
      "se l",
      "r it",
      "o v",
      "Ġd es",
      "f e",
      "Ġp r",
      "Ġd id",
      "ur n",
      ". .",
      "as e",
      "op le",
      "Ġu nd",
      "in k",
      "Ġp re",
      "Ġc o",
      "ve l",
      "Ġj ust",
      "Ġre c",
      "it ion",
      "i ld",
      "h ing",
      "Ġb ack",
      "p ort",
      "ĠâĢ ĵ",
      "at er",
      "or s",
      "Ġwor k",
      "Ġne w",
      "ic t",
      "Ġf irst",
      "ver s",
      "f t",
      "Ġ Ð",
      "o b",
      "i ous",
      "a il",
      "on s",
      "ã Ĥ",
      "Ġg et",
      "er v",
      "Ġ '",
      "ent s",
      "Ġon ly",
      "Ġtw o",
      "Ġf l",
      "Ġpe ople",
      "am p",
      "Ġp o",
      "âĢ ĵ",
      "o y",
      "Ġa fter",
      "it t",
      ") ,",
      "e w",
      "Ġat t",
      "Ġo ur",
      "l es",
      "is s",
      "Ġkn ow",
      "an c",
      "au se",
      "Ġag ain",
      "l ic",
      "Ġcom m",
      "Ġbe t",
      "Ġh ow",
      "Ġs pe",
      "he n",
      "Ġ ,",
      "u ll",
      "Ġthe n",
      "Ġa m",
      ") .",
      "Ġl ook",
      "at es",
      "f ore",
      "e ll",
      "Ġund er",
      "p h",
      "r ough",
      "m an",
      "i ed",
      "f orm",
      "o ll",
      "at h",
      "e c",
      "Ġ 4",
      "u al",
      "Ġa cc",
      "ig h",
      "Ġse e",
      "Ð ¾",
      "ot her",
      "on t",
      "n ing",
      "id ent",
      "ter n",
      "Ġs m",
      "Ġa ct",
      "u ch",
      "ĠU n",
      "o ld",
      "Ġw ant",
      "Ġp ol",
      "Ġ |",
      "Ġe ven",
      "Ġn ow",
      "Ġth rough",
      "Ġm ost",
      "oc k",
      "w ard",
      "Ġre m",
      "i ly",
      "if e",
      "sel f",
      "is e",
      "Ġd own",
      "? \"",
      "h at",
      "s s",
      "Ġb r",
      "Ġin d",
      "Ġpl ay",
      "Ġ2 00",
      "Ġwhe re",
      "Ġcon s",
      "n g",
      "Ġe m",
      "x t",
      "ĠS he",
      "w ay",
      "Ġw ay",
      "os s",
      "Ġse c",
      "i er",
      "Ġe very",
      "ro w",
      "Ġ 5",
      "oug ht",
      "I n",
      "Ġre l",
      "en c",
      "ot h",
      "ation al",
      "ã ĥ",
      "ĠB ut",
      "Ġa c",
      "ĠA nd",
      "Ġh and",
      "Ġne ed",
      "cl ud",
      "re nt",
      "Ġbe fore",
      "Ġl ong",
      "u nd",
      "Ġ -",
      "u p",
      "Ġo wn",
      "er t",
      "le ct",
      "ri b",
      "Ġyear s",
      "Ġc all",
      "t y",
      "l ed",
      "it ed",
      "om et",
      "Ġin v",
      "at her",
      "g r",
      "i o",
      "k ed",
      "Ġr ight",
      "d u",
      "j ect",
      "Ġm ade",
      "Ġm ay",
      "pe ct",
      "Ġthe se",
      "u g",
      "l and",
      "Ġ ra",
      "at ing",
      "Ġbec ause",
      "Ð °",
      "Ġm ake",
      "Ġd on",
      "ak ing",
      "Ġsh ould",
      "Ġ Ċ",
      "1 9",
      "Ġ ent",
      "or n",
      "Ġwe ll",
      "Ġin c",
      "Ġs l",
      "Ġde c",
      "Ð µ",
      "a h",
      "Ġt ra",
      "Ġth ink",
      "ĠW e",
      "Ġd if",
      "Ġp res",
      "Ġp h",
      "g an",
      "ar ly",
      "ur ing",
      "Ġs ur",
      "he s",
      "Ġe v",
      "ow er",
      "an ge",
      "mer ic",
      "Ġm uch",
      "ol og",
      "Ġre g",
      "Ġas s",
      "ĠTh is",
      "Ġ ke",
      "t en",
      "al s",
      "Ġ end",
      "Ġad d",
      "i x",
      "f ul",
      "ar s",
      "# #",
      "a ir",
      "Ġsu pp",
      "ou p",
      "Ġbe ing",
      "Ġman y",
      "t ing",
      "en er",
      "g et",
      "Ġs y",
      "Ġb u",
      "in s",
      "Ġ .",
      "a ve",
      "Ġ very",
      "b le",
      "Ġim p",
      "at ive",
      "Ġsu ch",
      "Ġf in",
      "is m",
      "Ġin clud",
      "Ã ¤",
      "ub lic",
      "Ġo b",
      "a z",
      "as ed",
      "ter s",
      "Ġbe l",
      "e red",
      "ou se",
      "o ol",
      "it ies",
      "ib le",
      "ic s",
      "Ġo p",
      "in ce",
      "ĠR e",
      "Ġs ay",
      "i et",
      "if ic",
      "ĠN ew",
      "Ġm in",
      "we en",
      "ĠA l",
      "Ġe l",
      "or k",
      "ers on",
      "ie w",
      "Ġc ol",
      "Ġgo od",
      "ĠA r",
      "Ġg u",
      "Ġs et",
      "Ġ1 8",
      "Ġsu b",
      "as on",
      "m s",
      "Ð ¸",
      "Ġth ose",
      "ĠA meric",
      "h ip",
      "Ġst ill",
      "ĠâĢ Ķ",
      "al e",
      "Ġ 6",
      "i ent",
      "an k",
      "ĠA n",
      "Ġc ar",
      "Ġbet ween",
      "d ay",
      "ver n",
      "Ġre t",
      "ĠL e",
      "oll ow",
      "t s",
      "Ġhe re",
      "y s",
      "ĠS e",
      "p r",
      "o h",
      "ĠD e",
      "er n",
      "Ġar ound",
      "Ġhe ad",
      "v ed",
      "it s",
      "Ġhe l",
      "H e",
      "Ġ Ã",
      "ĠM ar",
      "ĠT r",
      "ou n",
      "Ġs omet",
      "Ñ Ĥ",
      "ĠY ou",
      "a red",
      "' d",
      "Ġf ound",
      "Ġst art",
      "ĠThe y",
      "Ġu se",
      "Ġf am",
      "Ġin ter",
      "Ġin st",
      "I t",
      "Ġm on",
      "g g",
      "Ġl ast",
      "om m",
      "re ad",
      "Ġwor ld",
      "um p",
      ". âĢĿ",
      "Ġc he",
      "im es",
      "c ess",
      "Ġwh ile",
      "ce pt",
      "Ġsh ow",
      "Ġin s",
      "Ġf r",
      "Ġc ount",
      "Ġc r",
      "u res",
      "Ġagain st",
      "Ġgo ing",
      "al k",
      "ment s",
      "u ally",
      "Ġst ud",
      "Ġst r",
      "i k",
      "Ġqu e",
      "Ġg l",
      "Ġt er",
      "ĠA s",
      "c k",
      "t he",
      "T h",
      "Ġt ake",
      "c es",
      "Ġt urn",
      "Ġs ame",
      "us s",
      "Ġl ife",
      "n ess",
      "re st",
      "Ġto o",
      "Ġd ay",
      "pp ed",
      "Ġtr ans",
      "Ġth ree",
      "Ġs er",
      "Ġw om",
      "a w",
      "Ġhel p",
      "Ġin t",
      "Ġpo int",
      "Ġdo es",
      "n er",
      "Ġs erv",
      "Ġs im",
      "Ġm ed",
      "Ġc ent",
      "Ġde f",
      "d er",
      "il ity",
      "Ġdis c",
      "u es",
      "in es",
      "o ot",
      "i vers",
      "itt le",
      "ist s",
      "Ġf ollow",
      "e k",
      "ar m",
      "an y",
      "Ġm em",
      "r ic",
      "Ġ est",
      "ut ion",
      "ro ss",
      "Ġre al",
      "at ch",
      "- -",
      "Ġc ap",
      "Ġ 7",
      "ul ar",
      "âĢ ľ",
      "Ġe ff",
      "Ġex p",
      "en e",
      "Ġn um",
      "ĠS h",
      "t on",
      "Ġne ver",
      "a j",
      "Ġd et",
      "ar l",
      "Ġg reat",
      "e ver",
      "iv es",
      "Ġus ed",
      "Ġle ad",
      "re t",
      "Ġdif fe",
      "Ġh igh",
      "Ġre p",
      "od y",
      "Ġb oth",
      "in ed",
      "ã Ģ",
      ", âĢĿ",
      "v ing",
      "Ġin te",
      "ch ool",
      "a x",
      "ut h",
      "an n",
      "is hed",
      "Ġre f",
      "Ġspe c",
      "Ð ½",
      "Ġb ro",
      "Ġd ist",
      "Ġ $",
      "Ġc our",
      "' re",
      "Ġs ign",
      "y ing",
      "Ġpro v",
      "Ġfor m",
      "Ġm od",
      "Ġ es",
      "Ñ ģ",
      "b e",
      "au g",
      "st em",
      "at t",
      "en ed",
      "Ġm et",
      "Ġdid n",
      "Ġch ar",
      "Ġf ind",
      "Ġ 8",
      "ri ed",
      "Ġre ad",
      "c om",
      "th ing",
      "Ġd ire",
      "ar n",
      "Ġl ar",
      "ĠF r",
      "Ġp ass",
      "Ñ Ģ",
      "am es",
      "ĠW h",
      "m e",
      "Ġex t",
      "Ġl oc",
      "is ion",
      "Ġcom e",
      "Ġan other",
      "Ġ ed",
      "Ġr un",
      "Ġc re",
      "iz ed",
      "Ġl ittle",
      "vel op",
      "Ġle t",
      "Ġp erson",
      "Ġch ild",
      "Ġm ight",
      "Ġth ought",
      "Ġgo vern",
      "Ġe ach",
      "Ġha pp",
      "c ent",
      "Ġcon f",
      "00 0",
      "ou th",
      "Ġu nt",
      "Ġse em",
      "v es",
      "ut e",
      "i ence",
      "Ġ1 0",
      "Ġsomet hing",
      "g er",
      "Ġc ur",
      "Ġfe w",
      "Ġ19 9",
      "Ġp ar",
      ".. .",
      "Ġpl ace",
      "ĠC l",
      "Ġb o",
      "as h",
      "Ġ Z",
      "qu e",
      "Ġ 9",
      "Ġg ot",
      "W e",
      "ĠI s",
      "Ġs k",
      "Ġte am",
      "ĠF or",
      "Ġm en",
      "Ġar t",
      "Ġe y",
      "Ġp ut",
      "in a",
      "Ã ³",
      "Ġfe el",
      "Ġd uring",
      "t ed",
      "ic es",
      "ak es",
      "Ġc le",
      "Ð¾ Ð",
      "c ed",
      "Ġm ar",
      "Ġg ener",
      "Ġa way",
      "ant s",
      "Ġto ld",
      "ĠI f",
      "en se",
      "l ing",
      "Ġle ft",
      "r al",
      "Ġo ld",
      "Ġa v",
      "c on",
      "g ed",
      "et s",
      "Ġs oc",
      "Ġre port",
      "Ġsec ond",
      "Ġf il",
      "ri end",
      "ĠP ro",
      "Ã Ń",
      "ie ld",
      "a it",
      "Ġe t",
      "Ġc are",
      "Ġex per",
      "Ġde p",
      "ag es",
      "ĠThe re",
      "Ġf act",
      "Y ou",
      "e x",
      "w ays",
      "Ġunt il",
      "' m",
      "l ess",
      "Ġex pl",
      "ent ion",
      "Ġre st",
      "s on",
      "m in",
      "d uc",
      "Ġin f",
      "Ġcont in",
      "Ġde l",
      "Ġh ome",
      "os ed",
      "Ġde m",
      "un g",
      "Ġp oss",
      "i red",
      "Ġc ame",
      "Ġsm all",
      "m ed",
      "Ġb us",
      "Ġsy stem",
      "Ġh um",
      "in ess",
      "ĠI nd",
      "Ġbe h",
      ". '",
      "Ġgr oup",
      "Ã ¡",
      "Ġpol it",
      "_ _",
      "Ġm ust",
      "Ġs ince",
      "Ġle g",
      "uc k",
      "Ġbel ie",
      "Ġp ublic",
      "oh n",
      "Ġwith out",
      "or th",
      "ic ally",
      "is ed",
      "Ġ z",
      "Ġm ov",
      "at ure",
      "Ġto ok",
      "Ġ [",
      "Ġde velop",
      "an e",
      "Ġcall ed",
      "ur y",
      "al th",
      "Ġoff ic",
      "c hed",
      "Ġcomp le",
      "Ġdiffe rent",
      "Ġla w",
      "at a",
      "' ll",
      "i ally",
      "Ġl ater",
      "u ro",
      "Ġ Q",
      "Ġre ally",
      "Ġth ings",
      "Ġst ate",
      "iz e",
      "it al",
      "Ġb est",
      "Ġf our",
      "b ers",
      "Ġb ook",
      "en n",
      "le y",
      "Ġp ri",
      "Ġc or",
      "ĠB e",
      "ĠA t",
      "Ġ Â",
      "Ġp ower",
      "Ġw rit",
      "Ġqu est",
      "Ġwor d",
      "Ġne xt",
      "Ġst and",
      "ur al",
      "Ġdire ct",
      "ĠS c",
      "Ġres p",
      "em ent",
      "Ġh ard",
      "Ġm il",
      "ain ed",
      "at s",
      "r ist",
      "er ing",
      "ar ch",
      "ir d",
      "ate ly",
      "Ġs ays",
      "Ġ ide",
      "Ġsupp ort",
      "Ġpro du",
      "ĠO n",
      "he re",
      "Ġv ar",
      "Ġte ll",
      "Ġad v",
      "Ġcomm un",
      "ĠB l",
      "ĠAmeric an",
      "Ġpart ic",
      "Ġ2 0",
      "Ġh ist",
      "Ġim port",
      "iv ing",
      "Ġgovern ment",
      "ivers ity",
      "c o",
      "Ġw ent",
      "Ġop en",
      "ĠĠ Ċ",
      "Ġm ain",
      "Ġw ar",
      "Ġo pp",
      "ĠA d",
      "Ġm at",
      "ab ly",
      "ot t",
      "Ġ **",
      "Ġre qu",
      "r on",
      "Ġp op",
      "Ġal ways",
      "ert ain",
      "ro p",
      "ĠĠ ĠĠ",
      "ĠTh at",
      "ill ion",
      "r act",
      "Ġw ater",
      "Ġs w",
      "id ed",
      "Ġf riend",
      "Ġv al",
      "Ġke ep",
      "Ġbu ild",
      "Ġv is",
      "Ġm ark",
      "Ġf ar",
      "Ġs chool",
      ". ,",
      "Ġmon th",
      "em ber",
      "' ve",
      "ne w",
      "Ġas ked",
      "Ġb ig",
      "Ġn ame",
      "Ġg ame",
      "d e",
      "Ġfam ily",
      "a i",
      "g in",
      "i am",
      "Ġd ra",
      "Ġn ight",
      "Ġre le",
      "Ġs ide",
      "Ġnum ber",
      "Ġret urn",
      "ru ct",
      "iv ed",
      "Ġe le",
      "ion al",
      "el t",
      "b r",
      "Ġ i",
      "Ġp os",
      "g y",
      "ĠS p",
      "Th is",
      "ĠJ ohn",
      "E R",
      "v iew",
      "Ġl ist",
      "ĠG r",
      "Ġto p",
      "un e",
      "Ġf ace",
      "Ã ¶",
      "Ġd ri",
      "Ġro om",
      "i ver",
      "Ġf ull",
      "ord ing",
      "ch n",
      "ĠH ow",
      "al f",
      "a pp",
      "Ġcon st",
      "b y",
      "Ġa ir",
      "in c",
      "ur s",
      "2 0",
      "Ġth ough",
      "Ġin form",
      "olog y",
      "Ġm us",
      "ent ly",
      "ain s",
      "Ġ19 8",
      "ĠP h",
      "ra ph",
      "st and",
      "i or",
      "le t",
      "B ut",
      "Ġres ult",
      "Ġ1 5",
      "u red",
      "re en",
      "Ġl ight",
      "d en",
      "s c",
      "Ġb re",
      "Ġall ow",
      "Ġl o",
      "Ġm om",
      "Ġlar ge",
      "Ġbet ter",
      "Ġm ove",
      "gr am",
      "Ġl ess",
      "1 0",
      "e ad",
      "one y",
      "at ic",
      "Ġinclud ing",
      "re am",
      "Ġp at",
      "Ġen ough",
      "us ed",
      "s ide",
      "is ter",
      "Ġcont ro",
      "Ġp rom",
      "Ġ ve",
      "o on",
      "i ans",
      "om p",
      "id es",
      "s h",
      "Ġc amp",
      "iv en",
      "Ġ er",
      "Ġf un",
      "Ġt y",
      "Ġcl ass",
      "in al",
      "Ġ *",
      "Ġs ing",
      "Ġh ouse",
      "a im",
      "Ġey es",
      "Ġan n",
      "ĠC on",
      "m ber",
      "ren ce",
      "Ġpro f",
      "Ġ &",
      "Ġal ong",
      "Ġl ot",
      "Ġis s",
      "Ġwe ek",
      "ĠE ng",
      "Ġinte rest",
      "ur ch",
      "ĠO r",
      "l ish",
      "ĠC ol",
      "Ġpro ble",
      "Ġd r",
      "Ġth ing",
      "Ġe as",
      "u ed",
      "Ġinv est",
      "Ġ1 2",
      "m ost",
      "ĠY ork",
      "at or",
      "Ġl and",
      "m y",
      "ĠW hen",
      "ap s",
      "Ġs ol",
      "A nd",
      "Ġf ore",
      "Ġhim self",
      "ĠTr ump",
      "Ġ| |",
      "Ġyou ng",
      "Ġst at",
      "Ġd ays",
      "read y",
      "Ġp ast",
      "ĠUn ited",
      "Ġcount ry",
      "Ġp ost",
      "Ġwom en",
      "Ġc ase",
      "ot e",
      "re w",
      "ĠB r",
      "Ġ1 7",
      "o ber",
      "Ġ Î",
      "m b",
      "Ġme an",
      "Ġlook ed",
      "ĠA ll",
      "Ġor gan",
      "our s",
      "o ice",
      "is on",
      "ĠM ay",
      "aj or",
      "Ġo per",
      "Ġk ind",
      "ar ing",
      "iss ion",
      "ĠP l",
      "Ġkn own",
      "Ġo cc",
      "Ġc ity",
      "Ġs it",
      "Ġon ce",
      "ard s",
      "Ġpre v",
      "el s",
      "i um",
      "it her",
      "en g",
      "b s",
      "Ġk ill",
      "ir l",
      "ĠH is",
      "id er",
      "Ġpro cess",
      "W hat",
      "Ġe ver",
      "Ġinc re",
      "Ð »",
      "1 8",
      "op e",
      "ĠU S",
      "Ġre ce",
      "Ġapp ro",
      "enc y",
      "Ġal ready",
      "ĠC omm",
      "C h",
      "p le",
      "Ġdes c",
      "ver al",
      "Ġa ff",
      "Ġw in",
      "ri es",
      "con om",
      "od e",
      "on y",
      "Ġof ten",
      "Ã ¥",
      "ĠUn iversity",
      "Ġeff ect",
      "ĠS o",
      "get her",
      "Ġse ason",
      "er y",
      "Ġ19 7",
      "Ġ 0",
      "Ġcon c",
      "Ġwh y",
      "Ġbus iness",
      "S he",
      "o int",
      "cc ess",
      "Ġm ind",
      "oc r",
      "S t",
      "e e",
      "are nt",
      "Ġpl an",
      "ut es",
      "ĠG er",
      "u se",
      "Ġimport ant",
      "ar r",
      "Ġsu re",
      "in ing",
      "end ed",
      "Ġl ove",
      "uth or",
      "pe c",
      "Ġ1 6",
      "n a",
      "ĠN o",
      "ate g",
      "Ġe arly",
      "r ation",
      "p s",
      "Ġg ive",
      "Ġhum an",
      "Ġac ross",
      "Ġb as",
      "ak en",
      "Ã ¼",
      "Ġle ast",
      "Ġse en",
      "e b",
      "Ġdes ign",
      "Ġchild ren",
      "l er",
      "al ity",
      "Ġf ac",
      "amp le",
      "Ġw on",
      "Ġto ward",
      "Ġm or",
      "l ine",
      "Ġt alk",
      "Ġsa w",
      "Ġl ine",
      "Ġb ody",
      "Ġv iew",
      "Ġk new",
      "Ġd i",
      "W h",
      "Ġbec ome",
      "ĠR ep",
      "5 0",
      "Ġc e",
      "Ġt est",
      "Ġcour se",
      "c he",
      "Ġf ree",
      "ĠCh rist",
      "Ġus ing",
      "ĠE uro",
      "Ġc a",
      "Ġrec ord",
      "Ġatt ack",
      "Ġse veral",
      "Ġe lect",
      "Ġpro gram",
      "b all",
      "Ġor der",
      "Ġs ent",
      "ne y",
      "Ġw r",
      "o f",
      "Ġs al",
      "am a",
      "Ġch ang",
      "A s",
      "I N",
      "w w",
      "Ġ ri",
      "Ġbe gan",
      "Ġh old",
      "Ġde ath",
      "us h",
      "Ġbec ame",
      "Ġto gether",
      "Ġ1 1",
      "or ld",
      "Ġcomp any",
      "p or",
      "ĠM r",
      "l o",
      "Ã ¨",
      "Ġsh ort",
      "ĠP r",
      "Ġwith in",
      "Ġg row",
      "re et",
      "ãģ ®",
      "Ġbl ack",
      "Ġch ange",
      "Ġe qu",
      "Ġle vel",
      "Ġm aking",
      "as ter",
      "ĠB rit",
      "Ġc ertain",
      "iz ation",
      "iet y",
      "Ġab le",
      "Ġwant ed",
      "ac y",
      "Ġh alf",
      "or ies",
      "ĠH er",
      "Ġnew s",
      "o x",
      "pt ion",
      "ĠC an",
      "Ġt imes",
      "as es",
      "Ġnot hing",
      "is ing",
      "ad a",
      "it ions",
      "Ġbeh ind",
      "ro wn",
      "Ġme et",
      "Ġper form",
      "Ġt re",
      "Ġapp ear",
      "al d",
      "Ġt ri",
      "Ġd one",
      "u ff",
      "Ġte chn",
      "Ġmom ent",
      "Ġm oney",
      "3 0",
      "Ġp ay",
      "Ġsoc ial",
      "Ġs on",
      "Ġor ig",
      "ore d",
      "Ġen g",
      "ĠW hat",
      "Ġex pect",
      "Ġother s",
      "Ġt em",
      "end ing",
      "Ġm ajor",
      "Ġha ving",
      "Ġst ory",
      "if ied",
      "l ished",
      "Ġm id",
      "pl oy",
      "anc es",
      "z e",
      "i ber",
      "Ġunder stand",
      "Ġv i",
      "Ġinform ation",
      "Ġal most",
      "Ġf ather",
      "ul ation",
      "Ġdo or",
      "The re",
      "Ġ19 6",
      "a ut",
      "f ic",
      "ĠG od",
      "oc i",
      "Ġturn ed",
      "Ġp ain",
      "Ġpro te",
      "ĠS te",
      "Ġcl ose",
      "on es",
      "ĠSt ates",
      "Ġw ind",
      "Ġf elt",
      "g es",
      "Ġre se",
      "our n",
      "Ï Ħ",
      "ow s",
      "Ġchar ac",
      "Ġn on",
      "Ġwom an",
      "Ġpro p",
      "Ġf ive",
      "Ġst e",
      "Ġam ong",
      "ĠG o",
      "l f",
      "aug h",
      "! \"",
      "ĠÃ ł",
      "ĠC o",
      "f or",
      "res ent",
      "og raph",
      "Ġpro ject",
      "Ġ1 4",
      "Ġg iven",
      "Ġm other",
      "Ġpres ent",
      "Ġany thing",
      "ĠT e",
      "iv id",
      "Ġsu ccess",
      "m a",
      "Ġp ress",
      "ĠW ar",
      "Ġp ot",
      "Ġfollow ing",
      "Ġfr ont",
      "Ġe conom",
      "Ġy et",
      "y n",
      "il le",
      "Ġan t",
      "n ot",
      "st er",
      "r ict",
      "Ġtr ad",
      "Ġb it",
      "ious ly",
      "O n",
      "Ġd er",
      "Ġper cent",
      "Ġde v",
      "um ent",
      "g o",
      "Ġs ound",
      "Ġne ar",
      "ĠG e",
      "Ġcl aim",
      "ĠEuro pe",
      "th ough",
      "Ġwas n",
      "I f",
      "Ð º",
      "Ñ ĥ",
      "1 2",
      "Ġm illion",
      "Ġpolit ical",
      "Ġfor mer",
      "Î ±",
      "u ly",
      "ĠE l",
      "p ar",
      "Ġd ata",
      "am ed",
      "ie f",
      "a pe",
      "Ġj ob",
      "Ġquest ion",
      "_ .",
      "ĠE x",
      "w ork",
      "o ke",
      "Ġwork ing",
      "Ġdo ing",
      "Ġ1 3",
      "Ġhand s",
      "ag ue",
      "ri e",
      "il t",
      "Ġfil m",
      "ac ed",
      "Ġex ample",
      "Ġstart ed",
      "Ġare a",
      "O N",
      "Ġloc al",
      "Ġcon d",
      "ot s",
      "Ġin tern",
      "Ġa uthor",
      "am ent",
      "Ġcur rent",
      "ĠO ne",
      "sel ves",
      "Ġa ut",
      "ĠT o",
      "Ġpres ident",
      "2 01",
      "Ġpr act",
      "Ġc rit",
      "Ġp ub",
      "Ġev ent",
      "ĠM an",
      "Ġde al",
      "Ġwh ite",
      "Ġ vers",
      "ĠP res",
      "m p",
      "Ġa p",
      "a f",
      "i que",
      "Ġhe ld",
      "Ġhe alth",
      "ac es",
      "ct or",
      "Ġposs ible",
      "Ġd ie",
      "Ġc ut",
      "ĠM c",
      "r or",
      "um b",
      "Ġf oot",
      "Ġl es",
      "id ence",
      "t t",
      "Î ½",
      "Ġpro b",
      "i j",
      "Ġf all",
      "ed er",
      "Ġs ix",
      "Ġd a",
      "1 1",
      "A n",
      "c hes",
      "Ġg irl",
      "o le",
      "il i",
      "ir c",
      "a ff",
      "ac hed",
      "ĠE d",
      "Ġ X",
      "Ġb ar",
      "et h",
      "it er",
      "Ġd en",
      "Ġcontro l",
      "A R",
      "Ġc ult",
      "in ation",
      "Ġre ason",
      "ĠW orld",
      "Ġgr ound",
      "s y",
      "ull y",
      "ad o",
      "Ġf ood",
      "Ġan s",
      "Ġhist ory",
      "ĠC ent",
      "Ġ ver",
      "Ġlook ing",
      "ĠW ill",
      "2 00",
      "ou d",
      "Ġl im",
      "ĠGer man",
      "Ġf ur",
      "Ġstr ong",
      "Ġpri v",
      "is c",
      "ĠA m",
      "Ġel se",
[...]
