{
  "version": "1.0",
  "truncation": null,
  "padding": {
    "strategy": "BatchLongest",
    "direction": "Right",
    "pad_to_multiple_of": null,
    "pad_id": 0,
    "pad_type_id": 0,
    "pad_token": "<pad>"
  },
  "added_tokens": [
    {
      "id": 0,
      "special": true,
      "content": "<pad>",
      "single_word": false,
      "lstrip": false,
      "rstrip": false,
      "normalized": false
    },
    {
      "id": 1,
      "special": true,
      "content": "<unk>",
      "single_word": false,
      "lstrip": false,
      "rstrip": false,
      "normalized": false
    },
    {
      "id": 2,
      "special": true,
      "content": "</s>",
      "single_word": false,
      "lstrip": false,
      "rstrip": false,
      "normalized": false
    }
  ],
  "normalizer": null,
  "pre_tokenizer": {
    "type": "ByteLevel",
    "add_prefix_space": true,
    "trim_offsets": true
  },
  "post_processor": {
    "type": "TemplateProcessing",
    "single": [
      {
        "SpecialToken": {
          "id": "</s>",
          "type_id": 0
        }
      },
      {
        "Sequence": {
          "id": "A",
          "type_id": 0
        }
      },
      {
        "SpecialToken": {
          "id": "</s>",
          "type_id": 0
        }
      }
    ],
    "pair": [
      {
        "SpecialToken": {
          "id": "</s>",
          "type_id": 0
        }
      },
      {
        "Sequence": {
          "id": "A",
          "type_id": 0
        }
      },
      {
        "SpecialToken": {
          "id": "</s>",
          "type_id": 0
        }
      },
      {
        "Sequence": {
          "id": "B",
          "type_id": 1
        }
      },
      {
        "SpecialToken": {
          "id": "</s>",
          "type_id": 1
        }
      }
    ],
    "special_tokens": {
      "</s>": {
        "id": "</s>",
        "ids": [
          2
        ],
        "tokens": [
          "</s>"
        ]
      }
    }
  },
  "decoder": {
    "type": "ByteLevel",
    "add_prefix_space": true,
    "trim_offsets": true
  },
  "model": {
    "dropout": null,
    "unk_token": null,
    "continuing_subword_prefix": null,
    "end_of_word_suffix": null,
    "fuse_unk": false,
    "vocab": {
      "<pad>": 0,
      "<unk>": 1,
      "</s>": 2,
      "!": 3,
      "\"": 4,
      "#": 5,
      "$": 6,
      "%": 7,
      "&": 8,
      "'": 9,
      "(": 10,
      ")": 11,
      "*": 12,
      "+": 13,
      ",": 14,
      "-": 15,
      ".": 16,
      "/": 17,
      "0": 18,
      "1": 19,
      "2": 20,
      "3": 21,
      "4": 22,
      "5": 23,
      "6": 24,
      "7": 25,
      "8": 26,
      "9": 27,
      ":": 28,
      ";": 29,
      "<": 30,
      "=": 31,
      ">": 32,
      "?": 33,
      "@": 34,
      "A": 35,
      "B": 36,
      "C": 37,
      "D": 38,
      "E": 39,
      "F": 40,
      "G": 41,
      "H": 42,
      "I": 43,
      "J": 44,
      "K": 45,
      "L": 46,
      "M": 47,
      "N": 48,
      "O": 49,
      "P": 50,
      "Q": 51,
      "R": 52,
      "S": 53,
      "T": 54,
      "U": 55,
      "V": 56,
      "W": 57,
      "X": 58,
      "Y": 59,
      "Z": 60,
      "[": 61,
      "\\": 62,
      "]": 63,
      "^": 64,
      "_": 65,
      "`": 66,
      "a": 67,
      "b": 68,
      "c": 69,
      "d": 70,
      "e": 71,
      "f": 72,
      "g": 73,
      "h": 74,
      "i": 75,
      "j": 76,
      "k": 77,
      "l": 78,
      "m": 79,
      "n": 80,
      "o": 81,
      "p": 82,
      "q": 83,
      "r": 84,
      "s": 85,
      "t": 86,
      "u": 87,
      "v": 88,
      "w": 89,
      "x": 90,
      "y": 91,
      "z": 92,
      "{": 93,
      "|": 94,
      "}": 95,
      "~": 96,
      "¡": 97,
      "¢": 98,
      "£": 99,
      "¤": 100,
      "¥": 101,
      "¦": 102,
      "§": 103,
      "¨": 104,
      "©": 105,
      "ª": 106,
      "«": 107,
      "¬": 108,
      "®": 109,
      "¯": 110,
      "°": 111,
      "±": 112,
      "²": 113,
      "³": 114,
      "´": 115,
      "µ": 116,
      "¶": 117,
      "·": 118,
      "¸": 119,
      "¹": 120,
      "º": 121,
      "»": 122,
      "¼": 123,
      "½": 124,
      "¾": 125,
      "¿": 126,
      "À": 127,
      "Á": 128,
      "Â": 129,
      "Ã": 130,
      "Ä": 131,
      "Å": 132,
      "Æ": 133,
      "Ç": 134,
      "È": 135,
      "É": 136,
      "Ê": 137,
      "Ë": 138,
      "Ì": 139,
      "Í": 140,
      "Î": 141,
      "Ï": 142,
      "Ð": 143,
      "Ñ": 144,
      "Ò": 145,
      "Ó": 146,
      "Ô": 147,
      "Õ": 148,
      "Ö": 149,
      "×": 150,
      "Ø": 151,
      "Ù": 152,
      "Ú": 153,
      "Û": 154,
      "Ü": 155,
      "Ý": 156,
      "Þ": 157,
      "ß": 158,
      "à": 159,
      "á": 160,
      "â": 161,
      "ã": 162,
      "ä": 163,
      "å": 164,
      "æ": 165,
      "ç": 166,
      "è": 167,
      "é": 168,
      "ê": 169,
      "ë": 170,
      "ì": 171,
      "í": 172,
      "î": 173,
      "ï": 174,
      "ð": 175,
      "ñ": 176,
      "ò": 177,
      "ó": 178,
      "ô": 179,
      "õ": 180,
      "ö": 181,
      "÷": 182,
      "ø": 183,
      "ù": 184,
      "ú": 185,
      "û": 186,
      "ü": 187,
      "ý": 188,
      "þ": 189,
      "ÿ": 190,
      "Ā": 191,
      "ā": 192,
      "Ă": 193,
      "ă": 194,
      "Ą": 195,
      "ą": 196,
      "Ć": 197,
      "ć": 198,
      "Ĉ": 199,
      "ĉ": 200,
      "Ċ": 201,
      "ċ": 202,
      "Č": 203,
      "č": 204,
      "Ď": 205,
      "ď": 206,
      "Đ": 207,
      "đ": 208,
      "Ē": 209,
      "ē": 210,
      "Ĕ": 211,
      "ĕ": 212,
      "Ė": 213,
      "ė": 214,
      "Ę": 215,
      "ę": 216,
      "Ě": 217,
      "ě": 218,
      "Ĝ": 219,
      "ĝ": 220,
      "Ğ": 221,
      "ğ": 222,
      "Ġ": 223,
      "ġ": 224,
      "Ģ": 225,
      "ģ": 226,
      "Ĥ": 227,
      "ĥ": 228,
      "Ħ": 229,
      "ħ": 230,
      "Ĩ": 231,
      "ĩ": 232,
      "Ī": 233,
      "ī": 234,
      "Ĭ": 235,
      "ĭ": 236,
      "Į": 237,
      "į": 238,
      "İ": 239,
      "ı": 240,
      "Ĳ": 241,
      "ĳ": 242,
      "Ĵ": 243,
      "ĵ": 244,
      "Ķ": 245,
      "ķ": 246,
      "ĸ": 247,
      "Ĺ": 248,
      "ĺ": 249,
      "Ļ": 250,
      "ļ": 251,
      "Ľ": 252,
      "ľ": 253,
      "Ŀ": 254,
      "ŀ": 255,
      "Ł": 256,
      "ł": 257,
      "Ń": 258,
      "Ġt": 259,
      "he": 260,
      "Ġa": 261,
      "in": 262,
      "re": 263,
      "Ġthe": 264,
      "on": 265,
      "Ġs": 266,
      "er": 267,
      "Ġw": 268,
      "Ġo": 269,
      "at": 270,
      "en": 271,
      "an": 272,
      "Ġc": 273,
      "it": 274,
      "is": 275,
      "ed": 276,
      "Ġb": 277,
      "or": 278,
      "es": 279,
      "Ġf": 280,
      "ou": 281,
      "Ġp": 282,
      "ing": 283,
      "nd": 284,
      "ar": 285,
      "Ġm": 286,
      "al": 287,
      "Ġof": 288,
      "Ġd": 289,
      "Ġto": 290,
      "Ġh": 291,
      "Ġin": 292,
      "as": 293,
      "Ġand": 294,
      "ic": 295,
      "le": 296,
      "Ġth": 297,
      "om": 298,
      "ion": 299,
      "Ġl": 300,
      "Ġn": 301,
      "ll": 302,
      "ent": 303,
      "Ġe": 304,
      "st": 305,
      "Ġre": 306,
      "ro": 307,
      "âĢ": 308,
      "Ġg": 309,
      "ve": 310,
      "ly": 311,
      "id": 312,
      "ad": 313,
      "Ġbe": 314,
      "ĠI": 315,
      "ac": 316,
      "ut": 317,
      "ĠT": 318,
      "ot": 319,
      "ĠS": 320,
      "Ġhe": 321,
      "im": 322,
      "et": 323,
      "Ġon": 324,
      "ĠA": 325,
      "am": 326,
      "ow": 327,
      "se": 328,
      "ig": 329,
      "ay": 330,
      "ur": 331,
      "ld": 332,
      "ĠC": 333,
      "Ġthat": 334,
      "Ġu": 335,
      "Ġfor": 336,
      "ver": 337,
      "Ġy": 338,
      "Ġis": 339,
      "ir": 340,
      "Ġst": 341,
      "ct": 342,
      "Ġwas": 343,
      "ĠM": 344,
      "il": 345,
      "Ġit": 346,
      "ith": 347,
      "ol": 348,
      "Ġas": 349,
      "ch": 350,
      "ce": 351,
      "ĠB": 352,
      "ter": 353,
      "Ġwh": 354,
      "ation": 355,
      "Ġwith": 356,
      "Ġde": 357,
      "Ġwe": 358,
      "ĠH": 359,
      "Ġan": 360,
      "Ġ1": 361,
      "Ġyou": 362,
      "ĠP": 363,
      "ri": 364,
      "her": 365,
      "and": 366,
      "'s": 367,
      "ke": 368,
      "Ġ(": 369,
      "ra": 370,
      "Ġat": 371,
      "ill": 372,
      "Ġcon": 373,
      "Ġse": 374,
      "if": 375,
      "us": 376,
      "ĠThe": 377,
      "ge": 378,
      "ul": 379,
      "ĠW": 380,
      "ht": 381,
      "ĠD": 382,
      "ers": 383,
      "ist": 384,
      "od": 385,
      "ĠR": 386,
      "pp": 387,
      "est": 388,
      "os": 389,
      "qu": 390,
      "em": 391,
      "un": 392,
      "ore": 393,
      "um": 394,
      "rom": 395,
      "ĠF": 396,
      "Ġv": 397,
      "th": 398,
      "Ġr": 399,
      "Ġha": 400,
      "ate": 401,
      "ĠL": 402,
      "Ġ2": 403,
      "el": 404,
      "Ġhis": 405,
      "Ġ\"": 406,
      "Ġcom": 407,
      "ĠG": 408,
      "ain": 409,
      "op": 410,
      "ant": 411,
      "Ġpro": 412,
      "res": 413,
      "ould": 414,
      "ĠN": 415,
      "ab": 416,
      "ess": 417,
      "âĢĻ": 418,
      "Ġne": 419,
      "Ġor": 420,
      "Ġnot": 421,
      "Ġby": 422,
      "ĠE": 423,
      "Ġal": 424,
      "Ġfrom": 425,
      "ie": 426,
      "Ġex": 427,
      "Ġare": 428,
      "ight": 429,
      "oc": 430,
      "red": 431,
      "Ġsu": 432,
      "Ġsh": 433,
      "Ġle": 434,
      "art": 435,
      "ĠJ": 436,
      "ity": 437,
      "ort": 438,
      "ĠâĢ": 439,
      "nt": 440,
      "all": 441,
      "ive": 442,
      "Ġk": 443,
      "Ġhad": 444,
      "ard": 445,
      "Ġch": 446,
      "pe": 447,
      "ust": 448,
      "Ġhave": 449,
      "ment": 450,
      "end": 451,
      "iv": 452,
      "ies": 453,
      "Ġsa": 454,
      "Ġher": 455,
      "ack": 456,
      "out": 457,
      "our": 458,
      "The": 459,
      "ok": 460,
      "ĠO": 461,
      "Ġthis": 462,
      "oug": 463,
      "Ġj": 464,
      "ak": 465,
      "ast": 466,
      "Ġab": 467,
      "ag": 468,
      "Ġme": 469,
      "ome": 470,
      "Ġpl": 471,
      "00": 472,
      "ap": 473,
      "ud": 474,
      "Ġdo": 475,
      "ich": 476,
      "Ġbut": 477,
      "te": 478,
      "ally": 479,
      "Ġgo": 480,
      "Ġwor": 481,
      "ost": 482,
      "ãģ": 483,
      ".\"": 484,
      "Ġwhe": 485,
      "ound": 486,
      "Ġall": 487,
      "ong": 488,
      "ide": 489,
      "Ġthey": 490,
      "Ġwere": 491,
      "ous": 492,
      "ear": 493,
      "ine": 494,
      "Ġout": 495,
      "Ġar": 496,
      "ure": 497,
      "Ġ19": 498,
      "ĠK": 499,
      "ia": 500,
      "ame": 501,
      "pt": 502,
      "Ġtr": 503,
      "Ġshe": 504,
      "ber": 505,
      "ther": 506,
      "ans": 507,
      "Ġso": 508,
      "Ġwho": 509,
      "Ġcan": 510,
      "one": 511,
      "ĠU": 512,
      "Ġup": 513,
      "Ġun": 514,
      "Ġsaid": 515,
      "Ġqu": 516,
      "ff": 517,
      "ind": 518,
      "to": 519,
      "Ġen": 520,
      "'t": 521,
      "Ġtheir": 522,
      "ip": 523,
      "ial": 524,
      "Ġ_": 525,
      "Ġone": 526,
      "ice": 527,
      "Ġhas": 528,
      "ough": 529,
      "og": 530,
      "ated": 531,
      "ook": 532,
      "ne": 533,
      "Ġcl": 534,
      "ions": 535,
      "ike": 536,
      "ĠHe": 537,
      "are": 538,
      "age": 539,
      "au": 540,
      "pl": 541,
      "Ġwould": 542,
      "Ġhim": 543,
      "Ġmy": 544,
      "act": 545,
      "iz": 546,
      "ime": 547,
      "Ġwhich": 548,
      "ry": 549,
      "ace": 550,
      "ue": 551,
      "Ġim": 552,
      "ass": 553,
      "Ġman": 554,
      "av": 555,
      "Ġwill": 556,
      "ep": 557,
      "Ġad": 558,
      "ary": 559,
      "âĢĿ": 560,
      "Ġmore": 561,
      "ĠĠ": 562,
      "Ġus": 563,
      "Ã©": 564,
      "ub": 565,
      "ake": 566,
      "Ġabout": 567,
      "Ġte": 568,
      "ĠIn": 569,
      "Ġag": 570,
      "cc": 571,
      "Ġbeen": 572,
      "per": 573,
      "very": 574,
      "ire": 575,
      "**": 576,
      "ĠTh": 577,
      "ian": 578,
      "ven": 579,
      "Ġthem": 580,
      "own": 581,
      "Ġcont": 582,
      "Ġsp": 583,
      "01": 584,
      "ite": 585,
      "ond": 586,
      "ord": 587,
      "Ġfe": 588,
      "ose": 589,
      "ĠV": 590,
      "ĠSt": 591,
      "ĠCh": 592,
      "Ġcomp": 593,
      "ib": 594,
      "Ġoff": 595,
      "so": 596,
      "ign": 597,
      "Ġyour": 598,
      "Ġno": 599,
      "ĠIt": 600,
      "ru": 601,
      "able": 602,
      "Ġlike": 603,
      "ĠY": 604,
      "hed": 605,
      "cl": 606,
      "ish": 607,
      "ical": 608,
      "ress": 609,
      "mer": 610,
      "Ġinto": 611,
      "Ġper": 612,
      "ect": 613,
      "Ġother": 614,
      "ick": 615,
      "Ġover": 616,
      ",\"": 617,
      "Ġthere": 618,
      "ence": 619,
      "ach": 620,
      "ile": 621,
      "Ġpe": 622,
      "Ġro": 623,
      "âĢĶ": 624,
      "Ġdis": 625,
      "ance": 626,
      "ays": 627,
      "Ġres": 628,
      "Ġkn": 629,
      "Ġsome": 630,
      "Ġwhen": 631,
      "wn": 632,
      "ult": 633,
      "Ġtw": 634,
      "fter": 635,
      "Ġwhat": 636,
      "ang": 637,
      "Ġpart": 638,
      "orm": 639,
      "ations": 640,
      "Ġsc": 641,
      "ory": 642,
      "Ġbec": 643,
      "Ġapp": 644,
      "ens": 645,
      "uc": 646,
      "ks": 647,
      "Ġtime": 648,
      "ree": 649,
      "ction": 650,
      "ount": 651,
      "ĠâĢľ": 652,
      "ren": 653,
      "Ġcould": 654,
      "ove": 655,
      "Ġany": 656,
      "reat": 657,
      "Ġgr": 658,
      "Ġla": 659,
      "ade": 660,
      "Ġ3": 661,
      "irst": 662,
      "Ġalso": 663,
      "Ġif": 664,
      "int": 665,
      "Ġ201": 666,
      "Ġthan": 667,
      "Ġyear": 668,
      "ings": 669,
      "Ġits": 670,
      "we": 671,
      "ood": 672,
      "ark": 673,
      "Ġbl": 674,
      "sel": 675,
      "rit": 676,
      "ov": 677,
      "Ġdes": 678,
      "fe": 679,
      "Ġpr": 680,
      "Ġdid": 681,
      "urn": 682,
      "..": 683,
      "ase": 684,
      "ople": 685,
      "Ġund": 686,
      "ink": 687,
      "Ġpre": 688,
      "Ġco": 689,
      "vel": 690,
      "Ġjust": 691,
      "Ġrec": 692,
      "ition": 693,
      "ild": 694,
      "hing": 695,
      "Ġback": 696,
      "port": 697,
      "ĠâĢĵ": 698,
      "ater": 699,
      "ors": 700,
      "Ġwork": 701,
      "Ġnew": 702,
      "ict": 703,
      "Ġfirst": 704,
      "vers": 705,
      "ft": 706,
      "ĠÐ": 707,
      "ob": 708,
      "ious": 709,
      "ail": 710,
      "ons": 711,
      "ãĤ": 712,
      "Ġget": 713,
      "erv": 714,
      "Ġ'": 715,
      "ents": 716,
      "Ġonly": 717,
      "Ġtwo": 718,
      "Ġfl": 719,
      "Ġpeople": 720,
      "amp": 721,
      "Ġpo": 722,
      "âĢĵ": 723,
      "oy": 724,
      "Ġafter": 725,
      "itt": 726,
      "),": 727,
      "ew": 728,
      "Ġatt": 729,
      "Ġour": 730,
      "les": 731,
      "iss": 732,
      "Ġknow": 733,
      "anc": 734,
      "ause": 735,
      "Ġagain": 736,
      "lic": 737,
      "Ġcomm": 738,
      "Ġbet": 739,
      "Ġhow": 740,
      "Ġspe": 741,
      "hen": 742,
      "Ġ,": 743,
      "ull": 744,
      "Ġthen": 745,
      "Ġam": 746,
      ").": 747,
      "Ġlook": 748,
      "ates": 749,
      "fore": 750,
      "ell": 751,
      "Ġunder": 752,
      "ph": 753,
      "rough": 754,
      "man": 755,
      "ied": 756,
      "form": 757,
      "oll": 758,
      "ath": 759,
      "ec": 760,
      "Ġ4": 761,
      "ual": 762,
      "Ġacc": 763,
      "igh": 764,
      "Ġsee": 765,
      "Ð¾": 766,
      "other": 767,
      "ont": 768,
      "ning": 769,
      "ident": 770,
      "tern": 771,
      "Ġsm": 772,
      "Ġact": 773,
      "uch": 774,
      "ĠUn": 775,
      "old": 776,
      "Ġwant": 777,
      "Ġpol": 778,
      "Ġ|": 779,
      "Ġeven": 780,
      "Ġnow": 781,
      "Ġthrough": 782,
      "Ġmost": 783,
      "ock": 784,
      "ward": 785,
      "Ġrem": 786,
      "ily": 787,
      "ife": 788,
      "self": 789,
      "ise": 790,
      "Ġdown": 791,
      "?\"": 792,
      "hat": 793,
      "ss": 794,
      "Ġbr": 795,
      "Ġind": 796,
      "Ġplay": 797,
      "Ġ200": 798,
      "Ġwhere": 799,
      "Ġcons": 800,
      "ng": 801,
      "Ġem": 802,
      "xt": 803,
      "ĠShe": 804,
      "way": 805,
      "Ġway": 806,
      "oss": 807,
      "Ġsec": 808,
      "ier": 809,
      "Ġevery": 810,
      "row": 811,
      "Ġ5": 812,
      "ought": 813,
      "In": 814,
      "Ġrel": 815,
      "enc": 816,
      "oth": 817,
      "ational": 818,
      "ãĥ": 819,
      "ĠBut": 820,
      "Ġac": 821,
      "ĠAnd": 822,
      "Ġhand": 823,
      "Ġneed": 824,
      "clud": 825,
      "rent": 826,
      "Ġbefore": 827,
      "Ġlong": 828,
      "und": 829,
      "Ġ-": 830,
      "up": 831,
      "Ġown": 832,
      "ert": 833,
      "lect": 834,
      "rib": 835,
      "Ġyears": 836,
      "Ġcall": 837,
      "ty": 838,
      "led": 839,
      "ited": 840,
      "omet": 841,
      "Ġinv": 842,
      "ather": 843,
      "gr": 844,
      "io": 845,
      "ked": 846,
      "Ġright": 847,
      "du": 848,
      "ject": 849,
      "Ġmade": 850,
      "Ġmay": 851,
      "pect": 852,
      "Ġthese": 853,
      "ug": 854,
      "land": 855,
      "Ġra": 856,
      "ating": 857,
      "Ġbecause": 858,
      "Ð°": 859,
      "Ġmake": 860,
      "Ġdon": 861,
      "aking": 862,
      "Ġshould": 863,
      "ĠĊ": 864,
      "19": 865,
      "Ġent": 866,
      "orn": 867,
      "Ġwell": 868,
      "Ġinc": 869,
      "Ġsl": 870,
      "Ġdec": 871,
      "Ðµ": 872,
      "ah": 873,
      "Ġtra": 874,
      "Ġthink": 875,
      "ĠWe": 876,
      "Ġdif": 877,
      "Ġpres": 878,
      "Ġph": 879,
      "gan": 880,
      "arly": 881,
      "uring": 882,
      "Ġsur": 883,
      "hes": 884,
      "Ġev": 885,
      "ower": 886,
      "ange": 887,
      "meric": 888,
      "Ġmuch": 889,
      "olog": 890,
      "Ġreg": 891,
      "Ġass": 892,
      "ĠThis": 893,
      "Ġke": 894,
      "ten": 895,
      "als": 896,
      "Ġend": 897,
      "Ġadd": 898,
      "ix": 899,
      "ful": 900,
      "ars": 901,
      "##": 902,
      "air": 903,
      "Ġsupp": 904,
      "oup": 905,
      "Ġbeing": 906,
      "Ġmany": 907,
      "ting": 908,
      "ener": 909,
      "get": 910,
      "Ġsy": 911,
      "Ġbu": 912,
      "ins": 913,
      "Ġ.": 914,
      "ave": 915,
      "Ġvery": 916,
      "ble": 917,
      "Ġimp": 918,
      "ative": 919,
      "Ġsuch": 920,
      "Ġfin": 921,
      "ism": 922,
      "Ġinclud": 923,
      "Ã¤": 924,
      "ublic": 925,
      "Ġob": 926,
      "az": 927,
      "ased": 928,
      "ters": 929,
      "Ġbel": 930,
      "ered": 931,
      "ouse": 932,
      "ool": 933,
      "ities": 934,
      "ible": 935,
      "ics": 936,
      "Ġop": 937,
      "ince": 938,
      "ĠRe": 939,
      "Ġsay": 940,
      "iet": 941,
      "ific": 942,
      "ĠNew": 943,
      "Ġmin": 944,
      "ween": 945,
      "ĠAl": 946,
      "Ġel": 947,
      "ork": 948,
      "erson": 949,
      "iew": 950,
      "Ġcol": 951,
      "Ġgood": 952,
      "ĠAr": 953,
      "Ġgu": 954,
      "Ġset": 955,
      "Ġ18": 956,
      "Ġsub": 957,
      "ason": 958,
      "ms": 959,
      "Ð¸": 960,
      "Ġthose": 961,
      "ĠAmeric": 962,
      "hip": 963,
      "Ġstill": 964,
      "ĠâĢĶ": 965,
      "ale": 966,
      "Ġ6": 967,
      "ient": 968,
      "ank": 969,
      "ĠAn": 970,
      "Ġcar": 971,
      "Ġbetween": 972,
      "day": 973,
      "vern": 974,
      "Ġret": 975,
      "ĠLe": 976,
      "ollow": 977,
      "ts": 978,
      "Ġhere": 979,
      "ys": 980,
      "ĠSe": 981,
      "pr": 982,
      "oh": 983,
      "ĠDe": 984,
      "ern": 985,
      "Ġaround": 986,
      "Ġhead": 987,
      "ved": 988,
      "its": 989,
      "Ġhel": 990,
      "He": 991,
      "ĠÃ": 992,
      "ĠMar": 993,
      "ĠTr": 994,
      "oun": 995,
      "Ġsomet": 996,
      "ÑĤ": 997,
      "ĠYou": 998,
      "ared": 999,
      "'d": 1000,
      "Ġfound": 1001,
      "Ġstart": 1002,
      "ĠThey": 1003,
      "Ġuse": 1004,
      "Ġfam": 1005,
      "Ġinter": 1006,
      "Ġinst": 1007,
      "It": 1008,
      "Ġmon": 1009,
      "gg": 1010,
      "Ġlast": 1011,
      "omm": 1012,
      "read": 1013,
      "Ġworld": 1014,
      "ump": 1015,
      ".âĢĿ": 1016,
      "Ġche": 1017,
      "imes": 1018,
      "cess": 1019,
      "Ġwhile": 1020,
      "cept": 1021,
      "Ġshow": 1022,
      "Ġins": 1023,
      "Ġfr": 1024,
      "Ġcount": 1025,
      "Ġcr": 1026,
      "ures": 1027,
      "Ġagainst": 1028,
      "Ġgoing": 1029,
      "alk": 1030,
      "ments": 1031,
      "ually": 1032,
      "Ġstud": 1033,
      "Ġstr": 1034,
      "ik": 1035,
      "Ġque": 1036,
      "Ġgl": 1037,
      "Ġter": 1038,
      "ĠAs": 1039,
      "ck": 1040,
      "the": 1041,
      "Th": 1042,
      "Ġtake": 1043,
      "ces": 1044,
      "Ġturn": 1045,
      "Ġsame": 1046,
      "uss": 1047,
      "Ġlife": 1048,
      "ness": 1049,
      "rest": 1050,
      "Ġtoo": 1051,
      "Ġday": 1052,
      "pped": 1053,
      "Ġtrans": 1054,
      "Ġthree": 1055,
      "Ġser": 1056,
      "Ġwom": 1057,
      "aw": 1058,
      "Ġhelp": 1059,
      "Ġint": 1060,
      "Ġpoint": 1061,
      "Ġdoes": 1062,
      "ner": 1063,
      "Ġserv": 1064,
      "Ġsim": 1065,
      "Ġmed": 1066,
      "Ġcent": 1067,
      "Ġdef": 1068,
      "der": 1069,
      "ility": 1070,
      "Ġdisc": 1071,
      "ues": 1072,
      "ines": 1073,
      "oot": 1074,
      "ivers": 1075,
      "ittle": 1076,
      "ists": 1077,
      "Ġfollow": 1078,
      "ek": 1079,
      "arm": 1080,
      "any": 1081,
      "Ġmem": 1082,
      "ric": 1083,
      "Ġest": 1084,
      "ution": 1085,
      "ross": 1086,
      "Ġreal": 1087,
      "atch": 1088,
      "--": 1089,
      "Ġcap": 1090,
      "Ġ7": 1091,
      "ular": 1092,
      "âĢľ": 1093,
      "Ġeff": 1094,
      "Ġexp": 1095,
      "ene": 1096,
      "Ġnum": 1097,
      "ĠSh": 1098,
      "ton": 1099,
      "Ġnever": 1100,
      "aj": 1101,
      "Ġdet": 1102,
      "arl": 1103,
      "Ġgreat": 1104,
      "ever": 1105,
      "ives": 1106,
      "Ġused": 1107,
      "Ġlead": 1108,
      "ret": 1109,
      "Ġdiffe": 1110,
      "Ġhigh": 1111,
      "Ġrep": 1112,
      "ody": 1113,
      "Ġboth": 1114,
      "ined": 1115,
      "ãĢ": 1116,
      ",âĢĿ": 1117,
      "ving": 1118,
      "Ġinte": 1119,
      "chool": 1120,
      "ax": 1121,
      "uth": 1122,
      "ann": 1123,
      "ished": 1124,
      "Ġref": 1125,
      "Ġspec": 1126,
      "Ð½": 1127,
      "Ġbro": 1128,
      "Ġdist": 1129,
      "Ġ$": 1130,
      "Ġcour": 1131,
      "'re": 1132,
      "Ġsign": 1133,
      "ying": 1134,
      "Ġprov": 1135,
      "Ġform": 1136,
      "Ġmod": 1137,
      "Ġes": 1138,
      "Ñģ": 1139,
      "be": 1140,
      "aug": 1141,
      "stem": 1142,
      "att": 1143,
      "ened": 1144,
      "Ġmet": 1145,
      "Ġdidn": 1146,
      "Ġchar": 1147,
      "Ġfind": 1148,
      "Ġ8": 1149,
      "ried": 1150,
      "Ġread": 1151,
      "com": 1152,
      "thing": 1153,
      "Ġdire": 1154,
      "arn": 1155,
      "Ġlar": 1156,
      "ĠFr": 1157,
      "Ġpass": 1158,
      "ÑĢ": 1159,
      "ames": 1160,
      "ĠWh": 1161,
      "me": 1162,
      "Ġext": 1163,
      "Ġloc": 1164,
      "ision": 1165,
      "Ġcome": 1166,
      "Ġanother": 1167,
      "Ġed": 1168,
      "Ġrun": 1169,
      "Ġcre": 1170,
      "ized": 1171,
      "Ġlittle": 1172,
      "velop": 1173,
      "Ġlet": 1174,
      "Ġperson": 1175,
      "Ġchild": 1176,
      "Ġmight": 1177,
      "Ġthought": 1178,
      "Ġgovern": 1179,
      "Ġeach": 1180,
      "Ġhapp": 1181,
      "cent": 1182,
      "Ġconf": 1183,
      "000": 1184,
      "outh": 1185,
      "Ġunt": 1186,
      "Ġseem": 1187,
      "ves": 1188,
      "ute": 1189,
      "ience": 1190,
      "Ġ10": 1191,
      "Ġsomething": 1192,
      "ger": 1193,
      "Ġcur": 1194,
      "Ġfew": 1195,
      "Ġ199": 1196,
      "Ġpar": 1197,
      "...": 1198,
      "Ġplace": 1199,
      "ĠCl": 1200,
      "Ġbo": 1201,
      "ash": 1202,
      "ĠZ": 1203,
      "que": 1204,
      "Ġ9": 1205,
      "Ġgot": 1206,
      "We": 1207,
      "ĠIs": 1208,
      "Ġsk": 1209,
      "Ġteam": 1210,
      "ĠFor": 1211,
      "Ġmen": 1212,
      "Ġart": 1213,
      "Ġey": 1214,
      "Ġput": 1215,
      "ina": 1216,
      "Ã³": 1217,
      "Ġfeel": 1218,
      "Ġduring": 1219,
      "ted": 1220,
      "ices": 1221,
      "akes": 1222,
      "Ġcle": 1223,
      "Ð¾Ð": 1224,
      "ced": 1225,
      "Ġmar": 1226,
      "Ġgener": 1227,
      "Ġaway": 1228,
      "ants": 1229,
      "Ġtold": 1230,
      "ĠIf": 1231,
      "ense": 1232,
      "ling": 1233,
      "Ġleft": 1234,
      "ral": 1235,
      "Ġold": 1236,
      "Ġav": 1237,
      "con": 1238,
      "ged": 1239,
      "ets": 1240,
      "Ġsoc": 1241,
      "Ġreport": 1242,
      "Ġsecond": 1243,
      "Ġfil": 1244,
      "riend": 1245,
      "ĠPro": 1246,
      "ÃŃ": 1247,
      "ield": 1248,
      "ait": 1249,
      "Ġet": 1250,
      "Ġcare": 1251,
      "Ġexper": 1252,
      "Ġdep": 1253,
      "ages": 1254,
      "ĠThere": 1255,
      "Ġfact": 1256,
      "You": 1257,
      "ex": 1258,
      "ways": 1259,
      "Ġuntil": 1260,
      "'m": 1261,
      "less": 1262,
      "Ġexpl": 1263,
      "ention": 1264,
      "Ġrest": 1265,
      "son": 1266,
      "min": 1267,
      "duc": 1268,
      "Ġinf": 1269,
      "Ġcontin": 1270,
      "Ġdel": 1271,
      "Ġhome": 1272,
      "osed": 1273,
      "Ġdem": 1274,
      "ung": 1275,
      "Ġposs": 1276,
      "ired": 1277,
      "Ġcame": 1278,
      "Ġsmall": 1279,
      "med": 1280,
      "Ġbus": 1281,
      "Ġsystem": 1282,
      "Ġhum": 1283,
      "iness": 1284,
      "ĠInd": 1285,
      "Ġbeh": 1286,
      ".'": 1287,
      "Ġgroup": 1288,
      "Ã¡": 1289,
      "Ġpolit": 1290,
      "__": 1291,
      "Ġmust": 1292,
      "Ġsince": 1293,
      "Ġleg": 1294,
      "uck": 1295,
      "Ġbelie": 1296,
      "Ġpublic": 1297,
      "ohn": 1298,
      "Ġwithout": 1299,
      "orth": 1300,
      "ically": 1301,
      "ised": 1302,
      "Ġz": 1303,
      "Ġmov": 1304,
      "ature": 1305,
      "Ġtook": 1306,
      "Ġ[": 1307,
      "Ġdevelop": 1308,
      "ane": 1309,
      "Ġcalled": 1310,
      "ury": 1311,
      "alth": 1312,
      "Ġoffic": 1313,
      "ched": 1314,
      "Ġcomple": 1315,
      "Ġdifferent": 1316,
      "Ġlaw": 1317,
      "ata": 1318,
      "'ll": 1319,
      "ially": 1320,
      "Ġlater": 1321,
      "uro": 1322,
      "ĠQ": 1323,
      "Ġreally": 1324,
      "Ġthings": 1325,
      "Ġstate": 1326,
      "ize": 1327,
      "ital": 1328,
      "Ġbest": 1329,
      "Ġfour": 1330,
      "bers": 1331,
      "Ġbook": 1332,
      "enn": 1333,
      "ley": 1334,
      "Ġpri": 1335,
      "Ġcor": 1336,
      "ĠBe": 1337,
      "ĠAt": 1338,
      "ĠÂ": 1339,
      "Ġpower": 1340,
      "Ġwrit": 1341,
      "Ġquest": 1342,
      "Ġword": 1343,
      "Ġnext": 1344,
      "Ġstand": 1345,
      "ural": 1346,
      "Ġdirect": 1347,
      "ĠSc": 1348,
      "Ġresp": 1349,
      "ement": 1350,
      "Ġhard": 1351,
      "Ġmil": 1352,
      "ained": 1353,
      "ats": 1354,
      "rist": 1355,
      "ering": 1356,
      "arch": 1357,
      "ird": 1358,
      "ately": 1359,
      "Ġsays": 1360,
      "Ġide": 1361,
      "Ġsupport": 1362,
      "Ġprodu": 1363,
      "ĠOn": 1364,
      "here": 1365,
      "Ġvar": 1366,
      "Ġtell": 1367,
      "Ġadv": 1368,
      "Ġcommun": 1369,
      "ĠBl": 1370,
      "ĠAmerican": 1371,
      "Ġpartic": 1372,
      "Ġ20": 1373,
      "Ġhist": 1374,
      "Ġimport": 1375,
      "iving": 1376,
      "Ġgovernment": 1377,
      "iversity": 1378,
      "co": 1379,
      "Ġwent": 1380,
      "Ġopen": 1381,
      "ĠĠĊ": 1382,
      "Ġmain": 1383,
      "Ġwar": 1384,
      "Ġopp": 1385,
      "ĠAd": 1386,
      "Ġmat": 1387,
      "ably": 1388,
      "ott": 1389,
      "Ġ**": 1390,
      "Ġrequ": 1391,
      "ron": 1392,
      "Ġpop": 1393,
      "Ġalways": 1394,
      "ertain": 1395,
      "rop": 1396,
      "ĠĠĠĠ": 1397,
      "ĠThat": 1398,
      "illion": 1399,
      "ract": 1400,
      "Ġwater": 1401,
      "Ġsw": 1402,
      "ided": 1403,
      "Ġfriend": 1404,
      "Ġval": 1405,
      "Ġkeep": 1406,
      "Ġbuild": 1407,
      "Ġvis": 1408,
      "Ġmark": 1409,
      "Ġfar": 1410,
      "Ġschool": 1411,
      ".,": 1412,
      "Ġmonth": 1413,
      "ember": 1414,
      "'ve": 1415,
      "new": 1416,
      "Ġasked": 1417,
      "Ġbig": 1418,
      "Ġname": 1419,
      "Ġgame": 1420,
      "de": 1421,
      "Ġfamily": 1422,
      "ai": 1423,
      "gin": 1424,
      "iam": 1425,
      "Ġdra": 1426,
      "Ġnight": 1427,
      "Ġrele": 1428,
      "Ġside": 1429,
      "Ġnumber": 1430,
      "Ġreturn": 1431,
      "ruct": 1432,
      "ived": 1433,
      "Ġele": 1434,
      "ional": 1435,
      "elt": 1436,
      "br": 1437,
      "Ġi": 1438,
      "Ġpos": 1439,
      "gy": 1440,
      "ĠSp": 1441,
      "This": 1442,
      "ĠJohn": 1443,
      "ER": 1444,
      "view": 1445,
      "Ġlist": 1446,
      "ĠGr": 1447,
      "Ġtop": 1448,
      "une": 1449,
      "Ġface": 1450,
      "Ã¶": 1451,
      "Ġdri": 1452,
      "Ġroom": 1453,
      "iver": 1454,
      "Ġfull": 1455,
      "ording": 1456,
      "chn": 1457,
      "ĠHow": 1458,
      "alf": 1459,
      "app": 1460,
      "Ġconst": 1461,
      "by": 1462,
      "Ġair": 1463,
      "inc": 1464,
      "urs": 1465,
      "20": 1466,
      "Ġthough": 1467,
      "Ġinform": 1468,
      "ology": 1469,
      "Ġmus": 1470,
      "ently": 1471,
      "ains": 1472,
      "Ġ198": 1473,
      "ĠPh": 1474,
      "raph": 1475,
      "stand": 1476,
      "ior": 1477,
      "let": 1478,
      "But": 1479,
      "Ġresult": 1480,
      "Ġ15": 1481,
      "ured": 1482,
      "reen": 1483,
      "Ġlight": 1484,
      "den": 1485,
      "sc": 1486,
      "Ġbre": 1487,
      "Ġallow": 1488,
      "Ġlo": 1489,
      "Ġmom": 1490,
      "Ġlarge": 1491,
      "Ġbetter": 1492,
      "Ġmove": 1493,
      "gram": 1494,
      "Ġless": 1495,
      "10": 1496,
      "ead": 1497,
      "oney": 1498,
      "atic": 1499,
      "Ġincluding": 1500,
      "ream": 1501,
      "Ġpat": 1502,
      "Ġenough": 1503,
      "used": 1504,
      "side": 1505,
      "ister": 1506,
      "Ġcontro": 1507,
      "Ġprom": 1508,
      "Ġve": 1509,
      "oon": 1510,
      "ians": 1511,
      "omp": 1512,
      "ides": 1513,
      "sh": 1514,
      "Ġcamp": 1515,
      "iven": 1516,
      "Ġer": 1517,
      "Ġfun": 1518,
      "Ġty": 1519,
      "Ġclass": 1520,
      "inal": 1521,
      "Ġ*": 1522,
      "Ġsing": 1523,
      "Ġhouse": 1524,
      "aim": 1525,
      "Ġeyes": 1526,
      "Ġann": 1527,
      "ĠCon": 1528,
      "mber": 1529,
      "rence": 1530,
      "Ġprof": 1531,
      "Ġ&": 1532,
      "Ġalong": 1533,
      "Ġlot": 1534,
      "Ġiss": 1535,
      "Ġweek": 1536,
      "ĠEng": 1537,
      "Ġinterest": 1538,
      "urch": 1539,
      "ĠOr": 1540,
      "lish": 1541,
      "ĠCol": 1542,
      "Ġproble": 1543,
      "Ġdr": 1544,
      "Ġthing": 1545,
      "Ġeas": 1546,
      "ued": 1547,
      "Ġinvest": 1548,
      "Ġ12": 1549,
      "most": 1550,
      "ĠYork": 1551,
      "ator": 1552,
      "Ġland": 1553,
      "my": 1554,
      "ĠWhen": 1555,
      "aps": 1556,
      "Ġsol": 1557,
      "And": 1558,
      "Ġfore": 1559,
      "Ġhimself": 1560,
      "ĠTrump": 1561,
      "Ġ||": 1562,
      "Ġyoung": 1563,
      "Ġstat": 1564,
      "Ġdays": 1565,
      "ready": 1566,
      "Ġpast": 1567,
      "ĠUnited": 1568,
      "Ġcountry": 1569,
      "Ġpost": 1570,
      "Ġwomen": 1571,
      "Ġcase": 1572,
      "ote": 1573,
      "rew": 1574,
      "ĠBr": 1575,
      "Ġ17": 1576,
      "ober": 1577,
      "ĠÎ": 1578,
      "mb": 1579,
      "Ġmean": 1580,
      "Ġlooked": 1581,
      "ĠAll": 1582,
      "Ġorgan": 1583,
      "ours": 1584,
      "oice": 1585,
      "ison": 1586,
      "ĠMay": 1587,
      "ajor": 1588,
      "Ġoper": 1589,
      "Ġkind": 1590,
      "aring": 1591,
      "ission": 1592,
      "ĠPl": 1593,
      "Ġknown": 1594,
      "Ġocc": 1595,
      "Ġcity": 1596,
      "Ġsit": 1597,
      "Ġonce": 1598,
      "ards": 1599,
      "Ġprev": 1600,
      "els": 1601,
      "ium": 1602,
      "ither": 1603,
      "eng": 1604,
      "bs": 1605,
      "Ġkill": 1606,
      "irl": 1607,
      "ĠHis": 1608,
      "ider": 1609,
      "Ġprocess": 1610,
      "What": 1611,
      "Ġever": 1612,
      "Ġincre": 1613,
      "Ð»": 1614,
      "18": 1615,
      "ope": 1616,
      "ĠUS": 1617,
      "Ġrece": 1618,
      "Ġappro": 1619,
      "ency": 1620,
      "Ġalready": 1621,
      "ĠComm": 1622,
      "Ch": 1623,
      "ple": 1624,
      "Ġdesc": 1625,
      "veral": 1626,
      "Ġaff": 1627,
      "Ġwin": 1628,
      "ries": 1629,
      "conom": 1630,
      "ode": 1631,
      "ony": 1632,
      "Ġoften": 1633,
      "Ã¥": 1634,
      "ĠUniversity": 1635,
      "Ġeffect": 1636,
      "ĠSo": 1637,
      "gether": 1638,
      "Ġseason": 1639,
      "ery": 1640,
      "Ġ197": 1641,
      "Ġ0": 1642,
      "Ġconc": 1643,
      "Ġwhy": 1644,
      "Ġbusiness": 1645,
      "She": 1646,
      "oint": 1647,
      "ccess": 1648,
      "Ġmind": 1649,
      "ocr": 1650,
      "St": 1651,
      "ee": 1652,
      "arent": 1653,
      "Ġplan": 1654,
      "utes": 1655,
      "ĠGer": 1656,
      "use": 1657,
      "Ġimportant": 1658,
      "arr": 1659,
      "Ġsure": 1660,
      "ining": 1661,
      "ended": 1662,
      "Ġlove": 1663,
      "uthor": 1664,
      "pec": 1665,
      "Ġ16": 1666,
      "na": 1667,
      "ĠNo": 1668,
      "ateg": 1669,
      "Ġearly": 1670,
      "ration": 1671,
      "ps": 1672,
      "Ġgive": 1673,
      "Ġhuman": 1674,
      "Ġacross": 1675,
      "Ġbas": 1676,
      "aken": 1677,
      "Ã¼": 1678,
      "Ġleast": 1679,
      "Ġseen": 1680,
      "eb": 1681,
      "Ġdesign": 1682,
      "Ġchildren": 1683,
      "ler": 1684,
      "ality": 1685,
      "Ġfac": 1686,
      "ample": 1687,
      "Ġwon": 1688,
      "Ġtoward": 1689,
      "Ġmor": 1690,
      "line": 1691,
      "Ġtalk": 1692,
      "Ġsaw": 1693,
      "Ġline": 1694,
      "Ġbody": 1695,
      "Ġview": 1696,
      "Ġknew": 1697,
      "Ġdi": 1698,
      "Wh": 1699,
      "Ġbecome": 1700,
      "ĠRep": 1701,
      "50": 1702,
      "Ġce": 1703,
      "Ġtest": 1704,
      "Ġcourse": 1705,
      "che": 1706,
      "Ġfree": 1707,
      "ĠChrist": 1708,
      "Ġusing": 1709,
      "ĠEuro": 1710,
      "Ġca": 1711,
      "Ġrecord": 1712,
      "Ġattack": 1713,
      "Ġseveral": 1714,
      "Ġelect": 1715,
      "Ġprogram": 1716,
      "ball": 1717,
      "Ġorder": 1718,
      "Ġsent": 1719,
      "ney": 1720,
      "Ġwr": 1721,
      "of": 1722,
      "Ġsal": 1723,
      "ama": 1724,
      "Ġchang": 1725,
      "As": 1726,
      "IN": 1727,
      "ww": 1728,
      "Ġri": 1729,
      "Ġbegan": 1730,
      "Ġhold": 1731,
      "Ġdeath": 1732,
      "ush": 1733,
      "Ġbecame": 1734,
      "Ġtogether": 1735,
      "Ġ11": 1736,
      "orld": 1737,
      "Ġcompany": 1738,
      "por": 1739,
      "ĠMr": 1740,
      "lo": 1741,
      "Ã¨": 1742,
      "Ġshort": 1743,
      "ĠPr": 1744,
      "Ġwithin": 1745,
      "Ġgrow": 1746,
      "reet": 1747,
      "ãģ®": 1748,
      "Ġblack": 1749,
      "Ġchange": 1750,
      "Ġequ": 1751,
      "Ġlevel": 1752,
      "Ġmaking": 1753,
      "aster": 1754,
      "ĠBrit": 1755,
      "Ġcertain": 1756,
      "ization": 1757,
      "iety": 1758,
      "Ġable": 1759,
      "Ġwanted": 1760,
      "acy": 1761,
      "Ġhalf": 1762,
      "ories": 1763,
      "ĠHer": 1764,
      "Ġnews": 1765,
      "ox": 1766,
      "ption": 1767,
      "ĠCan": 1768,
      "Ġtimes": 1769,
      "ases": 1770,
      "Ġnothing": 1771,
      "ising": 1772,
      "ada": 1773,
      "itions": 1774,
      "Ġbehind": 1775,
      "rown": 1776,
      "Ġmeet": 1777,
      "Ġperform": 1778,
      "Ġtre": 1779,
      "Ġappear": 1780,
      "ald": 1781,
      "Ġtri": 1782,
      "Ġdone": 1783,
      "uff": 1784,
      "Ġtechn": 1785,
      "Ġmoment": 1786,
      "Ġmoney": 1787,
      "30": 1788,
      "Ġpay": 1789,
      "Ġsocial": 1790,
      "Ġson": 1791,
      "Ġorig": 1792,
      "ored": 1793,
      "Ġeng": 1794,
      "ĠWhat": 1795,
      "Ġexpect": 1796,
      "Ġothers": 1797,
      "Ġtem": 1798,
      "ending": 1799,
      "Ġmajor": 1800,
      "Ġhaving": 1801,
      "Ġstory": 1802,
      "ified": 1803,
      "lished": 1804,
      "Ġmid": 1805,
      "ploy": 1806,
      "ances": 1807,
      "ze": 1808,
      "iber": 1809,
      "Ġunderstand": 1810,
      "Ġvi": 1811,
      "Ġinformation": 1812,
      "Ġalmost": 1813,
      "Ġfather": 1814,
      "ulation": 1815,
      "Ġdoor": 1816,
      "There": 1817,
      "Ġ196": 1818,
      "aut": 1819,
      "fic": 1820,
      "ĠGod": 1821,
      "oci": 1822,
      "Ġturned": 1823,
      "Ġpain": 1824,
      "Ġprote": 1825,
      "ĠSte": 1826,
      "Ġclose": 1827,
      "ones": 1828,
      "ĠStates": 1829,
      "Ġwind": 1830,
      "Ġfelt": 1831,
      "ges": 1832,
      "Ġrese": 1833,
      "ourn": 1834,
      "ÏĦ": 1835,
      "ows": 1836,
      "Ġcharac": 1837,
      "Ġnon": 1838,
      "Ġwoman": 1839,
      "Ġprop": 1840,
      "Ġfive": 1841,
      "Ġste": 1842,
      "Ġamong": 1843,
      "ĠGo": 1844,
      "lf": 1845,
      "augh": 1846,
      "!\"": 1847,
      "ĠÃł": 1848,
      "ĠCo": 1849,
      "for": 1850,
      "resent": 1851,
      "ograph": 1852,
      "Ġproject": 1853,
      "Ġ14": 1854,
      "Ġgiven": 1855,
      "Ġmother": 1856,
      "Ġpresent": 1857,
      "Ġanything": 1858,
      "ĠTe": 1859,
      "ivid": 1860,
      "Ġsuccess": 1861,
      "ma": 1862,
      "Ġpress": 1863,
      "ĠWar": 1864,
      "Ġpot": 1865,
      "Ġfollowing": 1866,
      "Ġfront": 1867,
      "Ġeconom": 1868,
      "Ġyet": 1869,
      "yn": 1870,
      "ille": 1871,
      "Ġant": 1872,
      "not": 1873,
      "ster": 1874,
      "rict": 1875,
      "Ġtrad": 1876,
      "Ġbit": 1877,
      "iously": 1878,
      "On": 1879,
      "Ġder": 1880,
      "Ġpercent": 1881,
      "Ġdev": 1882,
      "ument": 1883,
      "go": 1884,
      "Ġsound": 1885,
      "Ġnear": 1886,
      "ĠGe": 1887,
      "Ġclaim": 1888,
      "ĠEurope": 1889,
      "though": 1890,
      "Ġwasn": 1891,
      "If": 1892,
      "Ðº": 1893,
      "Ñĥ": 1894,
      "12": 1895,
      "Ġmillion": 1896,
      "Ġpolitical": 1897,
      "Ġformer": 1898,
      "Î±": 1899,
      "uly": 1900,
      "ĠEl": 1901,
      "par": 1902,
      "Ġdata": 1903,
      "amed": 1904,
      "ief": 1905,
      "ape": 1906,
      "Ġjob": 1907,
      "Ġquestion": 1908,
      "_.": 1909,
      "ĠEx": 1910,
      "work": 1911,
      "oke": 1912,
      "Ġworking": 1913,
      "Ġdoing": 1914,
      "Ġ13": 1915,
      "Ġhands": 1916,
      "ague": 1917,
      "rie": 1918,
      "ilt": 1919,
      "Ġfilm": 1920,
      "aced": 1921,
      "Ġexample": 1922,
      "Ġstarted": 1923,
      "Ġarea": 1924,
      "ON": 1925,
      "Ġlocal": 1926,
      "Ġcond": 1927,
      "ots": 1928,
      "Ġintern": 1929,
      "Ġauthor": 1930,
      "ament": 1931,
      "Ġcurrent": 1932,
      "ĠOne": 1933,
      "selves": 1934,
      "Ġaut": 1935,
      "ĠTo": 1936,
      "Ġpresident": 1937,
      "201": 1938,
      "Ġpract": 1939,
      "Ġcrit": 1940,
      "Ġpub": 1941,
      "Ġevent": 1942,
      "ĠMan": 1943,
      "Ġdeal": 1944,
      "Ġwhite": 1945,
      "Ġvers": 1946,
      "ĠPres": 1947,
      "mp": 1948,
      "Ġap": 1949,
      "af": 1950,
      "ique": 1951,
      "Ġheld": 1952,
      "Ġhealth": 1953,
      "aces": 1954,
      "ctor": 1955,
      "Ġpossible": 1956,
      "Ġdie": 1957,
      "Ġcut": 1958,
      "ĠMc": 1959,
      "ror": 1960,
      "umb": 1961,
      "Ġfoot": 1962,
      "Ġles": 1963,
      "idence": 1964,
      "tt": 1965,
      "Î½": 1966,
      "Ġprob": 1967,
      "ij": 1968,
      "Ġfall": 1969,
      "eder": 1970,
      "Ġsix": 1971,
      "Ġda": 1972,
      "11": 1973,
      "An": 1974,
      "ches": 1975,
      "Ġgirl": 1976,
      "ole": 1977,
      "ili": 1978,
      "irc": 1979,
      "aff": 1980,
      "ached": 1981,
      "ĠEd": 1982,
      "ĠX": 1983,
      "Ġbar": 1984,
      "eth": 1985,
      "iter": 1986,
      "Ġden": 1987,
      "Ġcontrol": 1988,
      "AR": 1989,
      "Ġcult": 1990,
      "ination": 1991,
      "Ġreason": 1992,
      "ĠWorld": 1993,
      "Ġground": 1994,
      "sy": 1995,
      "ully": 1996,
      "ado": 1997,
      "Ġfood": 1998,
      "Ġans": 1999,
      "Ġhistory": 2000,
      "ĠCent": 2001,
      "Ġver": 2002,
      "Ġlooking": 2003,
      "ĠWill": 2004,
      "200": 2005,
      "oud": 2006,
      "Ġlim": 2007,
      "ĠGerman": 2008,
      "Ġfur": 2009,
      "Ġstrong": 2010,
      "Ġpriv": 2011,
      "isc": 2012,
      "ĠAm": 2013,
      "Ġelse": 2014,
      "Ġtaken": 2015,
      "ĠRuss": 2016,
      "Ġmembers": 2017,
      "Ġsn": 2018,
      "fer": 2019,
      "ĠFl": 2020,
      "Ġcost": 2021,
      "oph": 2022,
      "Ġ=": 2023,
      "Ġident": 2024,
      "Ġ:": 2025,
      "Ġsum": 2026,
      "ands": 2027,
      "ĠCar": 2028,
      "aper": 2029,
      "artment": 2030,
      "Ġpolice": 2031,
      "Ġlow": 2032,
      "ana": 2033,
      "Ġinvol": 2034,
      "iron": 2035,
      "Ġdoesn": 2036,
      "Ġrather": 2037,
      "ien": 2038,
      "urg": 2039,
      "oor": 2040,
      "ĠMy": 2041,
      "Î¿": 2042,
      "tain": 2043,
      "That": 2044,
      "ux": 2045,
      "ware": 2046,
      "val": 2047,
      "wh": 2048,
      "ĠGu": 2049,
      "ĠMin": 2050,
      "urity": 2051,
      ",'": 2052,
      "reed": 2053,
      "Ġrepl": 2054,
      "Ġminutes": 2055,
      "Ġdeb": 2056,
      "itive": 2057,
      "Ġquick": 2058,
      "Ġred": 2059,
      "Ġwords": 2060,
      "Ġple": 2061,
      "ĠPol": 2062,
      "15": 2063,
      "ĠNe": 2064,
      "Ġactiv": 2065,
      "duced": 2066,
      "osp": 2067,
      "Ġwhole": 2068,
      "Ġ194": 2069,
      "Ġmeans": 2070,
      "ential": 2071,
      "Ġarg": 2072,
      "rain": 2073,
      "Ġfut": 2074,
      "Ġdeep": 2075,
      "Ġenc": 2076,
      "Ġidea": 2077,
      "Ġsugg": 2078,
      "amb": 2079,
      "Ġlive": 2080,
      "Ġmag": 2081,
      "Ġ30": 2082,
      "ES": 2083,
      "ring": 2084,
      "Ġsuggest": 2085,
      "Ġdu": 2086,
      "Ġtown": 2087,
      "empt": 2088,
      "AT": 2089,
      "ĠSy": 2090,
      "ãĢģ": 2091,
      "aul": 2092,
      "itary": 2093,
      "head": 2094,
      "ips": 2095,
      "Ġask": 2096,
      "ĠJan": 2097,
      "Ġfire": 2098,
      "dle": 2099,
      "Ġofficial": 2100,
      "Ġheart": 2101,
      "angu": 2102,
      "Ġsat": 2103,
      "Ġdou": 2104,
      "Ġsex": 2105,
      "Ġmusic": 2106,
      "Ġsingle": 2107,
      "AN": 2108,
      "ĠTw": 2109,
      "ĠNational": 2110,
      "ĠHouse": 2111,
      "pping": 2112,
      "Ġmarket": 2113,
      "Ġfight": 2114,
      "Ġbelieve": 2115,
      "Ġwhether": 2116,
      "Ġfail": 2117,
      "Ġsomeone": 2118,
      "ĠAfter": 2119,
      "Ġgave": 2120,
      "ĠAust": 2121,
      "Ġsil": 2122,
      "arth": 2123,
      "Ġcreat": 2124,
      "Ġmonths": 2125,
      "Ġtrying": 2126,
      "No": 2127,
      "Ġcolle": 2128,
      "rote": 2129,
      "Ġseries": 2130,
      "17": 2131,
      "Ġbegin": 2132,
      "Ġpolic": 2133,
      "aign": 2134,
      "Ġhowever": 2135,
      "Ġfig": 2136,
      "ops": 2137,
      "ĠAf": 2138,
      "ogn": 2139,
      "isk": 2140,
      "ĠSouth": 2141,
      "Ġfund": 2142,
      "ids": 2143,
      "ese": 2144,
      "ule": 2145,
      "iod": 2146,
      "ĠDem": 2147,
      "For": 2148,
      "ences": 2149,
      "Ġdark": 2150,
      "Ġproper": 2151,
      "Ġdescrib": 2152,
      "over": 2153,
      "Ġvol": 2154,
      "Ġcomplete": 2155,
      "Ġjo": 2156,
      "ividual": 2157,
      "ortun": 2158,
      "haps": 2159,
      "When": 2160,
      "irt": 2161,
      "ĠMe": 2162,
      "ĠĠĠ": 2163,
      "Ġmot": 2164,
      "ĠCal": 2165,
      "ais": 2166,
      "Ġeither": 2167,
      "ĠÃ©": 2168,
      "Ġnational": 2169,
      "Ġbad": 2170,
      "Ġproblem": 2171,
      "gress": 2172,
      "Ġport": 2173,
      "Ġlos": 2174,
      "eter": 2175,
      "Ġself": 2176,
      "Ġactually": 2177,
      "lling": 2178,
      "Ġeverything": 2179,
      "16": 2180,
      "Ġdest": 2181,
      "Ġtoday": 2182,
      "ude": 2183,
      "ĠNot": 2184,
      "ĠWith": 2185,
      "attle": 2186,
      "rem": 2187,
      "Ġpick": 2188,
      "Ġproduct": 2189,
      "Ġbene": 2190,
      "idge": 2191,
      "itional": 2192,
      "oe": 2193,
      "Ġsoon": 2194,
      "Ġclear": 2195,
      "ĠAb": 2196,
      "Ġsus": 2197,
      "Ġheard": 2198,
      "ĠNorth": 2199,
      "fully": 2200,
      "ondon": 2201,
      "ĠPe": 2202,
      "ĠâĢĺ": 2203,
      "ara": 2204,
      "à¤": 2205,
      "vol": 2206,
      "ĠPresident": 2207,
      "Ġgra": 2208,
      "Ġboy": 2209,
      "Ð²": 2210,
      "Ġbring": 2211,
      "OR": 2212,
      "Ġaccount": 2213,
      "Ġdiv": 2214,
      "erc": 2215,
      "ades": 2216,
      "Ġentire": 2217,
      "Ġexist": 2218,
      "hern": 2219,
      "ha": 2220,
      "ĠState": 2221,
      "aged": 2222,
      "ĠAug": 2223,
      "Ġgetting": 2224,
      "Ġlearn": 2225,
      "Ġmakes": 2226,
      "Ġviol": 2227,
      "aly": 2228,
      "Ġseemed": 2229,
      "Ġstep": 2230,
      "ference": 2231,
      "Ġcomb": 2232,
      "Ġrelations": 2233,
      "Ġitself": 2234,
      "omb": 2235,
      "Ġstay": 2236,
      "lu": 2237,
      "._": 2238,
      "imate": 2239,
      "irm": 2240,
      "Ġspecial": 2241,
      "ĠHar": 2242,
      "14": 2243,
      "Ġmiss": 2244,
      "unch": 2245,
      "Ã§": 2246,
      "ening": 2247,
      "Ġsense": 2248,
      "wer": 2249,
      "Ġavail": 2250,
      "overed": 2251,
      "Ġvoice": 2252,
      "yle": 2253,
      "ĠDav": 2254,
      "ãģĦ": 2255,
      "Ġtot": 2256,
      "Ġpull": 2257,
      "Ġbased": 2258,
      "ino": 2259,
      "Ġabove": 2260,
      "Ġlate": 2261,
      "Ġfield": 2262,
      "year": 2263,
      "ĠEn": 2264,
      "ĠBar": 2265,
      "ĠDon": 2266,
      "inn": 2267,
      "Ġvide": 2268,
      "ashing": 2269,
      "Ġsour": 2270,
      "unt": 2271,
      "Ġconv": 2272,
      "Ġindividual": 2273,
      "ham": 2274,
      "Ġoutside": 2275,
      "lex": 2276,
      "Ġfuture": 2277,
      "Re": 2278,
      "Ġcommunity": 2279,
      "Ġupon": 2280,
      "aid": 2281,
      "stit": 2282,
      "ett": 2283,
      "Ġappe": 2284,
      "where": 2285,
      "uary": 2286,
      "Ġdead": 2287,
      "reg": 2288,
      "lled": 2289,
      "lin": 2290,
      "Ġexperience": 2291,
      "rench": 2292,
      "icle": 2293,
      "orts": 2294,
      "Ġlost": 2295,
      "Ġmatter": 2296,
      "Ġcampaign": 2297,
      "Ġhours": 2298,
      "Ġlab": 2299,
      "ĠSec": 2300,
      "ĠLa": 2301,
      "____": 2302,
      "Ġgeneral": 2303,
      "ilar": 2304,
      "itor": 2305,
      "Ġrepresent": 2306,
      "Ġparty": 2307,
      "Ġtaking": 2308,
      "Ã³n": 2309,
      "Ġcoming": 2310,
      "ategory": 2311,
      "EN": 2312,
      "Ø§": 2313,
      "cher": 2314,
      "Ġcompet": 2315,
      "Ġheav": 2316,
      "Ġ25": 2317,
      "Ġconne": 2318,
      "//": 2319,
      "ĠPer": 2320,
      "ĠCount": 2321,
      "Ġfoc": 2322,
      "Ġphot": 2323,
      "Ġfav": 2324,
      "ply": 2325,
      "Ġfriends": 2326,
      "Ġrad": 2327,
      "iqu": 2328,
      "ĠThen": 2329,
      "Ġposition": 2330,
      "Î¹": 2331,
      "Ġaccording": 2332,
      "Ġwait": 2333,
      "Ġarri": 2334,
      "Ġbed": 2335,
      "ĠOct": 2336,
      "ability": 2337,
      "Ġexpress": 2338,
      "Ġbreak": 2339,
      "Al": 2340,
      "ively": 2341,
      "Ġbuilding": 2342,
      "Ġwatch": 2343,
      "Ġwall": 2344,
      "ato": 2345,
      "Ġsold": 2346,
      "Ġcommon": 2347,
      "fect": 2348,
      "Ġcharacter": 2349,
      "right": 2350,
      "ators": 2351,
      "Ġpie": 2352,
      "Ġhig": 2353,
      "ĠMarch": 2354,
      "ĠPar": 2355,
      "Ġestab": 2356,
      "ask": 2357,
      "Ġgen": 2358,
      "iment": 2359,
      "Ġprofess": 2360,
      "Ġage": 2361,
      "ĠBritish": 2362,
      "Ġthemselves": 2363,
      "Ġannoun": 2364,
      "ĠSept": 2365,
      "ĠAmerica": 2366,
      "?'": 2367,
      "ĠSu": 2368,
      "cted": 2369,
      "iding": 2370,
      "Ñı": 2371,
      "itting": 2372,
      "itted": 2373,
      "Ġplayed": 2374,
      "enty": 2375,
      "bed": 2376,
      "Ġdiscuss": 2377,
      "Ġtax": 2378,
      "ging": 2379,
      "13": 2380,
      "Ġservice": 2381,
      "ĠCity": 2382,
      "Ġmess": 2383,
      "Ġcal": 2384,
      "IS": 2385,
      "Ġlikely": 2386,
      "Ġperiod": 2387,
      "pper": 2388,
      "Ġwrote": 2389,
      "Ġinside": 2390,
      "Ġobject": 2391,
      "Ġindust": 2392,
      "uation": 2393,
      "Ġmult": 2394,
      "pecially": 2395,
      "Ġvot": 2396,
      "ĠPart": 2397,
      "ĠQu": 2398,
      "Ġspace": 2399,
      "Ġfurther": 2400,
      "ustom": 2401,
      "Ġstri": 2402,
      "Ġabs": 2403,
      "itch": 2404,
      "Ġsuper": 2405,
      "Ġsuff": 2406,
      "ĠSch": 2407,
      "Ġfeat": 2408,
      "apter": 2409,
      "Ġoffice": 2410,
      "Ġprobably": 2411,
      "Ġthird": 2412,
      "pril": 2413,
      "Ġfinal": 2414,
      "Ġcomes": 2415,
      "Ġroad": 2416,
      "Ġhor": 2417,
      "ables": 2418,
      "Ġled": 2419,
      "Ġtry": 2420,
      "Ġtrue": 2421,
      "ran": 2422,
      "Ġcoun": 2423,
      "Ġhot": 2424,
      "istic": 2425,
      "off": 2426,
      "\",": 2427,
      "Ġleave": 2428,
      "Ġcapt": 2429,
      "medi": 2430,
      "Ġemploy": 2431,
      "Ġadded": 2432,
      "How": 2433,
      "Ġ24": 2434,
      "\".": 2435,
      "Ġavailable": 2436,
      "pro": 2437,
      "Ġquite": 2438,
      "ills": 2439,
      "hel": 2440,
      "Ġattempt": 2441,
      "Ġtal": 2442,
      "They": 2443,
      ".)": 2444,
      "ĠJune": 2445,
      "Ġpur": 2446,
      "Ġcirc": 2447,
      "Ð¼": 2448,
      "Ġcouldn": 2449,
      "Ġinvestig": 2450,
      "ĠRepublic": 2451,
      "ĠJe": 2452,
      "ift": 2453,
      "ĠWest": 2454,
      "ãĢĤ": 2455,
      "ĠHowever": 2456,
      "ĠGeor": 2457,
      "ĠAugust": 2458,
      "lement": 2459,
      "Ġwond": 2460,
      "Ġsaying": 2461,
      "Ġsong": 2462,
      "So": 2463,
      "Ġnet": 2464,
      "ĠRes": 2465,
      "erm": 2466,
      "uel": 2467,
      "Ġten": 2468,
      "minist": 2469,
      "back": 2470,
      "ãģ«": 2471,
      "Ġcho": 2472,
      "Ġcover": 2473,
      "uk": 2474,
      "ivil": 2475,
      "aving": 2476,
      "ĠKing": 2477,
      "Ġ2016": 2478,
      "Ġnat": 2479,
      "like": 2480,
      "alt": 2481,
      "uge": 2482,
      "Ġsle": 2483,
      "ĠLondon": 2484,
      "ĠMed": 2485,
      "ĠBy": 2486,
      "Ġprot": 2487,
      "ficult": 2488,
      "Ġhon": 2489,
      "uf": 2490,
      "Ġstra": 2491,
      "Ġdom": 2492,
      "Ġphys": 2493,
      "Ġaccess": 2494,
      "ica": 2495,
      "Ġdam": 2496,
      "cle": 2497,
      "Ġmedia": 2498,
      "ctions": 2499,
      "Äĥ": 2500,
      "Ġconcern": 2501,
      "Ð´": 2502,
      "Ġvict": 2503,
      "Ġswe": 2504,
      "Ġdecl": 2505,
      "Ġanim": 2506,
      "Ġlangu": 2507,
      "apan": 2508,
      "oved": 2509,
      "Ġfell": 2510,
      "lev": 2511,
      "Ġneeded": 2512,
      "Ã£": 2513,
      "Ġrul": 2514,
      "Ġtou": 2515,
      "Ġlonger": 2516,
      "Ġwalk": 2517,
      "ender": 2518,
      "anger": 2519,
      "bo": 2520,
      "book": 2521,
      "Ġround": 2522,
      "Ġbrought": 2523,
      "Ġago": 2524,
      "ani": 2525,
      "ĠJuly": 2526,
      "Îµ": 2527,
      "ĠÐ¿": 2528,
      "Ġdifficult": 2529,
      "Ġliving": 2530,
      "Ġdue": 2531,
      "ournal": 2532,
      "Ġblood": 2533,
      "Ġtable": 2534,
      "Ġmilitary": 2535,
      "25": 2536,
      "aves": 2537,
      "Ġenv": 2538,
      "Ġprim": 2539,
      "Ġreleased": 2540,
      "itter": 2541,
      "asing": 2542,
      "Ġmass": 2543,
      "ĠThese": 2544,
      "Ġfa": 2545,
      "Ġord": 2546,
      "Ġimm": 2547,
      "Ġill": 2548,
      "ari": 2549,
      "ĠEnglish": 2550,
      "gest": 2551,
      "Ġmorning": 2552,
      "ĠJust": 2553,
      "Ġpret": 2554,
      "Ġstop": 2555,
      "ensive": 2556,
      "Ġneg": 2557,
      "ky": 2558,
      "ĠDemocr": 2559,
      "ï¼": 2560,
      "raft": 2561,
      "ĠApril": 2562,
      "atter": 2563,
      "Ġsqu": 2564,
      "Ġmoved": 2565,
      "Ġreported": 2566,
      "iled": 2567,
      "ĠSeptember": 2568,
      "Ġforward": 2569,
      "Ġaccept": 2570,
      "oul": 2571,
      "ibility": 2572,
      "Ġgames": 2573,
      "ĠCor": 2574,
      "Ã©s": 2575,
      "Ġimpro": 2576,
      "ĠAss": 2577,
      "Ġtried": 2578,
      "Ġcourt": 2579,
      "ĠRo": 2580,
      "Ġtreat": 2581,
      "Âł": 2582,
      "Ñĭ": 2583,
      "reme": 2584,
      "bor": 2585,
      "Ġtit": 2586,
      "ida": 2587,
      "Ġrole": 2588,
      "rap": 2589,
      "ĠComp": 2590,
      "ological": 2591,
      "Ġdetail": 2592,
      "ford": 2593,
      "Ġslow": 2594,
      "room": 2595,
      "body": 2596,
      "eks": 2597,
      "str": 2598,
      "ores": 2599,
      "Ġparent": 2600,
      "Ġtyp": 2601,
      "iting": 2602,
      "ĠFrench": 2603,
      "Ġcompl": 2604,
      "ãģ¨": 2605,
      "ume": 2606,
      "Ġspeak": 2607,
      "vent": 2608,
      "ĠDep": 2609,
      "ovember": 2610,
      "Ġkey": 2611,
      "men": 2612,
      "ises": 2613,
      "kn": 2614,
      "Ã£o": 2615,
      "Ġinclude": 2616,
      "undred": 2617,
      "ival": 2618,
      "Ġworks": 2619,
      "Ġsimilar": 2620,
      "ico": 2621,
      "Ġeduc": 2622,
      "Ġearl": 2623,
      "Ġstudy": 2624,
      "la": 2625,
      "ights": 2626,
      "Ġarm": 2627,
      "ci": 2628,
      "ify": 2629,
      "Ġsimply": 2630,
      "ĠDo": 2631,
      "Ġsignific": 2632,
      "Ġinit": 2633,
      "AS": 2634,
      "Ġtar": 2635,
      "airs": 2636,
      "Ġ195": 2637,
      "ĠJanuary": 2638,
      "Ġrespons": 2639,
      "Ġadm": 2640,
      "Ġremain": 2641,
      "Ġobs": 2642,
      "uted": 2643,
      "ĠOctober": 2644,
      "Ġran": 2645,
      "ãĤĭ": 2646,
      "epend": 2647,
      "Ġfeet": 2648,
      "ĠIntern": 2649,
      "Ġvill": 2650,
      "ĠII": 2651,
      "Ġconsider": 2652,
      "Ġdevelopment": 2653,
      "Ġlay": 2654,
      "HE": 2655,
      "Ġespecially": 2656,
      "Ġresearch": 2657,
      "Ġthreat": 2658,
      "aught": 2659,
      "Ġsoft": 2660,
      "Ġnecess": 2661,
      "ales": 2662,
      "rug": 2663,
      "Ġgun": 2664,
      "iers": 2665,
      "add": 2666,
      "Ġhope": 2667,
      "Ġmater": 2668,
      "Ġrelig": 2669,
      "lt": 2670,
      "Ġsurpr": 2671,
      "Ġsubject": 2672,
      "Ġep": 2673,
      "Ġmeas": 2674,
      "ĠSome": 2675,
      "Ġreceived": 2676,
      "ÑĮ": 2677,
      "Ġworked": 2678,
      "ĠSw": 2679,
      "bum": 2680,
      "Ġwife": 2681,
      "Ġrespect": 2682,
      "Ġrecogn": 2683,
      "Ġstudents": 2684,
      "Ġstru": 2685,
      "Ġtext": 2686,
      "aur": 2687,
      "Ġcross": 2688,
      "cember": 2689,
      "ager": 2690,
      "ript": 2691,
      "Ġisn": 2692,
      "ĠAustral": 2693,
      "ederal": 2694,
      "Ġjud": 2695,
      "rel": 2696,
      "pite": 2697,
      "oman": 2698,
      "ãģŁ": 2699,
      "ires": 2700,
      "ander": 2701,
      "Ġcompan": 2702,
      "Ġimag": 2703,
      "ray": 2704,
      "ĠMus": 2705,
      "Ġener": 2706,
      "Ġ2017": 2707,
      "Ġcentury": 2708,
      "Category": 2709,
      "Ġhy": 2710,
      "Ġaction": 2711,
      "ĠJapan": 2712,
      "âĢ¦": 2713,
      "Ġwhose": 2714,
      "Ġ2015": 2715,
      "Ġ/": 2716,
      "nes": 2717,
      "Ġtrack": 2718,
      "Ġdied": 2719,
      "yl": 2720,
      "Ġhear": 2721,
      "Ġbuilt": 2722,
      "gen": 2723,
      ");": 2724,
      "ĠSen": 2725,
      "Ġdoc": 2726,
      "Ġbrother": 2727,
      "AL": 2728,
      "Ġrunning": 2729,
      "Ġsett": 2730,
      "rael": 2731,
      "ael": 2732,
      "ĠSm": 2733,
      "ãģĹ": 2734,
      "aughter": 2735,
      "Ġdro": 2736,
      "Ġseems": 2737,
      "ĠNovember": 2738,
      "ken": 2739,
      "ĠGl": 2740,
      "----": 2741,
      "ashington": 2742,
      "Ġvideo": 2743,
      "Ġpor": 2744,
      "Ġgone": 2745,
      "Ġ2014": 2746,
      "Ġcand": 2747,
      "play": 2748,
      "Ġpers": 2749,
      "urt": 2750,
      "Ġfem": 2751,
      "sp": 2752,
      "Ġeight": 2753,
      "omes": 2754,
      "Ġhit": 2755,
      "Ġexc": 2756,
      "Ġcannot": 2757,
      "ĠBro": 2758,
      "ÂŃ": 2759,
      "ĠMich": 2760,
      "Ġcoll": 2761,
      "Ġhost": 2762,
      "Ġinstead": 2763,
      "gar": 2764,
      "Ġball": 2765,
      "Ġcell": 2766,
      "ites": 2767,
      "Ġeveryone": 2768,
      "Ġplayers": 2769,
      "ruction": 2770,
      "://": 2771,
      "za": 2772,
      "hod": 2773,
      "Ġcup": 2774,
      "ularly": 2775,
      "Ġhappened": 2776,
      "resh": 2777,
      "Ġ22": 2778,
      "het": 2779,
      "bl": 2780,
      "Ġsens": 2781,
      "Ġpict": 2782,
      "Ġcoup": 2783,
      "Ġimmedi": 2784,
      "ris": 2785,
      "ĠAfric": 2786,
      "Ġwrong": 2787,
      "Ġforce": 2788,
      "ĠFeb": 2789,
      "ĠIm": 2790,
      "estern": 2791,
      "ledge": 2792,
      "Ġpersonal": 2793,
      "Ġanyone": 2794,
      "ãģ§": 2795,
      "era": 2796,
      "ĠWilliam": 2797,
      "ev": 2798,
      "To": 2799,
      "At": 2800,
      "Ġmyself": 2801,
      "Ġhundred": 2802,
      "Ġoil": 2803,
      "Ġclos": 2804,
      "itte": 2805,
      "ĠChina": 2806,
      "iction": 2807,
      "Ġrelationship": 2808,
      "ãģ¦": 2809,
      "Ġspecific": 2810,
      "Ġvalue": 2811,
      "Ãª": 2812,
      "leg": 2813,
      "ients": 2814,
      "Ġcustom": 2815,
      "Ġcareer": 2816,
      "clus": 2817,
      "Ġpoints": 2818,
      "###": 2819,
      "ĠSchool": 2820,
      "Ġleaders": 2821,
      "oura": 2822,
      "Ġwal": 2823,
      "Ġhistor": 2824,
      "Ġcreate": 2825,
      "cil": 2826,
      "ĠDecember": 2827,
      "Ġprovide": 2828,
      "Ġesc": 2829,
      "Ġbelow": 2830,
      "ĠApp": 2831,
      "oid": 2832,
      "ĠSoc": 2833,
      "Ġopt": 2834,
      "Ġhair": 2835,
      "Ġpopular": 2836,
      "ãģ¯": 2837,
      "Ġ100": 2838,
      "bit": 2839,
      "eed": 2840,
      "Ġ23": 2841,
      "Ġpublished": 2842,
      "Ġissue": 2843,
      "Ġ;": 2844,
      "ĠMon": 2845,
      "key": 2846,
      "Ġexec": 2847,
      "Ġchall": 2848,
      "Ġje": 2849,
      "Ġmember": 2850,
      "Ġintro": 2851,
      "action": 2852,
      "hood": 2853,
      "ĠPaul": 2854,
      "ironment": 2855,
      "Ġut": 2856,
      "Ġquickly": 2857,
      "ÃŃa": 2858,
      "anced": 2859,
      "sec": 2860,
      "Ġfear": 2861,
      "ĠNow": 2862,
      "Ġsecurity": 2863,
      "Ġwide": 2864,
      "Ġclub": 2865,
      "Ġil": 2866,
      "Ġ193": 2867,
      "antly": 2868,
      "Ġcontinued": 2869,
      "ĠEm": 2870,
      "Ġfunction": 2871,
      "ressed": 2872,
      "ruary": 2873,
      "ĠDr": 2874,
      "Ġfill": 2875,
      "Ġmaterial": 2876,
      "Ġbur": 2877,
      "Ġ2012": 2878,
      "ĠÐ²": 2879,
      "Ġsun": 2880,
      "Ġtotal": 2881,
      "Ġ)": 2882,
      "Ġoriginal": 2883,
      "Ġ2018": 2884,
      "Ġbott": 2885,
      "Ġmur": 2886,
      "asp": 2887,
      "Ġgrand": 2888,
      "ÑģÑĤ": 2889,
      "sequ": 2890,
      "Ġplayer": 2891,
      "Ġpack": 2892,
      "Ġess": 2893,
      "ends": 2894,
      "yond": 2895,
      "Ġalone": 2896,
      "Ġreve": 2897,
      "Ġsite": 2898,
      "face": 2899,
      "199": 2900,
      "ground": 2901,
      "Ġthous": 2902,
      "zy": 2903,
      "Ġdecided": 2904,
      "Ġ2013": 2905,
      "Ġassoci": 2906,
      "ĠCounty": 2907,
      "ĠSan": 2908,
      "aching": 2909,
      "ĠMor": 2910,
      "joy": 2911,
      "Ġdecision": 2912,
      "ĠDavid": 2913,
      "incip": 2914,
      "lam": 2915,
      "Ġstruct": 2916,
      "Ġrecent": 2917,
      "Ġcop": 2918,
      "Ġfre": 2919,
      "Ġcreated": 2920,
      "cy": 2921,
      "Sh": 2922,
      "Ġblock": 2923,
      "Ġbeaut": 2924,
      "Ġearlier": 2925,
      "eneral": 2926,
      "ãĤĴ": 2927,
      "RE": 2928,
      "Ġversion": 2929,
      "Ġalbum": 2930,
      "mon": 2931,
      "asc": 2932,
      "Ġnamed": 2933,
      "ĠWashington": 2934,
      "Ġkilled": 2935,
      "Ġinflu": 2936,
      "Ġaud": 2937,
      "Ġsi": 2938,
      "Ġâ": 2939,
      "rag": 2940,
      "Ġperfect": 2941,
      "Ġbreat": 2942,
      "Ġweeks": 2943,
      "ibr": 2944,
      "Ġadminist": 2945,
      "ilities": 2946,
      "aint": 2947,
      "Ġamount": 2948,
      "Ġexact": 2949,
      "anks": 2950,
      "Ġsto": 2951,
      "Ġmis": 2952,
      "obal": 2953,
      "ĠPress": 2954,
      "Ġways": 2955,
      "ĠPark": 2956,
      "Ġsepar": 2957,
      "ĠIsrael": 2958,
      "ceed": 2959,
      "Ġcook": 2960,
      "Ġvarious": 2961,
      "AP": 2962,
      "Ġmodern": 2963,
      "Not": 2964,
      "Ġtravel": 2965,
      "Ġtype": 2966,
      "Ġwritten": 2967,
      "ourt": 2968,
      "Ġpred": 2969,
      "Ġlanguage": 2970,
      "osition": 2971,
      "Ġ#": 2972,
      "Ġevidence": 2973,
      "Ġrights": 2974,
      "Ġkept": 2975,
      "izing": 2976,
      "My": 2977,
      "ĠWhite": 2978,
      "ĠAg": 2979,
      "wards": 2980,
      "ius": 2981,
      "ded": 2982,
      "Ġopened": 2983,
      "cer": 2984,
      "Ġnorm": 2985,
      "Ġfollowed": 2986,
      "Ġprivate": 2987,
      "iÃ³n": 2988,
      "ĠOb": 2989,
      "24": 2990,
      "ãģĮ": 2991,
      "lim": 2992,
      "Ġstood": 2993,
      "ams": 2994,
      "Ġreached": 2995,
      "Ġattention": 2996,
      "Ġcollect": 2997,
      "Ġpopulation": 2998,
      "sych": 2999,
      "Ġneeds": 3000,
      "Ġeasy": 3001,
      "ĠPal": 3002,
      "Ġmethod": 3003,
      "ãģª": 3004,
      "Ġpolicy": 3005,
      "Ġtro": 3006,
      "chie": 3007,
      "Ġstation": 3008,
      "Ġherself": 3009,
      "IT": 3010,
      "Ġenergy": 3011,
      "fort": 3012,
      "Ġsecret": 3013,
      "Ġregard": 3014,
      "IC": 3015,
      "Ġemer": 3016,
      "time": 3017,
      "omen": 3018,
      "Ġdraw": 3019,
      "idered": 3020,
      "band": 3021,
      "Ġ50": 3022,
      "erve": 3023,
      "Ġpan": 3024,
      "Ġnature": 3025,
      "Ġthinking": 3026,
      "Ġvisit": 3027,
      "ĠFebruary": 3028,
      "Ġbase": 3029,
      "Ġdoub": 3030,
      "Ġremember": 3031,
      "Ġ2010": 3032,
      "urb": 3033,
      "Ïģ": 3034,
      "ste": 3035,
      "Ġ26": 3036,
      "Ġsort": 3037,
      "Ġpaper": 3038,
      "fl": 3039,
      "ÏĤ": 3040,
      "Ġprep": 3041,
      "ae": 3042,
      "verage": 3043,
      "ny": 3044,
      "ests": 3045,
      "aled": 3046,
      "Ġexcept": 3047,
      "Ġparticular": 3048,
      "iff": 3049,
      "Ġhop": 3050,
      "emy": 3051,
      "Ġperhaps": 3052,
      "Ġspir": 3053,
      "Ġwouldn": 3054,
      "ãĥ¼": 3055,
      "Ġarch": 3056,
      "ming": 3057,
      "li": 3058,
      "uses": 3059,
      "Ġune": 3060,
      "arter": 3061,
      "Ġtarget": 3062,
      "Ġlives": 3063,
      "Ġhar": 3064,
      "Ġplaying": 3065,
      "Ñĩ": 3066,
      "Ġshows": 3067,
      "Ġlog": 3068,
      "ĠCong": 3069,
      "Ġbroad": 3070,
      "Ġgroups": 3071,
      "Ġ2011": 3072,
      "22": 3073,
      "Ġnorth": 3074,
      "ady": 3075,
      "ĠRed": 3076,
      "onse": 3077,
      "Ġinterview": 3078,
      "utions": 3079,
      "ĠJames": 3080,
      "Ġindic": 3081,
      "Ġquestions": 3082,
      "ault": 3083,
      "vert": 3084,
      "Ġsimple": 3085,
      "Ġshot": 3086,
      "Ġfinally": 3087,
      "lla": 3088,
      "Ġincluded": 3089,
      "Ġ27": 3090,
      "After": 3091,
      "ui": 3092,
      "Ġcontinue": 3093,
      "Ġnearly": 3094,
      "Ġservices": 3095,
      "Ġstates": 3096,
      "Ġopportun": 3097,
      "Ġsometimes": 3098,
      "Ġelection": 3099,
      "ĠJew": 3100,
      "ĠÂ«": 3101,
      "Ġ21": 3102,
      "âĢ¢": 3103,
      "Ġmodel": 3104,
      "Ġcorn": 3105,
      "Ġfloor": 3106,
      "Ġfing": 3107,
      "acher": 3108,
      "Ġissues": 3109,
      "ä¸": 3110,
      "Ġcontrib": 3111,
      "Ġ28": 3112,
      "Ġcred": 3113,
      "Ġband": 3114,
      "Ġcountries": 3115,
      "Ġchance": 3116,
      "Ġterms": 3117,
      "apt": 3118,
      "Ġge": 3119,
      "uit": 3120,
      "Ġinj": 3121,
      "Ġnatural": 3122,
      "Ïĥ": 3123,
      "Ġcivil": 3124,
      "Ġparticip": 3125,
      "ka": 3126,
      "ols": 3127,
      "ffic": 3128,
      "atives": 3129,
      "Ġcapital": 3130,
      "Ġpretty": 3131,
      "ĠStreet": 3132,
      "Ġphone": 3133,
      "Ġenjoy": 3134,
      "order": 3135,
      "Ġconsidered": 3136,
      "light": 3137,
      "Ġmeeting": 3138,
      "Ġfinanc": 3139,
      "BC": 3140,
      "ĠJack": 3141,
      "ĠDes": 3142,
      "ĠPat": 3143,
      "Ġsen": 3144,
      "ecause": 3145,
      "agement": 3146,
      "nder": 3147,
      "Ġtakes": 3148,
      "Ġevents": 3149,
      "unk": 3150,
      "Ġcompanies": 3151,
      "ĠAct": 3152,
      "ously": 3153,
      "ccording": 3154,
      "oming": 3155,
      "asons": 3156,
      "ĠRober": 3157,
      "Ġ--": 3158,
      "Ġrisk": 3159,
      "born": 3160,
      "ĠÐ½": 3161,
      "irth": 3162,
      "Ġmount": 3163,
      "ta": 3164,
      "iforn": 3165,
      "Ġcry": 3166,
      "ification": 3167,
      "dom": 3168,
      "Ġexam": 3169,
      "Ġcast": 3170,
      "Ġanswer": 3171,
      "ĠBer": 3172,
      "):": 3173,
      "ampions": 3174,
      "Ġparents": 3175,
      "Ġbenef": 3176,
      "Ġinvolved": 3177,
      "ros": 3178,
      "rab": 3179,
      "Ġcontract": 3180,
      "Ġfavor": 3181,
      "Ġcouple": 3182,
      "field": 3183,
      "23": 3184,
      "Ġwat": 3185,
      "aries": 3186,
      "cast": 3187,
      "',": 3188,
      "Ġsurv": 3189,
      "Ġliter": 3190,
      "ushed": 3191,
      "Ġsleep": 3192,
      "Ġbox": 3193,
      "dd": 3194,
      "Ġapplic": 3195,
      "round": 3196,
      "Ġappeared": 3197,
      "All": 3198,
      "Ġshare": 3199,
      "Ġcheck": 3200,
      "Ġdig": 3201,
      "Ġwood": 3202,
      "tr": 3203,
      "Ġworth": 3204,
      "Ġhigher": 3205,
      "ĠSer": 3206,
      "atory": 3207,
      "Ġsituation": 3208,
      "Ġmeant": 3209,
      "ĠEngland": 3210,
      "iday": 3211,
      "Ġproblems": 3212,
      "Ġspent": 3213,
      "rences": 3214,
      "Ġalthough": 3215,
      "Ġresults": 3216,
      "ios": 3217,
      "Ġpour": 3218,
      "Ġannounced": 3219,
      "Ġengine": 3220,
      "Ġreturned": 3221,
      "inally": 3222,
      "Ġfast": 3223,
      "Ġoffer": 3224,
      "Ġpassed": 3225,
      "tered": 3226,
      "60": 3227,
      "Ġprec": 3228,
      "Ġqui": 3229,
      "Ġsud": 3230,
      "ÏĢ": 3231,
      "Ġfine": 3232,
      "ĠVal": 3233,
      "ĠHigh": 3234,
      "Ġaffect": 3235,
      "hem": 3236,
      "hold": 3237,
      "Ġinternational": 3238,
      "Ġchanges": 3239,
      "US": 3240,
      "Ġready": 3241,
      "ilos": 3242,
      "ĠIndia": 3243,
      "arily": 3244,
      "Ġusually": 3245,
      "Ġborn": 3246,
      "Ġpath": 3247,
      "rs": 3248,
      "Ġprincip": 3249,
      "ki": 3250,
      "ĠBlack": 3251,
      "ÙĦ": 3252,
      "Ġmention": 3253,
      "Ġcit": 3254,
      "raw": 3255,
      "ĠEven": 3256,
      "Ġexpected": 3257,
      "iles": 3258,
      "Ġaw": 3259,
      "ifornia": 3260,
      "40": 3261,
      "rief": 3262,
      "Ġcontr": 3263,
      "ĠReg": 3264,
      "LE": 3265,
      "wood": 3266,
      "Ġsouth": 3267,
      "iant": 3268,
      "AC": 3269,
      "ĠEuropean": 3270,
      "rian": 3271,
      "Ġindustry": 3272,
      "zz": 3273,
      "80": 3274,
      "Ġinn": 3275,
      "ĠIndian": 3276,
      "inese": 3277,
      "Ġrelease": 3278,
      "elle": 3279,
      "see": 3280,
      "ĠRich": 3281,
      "One": 3282,
      "han": 3283,
      "Ġreview": 3284,
      "Ġcases": 3285,
      "Ġcause": 3286,
      "ĠAnt": 3287,
      "Ãł": 3288,
      "ography": 3289,
      "Ġserved": 3290,
      "Ġrout": 3291,
      "ils": 3292,
      "Ġuna": 3293,
      "ĠÑģ": 3294,
      "Ġproduction": 3295,
      "Tr": 3296,
      "Ġstaff": 3297,
      "aker": 3298,
      "Ã±": 3299,
      "Ġdog": 3300,
      "ĠChar": 3301,
      "Ġdescribed": 3302,
      "ittee": 3303,
      "Ġbeyond": 3304,
      "ĠGeorge": 3305,
      "ĠKe": 3306,
      "Ġstatement": 3307,
      "Ġneigh": 3308,
      "Ġdisp": 3309,
      "ĠWhile": 3310,
      "Ġareas": 3311,
      "ĠFrance": 3312,
      "Ġcandid": 3313,
      "ria": 3314,
      "Ġmovement": 3315,
      "iling": 3316,
      "Ġdemand": 3317,
      "Ġscient": 3318,
      "Ġtalking": 3319,
      "ĠEast": 3320,
      "ĠMark": 3321,
      "Ġ2008": 3322,
      "Ġeconomic": 3323,
      "Ġbi": 3324,
      "volution": 3325,
      "Ġwriting": 3326,
      "chen": 3327,
      "lection": 3328,
      "Ġgold": 3329,
      "Ġtruth": 3330,
      "With": 3331,
      "Ġlack": 3332,
      "Ġrepe": 3333,
      "Ġenvironment": 3334,
      "abor": 3335,
      "alys": 3336,
      "ĠBo": 3337,
      "Ġrefer": 3338,
      "ospital": 3339,
      "gu": 3340,
      "roy": 3341,
      "Ġmiddle": 3342,
      "Ġlegal": 3343,
      "Ã©e": 3344,
      "Ġtrou": 3345,
      "ano": 3346,
      "Le": 3347,
      "ĠdÃ©": 3348,
      "udd": 3349,
      "ners": 3350,
      "ĠCont": 3351,
      "Ġfocus": 3352,
      "inks": 3353,
      "Ġrock": 3354,
      "Ġcarry": 3355,
      "Ġaddress": 3356,
      "Ġloss": 3357,
      "Ġconvers": 3358,
      "Ġcontent": 3359,
      "Ġallowed": 3360,
      "Ġlif": 3361,
      "Ġachie": 3362,
      "col": 3363,
      "Ġsudden": 3364,
      "Ġcold": 3365,
      "Ġbooks": 3366,
      "mar": 3367,
      "Ġletter": 3368,
      "Ġplus": 3369,
      "Ġlower": 3370,
      "hib": 3371,
      "New": 3372,
      "Ġfeeling": 3373,
      "Ġresponse": 3374,
      "Ġcat": 3375,
      ",_": 3376,
      "Ġprotect": 3377,
      "ading": 3378,
      "Ġmatch": 3379,
      "ette": 3380,
      "Ġdrug": 3381,
      "Ġmach": 3382,
      "Ġshoot": 3383,
      "Ġboard": 3384,
      "aded": 3385,
      "Ġdisapp": 3386,
      "Ġpara": 3387,
      "Ġcomput": 3388,
      "Ġpas": 3389,
      "atever": 3390,
      "Ġpurp": 3391,
      "Ġshall": 3392,
      "ĠCalifornia": 3393,
      "iny": 3394,
      "Ġsch": 3395,
      "Ġ40": 3396,
      "ĠDepartment": 3397,
      "Ġmouth": 3398,
      "uments": 3399,
      "AD": 3400,
      "Ġimage": 3401,
      "alled": 3402,
      "Be": 3403,
      "Ġbank": 3404,
      "Ġsafe": 3405,
      "Ġbehav": 3406,
      "rey": 3407,
      "Ġarms": 3408,
      "lying": 3409,
      "Don": 3410,
      "Ġtowards": 3411,
      "Ġ2009": 3412,
      "isted": 3413,
      "reng": 3414,
      "Ġlas": 3415,
      "Ġ2019": 3416,
      "Ġsize": 3417,
      "Ar": 3418,
      "lig": 3419,
      "Ġir": 3420,
      "Yes": 3421,
      "ĠSim": 3422,
      "isl": 3423,
      "ĠSam": 3424,
      "Ġhus": 3425,
      "ĠLeague": 3426,
      "inary": 3427,
      "Ġterm": 3428,
      "va": 3429,
      "Ġbeginning": 3430,
      "atur": 3431,
      "king": 3432,
      "oring": 3433,
      "ero": 3434,
      "Ġens": 3435,
      "Ġfootball": 3436,
      "Ġvan": 3437,
      "Ġrespond": 3438,
      "Ġdeg": 3439,
      "Ġstraight": 3440,
      "ĠArt": 3441,
      "Ġnod": 3442,
      "Ġdans": 3443,
      "Ġgoes": 3444,
      "Ġcode": 3445,
      "Ġextra": 3446,
      "iced": 3447,
      "Ġsummer": 3448,
      "Is": 3449,
      "Ġwhom": 3450,
      "Ġ29": 3451,
      "Ġforces": 3452,
      "Ġcommand": 3453,
      "ĠAir": 3454,
      "ls": 3455,
      "ago": 3456,
      "Ġpotential": 3457,
      "Ġtour": 3458,
      "Ġgreen": 3459,
      "Ġbow": 3460,
      "Ġpage": 3461,
      "Ġchanged": 3462,
      "Ġcenter": 3463,
      "De": 3464,
      "Ġindepend": 3465,
      "berg": 3466,
      "rig": 3467,
      "Ġhous": 3468,
      "po": 3469,
      "ĠGeneral": 3470,
      "Ġperm": 3471,
      "21": 3472,
      "well": 3473,
      "Ġfair": 3474,
      "ĠMart": 3475,
      "omas": 3476,
      "27": 3477,
      "ÑĢÐ°": 3478,
      "ension": 3479,
      "Ġpark": 3480,
      "Ġrace": 3481,
      "ech": 3482,
      "istory": 3483,
      "Ġcondu": 3484,
      "Ġsource": 3485,
      "ING": 3486,
      "Ġcomment": 3487,
      "Ġpoor": 3488,
      "Ġseven": 3489,
      "ĠCongress": 3490,
      "Ġdream": 3491,
      "ibly": 3492,
      "Ġwarm": 3493,
      "Ġtrade": 3494,
      "ĠFirst": 3495,
      "Ġbattle": 3496,
      "Ġfresh": 3497,
      "ples": 3498,
      "Ġconcept": 3499,
      "Ġtouch": 3500,
      "owers": 3501,
      "enced": 3502,
      "Ġpractice": 3503,
      "Ġclosed": 3504,
      "acing": 3505,
      "ĠCourt": 3506,
      "Un": 3507,
      "Ġmix": 3508,
      "ram": 3509,
      "zen": 3510,
      "Ġperformance": 3511,
      "Ã¶r": 3512,
      "ller": 3513,
      "ety": 3514,
      "ĠChinese": 3515,
      "Ġimmediately": 3516,
      "come": 3517,
      "ems": 3518,
      "Ġrate": 3519,
      ":**": 3520,
      "Ġyourself": 3521,
      "Ġclean": 3522,
      "Ġ<": 3523,
      "ocked": 3524,
      "Ġtraining": 3525,
      "Ġdirector": 3526,
      "Ġsearch": 3527,
      "Ġstrugg": 3528,
      "Ġlooks": 3529,
      "ĠFrom": 3530,
      "Ġforeign": 3531,
      "Ġfederal": 3532,
      "ÐµÐ½": 3533,
      "Ġbuy": 3534,
      "Ġpen": 3535,
      "26": 3536,
      "inated": 3537,
      "Ġdefin": 3538,
      "Ġconsum": 3539,
      "Ġfigure": 3540,
      "Ġmeaning": 3541,
      "Ġaddition": 3542,
      "Ġweap": 3543,
      "iful": 3544,
      "Ġdemon": 3545,
      "Ġcrow": 3546,
      "ĠBill": 3547,
      "Ġdanger": 3548,
      "Ġblue": 3549,
      "ords": 3550,
      "Ġones": 3551,
      "Ġdaughter": 3552,
      "oo": 3553,
      "ĠNews": 3554,
      "bre": 3555,
      "ĠAnge": 3556,
      "Ġexperi": 3557,
      "rim": 3558,
      "cul": 3559,
      "Ð¾Ð²": 3560,
      "Ġship": 3561,
      "Ġchurch": 3562,
      "Ġstyle": 3563,
      "ession": 3564,
      "ĠParty": 3565,
      "ĠChe": 3566,
      "Ġonto": 3567,
      "pir": 3568,
      "Ġprison": 3569,
      "Ġmultip": 3570,
      "ression": 3571,
      "Ġimpact": 3572,
      "Ġhour": 3573,
      "cial": 3574,
      "itar": 3575,
      "ini": 3576,
      "igr": 3577,
      "ĠTV": 3578,
      "oyal": 3579,
      "Ġcontact": 3580,
      "Ġcam": 3581,
      "ĠAlex": 3582,
      "Ġang": 3583,
      "Ġnation": 3584,
      "Ġemb": 3585,
      "Ġprice": 3586,
      "pre": 3587,
      "á½": 3588,
      "Ġofficials": 3589,
      "Ġrequire": 3590,
      "Ġfif": 3591,
      "ĠRec": 3592,
      "Ġcy": 3593,
      "ston": 3594,
      "29": 3595,
      "Ġglass": 3596,
      "itz": 3597,
      "Ġsociety": 3598,
      "Ġknowledge": 3599,
      "ita": 3600,
      "Ġrange": 3601,
      "Ġdeterm": 3602,
      "but": 3603,
      "Ġsea": 3604,
      "ĠRussian": 3605,
      "Ġeye": 3606,
      "lls": 3607,
      "Ġgrad": 3608,
      "Ġregion": 3609,
      "ĠCap": 3610,
      "ora": 3611,
      "Ġspecies": 3612,
      "ĠMac": 3613,
      "Ġgoal": 3614,
      "rupt": 3615,
      "Ġcomplex": 3616,
      "ville": 3617,
      "no": 3618,
      "astic": 3619,
      "wise": 3620,
      "imately": 3621,
      "28": 3622,
      "Ġoccur": 3623,
      "Ġbill": 3624,
      "Ã¤r": 3625,
      "Ġcompletely": 3626,
      "ĠMichael": 3627,
      "Ġonline": 3628,
      "Ġfeatures": 3629,
      "Ġbab": 3630,
      "ishing": 3631,
      "ED": 3632,
      "icro": 3633,
      "Ġment": 3634,
      "Ġliber": 3635,
      "ĠMore": 3636,
      "Ġvia": 3637,
      "Ġapproach": 3638,
      "Ġslight": 3639,
      "oly": 3640,
      "Ġprevious": 3641,
      "ula": 3642,
      "vey": 3643,
      "Ġstage": 3644,
      "Ġplant": 3645,
      "Ġmoving": 3646,
      "Ġrecently": 3647,
      "do": 3648,
      "Ġparticularly": 3649,
      "Ġaverage": 3650,
      "ya": 3651,
      "Ġbal": 3652,
      "ĠCoun": 3653,
      "Ġhuge": 3654,
      "Ġking": 3655,
      "Ġincrease": 3656,
      "lands": 3657,
      "Ġlaws": 3658,
      "Ġtrust": 3659,
      "Ġtechnology": 3660,
      "olic": 3661,
      "Ġleading": 3662,
      "Ġleader": 3663,
      "Ġrequired": 3664,
      "ĠChristian": 3665,
      "Ä±": 3666,
      "ength": 3667,
      "burg": 3668,
      "ĠDist": 3669,
      "Ġhappen": 3670,
      "Ġspot": 3671,
      "Ġanc": 3672,
      "erved": 3673,
      "Ġdrink": 3674,
      "Ġstopped": 3675,
      "ication": 3676,
      "Ġstreet": 3677,
      "Ġculture": 3678,
      "utive": 3679,
      "Ġwindow": 3680,
      "Ġparts": 3681,
      "Ġbeg": 3682,
      "itude": 3683,
      "Ġau": 3684,
      "Ġmer": 3685,
      "anch": 3686,
      "Ġprogress": 3687,
      "Ġanti": 3688,
      "Ġthroughout": 3689,
      "asion": 3690,
      "Ġexactly": 3691,
      "ura": 3692,
      "rect": 3693,
      "Ġheat": 3694,
      "aches": 3695,
      "Ġvillage": 3696,
      "Ġability": 3697,
      "Ġgiving": 3698,
      "ĠCanada": 3699,
      "ĠInt": 3700,
      "Ġchair": 3701,
      "Ġbes": 3702,
      "Ph": 3703,
      "ĠLou": 3704,
      "Ġwalked": 3705,
      "Ġstreng": 3706,
      "rely": 3707,
      "ĠØ": 3708,
      "idents": 3709,
      "Ġunc": 3710,
      "ogle": 3711,
      "Ġnetwork": 3712,
      "Ġplat": 3713,
      "text": 3714,
      "ĠFranc": 3715,
      "Ġstar": 3716,
      "icles": 3717,
      "set": 3718,
      "eds": 3719,
      "Ġspread": 3720,
      "Ġfat": 3721,
      "ĠMag": 3722,
      "OS": 3723,
      "ante": 3724,
      "oses": 3725,
      "Oh": 3726,
      "Ġeducation": 3727,
      "Ġfinancial": 3728,
      "Ġwild": 3729,
      "www": 3730,
      "Ġmist": 3731,
      "ares": 3732,
      "Ġprovided": 3733,
      "Ġnovel": 3734,
      "Ġemot": 3735,
      "Ġ2007": 3736,
      "Ġdin": 3737,
      "'.": 3738,
      "Ġburn": 3739,
      "oper": 3740,
      "Ġraised": 3741,
      "llig": 3742,
      "aling": 3743,
      "Ġaf": 3744,
      "Cl": 3745,
      "Ġproduc": 3746,
      "lege": 3747,
      "based": 3748,
      "ĠInternational": 3749,
      "Ġvote": 3750,
      "useum": 3751,
      "ears": 3752,
      "ipped": 3753,
      "duction": 3754,
      "Ġpal": 3755,
      "Ġnecessary": 3756,
      "Ġwebs": 3757,
      "Ġobv": 3758,
      "lected": 3759,
      "Ġpiece": 3760,
      "ĠRussia": 3761,
      "Ġpsych": 3762,
      "anned": 3763,
      "ĠCam": 3764,
      "Ġstories": 3765,
      "Ġworkers": 3766,
      "icated": 3767,
      "Ġhappy": 3768,
      "AM": 3769,
      "ando": 3770,
      "ĠQue": 3771,
      "....": 3772,
      "put": 3773,
      "ĠHen": 3774,
      "Ġarrest": 3775,
      "Ġplaces": 3776,
      "Ġsignificant": 3777,
      "Ġein": 3778,
      "icip": 3779,
      "Ġign": 3780,
      "Ġglobal": 3781,
      "reek": 3782,
      "Ġreach": 3783,
      "Ġhusband": 3784,
      "alysis": 3785,
      "ii": 3786,
      "acebook": 3787,
      "Ġnumbers": 3788,
      "ĠÏĦ": 3789,
      "Ġtwenty": 3790,
      "Ġreb": 3791,
      "ĠMary": 3792,
      "more": 3793,
      "Ġheavy": 3794,
      "Ġpulled": 3795,
      "Ġlines": 3796,
      "ãģĻ": 3797,
      "ĠBel": 3798,
      "Ġleaving": 3799,
      "=\"": 3800,
      "Pro": 3801,
      "Ð·": 3802,
      "Ġlocated": 3803,
      "isions": 3804,
      "icht": 3805,
      "OU": 3806,
      "Ġmaybe": 3807,
      "Ġtitle": 3808,
      "ĠSund": 3809,
      "Ġcele": 3810,
      "Ġ2006": 3811,
      "Ġahead": 3812,
      "ĠMiss": 3813,
      "aked": 3814,
      "Ġwonder": 3815,
      "####": 3816,
      "Ġassist": 3817,
      "Ġbirth": 3818,
      "ilies": 3819,
      "Ġinstit": 3820,
      "Ġconstit": 3821,
      "Ġcard": 3822,
      "Ġeffort": 3823,
      "aining": 3824,
      "hi": 3825,
      "---": 3826,
      "inct": 3827,
      "Do": 3828,
      "oted": 3829,
      "levision": 3830,
      "ĠPort": 3831,
      "Ġfirm": 3832,
      "Ġlink": 3833,
      "ĠChurch": 3834,
      "ias": 3835,
      "ĠRiver": 3836,
      "aging": 3837,
      "Ġcas": 3838,
      "Ġspirit": 3839,
      "70": 3840,
      "Ġcentral": 3841,
      "ĠEvery": 3842,
      "outhern": 3843,
      "Ġdrive": 3844,
      "Ġacqu": 3845,
      "ĠMad": 3846,
      "ĠLet": 3847,
      "Ġquiet": 3848,
      "down": 3849,
      "Ġdistrict": 3850,
      "riage": 3851,
      "itation": 3852,
      "ĠÂ»": 3853,
      "Ġserious": 3854,
      "ĠHill": 3855,
      "Ġdirectly": 3856,
      "Ġwants": 3857,
      "Ġaware": 3858,
      "Ġshowed": 3859,
      "Ġearth": 3860,
      "Ġmiles": 3861,
      "ĠSal": 3862,
      "ampionship": 3863,
      "Ġpeace": 3864,
      "Ġwrite": 3865,
      "Ġqual": 3866,
      "ĠInst": 3867,
      "Now": 3868,
      "Well": 3869,
      "Ġplans": 3870,
      "ĠUK": 3871,
      "irty": 3872,
      "ga": 3873,
      "Ġarticle": 3874,
      "Ġcritic": 3875,
      "ĠMal": 3876,
      "Ġx": 3877,
      "ĠCom": 3878,
      "Ġsystems": 3879,
      "yr": 3880,
      "ipp": 3881,
      "ĠCons": 3882,
      "ĠAc": 3883,
      "Ġcertainly": 3884,
      "ĠServ": 3885,
      "ĠĠĠĠĠĠĠĠ": 3886,
      "reedom": 3887,
      "ĠCenter": 3888,
      "orthern": 3889,
      "Ġalle": 3890,
      "Ġprior": 3891,
      "Ġcolor": 3892,
      "ĠAmericans": 3893,
      "ĠStud": 3894,
      "Â»": 3895,
      "Ġprevent": 3896,
      "ĠRobert": 3897,
      "Ġdocument": 3898,
      "Ġscene": 3899,
      "Ġjournal": 3900,
      "Ġlived": 3901,
      "Ġlat": 3902,
      "Ġmill": 3903,
      "Ġchief": 3904,
      "Ġgar": 3905,
      "ources": 3906,
      "Ġfix": 3907,
      "Ġfarm": 3908,
      "Ġunf": 3909,
      "Ġ+": 3910,
      "II": 3911,
      "Ġeat": 3912,
      "Ġincreasing": 3913,
      "Ġcool": 3914,
      "ĠAssoci": 3915,
      "Ġfrequ": 3916,
      "Ġhom": 3917,
      "OT": 3918,
      "ĠEr": 3919,
      "ĠJer": 3920,
      "Ġdeveloped": 3921,
      "Ġproduced": 3922,
      "Ex": 3923,
      "umn": 3924,
      "45": 3925,
      "35": 3926,
      "Ġwa": 3927,
      "ĠGreat": 3928,
      "Ġmessage": 3929,
      "Ġscience": 3930,
      "unn": 3931,
      "Ġreading": 3932,
      "Ġbillion": 3933,
      "ĠTur": 3934,
      "ounds": 3935,
      "ĠMex": 3936,
      "Ġhadn": 3937,
      "Ġveh": 3938,
      "Ġsexual": 3939,
      "Ġwaiting": 3940,
      "ID": 3941,
      "ĠParis": 3942,
      "Ġextreme": 3943,
      "Ġchoice": 3944,
      "Ġpaid": 3945,
      "Ġconditions": 3946,
      "Ġcaught": 3947,
      "Ġgets": 3948,
      "ancy": 3949,
      "inton": 3950,
      "orks": 3951,
      "Con": 3952,
      "Ġult": 3953,
      "org": 3954,
      "chan": 3955,
      "ĠTHE": 3956,
      "Ġhelped": 3957,
      "ĠBen": 3958,
      "uing": 3959,
      "ĠObama": 3960,
      "Ġcurrently": 3961,
      "Why": 3962,
      "Ġmedical": 3963,
      "Ġestablished": 3964,
      "using": 3965,
      "olf": 3966,
      "Ġteams": 3967,
      "Ġstanding": 3968,
      "Ġshut": 3969,
      "Ġgrowing": 3970,
      "Ġstore": 3971,
      "uty": 3972,
      "Ġpun": 3973,
      "Ġvictim": 3974,
      "Ġcitiz": 3975,
      "ĠSee": 3976,
      "Ġstuff": 3977,
      "Ġmarried": 3978,
      "Ġdise": 3979,
      "ona": 3980,
      "now": 3981,
      "Ġbrief": 3982,
      "Ġmo": 3983,
      "Ġphilos": 3984,
      "ĠUnion": 3985,
      "Äģ": 3986,
      "ĠMil": 3987,
      "Ġspl": 3988,
      "ĠGermany": 3989,
      "Ġscreen": 3990,
      "Ġimprove": 3991,
      "lict": 3992,
      "bert": 3993,
      "Ġremains": 3994,
      "itness": 3995,
      "Ġeasily": 3996,
      "Ġcounter": 3997,
      "Ġuns": 3998,
      "oles": 3999,
      "Ġprem": 4000,
      "house": 4001,
      "Ġattract": 4002,
      "Ġterror": 4003,
      "enge": 4004,
      "Ġ`": 4005,
      "vis": 4006,
      "Ãº": 4007,
      "aste": 4008,
      "ĠYour": 4009,
      "Ġphysical": 4010,
      "99": 4011,
      "Ġremained": 4012,
      "ĠGovern": 4013,
      "Ġyes": 4014,
      "Ġgrowth": 4015,
      "Ġoffered": 4016,
      "ĠFrank": 4017,
      "ĠMid": 4018,
      "OM": 4019,
      "EL": 4020,
      "ĠAdd": 4021,
      "Ġforced": 4022,
      "Ġli": 4023,
      "Ġarrived": 4024,
      "Ġspoke": 4025,
      "orrow": 4026,
      "Ġdate": 4027,
      "ĠTimes": 4028,
      "Ġproperty": 4029,
      "Ġthus": 4030,
      "Ġrules": 4031,
      "stitute": 4032,
      "ĠTra": 4033,
      "ĠPhil": 4034,
      "arning": 4035,
      "iance": 4036,
      "ĠGreen": 4037,
      "Ġspeed": 4038,
      "Ġpurch": 4039,
      "Ġcru": 4040,
      "Ġdespite": 4041,
      "Ġgod": 4042,
      "Se": 4043,
      "ĠCollege": 4044,
      ".**": 4045,
      "ĠÐ¾": 4046,
      "change": 4047,
      "van": 4048,
      "Ġeventually": 4049,
      "Ġarmy": 4050,
      "ãĥ³": 4051,
      "hest": 4052,
      "Ġdesigned": 4053,
      "enth": 4054,
      "Ġskin": 4055,
      "ĠTrans": 4056,
      "Ġtransl": 4057,
      "cious": 4058,
      "ĠMond": 4059,
      "board": 4060,
      "Ġbelieved": 4061,
      "Ġnor": 4062,
      "Ġclot": 4063,
      "cell": 4064,
      "ET": 4065,
      "Ġsection": 4066,
      "Î»": 4067,
      "ola": 4068,
      "Ġdefe": 4069,
      "Ġreports": 4070,
      "Ġfle": 4071,
      "ĠKore": 4072,
      "Ġspok": 4073,
      "Ġjoined": 4074,
      "Ġsurround": 4075,
      "ivity": 4076,
      "Ġshown": 4077,
      "rend": 4078,
      "Ġdistrib": 4079,
      "just": 4080,
      "ena": 4081,
      "oto": 4082,
      "Ġfinished": 4083,
      "Ġcelebr": 4084,
      "Ġ{": 4085,
      "Ïħ": 4086,
      "Ġfort": 4087,
      "Ġlearned": 4088,
      "Ñħ": 4089,
      "ocks": 4090,
      "Ġguy": 4091,
      "ĠLaw": 4092,
      "Ġarr": 4093,
      "Ġquality": 4094,
      "Ġintellig": 4095
    },
    "merges": [
      "Ġ t",
      "h e",
      "Ġ a",
      "i n",
      "r e",
      "Ġt he",
      "o n",
      "Ġ s",
      "e r",
      "Ġ w",
      "Ġ o",
      "a t",
      "e n",
      "a n",
      "Ġ c",
      "i t",
      "i s",
      "e d",
      "Ġ b",
      "o r",
      "e s",
      "Ġ f",
      "o u",
      "Ġ p",
      "in g",
      "n d",
      "a r",
      "Ġ m",
      "a l",
      "Ġo f",
      "Ġ d",
      "Ġt o",
      "Ġ h",
      "Ġ in",
      "a s",
      "Ġa nd",
      "i c",
      "l e",
      "Ġt h",
      "o m",
      "i on",
      "Ġ l",
      "Ġ n",
      "l l",
      "en t",
      "Ġ e",
      "s t",
      "Ġ re",
      "r o",
      "â Ģ",
      "Ġ g",
      "v e",
      "l y",
      "i d",
      "a d",
      "Ġb e",
      "Ġ I",
      "a c",
      "u t",
      "Ġ T",
      "o t",
      "Ġ S",
      "Ġ he",
      "i m",
      "e t",
      "Ġ on",
      "Ġ A",
      "a m",
      "o w",
      "s e",
      "i g",
      "a y",
      "u r",
      "l d",
      "Ġ C",
      "Ġth at",
      "Ġ u",
      "Ġf or",
      "v er",
      "Ġ y",
      "Ġ is",
      "i r",
      "Ġs t",
      "c t",
      "Ġw as",
      "Ġ M",
      "i l",
      "Ġ it",
      "it h",
      "o l",
      "Ġa s",
      "c h",
      "c e",
      "Ġ B",
      "t er",
      "Ġw h",
      "at ion",
      "Ġw ith",
      "Ġd e",
      "Ġw e",
      "Ġ H",
      "Ġa n",
      "Ġ 1",
      "Ġy ou",
      "Ġ P",
      "r i",
      "he r",
      "an d",
      "' s",
      "k e",
      "Ġ (",
      "r a",
      "Ġa t",
      "i ll",
      "Ġc on",
      "Ġs e",
      "i f",
      "u s",
      "ĠT he",
      "g e",
      "u l",
      "Ġ W",
      "h t",
      "Ġ D",
      "er s",
      "is t",
      "o d",
      "Ġ R",
      "p p",
      "es t",
      "o s",
      "q u",
      "e m",
      "u n",
      "o re",
      "u m",
      "r om",
      "Ġ F",
      "Ġ v",
      "t h",
      "Ġ r",
      "Ġh a",
      "at e",
      "Ġ L",
      "Ġ 2",
      "e l",
      "Ġh is",
      "Ġ \"",
      "Ġc om",
      "Ġ G",
      "a in",
      "o p",
      "an t",
      "Ġp ro",
      "re s",
      "ou ld",
      "Ġ N",
      "a b",
      "es s",
      "âĢ Ļ",
      "Ġn e",
      "Ġo r",
      "Ġn ot",
      "Ġb y",
      "Ġ E",
      "Ġa l",
      "Ġf rom",
      "i e",
      "Ġe x",
      "Ġa re",
      "ig ht",
      "o c",
      "re d",
      "Ġs u",
      "Ġs h",
      "Ġ le",
      "ar t",
      "Ġ J",
      "it y",
      "or t",
      "Ġ âĢ",
      "n t",
      "al l",
      "i ve",
      "Ġ k",
      "Ġh ad",
      "ar d",
      "Ġc h",
      "p e",
      "u st",
      "Ġha ve",
      "m ent",
      "en d",
      "i v",
      "i es",
      "Ġs a",
      "Ġhe r",
      "ac k",
      "ou t",
      "ou r",
      "T he",
      "o k",
      "Ġ O",
      "Ġth is",
      "ou g",
      "Ġ j",
      "a k",
      "as t",
      "Ġa b",
      "a g",
      "Ġm e",
      "om e",
      "Ġp l",
      "0 0",
      "a p",
      "u d",
      "Ġd o",
      "ic h",
      "Ġb ut",
      "t e",
      "al ly",
      "Ġg o",
      "Ġw or",
      "o st",
      "ã ģ",
      ". \"",
      "Ġw he",
      "ou nd",
      "Ġa ll",
      "on g",
      "id e",
      "Ġthe y",
      "Ġwe re",
      "ou s",
      "e ar",
      "in e",
      "Ġo ut",
      "Ġa r",
      "u re",
      "Ġ1 9",
      "Ġ K",
      "i a",
      "am e",
      "p t",
      "Ġt r",
      "Ġs he",
      "b er",
      "t her",
      "an s",
      "Ġs o",
      "Ġwh o",
      "Ġc an",
      "on e",
      "Ġ U",
      "Ġu p",
      "Ġu n",
      "Ġsa id",
      "Ġ qu",
      "f f",
      "in d",
      "t o",
      "Ġ en",
      "' t",
      "Ġthe ir",
      "i p",
      "i al",
      "Ġ _",
      "Ġon e",
      "ic e",
      "Ġh as",
      "oug h",
      "o g",
      "at ed",
      "o ok",
      "n e",
      "Ġc l",
      "ion s",
      "i ke",
      "ĠH e",
      "a re",
      "a ge",
      "a u",
      "p l",
      "Ġw ould",
      "Ġh im",
      "Ġm y",
      "ac t",
      "i z",
      "im e",
      "Ġwh ich",
      "r y",
      "ac e",
      "u e",
      "Ġ im",
      "as s",
      "Ġm an",
      "a v",
      "Ġw ill",
      "e p",
      "Ġa d",
      "ar y",
      "âĢ Ŀ",
      "Ġm ore",
      "Ġ Ġ",
      "Ġu s",
      "Ã ©",
      "u b",
      "a ke",
      "Ġab out",
      "Ġt e",
      "ĠI n",
      "Ġa g",
      "c c",
      "Ġbe en",
      "p er",
      "ver y",
      "i re",
      "* *",
      "ĠT h",
      "i an",
      "v en",
      "Ġthe m",
      "ow n",
      "Ġcon t",
      "Ġs p",
      "0 1",
      "it e",
      "on d",
      "or d",
      "Ġf e",
      "o se",
      "Ġ V",
      "ĠS t",
      "ĠC h",
      "Ġcom p",
      "i b",
      "Ġof f",
      "s o",
      "ig n",
      "Ġyou r",
      "Ġn o",
      "ĠI t",
      "r u",
      "ab le",
      "Ġl ike",
      "Ġ Y",
      "he d",
      "c l",
      "is h",
      "ic al",
      "res s",
      "m er",
      "Ġin to",
      "Ġp er",
      "e ct",
      "Ġo ther",
      "ic k",
      "Ġo ver",
      ", \"",
      "Ġthe re",
      "en ce",
      "ac h",
      "i le",
      "Ġp e",
      "Ġ ro",
      "âĢ Ķ",
      "Ġd is",
      "an ce",
      "ay s",
      "Ġre s",
      "Ġk n",
      "Ġs ome",
      "Ġwhe n",
      "w n",
      "ul t",
      "Ġt w",
      "f ter",
      "Ġwh at",
      "an g",
      "Ġp art",
      "or m",
      "ation s",
      "Ġs c",
      "or y",
      "Ġbe c",
      "Ġa pp",
      "en s",
      "u c",
      "k s",
      "Ġt ime",
      "re e",
      "ct ion",
      "ou nt",
      "ĠâĢ ľ",
      "re n",
      "Ġc ould",
      "o ve",
      "Ġan y",
      "re at",
      "Ġg r",
      "Ġl a",
      "ad e",
      "Ġ 3",
      "ir st",
      "Ġal so",
      "Ġ if",
      "in t",
      "Ġ2 01",
      "Ġth an",
      "Ġy ear",
      "ing s",
      "Ġit s",
      "w e",
      "o od",
      "ar k",
      "Ġb l",
      "se l",
      "r it",
      "o v",
      "Ġd es",
      "f e",
      "Ġp r",
      "Ġd id",
      "ur n",
      ". .",
      "as e",
      "op le",
      "Ġu nd",
      "in k",
      "Ġp re",
      "Ġc o",
      "ve l",
      "Ġj ust",
      "Ġre c",
      "it ion",
      "i ld",
      "h ing",
      "Ġb ack",
      "p ort",
      "ĠâĢ ĵ",
      "at er",
      "or s",
      "Ġwor k",
      "Ġne w",
      "ic t",
      "Ġf irst",
      "ver s",
      "f t",
      "Ġ Ð",
      "o b",
      "i ous",
      "a il",
      "on s",
      "ã Ĥ",
      "Ġg et",
      "er v",
      "Ġ '",
      "ent s",
      "Ġon ly",
      "Ġtw o",
      "Ġf l",
      "Ġpe ople",
      "am p",
      "Ġp o",
      "âĢ ĵ",
      "o y",
      "Ġa fter",
      "it t",
      ") ,",
      "e w",
      "Ġat t",
      "Ġo ur",
      "l es",
      "is s",
      "Ġkn ow",
      "an c",
      "au se",
      "Ġag ain",
      "l ic",
      "Ġcom m",
      "Ġbe t",
      "Ġh ow",
      "Ġs pe",
      "he n",
      "Ġ ,",
      "u ll",
      "Ġthe n",
      "Ġa m",
      ") .",
      "Ġl ook",
      "at es",
      "f ore",
      "e ll",
      "Ġund er",
      "p h",
      "r ough",
      "m an",
      "i ed",
      "f orm",
      "o ll",
      "at h",
      "e c",
      "Ġ 4",
      "u al",
      "Ġa cc",
      "ig h",
      "Ġse e",
      "Ð ¾",
      "ot her",
      "on t",
      "n ing",
      "id ent",
      "ter n",
      "Ġs m",
      "Ġa ct",
      "u ch",
      "ĠU n",
      "o ld",
      "Ġw ant",
      "Ġp ol",
      "Ġ |",
      "Ġe ven",
      "Ġn ow",
      "Ġth rough",
      "Ġm ost",
      "oc k",
      "w ard",
      "Ġre m",
      "i ly",
      "if e",
      "sel f",
      "is e",
      "Ġd own",
      "? \"",
      "h at",
      "s s",
      "Ġb r",
      "Ġin d",
      "Ġpl ay",
      "Ġ2 00",
      "Ġwhe re",
      "Ġcon s",
      "n g",
      "Ġe m",
      "x t",
      "ĠS he",
      "w ay",
      "Ġw ay",
      "os s",
      "Ġse c",
      "i er",
      "Ġe very",
      "ro w",
      "Ġ 5",
      "oug ht",
      "I n",
      "Ġre l",
      "en c",
      "ot h",
      "ation al",
      "ã ĥ",
      "ĠB ut",
      "Ġa c",
      "ĠA nd",
      "Ġh and",
      "Ġne ed",
      "cl ud",
      "re nt",
      "Ġbe fore",
      "Ġl ong",
      "u nd",
      "Ġ -",
      "u p",
      "Ġo wn",
      "er t",
      "le ct",
      "ri b",
      "Ġyear s",
      "Ġc all",
      "t y",
      "l ed",
      "it ed",
      "om et",
      "Ġin v",
      "at her",
      "g r",
      "i o",
      "k ed",
      "Ġr ight",
      "d u",
      "j ect",
      "Ġm ade",
      "Ġm ay",
      "pe ct",
      "Ġthe se",
      "u g",
      "l and",
      "Ġ ra",
      "at ing",
      "Ġbec ause",
      "Ð °",
      "Ġm ake",
      "Ġd on",
      "ak ing",
      "Ġsh ould",
      "Ġ Ċ",
      "1 9",
      "Ġ ent",
      "or n",
      "Ġwe ll",
      "Ġin c",
      "Ġs l",
      "Ġde c",
      "Ð µ",
      "a h",
      "Ġt ra",
      "Ġth ink",
      "ĠW e",
      "Ġd if",
      "Ġp res",
      "Ġp h",
      "g an",
      "ar ly",
      "ur ing",
      "Ġs ur",
      "he s",
      "Ġe v",
      "ow er",
      "an ge",
      "mer ic",
      "Ġm uch",
      "ol og",
      "Ġre g",
      "Ġas s",
      "ĠTh is",
      "Ġ ke",
      "t en",
      "al s",
      "Ġ end",
      "Ġad d",
      "i x",
      "f ul",
      "ar s",
      "# #",
      "a ir",
      "Ġsu pp",
      "ou p",
      "Ġbe ing",
      "Ġman y",
      "t ing",
      "en er",
      "g et",
      "Ġs y",
      "Ġb u",
      "in s",
      "Ġ .",
      "a ve",
      "Ġ very",
      "b le",
      "Ġim p",
      "at ive",
      "Ġsu ch",
      "Ġf in",
      "is m",
      "Ġin clud",
      "Ã ¤",
      "ub lic",
      "Ġo b",
      "a z",
      "as ed",
      "ter s",
      "Ġbe l",
      "e red",
      "ou se",
      "o ol",
      "it ies",
      "ib le",
      "ic s",
      "Ġo p",
      "in ce",
      "ĠR e",
      "Ġs ay",
      "i et",
      "if ic",
      "ĠN ew",
      "Ġm in",
      "we en",
      "ĠA l",
      "Ġe l",
      "or k",
      "ers on",
      "ie w",
      "Ġc ol",
      "Ġgo od",
      "ĠA r",
      "Ġg u",
      "Ġs et",
      "Ġ1 8",
      "Ġsu b",
      "as on",
      "m s",
      "Ð ¸",
      "Ġth ose",
      "ĠA meric",
      "h ip",
      "Ġst ill",
      "ĠâĢ Ķ",
      "al e",
      "Ġ 6",
      "i ent",
      "an k",
      "ĠA n",
      "Ġc ar",
      "Ġbet ween",
      "d ay",
      "ver n",
      "Ġre t",
      "ĠL e",
      "oll ow",
      "t s",
      "Ġhe re",
      "y s",
      "ĠS e",
      "p r",
      "o h",
      "ĠD e",
      "er n",
      "Ġar ound",
      "Ġhe ad",
      "v ed",
      "it s",
      "Ġhe l",
      "H e",
      "Ġ Ã",
      "ĠM ar",
      "ĠT r",
      "ou n",
      "Ġs omet",
      "Ñ Ĥ",
      "ĠY ou",
      "a red",
      "' d",
      "Ġf ound",
      "Ġst art",
      "ĠThe y",
      "Ġu se",
      "Ġf am",
      "Ġin ter",
      "Ġin st",
      "I t",
      "Ġm on",
      "g g",
      "Ġl ast",
      "om m",
      "re ad",
      "Ġwor ld",
      "um p",
      ". âĢĿ",
      "Ġc he",
      "im es",
      "c ess",
      "Ġwh ile",
      "ce pt",
      "Ġsh ow",
      "Ġin s",
      "Ġf r",
      "Ġc ount",
      "Ġc r",
      "u res",
      "Ġagain st",
      "Ġgo ing",
      "al k",
      "ment s",
      "u ally",
      "Ġst ud",
      "Ġst r",
      "i k",
      "Ġqu e",
      "Ġg l",
      "Ġt er",
      "ĠA s",
      "c k",
      "t he",
      "T h",
      "Ġt ake",
      "c es",
      "Ġt urn",
      "Ġs ame",
      "us s",
      "Ġl ife",
      "n ess",
      "re st",
      "Ġto o",
      "Ġd ay",
      "pp ed",
      "Ġtr ans",
      "Ġth ree",
      "Ġs er",
      "Ġw om",
      "a w",
      "Ġhel p",
      "Ġin t",
      "Ġpo int",
      "Ġdo es",
      "n er",
      "Ġs erv",
      "Ġs im",
      "Ġm ed",
      "Ġc ent",
      "Ġde f",
      "d er",
      "il ity",
      "Ġdis c",
      "u es",
      "in es",
      "o ot",
      "i vers",
      "itt le",
      "ist s",
      "Ġf ollow",
      "e k",
      "ar m",
      "an y",
      "Ġm em",
      "r ic",
      "Ġ est",
      "ut ion",
      "ro ss",
      "Ġre al",
      "at ch",
      "- -",
      "Ġc ap",
      "Ġ 7",
      "ul ar",
      "âĢ ľ",
      "Ġe ff",
      "Ġex p",
      "en e",
      "Ġn um",
      "ĠS h",
      "t on",
      "Ġne ver",
      "a j",
      "Ġd et",
      "ar l",
      "Ġg reat",
      "e ver",
      "iv es",
      "Ġus ed",
      "Ġle ad",
      "re t",
      "Ġdif fe",
      "Ġh igh",
      "Ġre p",
      "od y",
      "Ġb oth",
      "in ed",
      "ã Ģ",
      ", âĢĿ",
      "v ing",
      "Ġin te",
      "ch ool",
      "a x",
      "ut h",
      "an n",
      "is hed",
      "Ġre f",
      "Ġspe c",
      "Ð ½",
      "Ġb ro",
      "Ġd ist",
      "Ġ $",
      "Ġc our",
      "' re",
      "Ġs ign",
      "y ing",
      "Ġpro v",
      "Ġfor m",
      "Ġm od",
      "Ġ es",
      "Ñ ģ",
      "b e",
      "au g",
      "st em",
      "at t",
      "en ed",
      "Ġm et",
      "Ġdid n",
      "Ġch ar",
      "Ġf ind",
      "Ġ 8",
      "ri ed",
      "Ġre ad",
      "c om",
      "th ing",
      "Ġd ire",
      "ar n",
      "Ġl ar",
      "ĠF r",
      "Ġp ass",
      "Ñ Ģ",
      "am es",
      "ĠW h",
      "m e",
      "Ġex t",
      "Ġl oc",
      "is ion",
      "Ġcom e",
      "Ġan other",
      "Ġ ed",
      "Ġr un",
      "Ġc re",
      "iz ed",
      "Ġl ittle",
      "vel op",
      "Ġle t",
      "Ġp erson",
      "Ġch ild",
      "Ġm ight",
      "Ġth ought",
      "Ġgo vern",
      "Ġe ach",
      "Ġha pp",
      "c ent",
      "Ġcon f",
      "00 0",
      "ou th",
      "Ġu nt",
      "Ġse em",
      "v es",
      "ut e",
      "i ence",
      "Ġ1 0",
      "Ġsomet hing",
      "g er",
      "Ġc ur",
      "Ġfe w",
      "Ġ19 9",
      "Ġp ar",
      ".. .",
      "Ġpl ace",
      "ĠC l",
      "Ġb o",
      "as h",
      "Ġ Z",
      "qu e",
      "Ġ 9",
      "Ġg ot",
      "W e",
      "ĠI s",
      "Ġs k",
      "Ġte am",
      "ĠF or",
      "Ġm en",
      "Ġar t",
      "Ġe y",
      "Ġp ut",
      "in a",
      "Ã ³",
      "Ġfe el",
      "Ġd uring",
      "t ed",
      "ic es",
      "ak es",
      "Ġc le",
      "Ð¾ Ð",
      "c ed",
      "Ġm ar",
      "Ġg ener",
      "Ġa way",
      "ant s",
      "Ġto ld",
      "ĠI f",
      "en se",
      "l ing",
      "Ġle ft",
      "r al",
      "Ġo ld",
      "Ġa v",
      "c on",
      "g ed",
      "et s",
      "Ġs oc",
      "Ġre port",
      "Ġsec ond",
      "Ġf il",
      "ri end",
      "ĠP ro",
      "Ã Ń",
      "ie ld",
      "a it",
      "Ġe t",
      "Ġc are",
      "Ġex per",
      "Ġde p",
      "ag es",
      "ĠThe re",
      "Ġf act",
      "Y ou",
      "e x",
      "w ays",
      "Ġunt il",
      "' m",
      "l ess",
      "Ġex pl",
      "ent ion",
      "Ġre st",
      "s on",
      "m in",
      "d uc",
      "Ġin f",
      "Ġcont in",
      "Ġde l",
      "Ġh ome",
      "os ed",
      "Ġde m",
      "un g",
      "Ġp oss",
      "i red",
      "Ġc ame",
      "Ġsm all",
      "m ed",
      "Ġb us",
      "Ġsy stem",
      "Ġh um",
      "in ess",
      "ĠI nd",
      "Ġbe h",
      ". '",
      "Ġgr oup",
      "Ã ¡",
      "Ġpol it",
      "_ _",
      "Ġm ust",
      "Ġs ince",
      "Ġle g",
      "uc k",
      "Ġbel ie",
      "Ġp ublic",
      "oh n",
      "Ġwith out",
      "or th",
      "ic ally",
      "is ed",
      "Ġ z",
      "Ġm ov",
      "at ure",
      "Ġto ok",
      "Ġ [",
      "Ġde velop",
      "an e",
      "Ġcall ed",
      "ur y",
      "al th",
      "Ġoff ic",
      "c hed",
      "Ġcomp le",
      "Ġdiffe rent",
      "Ġla w",
      "at a",
      "' ll",
      "i ally",
      "Ġl ater",
      "u ro",
      "Ġ Q",
      "Ġre ally",
      "Ġth ings",
      "Ġst ate",
      "iz e",
      "it al",
      "Ġb est",
      "Ġf our",
      "b ers",
      "Ġb ook",
      "en n",
      "le y",
      "Ġp ri",
      "Ġc or",
      "ĠB e",
      "ĠA t",
      "Ġ Â",
      "Ġp ower",
      "Ġw rit",
      "Ġqu est",
      "Ġwor d",
      "Ġne xt",
      "Ġst and",
      "ur al",
      "Ġdire ct",
      "ĠS c",
      "Ġres p",
      "em ent",
      "Ġh ard",
      "Ġm il",
      "ain ed",
      "at s",
      "r ist",
      "er ing",
      "ar ch",
      "ir d",
      "ate ly",
      "Ġs ays",
      "Ġ ide",
      "Ġsupp ort",
      "Ġpro du",
      "ĠO n",
      "he re",
      "Ġv ar",
      "Ġte ll",
      "Ġad v",
      "Ġcomm un",
      "ĠB l",
      "ĠAmeric an",
      "Ġpart ic",
      "Ġ2 0",
      "Ġh ist",
      "Ġim port",
      "iv ing",
      "Ġgovern ment",
      "ivers ity",
      "c o",
      "Ġw ent",
      "Ġop en",
      "ĠĠ Ċ",
      "Ġm ain",
      "Ġw ar",
      "Ġo pp",
      "ĠA d",
      "Ġm at",
      "ab ly",
      "ot t",
      "Ġ **",
      "Ġre qu",
      "r on",
      "Ġp op",
      "Ġal ways",
      "ert ain",
      "ro p",
      "ĠĠ ĠĠ",
      "ĠTh at",
      "ill ion",
      "r act",
      "Ġw ater",
      "Ġs w",
      "id ed",
      "Ġf riend",
      "Ġv al",
      "Ġke ep",
      "Ġbu ild",
      "Ġv is",
      "Ġm ark",
      "Ġf ar",
      "Ġs chool",
      ". ,",
      "Ġmon th",
      "em ber",
      "' ve",
      "ne w",
      "Ġas ked",
      "Ġb ig",
      "Ġn ame",
      "Ġg ame",
      "d e",
      "Ġfam ily",
      "a i",
      "g in",
      "i am",
      "Ġd ra",
      "Ġn ight",
      "Ġre le",
      "Ġs ide",
      "Ġnum ber",
      "Ġret urn",
      "ru ct",
      "iv ed",
      "Ġe le",
      "ion al",
      "el t",
      "b r",
      "Ġ i",
      "Ġp os",
      "g y",
      "ĠS p",
      "Th is",
      "ĠJ ohn",
      "E R",
      "v iew",
      "Ġl ist",
      "ĠG r",
      "Ġto p",
      "un e",
      "Ġf ace",
      "Ã ¶",
      "Ġd ri",
      "Ġro om",
      "i ver",
      "Ġf ull",
      "ord ing",
      "ch n",
      "ĠH ow",
      "al f",
      "a pp",
      "Ġcon st",
      "b y",
      "Ġa ir",
      "in c",
      "ur s",
      "2 0",
      "Ġth ough",
      "Ġin form",
      "olog y",
      "Ġm us",
      "ent ly",
      "ain s",
      "Ġ19 8",
      "ĠP h",
      "ra ph",
      "st and",
      "i or",
      "le t",
      "B ut",
      "Ġres ult",
      "Ġ1 5",
      "u red",
      "re en",
      "Ġl ight",
      "d en",
      "s c",
      "Ġb re",
      "Ġall ow",
      "Ġl o",
      "Ġm om",
      "Ġlar ge",
      "Ġbet ter",
      "Ġm ove",
      "gr am",
      "Ġl ess",
      "1 0",
      "e ad",
      "one y",
      "at ic",
      "Ġinclud ing",
      "re am",
      "Ġp at",
      "Ġen ough",
      "us ed",
      "s ide",
      "is ter",
      "Ġcont ro",
      "Ġp rom",
      "Ġ ve",
      "o on",
      "i ans",
      "om p",
      "id es",
      "s h",
      "Ġc amp",
      "iv en",
      "Ġ er",
      "Ġf un",
      "Ġt y",
      "Ġcl ass",
      "in al",
      "Ġ *",
      "Ġs ing",
      "Ġh ouse",
      "a im",
      "Ġey es",
      "Ġan n",
      "ĠC on",
      "m ber",
      "ren ce",
      "Ġpro f",
      "Ġ &",
      "Ġal ong",
      "Ġl ot",
      "Ġis s",
      "Ġwe ek",
      "ĠE ng",
      "Ġinte rest",
      "ur ch",
      "ĠO r",
      "l ish",
      "ĠC ol",
      "Ġpro ble",
      "Ġd r",
      "Ġth ing",
      "Ġe as",
      "u ed",
      "Ġinv est",
      "Ġ1 2",
      "m ost",
      "ĠY ork",
      "at or",
      "Ġl and",
      "m y",
      "ĠW hen",
      "ap s",
      "Ġs ol",
      "A nd",
      "Ġf ore",
      "Ġhim self",
      "ĠTr ump",
      "Ġ| |",
      "Ġyou ng",
      "Ġst at",
      "Ġd ays",
      "read y",
      "Ġp ast",
      "ĠUn ited",
      "Ġcount ry",
      "Ġp ost",
      "Ġwom en",
      "Ġc ase",
      "ot e",
      "re w",
      "ĠB r",
      "Ġ1 7",
      "o ber",
      "Ġ Î",
      "m b",
      "Ġme an",
      "Ġlook ed",
      "ĠA ll",
      "Ġor gan",
      "our s",
      "o ice",
      "is on",
      "ĠM ay",
      "aj or",
      "Ġo per",
      "Ġk ind",
      "ar ing",
      "iss ion",
      "ĠP l",
      "Ġkn own",
      "Ġo cc",
      "Ġc ity",
      "Ġs it",
      "Ġon ce",
      "ard s",
      "Ġpre v",
      "el s",
      "i um",
      "it her",
      "en g",
      "b s",
      "Ġk ill",
      "ir l",
      "ĠH is",
      "id er",
      "Ġpro cess",
      "W hat",
      "Ġe ver",
      "Ġinc re",
      "Ð »",
      "1 8",
      "op e",
      "ĠU S",
      "Ġre ce",
      "Ġapp ro",
      "enc y",
      "Ġal ready",
      "ĠC omm",
      "C h",
      "p le",
      "Ġdes c",
      "ver al",
      "Ġa ff",
      "Ġw in",
      "ri es",
      "con om",
      "od e",
      "on y",
      "Ġof ten",
      "Ã ¥",
      "ĠUn iversity",
      "Ġeff ect",
      "ĠS o",
      "get her",
      "Ġse ason",
      "er y",
      "Ġ19 7",
      "Ġ 0",
      "Ġcon c",
      "Ġwh y",
      "Ġbus iness",
      "S he",
      "o int",
      "cc ess",
      "Ġm ind",
      "oc r",
      "S t",
      "e e",
      "are nt",
      "Ġpl an",
      "ut es",
      "ĠG er",
      "u se",
      "Ġimport ant",
      "ar r",
      "Ġsu re",
      "in ing",
      "end ed",
      "Ġl ove",
      "uth or",
      "pe c",
      "Ġ1 6",
      "n a",
      "ĠN o",
      "ate g",
      "Ġe arly",
      "r ation",
      "p s",
      "Ġg ive",
      "Ġhum an",
      "Ġac ross",
      "Ġb as",
      "ak en",
      "Ã ¼",
      "Ġle ast",
      "Ġse en",
      "e b",
      "Ġdes ign",
      "Ġchild ren",
      "l er",
      "al ity",
      "Ġf ac",
      "amp le",
      "Ġw on",
      "Ġto ward",
      "Ġm or",
      "l ine",
      "Ġt alk",
      "Ġsa w",
      "Ġl ine",
      "Ġb ody",
      "Ġv iew",
      "Ġk new",
      "Ġd i",
      "W h",
      "Ġbec ome",
      "ĠR ep",
      "5 0",
      "Ġc e",
      "Ġt est",
      "Ġcour se",
      "c he",
      "Ġf ree",
      "ĠCh rist",
      "Ġus ing",
      "ĠE uro",
      "Ġc a",
      "Ġrec ord",
      "Ġatt ack",
      "Ġse veral",
      "Ġe lect",
      "Ġpro gram",
      "b all",
      "Ġor der",
      "Ġs ent",
      "ne y",
      "Ġw r",
      "o f",
      "Ġs al",
      "am a",
      "Ġch ang",
      "A s",
      "I N",
      "w w",
      "Ġ ri",
      "Ġbe gan",
      "Ġh old",
      "Ġde ath",
      "us h",
      "Ġbec ame",
      "Ġto gether",
      "Ġ1 1",
      "or ld",
      "Ġcomp any",
      "p or",
      "ĠM r",
      "l o",
      "Ã ¨",
      "Ġsh ort",
      "ĠP r",
      "Ġwith in",
      "Ġg row",
      "re et",
      "ãģ ®",
      "Ġbl ack",
      "Ġch ange",
      "Ġe qu",
      "Ġle vel",
      "Ġm aking",
      "as ter",
      "ĠB rit",
      "Ġc ertain",
      "iz ation",
      "iet y",
      "Ġab le",
      "Ġwant ed",
      "ac y",
      "Ġh alf",
      "or ies",
      "ĠH er",
      "Ġnew s",
      "o x",
      "pt ion",
      "ĠC an",
      "Ġt imes",
      "as es",
      "Ġnot hing",
      "is ing",
      "ad a",
      "it ions",
      "Ġbeh ind",
      "ro wn",
      "Ġme et",
      "Ġper form",
      "Ġt re",
      "Ġapp ear",
      "al d",
      "Ġt ri",
      "Ġd one",
      "u ff",
      "Ġte chn",
      "Ġmom ent",
      "Ġm oney",
      "3 0",
      "Ġp ay",
      "Ġsoc ial",
      "Ġs on",
      "Ġor ig",
      "ore d",
      "Ġen g",
      "ĠW hat",
      "Ġex pect",
      "Ġother s",
      "Ġt em",
      "end ing",
      "Ġm ajor",
      "Ġha ving",
      "Ġst ory",
      "if ied",
      "l ished",
      "Ġm id",
      "pl oy",
      "anc es",
      "z e",
      "i ber",
      "Ġunder stand",
      "Ġv i",
      "Ġinform ation",
      "Ġal most",
      "Ġf ather",
      "ul ation",
      "Ġdo or",
      "The re",
      "Ġ19 6",
      "a ut",
      "f ic",
      "ĠG od",
      "oc i",
      "Ġturn ed",
      "Ġp ain",
      "Ġpro te",
      "ĠS te",
      "Ġcl ose",
      "on es",
      "ĠSt ates",
      "Ġw ind",
      "Ġf elt",
      "g es",
      "Ġre se",
      "our n",
      "Ï Ħ",
      "ow s",
      "Ġchar ac",
      "Ġn on",
      "Ġwom an",
      "Ġpro p",
      "Ġf ive",
      "Ġst e",
      "Ġam ong",
      "ĠG o",
      "l f",
      "aug h",
      "! \"",
      "ĠÃ ł",
      "ĠC o",
      "f or",
      "res ent",
      "og raph",
      "Ġpro ject",
      "Ġ1 4",
      "Ġg iven",
      "Ġm other",
      "Ġpres ent",
      "Ġany thing",
      "ĠT e",
      "iv id",
      "Ġsu ccess",
      "m a",
      "Ġp ress",
      "ĠW ar",
      "Ġp ot",
      "Ġfollow ing",
      "Ġfr ont",
      "Ġe conom",
      "Ġy et",
      "y n",
      "il le",
      "Ġan t",
      "n ot",
      "st er",
      "r ict",
      "Ġtr ad",
      "Ġb it",
      "ious ly",
      "O n",
      "Ġd er",
      "Ġper cent",
      "Ġde v",
      "um ent",
      "g o",
      "Ġs ound",
      "Ġne ar",
      "ĠG e",
      "Ġcl aim",
      "ĠEuro pe",
      "th ough",
      "Ġwas n",
      "I f",
      "Ð º",
      "Ñ ĥ",
      "1 2",
      "Ġm illion",
      "Ġpolit ical",
      "Ġfor mer",
      "Î ±",
      "u ly",
      "ĠE l",
      "p ar",
      "Ġd ata",
      "am ed",
      "ie f",
      "a pe",
      "Ġj ob",
      "Ġquest ion",
      "_ .",
      "ĠE x",
      "w ork",
      "o ke",
      "Ġwork ing",
      "Ġdo ing",
      "Ġ1 3",
      "Ġhand s",
      "ag ue",
      "ri e",
      "il t",
      "Ġfil m",
      "ac ed",
      "Ġex ample",
      "Ġstart ed",
      "Ġare a",
      "O N",
      "Ġloc al",
      "Ġcon d",
      "ot s",
      "Ġin tern",
      "Ġa uthor",
      "am ent",
      "Ġcur rent",
      "ĠO ne",
      "sel ves",
      "Ġa ut",
      "ĠT o",
      "Ġpres ident",
      "2 01",
      "Ġpr act",
      "Ġc rit",
      "Ġp ub",
      "Ġev ent",
      "ĠM an",
      "Ġde al",
      "Ġwh ite",
      "Ġ vers",
      "ĠP res",
      "m p",
      "Ġa p",
      "a f",
      "i que",
      "Ġhe ld",
      "Ġhe alth",
      "ac es",
      "ct or",
      "Ġposs ible",
      "Ġd ie",
      "Ġc ut",
      "ĠM c",
      "r or",
      "um b",
      "Ġf oot",
      "Ġl es",
      "id ence",
      "t t",
      "Î ½",
      "Ġpro b",
      "i j",
      "Ġf all",
      "ed er",
      "Ġs ix",
      "Ġd a",
      "1 1",
      "A n",
      "c hes",
      "Ġg irl",
      "o le",
      "il i",
      "ir c",
      "a ff",
      "ac hed",
      "ĠE d",
      "Ġ X",
      "Ġb ar",
      "et h",
      "it er",
      "Ġd en",
      "Ġcontro l",
      "A R",
      "Ġc ult",
      "in ation",
      "Ġre ason",
      "ĠW orld",
      "Ġgr ound",
      "s y",
      "ull y",
      "ad o",
      "Ġf ood",
      "Ġan s",
      "Ġhist ory",
      "ĠC ent",
      "Ġ ver",
      "Ġlook ing",
      "ĠW ill",
      "2 00",
      "ou d",
      "Ġl im",
      "ĠGer man",
      "Ġf ur",
      "Ġstr ong",
      "Ġpri v",
      "is c",
      "ĠA m",
      "Ġel se",
      "Ġt aken",
      "ĠR uss",
      "Ġmem bers",
      "Ġs n",
      "f er",
      "ĠF l",
      "Ġc ost",
      "op h",
      "Ġ =",
      "Ġ ident",
      "Ġ :",
      "Ġs um",
      "and s",
      "ĠC ar",
      "ap er",
      "art ment",
      "Ġpol ice",
      "Ġl ow",
      "an a",
      "Ġinv ol",
      "ir on",
      "Ġdoes n",
      "Ġr ather",
      "i en",
      "ur g",
      "o or",
      "ĠM y",
      "Î ¿",
      "t ain",
      "T hat",
      "u x",
      "w are",
      "v al",
      "w h",
      "ĠG u",
      "ĠM in",
      "ur ity",
      ", '",
      "re ed",
      "Ġre pl",
      "Ġmin utes",
      "Ġde b",
      "it ive",
      "Ġqu ick",
      "Ġre d",
      "Ġword s",
      "Ġp le",
      "ĠP ol",
      "1 5",
      "ĠN e",
      "Ġact iv",
      "duc ed",
      "os p",
      "Ġwho le",
      "Ġ19 4",
      "Ġme ans",
      "ent ial",
      "Ġar g",
      "ra in",
      "Ġf ut",
      "Ġde ep",
      "Ġen c",
      "Ġide a",
      "Ġsu gg",
      "am b",
      "Ġl ive",
      "Ġm ag",
      "Ġ3 0",
      "E S",
      "r ing",
      "Ġsugg est",
      "Ġd u",
      "Ġto wn",
      "em pt",
      "A T",
      "ĠS y",
      "ãĢ ģ",
      "a ul",
      "it ary",
      "he ad",
      "ip s",
      "Ġas k",
      "ĠJ an",
      "Ġf ire",
      "d le",
      "Ġoffic ial",
      "Ġhe art",
      "ang u",
      "Ġs at",
      "Ġd ou",
      "Ġse x",
      "Ġmus ic",
      "Ġsing le",
      "A N",
      "ĠT w",
      "ĠN ational",
      "ĠH ouse",
      "pp ing",
      "Ġmark et",
      "Ġf ight",
      "Ġbelie ve",
      "Ġwhe ther",
      "Ġf ail",
      "Ġsome one",
      "ĠA fter",
      "Ġg ave",
      "ĠA ust",
      "Ġs il",
      "ar th",
      "Ġc reat",
      "Ġmonth s",
      "Ġtr ying",
      "N o",
      "Ġcol le",
      "ro te",
      "Ġser ies",
      "1 7",
      "Ġbe gin",
      "Ġpol ic",
      "a ign",
      "Ġhow ever",
      "Ġf ig",
      "op s",
      "ĠA f",
      "og n",
      "is k",
      "ĠS outh",
      "Ġf und",
      "id s",
      "es e",
      "u le",
      "i od",
      "ĠD em",
      "F or",
      "enc es",
      "Ġd ark",
      "Ġpro per",
      "Ġdesc rib",
      "o ver",
      "Ġv ol",
      "Ġcomple te",
      "Ġj o",
      "ivid ual",
      "ort un",
      "h aps",
      "W hen",
      "ir t",
      "ĠM e",
      "ĠĠ Ġ",
      "Ġm ot",
      "ĠC al",
      "a is",
      "Ġe ither",
      "Ġ Ã©",
      "Ġn ational",
      "Ġb ad",
      "Ġproble m",
      "g ress",
      "Ġp ort",
      "Ġl os",
      "et er",
      "Ġse lf",
      "Ġact ually",
      "ll ing",
      "Ġevery thing",
      "1 6",
      "Ġd est",
      "Ġto day",
      "ud e",
      "ĠN ot",
      "ĠW ith",
      "att le",
      "re m",
      "Ġp ick",
      "Ġprodu ct",
      "Ġb ene",
      "id ge",
      "ition al",
      "o e",
      "Ġso on",
      "Ġcle ar",
      "ĠA b",
      "Ġs us",
      "Ġhe ard",
      "ĠN orth",
      "f ully",
      "ond on",
      "ĠP e",
      "ĠâĢ ĺ",
      "ar a",
      "à ¤",
      "v ol",
      "ĠPres ident",
      "Ġg ra",
      "Ġb oy",
      "Ð ²",
      "Ġbr ing",
      "O R",
      "Ġacc ount",
      "Ġd iv",
      "er c",
      "ad es",
      "Ġent ire",
      "Ġex ist",
      "her n",
      "h a",
      "ĠSt ate",
      "ag ed",
      "ĠA ug",
      "Ġget ting",
      "Ġle arn",
      "Ġm akes",
      "Ġvi ol",
      "al y",
      "Ġseem ed",
      "Ġst ep",
      "fe rence",
      "Ġcom b",
      "Ġrel ations",
      "Ġit self",
      "om b",
      "Ġst ay",
      "l u",
      ". _",
      "im ate",
      "ir m",
      "Ġspec ial",
      "ĠH ar",
      "1 4",
      "Ġm iss",
      "un ch",
      "Ã §",
      "en ing",
      "Ġs ense",
      "w er",
      "Ġav ail",
      "ove red",
      "Ġv oice",
      "y le",
      "ĠD av",
      "ãģ Ħ",
      "Ġto t",
      "Ġp ull",
      "Ġb ased",
      "in o",
      "Ġab ove",
      "Ġl ate",
      "Ġf ield",
      "y ear",
      "ĠE n",
      "ĠB ar",
      "ĠD on",
      "in n",
      "Ġv ide",
      "as hing",
      "Ġs our",
      "un t",
      "Ġcon v",
      "Ġind ividual",
      "h am",
      "Ġout side",
      "le x",
      "Ġfut ure",
      "R e",
      "Ġcommun ity",
      "Ġup on",
      "a id",
      "st it",
      "et t",
      "Ġapp e",
      "w here",
      "u ary",
      "Ġde ad",
      "re g",
      "ll ed",
      "l in",
      "Ġexper ience",
      "ren ch",
      "ic le",
      "ort s",
      "Ġl ost",
      "Ġmat ter",
      "Ġcamp aign",
      "Ġh ours",
      "Ġl ab",
      "ĠS ec",
      "ĠL a",
      "__ __",
      "Ġgener al",
      "il ar",
      "it or",
      "Ġrep resent",
      "Ġpart y",
      "Ġt aking",
      "Ã³ n",
      "Ġcom ing",
      "ateg ory",
      "E N",
      "Ø §",
      "c her",
      "Ġcomp et",
      "Ġhe av",
      "Ġ2 5",
      "Ġcon ne",
      "/ /",
      "ĠP er",
      "ĠC ount",
      "Ġf oc",
      "Ġph ot",
      "Ġf av",
      "p ly",
      "Ġfriend s",
      "Ġr ad",
      "i qu",
      "ĠThe n",
      "Ġpos ition",
      "Î ¹",
      "Ġacc ording",
      "Ġw ait",
      "Ġar ri",
      "Ġb ed",
      "ĠO ct",
      "ab ility",
      "Ġexp ress",
      "Ġbre ak",
      "A l",
      "ive ly",
      "Ġbuild ing",
      "Ġw atch",
      "Ġw all",
      "at o",
      "Ġso ld",
      "Ġcomm on",
      "f ect",
      "Ġcharac ter",
      "r ight",
      "at ors",
      "Ġp ie",
      "Ġh ig",
      "ĠMar ch",
      "ĠP ar",
      "Ġest ab",
      "as k",
      "Ġg en",
      "im ent",
      "Ġprof ess",
      "Ġa ge",
      "ĠBrit ish",
      "Ġthem selves",
      "Ġann oun",
      "ĠSe pt",
      "ĠAmeric a",
      "? '",
      "ĠS u",
      "ct ed",
      "id ing",
      "Ñ ı",
      "itt ing",
      "itt ed",
      "Ġplay ed",
      "ent y",
      "b ed",
      "Ġdisc uss",
      "Ġt ax",
      "g ing",
      "1 3",
      "Ġserv ice",
      "ĠC ity",
      "Ġm ess",
      "Ġc al",
      "I S",
      "Ġlike ly",
      "Ġper iod",
      "pp er",
      "Ġw rote",
      "Ġins ide",
      "Ġob ject",
      "Ġind ust",
      "u ation",
      "Ġm ult",
      "pec ially",
      "Ġv ot",
      "ĠP art",
      "ĠQ u",
      "Ġsp ace",
      "Ġfur ther",
      "ust om",
      "Ġst ri",
      "Ġab s",
      "it ch",
      "Ġsu per",
      "Ġsu ff",
      "ĠS ch",
      "Ġfe at",
      "ap ter",
      "Ġoff ice",
      "Ġprob ably",
      "Ġth ird",
      "pr il",
      "Ġfin al",
      "Ġcom es",
      "Ġro ad",
      "Ġh or",
      "ab les",
      "Ġl ed",
      "Ġtr y",
      "Ġtr ue",
      "r an",
      "Ġc oun",
      "Ġh ot",
      "ist ic",
      "o ff",
      "\" ,",
      "Ġle ave",
      "Ġcap t",
      "med i",
      "Ġem ploy",
      "Ġadd ed",
      "H ow",
      "Ġ2 4",
      "\" .",
      "Ġavail able",
      "p ro",
      "Ġqu ite",
      "ill s",
      "he l",
      "Ġatt empt",
      "Ġt al",
      "The y",
      ". )",
      "ĠJ une",
      "Ġp ur",
      "Ġc irc",
      "Ð ¼",
      "Ġcould n",
      "Ġinvest ig",
      "ĠRep ublic",
      "ĠJ e",
      "if t",
      "ĠW est",
      "ãĢ Ĥ",
      "ĠHow ever",
      "ĠGe or",
      "ĠAug ust",
      "le ment",
      "Ġw ond",
      "Ġsay ing",
      "Ġs ong",
      "S o",
      "Ġn et",
      "ĠR es",
      "er m",
      "u el",
      "Ġt en",
      "min ist",
      "b ack",
      "ãģ «",
      "Ġch o",
      "Ġco ver",
      "u k",
      "iv il",
      "av ing",
      "ĠK ing",
      "Ġ201 6",
      "Ġn at",
      "l ike",
      "al t",
      "u ge",
      "Ġs le",
      "ĠL ondon",
      "ĠM ed",
      "ĠB y",
      "Ġpro t",
      "fic ult",
      "Ġh on",
      "u f",
      "Ġst ra",
      "Ġd om",
      "Ġph ys",
      "Ġacc ess",
      "ic a",
      "Ġd am",
      "c le",
      "Ġmed ia",
      "ct ions",
      "Ä ĥ",
      "Ġconc ern",
      "Ð ´",
      "Ġv ict",
      "Ġs we",
      "Ġde cl",
      "Ġan im",
      "Ġl angu",
      "ap an",
      "ov ed",
      "Ġfe ll",
      "le v",
      "Ġneed ed",
      "Ã £",
      "Ġr ul",
      "Ġt ou",
      "Ġlong er",
      "Ġw alk",
      "end er",
      "ang er",
      "b o",
      "b ook",
      "Ġr ound",
      "Ġbr ought",
      "Ġag o",
      "an i",
      "ĠJ uly",
      "Î µ",
      "ĠÐ ¿",
      "Ġdif ficult",
      "Ġl iving",
      "Ġd ue",
      "ourn al",
      "Ġbl ood",
      "Ġt able",
      "Ġmil itary",
      "2 5",
      "av es",
      "Ġen v",
      "Ġpr im",
      "Ġrele ased",
      "it ter",
      "as ing",
      "Ġm ass",
      "ĠThe se",
      "Ġf a",
      "Ġor d",
      "Ġim m",
      "Ġ ill",
      "ar i",
      "ĠEng lish",
      "g est",
      "Ġmor ning",
      "ĠJ ust",
      "Ġpre t",
      "Ġst op",
      "ens ive",
      "Ġne g",
      "k y",
      "ĠDem ocr",
      "ï ¼",
      "ra ft",
      "ĠA pril",
      "at ter",
      "Ġs qu",
      "Ġmov ed",
      "Ġreport ed",
      "il ed",
      "ĠSept ember",
      "Ġfor ward",
      "Ġac cept",
      "ou l",
      "ib ility",
      "Ġg ames",
      "ĠC or",
      "Ã© s",
      "Ġimp ro",
      "ĠA ss",
      "Ġt ried",
      "Ġcour t",
      "ĠR o",
      "Ġt reat",
      "Â ł",
      "Ñ ĭ",
      "re me",
      "b or",
      "Ġt it",
      "id a",
      "Ġro le",
      "ra p",
      "ĠC omp",
      "olog ical",
      "Ġdet ail",
      "f ord",
      "Ġsl ow",
      "ro om",
      "b ody",
      "e ks",
      "st r",
      "ore s",
      "Ġp arent",
      "Ġty p",
      "it ing",
      "ĠF rench",
      "Ġcom pl",
      "ãģ ¨",
      "um e",
      "Ġspe ak",
      "v ent",
      "ĠD ep",
      "ove mber",
      "Ġke y",
      "m en",
      "is es",
      "k n",
      "Ã£ o",
      "Ġinclud e",
      "und red",
      "iv al",
      "Ġwor ks",
      "Ġsim ilar",
      "ic o",
      "Ġed uc",
      "Ġe arl",
      "Ġstud y",
      "l a",
      "ight s",
      "Ġar m",
      "c i",
      "if y",
      "Ġsim ply",
      "ĠD o",
      "Ġsign ific",
      "Ġin it",
      "A S",
      "Ġt ar",
      "air s",
      "Ġ19 5",
      "ĠJan uary",
      "Ġresp ons",
      "Ġad m",
      "Ġrem ain",
      "Ġob s",
      "ut ed",
      "ĠOct ober",
      "Ġr an",
      "ãĤ ĭ",
      "ep end",
      "Ġfe et",
      "ĠIn tern",
      "Ġv ill",
      "ĠI I",
      "Ġcons ider",
      "Ġdevelop ment",
      "Ġl ay",
      "H E",
      "Ġes pecially",
      "Ġrese arch",
      "Ġth reat",
      "aug ht",
      "Ġso ft",
      "Ġne cess",
      "al es",
      "ru g",
      "Ġg un",
      "i ers",
      "ad d",
      "Ġh ope",
      "Ġm ater",
      "Ġrel ig",
      "l t",
      "Ġsur pr",
      "Ġsub ject",
      "Ġe p",
      "Ġme as",
      "ĠS ome",
      "Ġrece ived",
      "Ñ Į",
      "Ġwork ed",
      "ĠS w",
      "b um",
      "Ġw ife",
      "Ġres pect",
      "Ġrec ogn",
      "Ġstud ents",
      "Ġst ru",
      "Ġte xt",
      "a ur",
      "Ġc ross",
      "ce mber",
      "ag er",
      "ri pt",
      "Ġis n",
      "ĠAust ral",
      "eder al",
      "Ġj ud",
      "re l",
      "p ite",
      "om an",
      "ãģ Ł",
      "i res",
      "and er",
      "Ġcomp an",
      "Ġim ag",
      "r ay",
      "ĠM us",
      "Ġen er",
      "Ġ201 7",
      "Ġcent ury",
      "C ategory",
      "Ġh y",
      "Ġa ction",
      "ĠJ apan",
      "âĢ ¦",
      "Ġwho se",
      "Ġ201 5",
      "Ġ /",
      "n es",
      "Ġtr ack",
      "Ġd ied",
      "y l",
      "Ġhe ar",
      "Ġbu ilt",
      "g en",
      ") ;",
      "ĠS en",
      "Ġd oc",
      "Ġbro ther",
      "A L",
      "Ġrun ning",
      "Ġset t",
      "ra el",
      "a el",
      "ĠS m",
      "ãģ Ĺ",
      "augh ter",
      "Ġd ro",
      "Ġseem s",
      "ĠN ovember",
      "k en",
      "ĠG l",
      "-- --",
      "ashing ton",
      "Ġvide o",
      "Ġp or",
      "Ġg one",
      "Ġ201 4",
      "Ġc and",
      "pl ay",
      "Ġp ers",
      "ur t",
      "Ġf em",
      "s p",
      "Ġe ight",
      "om es",
      "Ġh it",
      "Ġex c",
      "Ġcan not",
      "ĠB ro",
      "Â Ń",
      "ĠM ich",
      "Ġco ll",
      "Ġh ost",
      "Ġinst ead",
      "g ar",
      "Ġb all",
      "Ġc ell",
      "it es",
      "Ġevery one",
      "Ġplay ers",
      "ru ction",
      ": //",
      "z a",
      "h od",
      "Ġc up",
      "ul arly",
      "Ġhapp ened",
      "res h",
      "Ġ2 2",
      "he t",
      "b l",
      "Ġs ens",
      "Ġp ict",
      "Ġc oup",
      "Ġim medi",
      "r is",
      "ĠAf ric",
      "Ġwr ong",
      "Ġfor ce",
      "ĠF eb",
      "ĠI m",
      "es tern",
      "led ge",
      "Ġperson al",
      "Ġany one",
      "ãģ §",
      "er a",
      "ĠWill iam",
      "e v",
      "T o",
      "A t",
      "Ġmy self",
      "Ġh undred",
      "Ġo il",
      "Ġcl os",
      "it te",
      "ĠCh ina",
      "ict ion",
      "Ġrelations hip",
      "ãģ ¦",
      "Ġspec ific",
      "Ġval ue",
      "Ã ª",
      "le g",
      "i ents",
      "Ġc ustom",
      "Ġcare er",
      "cl us",
      "Ġpoint s",
      "## #",
      "ĠS chool",
      "Ġlead ers",
      "ou ra",
      "Ġw al",
      "Ġhist or",
      "Ġcre ate",
      "c il",
      "ĠDe cember",
      "Ġprov ide",
      "Ġes c",
      "Ġbel ow",
      "ĠA pp",
      "o id",
      "ĠS oc",
      "Ġo pt",
      "Ġha ir",
      "Ġpop ular",
      "ãģ ¯",
      "Ġ1 00",
      "b it",
      "e ed",
      "Ġ2 3",
      "Ġpub lished",
      "Ġiss ue",
      "Ġ ;",
      "ĠM on",
      "ke y",
      "Ġex ec",
      "Ġch all",
      "Ġj e",
      "Ġmem ber",
      "Ġint ro",
      "act ion",
      "h ood",
      "ĠP aul",
      "iron ment",
      "Ġ ut",
      "Ġquick ly",
      "ÃŃ a",
      "anc ed",
      "se c",
      "Ġf ear",
      "ĠN ow",
      "Ġsec urity",
      "Ġw ide",
      "Ġcl ub",
      "Ġ il",
      "Ġ19 3",
      "ant ly",
      "Ġcontin ued",
      "ĠE m",
      "Ġfun ction",
      "ress ed",
      "ru ary",
      "ĠD r",
      "Ġf ill",
      "Ġmater ial",
      "Ġb ur",
      "Ġ201 2",
      "ĠÐ ²",
      "Ġs un",
      "Ġtot al",
      "Ġ )",
      "Ġorig inal",
      "Ġ201 8",
      "Ġb ott",
      "Ġm ur",
      "as p",
      "Ġgr and",
      "Ñģ ÑĤ",
      "se qu",
      "Ġplay er",
      "Ġp ack",
      "Ġ ess",
      "end s",
      "y ond",
      "Ġal one",
      "Ġre ve",
      "Ġs ite",
      "f ace",
      "19 9",
      "gr ound",
      "Ġth ous",
      "z y",
      "Ġdec ided",
      "Ġ201 3",
      "Ġass oci",
      "ĠCount y",
      "ĠS an",
      "ach ing",
      "ĠM or",
      "j oy",
      "Ġdec ision",
      "ĠDav id",
      "inc ip",
      "l am",
      "Ġst ruct",
      "Ġrec ent",
      "Ġc op",
      "Ġf re",
      "Ġcre ated",
      "c y",
      "S h",
      "Ġbl ock",
      "Ġbe aut",
      "Ġearl ier",
      "ener al",
      "ãĤ Ĵ",
      "R E",
      "Ġvers ion",
      "Ġal bum",
      "m on",
      "as c",
      "Ġn amed",
      "ĠW ashington",
      "Ġkill ed",
      "Ġinf lu",
      "Ġa ud",
      "Ġs i",
      "Ġ â",
      "ra g",
      "Ġper fect",
      "Ġb reat",
      "Ġwe eks",
      "ib r",
      "Ġad minist",
      "il ities",
      "ain t",
      "Ġam ount",
      "Ġex act",
      "an ks",
      "Ġst o",
      "Ġm is",
      "ob al",
      "ĠP ress",
      "Ġw ays",
      "ĠP ark",
      "Ġse par",
      "ĠIs rael",
      "ce ed",
      "Ġc ook",
      "Ġvar ious",
      "A P",
      "Ġmod ern",
      "N ot",
      "Ġtra vel",
      "Ġty pe",
      "Ġwrit ten",
      "our t",
      "Ġp red",
      "Ġlangu age",
      "os ition",
      "Ġ #",
      "Ġev idence",
      "Ġright s",
      "Ġke pt",
      "iz ing",
      "M y",
      "ĠWh ite",
      "ĠA g",
      "ward s",
      "i us",
      "d ed",
      "Ġop ened",
      "c er",
      "Ġn orm",
      "Ġfollow ed",
      "Ġpriv ate",
      "i Ã³n",
      "ĠO b",
      "2 4",
      "ãģ Į",
      "l im",
      "Ġst ood",
      "am s",
      "Ġre ached",
      "Ġatt ention",
      "Ġcol lect",
      "Ġpop ulation",
      "sy ch",
      "Ġneed s",
      "Ġeas y",
      "ĠP al",
      "Ġmet hod",
      "ãģ ª",
      "Ġpolic y",
      "Ġt ro",
      "ch ie",
      "Ġst ation",
      "Ġher self",
      "I T",
      "Ġener gy",
      "f ort",
      "Ġsec ret",
      "Ġreg ard",
      "I C",
      "Ġe mer",
      "t ime",
      "om en",
      "Ġdra w",
      "ide red",
      "b and",
      "Ġ5 0",
      "er ve",
      "Ġp an",
      "Ġn ature",
      "Ġthink ing",
      "Ġvis it",
      "ĠFeb ruary",
      "Ġb ase",
      "Ġdou b",
      "Ġrem ember",
      "Ġ201 0",
      "ur b",
      "Ï ģ",
      "st e",
      "Ġ2 6",
      "Ġs ort",
      "Ġp aper",
      "f l",
      "Ï Ĥ",
      "Ġpre p",
      "a e",
      "ver age",
      "n y",
      "est s",
      "al ed",
      "Ġex cept",
      "Ġpartic ular",
      "if f",
      "Ġh op",
      "em y",
      "Ġper haps",
      "Ġsp ir",
      "Ġwould n",
      "ãĥ ¼",
      "Ġar ch",
      "m ing",
      "l i",
      "us es",
      "Ġun e",
      "ar ter",
      "Ġtar get",
      "Ġl ives",
      "Ġh ar",
      "Ġplay ing",
      "Ñ ĩ",
      "Ġshow s",
      "Ġl og",
      "ĠC ong",
      "Ġbro ad",
      "Ġgroup s",
      "Ġ201 1",
      "2 2",
      "Ġn orth",
      "ad y",
      "ĠR ed",
      "on se",
      "Ġinter view",
      "ut ions",
      "ĠJ ames",
      "Ġind ic",
      "Ġquest ions",
      "a ult",
      "ver t",
      "Ġsim ple",
      "Ġsh ot",
      "Ġfin ally",
      "ll a",
      "Ġinclud ed",
      "Ġ2 7",
      "A fter",
      "u i",
      "Ġcontin ue",
      "Ġne arly",
      "Ġserv ices",
      "Ġst ates",
      "Ġopp ortun",
      "Ġsomet imes",
      "Ġele ction",
      "ĠJ ew",
      "ĠÂ «",
      "Ġ2 1",
      "âĢ ¢",
      "Ġmod el",
      "Ġc orn",
      "Ġfl oor",
      "Ġf ing",
      "ac her",
      "Ġiss ues",
      "ä ¸",
      "Ġcont rib",
      "Ġ2 8",
      "Ġc red",
      "Ġb and",
      "Ġcount ries",
      "Ġch ance",
      "Ġter ms",
      "ap t",
      "Ġg e",
      "u it",
      "Ġin j",
      "Ġnat ural",
      "Ï ĥ",
      "Ġc ivil",
      "Ġpartic ip",
      "k a",
      "ol s",
      "ff ic",
      "at ives",
      "Ġcap ital",
      "Ġpret ty",
      "ĠSt reet",
      "Ġph one",
      "Ġen joy",
      "ord er",
      "Ġcons idered",
      "l ight",
      "Ġmeet ing",
      "Ġfin anc",
      "B C",
      "ĠJ ack",
      "ĠD es",
      "ĠP at",
      "Ġs en",
      "ec ause",
      "age ment",
      "nd er",
      "Ġt akes",
      "Ġev ents",
      "un k",
      "Ġcompan ies",
      "ĠA ct",
      "ous ly",
      "cc ording",
      "om ing",
      "as ons",
      "ĠR ober",
      "Ġ- -",
      "Ġr isk",
      "b orn",
      "ĠÐ ½",
      "ir th",
      "Ġm ount",
      "t a",
      "if orn",
      "Ġc ry",
      "ific ation",
      "d om",
      "Ġex am",
      "Ġc ast",
      "Ġans wer",
      "ĠB er",
      ") :",
      "amp ions",
      "Ġparent s",
      "Ġbene f",
      "Ġinvol ved",
      "ro s",
      "ra b",
      "Ġcont ract",
      "Ġfav or",
      "Ġcoup le",
      "f ield",
      "2 3",
      "Ġw at",
      "ar ies",
      "c ast",
      "' ,",
      "Ġsur v",
      "Ġl iter",
      "us hed",
      "Ġsle ep",
      "Ġbo x",
      "d d",
      "Ġapp lic",
      "r ound",
      "Ġappe ared",
      "A ll",
      "Ġsh are",
      "Ġche ck",
      "Ġd ig",
      "Ġw ood",
      "t r",
      "Ġwor th",
      "Ġhig her",
      "ĠS er",
      "at ory",
      "Ġsit uation",
      "Ġme ant",
      "ĠEng land",
      "id ay",
      "Ġproble ms",
      "Ġsp ent",
      "ren ces",
      "Ġal though",
      "Ġresult s",
      "i os",
      "Ġp our",
      "Ġannoun ced",
      "Ġeng ine",
      "Ġreturn ed",
      "in ally",
      "Ġf ast",
      "Ġoff er",
      "Ġpass ed",
      "te red",
      "6 0",
      "Ġpre c",
      "Ġqu i",
      "Ġsu d",
      "Ï Ģ",
      "Ġf ine",
      "ĠV al",
      "ĠH igh",
      "Ġaff ect",
      "he m",
      "h old",
      "Ġintern ational",
      "Ġchang es",
      "U S",
      "Ġread y",
      "il os",
      "ĠInd ia",
      "ar ily",
      "Ġus ually",
      "Ġb orn",
      "Ġp ath",
      "r s",
      "Ġpr incip",
      "k i",
      "ĠBl ack",
      "Ù Ħ",
      "Ġm ention",
      "Ġc it",
      "ra w",
      "ĠE ven",
      "Ġexpect ed",
      "il es",
      "Ġa w",
      "iforn ia",
      "4 0",
      "rie f",
      "Ġcont r",
      "ĠRe g",
      "L E",
      "w ood",
      "Ġs outh",
      "i ant",
      "A C",
      "ĠEurope an",
      "ri an",
      "Ġindust ry",
      "z z",
      "8 0",
      "Ġin n",
      "ĠInd ian",
      "ines e",
      "Ġrele ase",
      "el le",
      "se e",
      "ĠR ich",
      "O ne",
      "h an",
      "Ġre view",
      "Ġc ases",
      "Ġc ause",
      "ĠA nt",
      "Ã ł",
      "ograph y",
      "Ġserv ed",
      "Ġr out",
      "il s",
      "Ġun a",
      "Ġ Ñģ",
      "Ġprodu ction",
      "T r",
      "Ġst aff",
      "ak er",
      "Ã ±",
      "Ġdo g",
      "ĠCh ar",
      "Ġdescrib ed",
      "itte e",
      "Ġbe yond",
      "ĠGeor ge",
      "ĠK e",
      "Ġstat ement",
      "Ġne igh",
      "Ġdis p",
      "ĠWh ile",
      "Ġare as",
      "ĠFr ance",
      "Ġcand id",
      "ri a",
      "Ġmove ment",
      "il ing",
      "Ġdem and",
      "Ġsc ient",
      "Ġtalk ing",
      "ĠE ast",
      "ĠM ark",
      "Ġ200 8",
      "Ġeconom ic",
      "Ġb i",
      "vol ution",
      "Ġwrit ing",
      "c hen",
      "le ction",
      "Ġgo ld",
      "Ġtr uth",
      "W ith",
      "Ġl ack",
      "Ġre pe",
      "Ġenv ironment",
      "ab or",
      "al ys",
      "ĠB o",
      "Ġref er",
      "osp ital",
      "g u",
      "ro y",
      "Ġmid dle",
      "Ġleg al",
      "Ã© e",
      "Ġtr ou",
      "an o",
      "L e",
      "Ġd Ã©",
      "ud d",
      "n ers",
      "ĠC ont",
      "Ġfoc us",
      "in ks",
      "Ġro ck",
      "Ġcar ry",
      "Ġadd ress",
      "Ġl oss",
      "Ġcon vers",
      "Ġcont ent",
      "Ġallow ed",
      "Ġl if",
      "Ġa chie",
      "c ol",
      "Ġsud den",
      "Ġco ld",
      "Ġbook s",
      "m ar",
      "Ġlet ter",
      "Ġpl us",
      "Ġl ower",
      "h ib",
      "N ew",
      "Ġfeel ing",
      "Ġresp onse",
      "Ġc at",
      ", _",
      "Ġprote ct",
      "ad ing",
      "Ġm atch",
      "et te",
      "Ġd rug",
      "Ġm ach",
      "Ġsh oot",
      "Ġbo ard",
      "ad ed",
      "Ġdis app",
      "Ġpar a",
      "Ġcomp ut",
      "Ġp as",
      "ate ver",
      "Ġpur p",
      "Ġsh all",
      "ĠCal ifornia",
      "in y",
      "Ġs ch",
      "Ġ4 0",
      "ĠDep artment",
      "Ġm outh",
      "um ents",
      "A D",
      "Ġim age",
      "all ed",
      "B e",
      "Ġb ank",
      "Ġsa fe",
      "Ġbeh av",
      "re y",
      "Ġar ms",
      "ly ing",
      "D on",
      "Ġtoward s",
      "Ġ200 9",
      "ist ed",
      "ren g",
      "Ġl as",
      "Ġ201 9",
      "Ġs ize",
      "A r",
      "l ig",
      "Ġ ir",
      "Y es",
      "ĠS im",
      "is l",
      "ĠS am",
      "Ġh us",
      "ĠLe ague",
      "in ary",
      "Ġter m",
      "v a",
      "Ġbegin ning",
      "at ur",
      "k ing",
      "or ing",
      "er o",
      "Ġen s",
      "Ġfoot ball",
      "Ġv an",
      "Ġresp ond",
      "Ġde g",
      "Ġstra ight",
      "ĠAr t",
      "Ġn od",
      "Ġd ans",
      "Ġgo es",
      "Ġc ode",
      "Ġext ra",
      "ic ed",
      "Ġsum mer",
      "I s",
      "Ġwh om",
      "Ġ2 9",
      "Ġfor ces",
      "Ġcomm and",
      "ĠA ir",
      "l s",
      "ag o",
      "Ġpot ential",
      "Ġt our",
      "Ġg reen",
      "Ġb ow",
      "Ġp age",
      "Ġchang ed",
      "Ġcent er",
      "D e",
      "Ġind epend",
      "ber g",
      "r ig",
      "Ġh ous",
      "p o",
      "ĠG eneral",
      "Ġper m",
      "2 1",
      "we ll",
      "Ġf air",
      "ĠM art",
      "om as",
      "2 7",
      "ÑĢ Ð°",
      "ens ion",
      "Ġp ark",
      "Ġr ace",
      "e ch",
      "ist ory",
      "Ġcon du",
      "Ġsour ce",
      "IN G",
      "Ġcom ment",
      "Ġpo or",
      "Ġse ven",
      "ĠCong ress",
      "Ġd ream",
      "ib ly",
      "Ġw arm",
      "Ġtr ade",
      "ĠF irst",
      "Ġb attle",
      "Ġf resh",
      "pl es",
      "Ġcon cept",
      "Ġtou ch",
      "ow ers",
      "enc ed",
      "Ġpract ice",
      "Ġcl osed",
      "ac ing",
      "ĠC ourt",
      "U n",
      "Ġm ix",
      "r am",
      "z en",
      "Ġperform ance",
      "Ã¶ r",
      "ll er",
      "et y",
      "ĠCh inese",
      "Ġimmedi ately",
      "c ome",
      "em s",
      "Ġr ate",
      ": **",
      "Ġyour self",
      "Ġcle an",
      "Ġ <",
      "ock ed",
      "Ġtra ining",
      "Ġdirect or",
      "Ġse arch",
      "Ġstru gg",
      "Ġlook s",
      "ĠF rom",
      "Ġfore ign",
      "Ġf ederal",
      "Ðµ Ð½",
      "Ġbu y",
      "Ġp en",
      "2 6",
      "in ated",
      "Ġdef in",
      "Ġcons um",
      "Ġfig ure",
      "Ġmean ing",
      "Ġadd ition",
      "Ġwe ap",
      "if ul",
      "Ġdem on",
      "Ġc row",
      "ĠB ill",
      "Ġd anger",
      "Ġbl ue",
      "ord s",
      "Ġon es",
      "Ġd aughter",
      "o o",
      "ĠNew s",
      "b re",
      "ĠAn ge",
      "Ġexper i",
      "r im",
      "c ul",
      "Ð¾Ð ²",
      "Ġsh ip",
      "Ġch urch",
      "Ġst yle",
      "ess ion",
      "ĠPart y",
      "ĠC he",
      "Ġon to",
      "p ir",
      "Ġpr ison",
      "Ġmult ip",
      "ress ion",
      "Ġimp act",
      "Ġh our",
      "c ial",
      "it ar",
      "in i",
      "ig r",
      "ĠT V",
      "oy al",
      "Ġcont act",
      "Ġc am",
      "ĠA lex",
      "Ġan g",
      "Ġn ation",
      "Ġem b",
      "Ġpr ice",
      "p re",
      "á ½",
      "Ġofficial s",
      "Ġrequ ire",
      "Ġf if",
      "ĠR ec",
      "Ġc y",
      "st on",
      "2 9",
      "Ġgl ass",
      "it z",
      "Ġsoc iety",
      "Ġknow ledge",
      "it a",
      "Ġr ange",
      "Ġdet erm",
      "b ut",
      "Ġse a",
      "ĠRuss ian",
      "Ġey e",
      "ll s",
      "Ġgr ad",
      "Ġreg ion",
      "ĠC ap",
      "or a",
      "Ġspec ies",
      "ĠM ac",
      "Ġgo al",
      "ru pt",
      "Ġcomple x",
      "v ille",
      "n o",
      "ast ic",
      "w ise",
      "im ately",
      "2 8",
      "Ġocc ur",
      "Ġb ill",
      "Ã¤ r",
      "Ġcomplete ly",
      "ĠMich ael",
      "Ġon line",
      "Ġfeat ures",
      "Ġb ab",
      "ish ing",
      "E D",
      "ic ro",
      "Ġm ent",
      "Ġl iber",
      "ĠM ore",
      "Ġv ia",
      "Ġappro ach",
      "Ġsl ight",
      "o ly",
      "Ġprev ious",
      "ul a",
      "ve y",
      "Ġst age",
      "Ġpl ant",
      "Ġmov ing",
      "Ġrec ently",
      "d o",
      "Ġpartic ularly",
      "Ġa verage",
      "y a",
      "Ġb al",
      "ĠC oun",
      "Ġh uge",
      "Ġk ing",
      "Ġincre ase",
      "land s",
      "Ġlaw s",
      "Ġtr ust",
      "Ġtechn ology",
      "ol ic",
      "Ġlead ing",
      "Ġlead er",
      "Ġrequ ired",
      "ĠChrist ian",
      "Ä ±",
      "eng th",
      "b urg",
      "ĠD ist",
      "Ġhapp en",
      "Ġsp ot",
      "Ġan c",
      "erv ed",
      "Ġdr ink",
      "Ġsto pped",
      "ic ation",
      "Ġst reet",
      "Ġcult ure",
      "ut ive",
      "Ġwind ow",
      "Ġpart s",
      "Ġbe g",
      "it ude",
      "Ġa u",
      "Ġm er",
      "an ch",
      "Ġpro gress",
      "Ġant i",
      "Ġthrough out",
      "as ion",
      "Ġexact ly",
      "ur a",
      "re ct",
      "Ġhe at",
      "ac hes",
      "Ġvill age",
      "Ġab ility",
      "Ġg iving",
      "ĠCan ada",
      "ĠI nt",
      "Ġch air",
      "Ġb es",
      "P h",
      "ĠL ou",
      "Ġwal ked",
      "Ġst reng",
      "re ly",
      "Ġ Ø",
      "id ents",
      "Ġun c",
      "og le",
      "Ġnet work",
      "Ġpl at",
      "te xt",
      "ĠFr anc",
      "Ġst ar",
      "ic les",
      "s et",
      "ed s",
      "Ġsp read",
      "Ġf at",
      "ĠM ag",
      "O S",
      "ant e",
      "os es",
      "O h",
      "Ġeduc ation",
      "Ġfinanc ial",
      "Ġw ild",
      "ww w",
      "Ġm ist",
      "a res",
      "Ġprov ided",
      "Ġno vel",
      "Ġem ot",
      "Ġ200 7",
      "Ġd in",
      "' .",
      "Ġb urn",
      "op er",
      "Ġra ised",
      "ll ig",
      "al ing",
      "Ġa f",
      "C l",
      "Ġpro duc",
      "le ge",
      "b ased",
      "ĠIntern ational",
      "Ġv ote",
      "use um",
      "ear s",
      "i pped",
      "du ction",
      "Ġp al",
      "Ġnecess ary",
      "Ġwe bs",
      "Ġob v",
      "lect ed",
      "Ġpie ce",
      "ĠRuss ia",
      "Ġp sych",
      "ann ed",
      "ĠC am",
      "Ġst ories",
      "Ġwork ers",
      "ic ated",
      "Ġhapp y",
      "A M",
      "and o",
      "ĠQ ue",
      ".. ..",
      "p ut",
      "ĠH en",
      "Ġar rest",
      "Ġpl aces",
      "Ġsignific ant",
      "Ġe in",
      "ic ip",
      "Ġ ign",
      "Ġgl obal",
      "ree k",
      "Ġre ach",
      "Ġhus band",
      "alys is",
      "i i",
      "ace book",
      "Ġnum bers",
      "Ġ ÏĦ",
      "Ġtw enty",
      "Ġre b",
      "ĠM ary",
      "m ore",
      "Ġheav y",
      "Ġpull ed",
      "Ġl ines",
      "ãģ Ļ",
      "ĠB el",
      "Ġle aving",
      "= \"",
      "P ro",
      "Ð ·",
      "Ġloc ated",
      "is ions",
      "ic ht",
      "O U",
      "Ġmay be",
      "Ġtit le",
      "ĠS und",
      "Ġce le",
      "Ġ200 6",
      "Ġa head",
      "ĠM iss",
      "ak ed",
      "Ġwond er",
      "## ##",
      "Ġass ist",
      "Ġb irth",
      "il ies",
      "Ġinst it",
      "Ġconst it",
      "Ġc ard",
      "Ġeff ort",
      "ain ing",
      "h i",
      "-- -",
      "in ct",
      "D o",
      "ot ed",
      "lev ision",
      "ĠP ort",
      "Ġf irm",
      "Ġl ink",
      "ĠCh urch",
      "i as",
      "ĠR iver",
      "ag ing",
      "Ġc as",
      "Ġspir it",
      "7 0",
      "Ġcent ral",
      "ĠE very",
      "out hern",
      "Ġdri ve",
      "Ġac qu",
      "ĠM ad",
      "ĠL et",
      "Ġqu iet",
      "d own",
      "Ġdist rict",
      "ri age",
      "it ation",
      "ĠÂ »",
      "Ġser ious",
      "ĠH ill",
      "Ġdirect ly",
      "Ġwant s",
      "Ġa ware",
      "Ġshow ed",
      "Ġe arth",
      "Ġmil es",
      "ĠS al",
      "ampions hip",
      "Ġpe ace",
      "Ġwr ite",
      "Ġqu al",
      "ĠIn st",
      "N ow",
      "W ell",
      "Ġpl ans",
      "ĠU K",
      "ir ty",
      "g a",
      "Ġart icle",
      "Ġcrit ic",
      "ĠM al",
      "Ġ x",
      "ĠC om",
      "Ġsystem s",
      "y r",
      "i pp",
      "ĠC ons",
      "ĠA c",
      "Ġcertain ly",
      "ĠS erv",
      "ĠĠĠĠ ĠĠĠĠ",
      "reed om",
      "ĠCent er",
      "ort hern",
      "Ġal le",
      "Ġpri or",
      "Ġcol or",
      "ĠAmeric ans",
      "ĠSt ud",
      "Â »",
      "Ġprev ent",
      "ĠRober t",
      "Ġdoc ument",
      "Ġsc ene",
      "Ġj ournal",
      "Ġl ived",
      "Ġl at",
      "Ġm ill",
      "Ġch ief",
      "Ġg ar",
      "our ces",
      "Ġf ix",
      "Ġf arm",
      "Ġun f",
      "Ġ +",
      "I I",
      "Ġe at",
      "Ġincre asing",
      "Ġco ol",
      "ĠAss oci",
      "Ġfre qu",
      "Ġh om",
      "O T",
      "ĠE r",
      "ĠJ er",
      "Ġdevelop ed",
      "Ġpro duced",
      "E x",
      "um n",
      "4 5",
      "3 5",
      "Ġw a",
      "ĠG reat",
      "Ġmess age",
      "Ġsc ience",
      "un n",
      "Ġread ing",
      "Ġb illion",
      "ĠT ur",
      "ound s",
      "ĠM ex",
      "Ġhad n",
      "Ġve h",
      "Ġsex ual",
      "Ġwait ing",
      "I D",
      "ĠPar is",
      "Ġext reme",
      "Ġch oice",
      "Ġp aid",
      "Ġcond itions",
      "Ġc aught",
      "Ġget s",
      "anc y",
      "int on",
      "or ks",
      "C on",
      "Ġu lt",
      "or g",
      "ch an",
      "ĠT HE",
      "Ġhelp ed",
      "ĠB en",
      "u ing",
      "ĠOb ama",
      "Ġcurrent ly",
      "Wh y",
      "Ġmed ical",
      "Ġestab lished",
      "us ing",
      "ol f",
      "Ġteam s",
      "Ġstand ing",
      "Ġsh ut",
      "Ġgrow ing",
      "Ġst ore",
      "ut y",
      "Ġp un",
      "Ġvict im",
      "Ġcit iz",
      "ĠSe e",
      "Ġst uff",
      "Ġmar ried",
      "Ġdis e",
      "on a",
      "n ow",
      "Ġb rief",
      "Ġm o",
      "Ġph ilos",
      "ĠUn ion",
      "Ä ģ",
      "ĠM il",
      "Ġs pl",
      "ĠGerman y",
      "Ġsc reen",
      "Ġimpro ve",
      "l ict",
      "ber t",
      "Ġrem ains",
      "it ness",
      "Ġeas ily",
      "Ġcoun ter",
      "Ġun s",
      "ol es",
      "Ġpre m",
      "h ouse",
      "Ġatt ract",
      "Ġter ror",
      "en ge",
      "Ġ `",
      "v is",
      "Ã º",
      "ast e",
      "ĠY our",
      "Ġphys ical",
      "9 9",
      "Ġrem ained",
      "ĠGo vern",
      "Ġy es",
      "Ġgrow th",
      "Ġoff ered",
      "ĠFr ank",
      "ĠM id",
      "O M",
      "E L",
      "ĠAd d",
      "Ġfor ced",
      "Ġl i",
      "Ġarri ved",
      "Ġsp oke",
      "or row",
      "Ġd ate",
      "ĠT imes",
      "Ġproper ty",
      "Ġth us",
      "Ġrul es",
      "stit ute",
      "ĠT ra",
      "ĠPh il",
      "ar ning",
      "ian ce",
      "ĠG reen",
      "Ġspe ed",
      "Ġp urch",
      "Ġc ru",
      "Ġdes pite",
      "Ġg od",
      "S e",
      "ĠCol lege",
      ". **",
      "ĠÐ ¾",
      "ch ange",
      "v an",
      "Ġevent ually",
      "Ġar my",
      "ãĥ ³",
      "he st",
      "Ġdesign ed",
      "ent h",
      "Ġsk in",
      "ĠTr ans",
      "Ġtrans l",
      "c ious",
      "ĠM ond",
      "bo ard",
      "Ġbelie ved",
      "Ġn or",
      "Ġcl ot",
      "ce ll",
      "E T",
      "Ġse ction",
      "Î »",
      "ol a",
      "Ġde fe",
      "Ġreport s",
      "Ġf le",
      "ĠK ore",
      "Ġsp ok",
      "Ġjo ined",
      "Ġsur round",
      "iv ity",
      "Ġsh own",
      "re nd",
      "Ġdist rib",
      "j ust",
      "en a",
      "ot o",
      "Ġfin ished",
      "Ġcele br",
      "Ġ {",
      "Ï ħ",
      "Ġfor t",
      "Ġlearn ed",
      "Ñ ħ",
      "oc ks",
      "Ġgu y",
      "ĠL aw",
      "Ġar r",
      "Ġqu ality",
      "Ġinte llig"
    ]
  }
}